<unk>	0
<s>	0
</s>	0
oo	-0
ii	-1
ee	-2
▁n	-3
▁h	-4
ih	-5
ei	-6
no	-7
oh	-8
ni	-9
noo	-10
uu	-11
nee	-12
ne	-13
iit	-14
uh	-15
▁hee	-16
▁ne	-17
▁nih	-18
nii	-19
▁he	-20
▁N	-21
▁hi	-22
woo	-23
ou	-24
he	-25
be	-26
▁nuh	-27
▁t	-28
▁nii	-29
wo	-30
▁H	-31
ce	-32
▁nuhu	-33
eih	-34
oot	-35
▁heet	-36
oow	-37
bee	-38
▁'	-39
hi	-40
to	-41
tii	-42
nei	-43
sii	-44
▁c	-45
bii	-46
ko	-47
too	-48
▁noh	-49
nih	-50
si	-51
▁hii	-52
koo	-53
ohei	-54
tee	-55
ho	-56
▁ho	-57
▁W	-58
▁nee	-59
▁y	-60
▁woo	-61
xo	-62
bi	-63
ti	-64
▁wo	-65
eihi	-66
▁be	-67
yoo	-68
yei	-69
te	-70
see	-71
▁nehe	-72
ea	-73
hu	-74
▁Noh	-75
in	-76
nou	-77
▁w	-78
cii	-79
▁noo	-80
▁nenee	-81
se	-82
tiit	-83
▁hoo	-84
eah	-85
wuu	-86
oowuu	-87
oho	-88
eet	-89
▁no	-90
ihi	-91
sei	-92
iito	-93
soo	-94
iini	-95
noh	-96
you	-97
▁Ne	-98
▁bee	-99
▁toh	-100
▁yeah	-101
eh	-102
▁ce	-103
so	-104
▁hini	-105
▁huu	-106
▁wohei	-107
ino	-108
▁B	-109
xoo	-110
▁hinee	-111
wu	-112
bei	-113
kuu	-114
oowu	-115
▁Wohei	-116
uuno	-117
▁Nih	-118
▁3	-119
▁tih	-120
cih	-121
▁koo	-122
niini	-123
ku	-124
▁wootii	-125
▁cee	-126
nono	-127
cee	-128
iihi	-129
hoo	-130
coo	-131
co	-132
niis	-133
▁Nii	-134
oe	-135
▁T	-136
beet	-137
▁He	-138
▁neneeni	-139
▁uh	-140
niihi	-141
ooni	-142
siini	-143
ci	-144
niit	-145
einoo	-146
tou	-147
eihii	-148
hehe	-149
koohu	-150
koh	-151
uhu	-152
nen	-153
on	-154
eino	-155
nhehe	-156
▁C	-157
oon	-158
ooto	-159
ihce	-160
eenei	-161
xeihi	-162
▁Heet	-163
▁hinono	-164
▁niiyou	-165
ihoo	-166
▁nei	-167
en	-168
xuu	-169
eeno	-170
siihi	-171
oowuuni	-172
towuu	-173
iis	-174
▁woow	-175
▁bii	-176
▁hei	-177
▁b	-178
ini	-179
oono	-180
▁Hee	-181
noot	-182
▁k	-183
xu	-184
▁heenei	-185
nitee	-186
woonhehe	-187
yo	-188
▁ni	-189
eene	-190
ihii	-191
ke	-192
▁beh	-193
▁A	-194
nihii	-195
ebii	-196
ees	-197
toot	-198
noono	-199
▁niine	-200
▁K	-201
eec	-202
▁nooxeihi	-203
▁neih	-204
▁nihii	-205
neihi	-206
eb	-207
beh	-208
▁huut	-209
neyei	-210
tiino	-211
▁uhh	-212
it	-213
ot	-214
etiit	-215
▁Hii	-216
▁hiiwoonhehe	-217
nooho	-218
eit	-219
▁ko	-220
itoo	-221
kon	-222
▁Y	-223
hek	-224
▁heetnii	-225
iite	-226
ootii	-227
▁Nuhu	-228
▁hoh	-229
▁a	-230
▁you	-231
tei	-232
sonoo	-233
niito	-234
▁cih	-235
ninoo	-236
owoo	-237
ono	-238
sou	-239
usee	-240
iino	-241
eti	-242
▁toon	-243
▁hih	-244
▁hiih	-245
▁tohuu	-246
nenitee	-247
▁heetih	-248
▁howoo	-249
ha	-250
▁hiit	-251
nin	-252
▁ci	-253
woe	-254
cei	-255
▁Hi	-256
▁tei	-257
neih	-258
een	-259
now	-260
▁the	-261
eehek	-262
▁niit	-263
▁S	-264
▁cii	-265
hei	-266
▁Koo	-267
▁neenei	-268
owo	-269
eecxo	-270
uhuu	-271
ehei	-272
neet	-273
ihcebe	-274
▁Wo	-275
ow	-276
inoo	-277
▁Noo	-278
es	-279
eihit	-280
▁hinen	-281
▁hinii	-282
▁heetne	-283
▁bi	-284
▁to	-285
eihoho	-286
▁henee	-287
yeih	-288
▁uhm	-289
heet	-290
▁hoowuuni	-291
▁Wootii	-292
eenee	-293
eesoo	-294
▁hoow	-295
▁heetnee	-296
et	-297
▁hisei	-298
▁niis	-299
oonoo	-300
ay	-301
hii	-302
▁know	-303
ouu	-304
▁ceese	-305
▁s	-306
sinihii	-307
bih	-308
etii	-309
yoonoh	-310
hat	-311
▁het	-312
ehi	-313
▁heeyo	-314
stoo	-315
nit	-316
ooho	-317
▁wonoo	-318
neti	-319
▁honoh	-320
▁Nenee	-321
ecoo	-322
ohoe	-323
er	-324
▁teecxo	-325
▁o	-326
▁nono	-327
iiP	-328
woot	-329
neh	-330
▁wox	-331
niisi	-332
▁"	-333
won	-334
an	-335
▁kookon	-336
me	-337
nino	-338
re	-339
▁tou	-340
▁Bee	-341
▁Nee	-342
niii	-343
nouu	-344
▁sii	-345
eitiit	-346
▁heeyouhuu	-347
▁beebeet	-348
▁heenee	-349
eihiiho	-350
hooto	-351
▁J	-352
toono	-353
▁neyei	-354
seet	-355
▁bei	-356
hoox	-357
onoo	-358
besii	-359
koohut	-360
▁Woow	-361
us	-362
eeneti	-363
inou	-364
wooh	-365
▁I	-366
▁heenoo	-367
is	-368
kou	-369
kohei	-370
▁huutiino	-371
▁co	-372
▁that	-373
▁neneenit	-374
iine	-375
hee	-376
koni	-377
beihi	-378
heihoo	-379
toonoo	-380
▁heetP	-381
▁tee	-382
niitehei	-383
uuhu	-384
inowoo	-385
▁Nehe	-386
▁hoowu	-387
nP	-388
boo	-389
sP	-390
▁niiP	-391
cesi	-392
tiini	-393
▁Yeah	-394
iisiini	-395
ootiini	-396
▁d	-397
kecii	-398
mm	-399
behe	-400
ut	-401
seenoo	-402
niisih	-403
ook	-404
uni	-405
hoot	-406
isiihi	-407
▁niito	-408
neeno	-409
neinoo	-410
towoo	-411
ll	-412
soho	-413
nihiit	-414
ar	-415
▁hoot	-416
▁te	-417
betee	-418
owu	-419
ookuu	-420
huu	-421
▁neh	-422
tebih	-423
▁g	-424
woh	-425
▁nook	-426
▁m	-427
ein	-428
▁neneenin	-429
▁neneeninoo	-430
▁betee	-431
':	-432
▁Howoo	-433
ceh	-434
eii	-435
bis	-436
▁xo	-437
tonou	-438
heh	-439
siine	-440
▁woxhoox	-441
neen	-442
tiitooni	-443
ok	-444
▁Hoo	-445
▁hoono	-446
boot	-447
ciine	-448
na	-449
nd	-450
▁hu	-451
▁heih	-452
▁hees	-453
▁biito	-454
seino	-455
xoh	-456
niihe	-457
tto	-458
ciit	-459
▁M	-460
▁l	-461
▁Huu	-462
▁hiihoow	-463
▁nenitee	-464
hh	-465
neihii	-466
▁so	-467
▁Hihcebe	-468
ite	-469
▁cei	-470
▁heetniini	-471
ec	-472
▁heh	-473
iitooni	-474
eheihoo	-475
oohok	-476
▁hihcebe	-477
wuno	-478
ooku	-479
▁heeyou	-480
yih	-481
▁noono	-482
einiihi	-483
▁betebih	-484
▁neisonoo	-485
neniteeno	-486
ihno	-487
seih	-488
ihoowoe	-489
▁heeheh	-490
un	-491
xoohoo	-492
as	-493
beih	-494
nihi	-495
oowo	-496
nenno	-497
tooni	-498
oxo	-499
owuu	-500
▁benee	-501
▁heetce	-502
sinihiit	-503
▁nebesii	-504
iitiino	-505
▁nihP	-506
▁Nooxeihi	-507
ohou	-508
▁Kookon	-509
▁neihoow	-510
▁hiine	-511
▁niino	-512
oku	-513
sih	-514
koot	-515
'3	-516
or	-517
▁(	-518
ebi	-519
neenoo	-520
iyoo	-521
▁howoh	-522
▁nenii	-523
iitou	-524
▁Neih	-525
▁heetnoo	-526
neit	-527
▁Hinee	-528
▁heehehk	-529
yeiti	-530
enee	-531
woono	-532
oowuuhu	-533
▁neeyou	-534
kokoh	-535
teene	-536
al	-537
▁f	-538
▁neecee	-539
▁henii	-540
ooo	-541
▁heetno	-542
▁neihoowoe	-543
hmm	-544
ntoo	-545
▁Toh	-546
▁coo	-547
neenei	-548
▁beenhehe	-549
nowoo	-550
name	-551
yooho	-552
neihit	-553
cxoo	-554
ihcih	-555
▁Niiyou	-556
▁it	-557
eihok	-558
wunee	-559
tiinoo	-560
▁Ho	-561
teen	-562
tonih	-563
▁nihnee	-564
hoe	-565
▁No	-566
▁heebeh	-567
cehi	-568
yihoo	-569
▁niini	-570
▁bisiihi	-571
nowuu	-572
▁hiiko	-573
▁nihno	-574
id	-575
oowuni	-576
iiteihi	-577
cebii	-578
useet	-579
ciini	-580
▁hiinoo	-581
▁noosou	-582
▁woxhooxebii	-583
eiht	-584
beihii	-585
▁honoot	-586
siii	-587
ohkoni	-588
oni	-589
kohu	-590
iitono	-591
▁p	-592
beti	-593
▁nec	-594
▁heetoh	-595
tox	-596
noku	-597
eni	-598
binoo	-599
iinoo	-600
eiti	-601
▁say	-602
▁Henee	-603
▁beeheet	-604
ck	-605
hok	-606
ceno	-607
neyoo	-608
ootee	-609
eestoo	-610
▁neinoo	-611
▁niiboot	-612
▁Cee	-613
eesih	-614
inowuu	-615
kuuhu	-616
▁woxu	-617
▁tous	-618
▁Hini	-619
eihehi	-620
▁niihe	-621
▁hoowoe	-622
seh	-623
ver	-624
iisi	-625
▁niisi	-626
▁hinenitee	-627
▁neneeninee	-628
▁too	-629
onook	-630
▁hite	-631
tootiini	-632
ihP	-633
oox	-634
xouu	-635
▁Nei	-636
▁hiwo	-637
▁hohou	-638
▁xonou	-639
▁wookecii	-640
▁G	-641
oeh	-642
wou	-643
eini	-644
cxooyei	-645
▁heetni	-646
▁nihcih	-647
▁behiihi	-648
▁Hoowuuni	-649
beit	-650
cebi	-651
▁Hei	-652
yoono	-653
ra	-654
▁D	-655
inono	-656
▁neene	-657
bebii	-658
oteihi	-659
teenoo	-660
▁beebei	-661
▁niibee	-662
woho	-663
oniini	-664
▁niico	-665
uho	-666
niih	-667
neeni	-668
▁nihi	-669
ebiihi	-670
▁Be	-671
iitoo	-672
woowo	-673
▁betebihoho	-674
teh	-675
iinii	-676
uusoho	-677
▁heebe	-678
▁nihco	-679
▁ahh	-680
▁Huut	-681
ri	-682
ing	-683
▁Ce	-684
▁houu	-685
▁they	-686
▁ciibeh	-687
hootowoo	-688
ehk	-689
iin	-690
ito	-691
kuutii	-692
▁niibeet	-693
towuunoot	-694
▁heisonoo	-695
ooti	-696
neino	-697
neihiinoo	-698
▁neniteeno	-699
▁hiniisonoo	-700
biibi	-701
▁heene	-702
ld	-703
isi	-704
▁oh	-705
▁heen	-706
▁nonoo	-707
▁Beebeet	-708
▁hiseino	-709
cesis	-710
▁hoox	-711
▁teebe	-712
koohunoo	-713
iho	-714
nowu	-715
seeno	-716
woohu	-717
xuute	-718
▁cenih	-719
hin	-720
uxo	-721
▁Hiiko	-722
eesiini	-723
▁hoowooh	-724
▁nebesiibehe	-725
oowP	-726
entoo	-727
▁beniii	-728
eihiinoo	-729
▁heetniis	-730
ceb	-731
enou	-732
nenii	-733
ebiini	-734
▁niixoo	-735
ehii	-736
beeno	-737
soono	-738
beinoo	-739
▁hoseino	-740
▁bih	-741
kohto	-742
toonee	-743
towuune	-744
▁hiisii	-745
▁hoonoo	-746
▁hiisoho	-747
xou	-748
tono	-749
niine	-750
▁ciit	-751
▁hito	-752
eihini	-753
▁heetwo	-754
niitowoo	-755
▁yeheihoo	-756
ter	-757
ecoonoo	-758
▁niicii	-759
gh	-760
▁P	-761
▁toonheet	-762
le	-763
nehe	-764
kusei	-765
onohoe	-766
iih	-767
ine	-768
siite	-769
▁hinit	-770
ous	-771
eesi	-772
iice	-773
soni	-774
eihino	-775
etiino	-776
koohuu	-777
niinii	-778
▁nihbii	-779
▁heetniit	-780
ad	-781
▁li	-782
ihcii	-783
ihnoo	-784
yoonii	-785
▁nihce	-786
koohuno	-787
▁heihii	-788
▁Hiiwoonhehe	-789
iisih	-790
▁Hohou	-791
▁hihii	-792
▁Yeheihoo	-793
▁wonooniii	-794
▁R	-795
ceece	-796
ihnee	-797
innit	-798
kooko	-799
ousoo	-800
einoon	-801
▁Heetne	-802
cxooyeiniihi	-803
▁of	-804
▁se	-805
yeit	-806
oowoe	-807
ihcehi	-808
▁toonh	-809
niistii	-810
etiitooni	-811
▁one	-812
ootou	-813
▁biibi	-814
▁U	-815
iiti	-816
oehi	-817
▁bees	-818
▁Teecxo	-819
▁hiseih	-820
\{	-821
\}	-822
wuuhu	-823
▁neito	-824
▁niibi	-825
▁neisii	-826
▁Neneeninoo	-827
▁F	-828
eiP	-829
kee	-830
inee	-831
neenee	-832
▁nookuho	-833
▁nohkuuhu	-834
cou	-835
eno	-836
her	-837
▁Tih	-838
yeino	-839
▁Hoono	-840
▁hookoh	-841
▁heetbii	-842
iicxooyeiniihi	-843
bino	-844
eyoo	-845
onou	-846
ecoot	-847
ihbee	-848
▁Toon	-849
▁hono	-850
▁nihbi	-851
iisiite	-852
noohobee	-853
itee	-854
iwoo	-855
oobei	-856
wohei	-857
▁Hiih	-858
betiit	-859
▁benii	-860
▁Heeyou	-861
sinihiinoo	-862
▁hoowP	-863
▁ye	-864
▁and	-865
ciite	-866
▁hotii	-867
▁Heetnii	-868
▁hiikoot	-869
sine	-870
xohei	-871
beteee	-872
ciitei	-873
▁cenee	-874
▁niinii	-875
▁sosoni	-876
xe	-877
▁u	-878
tooo	-879
eihoo	-880
nosou	-881
niiteh	-882
▁cenii	-883
▁there	-884
▁hiwoxuu	-885
ohu	-886
ote	-887
hoho	-888
xono	-889
▁kee	-890
tooto	-891
▁ceece	-892
▁woowo	-893
▁nihnoo	-894
▁niinoo	-895
noohowoo	-896
▁hiniisonoon	-897
and	-898
yii	-899
coon	-900
heti	-901
onee	-902
▁was	-903
eihin	-904
ihbii	-905
iicii	-906
▁like	-907
▁noto	-908
▁nihwo	-909
\'	-910
ihe	-911
▁in	-912
▁boo	-913
cihce	-914
notto	-915
▁niih	-916
▁hitei	-917
▁wooce	-918
uukohei	-919
▁heetou	-920
▁niibootno	-921
oto	-922
wun	-923
toos	-924
kotii	-925
sitee	-926
▁hinenno	-927
▁neeneis	-928
ght	-929
out	-930
einee	-931
iitei	-932
▁cesi	-933
▁koox	-934
▁bebii	-935
▁hiniin	-936
▁hohoot	-937
▁siisii	-938
neeniini	-939
▁hoowuni	-940
tP	-941
his	-942
beex	-943
▁koh	-944
▁yii	-945
neeto	-946
▁hine	-947
▁tece	-948
kuseic	-949
▁hoowuu	-950
os	-951
bin	-952
eeP	-953
eek	-954
uno	-955
cowo	-956
koxo	-957
sowo	-958
▁Bii	-959
▁see	-960
wuuno	-961
▁nouu	-962
eibehe	-963
cis	-964
▁sa	-965
ihit	-966
neeP	-967
ihnii	-968
iisoo	-969
▁heni	-970
uhcehi	-971
▁nihnii	-972
seihoowu	-973
teenetiitooni	-974
ox	-975
eeni	-976
iiwo	-977
▁Jes	-978
hoono	-979
iitnei	-980
neecee	-981
▁Niine	-982
iiheihoo	-983
▁Hih	-984
iibii	-985
konoo	-986
sooni	-987
keciih	-988
▁Jesus	-989
▁wohoe	-990
hohkoni	-991
noohowo	-992
▁heetee	-993
▁nohuusoho	-994
at	-995
teno	-996
▁Tee	-997
iicih	-998
▁Tous	-999
nentoo	-1000
▁woxuu	-1001
eihinoo	-1002
▁Heenoo	-1003
▁tohuuP	-1004
hen	-1005
one	-1006
yoh	-1007
heih	-1008
iitP	-1009
kuhu	-1010
tiin	-1011
bixoo	-1012
coono	-1013
neini	-1014
▁cese	-1015
eeneis	-1016
ehiiho	-1017
inihii	-1018
▁niibii	-1019
▁xonouu	-1020
▁heetcih	-1021
▁hoseihoowu	-1022
▁heeyouhuuho	-1023
▁beeheeteihit	-1024
am	-1025
onoh	-1026
seti	-1027
teeno	-1028
▁howo	-1029
itoono	-1030
eestoot	-1031
▁niinee	-1032
niihiihi	-1033
▁ciitoowuu	-1034
own	-1035
ebno	-1036
hing	-1037
eisee	-1038
ootei	-1039
ooninoo	-1040
▁Heetih	-1041
ve	-1042
nec	-1043
enoo	-1044
▁And	-1045
▁kou	-1046
ciino	-1047
kuuto	-1048
ninee	-1049
tiine	-1050
▁hitoo	-1051
oteihit	-1052
ouyeiti	-1053
▁niicih	-1054
▁beniiinenno	-1055
▁heisonoonin	-1056
hm	-1057
iy	-1058
uhe	-1059
▁is	-1060
nini	-1061
▁yoo	-1062
▁hece	-1063
eentou	-1064
niihen	-1065
▁heesi	-1066
▁ceesey	-1067
ear	-1068
▁Cii	-1069
▁The	-1070
▁hot	-1071
iinee	-1072
▁Hiit	-1073
▁said	-1074
beihit	-1075
neihoow	-1076
yeitiit	-1077
▁niisih	-1078
▁ceenoku	-1079
▁hiinoon	-1080
▁niiheyoo	-1081
▁nohkuseic	-1082
bo	-1083
onP	-1084
▁on	-1085
eiho	-1086
iisP	-1087
inon	-1088
owoh	-1089
▁Cih	-1090
▁hmm	-1091
▁ceee	-1092
▁this	-1093
▁nosou	-1094
yoonehe	-1095
▁niibei	-1096
towuunee	-1097
iisinihii	-1098
▁hiniiteh	-1099
▁neeceeno	-1100
ch	-1101
il	-1102
bes	-1103
kox	-1104
kuy	-1105
▁my	-1106
bisi	-1107
hootou	-1108
noohoo	-1109
▁heete	-1110
▁hiisi	-1111
cebiihi	-1112
owouuno	-1113
▁heneecee	-1114
▁woowuuno	-1115
wot	-1116
onii	-1117
itoot	-1118
neene	-1119
▁yein	-1120
beenoo	-1121
▁beexo	-1122
ceenoku	-1123
kuutiit	-1124
useenoo	-1125
▁hiihoo	-1126
towuuneinoo	-1127
bene	-1128
eboo	-1129
iixo	-1130
biihi	-1131
hiiho	-1132
yohou	-1133
▁Nono	-1134
bebiis	-1135
kooyei	-1136
noohooto	-1137
▁neneenini	-1138
▁heetneenei	-1139
▁r	-1140
esoo	-1141
nohk	-1142
uuni	-1143
▁som	-1144
iisii	-1145
notii	-1146
▁bexo	-1147
▁neet	-1148
hoosei	-1149
▁hiiwo	-1150
▁kooko	-1151
▁Heihii	-1152
▁hiyeih	-1153
▁toonhee	-1154
eeneisiini	-1155
▁To	-1156
inii	-1157
▁bis	-1158
beino	-1159
oobee	-1160
wuuni	-1161
▁niice	-1162
▁nooho	-1163
noohobe	-1164
▁hoonii	-1165
▁neixoo	-1166
niisiini	-1167
▁hiniisih	-1168
oy	-1169
all	-1170
kay	-1171
oee	-1172
usi	-1173
nehk	-1174
oobe	-1175
hcehi	-1176
oteih	-1177
xooto	-1178
niitoo	-1179
▁koohe	-1180
▁nehei	-1181
▁nonii	-1182
▁nooku	-1183
▁heinoo	-1184
▁hiisiis	-1185
▁heetniiP	-1186
▁hineniteeno	-1187
▁hineniteeniit	-1188
rd	-1189
cie	-1190
hou	-1191
wuh	-1192
ooke	-1193
sihi	-1194
wuni	-1195
entou	-1196
neiht	-1197
xuuni	-1198
yooni	-1199
ceecei	-1200
inonoo	-1201
useeno	-1202
neeneti	-1203
neihino	-1204
▁totoos	-1205
▁heetneh	-1206
▁hiiteen	-1207
eesinihii	-1208
iitooninoo	-1209
ge	-1210
ie	-1211
ack	-1212
ust	-1213
eici	-1214
ihei	-1215
oone	-1216
seen	-1217
tone	-1218
wooho	-1219
xohoe	-1220
beebee	-1221
eentoo	-1222
▁Wonoo	-1223
▁hibii	-1224
▁nooke	-1225
niistoo	-1226
▁Hinono	-1227
ihoowooh	-1228
neeniihi	-1229
▁tecenoo	-1230
▁teesiihi	-1231
▁hiseihihi	-1232
-'	-1233
cen	-1234
oxu	-1235
sie	-1236
uus	-1237
▁we	-1238
toxu	-1239
unoo	-1240
▁Nuh	-1241
eiino	-1242
nooke	-1243
uuhut	-1244
uunoo	-1245
beetoh	-1246
oehihi	-1247
teenii	-1248
▁tohno	-1249
eboosei	-1250
kohtowu	-1251
ninouhu	-1252
▁neiteh	-1253
▁koxuute	-1254
▁hoonoyoo	-1255
pa	-1256
sin	-1257
▁me	-1258
cooo	-1259
hiit	-1260
iico	-1261
inow	-1262
▁ceb	-1263
biyoo	-1264
eetou	-1265
▁toot	-1266
niibei	-1267
▁honoo	-1268
▁hosei	-1269
woniini	-1270
▁ceexoo	-1271
ill	-1272
use	-1273
ihko	-1274
xoho	-1275
yoot	-1276
▁xoo	-1277
eenoo	-1278
seeni	-1279
netino	-1280
▁niitP	-1281
▁yehei	-1282
▁neyeih	-1283
▁heetwon	-1284
▁notonih	-1285
▁hiisiihi	-1286
▁nookhoosei	-1287
io	-1288
ebee	-1289
ooxu	-1290
xoot	-1291
▁Mar	-1292
▁Sii	-1293
beebe	-1294
ihcee	-1295
ihino	-1296
toone	-1297
▁NiiP	-1298
▁what	-1299
biibii	-1300
tokohu	-1301
▁Neene	-1302
▁Tohuu	-1303
▁betoo	-1304
▁huune	-1305
teeniit	-1306
▁toonhei	-1307
▁yeneini	-1308
noohowoot	-1309
xowu	-1310
xuut	-1311
beeto	-1312
kohut	-1313
▁tohP	-1314
xootee	-1315
▁hunee	-1316
einiini	-1317
▁beteen	-1318
▁heentou	-1319
▁nookeih	-1320
▁niitehei	-1321
teenetiitoonin	-1322
'.	-1323
▁Ko	-1324
cebe	-1325
ciis	-1326
okut	-1327
ouwo	-1328
teet	-1329
tino	-1330
▁Yeh	-1331
▁ceh	-1332
ciihi	-1333
iitii	-1334
teexo	-1335
wohoe	-1336
▁Heih	-1337
▁beni	-1338
▁cebi	-1339
▁hete	-1340
▁nees	-1341
neyooo	-1342
oniihi	-1343
seinee	-1344
▁Niito	-1345
towuuno	-1346
▁niitoh	-1347
niistiit	-1348
xootiini	-1349
▁heenees	-1350
▁hehniis	-1351
▁Neneenit	-1352
▁neisiihoho	-1353
▁hiihoowuuni	-1354
▁hinenteeniit	-1355
hr	-1356
ir	-1357
cec	-1358
esi	-1359
ohn	-1360
iiko	-1361
koho	-1362
niiP	-1363
okuu	-1364
rapa	-1365
beetP	-1366
ebine	-1367
eetox	-1368
hinoo	-1369
nooni	-1370
onoho	-1371
wotei	-1372
▁John	-1373
ihinoo	-1374
iiteco	-1375
▁Arapa	-1376
▁touku	-1377
inowuno	-1378
▁cihnee	-1379
▁nihcii	-1380
iixoohoo	-1381
▁Heetnee	-1382
▁heetnei	-1383
beihiinoo	-1384
eeckoohut	-1385
eeneistoo	-1386
▁Neihoowoe	-1387
iise	-1388
uhut	-1389
▁Ahh	-1390
ookoo	-1391
▁beex	-1392
oobein	-1393
oowoto	-1394
iisiine	-1395
▁Noosou	-1396
▁heesoo	-1397
▁nihwoo	-1398
towuunei	-1399
▁heeneti	-1400
▁heentoo	-1401
▁neniisi	-1402
▁noonoko	-1403
▁Nohuusoho	-1404
▁heetneyei	-1405
kuh	-1406
soh	-1407
eesP	-1408
seit	-1409
uute	-1410
yoti	-1411
▁don	-1412
▁how	-1413
▁wot	-1414
cihno	-1415
huuho	-1416
oesei	-1417
ohwoo	-1418
ookee	-1419
iistoo	-1420
noonoo	-1421
▁Noono	-1422
ouniihi	-1423
▁Ciibeh	-1424
▁Hiikoot	-1425
▁hiniito	-1426
onookeeno	-1427
▁niinoono	-1428
niiteheibe	-1429
sinihiitoon	-1430
▁wonooneihi	-1431
eso	-1432
▁Co	-1433
kuut	-1434
▁You	-1435
▁his	-1436
▁nis	-1437
iskuu	-1438
ouute	-1439
tobee	-1440
▁hoto	-1441
ehinoo	-1442
koohun	-1443
neyeih	-1444
niicii	-1445
oninoo	-1446
▁henei	-1447
▁hotoo	-1448
▁niiwo	-1449
ooxohoe	-1450
▁beneet	-1451
▁neisie	-1452
▁tohnee	-1453
beihiiho	-1454
inowunee	-1455
teenoowu	-1456
▁niineyei	-1457
ff	-1458
im	-1459
ry	-1460
▁ri	-1461
▁up	-1462
iyei	-1463
ohno	-1464
otee	-1465
teco	-1466
touu	-1467
uxoh	-1468
woow	-1469
▁Hoh	-1470
▁won	-1471
eiyoo	-1472
oowuh	-1473
siino	-1474
▁keih	-1475
▁nowo	-1476
ookuut	-1477
▁Ceese	-1478
▁HeetP	-1479
▁Nihii	-1480
▁hetei	-1481
▁kookou	-1482
▁nohtou	-1483
▁betooot	-1484
▁niiinon	-1485
neihiinou	-1486
▁noowuuhu	-1487
▁yiisiihi	-1488
▁hiihoowuu	-1489
um	-1490
▁e	-1491
ent	-1492
bout	-1493
cees	-1494
ohut	-1495
onei	-1496
yoox	-1497
▁bes	-1498
ehiho	-1499
einou	-1500
iiwoo	-1501
inone	-1502
oehih	-1503
teesi	-1504
xotii	-1505
▁heso	-1506
heihii	-1507
yihoot	-1508
▁Heenei	-1509
▁neeseh	-1510
▁niinih	-1511
oonoyooho	-1512
teenetiit	-1513
▁Neisonoo	-1514
▁heniisih	-1515
▁hiihoowu	-1516
eeneetowoo	-1517
ro	-1518
ene	-1519
ise	-1520
▁Ni	-1521
▁So	-1522
▁St	-1523
▁or	-1524
ceni	-1525
ntou	-1526
oxuu	-1527
tini	-1528
yono	-1529
▁yeh	-1530
beete	-1531
other	-1532
siise	-1533
xuwuu	-1534
▁cihP	-1535
▁kooP	-1536
▁kooh	-1537
iisiii	-1538
nentou	-1539
ousoon	-1540
▁Niico	-1541
▁bixoo	-1542
▁kokoh	-1543
koohuni	-1544
sinenoo	-1545
toustoo	-1546
▁biikoo	-1547
▁heniis	-1548
▁neniis	-1549
beihinoo	-1550
eenetiit	-1551
neihinoo	-1552
niitobee	-1553
▁Arapaho	-1554
▁niisiini	-1555
▁heesiitou	-1556
ed	-1557
em	-1558
ame	-1559
man	-1560
ood	-1561
▁do	-1562
▁si	-1563
otoo	-1564
▁boh	-1565
▁cec	-1566
▁for	-1567
biito	-1568
eibee	-1569
nenee	-1570
oowoo	-1571
yeihi	-1572
▁here	-1573
▁heti	-1574
iyihoo	-1575
kooxuu	-1576
oownee	-1577
tiitii	-1578
▁about	-1579
▁hiito	-1580
▁hotei	-1581
▁niiso	-1582
▁toonP	-1583
beihino	-1584
eininoo	-1585
einotii	-1586
ootowoo	-1587
▁Nihcih	-1588
▁hiitou	-1589
▁noonoo	-1590
oteihiit	-1591
▁Beenhehe	-1592
▁beeteenoo	-1593
▁heeneisoo	-1594
ic	-1595
bit	-1596
son	-1597
xoe	-1598
▁ha	-1599
nook	-1600
tees	-1601
toon	-1602
uuwo	-1603
▁Beh	-1604
▁Uhm	-1605
▁Wox	-1606
eetee	-1607
iihoo	-1608
iiyoo	-1609
▁They	-1610
▁booo	-1611
▁down	-1612
▁teco	-1613
▁Niini	-1614
▁Teebe	-1615
▁cihce	-1616
▁tohce	-1617
ciineno	-1618
eiyeiti	-1619
iitisee	-1620
onookee	-1621
▁Heetce	-1622
▁Neenei	-1623
▁neiwoo	-1624
▁nihwon	-1625
▁niicee	-1626
▁Neihoow	-1627
▁heeneet	-1628
▁hibesii	-1629
▁hinenin	-1630
▁hitonih	-1631
oohohkoni	-1632
▁heentoot	-1633
cebiseenoo	-1634
▁hooxebine	-1635
▁neneenino	-1636
▁betebihehi	-1637
▁hoowuniihiihi	-1638
st	-1639
sed	-1640
ciiP	-1641
ciin	-1642
iici	-1643
ohuu	-1644
tebi	-1645
ceeco	-1646
ciito	-1647
hiise	-1648
ohwuu	-1649
owoot	-1650
▁hoko	-1651
▁okay	-1652
▁siih	-1653
kotiit	-1654
neihin	-1655
ouutou	-1656
▁Nihco	-1657
▁biino	-1658
▁hiice	-1659
▁niiko	-1660
▁tonou	-1661
▁tooto	-1662
oxoeyoo	-1663
▁ceexoon	-1664
▁huseino	-1665
toootiini	-1666
▁Neneenin	-1667
▁hiniisii	-1668
ihnoohobee	-1669
iisinihiit	-1670
▁neeneistoo	-1671
▁neeneisiini	-1672
▁heetniisiini	-1673
ouh	-1674
▁\'	-1675
ehit	-1676
enii	-1677
hite	-1678
ould	-1679
▁Tei	-1680
▁Uhh	-1681
▁kok	-1682
etiin	-1683
ihnoh	-1684
ihoot	-1685
iitoh	-1686
nousi	-1687
oonee	-1688
ousei	-1689
xonoo	-1690
▁nene	-1691
neenii	-1692
nouute	-1693
▁ceebe	-1694
▁hitee	-1695
▁nihko	-1696
▁niihi	-1697
▁wooho	-1698
ihcehit	-1699
▁Honoot	-1700
▁hetnii	-1701
▁hiicooo	-1702
keciihihi	-1703
▁heesiini	-1704
▁nihnoono	-1705
▁totoonee	-1706
▁heeninouhu	-1707
▁neihoowuni	-1708
rt	-1709
ate	-1710
ell	-1711
ooP	-1712
uut	-1713
xow	-1714
siis	-1715
woon	-1716
woti	-1717
einit	-1718
sooku	-1719
teeni	-1720
tonoo	-1721
xonou	-1722
coocoo	-1723
ething	-1724
ootiin	-1725
▁Nooho	-1726
▁hitou	-1727
▁konoo	-1728
etiinoo	-1729
towuuni	-1730
binouhuu	-1731
eeneisoo	-1732
eenetino	-1733
siikohei	-1734
tonounou	-1735
towuunou	-1736
▁Niibeet	-1737
▁heetbee	-1738
▁hooxono	-1739
▁neniito	-1740
▁neihoowP	-1741
▁niisooto	-1742
▁heesinihii	-1743
▁beeheeteihin	-1744
ah	-1745
▁.	-1746
ard	-1747
ian	-1748
per	-1749
▁Cr	-1750
▁go	-1751
uxoo	-1752
▁Bei	-1753
▁Way	-1754
ebino	-1755
etini	-1756
howoo	-1757
iitee	-1758
iitox	-1759
ntoot	-1760
ookuh	-1761
xonoh	-1762
▁Mary	-1763
▁Toot	-1764
▁nete	-1765
▁noot	-1766
▁tihP	-1767
▁word	-1768
▁your	-1769
eitino	-1770
entoot	-1771
itoone	-1772
niisoo	-1773
nonouh	-1774
oteiht	-1775
seenei	-1776
teehek	-1777
wouuno	-1778
▁Howoh	-1779
▁hetii	-1780
▁nooko	-1781
eenetit	-1782
noohoot	-1783
oeniihi	-1784
uusiini	-1785
▁Neinoo	-1786
▁ceecei	-1787
▁hisein	-1788
▁hooyei	-1789
▁seenoo	-1790
▁ciibeet	-1791
eihohkoni	-1792
▁hineecee	-1793
▁niitooto	-1794
▁Heetniini	-1795
▁heenetiit	-1796
▁heetnoono	-1797
▁something	-1798
yooniibinoo	-1799
-3	-1800
not	-1801
▁at	-1802
ikuu	-1803
souh	-1804
unei	-1805
▁Jer	-1806
▁Joe	-1807
▁but	-1808
▁get	-1809
cowoo	-1810
heyei	-1811
iheit	-1812
iixoo	-1813
konee	-1814
koone	-1815
wotee	-1816
wunoo	-1817
▁That	-1818
▁beet	-1819
▁hibe	-1820
▁hisi	-1821
▁nisi	-1822
▁over	-1823
nehtii	-1824
ookuhe	-1825
uxotii	-1826
yeihii	-1827
▁Hoowu	-1828
▁Wayne	-1829
▁niibe	-1830
▁right	-1831
siiseii	-1832
▁Hoonii	-1833
▁beexoo	-1834
▁ceebeh	-1835
▁heetbi	-1836
▁nihbis	-1837
▁tootou	-1838
yootiini	-1839
▁Hiihoow	-1840
▁heihoow	-1841
▁hetneih	-1842
besiibehe	-1843
eestoonoo	-1844
ouyeitiit	-1845
▁heebiyoo	-1846
eeneesiini	-1847
▁nebesiiwoho	-1848
li	-1849
ake	-1850
ebP	-1851
ist	-1852
koy	-1853
ooh	-1854
sno	-1855
cihP	-1856
ebce	-1857
ihbe	-1858
iyou	-1859
nein	-1860
nsih	-1861
obee	-1862
oyei	-1863
oyoo	-1864
▁Cei	-1865
▁Het	-1866
ehihi	-1867
ehiit	-1868
etino	-1869
iteet	-1870
niitP	-1871
onise	-1872
oowoh	-1873
wonoh	-1874
yeini	-1875
▁koxo	-1876
▁them	-1877
iiwoho	-1878
itooni	-1879
niinoo	-1880
▁netei	-1881
eesiine	-1882
iitonou	-1883
niisihi	-1884
ootiino	-1885
seeneti	-1886
▁Heenee	-1887
▁nihnoh	-1888
▁niibis	-1889
eeckoohu	-1890
onohoeno	-1891
eeneestoo	-1892
▁niiseiht	-1893
eeckoohunoo	-1894
▁hiihoowooh	-1895
▁heeneesiini	-1896
▁hiniisonooninoo	-1897
ur	-1898
▁gu	-1899
▁ti	-1900
biis	-1901
cibe	-1902
ibii	-1903
ihto	-1904
itii	-1905
owou	-1906
sino	-1907
▁Heh	-1908
▁Wot	-1909
▁mea	-1910
▁not	-1911
eekuu	-1912
iseet	-1913
onoot	-1914
owoto	-1915
seene	-1916
tosoo	-1917
▁have	-1918
▁hiiP	-1919
▁then	-1920
ihneen	-1921
tootou	-1922
▁Yehei	-1923
▁nooti	-1924
▁wonoh	-1925
cesisoo	-1926
ciiteit	-1927
ihnoono	-1928
iinoono	-1929
iitowoo	-1930
neniini	-1931
oohooto	-1932
▁heetoo	-1933
eestoono	-1934
hooxebii	-1935
kookokoh	-1936
noohowou	-1937
yihoonoo	-1938
▁heetihce	-1939
▁niitonou	-1940
▁niiwohoe	-1941
itooneinoo	-1942
▁siisiiyei	-1943
eeneixoohoo	-1944
niiteheibei	-1945
▁nebesiiwoo	-1946
sinihiitooni	-1947
ny	-1948
oc	-1949
ete	-1950
eto	-1951
ice	-1952
inP	-1953
red	-1954
▁Bi	-1955
▁br	-1956
booo	-1957
eibe	-1958
sein	-1959
xone	-1960
▁Woo	-1961
▁boy	-1962
▁got	-1963
ebiit	-1964
noote	-1965
ooxuu	-1966
▁Hees	-1967
▁Hoow	-1968
▁cooh	-1969
▁keet	-1970
▁name	-1971
booboo	-1972
cihwon	-1973
ecoono	-1974
eiteen	-1975
hootoo	-1976
iitoxu	-1977
onoono	-1978
ouutei	-1979
▁ciine	-1980
▁heeci	-1981
▁hiini	-1982
▁Heebeh	-1983
▁neehii	-1984
▁neenee	-1985
▁niihoo	-1986
▁niisoo	-1987
▁tohcii	-1988
biiwoohu	-1989
iitoonin	-1990
▁heetoot	-1991
▁hiteixo	-1992
▁neniihe	-1993
▁niicoon	-1994
▁notoone	-1995
oowuniihi	-1996
▁heetneih	-1997
▁hiihoowP	-1998
eeneisiine	-1999
neihoowooh	-2000
▁hiwoxuuhuu	-2001
▁niiciihehe	-2002
▁hibesiiwoho	-2003
▁beesneniteeno	-2004
ly	-2005
ng	-2006
ob	-2007
hih	-2008
lor	-2009
oeP	-2010
our	-2011
▁st	-2012
beso	-2013
choo	-2014
cihi	-2015
ihni	-2016
isee	-2017
koos	-2018
nceb	-2019
noox	-2020
oeno	-2021
onna	-2022
▁Sim	-2023
▁did	-2024
▁him	-2025
chool	-2026
ciixo	-2027
eikuu	-2028
ihbeh	-2029
iisce	-2030
inoot	-2031
oenee	-2032
touse	-2033
xonee	-2034
xowoo	-2035
▁good	-2036
▁hiix	-2037
▁nesi	-2038
▁year	-2039
eenees	-2040
iiteno	-2041
nohkco	-2042
xuuten	-2043
yeinoo	-2044
▁Niino	-2045
▁biine	-2046
▁ciini	-2047
▁heesP	-2048
▁konoh	-2049
▁neeni	-2050
ihniito	-2051
iistoot	-2052
iitoono	-2053
niiseti	-2054
oowunee	-2055
uhcehit	-2056
▁heetko	-2057
▁neebeh	-2058
▁neyeiP	-2059
▁nihbee	-2060
▁niinoh	-2061
entoonoo	-2062
sowobeih	-2063
tiseenoo	-2064
yooniiwo	-2065
▁hitiine	-2066
niiitowoo	-2067
▁heesiine	-2068
▁hiitiino	-2069
▁nosouniihi	-2070
▁heeneisiini	-2071
el	-2072
od	-2073
op	-2074
eco	-2075
ind	-2076
ohk	-2077
ose	-2078
▁Ci	-2079
alem	-2080
heit	-2081
ihbi	-2082
ihee	-2083
oote	-2084
xook	-2085
yein	-2086
▁But	-2087
▁Chr	-2088
▁guy	-2089
▁hit	-2090
▁neP	-2091
▁old	-2092
▁woh	-2093
▁yih	-2094
eesii	-2095
itoon	-2096
onohu	-2097
sinee	-2098
sooho	-2099
xuuus	-2100
▁call	-2101
▁hiis	-2102
▁used	-2103
eeneet	-2104
eenoku	-2105
ihnihi	-2106
iitoon	-2107
neinee	-2108
noonoh	-2109
nouuto	-2110
usalem	-2111
▁Hiiwo	-2112
▁Simon	-2113
▁cesis	-2114
▁gonna	-2115
▁neeso	-2116
▁nihto	-2117
hehinoo	-2118
stoonoo	-2119
tousihi	-2120
xowuuni	-2121
▁Neeyou	-2122
▁beebee	-2123
▁honouu	-2124
▁hooxuu	-2125
▁kooxhe	-2126
▁neeyei	-2127
▁nihcee	-2128
siitenou	-2129
wookecii	-2130
niihenceb	-2131
▁heetiine	-2132
▁niinosou	-2133
▁Jerusalem	-2134
▁heetihcih	-2135
yoohootowoo	-2136
▁hotooneeno	-2137
ookuheiitono	-2138
▁beeheeteihini	-2139
ns	-2140
th	-2141
xP	-2142
day	-2143
nes	-2144
sis	-2145
unP	-2146
▁Br	-2147
▁cl	-2148
ance	-2149
been	-2150
bini	-2151
bise	-2152
eete	-2153
ihou	-2154
nuhu	-2155
oxoo	-2156
uune	-2157
woxu	-2158
▁Too	-2159
▁all	-2160
▁had	-2161
▁kox	-2162
biine	-2163
ceeno	-2164
eihei	-2165
iihok	-2166
kohoe	-2167
kutoo	-2168
noowu	-2169
tinoo	-2170
▁Niis	-2171
▁hino	-2172
ciinee	-2173
eenino	-2174
hookee	-2175
iheihi	-2176
iheino	-2177
iihoot	-2178
nkoohu	-2179
nowuni	-2180
oehiho	-2181
towuno	-2182
xouuwu	-2183
▁Heebe	-2184
▁cihno	-2185
▁hetee	-2186
▁hihce	-2187
▁niiho	-2188
▁niisP	-2189
biixuut	-2190
iheinoo	-2191
itoonoo	-2192
kotiino	-2193
otoonoo	-2194
tonouno	-2195
▁Christ	-2196
▁Hookoh	-2197
▁ceecii	-2198
▁heesih	-2199
▁heeteh	-2200
▁niicoo	-2201
▁tihbii	-2202
▁tihcih	-2203
eiihcehi	-2204
niisonoo	-2205
onookeen	-2206
teeniihi	-2207
wooyeiti	-2208
▁Heetwon	-2209
▁ceneeno	-2210
▁heetihP	-2211
▁hoownee	-2212
▁hotiiwo	-2213
▁nihneyei	-2214
▁heetniite	-2215
▁hitesiino	-2216
▁heetwoniini	-2217
niitowootowoo	-2218
teenetiitooninoo	-2219
if	-2220
rs	-2221
art	-2222
ast	-2223
ibe	-2224
ick	-2225
les	-2226
tow	-2227
uff	-2228
▁gr	-2229
beno	-2230
eetP	-2231
eihe	-2232
eyei	-2233
heel	-2234
ihin	-2235
kohe	-2236
noni	-2237
ohoo	-2238
tous	-2239
▁Ind	-2240
▁way	-2241
boohu	-2242
booto	-2243
einii	-2244
heihi	-2245
ihwoo	-2246
iibee	-2247
iicee	-2248
iicis	-2249
kokuy	-2250
onouu	-2251
teese	-2252
wotto	-2253
woxuu	-2254
xobei	-2255
▁Niit	-2256
▁nohk	-2257
▁touh	-2258
eibeih	-2259
eihoot	-2260
einoot	-2261
eiseet	-2262
iibehe	-2263
iyoono	-2264
kookou	-2265
▁Betee	-2266
▁Creek	-2267
▁Nehei	-2268
▁Nihno	-2269
▁hokoo	-2270
▁tihno	-2271
▁would	-2272
eestoon	-2273
ihnosou	-2274
inihiit	-2275
itootou	-2276
kohunoo	-2277
▁Ceesey	-2278
▁Indian	-2279
▁Niixoo	-2280
▁hiiyoo	-2281
▁koohei	-2282
▁niiwoo	-2283
▁niscih	-2284
▁tohcih	-2285
bisiseet	-2286
tooninoo	-2287
▁Ceenoku	-2288
▁beeteen	-2289
▁cebiihi	-2290
▁heeneis	-2291
▁hootnii	-2292
▁kooheet	-2293
ihnoohoot	-2294
niistiino	-2295
▁Niineyei	-2296
▁hoowuuhu	-2297
▁hooxuwuu	-2298
▁neheicoo	-2299
▁neihoowu	-2300
eibeihiiho	-2301
niistoonoo	-2302
▁beesoowuu	-2303
▁heetbiine	-2304
▁hiixoohoo	-2305
koohuutooni	-2306
aw	-2307
ca	-2308
de	-2309
kut	-2310
nci	-2311
▁Al	-2312
▁wa	-2313
eiso	-2314
eiwo	-2315
hini	-2316
ihci	-2317
iver	-2318
nooP	-2319
nowo	-2320
toni	-2321
▁cen	-2322
▁soo	-2323
cenii	-2324
cooco	-2325
cooti	-2326
eyeih	-2327
hiini	-2328
koxuu	-2329
niisP	-2330
nooku	-2331
onkuu	-2332
▁NihP	-2333
▁hetP	-2334
▁when	-2335
betino	-2336
etiini	-2337
heenei	-2338
ineyoo	-2339
neehei	-2340
xookee	-2341
▁ciino	-2342
▁heces	-2343
▁heito	-2344
▁nenei	-2345
▁wheel	-2346
▁wotei	-2347
einooni	-2348
ihcihno	-2349
ihnihii	-2350
▁bebiis	-2351
▁niitou	-2352
ciinenoo	-2353
hiitooni	-2354
kohtobee	-2355
neeneyei	-2356
niitooni	-2357
▁beteeno	-2358
▁heeyeih	-2359
▁hesitee	-2360
▁hohooti	-2361
▁kooneen	-2362
ciiteinoo	-2363
nouuhcehi	-2364
oteihinoo	-2365
towuuneit	-2366
▁hinenino	-2367
▁hohookee	-2368
▁niiniisi	-2369
▁tohuucii	-2370
▁xooxonou	-2371
cebiihinee	-2372
eesinihiit	-2373
▁hiihoowuni	-2374
▁hoonoyooho	-2375
▁ceneeteenii	-2376
▁ceniixootee	-2377
▁hehniiseihit	-2378
ud	-2379
alk	-2380
esP	-2381
how	-2382
iko	-2383
obe	-2384
tes	-2385
ven	-2386
▁bo	-2387
bisP	-2388
eebe	-2389
ehce	-2390
ning	-2391
very	-2392
▁Bob	-2393
▁day	-2394
▁her	-2395
▁huh	-2396
▁out	-2397
ceihi	-2398
iicoo	-2399
niite	-2400
tenou	-2401
tousi	-2402
yoohu	-2403
▁back	-2404
▁cebe	-2405
▁huni	-2406
▁wono	-2407
biinoo	-2408
ecooto	-2409
ehkoni	-2410
ihoono	-2411
niinit	-2412
oneihi	-2413
oonino	-2414
seekuu	-2415
useeni	-2416
▁White	-2417
▁hebii	-2418
▁koxuu	-2419
bisiito	-2420
siiteno	-2421
xouuwoo	-2422
▁Beebei	-2423
▁betebi	-2424
▁hooxei	-2425
▁koohee	-2426
▁koonee	-2427
▁niihok	-2428
▁niikoo	-2429
▁toonhe	-2430
cesistoo	-2431
eeneesoo	-2432
iitoonoo	-2433
towuunoo	-2434
▁heetcii	-2435
▁niicibe	-2436
▁niinono	-2437
▁woniini	-2438
iinikotii	-2439
niitouuhu	-2440
▁neeneyei	-2441
▁niibeetP	-2442
▁niitowoo	-2443
noohowoono	-2444
ootiininoo	-2445
▁wouukohei	-2446
niiteheiwoo	-2447
ooteibeihii	-2448
eenetiitooni	-2449
▁neteenetiit	-2450
tonouneihiinoo	-2451
ts	-2452
alo	-2453
iht	-2454
oti	-2455
ran	-2456
coot	-2457
eeti	-2458
etee	-2459
ihco	-2460
iiho	-2461
noon	-2462
okun	-2463
utii	-2464
wonP	-2465
wono	-2466
▁Cas	-2467
▁hiP	-2468
cecni	-2469
cisee	-2470
etnii	-2471
ihcei	-2472
ihnei	-2473
iiyoh	-2474
inowu	-2475
iteno	-2476
konii	-2477
kooho	-2478
neebe	-2479
nonih	-2480
oekuu	-2481
tonee	-2482
yooto	-2483
▁Hoot	-2484
▁biih	-2485
▁ceci	-2486
▁koki	-2487
▁neci	-2488
▁neeP	-2489
▁talk	-2490
▁time	-2491
koheit	-2492
neenit	-2493
neetni	-2494
noohok	-2495
ootoxu	-2496
seinoo	-2497
tiihoo	-2498
tiinee	-2499
uffalo	-2500
▁Brown	-2501
▁Honoh	-2502
▁beete	-2503
▁heece	-2504
▁hokok	-2505
▁hoote	-2506
▁nihni	-2507
▁sooxe	-2508
cebisee	-2509
eeneisP	-2510
eihoono	-2511
entoono	-2512
ihkokoh	-2513
oohowoo	-2514
oonotii	-2515
▁Hiitou	-2516
▁hoowoo	-2517
▁noonih	-2518
▁noonoh	-2519
▁tihcii	-2520
biineihi	-2521
eentoono	-2522
teeneihi	-2523
tiininoo	-2524
▁cebitee	-2525
▁heetcee	-2526
▁hetiine	-2527
▁tohuuno	-2528
ebinouhuu	-2529
niisnenii	-2530
noohootou	-2531
▁niiwoowo	-2532
niiciihehe	-2533
niisonooni	-2534
noohobeihi	-2535
▁hoohookee	-2536
▁bebiisiihi	-2537
▁heehehkoni	-2538
▁nihnoohowo	-2539
eeneisinihii	-2540
inoneihiinoo	-2541
▁Nebesiibehe	-2542
▁hiseihiitei	-2543
▁hoonoyoohoo	-2544
niiteheiwoono	-2545
▁heesiitousihi	-2546
ac	-2547
ber	-2548
ces	-2549
huh	-2550
ost	-2551
tep	-2552
tle	-2553
xei	-2554
ceib	-2555
eeci	-2556
eixo	-2557
esii	-2558
etei	-2559
ihek	-2560
ihwo	-2561
iibi	-2562
koto	-2563
ooxe	-2564
ooxo	-2565
seno	-2566
wouu	-2567
▁Bih	-2568
▁Tou	-2569
▁hou	-2570
▁two	-2571
benoo	-2572
eeyoo	-2573
eihio	-2574
einin	-2575
eitit	-2576
iisei	-2577
kohuu	-2578
niiho	-2579
ouuyo	-2580
seiti	-2581
siiis	-2582
tenoo	-2583
uhuno	-2584
▁khoo	-2585
▁koun	-2586
▁nooh	-2587
beesei	-2588
beihin	-2589
ceitoo	-2590
eecxoo	-2591
eiinoo	-2592
esiini	-2593
iisbii	-2594
itesee	-2595
iyooni	-2596
kookon	-2597
neeneh	-2598
teenoc	-2599
▁Benee	-2600
▁cebii	-2601
▁hooko	-2602
▁kohei	-2603
▁niite	-2604
▁noowu	-2605
▁notto	-2606
▁siine	-2607
eiseeno	-2608
ookuuni	-2609
ooxuuno	-2610
yihoono	-2611
▁Heetwo	-2612
▁Kookou	-2613
▁Neixoo	-2614
▁beeyoo	-2615
▁biibii	-2616
▁heetei	-2617
▁hetcih	-2618
▁hoonou	-2619
▁howoto	-2620
▁neihow	-2621
▁woosoo	-2622
eibetiit	-2623
towuunin	-2624
xoheinoo	-2625
▁houunen	-2626
kuutiinoo	-2627
▁Huutiino	-2628
▁beisiihi	-2629
▁beteetox	-2630
▁ceikoohu	-2631
▁hehniisi	-2632
▁howouuno	-2633
▁kookokoh	-2634
▁neiibehe	-2635
▁neniisoo	-2636
▁niiceece	-2637
▁niiyouno	-2638
eestootiin	-2639
niiteheiwo	-2640
▁beniiinen	-2641
▁hiniiboot	-2642
▁niineyeih	-2643
betoootiini	-2644
▁beteeniisi	-2645
▁heihoowuni	-2646
▁woteeniihi	-2647
▁noosouniini	-2648
ooxohoeneeneti	-2649
▁heetebinouhuu	-2650
▁beesoowuunenno	-2651
av	-2652
by	-2653
ul	-2654
ye	-2655
eci	-2656
ess	-2657
kec	-2658
ong	-2659
ore	-2660
ton	-2661
▁Pe	-2662
▁re	-2663
cooh	-2664
ihte	-2665
koox	-2666
niin	-2667
nisi	-2668
noko	-2669
nsee	-2670
wooo	-2671
xuwu	-2672
▁can	-2673
▁hox	-2674
▁she	-2675
▁yei	-2676
beiht	-2677
cenee	-2678
eenet	-2679
eibes	-2680
hoowu	-2681
ihneh	-2682
ihyih	-2683
iiton	-2684
itese	-2685
kuyon	-2686
netit	-2687
nouxo	-2688
ooono	-2689
ounec	-2690
sinih	-2691
sinoo	-2692
tehei	-2693
touku	-2694
toyei	-2695
useen	-2696
uuceh	-2697
▁Andy	-2698
▁Flor	-2699
▁Keih	-2700
▁Nook	-2701
▁ceno	-2702
▁hice	-2703
beetou	-2704
einoni	-2705
heihit	-2706
ineebe	-2707
itoohu	-2708
nootno	-2709
ohoeno	-2710
onohei	-2711
owooni	-2712
xowoot	-2713
▁Niibi	-2714
▁cehee	-2715
▁heeti	-2716
▁hiite	-2717
▁hitii	-2718
▁other	-2719
einiine	-2720
inowuni	-2721
iseenoo	-2722
neentou	-2723
oeniini	-2724
otoonee	-2725
tebihow	-2726
tenowoo	-2727
tiitiit	-2728
uusiihi	-2729
▁Hoowoe	-2730
▁biiino	-2731
▁heesii	-2732
▁henino	-2733
niitonou	-2734
noohobei	-2735
woteikuu	-2736
yoohooto	-2737
▁Beeheet	-2738
▁Hoowooh	-2739
▁koowoow	-2740
▁neneesi	-2741
▁niitouu	-2742
▁seenook	-2743
eiyeitiit	-2744
niiniibei	-2745
uutenowuu	-2746
▁Heetniis	-2747
▁Neheicoo	-2748
▁neniisih	-2749
▁nihniihe	-2750
▁tohnosou	-2751
▁wooniihi	-2752
eeckoohuno	-2753
hetiitooni	-2754
iisiitenou	-2755
▁heetihnee	-2756
▁heetnosou	-2757
▁hiihoowuh	-2758
▁heeyowuuhu	-2759
▁hesowobeih	-2760
▁beteentoono	-2761
▁hiinooninoo	-2762
▁huuwoonhehe	-2763
▁nonooneehei	-2764
▁niiniihenceb	-2765
▁neeneisinihii	-2766
'"	-2767
bP	-2768
ib	-2769
cky	-2770
ehP	-2771
ham	-2772
het	-2773
mes	-2774
oet	-2775
oss	-2776
oun	-2777
yow	-2778
bees	-2779
eiit	-2780
hink	-2781
iten	-2782
osei	-2783
oxou	-2784
tehk	-2785
unou	-2786
▁Say	-2787
▁nou	-2788
benei	-2789
eetoh	-2790
hiine	-2791
hinee	-2792
ihini	-2793
ihseh	-2794
iisno	-2795
iniit	-2796
kouto	-2797
oohei	-2798
ookei	-2799
ostei	-2800
ouuhu	-2801
owooo	-2802
seese	-2803
thing	-2804
tisee	-2805
uuwuu	-2806
xooni	-2807
▁Jack	-2808
▁Koox	-2809
▁Step	-2810
▁beis	-2811
▁heeP	-2812
▁siiP	-2813
▁some	-2814
eesnee	-2815
etimes	-2816
inoono	-2817
itooto	-2818
netiit	-2819
neyeiP	-2820
niitei	-2821
nohwoo	-2822
oeetii	-2823
ohusee	-2824
oowooh	-2825
seihii	-2826
woohuu	-2827
yihxoh	-2828
yoohoo	-2829
▁Nonoo	-2830
▁boone	-2831
▁cenei	-2832
▁think	-2833
▁wooxe	-2834
ciiteso	-2835
eeniihi	-2836
eeniini	-2837
eentoot	-2838
iineyei	-2839
iinihii	-2840
itoonee	-2841
niitouu	-2842
noheino	-2843
onookei	-2844
oohowun	-2845
oowuuno	-2846
▁Niibii	-2847
▁Nohtou	-2848
▁bebene	-2849
▁ceenee	-2850
▁heeyei	-2851
▁hoocoo	-2852
▁hookuu	-2853
▁neesoo	-2854
▁niicie	-2855
▁nonouh	-2856
▁noxowu	-2857
▁school	-2858
▁teetee	-2859
▁tihnee	-2860
▁tohnii	-2861
koheinoo	-2862
nihiinoo	-2863
oneeneti	-2864
tootonou	-2865
yeiniihi	-2866
▁Noonoko	-2867
▁hebesii	-2868
▁hitoono	-2869
▁niiteco	-2870
▁teiitoo	-2871
▁tohuuni	-2872
iistoonoo	-2873
nouutosei	-2874
owouunoni	-2875
▁Heisonoo	-2876
▁heetesee	-2877
▁heeyowuu	-2878
▁hihcebee	-2879
▁hitoniho	-2880
▁hohootin	-2881
▁hohootno	-2882
▁neeneisP	-2883
▁nihnosou	-2884
▁niiinono	-2885
▁siisiiko	-2886
▁tohuunee	-2887
▁woteikuu	-2888
niistiinoo	-2889
▁Kooneetni	-2890
▁hecexonoh	-2891
▁neihoowuu	-2892
▁neniiseti	-2893
▁niihenceb	-2894
▁Hoonoyooho	-2895
▁hiihoownee	-2896
▁niiciihoho	-2897
▁woohoniihi	-2898
eesinihiinoo	-2899
oowuniihisee	-2900
▁Hiihoowuuni	-2901
▁konouutosei	-2902
▁neihoowuuni	-2903
▁niineniinii	-2904
▁siihoowuuni	-2905
▁betebihehiho	-2906
▁hookeciihihi	-2907
iP	-2908
la	-2909
cob	-2910
ebe	-2911
rse	-2912
ten	-2913
toh	-2914
uuk	-2915
way	-2916
▁."	-2917
▁Is	-2918
ambi	-2919
ehno	-2920
etit	-2921
hone	-2922
ihse	-2923
iinP	-2924
itou	-2925
land	-2926
noti	-2927
ouhu	-2928
soon	-2929
uxou	-2930
uyei	-2931
woni	-2932
xoxo	-2933
▁Bea	-2934
▁Gal	-2935
▁hes	-2936
▁now	-2937
▁tes	-2938
ander	-2939
beeni	-2940
ecoon	-2941
eicii	-2942
eiise	-2943
eiisi	-2944
heeno	-2945
heino	-2946
hkoni	-2947
iinei	-2948
iinit	-2949
iinoh	-2950
iiseh	-2951
kuuni	-2952
oehit	-2953
oocei	-2954
oohoo	-2955
ooyei	-2956
oteni	-2957
ounii	-2958
sisee	-2959
totou	-2960
xouuw	-2961
xutoo	-2962
▁Noto	-2963
▁didn	-2964
▁hiii	-2965
▁kind	-2966
▁nebe	-2967
▁niii	-2968
beinee	-2969
ckoohu	-2970
coboot	-2971
ehiino	-2972
esooho	-2973
eyoono	-2974
hebehe	-2975
niixoo	-2976
okunoo	-2977
oonoot	-2978
orning	-2979
teenei	-2980
teeyoo	-2981
tonoun	-2982
uhunoo	-2983
wonbii	-2984
xoonoo	-2985
▁Bambi	-2986
▁Bobby	-2987
▁Nihbi	-2988
▁Niice	-2989
▁Peter	-2990
▁River	-2991
▁ceebi	-2992
▁every	-2993
▁heeni	-2994
▁horse	-2995
▁kokuy	-2996
▁niise	-2997
▁these	-2998
iitenou	-2999
itoonei	-3000
nottono	-3001
uxotiit	-3002
woohuut	-3003
xuuheti	-3004
yohkoni	-3005
▁Nihkoo	-3006
▁Totoos	-3007
▁beetee	-3008
▁hiixoo	-3009
▁niitoo	-3010
▁wookec	-3011
ceenokut	-3012
ciinenou	-3013
ciiniini	-3014
cootiini	-3015
eihehiho	-3016
eiseenoo	-3017
itoonoot	-3018
yooninoo	-3019
▁Bisiihi	-3020
▁Heetnoo	-3021
▁Hoowuni	-3022
▁Stephen	-3023
▁heetnoh	-3024
▁heniise	-3025
▁hikokuy	-3026
▁hitotii	-3027
▁nonoono	-3028
cebiiheti	-3029
etiiwoohu	-3030
iicisiihi	-3031
iisiiteno	-3032
noohobeti	-3033
▁heetoono	-3034
▁heihoowu	-3035
▁hiiyohou	-3036
▁hoowunee	-3037
▁neneenee	-3038
▁niibeexo	-3039
▁niiinone	-3040
▁tihneyei	-3041
▁wonooyoo	-3042
eenebetiit	-3043
eitiitooni	-3044
eixootiini	-3045
ohwootiini	-3046
▁Teeteehek	-3047
▁hiihoowoe	-3048
▁hooxeihii	-3049
▁nihniisih	-3050
▁sometimes	-3051
eiheenetiit	-3052
▁heetneenit	-3053
▁hiniisiiho	-3054
▁hoowoohnee	-3055
iisinihiinoo	-3056
▁hibetebihow	-3057
▁hiihoowbeet	-3058
▁hehniiseihini	-3059
▁neetneihoowooh	-3060
cP	-3061
ers	-3062
hes	-3063
iiw	-3064
xon	-3065
▁Cl	-3066
▁al	-3067
biit	-3068
eenP	-3069
hehk	-3070
kers	-3071
kooh	-3072
oute	-3073
tnoo	-3074
toyo	-3075
xuno	-3076
yote	-3077
▁Bon	-3078
▁How	-3079
▁Neh	-3080
▁Sha	-3081
▁bet	-3082
▁hey	-3083
▁thr	-3084
benee	-3085
benii	-3086
benou	-3087
biini	-3088
biino	-3089
boboo	-3090
cooni	-3091
ebnee	-3092
eesou	-3093
eiwoo	-3094
iiceh	-3095
inoni	-3096
kocoo	-3097
oetei	-3098
stoon	-3099
tiihi	-3100
tonei	-3101
wooni	-3102
wusee	-3103
▁Well	-3104
▁biis	-3105
▁bisP	-3106
▁ceeh	-3107
▁cowo	-3108
▁heiP	-3109
▁last	-3110
▁noon	-3111
▁noti	-3112
▁week	-3113
bootou	-3114
ceebeh	-3115
coonii	-3116
eetoxu	-3117
iiteen	-3118
iitiit	-3119
kuuton	-3120
nootoo	-3121
ohwoot	-3122
onohoo	-3123
oobeit	-3124
siinoo	-3125
tonoot	-3126
wootii	-3127
xoheit	-3128
▁Galil	-3129
▁Neyei	-3130
▁ciiis	-3131
▁hikoo	-3132
▁hiwox	-3133
▁houwo	-3134
▁kocoo	-3135
▁kokou	-3136
▁means	-3137
▁tihce	-3138
benenoo	-3139
einooku	-3140
koheino	-3141
neinoni	-3142
nohwoot	-3143
oowunoo	-3144
owoonoo	-3145
tenowuu	-3146
tiitoon	-3147
▁Nihnee	-3148
▁Nihwon	-3149
▁biikou	-3150
▁biitei	-3151
▁heecis	-3152
▁heisii	-3153
▁hiisoh	-3154
▁neenih	-3155
▁nihyih	-3156
▁siisoo	-3157
▁tohcee	-3158
beteenoo	-3159
cebiseet	-3160
eenetini	-3161
eihiinou	-3162
einoonin	-3163
itoniihi	-3164
nokooyei	-3165
noonotto	-3166
nootiini	-3167
oteihini	-3168
▁Betebih	-3169
▁Kooheet	-3170
▁beskoot	-3171
▁ceeciis	-3172
▁heetoxu	-3173
▁kookoos	-3174
▁niistii	-3175
▁toonhii	-3176
ebiisiihi	-3177
ihcebenoo	-3178
keciihiht	-3179
nookenini	-3180
oniitowoo	-3181
tiitiinoo	-3182
yooniibin	-3183
▁Beteetox	-3184
▁Hoowuuhu	-3185
▁Stephens	-3186
▁Toonheet	-3187
▁hohkonee	-3188
▁hoowoohP	-3189
▁nihnotto	-3190
▁woowotox	-3191
▁yookoxuu	-3192
beteetosoo	-3193
etiitoonin	-3194
niitouuhut	-3195
ouuteiseet	-3196
owouunonei	-3197
tonounowuu	-3198
▁benoheino	-3199
▁cebteenoc	-3200
▁konohuuhu	-3201
▁teeteehek	-3202
niitowootou	-3203
▁Noohowunee	-3204
▁heesneenoo	-3205
▁hehniiseti	-3206
▁heitoustoo	-3207
▁hineniteen	-3208
▁hiteneyooo	-3209
▁hooweentoo	-3210
▁noohowunee	-3211
▁neihoowbeet	-3212
hiiniisonooni	-3213
▁honouuneenoo	-3214
og	-3215
sp	-3216
ty	-3217
xt	-3218
ain	-3219
ben	-3220
bra	-3221
eib	-3222
etP	-3223
hot	-3224
ith	-3225
koe	-3226
ock	-3227
rom	-3228
wox	-3229
▁It	-3230
▁ca	-3231
▁di	-3232
eisi	-3233
ihne	-3234
kuno	-3235
onih	-3236
onin	-3237
usei	-3238
woto	-3239
xobe	-3240
yiis	-3241
yoon	-3242
▁Coo	-3243
▁Won	-3244
▁ahm	-3245
▁heP	-3246
▁man	-3247
▁ohh	-3248
▁sto	-3249
censi	-3250
ebiih	-3251
eebee	-3252
eihee	-3253
eiheh	-3254
heene	-3255
ihbis	-3256
ihoox	-3257
ihtoo	-3258
ihyii	-3259
iihii	-3260
niino	-3261
nonox	-3262
oebii	-3263
okuni	-3264
onnee	-3265
oonei	-3266
oonou	-3267
oowun	-3268
ouwox	-3269
oxowu	-3270
teyei	-3271
wonei	-3272
woone	-3273
xohoo	-3274
▁Abra	-3275
▁Fran	-3276
▁Heii	-3277
▁Keet	-3278
▁from	-3279
▁koku	-3280
▁nebi	-3281
▁tees	-3282
▁xouu	-3283
biinei	-3284
ciinen	-3285
coocou	-3286
eihiit	-3287
eiwoho	-3288
eseihi	-3289
eyeino	-3290
iibeet	-3291
iitini	-3292
iyeino	-3293
koneet	-3294
kookoh	-3295
koxcei	-3296
kuseet	-3297
niicie	-3298
niitou	-3299
onobee	-3300
oohoot	-3301
oownih	-3302
owuuni	-3303
siisii	-3304
siiyoo	-3305
sineni	-3306
teenee	-3307
uhuuno	-3308
uxooto	-3309
▁Ceece	-3310
▁Hinen	-3311
▁HoowP	-3312
▁Niihe	-3313
▁Toonh	-3314
▁beebe	-3315
▁beesi	-3316
▁hiise	-3317
▁nebii	-3318
▁night	-3319
▁notii	-3320
▁tohco	-3321
eeneine	-3322
ihciini	-3323
iitiine	-3324
neenini	-3325
ootonou	-3326
oowotou	-3327
▁Beaver	-3328
▁Nihwoo	-3329
▁Niibee	-3330
▁Tootei	-3331
▁biixoo	-3332
▁ceecee	-3333
▁ciitei	-3334
▁hentoo	-3335
▁heyeih	-3336
▁hiiyou	-3337
▁neyoox	-3338
▁nookuh	-3339
▁noowoh	-3340
ciiteino	-3341
eenentoo	-3342
eestooni	-3343
eibeihii	-3344
esiwonoh	-3345
heihiiho	-3346
niininoo	-3347
niiseiht	-3348
niistoot	-3349
oeeniihi	-3350
tokohuno	-3351
tonounoo	-3352
uukoheit	-3353
▁Abraham	-3354
▁Bonkers	-3355
▁Toonhei	-3356
▁ceceeco	-3357
▁heneene	-3358
▁hoocoon	-3359
▁hookuhu	-3360
▁netesei	-3361
▁nihbeet	-3362
▁nototii	-3363
ckoohunoo	-3364
ecootiini	-3365
iicetowoo	-3366
iyooninoo	-3367
kooyeinoo	-3368
seenetino	-3369
sowobeihi	-3370
wonniitoo	-3371
▁Woowuuno	-3372
▁biiciixo	-3373
▁heetihni	-3374
▁heetooni	-3375
▁hoocoono	-3376
▁hoseihii	-3377
▁neniihei	-3378
▁niisiine	-3379
▁noohooto	-3380
ciinenowuu	-3381
noohobeeno	-3382
towuuneino	-3383
▁ceheekuut	-3384
▁heetniihe	-3385
▁heetniito	-3386
▁heetwoowo	-3387
▁hisiiseii	-3388
▁kokounowo	-3389
▁nihneenit	-3390
▁seenookuu	-3391
ouubeihinoo	-3392
▁beteenoowu	-3393
▁heteneyooo	-3394
▁hetneihoow	-3395
▁hiwookecii	-3396
▁niicoonbii	-3397
neniteeniini	-3398
niiteheibeti	-3399
niiteheiwoot	-3400
▁Heisonoonin	-3401
▁hiteenetiit	-3402
▁toonheetnii	-3403
▁hineeceeniit	-3404
noohobeihiinoo	-3405
dy	-3406
lu	-3407
ma	-3408
pp	-3409
wP	-3410
age	-3411
ass	-3412
eal	-3413
end	-3414
eor	-3415
esa	-3416
iii	-3417
ohw	-3418
ord	-3419
ouP	-3420
tit	-3421
▁"'	-3422
▁My	-3423
▁We	-3424
▁pr	-3425
bebi	-3426
bese	-3427
eeto	-3428
icha	-3429
iiyo	-3430
nihP	-3431
onno	-3432
siho	-3433
tebe	-3434
unee	-3435
▁Bis	-3436
▁Boy	-3437
▁big	-3438
▁kid	-3439
▁let	-3440
▁wor	-3441
biite	-3442
binee	-3443
eihoh	-3444
eihou	-3445
eitee	-3446
eiyei	-3447
hoeno	-3448
ihnih	-3449
ihtou	-3450
ndred	-3451
nehei	-3452
nonee	-3453
nooko	-3454
nowou	-3455
unono	-3456
xonih	-3457
yonih	-3458
▁Dick	-3459
▁Icky	-3460
▁Will	-3461
▁beeh	-3462
▁bete	-3463
▁guys	-3464
▁huuh	-3465
▁with	-3466
ceitee	-3467
cihnoo	-3468
ciinii	-3469
ebinoo	-3470
eenebe	-3471
ehisei	-3472
eihehk	-3473
einino	-3474
hoonoo	-3475
iinono	-3476
neenou	-3477
nenoot	-3478
niihei	-3479
oneino	-3480
oxuyoo	-3481
stoono	-3482
yeitit	-3483
▁Cenee	-3484
▁Flora	-3485
▁Heeyo	-3486
▁Niisi	-3487
▁Nooke	-3488
▁dance	-3489
▁heeto	-3490
▁hehii	-3491
▁heihi	-3492
▁hetce	-3493
▁hetne	-3494
▁howox	-3495
▁huusi	-3496
▁noobe	-3497
▁teexo	-3498
▁yonoo	-3499
ecoohok	-3500
hehkoni	-3501
hiitooo	-3502
ihbiibi	-3503
iiheeno	-3504
iiwoowo	-3505
iniiteh	-3506
kuutooo	-3507
netinoo	-3508
neyeito	-3509
noohowu	-3510
oowbeet	-3511
ouseino	-3512
ouubeih	-3513
ouwoxuu	-3514
xeihini	-3515
xeihino	-3516
xuutono	-3517
▁Niinoo	-3518
▁ceesis	-3519
▁ceitee	-3520
▁ceitoo	-3521
▁ciinoo	-3522
▁heetco	-3523
▁hehnee	-3524
▁hetnoo	-3525
▁hiicoo	-3526
▁hiikoo	-3527
▁hohook	-3528
▁hoowuh	-3529
▁koocii	-3530
▁neheic	-3531
▁nihcoo	-3532
▁nihtou	-3533
▁niitei	-3534
▁nonsih	-3535
▁tihbih	-3536
ciisiihi	-3537
eeneetou	-3538
einootno	-3539
huutooni	-3540
ihneenin	-3541
neyeitii	-3542
niitonoo	-3543
oeseitee	-3544
oowuniih	-3545
sooninoo	-3546
▁Heetneh	-3547
▁Koxuute	-3548
▁Siiyeih	-3549
▁beeteet	-3550
▁beneexo	-3551
▁brother	-3552
▁cecinii	-3553
▁heebehP	-3554
▁heetoon	-3555
▁hiinono	-3556
▁hootnee	-3557
▁hundred	-3558
heihiinoo	-3559
iiteihini	-3560
iyeihiiho	-3561
okuutooni	-3562
oteeyoono	-3563
▁biixonoo	-3564
▁heeneesP	-3565
▁hiisiite	-3566
▁touhoono	-3567
betiitooni	-3568
ciineyoono	-3569
eeneetowuu	-3570
niiheneihi	-3571
oowuuninoo	-3572
tebinouhuu	-3573
tonounowoo	-3574
towuuneihi	-3575
▁Heetneyei	-3576
▁nenebiihi	-3577
▁nihniihen	-3578
iisiitenoot	-3579
neniteeniit	-3580
yeitiitooni	-3581
▁Neneeninee	-3582
▁biikousiis	-3583
▁heentoonoo	-3584
▁hiteebiyoo	-3585
eeneesinihii	-3586
etiitooninoo	-3587
▁heetneihoow	-3588
▁neetneihoow	-3589
▁siisiiyeino	-3590
▁Beeheeteihit	-3591
▁heetniitehei	-3592
▁notoniheihii	-3593
▁heeteenebetiit	-3594
▁hiwoxuuhooxebii	-3595
'{	-3596
uP	-3597
arr	-3598
eat	-3599
hie	-3600
une	-3601
yee	-3602
▁Se	-3603
anch	-3604
ence	-3605
hein	-3606
hose	-3607
hoti	-3608
ibee	-3609
iihe	-3610
neni	-3611
ocoo	-3612
otei	-3613
ries	-3614
tion	-3615
uhoo	-3616
utoo	-3617
wone	-3618
yoho	-3619
▁Ahm	-3620
▁Bet	-3621
▁Jud	-3622
▁any	-3623
▁cou	-3624
▁hen	-3625
▁kei	-3626
▁seh	-3627
▁tri	-3628
ebnii	-3629
eenin	-3630
eorge	-3631
ihcoo	-3632
iisee	-3633
itone	-3634
kohoo	-3635
onwoo	-3636
ootoo	-3637
outii	-3638
seini	-3639
seise	-3640
tesei	-3641
uster	-3642
wonoo	-3643
wooto	-3644
wutii	-3645
xuuhu	-3646
▁Bear	-3647
▁Ciit	-3648
▁Kooh	-3649
▁Moss	-3650
▁hiso	-3651
▁niin	-3652
▁tebe	-3653
▁tell	-3654
▁thou	-3655
▁tohu	-3656
▁yiii	-3657
biitei	-3658
cihbee	-3659
ciinoo	-3660
eesise	-3661
eiseen	-3662
heyoti	-3663
itenoo	-3664
kohuus	-3665
neehek	-3666
neetei	-3667
neewoo	-3668
niisii	-3669
niitoh	-3670
nookee	-3671
ookuun	-3672
ootiit	-3673
oowuno	-3674
sineno	-3675
tobeet	-3676
tonoti	-3677
wooyoo	-3678
xohoot	-3679
xootou	-3680
xuutei	-3681
▁Honoo	-3682
▁biiti	-3683
▁ceesi	-3684
▁ciite	-3685
▁going	-3686
▁konou	-3687
▁koyih	-3688
▁nokoo	-3689
▁teesi	-3690
▁tenee	-3691
beteeni	-3692
eebeihi	-3693
eeneeto	-3694
eeneini	-3695
eeneisi	-3696
eeninoo	-3697
eetoxei	-3698
eiciihi	-3699
ihbeebi	-3700
ihkohei	-3701
ihyihoo	-3702
iiciite	-3703
iihoono	-3704
iininoo	-3705
iinosou	-3706
iiyohou	-3707
iteenoo	-3708
iyihoot	-3709
niitono	-3710
oneenei	-3711
oteeyoo	-3712
oteihin	-3713
ouniini	-3714
towoono	-3715
useehek	-3716
wonoote	-3717
xoheino	-3718
yoonoho	-3719
▁Cihbee	-3720
▁George	-3721
▁Heetni	-3722
▁Hoowuu	-3723
▁Koohei	-3724
▁Sosoni	-3725
▁heitou	-3726
▁honowu	-3727
▁hoowee	-3728
▁hoowno	-3729
▁hoowuP	-3730
▁neeneh	-3731
▁nihiit	-3732
▁niinei	-3733
▁niisei	-3734
▁niiyoo	-3735
▁nisice	-3736
▁tihwoo	-3737
▁toonou	-3738
▁yeinou	-3739
eeteihit	-3740
etiitoon	-3741
ihciitei	-3742
inoneeno	-3743
isiwonoh	-3744
neeheyei	-3745
niisiite	-3746
wootiini	-3747
yeihiiho	-3748
▁Beeteen	-3749
▁Galilee	-3750
▁Indians	-3751
▁Nenitee	-3752
▁biibeet	-3753
▁buffalo	-3754
▁cebisee	-3755
▁ceniini	-3756
▁ceniino	-3757
▁ciintoo	-3758
▁heestoo	-3759
▁hikoobe	-3760
▁hiteexo	-3761
▁siineih	-3762
eenebeihi	-3763
eenetinoo	-3764
ehiitooni	-3765
ihcehinoo	-3766
iiniistii	-3767
koohowoot	-3768
ouyeitino	-3769
▁Heneecee	-3770
▁Noohowun	-3771
▁Tootheih	-3772
▁beneebee	-3773
▁beneetoh	-3774
▁beteeeno	-3775
▁ceneecei	-3776
▁heesitee	-3777
▁heihoowP	-3778
▁hiseihih	-3779
▁hoonobee	-3780
▁hooxohoe	-3781
▁koxuuten	-3782
▁neecisee	-3783
▁nihwoowo	-3784
▁notkonii	-3785
▁notonihi	-3786
ciinenowoo	-3787
kuseiciini	-3788
niitowooto	-3789
towuunoono	-3790
woteikuuto	-3791
▁heeneesoo	-3792
▁heihoowoe	-3793
▁heihoowuu	-3794
▁heneebees	-3795
▁neehebehe	-3796
▁neeneisoo	-3797
bootiininoo	-3798
eboonoyooho	-3799
niitobeenoo	-3800
noohootowoo	-3801
yiisiikohei	-3802
▁beteetosoo	-3803
▁hecesneyei	-3804
▁heeteinono	-3805
▁hiniisoono	-3806
▁neneetiihi	-3807
▁toonheenei	-3808
niistootiini	-3809
▁beneexookee	-3810
▁niisootoxuuus	-3811
▁notkoniinenno	-3812
▁niineniiniicie	-3813
'-	-3814
di	-3815
gu	-3816
ary	-3817
bio	-3818
boh	-3819
cin	-3820
ece	-3821
hoh	-3822
hos	-3823
iwo	-3824
kok	-3825
net	-3826
oen	-3827
ork	-3828
uto	-3829
wut	-3830
▁Ad	-3831
▁Ma	-3832
▁Ye	-3833
▁ta	-3834
ames	-3835
bein	-3836
biho	-3837
biin	-3838
esei	-3839
etin	-3840
hari	-3841
heir	-3842
here	-3843
isei	-3844
itet	-3845
kesp	-3846
mber	-3847
ming	-3848
nder	-3849
nibe	-3850
nooo	-3851
odge	-3852
oeni	-3853
ooko	-3854
ople	-3855
sini	-3856
sius	-3857
soot	-3858
wouh	-3859
xowo	-3860
xuni	-3861
yone	-3862
▁Ceh	-3863
▁Dav	-3864
▁Hen	-3865
▁Yoo	-3866
▁hoe	-3867
▁koe	-3868
▁lot	-3869
▁our	-3870
▁sei	-3871
beeti	-3872
bisee	-3873
ciisi	-3874
coboo	-3875
cxooy	-3876
ehino	-3877
heiit	-3878
ihkoo	-3879
ihtee	-3880
iibeh	-3881
iinou	-3882
iyoon	-3883
kooni	-3884
neetP	-3885
nenoo	-3886
netii	-3887
nooto	-3888
nouhu	-3889
obeti	-3890
oesee	-3891
ohuni	-3892
onbii	-3893
ootox	-3894
touni	-3895
uhceh	-3896
wuune	-3897
xunoo	-3898
▁Hoox	-3899
▁Neet	-3900
▁Nihi	-3901
▁Star	-3902
▁Yein	-3903
▁ceen	-3904
▁four	-3905
▁hihP	-3906
▁koto	-3907
▁neeh	-3908
▁tebi	-3909
▁wooP	-3910
bisiii	-3911
ciiyei	-3912
eeckoo	-3913
eenein	-3914
hariah	-3915
inonee	-3916
inowou	-3917
nenino	-3918
niisei	-3919
niiwoo	-3920
noonee	-3921
nootei	-3922
ooneit	-3923
oteeno	-3924
oxowoo	-3925
teenih	-3926
tootee	-3927
ttonee	-3928
xeihit	-3929
yeihno	-3930
▁Beexo	-3931
▁Cenih	-3932
▁Dance	-3933
▁Konoo	-3934
▁Koohe	-3935
▁coowo	-3936
▁cowoo	-3937
▁heteh	-3938
▁hetni	-3939
▁honou	-3940
▁hooxo	-3941
▁three	-3942
▁tohni	-3943
beinoni	-3944
beteeet	-3945
biinoot	-3946
ceestoo	-3947
ebeenei	-3948
eenebee	-3949
eenowoo	-3950
eeteebe	-3951
entooni	-3952
ihkooko	-3953
ihniisi	-3954
inoneit	-3955
kuhuuno	-3956
neeneis	-3957
neentoo	-3958
neihini	-3959
nihiini	-3960
nokohut	-3961
nonoxoo	-3962
oeneeto	-3963
okeciih	-3964
ooniihi	-3965
ooteeni	-3966
oowusee	-3967
oteihii	-3968
oukutoo	-3969
owounoo	-3970
tobeeno	-3971
tokohut	-3972
tonoono	-3973
toyooho	-3974
uxohoot	-3975
wuuhuno	-3976
▁Custer	-3977
▁Hiinoo	-3978
▁Hohoot	-3979
▁Hooyei	-3980
▁ceeceh	-3981
▁hetbii	-3982
▁hiihow	-3983
▁hiinii	-3984
▁nenebe	-3985
▁nestoo	-3986
▁nihcei	-3987
▁nihkoo	-3988
▁niinen	-3989
▁niisii	-3990
▁saying	-3991
▁siinih	-3992
▁tohnoh	-3993
beenoono	-3994
ciineyei	-3995
eeneinoo	-3996
eeneisih	-3997
eiyeitit	-3998
hootowuu	-3999
neeninee	-4000
nentoono	-4001
niiniisi	-4002
notiihou	-4003
nottonoo	-4004
oohootou	-4005
oohowoot	-4006
ookuutii	-4007
oxuuheti	-4008
woohunoo	-4009
yoohuuho	-4010
▁Cassius	-4011
▁Francis	-4012
▁Hiinono	-4013
▁Kookoos	-4014
▁Shakesp	-4015
▁beneesi	-4016
▁beniine	-4017
▁heecisi	-4018
▁heetete	-4019
▁heetihi	-4020
▁heetkoo	-4021
▁hetiini	-4022
▁hiitous	-4023
▁honoono	-4024
▁keihcii	-4025
▁morning	-4026
▁nihniis	-4027
▁niiseti	-4028
▁nohowoh	-4029
▁siiyeih	-4030
beteentoo	-4031
cebixotii	-4032
cebkoohut	-4033
cesisiini	-4034
cxooyeihi	-4035
eeneinono	-4036
ihneenino	-4037
ihnoohobe	-4038
iitoonoku	-4039
itooninoo	-4040
itootowoo	-4041
neinootee	-4042
noohobeen	-4043
ntootiini	-4044
towuuneet	-4045
uxootiini	-4046
▁HeetniiP	-4047
▁Hiniiteh	-4048
▁Kooniini	-4049
▁ceitoono	-4050
▁kokiyono	-4051
▁kookuyon	-4052
▁neeneihi	-4053
▁neyooxet	-4054
▁niibiibi	-4055
▁niinotii	-4056
▁nonoocoo	-4057
▁tootonou	-4058
▁touyoono	-4059
bebiisiini	-4060
neeneistoo	-4061
nousinenoo	-4062
sineetiini	-4063
▁cesisiihi	-4064
▁ciibehnei	-4065
▁heeneisih	-4066
▁heetihbii	-4067
▁heetniisi	-4068
▁heetnotii	-4069
▁hokooxuno	-4070
▁niiseihit	-4071
▁siisiikou	-4072
etiiwoohuut	-4073
▁Cihcebenoo	-4074
▁heeneestoo	-4075
▁heetniinii	-4076
▁heetniitoh	-4077
▁heeyowuusi	-4078
▁heteehinoo	-4079
▁nosouniini	-4080
▁toukuhuuno	-4081
▁woowoxutoo	-4082
▁heeneisiine	-4083
▁heesinihiit	-4084
▁hoseikuutii	-4085
▁Heetyihoonoo	-4086
▁heeneixoohoo	-4087
▁heninouhuuno	-4088
▁heetniixoohoo	-4089
▁hesowobeihiit	-4090
▁toonheetniisi	-4091
eeneesinihiinoo	-4092
▁heetebinouhuuni	-4093
▁hiniisiihehinoo	-4094
ab	-4095
ex	-4096
gs	-4097
ph	-4098
rv	-4099
ym	-4100
ade	-4101
air	-4102
att	-4103
bou	-4104
eer	-4105
ere	-4106
iiy	-4107
imm	-4108
ley	-4109
nis	-4110
ody	-4111
otP	-4112
ull	-4113
xuh	-4114
xun	-4115
▁ar	-4116
▁dr	-4117
▁ma	-4118
▁sp	-4119
▁us	-4120
ates	-4121
cese	-4122
cine	-4123
cino	-4124
coho	-4125
eare	-4126
ebit	-4127
eese	-4128
eise	-4129
gles	-4130
hair	-4131
hihi	-4132
huut	-4133
irst	-4134
keee	-4135
nouh	-4136
otii	-4137
scoo	-4138
ster	-4139
xuhu	-4140
▁Hey	-4141
▁Pil	-4142
▁She	-4143
▁Sun	-4144
▁Ter	-4145
▁Tom	-4146
▁aah	-4147
▁new	-4148
▁off	-4149
▁wan	-4150
beexP	-4151
betoo	-4152
biiti	-4153
boone	-4154
booni	-4155
cihwo	-4156
ebiis	-4157
ebnoh	-4158
ebody	-4159
eetoo	-4160
einei	-4161
eople	-4162
etnee	-4163
hiino	-4164
hisei	-4165
iheti	-4166
ihsii	-4167
iibis	-4168
iisou	-4169
neeho	-4170
neese	-4171
ninou	-4172
nonii	-4173
nouwo	-4174
oeyoo	-4175
ohcoo	-4176
ohtee	-4177
okuno	-4178
oneit	-4179
oowut	-4180
setii	-4181
sohoe	-4182
teebe	-4183
teeso	-4184
tonin	-4185
tooho	-4186
xoono	-4187
xuwuh	-4188
yoowu	-4189
▁Adam	-4190
▁Beni	-4191
▁Heni	-4192
▁Hono	-4193
▁Houu	-4194
▁Jill	-4195
▁Nouu	-4196
▁Sand	-4197
▁Shos	-4198
▁come	-4199
▁heto	-4200
▁hiti	-4201
▁long	-4202
▁medi	-4203
▁next	-4204
▁noxo	-4205
▁ones	-4206
▁well	-4207
▁were	-4208
▁woti	-4209
beebii	-4210
beneet	-4211
beniii	-4212
bisnee	-4213
ceeceh	-4214
eboowu	-4215
eeneit	-4216
eetehk	-4217
eetoot	-4218
eihiin	-4219
eiinou	-4220
eiinox	-4221
entoon	-4222
esiihi	-4223
heinoo	-4224
hetiit	-4225
hootow	-4226
ihniis	-4227
iikone	-4228
iitoot	-4229
iiwono	-4230
neenih	-4231
nowuno	-4232
ohwuhu	-4233
okecii	-4234
oneiht	-4235
ooneih	-4236
oteene	-4237
seesei	-4238
seikuu	-4239
towuun	-4240
woohut	-4241
xutoot	-4242
▁David	-4243
▁Dodge	-4244
▁Henry	-4245
▁Neito	-4246
▁Wooce	-4247
▁Woowo	-4248
▁ciisi	-4249
▁first	-4250
▁grand	-4251
▁heard	-4252
▁hetoo	-4253
▁hetou	-4254
▁hootP	-4255
▁house	-4256
▁kokiy	-4257
▁kooho	-4258
▁nihne	-4259
▁nisci	-4260
▁nonoh	-4261
▁nowoo	-4262
▁seven	-4263
▁tonoo	-4264
▁tooyo	-4265
▁toyou	-4266
▁water	-4267
▁woxus	-4268
▁yihoo	-4269
bisinoo	-4270
ciinkuu	-4271
eecxooy	-4272
eihcehi	-4273
eitiino	-4274
eitooni	-4275
ihbiine	-4276
ihcihce	-4277
ihneyei	-4278
iiniini	-4279
iisiihi	-4280
iitiini	-4281
inonoot	-4282
koxuute	-4283
nihiito	-4284
ninisin	-4285
noseino	-4286
nouukuu	-4287
ntoonoo	-4288
oehinoo	-4289
ohookee	-4290
ookutii	-4291
ookuuhu	-4292
ooteebe	-4293
oowotoo	-4294
tootino	-4295
toukuhu	-4296
xoeheti	-4297
yotisin	-4298
▁Beeyoo	-4299
▁Cihbii	-4300
▁Ciitei	-4301
▁Koonee	-4302
▁Neeyei	-4303
▁Nihnii	-4304
▁Nihnoo	-4305
▁Pilate	-4306
▁School	-4307
▁Teresa	-4308
▁ceeyow	-4309
▁heetse	-4310
▁heeyow	-4311
▁hehneh	-4312
▁hentou	-4313
▁hesnee	-4314
▁hinowu	-4315
▁hitiit	-4316
▁hitouw	-4317
▁hoowoh	-4318
▁hotnii	-4319
▁nesiho	-4320
▁nihceh	-4321
▁nihneh	-4322
▁nihnei	-4323
▁niibeh	-4324
▁niiceh	-4325
▁nisiko	-4326
▁nohkco	-4327
▁noyoot	-4328
▁tihboo	-4329
▁tohbii	-4330
▁tohwoo	-4331
▁touyoo	-4332
▁woowuh	-4333
biitooni	-4334
ceitoone	-4335
ciiniihi	-4336
echariah	-4337
eenentou	-4338
etouuhut	-4339
hiininoo	-4340
iibiibii	-4341
iihoonoo	-4342
itoneeno	-4343
niistoon	-4344
niitonei	-4345
nonouhti	-4346
noononoo	-4347
okuutooo	-4348
oonootii	-4349
ouuyokoy	-4350
seeneine	-4351
uxotiino	-4352
▁Hiseino	-4353
▁Hiwoxuu	-4354
▁Niicoon	-4355
▁Niiteco	-4356
▁bisiini	-4357
▁heetbis	-4358
▁heetceh	-4359
▁heetsei	-4360
▁hehiise	-4361
▁heneyei	-4362
▁hineyoo	-4363
▁hiniini	-4364
▁niitoot	-4365
▁noosouP	-4366
▁talking	-4367
▁thought	-4368
▁tousihi	-4369
ciixootee	-4370
ecoohuuho	-4371
iitoxuuus	-4372
koohuutii	-4373
kotiitoon	-4374
neihoowuu	-4375
niiheneih	-4376
niitowoot	-4377
nonouhtii	-4378
noohobeit	-4379
ooweentou	-4380
oowuuteen	-4381
owootiini	-4382
uhuutooni	-4383
▁Koxuuten	-4384
▁Neihoowu	-4385
▁Shoshone	-4386
▁Tohnosou	-4387
▁beneesei	-4388
▁beteenih	-4389
▁heeneine	-4390
▁heeneisP	-4391
▁heesneet	-4392
▁heetihco	-4393
▁heneenei	-4394
▁hiitouuk	-4395
▁hiniihei	-4396
▁hookonoo	-4397
▁hooninou	-4398
▁kokiyote	-4399
▁kokuyono	-4400
▁medicine	-4401
▁nihceece	-4402
▁nihcihce	-4403
▁nihcihno	-4404
▁nihkooko	-4405
▁nihniisi	-4406
▁nookeihi	-4407
▁noonoxoo	-4408
▁nootinei	-4409
▁teeteeci	-4410
▁tihcesis	-4411
▁tokooxuu	-4412
bisiitonei	-4413
ihniitobee	-4414
iiteihinoo	-4415
neneeninoo	-4416
nentooyeit	-4417
nosouniini	-4418
oeteiniihi	-4419
sowobeihit	-4420
towuuninee	-4421
▁Nonoohowo	-4422
▁Wouukohei	-4423
▁beescenee	-4424
▁cesisiini	-4425
▁heeneetoh	-4426
▁heetcihce	-4427
▁heeteihii	-4428
▁heetniice	-4429
▁heetniiho	-4430
▁heetniisP	-4431
▁heniiboot	-4432
▁hoowouuno	-4433
▁neihoowno	-4434
▁niisiscoo	-4435
▁niisootox	-4436
▁noosounii	-4437
▁noosouwoo	-4438
▁noxowuuni	-4439
▁tecenoone	-4440
▁toonheetP	-4441
cebiihineet	-4442
etebinouhuu	-4443
hiitooninoo	-4444
niiniitehei	-4445
onoheihiiho	-4446
▁Heesneenoo	-4447
▁Kooheesnee	-4448
▁heetniinoo	-4449
▁heetniisoo	-4450
▁heetnoonoo	-4451
▁houuneecee	-4452
▁niiniistii	-4453
ihnosouniini	-4454
kohtowunihii	-4455
uunooninisin	-4456
▁Shakespeare	-4457
▁heeneisiihi	-4458
▁heesinihiin	-4459
▁heneinootee	-4460
▁nihniistiit	-4461
▁nihnoohooto	-4462
▁nihtonounou	-4463
▁niitonounou	-4464
▁ceeneeteeyoo	-4465
▁hookeciihiht	-4466
▁koxuuteniihi	-4467
▁koxuuteniini	-4468
▁hiihoowuunono	-4469
▁nonooneeheini	-4470
▁hetneihoowuuni	-4471
▁notoniheihiiho	-4472
▁heeneestootiini	-4473
▁hiwookeciibinoo	-4474
3-	-4475
'\{	-4476
'\}	-4477
abe	-4478
ady	-4479
alt	-4480
eio	-4481
hak	-4482
har	-4483
heb	-4484
ive	-4485
non	-4486
oei	-4487
ort	-4488
ted	-4489
▁"3	-4490
▁Am	-4491
▁An	-4492
▁Ca	-4493
▁Sp	-4494
▁Wa	-4495
▁as	-4496
▁ba	-4497
▁if	-4498
angu	-4499
aybe	-4500
beeP	-4501
bexo	-4502
ceeP	-4503
eibi	-4504
enec	-4505
exoo	-4506
hief	-4507
iiso	-4508
inei	-4509
ings	-4510
itei	-4511
keco	-4512
nihe	-4513
obei	-4514
oonP	-4515
ound	-4516
ouno	-4517
outh	-4518
ouxo	-4519
rael	-4520
sebe	-4521
seee	-4522
sion	-4523
uhce	-4524
uhei	-4525
uhun	-4526
ways	-4527
xeih	-4528
xohe	-4529
xoku	-4530
yook	-4531
▁.\'	-4532
▁Ben	-4533
▁Ceb	-4534
▁Gog	-4535
▁Tra	-4536
▁Was	-4537
▁Wil	-4538
▁Yih	-4539
▁bus	-4540
▁con	-4541
▁dad	-4542
▁ear	-4543
▁six	-4544
▁tea	-4545
▁woP	-4546
abeth	-4547
beexu	-4548
beiit	-4549
bixou	-4550
cause	-4551
ehini	-4552
eiini	-4553
eisii	-4554
eisoo	-4555
hoene	-4556
howoh	-4557
ihbih	-4558
ihceh	-4559
ihkou	-4560
ihtei	-4561
iihei	-4562
iikoo	-4563
iikou	-4564
iinih	-4565
itiit	-4566
ittle	-4567
konoh	-4568
koyei	-4569
kusee	-4570
nitii	-4571
noobe	-4572
noxow	-4573
oenoo	-4574
oeyei	-4575
ohwot	-4576
oonin	-4577
oowuP	-4578
osoho	-4579
otouh	-4580
ounit	-4581
ouwun	-4582
oyeit	-4583
teihi	-4584
teyoo	-4585
uusii	-4586
wonee	-4587
wonko	-4588
xebei	-4589
yihxo	-4590
▁Clay	-4591
▁Just	-4592
▁Nees	-4593
▁Niih	-4594
▁Siih	-4595
▁Teco	-4596
▁beno	-4597
▁biit	-4598
▁heii	-4599
▁kids	-4600
▁make	-4601
▁mean	-4602
▁neiP	-4603
▁noko	-4604
▁nooP	-4605
▁song	-4606
▁work	-4607
▁wote	-4608
boboot	-4609
ceenok	-4610
cesisP	-4611
ciibii	-4612
ciitoo	-4613
coonoo	-4614
ebisee	-4615
eenetP	-4616
eiikuu	-4617
esooku	-4618
hibino	-4619
ihbeex	-4620
ihiini	-4621
iiheih	-4622
iiscih	-4623
iiwone	-4624
iiyeih	-4625
itowoo	-4626
kohoot	-4627
neinei	-4628
neniit	-4629
niiboo	-4630
niihii	-4631
niisce	-4632
noonou	-4633
nooono	-4634
ohteet	-4635
oniino	-4636
oohobe	-4637
oohowu	-4638
oowbii	-4639
oowuuP	-4640
otoxuu	-4641
ouyeit	-4642
owuuhu	-4643
oxonee	-4644
setiit	-4645
toneit	-4646
tooono	-4647
toowoo	-4648
towoot	-4649
uwoono	-4650
uxooni	-4651
▁Ciino	-4652
▁Heete	-4653
▁James	-4654
▁Judea	-4655
▁Konoh	-4656
▁Nihwo	-4657
▁Nosou	-4658
▁Woxuu	-4659
▁besoo	-4660
▁biixo	-4661
▁could	-4662
▁hebes	-4663
▁heino	-4664
▁hibei	-4665
▁hibio	-4666
▁hiibi	-4667
▁hinei	-4668
▁hinoo	-4669
▁hooto	-4670
▁koohi	-4671
▁kooxo	-4672
▁necii	-4673
▁nihte	-4674
▁siihe	-4675
▁tenei	-4676
▁those	-4677
▁tihwo	-4678
▁today	-4679
▁tooti	-4680
▁touse	-4681
▁wooxu	-4682
anguage	-4683
bebiisP	-4684
beebeet	-4685
bootono	-4686
ceeceno	-4687
ecouhuu	-4688
eeneesP	-4689
eenotii	-4690
eesooni	-4691
eitinoo	-4692
ihcebii	-4693
iheihit	-4694
iiciini	-4695
iisoono	-4696
iitonei	-4697
kuusiii	-4698
ncebiit	-4699
neenihi	-4700
neihoot	-4701
neniino	-4702
neseino	-4703
niitowo	-4704
noonoko	-4705
nooxeih	-4706
oeyoono	-4707
oonoxoo	-4708
oteinee	-4709
teennih	-4710
tehkoni	-4711
tonihei	-4712
tonouni	-4713
towuuhu	-4714
uneihii	-4715
wouuyoo	-4716
woxutoo	-4717
xootiin	-4718
▁Biixoo	-4719
▁Casper	-4720
▁Ceebeh	-4721
▁Dickie	-4722
▁Heetbi	-4723
▁Heetno	-4724
▁Heetou	-4725
▁Howoto	-4726
▁Israel	-4727
▁Neyeih	-4728
▁Nihbii	-4729
▁Niinei	-4730
▁Washak	-4731
▁always	-4732
▁biisee	-4733
▁cenihP	-4734
▁cihwon	-4735
▁ciibee	-4736
▁heeseh	-4737
▁heesei	-4738
▁heetox	-4739
▁hetnee	-4740
▁hiiyoh	-4741
▁hookoo	-4742
▁koohet	-4743
▁neenii	-4744
▁niihii	-4745
▁niitse	-4746
▁nonook	-4747
▁people	-4748
▁siiyei	-4749
▁sister	-4750
▁tihnoh	-4751
▁tohbee	-4752
▁tohneh	-4753
biineino	-4754
ceneihii	-4755
eibeenoo	-4756
einiicie	-4757
einootee	-4758
iiteseit	-4759
iixoxono	-4760
iiyohoot	-4761
inoneihi	-4762
koxoneet	-4763
neetiini	-4764
niiboohu	-4765
oeneecee	-4766
onohoene	-4767
oowuseet	-4768
ouuteene	-4769
tiitiino	-4770
tokooxuu	-4771
wooniini	-4772
xoeniihi	-4773
yeinousi	-4774
yooniihi	-4775
▁Buffalo	-4776
▁Goggles	-4777
▁Heihoow	-4778
▁Koowoow	-4779
▁biixuut	-4780
▁hebiito	-4781
▁heenein	-4782
▁heeteco	-4783
▁heetyih	-4784
▁hentoot	-4785
▁hibetee	-4786
▁hibiito	-4787
▁hiihoho	-4788
▁hiiwoon	-4789
▁hisitee	-4790
▁hitenoo	-4791
▁hitiini	-4792
▁hootnoo	-4793
▁hoowuno	-4794
▁netesih	-4795
▁nohohoo	-4796
▁nookoox	-4797
▁noxohoe	-4798
▁tebinou	-4799
▁tokohoe	-4800
beebeteee	-4801
eboowuuhu	-4802
iiseeneti	-4803
iitenowoo	-4804
iitowoono	-4805
niitobeet	-4806
niitonoot	-4807
niitoonin	-4808
siixoohoo	-4809
teesiseet	-4810
uhcehinoo	-4811
▁NeihoowP	-4812
▁NiibeetP	-4813
▁Niinoono	-4814
▁Niitehei	-4815
▁beneesoo	-4816
▁ciinenoo	-4817
▁ciiyoono	-4818
▁heeneise	-4819
▁heeneite	-4820
▁heetcebe	-4821
▁heetwonP	-4822
▁hiniinoo	-4823
▁hookotoo	-4824
▁hoowbeet	-4825
▁hoseinou	-4826
▁nihciine	-4827
▁nihtooto	-4828
▁niibeete	-4829
▁niihoono	-4830
▁tohkooko	-4831
▁tohuubii	-4832
▁tohuucih	-4833
▁tooniihi	-4834
censinenoo	-4835
ciniihiihi	-4836
eeneesiine	-4837
einotiibin	-4838
iiniistiit	-4839
iiteeniihi	-4840
kohtowutoo	-4841
oeneetowoo	-4842
ouyeitinoo	-4843
toyeinousi	-4844
woohoniini	-4845
▁Hooxebine	-4846
▁Noohootoo	-4847
▁beesibino	-4848
▁heetkokoh	-4849
▁heetneene	-4850
▁hihcebehe	-4851
▁houunenno	-4852
▁koonootoo	-4853
▁nihcihwon	-4854
▁nihiitono	-4855
▁niibeetii	-4856
▁niihinono	-4857
▁niiniibei	-4858
▁siisoowoo	-4859
▁tonounowu	-4860
bebiiskokoh	-4861
eestootiini	-4862
hootowoonoo	-4863
koonineihii	-4864
niiteheiwou	-4865
noohowoonee	-4866
teneihiinoo	-4867
towuuneihit	-4868
wooyeitinoo	-4869
▁Betebihoho	-4870
▁beteneyooo	-4871
▁everything	-4872
▁heeneinono	-4873
▁hiitousihi	-4874
▁hohookeeno	-4875
▁hooweentou	-4876
▁kooheihcii	-4877
▁neihoowooh	-4878
▁neniisoono	-4879
▁niiheeneti	-4880
▁toonheenee	-4881
ihnoohobeeno	-4882
niisneniinoo	-4883
oonoyoohooto	-4884
▁beeheeteiht	-4885
▁hebesiibeih	-4886
▁heetcebinoo	-4887
▁hiisiiniihi	-4888
▁nebesiibeih	-4889
▁niibeihiiho	-4890
▁nookuhsoono	-4891
▁notoniheino	-4892
▁woxusiitono	-4893
niitowootowuu	-4894
ouyeitiitooni	-4895
▁cebiihineeno	-4896
▁heetneihoowu	-4897
▁hooweentoono	-4898
▁hooxuwuutono	-4899
▁neihoowbeetP	-4900
▁niiwohoenoot	-4901
▁siineihoowoe	-4902
beebetoootiini	-4903
▁heeneecxooyei	-4904
▁howoxtootiini	-4905
▁neisiihehinoo	-4906
▁tokooxuuniihi	-4907
cebiihetiitooni	-4908
▁heeneeyoohuuho	-4909
▁heetniiteheibe	-4910
▁toonheetneenei	-4911
iiciiteneihiinoo	-4912
▁Tootheihiitisee	-4913
▁neeneistootiini	-4914
▁woowoxutoohuuho	-4915
ds	-4916
eo	-4917
hP	-4918
oP	-4919
ta	-4920
va	-4921
ach	-4922
ark	-4923
cet	-4924
cks	-4925
enP	-4926
ese	-4927
gon	-4928
hun	-4929
hut	-4930
ike	-4931
ker	-4932
ket	-4933
lue	-4934
ney	-4935
ora	-4936
ouw	-4937
owl	-4938
raw	-4939
rod	-4940
rth	-4941
unh	-4942
ves	-4943
▁Ar	-4944
▁Gr	-4945
▁Hu	-4946
▁Me	-4947
▁Te	-4948
▁Tr	-4949
▁pl	-4950
▁su	-4951
▁tr	-4952
achi	-4953
anna	-4954
aret	-4955
ball	-4956
biso	-4957
eboh	-4958
eeso	-4959
eewo	-4960
ehte	-4961
eiin	-4962
ffer	-4963
fred	-4964
ibes	-4965
ight	-4966
isii	-4967
kuun	-4968
ment	-4969
nebe	-4970
oene	-4971
okoo	-4972
ooon	-4973
ooot	-4974
otox	-4975
oxoh	-4976
seis	-4977
teii	-4978
tibe	-4979
tine	-4980
ting	-4981
towo	-4982
towu	-4983
unch	-4984
well	-4985
wote	-4986
xebi	-4987
yooP	-4988
▁Ber	-4989
▁Gus	-4990
▁Nec	-4991
▁Not	-4992
▁are	-4993
▁cut	-4994
▁fif	-4995
▁hok	-4996
▁non	-4997
▁pla	-4998
▁rea	-4999
▁whi	-5000
ather	-5001
attle	-5002
behno	-5003
betit	-5004
ceese	-5005
ebeih	-5006
ebkox	-5007
einih	-5008
eiyou	-5009
hotii	-5010
ihkoh	-5011
ihnec	-5012
ihnou	-5013
iihou	-5014
iwoho	-5015
iyeit	-5016
iyoot	-5017
kuune	-5018
neehe	-5019
neiit	-5020
nihoo	-5021
niixo	-5022
nohou	-5023
nokut	-5024
noxoh	-5025
ntoon	-5026
oowei	-5027
ounoo	-5028
owouu	-5029
owuno	-5030
seiht	-5031
sinen	-5032
sinii	-5033
souhu	-5034
teete	-5035
tohuu	-5036
tonot	-5037
toyoo	-5038
toyou	-5039
uhoot	-5040
uxoho	-5041
wuuci	-5042
xebii	-5043
xobee	-5044
xokut	-5045
xoowu	-5046
xowuh	-5047
▁Hino	-5048
▁Matt	-5049
▁Nesi	-5050
▁Noxo	-5051
▁SiiP	-5052
▁Tess	-5053
▁When	-5054
▁bebe	-5055
▁days	-5056
▁food	-5057
▁hiin	-5058
▁hoxo	-5059
▁made	-5060
▁more	-5061
▁once	-5062
▁reme	-5063
▁says	-5064
▁side	-5065
▁take	-5066
▁tono	-5067
▁toxu	-5068
▁want	-5069
▁went	-5070
▁woni	-5071
▁yeoh	-5072
beexuu	-5073
beihio	-5074
biitoo	-5075
ceinee	-5076
cenisi	-5077
cihnee	-5078
ebiite	-5079
ecooni	-5080
eibeet	-5081
einoko	-5082
eseiti	-5083
etinoo	-5084
eyoone	-5085
ichael	-5086
ihcesi	-5087
ihnoti	-5088
iinouu	-5089
iistii	-5090
iitnee	-5091
iniito	-5092
itenee	-5093
kootee	-5094
neehii	-5095
nentee	-5096
nestoo	-5097
nihoot	-5098
noneet	-5099
nookei	-5100
noubee	-5101
ntoono	-5102
ohunoo	-5103
oneene	-5104
oohowo	-5105
ookeit	-5106
oontoo	-5107
ooxoho	-5108
oteyoo	-5109
otoono	-5110
otoyoo	-5111
ouuhut	-5112
ouxosi	-5113
seehek	-5114
seinou	-5115
senini	-5116
siisei	-5117
tiinin	-5118
tiseet	-5119
toonin	-5120
wooono	-5121
wootee	-5122
wunehk	-5123
wuutee	-5124
xotone	-5125
yeicii	-5126
yootou	-5127
yooxuu	-5128
▁Benii	-5129
▁Cihno	-5130
▁Heces	-5131
▁Herod	-5132
▁Hiine	-5133
▁Kokoh	-5134
▁Sooxe	-5135
▁Wohoe	-5136
▁beebi	-5137
▁biihi	-5138
▁cooco	-5139
▁heenP	-5140
▁henih	-5141
▁hihko	-5142
▁hocoo	-5143
▁hooku	-5144
▁hunit	-5145
▁husei	-5146
▁machi	-5147
▁maybe	-5148
▁nebeh	-5149
▁nebei	-5150
▁neenP	-5151
▁netii	-5152
▁nooxo	-5153
▁notoo	-5154
▁ranch	-5155
▁senii	-5156
▁story	-5157
▁their	-5158
▁white	-5159
▁years	-5160
beetbii	-5161
biineit	-5162
bisisee	-5163
bkuutii	-5164
ceentou	-5165
cihciit	-5166
ciintoo	-5167
ckoohut	-5168
ebiiyoo	-5169
eeneite	-5170
eenetin	-5171
eiheino	-5172
eiiceno	-5173
eiitono	-5174
etiinee	-5175
fferent	-5176
heihino	-5177
ihceeno	-5178
ihciine	-5179
iihoote	-5180
iiniihi	-5181
iiniito	-5182
iinisee	-5183
itenoot	-5184
itiinoo	-5185
itoonou	-5186
iyeihii	-5187
kotiini	-5188
neiheit	-5189
obeinoo	-5190
oekoohu	-5191
oneinoo	-5192
ookuhoo	-5193
ooniini	-5194
ootinee	-5195
ooxuwuh	-5196
oxoneet	-5197
siihino	-5198
tebiheb	-5199
teeneti	-5200
toneihi	-5201
tootiin	-5202
tootono	-5203
useenee	-5204
woohoni	-5205
woohuno	-5206
wuunoot	-5207
xohoono	-5208
xookeet	-5209
yihooni	-5210
▁Alfred	-5211
▁Bebene	-5212
▁Beexoo	-5213
▁Hiihoo	-5214
▁Honouu	-5215
▁Hoonoo	-5216
▁Koohee	-5217
▁Neeseh	-5218
▁Neiwoo	-5219
▁Niinii	-5220
▁Noonoo	-5221
▁beehno	-5222
▁beenii	-5223
▁better	-5224
▁casino	-5225
▁ceebih	-5226
▁cesisP	-5227
▁hebeet	-5228
▁heecet	-5229
▁heeneh	-5230
▁heicin	-5231
▁heihit	-5232
▁hetcii	-5233
▁hihtou	-5234
▁hiicii	-5235
▁hitouu	-5236
▁hootno	-5237
▁hoowce	-5238
▁kookoh	-5239
▁little	-5240
▁neihoo	-5241
▁niihen	-5242
▁nookuo	-5243
▁tihnii	-5244
▁toonhi	-5245
▁toonho	-5246
▁tootei	-5247
▁wonooP	-5248
bebiisei	-5249
beexuuni	-5250
biinoono	-5251
eebeihit	-5252
eeneesih	-5253
eeneitoo	-5254
eiiniihi	-5255
ihniibee	-5256
iibeteee	-5257
iinestoo	-5258
iiniisih	-5259
iitiinoo	-5260
iitiseet	-5261
iitneyei	-5262
iitoxcec	-5263
kohuunoo	-5264
kooneyei	-5265
kotiinoo	-5266
nehyonih	-5267
neihoowu	-5268
noonotii	-5269
notoonoo	-5270
ookeinoo	-5271
ootiinoo	-5272
oowuunin	-5273
osteihoo	-5274
owuuteen	-5275
toneinoo	-5276
wooneihi	-5277
woteihei	-5278
wuseenoo	-5279
yoohobei	-5280
▁Heeneti	-5281
▁Hiisiis	-5282
▁Michael	-5283
▁Toonhee	-5284
▁Yeneini	-5285
▁beneetP	-5286
▁ceeceno	-5287
▁hebetee	-5288
▁heetcei	-5289
▁heetwoo	-5290
▁hiibeex	-5291
▁hinenii	-5292
▁hinihii	-5293
▁hiniihe	-5294
▁hiniisi	-5295
▁hitesii	-5296
▁hitihii	-5297
▁hitooko	-5298
▁hitouwo	-5299
▁hiyeihi	-5300
▁hoowbee	-5301
▁hotonih	-5302
▁hototii	-5303
▁huunoon	-5304
▁netiine	-5305
▁nihbeex	-5306
▁nihcihP	-5307
▁nihwonP	-5308
▁niicesi	-5309
▁niiseih	-5310
▁noohoot	-5311
▁noosouh	-5312
▁siihoow	-5313
▁wonoote	-5314
▁wooxoho	-5315
▁woxonoh	-5316
bebiisceh	-5317
bebiisnei	-5318
betiitoon	-5319
biiwoohut	-5320
cebiseeno	-5321
ciiskoohu	-5322
iiheeneti	-5323
iiteyeino	-5324
iitoxunoo	-5325
ineyoohee	-5326
koohuuhei	-5327
neentoono	-5328
nentooyei	-5329
niiitowuu	-5330
niisihoot	-5331
niistiini	-5332
siikoohut	-5333
tooneenoo	-5334
wonineyei	-5335
▁Heetihce	-5336
▁HiihoowP	-5337
▁Kookuyon	-5338
▁Riverton	-5339
▁Washakie	-5340
▁beexuuni	-5341
▁biiseeno	-5342
▁ceeseini	-5343
▁ciineyoo	-5344
▁heeneesi	-5345
▁heeneino	-5346
▁heetcihP	-5347
▁heetihno	-5348
▁hiinoono	-5349
▁hiisiini	-5350
▁hokeciih	-5351
▁hoxtoono	-5352
▁kooniini	-5353
▁koxuuhuu	-5354
▁language	-5355
▁neeheyei	-5356
▁nihbeebe	-5357
▁nihniini	-5358
▁niibeebi	-5359
▁niihiihi	-5360
▁niikokoh	-5361
▁niisoono	-5362
▁niistiit	-5363
▁niistoot	-5364
▁noxuutei	-5365
▁remember	-5366
▁somebody	-5367
▁tootheih	-5368
▁tousiini	-5369
ceenokunoo	-5370
ciineneihi	-5371
eeneestoot	-5372
eentootiin	-5373
eeteihinoo	-5374
koonenowuu	-5375
koubiixuut	-5376
neniininoo	-5377
nihiitooni	-5378
niisinihii	-5379
niiteheibi	-5380
niitootoxu	-5381
oohootowoo	-5382
owouunonin	-5383
▁Heetniihe	-5384
▁beteennih	-5385
▁heeneinoo	-5386
▁heenentoo	-5387
▁heetciine	-5388
▁heetniiwo	-5389
▁heetnotto	-5390
▁heetoonoo	-5391
▁heiceebeh	-5392
▁heinoonin	-5393
▁hiisiisii	-5394
▁hitiiteen	-5395
▁hotousihi	-5396
▁neeneisih	-5397
▁nihneyeih	-5398
▁niibeebee	-5399
▁niibeetce	-5400
▁nonoohowo	-5401
eenetiitoon	-5402
niiteheibin	-5403
noohobeinoo	-5404
noohootowuu	-5405
oonoxoeheti	-5406
▁Heetneenei	-5407
▁Heitoustoo	-5408
▁Nookhoosei	-5409
▁heecxooyei	-5410
▁heeneisiii	-5411
▁heetneyeih	-5412
▁hehniisini	-5413
▁heninouhuu	-5414
▁hiincebiit	-5415
▁neniiseiht	-5416
▁nihwoniini	-5417
▁niibootono	-5418
▁niinokohut	-5419
▁notoyeicii	-5420
iisiitenowoo	-5421
noohobeihino	-5422
noohootowuno	-5423
▁beskooteeno	-5424
▁biibinootno	-5425
▁heetneeneis	-5426
▁heetniinono	-5427
▁hiinikotiit	-5428
▁hiiteeniihi	-5429
▁nihtootonou	-5430
▁teiitoonoku	-5431
ihnoohootowuu	-5432
niiteheibeihi	-5433
nohkuseiciini	-5434
seenetiitooni	-5435
▁Tohnookenini	-5436
▁heetniisiine	-5437
▁hetebinouhuu	-5438
▁niibeeteenei	-5439
▁nohohooniihi	-5440
▁teeteecibini	-5441
▁teiitooniihi	-5442
▁toonheesiini	-5443
eboowuniihiihi	-5444
niiteheibeinoo	-5445
▁heeneesinihii	-5446
▁heeneisinihii	-5447
▁hiniisooninoo	-5448
▁hoseihiinenno	-5449
▁neniiheneihit	-5450
▁niinoohobeihi	-5451
▁wookeciisoono	-5452
▁nihnoohootowoo	-5453
▁niihencebkoohu	-5454
▁niiteheibetiit	-5455
▁tohuuwonniitoo	-5456
'}	-5457
aa	-5458
ai	-5459
cl	-5460
fe	-5461
om	-5462
tu	-5463
up	-5464
▁{	-5465
'\'	-5466
ado	-5467
amp	-5468
ble	-5469
eeb	-5470
eis	-5471
hce	-5472
iet	-5473
ily	-5474
ink	-5475
ixo	-5476
lis	-5477
nie	-5478
nsi	-5479
nuh	-5480
ohP	-5481
rid	-5482
sen	-5483
tel	-5484
urg	-5485
uuu	-5486
xes	-5487
xko	-5488
▁Af	-5489
▁Yo	-5490
▁pi	-5491
atch	-5492
behP	-5493
bixo	-5494
ceeh	-5495
ceih	-5496
cixo	-5497
ebei	-5498
ebwo	-5499
eebi	-5500
ehin	-5501
eihP	-5502
eiis	-5503
einP	-5504
eine	-5505
enih	-5506
idge	-5507
ihok	-5508
ikoo	-5509
immy	-5510
ixoh	-5511
konP	-5512
kooP	-5513
kouu	-5514
koxu	-5515
lack	-5516
nees	-5517
nene	-5518
nkuu	-5519
noho	-5520
once	-5521
onit	-5522
onth	-5523
oses	-5524
oune	-5525
ouuh	-5526
sibi	-5527
teni	-5528
toko	-5529
touh	-5530
uhee	-5531
wooP	-5532
xoni	-5533
▁All	-5534
▁Cal	-5535
▁Ger	-5536
▁Kee	-5537
▁Kou	-5538
▁Man	-5539
▁Wyo	-5540
▁car	-5541
▁chi	-5542
▁gra	-5543
▁num	-5544
▁pic	-5545
▁tii	-5546
▁tra	-5547
beeci	-5548
beeet	-5549
beexo	-5550
bihce	-5551
biice	-5552
bisce	-5553
ceesi	-5554
cihit	-5555
ciinP	-5556
clock	-5557
eebit	-5558
eesce	-5559
eibeh	-5560
eiici	-5561
eiihi	-5562
eisei	-5563
enver	-5564
esnee	-5565
ester	-5566
etouu	-5567
hehin	-5568
hobei	-5569
hould	-5570
huuno	-5571
ibeih	-5572
ihkoe	-5573
ihkuu	-5574
iihee	-5575
iinis	-5576
iiten	-5577
illie	-5578
iteto	-5579
kooti	-5580
kosou	-5581
koyoo	-5582
nesei	-5583
nohoo	-5584
nokoo	-5585
nouuP	-5586
obert	-5587
oenii	-5588
ohoot	-5589
oneih	-5590
oniit	-5591
oohoe	-5592
oonoh	-5593
oosou	-5594
oseph	-5595
otino	-5596
oubee	-5597
oucoo	-5598
oxoot	-5599
rings	-5600
sihoo	-5601
siwoo	-5602
teiit	-5603
teini	-5604
tenin	-5605
tonoh	-5606
toxoo	-5607
uhuhu	-5608
uhuni	-5609
uiver	-5610
xouti	-5611
▁Char	-5612
▁Cora	-5613
▁High	-5614
▁HiiP	-5615
▁Hiis	-5616
▁Noot	-5617
▁Ther	-5618
▁This	-5619
▁Woxu	-5620
▁behi	-5621
▁ceeP	-5622
▁ciiP	-5623
▁clan	-5624
▁comm	-5625
▁forg	-5626
▁hesi	-5627
▁hide	-5628
▁koni	-5629
▁koxu	-5630
▁nece	-5631
▁need	-5632
▁star	-5633
▁tihi	-5634
▁toma	-5635
▁wait	-5636
▁woxP	-5637
▁yeih	-5638
beenee	-5639
behiis	-5640
betooo	-5641
bouhut	-5642
cebiis	-5643
ceecee	-5644
ceinoo	-5645
cesise	-5646
cesisi	-5647
cihnoh	-5648
ciinoh	-5649
coonee	-5650
eeneiP	-5651
eenowo	-5652
eesini	-5653
eibeee	-5654
eiheit	-5655
eihibe	-5656
eihoti	-5657
esitee	-5658
eteini	-5659
etiibe	-5660
etinee	-5661
heeyou	-5662
iheeno	-5663
ihteco	-5664
iisnii	-5665
iisnoh	-5666
iitbii	-5667
iitnoo	-5668
iseeno	-5669
itiino	-5670
ixotii	-5671
koyono	-5672
kuhnee	-5673
lorado	-5674
neehoh	-5675
neetoh	-5676
neetoo	-5677
neetou	-5678
neeyoh	-5679
neihko	-5680
niisou	-5681
niiwoh	-5682
nonowu	-5683
ntooni	-5684
oehini	-5685
okuuto	-5686
onoxoh	-5687
oobooo	-5688
ookoho	-5689
oonuhu	-5690
ootone	-5691
outiit	-5692
oxonoo	-5693
seenee	-5694
seenet	-5695
sibeit	-5696
siinib	-5697
terman	-5698
toohoe	-5699
toonou	-5700
utoono	-5701
uxohoo	-5702
woohon	-5703
woonei	-5704
xouwoo	-5705
xuwuut	-5706
▁Bates	-5707
▁Bebii	-5708
▁Bixoo	-5709
▁Cenii	-5710
▁Cihce	-5711
▁Hebes	-5712
▁Hehii	-5713
▁Hinii	-5714
▁Hisei	-5715
▁Hotoo	-5716
▁Jimmy	-5717
▁Kohei	-5718
▁Moses	-5719
▁Neeso	-5720
▁Nihce	-5721
▁Niiwo	-5722
▁Nonii	-5723
▁There	-5724
▁Tohno	-5725
▁Where	-5726
▁beexu	-5727
▁benih	-5728
▁boboo	-5729
▁chair	-5730
▁cihwo	-5731
▁cooxu	-5732
▁heebi	-5733
▁hiniP	-5734
▁hinow	-5735
▁hokou	-5736
▁hotou	-5737
▁houun	-5738
▁month	-5739
▁neetP	-5740
▁nenih	-5741
▁niinP	-5742
▁nohuu	-5743
▁nonih	-5744
▁sitee	-5745
▁teese	-5746
▁teete	-5747
▁thing	-5748
▁wagon	-5749
▁words	-5750
beetini	-5751
beihiit	-5752
bisceno	-5753
bisiini	-5754
ceceeco	-5755
ceiteet	-5756
ckoohun	-5757
ebiinoo	-5758
ecoonee	-5759
eeneitP	-5760
eeteiht	-5761
eihoone	-5762
eiihihi	-5763
esoonee	-5764
ihciino	-5765
ihnotto	-5766
iibiibi	-5767
iibiino	-5768
iiciino	-5769
iikohei	-5770
iikokoh	-5771
iikooko	-5772
iiniisi	-5773
iisinoo	-5774
iitooto	-5775
iiwooku	-5776
itootoo	-5777
kuutiin	-5778
kuutono	-5779
neenino	-5780
neihiit	-5781
niisiis	-5782
niiteen	-5783
nowunee	-5784
oexooto	-5785
ohcoono	-5786
ohuunoo	-5787
ohuunou	-5788
okuutou	-5789
oniinoo	-5790
oobeene	-5791
oobeese	-5792
oohkoni	-5793
oohobei	-5794
oohowou	-5795
ookeeni	-5796
ookonoo	-5797
ooninee	-5798
oxoneit	-5799
oxuneet	-5800
siikohe	-5801
sinenee	-5802
teeneih	-5803
tooneet	-5804
uunokoy	-5805
xobeihi	-5806
yooniib	-5807
▁Father	-5808
▁Joseph	-5809
▁Kooxhe	-5810
▁Neniis	-5811
▁Nihcii	-5812
▁Niiceh	-5813
▁Niihoo	-5814
▁Niitei	-5815
▁Noonih	-5816
▁Robert	-5817
▁Siisii	-5818
▁Tillie	-5819
▁Woowuh	-5820
▁Yohwot	-5821
▁beebii	-5822
▁beetoh	-5823
▁booboo	-5824
▁cebiis	-5825
▁cenoot	-5826
▁cihbee	-5827
▁cihnoo	-5828
▁heetii	-5829
▁hehyoo	-5830
▁heseis	-5831
▁hiwoxu	-5832
▁honooP	-5833
▁hoosoo	-5834
▁kookoo	-5835
▁koonoh	-5836
▁kouute	-5837
▁mother	-5838
▁nehcih	-5839
▁neneeP	-5840
▁niicei	-5841
▁niihei	-5842
▁noohoo	-5843
▁nootii	-5844
▁nooxow	-5845
▁tohnih	-5846
▁tohnoo	-5847
▁toonce	-5848
▁toonne	-5849
▁touhoo	-5850
▁tounoo	-5851
▁tousoo	-5852
▁wosouh	-5853
▁yeiyoo	-5854
beebetee	-5855
ceestoot	-5856
ceniihei	-5857
ciiteini	-5858
eebeinoo	-5859
eeneixoo	-5860
eenetsin	-5861
eenowoot	-5862
eestoobe	-5863
eininehk	-5864
eiyeihii	-5865
esterday	-5866
etehkoni	-5867
ihbeetoh	-5868
ihceenok	-5869
ihciibii	-5870
ihnoonoo	-5871
iiniseet	-5872
iiseenei	-5873
iistooni	-5874
iitooyoo	-5875
inonoono	-5876
kohtobei	-5877
koohunee	-5878
neentoot	-5879
neihinee	-5880
niikohei	-5881
niisihoo	-5882
niniixoo	-5883
noohowot	-5884
nooxohei	-5885
notiihoo	-5886
oneihino	-5887
onohowoo	-5888
ootowoot	-5889
ootowuno	-5890
osohowuu	-5891
otoyooni	-5892
oubeinoo	-5893
seenetit	-5894
siiwohei	-5895
soohowou	-5896
teesisee	-5897
tenowuno	-5898
tiitonou	-5899
toneihit	-5900
wonneyei	-5901
wonniisi	-5902
woteesee	-5903
yeitinoo	-5904
▁Beeteet	-5905
▁Heetcih	-5906
▁Hooxono	-5907
▁Neneeni	-5908
▁Neniihe	-5909
▁Nihbeet	-5910
▁Wyoming	-5911
▁beniice	-5912
▁bisceno	-5913
▁ceniine	-5914
▁ciinouu	-5915
▁heetbeh	-5916
▁heetkoh	-5917
▁heniine	-5918
▁heniixo	-5919
▁hetoono	-5920
▁hiniici	-5921
▁hitesei	-5922
▁hitonou	-5923
▁hitoone	-5924
▁hoonouu	-5925
▁hootoho	-5926
▁huusoho	-5927
▁kooheih	-5928
▁neentoo	-5929
▁neeyeih	-5930
▁nihteco	-5931
▁niibeex	-5932
▁niiniis	-5933
▁niistoo	-5934
▁nookehe	-5935
▁noonsoo	-5936
▁woteiho	-5937
▁wotooho	-5938
biineinoo	-5939
binootino	-5940
cecnibeet	-5941
eibeeenoo	-5942
eitiitoon	-5943
eiyeitino	-5944
eseihinoo	-5945
ihbisiini	-5946
ihiitooni	-5947
ihtoyooho	-5948
iiniisihi	-5949
iyootiini	-5950
koohunino	-5951
koohuunoo	-5952
neniiwoot	-5953
neyeitiit	-5954
nihkoxcei	-5955
niistoono	-5956
noohootow	-5957
noonokohu	-5958
notiihoot	-5959
nottonoot	-5960
ootoxuuni	-5961
ooxuwutii	-5962
ouubeihit	-5963
teeneihit	-5964
toonootou	-5965
wooyeitit	-5966
yoohootou	-5967
▁Arapahoe	-5968
▁Arapahos	-5969
▁Beisiihi	-5970
▁Colorado	-5971
▁Hohkonee	-5972
▁Niiyouno	-5973
▁Noononox	-5974
▁Totoonee	-5975
▁Waterman	-5976
▁ceeceibe	-5977
▁ceeciini	-5978
▁ceeciisP	-5979
▁ceibiihi	-5980
▁ceneeyoh	-5981
▁ciisiihi	-5982
▁heesooho	-5983
▁heeteihi	-5984
▁heetohno	-5985
▁heetonou	-5986
▁heetxouu	-5987
▁hehiixoo	-5988
▁hibiixuu	-5989
▁hiiciihi	-5990
▁hiicooon	-5991
▁konohxuu	-5992
▁kookoyoo	-5993
▁kooxheet	-5994
▁neesiiis	-5995
▁neneecee	-5996
▁nihneeni	-5997
▁niibeeti	-5998
▁niibenei	-5999
▁niihooku	-6000
▁niscinec	-6001
▁nisicoho	-6002
▁nohkusei	-6003
▁noohowun	-6004
▁tecenoon	-6005
▁tihbetee	-6006
▁tihnosou	-6007
▁tohbixoo	-6008
▁tohuunii	-6009
▁toonouno	-6010
▁wooniini	-6011
▁yeneinei	-6012
▁yihkoohu	-6013
cesistoono	-6014
ciintoonoo	-6015
ebiihciihi	-6016
ebwoteikuu	-6017
eeneistoot	-6018
etniisiini	-6019
ihniitonee	-6020
ihnotiitii	-6021
iitiseenoo	-6022
kotiitooni	-6023
noonoyooho	-6024
nottonoono	-6025
oheihiinoo	-6026
okuutooono	-6027
oneebetiit	-6028
oowuhcehit	-6029
ooxohoenei	-6030
sinihiitou	-6031
yoohowoono	-6032
▁Cihbiinei	-6033
▁Heetihcih	-6034
▁Heeyouhuu	-6035
▁Neihoowno	-6036
▁Neihoowuu	-6037
▁Niineyeih	-6038
▁beskootee	-6039
▁ceciniihi	-6040
▁ciibehnih	-6041
▁different	-6042
▁heeneicoo	-6043
▁heeteetoo	-6044
▁heetihnii	-6045
▁heetniibi	-6046
▁heetniine	-6047
▁heetniitP	-6048
▁heneeyeih	-6049
▁heniisiii	-6050
▁hetebixoo	-6051
▁hetneihow	-6052
▁hibiixuut	-6053
▁hiicetine	-6054
▁hiiheyoti	-6055
▁hiihoowno	-6056
▁hiitoocei	-6057
▁hiniisoon	-6058
▁hohootine	-6059
▁hooteinee	-6060
▁hoowuniih	-6061
▁nihbiibii	-6062
▁nihbiinoo	-6063
▁nihceecei	-6064
▁nihcoocoo	-6065
▁nihooneih	-6066
▁niibeetei	-6067
▁niibeetoh	-6068
▁niibeteee	-6069
▁niineenei	-6070
▁niineyeiP	-6071
▁niitootox	-6072
▁noohootoo	-6073
▁noonotnoo	-6074
▁noosounee	-6075
cihbisiseet	-6076
ciineneihit	-6077
cxooyeihino	-6078
eeneistooni	-6079
kouutenowuu	-6080
niiitowuune	-6081
niitouuhuni	-6082
ouuyokoyono	-6083
teesiseenoo	-6084
tonouneihit	-6085
xooyeiniihi	-6086
yooxuunokoy	-6087
▁Heeninouhu	-6088
▁Heetneyeih	-6089
▁Hetneihoow	-6090
▁Nihnoohowo	-6091
▁beteeniihi	-6092
▁ciineyoono	-6093
▁heetciitei	-6094
▁heetniibii	-6095
▁heetniicih	-6096
▁heniinoono	-6097
▁heniiwohoe	-6098
▁hiihoowceh	-6099
▁hoowuneyei	-6100
▁hooxeihino	-6101
▁howooyeiti	-6102
▁neihoownee	-6103
▁nihniistii	-6104
▁niibeetnee	-6105
▁nowookecii	-6106
▁toonheesou	-6107
▁toyooniihi	-6108
▁wonooyooni	-6109
cesisihcehit	-6110
ikouutenowuu	-6111
xouuwuseenoo	-6112
▁Siihoowuuni	-6113
▁beneesiseit	-6114
▁beteenbetee	-6115
▁cebiihinoot	-6116
▁hebeeteinin	-6117
▁hebesiibehe	-6118
▁heestousihi	-6119
▁heeteetoono	-6120
▁heetihneyei	-6121
▁heetneeneti	-6122
▁hiicetiinin	-6123
▁hiwoxuuhoox	-6124
▁hooxoeniihi	-6125
▁hooxuwuunen	-6126
▁hoteiciinee	-6127
▁kokoohowoot	-6128
▁neniihenceb	-6129
▁niitootonou	-6130
▁nisikocoono	-6131
▁nootneihino	-6132
cebiihineenoo	-6133
eeneisiitenou	-6134
niiteheibeino	-6135
sowobeihiinoo	-6136
▁betebihehihi	-6137
▁heenetiitono	-6138
▁heetneeninoo	-6139
▁hiniisiihoho	-6140
▁hitotiibinoo	-6141
▁howooyeitiit	-6142
▁kookouniisoo	-6143
▁neeneisneyei	-6144
▁neeneistoono	-6145
▁niitbisiseet	-6146
▁tohnookenini	-6147
eeneestootiini	-6148
eeneistootiini	-6149
▁beniiineseino	-6150
▁heetniistiino	-6151
▁heetnoowouuno	-6152
▁heisonooninoo	-6153
▁hiitousinihii	-6154
▁hiteexokuuton	-6155
▁hookonooniihi	-6156
▁niitowootowoo	-6157
▁nonookoxoneet	-6158
▁Tohuuwonniitoo	-6159
▁beesbeteetosoo	-6160
▁heetneihoowooh	-6161
▁heetneihoowuuni	-6162
▁heetniiteseinee	-6163
▁heninouhuuseino	-6164
..	-6165
Wo	-6166
cr	-6167
ek	-6168
ew	-6169
ey	-6170
ub	-6171
Hee	-6172
amb	-6173
ana	-6174
ara	-6175
ari	-6176
ato	-6177
aul	-6178
awa	-6179
cup	-6180
des	-6181
ect	-6182
eep	-6183
eey	-6184
hey	-6185
iic	-6186
ked	-6187
kiy	-6188
lly	-6189
nam	-6190
ned	-6191
oes	-6192
ont	-6193
row	-6194
the	-6195
tis	-6196
unt	-6197
uuP	-6198
▁Du	-6199
▁Gl	-6200
▁In	-6201
▁Pl	-6202
▁Ty	-6203
▁ag	-6204
▁an	-6205
▁by	-6206
▁ea	-6207
▁el	-6208
▁le	-6209
▁mi	-6210
adys	-6211
ally	-6212
andy	-6213
athe	-6214
ceen	-6215
ceto	-6216
cher	-6217
cooP	-6218
eace	-6219
ebih	-6220
ebin	-6221
ecii	-6222
eece	-6223
eeet	-6224
eiiP	-6225
enne	-6226
ents	-6227
etty	-6228
exou	-6229
fore	-6230
heen	-6231
hiih	-6232
hiis	-6233
host	-6234
imes	-6235
ineh	-6236
init	-6237
iseh	-6238
itox	-6239
kouh	-6240
llar	-6241
lume	-6242
nake	-6243
nese	-6244
nooh	-6245
noxo	-6246
oeso	-6247
oohk	-6248
orky	-6249
ouku	-6250
ouse	-6251
rong	-6252
rvin	-6253
sooo	-6254
tain	-6255
tece	-6256
teec	-6257
ties	-6258
tiiP	-6259
uwoo	-6260
weet	-6261
woku	-6262
wuhe	-6263
xohu	-6264
yehk	-6265
▁Arm	-6266
▁Big	-6267
▁Boh	-6268
▁Chi	-6269
▁Hud	-6270
▁Koh	-6271
▁Mis	-6272
▁New	-6273
▁Nis	-6274
▁Par	-6275
▁Red	-6276
▁See	-6277
▁bag	-6278
▁dra	-6279
▁fam	-6280
▁kon	-6281
▁owl	-6282
▁por	-6283
▁pro	-6284
▁put	-6285
▁use	-6286
▁war	-6287
ation	-6288
betin	-6289
biici	-6290
ceini	-6291
citii	-6292
ebiib	-6293
ebnou	-6294
eesee	-6295
eiiho	-6296
eiine	-6297
enoot	-6298
eyeit	-6299
hiisi	-6300
ibeet	-6301
ihooo	-6302
ihoti	-6303
iicet	-6304
iineh	-6305
iitse	-6306
iiwon	-6307
iixoh	-6308
iiyih	-6309
ixoho	-6310
kiyon	-6311
kohko	-6312
kohou	-6313
kohun	-6314
kuhuu	-6315
kunoo	-6316
landa	-6317
niise	-6318
nohkP	-6319
nohku	-6320
ohuno	-6321
ontoo	-6322
oosoo	-6323
oowni	-6324
oowno	-6325
ooxoe	-6326
oubei	-6327
ouxoh	-6328
riday	-6329
teenP	-6330
tiiho	-6331
tohei	-6332
touhu	-6333
toxuu	-6334
uheit	-6335
uhuut	-6336
useum	-6337
uuyoo	-6338
uwuno	-6339
wohou	-6340
wooon	-6341
xohou	-6342
xohun	-6343
xoxoo	-6344
xuwut	-6345
▁Bees	-6346
▁Biih	-6347
▁Blue	-6348
▁Cese	-6349
▁Chey	-6350
▁Fort	-6351
▁Hart	-6352
▁HeeP	-6353
▁Hite	-6354
▁Jake	-6355
▁June	-6356
▁Kate	-6357
▁KooP	-6358
▁Nisi	-6359
▁NooP	-6360
▁Paul	-6361
▁Sara	-6362
▁Sher	-6363
▁Then	-6364
▁anot	-6365
▁been	-6366
▁ceeb	-6367
▁dogs	-6368
▁five	-6369
▁hand	-6370
▁henP	-6371
▁hill	-6372
▁hohe	-6373
▁meow	-6374
▁mine	-6375
▁neti	-6376
▁only	-6377
▁pray	-6378
▁same	-6379
▁tene	-6380
▁wonP	-6381
▁wood	-6382
beetei	-6383
biibis	-6384
bixouu	-6385
cebixo	-6386
cebtoo	-6387
ceecii	-6388
ceihit	-6389
cesiso	-6390
cihnei	-6391
ciibei	-6392
cowouu	-6393
cupine	-6394
eather	-6395
eebiit	-6396
eekuut	-6397
eicini	-6398
eiheti	-6399
eitini	-6400
eiwoot	-6401
enoono	-6402
enowoo	-6403
hiinoo	-6404
ichard	-6405
ietnam	-6406
ihcoon	-6407
ihinee	-6408
ihwoti	-6409
ihxouu	-6410
iibeex	-6411
iiciis	-6412
iicoon	-6413
iinise	-6414
iiscee	-6415
iisini	-6416
iisnoo	-6417
iitbis	-6418
iiwoot	-6419
ikohei	-6420
inonou	-6421
kohuut	-6422
koneen	-6423
koonee	-6424
kuunee	-6425
neetih	-6426
neihei	-6427
netini	-6428
niihoo	-6429
niinin	-6430
niisee	-6431
nohkce	-6432
nonihi	-6433
nootou	-6434
nosouP	-6435
nouhut	-6436
nouuso	-6437
oeneet	-6438
oenowu	-6439
oeseet	-6440
oniine	-6441
oninee	-6442
onohou	-6443
oonouu	-6444
oowusi	-6445
oowuus	-6446
ounibe	-6447
outeen	-6448
outibe	-6449
owunee	-6450
sihoot	-6451
teekuu	-6452
tokoho	-6453
tootoo	-6454
uuhuno	-6455
woonoo	-6456
wootou	-6457
wuseet	-6458
xoneet	-6459
xonouu	-6460
xoonee	-6461
xuusii	-6462
yeinei	-6463
yohkon	-6464
yohoet	-6465
yoohut	-6466
yoowuu	-6467
▁Black	-6468
▁Heene	-6469
▁Henei	-6470
▁Hetei	-6471
▁Hiito	-6472
▁Hooxo	-6473
▁Hosei	-6474
▁Hotei	-6475
▁Irvin	-6476
▁Konou	-6477
▁Nenii	-6478
▁Porky	-6479
▁Siihe	-6480
▁Snake	-6481
▁These	-6482
▁Wonoh	-6483
▁beeso	-6484
▁betii	-6485
▁bunch	-6486
▁candy	-6487
▁cebno	-6488
▁ciito	-6489
▁conoo	-6490
▁doing	-6491
▁heeso	-6492
▁heixo	-6493
▁hibeh	-6494
▁hicoo	-6495
▁hohei	-6496
▁hoyoo	-6497
▁koowo	-6498
▁neece	-6499
▁nihbe	-6500
▁nohci	-6501
▁nohko	-6502
▁notou	-6503
▁peace	-6504
▁place	-6505
▁ready	-6506
▁seese	-6507
▁tihbi	-6508
▁times	-6509
▁under	-6510
▁wohno	-6511
▁yenii	-6512
beetnee	-6513
benowuu	-6514
cebitee	-6515
cesisii	-6516
ciihehe	-6517
ciixoku	-6518
cinihii	-6519
ckuutii	-6520
eeneihi	-6521
eeneise	-6522
eeneyei	-6523
eeteene	-6524
eetiine	-6525
eetiini	-6526
eiheheb	-6527
eihehii	-6528
eiheihi	-6529
eihoobe	-6530
eineyei	-6531
einokoy	-6532
einowoo	-6533
eneiise	-6534
eneiisi	-6535
etiitou	-6536
hiisebi	-6537
hiitono	-6538
hootowu	-6539
ihceece	-6540
ihcesis	-6541
ihiinin	-6542
ihoowoo	-6543
iibetee	-6544
iibiici	-6545
iikonoo	-6546
iiniihe	-6547
iiniiho	-6548
iiniine	-6549
iitenoo	-6550
iitoone	-6551
iiyihoo	-6552
iiyohei	-6553
ikotiit	-6554
iyoohok	-6555
kotoyoh	-6556
kotoyoo	-6557
kuhneet	-6558
netiino	-6559
niiinon	-6560
niiteno	-6561
niitoku	-6562
nookeni	-6563
notiiho	-6564
nottoni	-6565
nouuhce	-6566
nowuune	-6567
oenowoo	-6568
onbiibi	-6569
ooboone	-6570
oohobee	-6571
ookuuno	-6572
oonowoo	-6573
oosouwo	-6574
oowohoe	-6575
oowohou	-6576
ouutouu	-6577
seenoni	-6578
siiniit	-6579
siinini	-6580
tebiheh	-6581
teetees	-6582
teinino	-6583
toniihi	-6584
tonotin	-6585
toonoho	-6586
towooto	-6587
toxuuni	-6588
uuhunoo	-6589
uxotiin	-6590
wukoohu	-6591
yeinsee	-6592
yeintoo	-6593
▁Battle	-6594
▁Biikoo	-6595
▁Cihnee	-6596
▁Denver	-6597
▁Gladys	-6598
▁Heetee	-6599
▁Hiiyoo	-6600
▁Hooxei	-6601
▁Hudson	-6602
▁Neehii	-6603
▁Neihow	-6604
▁Niibei	-6605
▁Niicee	-6606
▁Niinee	-6607
▁Siinih	-6608
▁TohuuP	-6609
▁Tootou	-6610
▁Tousoo	-6611
▁Willie	-6612
▁Wilson	-6613
▁beetce	-6614
▁beteee	-6615
▁bexook	-6616
▁cihnii	-6617
▁coowoo	-6618
▁family	-6619
▁heesno	-6620
▁heneet	-6621
▁heniit	-6622
▁hetneh	-6623
▁hiisoo	-6624
▁hootne	-6625
▁hooweh	-6626
▁hooxou	-6627
▁houuno	-6628
▁howoxu	-6629
▁husein	-6630
▁museum	-6631
▁neihce	-6632
▁nenees	-6633
▁nihbeh	-6634
▁nihnih	-6635
▁nihnon	-6636
▁nihtoo	-6637
▁niineh	-6638
▁niisci	-6639
▁niiwoh	-6640
▁nookoh	-6641
▁nookoo	-6642
▁noxuhu	-6643
▁pretty	-6644
▁should	-6645
▁tesnoh	-6646
▁tohbih	-6647
▁tomato	-6648
▁wootoo	-6649
▁yiihoo	-6650
beeniihi	-6651
beinooni	-6652
biiseeno	-6653
cebiihee	-6654
ceenokun	-6655
ceitoono	-6656
ciiniine	-6657
ciinonoo	-6658
ciitenoo	-6659
ciitenou	-6660
ebkoohut	-6661
ecootiin	-6662
eeneisii	-6663
eesoohok	-6664
eihehihi	-6665
eiheihii	-6666
eiheinoo	-6667
eihiinit	-6668
einoowoo	-6669
esinihii	-6670
hotiicii	-6671
ihbeesei	-6672
ihbiinee	-6673
ihneeneh	-6674
ihnoohoo	-6675
iicebeso	-6676
iineenei	-6677
iiniinii	-6678
iitenoot	-6679
iitowuno	-6680
iixoxone	-6681
itetowuu	-6682
itoohuno	-6683
itooneit	-6684
kohtowuh	-6685
koxuuten	-6686
neebixoo	-6687
neeciini	-6688
neehoono	-6689
nehtonih	-6690
nihiinee	-6691
niibooto	-6692
niihisee	-6693
niistone	-6694
niitonee	-6695
nohookee	-6696
noohowun	-6697
nooxebii	-6698
nooxeihi	-6699
notiitii	-6700
oeniinii	-6701
oeseinoo	-6702
onbeesei	-6703
ooheihit	-6704
oohobeit	-6705
oohoohei	-6706
oohootoo	-6707
ookoocei	-6708
ooneinoo	-6709
oonootee	-6710
oooninoo	-6711
oowotono	-6712
ooxootee	-6713
oteenowo	-6714
otooneet	-6715
sehtonih	-6716
siitenoo	-6717
siseenoo	-6718
teeneeto	-6719
teeniini	-6720
tenowoot	-6721
tobeenoo	-6722
toototou	-6723
toyeinou	-6724
ttoneihi	-6725
woonotii	-6726
xooteihi	-6727
yooniibi	-6728
▁Ceeciis	-6729
▁HeetihP	-6730
▁Heetnoh	-6731
▁Heibeex	-6732
▁Hiinoon	-6733
▁Hoownee	-6734
▁Keihcii	-6735
▁Koonuhu	-6736
▁Neniisi	-6737
▁Niiseti	-6738
▁Nohowoh	-6739
▁Richard	-6740
▁Siiheet	-6741
▁Toothei	-6742
▁Tousihi	-6743
▁Yolanda	-6744
▁another	-6745
▁bebeneh	-6746
▁beexouu	-6747
▁beneeto	-6748
▁biisiii	-6749
▁ceneece	-6750
▁cesisih	-6751
▁ciibehP	-6752
▁heeneiP	-6753
▁heetini	-6754
▁heetkou	-6755
▁heetnih	-6756
▁heetohP	-6757
▁heetono	-6758
▁heetyii	-6759
▁heibeex	-6760
▁heihtou	-6761
▁heniisP	-6762
▁heniisi	-6763
▁heseise	-6764
▁hesooho	-6765
▁heticoo	-6766
▁hibeete	-6767
▁hineiko	-6768
▁honinoo	-6769
▁hoowkou	-6770
▁hoownii	-6771
▁hotiibe	-6772
▁kooheni	-6773
▁kooneet	-6774
▁kooxnih	-6775
▁neeceen	-6776
▁neeneiP	-6777
▁neteixo	-6778
▁neyeihi	-6779
▁niicooo	-6780
▁niisnii	-6781
▁nokokuy	-6782
▁nonooke	-6783
▁nothing	-6784
▁tohuuce	-6785
▁toonnih	-6786
▁toothei	-6787
▁yeinino	-6788
▁yeiyono	-6789
besiiwoho	-6790
beteeenoo	-6791
biiwoohun	-6792
cetenowoo	-6793
eecikoohu	-6794
eenebeeno	-6795
eenesooho	-6796
eestoonee	-6797
eihehinoo	-6798
eiheihino	-6799
eiinowuno	-6800
eiyeitini	-6801
esiiniihe	-6802
ihkuutiit	-6803
iicxooyei	-6804
iineineet	-6805
iiskoneet	-6806
iistiinoo	-6807
inoneihit	-6808
inowunehk	-6809
kecouhuhu	-6810
neeceenit	-6811
neeneetou	-6812
neniteewo	-6813
niiseihit	-6814
noohobein	-6815
ooxeihino	-6816
oteeyooni	-6817
ouuneenoo	-6818
owouunone	-6819
sinihiini	-6820
tonounowu	-6821
uukoheini	-6822
uukoheino	-6823
uusiiteno	-6824
▁Cheyenne	-6825
▁Florence	-6826
▁Hartwell	-6827
▁Heetwone	-6828
▁Hehiixoo	-6829
▁Nihnoono	-6830
▁Nohkuuhu	-6831
▁anything	-6832
▁biisiino	-6833
▁biixooto	-6834
▁ceceecei	-6835
▁cihbiini	-6836
▁heeneihi	-6837
▁heeneisi	-6838
▁heenesih	-6839
▁heesooni	-6840
▁heetiini	-6841
▁heetitee	-6842
▁heetniih	-6843
▁heneecei	-6844
▁heneicii	-6845
▁heniihei	-6846
▁hiniitou	-6847
▁hitotiiw	-6848
▁hotootou	-6849
▁kooxwoow	-6850
▁neeciihi	-6851
▁neeneisi	-6852
▁neentoot	-6853
▁neeyouno	-6854
▁neniteen	-6855
▁nihcesis	-6856
▁nihciini	-6857
▁niibeexP	-6858
▁niiciino	-6859
▁niikooko	-6860
▁niinenii	-6861
▁niiniini	-6862
▁niinonih	-6863
▁niinooko	-6864
▁niisiiis	-6865
▁nooxowoo	-6866
▁notiitii	-6867
▁seniiini	-6868
▁teesiini	-6869
▁tohnooke	-6870
▁tohuucee	-6871
▁tonounou	-6872
▁toonhoot	-6873
▁tooniini	-6874
▁woosooni	-6875
▁woxkonee	-6876
▁xookuuhu	-6877
biiwoohuno	-6878
ceecesisoo	-6879
cesisneyei	-6880
ebeihtoono	-6881
eenebeihin	-6882
eeneiniihi	-6883
eestoononi	-6884
eneihiinoo	-6885
ihbiineeno	-6886
iiniseenoo	-6887
iisiitenee	-6888
iitiseehek	-6889
iitonounou	-6890
neniteesoo	-6891
netiitooni	-6892
niiitowoot	-6893
niiniistii	-6894
niitonoono	-6895
noohobetit	-6896
noohootowu	-6897
noonottone	-6898
nouuhcehit	-6899
nouuneenoo	-6900
onbiineihi	-6901
oneihiinoo	-6902
owooyeitit	-6903
sebeyohoet	-6904
siitenowoo	-6905
towuuneeno	-6906
uukoheinoo	-6907
woteinooni	-6908
yiisiihino	-6909
▁Ciiteinoo	-6910
▁Hotousihi	-6911
▁Neneenini	-6912
▁Neneenino	-6913
▁Neniiseti	-6914
▁Noosounee	-6915
▁besiiseii	-6916
▁censibeit	-6917
▁cihbiinei	-6918
▁cihneesee	-6919
▁heenetini	-6920
▁heenetino	-6921
▁heentooni	-6922
▁heetcihno	-6923
▁heetcihwo	-6924
▁heetihcii	-6925
▁heetihkou	-6926
▁heetneeni	-6927
▁heetwotto	-6928
▁hesiiseii	-6929
▁hihkonoot	-6930
▁hiitootou	-6931
▁hiitousih	-6932
▁hitooxebi	-6933
▁hoosoonec	-6934
▁hoowbebii	-6935
▁hoowentoo	-6936
▁kooheetni	-6937
▁kooheneen	-6938
▁nesiiseii	-6939
▁neteseiwo	-6940
▁nihbeebee	-6941
▁nihcihnei	-6942
▁nihnoonoh	-6943
▁niibiibii	-6944
▁niineinoo	-6945
▁niinkoohu	-6946
▁niinooxoo	-6947
▁niitokohu	-6948
▁notoonoho	-6949
▁porcupine	-6950
▁seventeen	-6951
▁tohneenit	-6952
▁tohuutoxu	-6953
▁wonotonou	-6954
▁yesterday	-6955
eeneetowuno	-6956
ihbeeseenet	-6957
ihiinoseino	-6958
ihniisinino	-6959
ihniitowoot	-6960
iiheihoowun	-6961
iikonookuhu	-6962
iinokotiino	-6963
neebeteenoo	-6964
neihiinoono	-6965
niihobeinoo	-6966
niiteheibee	-6967
toonootowoo	-6968
tounineenoo	-6969
towuuneinee	-6970
xoohootowoo	-6971
yihkoohunoo	-6972
▁Betebihehi	-6973
▁Heetwonbii	-6974
▁Heihoowuni	-6975
▁Neihoowooh	-6976
▁Neniiseiht	-6977
▁Niicoonbii	-6978
▁Nosouniihi	-6979
▁bebiisiini	-6980
▁beneebeeto	-6981
▁beneesooni	-6982
▁heebiyoono	-6983
▁heeneetsei	-6984
▁heetbeebee	-6985
▁heetniinee	-6986
▁heetniisce	-6987
▁heetniisih	-6988
▁heetniiwoo	-6989
▁heetseesei	-6990
▁heetwonbii	-6991
▁hiihoowcou	-6992
▁hiihoownii	-6993
▁hiteexokuu	-6994
▁hitihiinin	-6995
▁hitouwunoo	-6996
▁hootneenei	-6997
▁howouunoni	-6998
▁kooheetcii	-6999
▁kooheinoko	-7000
▁neeceeniit	-7001
▁nihbiinoot	-7002
▁niibeetbii	-7003
▁niikoxuute	-7004
▁niisootoxu	-7005
▁niiteiitoo	-7006
▁niitowuuhu	-7007
▁nonouhtiit	-7008
▁nootiihoot	-7009
▁tohuubiibi	-7010
▁tohuuneyei	-7011
bebiisneenei	-7012
ecootiininoo	-7013
einiiciihehe	-7014
ineniteeniit	-7015
niiteheibeit	-7016
niitookooyei	-7017
ntootiininoo	-7018
onniiteheiwo	-7019
otoonootowoo	-7020
tonounowunee	-7021
towuuneihino	-7022
▁Hecesneecee	-7023
▁Hiinoononox	-7024
▁Niiyihoonoo	-7025
▁Woxhooxebii	-7026
▁betoootiini	-7027
▁ceeceibecei	-7028
▁heeninouhut	-7029
▁heetihbebii	-7030
▁heetniisneh	-7031
▁heetoustoon	-7032
▁heisiihehin	-7033
▁heniisiiyoo	-7034
▁hetneihoowu	-7035
▁hiihoowunee	-7036
▁hiisiitenou	-7037
▁hitiisiinib	-7038
▁hitonounono	-7039
▁hitooxuwuut	-7040
▁hohookeenit	-7041
▁hokeciihihi	-7042
▁hoohookeeni	-7043
▁nebetebiheb	-7044
▁neeceenouwo	-7045
▁neeneisiine	-7046
▁niibiineihi	-7047
▁niinoononih	-7048
▁niinoonousi	-7049
▁niiteheibee	-7050
▁niiteiniihi	-7051
▁nouutowuuhu	-7052
▁siisoowoono	-7053
▁tohuubeteee	-7054
▁tohuuneenei	-7055
▁wookeciisoo	-7056
ceecebiseenoo	-7057
eenebeihiinoo	-7058
eikoohuutooni	-7059
toonetiitooni	-7060
▁Honouuneenoo	-7061
▁Koxuuteniini	-7062
▁biibinootino	-7063
▁heeneiseinee	-7064
▁heestootiini	-7065
▁heetihneyeih	-7066
▁heetniistoot	-7067
▁heitoustoobe	-7068
▁hoohookeenin	-7069
▁howoooteihii	-7070
▁nihbiineinoo	-7071
▁nihnoohobeti	-7072
▁nihnoohootou	-7073
▁niiniibootou	-7074
▁nootineihino	-7075
▁tesnohkuseic	-7076
▁toonheetniis	-7077
▁cooxuceneihii	-7078
▁heesinihiinoo	-7079
▁heetihyihoono	-7080
▁heisiihehinoo	-7081
▁heniiwohoenin	-7082
▁hihciniihiihi	-7083
▁hiihoowoohnee	-7084
▁hiwoxhooxebii	-7085
▁hoowouunoneet	-7086
▁hooxohoeniihi	-7087
▁koxuuhuuniihi	-7088
▁neesootoxuuni	-7089
▁neihoowtonoun	-7090
▁neniiheneihin	-7091
eeneisinihiinoo	-7092
▁Neetneihoowooh	-7093
▁heetneihoowuni	-7094
▁hiinikotiitono	-7095
▁hiteenetiitono	-7096
▁hooweentootiin	-7097
▁howouunonetiit	-7098
▁niisiheihiinoo	-7099
▁Hoonoyoohowunee	-7100
▁heeteihiibeihii	-7101
▁neniitowootowoo	-7102
▁teeteecibinibii	-7103
''	-7104
au	-7105
cy	-7106
eP	-7107
ev	-7108
kP	-7109
ky	-7110
nu	-7111
pi	-7112
rn	-7113
ux	-7114
}3	-7115
▁v	-7116
act	-7117
ald	-7118
alm	-7119
ans	-7120
bab	-7121
cle	-7122
der	-7123
ead	-7124
eee	-7125
eeh	-7126
ege	-7127
esp	-7128
ets	-7129
exo	-7130
eyo	-7131
ger	-7132
gle	-7133
hiP	-7134
ial	-7135
ies	-7136
ihy	-7137
iik	-7138
ils	-7139
ins	-7140
isP	-7141
isp	-7142
kun	-7143
lls	-7144
mas	-7145
mor	-7146
nce	-7147
nia	-7148
noe	-7149
oad	-7150
onh	-7151
ope	-7152
opo	-7153
osi	-7154
oth	-7155
oud	-7156
ped	-7157
ref	-7158
tha	-7159
tot	-7160
ump	-7161
ute	-7162
uwu	-7163
van	-7164
wei	-7165
yeh	-7166
▁Ba	-7167
▁Na	-7168
▁Pi	-7169
▁Ro	-7170
▁af	-7171
▁bl	-7172
▁fa	-7173
▁fr	-7174
▁pa	-7175
▁sm	-7176
▁tw	-7177
▁un	-7178
Hair	-7179
alad	-7180
behi	-7181
beis	-7182
beni	-7183
bert	-7184
body	-7185
cent	-7186
cial	-7187
cken	-7188
cles	-7189
eexu	-7190
eico	-7191
enei	-7192
esee	-7193
etni	-7194
head	-7195
hiiP	-7196
hito	-7197
huho	-7198
icee	-7199
icho	-7200
ifor	-7201
inen	-7202
into	-7203
isin	-7204
kook	-7205
kous	-7206
kusi	-7207
liff	-7208
nenP	-7209
nsoo	-7210
oeii	-7211
oese	-7212
ohko	-7213
oneh	-7214
onny	-7215
oohu	-7216
ookP	-7217
ouut	-7218
owun	-7219
pper	-7220
ress	-7221
reym	-7222
rica	-7223
rine	-7224
sibe	-7225
side	-7226
sihe	-7227
soku	-7228
teeP	-7229
ters	-7230
teso	-7231
tiib	-7232
tina	-7233
toto	-7234
toun	-7235
ture	-7236
ukoo	-7237
unni	-7238
unow	-7239
uten	-7240
uwuu	-7241
wkuu	-7242
wood	-7243
wuut	-7244
xube	-7245
yohk	-7246
▁Axe	-7247
▁Boo	-7248
▁Hmm	-7249
▁Pow	-7250
▁Som	-7251
▁Tri	-7252
▁Woh	-7253
▁bel	-7254
▁ber	-7255
▁bio	-7256
▁heb	-7257
▁lea	-7258
▁niP	-7259
▁par	-7260
▁pop	-7261
▁run	-7262
▁ses	-7263
▁sho	-7264
▁tap	-7265
▁thi	-7266
▁tow	-7267
▁try	-7268
▁tur	-7269
ardin	-7270
areth	-7271
awaii	-7272
bably	-7273
bebee	-7274
beese	-7275
beesi	-7276
benoh	-7277
betei	-7278
bisii	-7279
bisis	-7280
bisno	-7281
ceibe	-7282
ceito	-7283
cenis	-7284
ebnei	-7285
eebii	-7286
eecih	-7287
eehen	-7288
eesno	-7289
eetei	-7290
eetii	-7291
eheit	-7292
eiite	-7293
eikoo	-7294
einok	-7295
eneit	-7296
esise	-7297
eteno	-7298
heetP	-7299
hiiko	-7300
hoote	-7301
hunoo	-7302
ibino	-7303
iheet	-7304
ihehk	-7305
ihxoo	-7306
ihyei	-7307
iihit	-7308
iiino	-7309
iikoh	-7310
iisco	-7311
iisni	-7312
iitno	-7313
iitow	-7314
ineet	-7315
ineih	-7316
inonP	-7317
inook	-7318
inoon	-7319
inooo	-7320
ispin	-7321
iwoot	-7322
iyein	-7323
koyih	-7324
kutii	-7325
landy	-7326
lders	-7327
lives	-7328
llege	-7329
neesP	-7330
neete	-7331
neito	-7332
nihco	-7333
niici	-7334
niico	-7335
niihP	-7336
niiwo	-7337
oenou	-7338
ohtoo	-7339
okoho	-7340
oneet	-7341
onisi	-7342
onnih	-7343
onnoo	-7344
ootno	-7345
oowce	-7346
oowee	-7347
oowus	-7348
ordan	-7349
otoxu	-7350
ought	-7351
ouhuu	-7352
ouuto	-7353
ouwoo	-7354
owoon	-7355
rants	-7356
senee	-7357
sihce	-7358
siici	-7359
siixo	-7360
siwou	-7361
sneet	-7362
teeko	-7363
teibi	-7364
thete	-7365
tohoe	-7366
tokoh	-7367
toobe	-7368
touuk	-7369
uhehe	-7370
umble	-7371
unoot	-7372
uuhun	-7373
uxoot	-7374
wonce	-7375
xeise	-7376
xunee	-7377
xuyei	-7378
yeibi	-7379
youhu	-7380
youni	-7381
▁Beth	-7382
▁Bexo	-7383
▁Bill	-7384
▁Bull	-7385
▁Cebe	-7386
▁Ceec	-7387
▁Deer	-7388
▁Four	-7389
▁Heso	-7390
▁Hisi	-7391
▁Hito	-7392
▁Koxo	-7393
▁Mike	-7394
▁Mill	-7395
▁Nowo	-7396
▁Rock	-7397
▁Rose	-7398
▁Salt	-7399
▁What	-7400
▁aunt	-7401
▁beeP	-7402
▁behP	-7403
▁bird	-7404
▁bise	-7405
▁bixo	-7406
▁book	-7407
▁camp	-7408
▁cech	-7409
▁ceib	-7410
▁ceni	-7411
▁ciib	-7412
▁coon	-7413
▁deer	-7414
▁done	-7415
▁drum	-7416
▁fall	-7417
▁fork	-7418
▁head	-7419
▁hebe	-7420
▁hehi	-7421
▁high	-7422
▁hihi	-7423
▁hoho	-7424
▁hote	-7425
▁hoxu	-7426
▁keep	-7427
▁keiP	-7428
▁life	-7429
▁look	-7430
▁nohP	-7431
▁part	-7432
▁real	-7433
▁road	-7434
▁told	-7435
▁toyo	-7436
▁wouu	-7437
Neisii	-7438
benohu	-7439
biinee	-7440
cebtii	-7441
ceenih	-7442
ceenou	-7443
cenbih	-7444
ciibeh	-7445
ciicih	-7446
citiit	-7447
ebeeti	-7448
ebnene	-7449
ecinoo	-7450
ecoobe	-7451
ecoohe	-7452
eecoho	-7453
eenebi	-7454
eeneco	-7455
eeneeP	-7456
eenini	-7457
eeseet	-7458
eewoot	-7459
eihihi	-7460
eiiton	-7461
eikoni	-7462
eiyeit	-7463
eneihi	-7464
enowuu	-7465
esneet	-7466
esohei	-7467
etobee	-7468
heenee	-7469
heetce	-7470
heihin	-7471
ihcebi	-7472
ihcihP	-7473
iheibe	-7474
ihkoxo	-7475
ihnoko	-7476
ihtees	-7477
iiciiP	-7478
iicoot	-7479
iisbee	-7480
iisnee	-7481
iitcih	-7482
iitoxP	-7483
ikobee	-7484
iteeno	-7485
itenou	-7486
itesei	-7487
itetow	-7488
itonee	-7489
itonoo	-7490
kohuno	-7491
kouute	-7492
ncitii	-7493
neenin	-7494
neenoh	-7495
neesee	-7496
neeyei	-7497
neihok	-7498
niibii	-7499
niicoo	-7500
niikoh	-7501
niinis	-7502
niitno	-7503
nohooo	-7504
nohoot	-7505
nonsih	-7506
nouwut	-7507
nowoot	-7508
ntooto	-7509
ocoono	-7510
ohoene	-7511
onbeet	-7512
oonehe	-7513
ooneti	-7514
oonono	-7515
ooteet	-7516
oowcih	-7517
oowoot	-7518
ooxuwu	-7519
otehei	-7520
ounino	-7521
ousein	-7522
owuuci	-7523
oxobei	-7524
seeeno	-7525
siinii	-7526
siinou	-7527
sikoho	-7528
sohoen	-7529
teesee	-7530
teexok	-7531
teihit	-7532
tenoot	-7533
ttonou	-7534
uheiit	-7535
unibii	-7536
useebe	-7537
uukohe	-7538
uunono	-7539
uxowoo	-7540
uyoono	-7541
wuceno	-7542
xoohok	-7543
xookuu	-7544
xouute	-7545
yoohoe	-7546
yookuu	-7547
▁Chief	-7548
▁Cliff	-7549
▁Ducky	-7550
▁Greym	-7551
▁Heeci	-7552
▁Heesi	-7553
▁Hihii	-7554
▁Hinit	-7555
▁Hitoo	-7556
▁Hotii	-7557
▁Kathe	-7558
▁Kooko	-7559
▁Kooni	-7560
▁Nihto	-7561
▁Niihi	-7562
▁NiitP	-7563
▁Niite	-7564
▁Ranch	-7565
▁Siine	-7566
▁South	-7567
▁ToonP	-7568
▁Willy	-7569
▁after	-7570
▁beehi	-7571
▁beetP	-7572
▁beexP	-7573
▁biisi	-7574
▁bisee	-7575
▁cenoo	-7576
▁cihco	-7577
▁ciiyo	-7578
▁class	-7579
▁cowou	-7580
▁green	-7581
▁heart	-7582
▁hebeh	-7583
▁hebei	-7584
▁heihP	-7585
▁hesno	-7586
▁hibee	-7587
▁hihno	-7588
▁hiino	-7589
▁hiixo	-7590
▁hisii	-7591
▁hisio	-7592
▁hites	-7593
▁hoxoo	-7594
▁keini	-7595
▁kohye	-7596
▁koone	-7597
▁koyei	-7598
▁mouth	-7599
▁neeco	-7600
▁neneh	-7601
▁nesei	-7602
▁nooto	-7603
▁river	-7604
▁salad	-7605
▁teeco	-7606
▁tootP	-7607
▁touwo	-7608
▁tribe	-7609
▁watch	-7610
▁where	-7611
▁which	-7612
▁woman	-7613
▁wowoo	-7614
▁xouhu	-7615
▁yohou	-7616
beihini	-7617
biineih	-7618
bininec	-7619
biseeno	-7620
cihwonP	-7621
ciineni	-7622
ciinouu	-7623
coboono	-7624
coocowo	-7625
ebiseet	-7626
ebnoono	-7627
eenebei	-7628
eeneete	-7629
eeneiti	-7630
eenetii	-7631
eenosou	-7632
eesoono	-7633
eetoono	-7634
ehibino	-7635
eibinoo	-7636
eihinee	-7637
eihohow	-7638
eikoohu	-7639
einenno	-7640
einiisi	-7641
einoono	-7642
eiseeni	-7643
eisoono	-7644
eixohei	-7645
eixooni	-7646
eixotii	-7647
eneihit	-7648
enitoot	-7649
esnonee	-7650
etiihok	-7651
etniini	-7652
etouuse	-7653
eyeihno	-7654
heetnee	-7655
hokecii	-7656
ibeihit	-7657
ifornia	-7658
ihbeexo	-7659
ihiinoo	-7660
ihnotii	-7661
ihseese	-7662
iibeebe	-7663
iiceece	-7664
iicihwo	-7665
iiciixo	-7666
iicowoo	-7667
iiscowo	-7668
iisibit	-7669
iiteyei	-7670
iitiibi	-7671
iitowuu	-7672
iixoowo	-7673
inookee	-7674
inootit	-7675
inouhut	-7676
iteseit	-7677
itoonin	-7678
koheise	-7679
koohuut	-7680
kooniit	-7681
kotousi	-7682
neihehk	-7683
neihein	-7684
neniito	-7685
niihenP	-7686
niinono	-7687
niisihe	-7688
niitone	-7689
nookeen	-7690
nooxoho	-7691
nooyoti	-7692
nouutoo	-7693
nowuuhu	-7694
ohwooni	-7695
ohwoono	-7696
onwoowo	-7697
oobeibe	-7698
ookutou	-7699
ooneino	-7700
oonouhu	-7701
ooteeno	-7702
ooteihi	-7703
oowuute	-7704
ooxebei	-7705
ooxebii	-7706
ountain	-7707
oxobeit	-7708
siitene	-7709
sowohou	-7710
stoonee	-7711
teyoono	-7712
tokooho	-7713
toneino	-7714
tootoyo	-7715
tousini	-7716
ubeteee	-7717
usetiit	-7718
usineni	-7719
uunonoh	-7720
uutooni	-7721
uxotone	-7722
woowoti	-7723
xobeini	-7724
xohowuu	-7725
xohunee	-7726
xonoone	-7727
xouuwuh	-7728
xowutoo	-7729
yihxohe	-7730
▁Beebee	-7731
▁Biitei	-7732
▁Blandy	-7733
▁Ceenee	-7734
▁Friday	-7735
▁Hardin	-7736
▁Hawaii	-7737
▁Heeyow	-7738
▁Heitou	-7739
▁Heniis	-7740
▁Jordan	-7741
▁Keetni	-7742
▁Neisie	-7743
▁Neisii	-7744
▁Nihbis	-7745
▁Nihnei	-7746
▁Niinoh	-7747
▁Niiwon	-7748
▁Niscih	-7749
▁Nisice	-7750
▁Noonoh	-7751
▁Noowoh	-7752
▁Noxuhu	-7753
▁Redman	-7754
▁Woteih	-7755
▁around	-7756
▁before	-7757
▁beneex	-7758
▁bisiii	-7759
▁cebtoo	-7760
▁ceebii	-7761
▁ceitii	-7762
▁cenbih	-7763
▁ceniit	-7764
▁cenisi	-7765
▁ciicii	-7766
▁ciitoo	-7767
▁coming	-7768
▁dollar	-7769
▁forgot	-7770
▁heenen	-7771
▁heenet	-7772
▁heesee	-7773
▁heetec	-7774
▁hehcih	-7775
▁heihow	-7776
▁heihwo	-7777
▁henees	-7778
▁hetbis	-7779
▁hihnii	-7780
▁hiicet	-7781
▁hiitoo	-7782
▁hinenP	-7783
▁hiniiP	-7784
▁hixono	-7785
▁hononi	-7786
▁hootwo	-7787
▁hooxeb	-7788
▁horses	-7789
▁hotooo	-7790
▁hoxobe	-7791
▁keetni	-7792
▁kidney	-7793
▁koocee	-7794
▁kooheP	-7795
▁koohih	-7796
▁kootee	-7797
▁months	-7798
▁nebiho	-7799
▁neenit	-7800
▁neesei	-7801
▁neetou	-7802
▁nentoo	-7803
▁nihboo	-7804
▁nihkoh	-7805
▁nihnou	-7806
▁nihwox	-7807
▁nihyoo	-7808
▁niikoe	-7809
▁niinou	-7810
▁niitne	-7811
▁nokohu	-7812
▁nonouu	-7813
▁number	-7814
▁siinee	-7815
▁tihnoo	-7816
▁tohbeh	-7817
▁tohuus	-7818
▁tokohu	-7819
▁toothe	-7820
▁tribes	-7821
▁wonbii	-7822
▁yeheih	-7823
▁yeneih	-7824
▁yookox	-7825
bebiyein	-7826
beetiini	-7827
beiitono	-7828
beteeeno	-7829
biseenoo	-7830
booboboo	-7831
cebiseen	-7832
cecnibee	-7833
ceeneeto	-7834
ceestone	-7835
ceiteeni	-7836
cesiskuu	-7837
ciistiit	-7838
ciitohei	-7839
cooxouti	-7840
cowootee	-7841
cxooyeih	-7842
ebiineti	-7843
ecootono	-7844
eeneihit	-7845
eesiseen	-7846
eeteenee	-7847
eeteihii	-7848
eetoxuno	-7849
eiinowoo	-7850
eiyeinoo	-7851
eiyookuu	-7852
eseihino	-7853
ihiitoon	-7854
ihkuutii	-7855
iibeebee	-7856
iibeetoh	-7857
iiceecei	-7858
iiciinee	-7859
iicoocoo	-7860
iiheinoo	-7861
iineenee	-7862
iiscebii	-7863
iisihoot	-7864
iisiiten	-7865
iitoxuni	-7866
isinenoo	-7867
itenowuu	-7868
itooneti	-7869
koohuuno	-7870
kookonoo	-7871
koonenou	-7872
koxtisee	-7873
kuutiini	-7874
kuutiino	-7875
neeceeni	-7876
neehisei	-7877
neeneeso	-7878
neenoono	-7879
neniiwou	-7880
neniixoo	-7881
niihiiho	-7882
niisiine	-7883
niisooni	-7884
niistiin	-7885
niitenou	-7886
ninoohoo	-7887
nookeeno	-7888
noononih	-7889
nooteihi	-7890
nottonin	-7891
oebiibii	-7892
oeseenoo	-7893
ohceinoo	-7894
oneentoo	-7895
oneentou	-7896
ookeitoo	-7897
ookuseet	-7898
ookuuhei	-7899
ookuunoo	-7900
ootowuni	-7901
oowneyei	-7902
oowoonoo	-7903
oowotoot	-7904
oowuceno	-7905
oowuukoo	-7906
otoowoot	-7907
ouyeitit	-7908
owohoeno	-7909
seineebe	-7910
siikoohu	-7911
siinowoo	-7912
sinenino	-7913
sinihiin	-7914
soohowoo	-7915
teenowoo	-7916
teexoono	-7917
toehinoo	-7918
toniheit	-7919
tonitoot	-7920
tonotini	-7921
tonounow	-7922
tonouyoo	-7923
tooneihi	-7924
toukutii	-7925
toukutoo	-7926
towootou	-7927
toxoobee	-7928
uhcehino	-7929
uxoheihi	-7930
wottonee	-7931
wuuneihi	-7932
xohoebei	-7933
xoneenoo	-7934
xookeeno	-7935
xooninoo	-7936
xooteeni	-7937
▁Behiihi	-7938
▁Beiseet	-7939
▁Cebiihi	-7940
▁Ciintoo	-7941
▁Crispin	-7942
▁Heentou	-7943
▁Heetbii	-7944
▁Heetkoo	-7945
▁Heniine	-7946
▁Hiisoho	-7947
▁Hiiwoon	-7948
▁Hoseino	-7949
▁Jackson	-7950
▁Jericho	-7951
▁Nihcoon	-7952
▁Niicibe	-7953
▁Noohoot	-7954
▁Nookbii	-7955
▁Toonhii	-7956
▁Tooteih	-7957
▁Wotnehe	-7958
▁Woxhoox	-7959
▁beebiis	-7960
▁beetouu	-7961
▁berries	-7962
▁brought	-7963
▁ceencei	-7964
▁cenihce	-7965
▁cenihno	-7966
▁feather	-7967
▁hecexoo	-7968
▁heeneih	-7969
▁heetcoo	-7970
▁henetii	-7971
▁hesnoot	-7972
▁hetesih	-7973
▁hetniis	-7974
▁hiiteto	-7975
▁hiitoto	-7976
▁hikokoh	-7977
▁hinooox	-7978
▁hinowou	-7979
▁hinowun	-7980
▁hiteine	-7981
▁hiteino	-7982
▁hitooxu	-7983
▁hokecii	-7984
▁hootbii	-7985
▁hoowbii	-7986
▁hoowuuP	-7987
▁hoowuus	-7988
▁hoteine	-7989
▁kohtowu	-7990
▁koociiP	-7991
▁koonuhu	-7992
▁machine	-7993
▁nebetee	-7994
▁neebehP	-7995
▁neeneti	-7996
▁neniiso	-7997
▁neteexo	-7998
▁nihbisP	-7999
▁nihnece	-8000
▁nihneeP	-8001
▁nihnees	-8002
▁nihniiP	-8003
▁nihniii	-8004
▁nihtebe	-8005
▁niinoko	-8006
▁niinouu	-8007
▁niisbii	-8008
▁niisihi	-8009
▁niitbii	-8010
▁niitoxu	-8011
▁niitoyo	-8012
▁niscihi	-8013
▁nohkohu	-8014
▁nonooko	-8015
▁noohobe	-8016
▁noonono	-8017
▁sisters	-8018
▁teecixo	-8019
▁teteeso	-8020
▁tihcowo	-8021
▁tihnihi	-8022
▁tohuuwo	-8023
▁toonhoo	-8024
▁toyooho	-8025
▁weekend	-8026
▁wohoono	-8027
▁wonoowo	-8028
▁woohoni	-8029
beekoohut	-8030
beihiinou	-8031
ceikoohut	-8032
ceitoonoo	-8033
cesisiihi	-8034
cetouuhut	-8035
cihwonnii	-8036
ciitenoot	-8037
cooniisei	-8038
eecxooyei	-8039
eeneisbii	-8040
eeneisiii	-8041
eenesooku	-8042
eentoonoo	-8043
ehiihiiho	-8044
ehiiniine	-8045
einohwoot	-8046
einotiiwo	-8047
esoohooto	-8048
esowobeih	-8049
etiiwoono	-8050
hiitoonin	-8051
hiixoohoo	-8052
hootowuno	-8053
ihkohtowu	-8054
ihnoxohoe	-8055
ihyihoono	-8056
iiceceeco	-8057
iicisiini	-8058
iinokotii	-8059
iisiisiii	-8060
iitiseeno	-8061
iitonoono	-8062
iitoxuuhu	-8063
iixoxonee	-8064
inihiinoo	-8065
iseihinoo	-8066
itooninee	-8067
kuutoneit	-8068
neeneenou	-8069
neenetiit	-8070
neyoohein	-8071
niihkoohu	-8072
niikoheit	-8073
niiniisih	-8074
niiseekuu	-8075
noohobeet	-8076
nouxoneti	-8077
nouxonoot	-8078
nowuuneen	-8079
nowuuneet	-8080
nseetiini	-8081
oohobeino	-8082
oohowoono	-8083
oownehtii	-8084
otoonooto	-8085
oxoeyoone	-8086
oxuuhetit	-8087
siiniicii	-8088
sinihiibe	-8089
snoneenoo	-8090
tousebino	-8091
towuunein	-8092
towuuneti	-8093
uunesitee	-8094
woteiseen	-8095
wuuteenin	-8096
xootowoot	-8097
xouuwutoo	-8098
xouuwuuni	-8099
xuuhetino	-8100
yoohowoot	-8101
▁Clifford	-8102
▁Heetcebe	-8103
▁Heeteene	-8104
▁Heniixoo	-8105
▁Hiihoowu	-8106
▁Hiitouuk	-8107
▁Hohootno	-8108
▁Neeceeno	-8109
▁Neecisee	-8110
▁Neeneyei	-8111
▁Niibeete	-8112
▁Niiheyoo	-8113
▁Niiniisi	-8114
▁Niiwohoe	-8115
▁Wookecii	-8116
▁Woowotox	-8117
▁beebetee	-8118
▁beisonoo	-8119
▁betebiho	-8120
▁biixoxko	-8121
▁ceebinoo	-8122
▁ceeniihi	-8123
▁ceixotii	-8124
▁ciiciine	-8125
▁grandson	-8126
▁hebiitii	-8127
▁heebetoh	-8128
▁heebetoo	-8129
▁heecisii	-8130
▁heeneixo	-8131
▁heentoon	-8132
▁heetnouu	-8133
▁heetohco	-8134
▁heetohse	-8135
▁heetooto	-8136
▁heetoyei	-8137
▁heeyouni	-8138
▁heiteyoo	-8139
▁heniiyoo	-8140
▁hentooni	-8141
▁hetcihce	-8142
▁hicebiis	-8143
▁hihteexo	-8144
▁hiitonih	-8145
▁hitenowu	-8146
▁hiwowoon	-8147
▁hokooxuu	-8148
▁honoonoo	-8149
▁hoononee	-8150
▁hoonoxoo	-8151
▁hootniis	-8152
▁hoowoono	-8153
▁hoowucii	-8154
▁konouute	-8155
▁kookiyon	-8156
▁nebesooo	-8157
▁neetneih	-8158
▁neeyeici	-8159
▁neihoowo	-8160
▁neniibei	-8161
▁neniisei	-8162
▁neniisit	-8163
▁neniiwoh	-8164
▁nihbeexo	-8165
▁nihcebii	-8166
▁nihciino	-8167
▁nihcowoo	-8168
▁nihneene	-8169
▁nihteese	-8170
▁nihtotou	-8171
▁nihwotee	-8172
▁niibetee	-8173
▁niiboohu	-8174
▁niicihno	-8175
▁niiciito	-8176
▁niihooni	-8177
▁niihowoo	-8178
▁niinceno	-8179
▁niineeni	-8180
▁niinihii	-8181
▁niinooke	-8182
▁niiscowo	-8183
▁niiteesi	-8184
▁nokooyei	-8185
▁noohowou	-8186
▁noonoyei	-8187
▁notikoni	-8188
▁nottowoo	-8189
▁thinking	-8190
▁tihcebii	-8191
▁tihnooke	-8192
▁tohcebii	-8193
▁tohuuceh	-8194
▁toonhees	-8195
▁tootiino	-8196
▁wonooyou	-8197
bisiitonoo	-8198
ceecobooni	-8199
ceiniisiis	-8200
ceitoonoot	-8201
cihwoniini	-8202
ciineneino	-8203
ciinenoono	-8204
ciiskoohut	-8205
ebiinkoohu	-8206
eecikoohut	-8207
eeckoohuni	-8208
eenebeihit	-8209
eenentoono	-8210
eihiitooni	-8211
einotiihoo	-8212
eiyeihiiho	-8213
esowobeihi	-8214
etiiwoohut	-8215
ihciinenee	-8216
ihiiniibei	-8217
ihnotitone	-8218
iibiineihi	-8219
iikoheinoo	-8220
iineeneyei	-8221
iinokooyei	-8222
iinoonotii	-8223
iisiitenei	-8224
iitooneihi	-8225
iitootonou	-8226
ineihiinoo	-8227
inoneinoni	-8228
itoonetino	-8229
kohuutooni	-8230
koniihiiho	-8231
koohuutiit	-8232
koutoneihi	-8233
neyeineyei	-8234
nihiitowoo	-8235
niihenehei	-8236
niiheneiht	-8237
niinokotii	-8238
niitoneibe	-8239
ninihiinoo	-8240
nosouneyei	-8241
oehiitooni	-8242
oeneetowuu	-8243
oexootonee	-8244
ohcootiini	-8245
ohookeenit	-8246
ohuseeenoo	-8247
onookuseet	-8248
oohobeinoo	-8249
oohootowuu	-8250
ookuutowoo	-8251
oonotoonee	-8252
oonotoonoo	-8253
oownoohoot	-8254
oowotonoot	-8255
otooneenoo	-8256
ouyeitinee	-8257
siitenowuu	-8258
soonotohei	-8259
teeneihini	-8260
teeseneino	-8261
towuuninoo	-8262
woteekoohu	-8263
▁Beeteenoo	-8264
▁Ciibehnih	-8265
▁Ciitoowuu	-8266
▁Heetbiine	-8267
▁Heetniito	-8268
▁Hiihoowuh	-8269
▁Hiitousoo	-8270
▁Hiixoohoo	-8271
▁Hinotonoh	-8272
▁Hooteinee	-8273
▁Katherine	-8274
▁Neesootox	-8275
▁Nohkuseic	-8276
▁Siiwootii	-8277
▁beeteenou	-8278
▁betebihoh	-8279
▁beteetoxu	-8280
▁ceebiseet	-8281
▁cihciitei	-8282
▁ciibehcih	-8283
▁heebehbii	-8284
▁heebehcee	-8285
▁heeciscii	-8286
▁heeckoohu	-8287
▁heeneesce	-8288
▁heentoono	-8289
▁heesneyei	-8290
▁heetbeebe	-8291
▁heetbeeto	-8292
▁heetbiibi	-8293
▁heetcebii	-8294
▁heetciini	-8295
▁heetciino	-8296
▁heetcooco	-8297
▁heeteihin	-8298
▁heetihnei	-8299
▁heetihtei	-8300
▁heetnehce	-8301
▁heetniihi	-8302
▁heetniino	-8303
▁heibeneet	-8304
▁heinootee	-8305
▁heneeceen	-8306
▁heninouhu	-8307
▁hetiicooo	-8308
▁hetnoohoo	-8309
▁hihnestoo	-8310
▁hiicetino	-8311
▁hiihoowoo	-8312
▁hiiniibii	-8313
▁hineeceew	-8314
▁hinenihii	-8315
▁hiseihiho	-8316
▁hitookuhu	-8317
▁hiwoxhoox	-8318
▁hohootino	-8319
▁hoonootii	-8320
▁neesootox	-8321
▁neihoowni	-8322
▁neniisini	-8323
▁neniitone	-8324
▁nihkookou	-8325
▁nihneecee	-8326
▁nihneeneh	-8327
▁nihneenei	-8328
▁nihniinii	-8329
▁niibeebii	-8330
▁niibooboo	-8331
▁niiceecei	-8332
▁niicoocoo	-8333
▁niihoowuh	-8334
▁niiitowoo	-8335
▁niineeneh	-8336
▁niiniihen	-8337
▁niiniinii	-8338
▁niinosouh	-8339
▁niiskokoh	-8340
▁niisneyei	-8341
▁niitnihii	-8342
▁niitniisi	-8343
▁niixoohoo	-8344
▁nohceinee	-8345
▁noohowoot	-8346
▁nookhoowu	-8347
▁nookuhehe	-8348
▁noosoubii	-8349
▁teexokuut	-8350
▁tohuubeet	-8351
▁xouuwuuhu	-8352
cebiihetino	-8353
cebiihineen	-8354
cecnibeenoo	-8355
ceibihcehit	-8356
ciitootiini	-8357
ebciiteinoo	-8358
ebnenebiihi	-8359
eeneiseinee	-8360
ehibeihiiho	-8361
iheiitoonin	-8362
iinikotiino	-8363
iistoonooni	-8364
iitoonootii	-8365
neehohookoo	-8366
neenebetiit	-8367
neihiitooni	-8368
niikoheinoo	-8369
niiniistiit	-8370
niisneniino	-8371
nohwootiini	-8372
nonouhtiibe	-8373
oeniiniibei	-8374
oonoyoohobe	-8375
siikoheinoo	-8376
teeneetowuu	-8377
tonounowuno	-8378
towootowuno	-8379
woohuutooni	-8380
wottonouhut	-8381
▁California	-8382
▁Heetneenin	-8383
▁Heetniinii	-8384
▁Hiihoownee	-8385
▁Hoseihoowu	-8386
▁Nihnoohobe	-8387
▁Niibeetnee	-8388
▁Toonheenei	-8389
▁Toonheesou	-8390
▁beeteeenoo	-8391
▁beneexuuni	-8392
▁benoheihii	-8393
▁biixuutono	-8394
▁bisiitonei	-8395
▁cihcebenoo	-8396
▁ciiyowoono	-8397
▁heebehbeet	-8398
▁heeneescei	-8399
▁heeneistoo	-8400
▁heesiteeni	-8401
▁heetceecei	-8402
▁heetneecee	-8403
▁heetneyeiP	-8404
▁heetniitoo	-8405
▁heetnooxuu	-8406
▁heeyowuuni	-8407
▁heihoowooh	-8408
▁heisiiheih	-8409
▁heneeceeno	-8410
▁hiihooteet	-8411
▁hiitoniihi	-8412
▁hiteehinoo	-8413
▁hitonounoo	-8414
▁hitookotoo	-8415
▁hootniitoh	-8416
▁hoowuunono	-8417
▁hooxonoone	-8418
▁kokteeneih	-8419
▁nebesiibeh	-8420
▁neihoowbee	-8421
▁neniitowoo	-8422
▁neteneyooo	-8423
▁nihciineno	-8424
▁nihniiwoot	-8425
▁niibenenoo	-8426
▁niihenehei	-8427
▁niiniitouu	-8428
▁niinokotii	-8429
▁niiteheibi	-8430
▁niiteheiwo	-8431
▁niiwohoeno	-8432
▁niiwoniini	-8433
▁nohkuusiii	-8434
▁nonoohowou	-8435
▁noohootowu	-8436
▁nookoniihi	-8437
▁noowunenno	-8438
▁nooxowuuni	-8439
▁tohneenini	-8440
▁tohuutesei	-8441
▁woniseinee	-8442
cebkoohuutii	-8443
ceestootiini	-8444
eihehiininoo	-8445
ihnotiitiino	-8446
ihyihkoohuno	-8447
kohtobeeneet	-8448
kohtowutoono	-8449
niiitowoonoo	-8450
niistoonooni	-8451
noonokohunoo	-8452
nouuteneihit	-8453
oonoyoohowoo	-8454
owoonooxebii	-8455
woniiteheibe	-8456
yeihiixoohoo	-8457
▁Ceneeteenii	-8458
▁Greymorning	-8459
▁Heestousihi	-8460
▁Heetniisnoh	-8461
▁bebiiskokoh	-8462
▁bexookeesoo	-8463
▁ceebiseenoo	-8464
▁ciibehyihoo	-8465
▁ciinouutono	-8466
▁heeneesiihi	-8467
▁heeneesiine	-8468
▁heetihniini	-8469
▁heetnookoho	-8470
▁heinooninoo	-8471
▁heneeceebin	-8472
▁heniixoohoo	-8473
▁hetniineyoo	-8474
▁hiniiheneih	-8475
▁hiniinooxoo	-8476
▁hitesiiteen	-8477
▁hoonookonoo	-8478
▁hooxuuniihi	-8479
▁houunohwoot	-8480
▁neenebiitei	-8481
▁neeneistoon	-8482
▁neniisetini	-8483
▁nihbeebenei	-8484
▁nihbiineihi	-8485
▁nihniitowoo	-8486
▁nihnohkuuni	-8487
▁nihnoohowou	-8488
▁niicesistoo	-8489
▁niinoohowou	-8490
▁niisiitenou	-8491
▁niitootosoo	-8492
▁niiwookusee	-8493
▁noosouneyei	-8494
▁tohnoohowoo	-8495
▁tohuubiibii	-8496
▁toonheetnoo	-8497
▁toonneniito	-8498
▁woteiheihii	-8499
▁yiihoonooni	-8500
eeneesinihiit	-8501
esinihiitooni	-8502
noohootowunee	-8503
oohobeihiinoo	-8504
▁Heetniisiini	-8505
▁Nihwonineyei	-8506
▁beteenbiitei	-8507
▁biisiinowoot	-8508
▁heetihcihbee	-8509
▁heetneesiini	-8510
▁heetneihoowP	-8511
▁heetniiyohou	-8512
▁heetnooxohoe	-8513
▁heetnotiihou	-8514
▁heetwonkooko	-8515
▁hiiciiciinii	-8516
▁hiihoowbeetP	-8517
▁hohookeeniit	-8518
▁hoseihiinoot	-8519
▁neihceniisoo	-8520
▁neniitouuhut	-8521
▁nihniitonoot	-8522
▁niibiinoonee	-8523
▁niiscibouhut	-8524
▁nookeciihihi	-8525
▁nowookeciiwo	-8526
▁noxohoeniini	-8527
▁tihnoohowoot	-8528
eboonoyoohooto	-8529
eecxooyeihinoo	-8530
ihtoyoohobeeno	-8531
nonouhtiitooni	-8532
oonoyoohobeeno	-8533
oonoyoohobeihi	-8534
▁Nonoohootowoo	-8535
▁heeneestoonoo	-8536
▁heesowobeihit	-8537
▁heetniibeinee	-8538
▁heetniitobeet	-8539
▁heetniitohbii	-8540
▁heteneyooonin	-8541
▁hetneihoowooh	-8542
▁hiibineeniihi	-8543
▁hiteixooninoo	-8544
▁neeceeniiinon	-8545
▁neeceenohoeno	-8546
▁nihniiheniini	-8547
▁niibeeteeneti	-8548
▁nohkuseiciini	-8549
▁nonoohootowoo	-8550
▁nootineehisei	-8551
▁tekoonineihii	-8552
▁woxkoneehiiho	-8553
▁yeiyonoxuusii	-8554
xouuwooteeneeto	-8555
▁Tooteihiitisee	-8556
▁heeneesinihiit	-8557
▁heeneisiitenou	-8558
▁heetniistoonoo	-8559
▁heetniiyihoono	-8560
▁hihteexokuuton	-8561
▁hiihoowbeetceh	-8562
▁hootneeneistoo	-8563
▁howoxtootiinin	-8564
▁neeneisinihiit	-8565
▁nihnottoneinoo	-8566
▁toonheestoonoo	-8567
beniiineniininoo	-8568
▁heeneineniteeno	-8569
▁heetbetoootiini	-8570
▁heetniiteheibei	-8571
▁heneenetiitooni	-8572
▁hoonoyoohowunee	-8573
▁hoowuniihiiteen	-8574
▁neeneiseenetino	-8575
▁niihencebkoohut	-8576
▁niisinihiitooni	-8577
')	-8578
3{	-8579
hk	-8580
ia	-8581
lf	-8582
ls	-8583
mb	-8584
mp	-8585
rk	-8586
sh	-8587
uo	-8588
uw	-8589
{3	-8590
}'	-8591
▁-	-8592
3\{	-8593
Nei	-8594
\{'	-8595
alf	-8596
als	-8597
amm	-8598
avy	-8599
awl	-8600
bro	-8601
coh	-8602
cto	-8603
eed	-8604
eix	-8605
eiy	-8606
erg	-8607
evi	-8608
fie	-8609
haw	-8610
iso	-8611
iss	-8612
ity	-8613
kin	-8614
lag	-8615
law	-8616
ler	-8617
llo	-8618
loy	-8619
mon	-8620
ner	-8621
new	-8622
oko	-8623
oob	-8624
oom	-8625
oor	-8626
oug	-8627
ppo	-8628
rew	-8629
rna	-8630
ses	-8631
siP	-8632
sib	-8633
tey	-8634
tih	-8635
uci	-8636
uck	-8637
usb	-8638
uts	-8639
wow	-8640
yon	-8641
▁GF	-8642
▁GM	-8643
▁Go	-8644
▁If	-8645
▁Mr	-8646
▁Ru	-8647
▁Sl	-8648
▁Un	-8649
▁\{	-8650
▁ac	-8651
▁ad	-8652
▁cr	-8653
Heet	-8654
akes	-8655
alph	-8656
arri	-8657
arus	-8658
augh	-8659
beiP	-8660
bete	-8661
bkuu	-8662
booP	-8663
bouu	-8664
ceci	-8665
ceso	-8666
cini	-8667
cobo	-8668
corn	-8669
dson	-8670
eans	-8671
ebub	-8672
eeds	-8673
eeku	-8674
ehih	-8675
eitP	-8676
eite	-8677
ener	-8678
enow	-8679
enty	-8680
erle	-8681
esar	-8682
etne	-8683
etno	-8684
hate	-8685
heeP	-8686
hehi	-8687
henP	-8688
hihe	-8689
hiin	-8690
hoet	-8691
hole	-8692
hono	-8693
howo	-8694
iana	-8695
ibei	-8696
icih	-8697
idan	-8698
isoo	-8699
uc	-8700
led	-8701
urt	-8702
iton	-8703
itow	-8704
keih	-8705
king	-8706
kone	-8707
kono	-8708
koso	-8709
kote	-8710
kune	-8711
lene	-8712
lish	-8713
llow	-8714
loyd	-8715
lver	-8716
mopo	-8717
ncei	-8718
nece	-8719
neib	-8720
nite	-8721
ocus	-8722
oeti	-8723
ohee	-8724
onah	-8725
onbe	-8726
oney	-8727
onto	-8728
oube	-8729
ough	-8730
ouni	-8731
pede	-8732
seiP	-8733
seni	-8734
serv	-8735
siin	-8736
sing	-8737
sise	-8738
teee	-8739
teih	-8740
tery	-8741
tesi	-8742
ther	-8743
tito	-8744
tonP	-8745
town	-8746
ucei	-8747
ucks	-8748
uhek	-8749
ukuu	-8750
umes	-8751
uusi	-8752
ving	-8753
work	-8754
wuuP	-8755
xune	-8756
yoni	-8757
yoow	-8758
▁...	-8759
▁Any	-8760
▁Bes	-8761
▁Cle	-8762
▁Cow	-8763
▁Don	-8764
▁Dur	-8765
▁Gee	-8766
▁Got	-8767
▁Hai	-8768
▁HeP	-8769
▁Her	-8770
▁Hit	-8771
▁Hug	-8772
▁Ira	-8773
▁Iva	-8774
▁Jim	-8775
▁Jun	-8776
▁Kei	-8777
▁Kok	-8778
▁Kox	-8779
▁Muh	-8780
▁NeP	-8781
▁Nou	-8782
▁Now	-8783
▁Sus	-8784
▁Thu	-8785
▁Two	-8786
▁Uni	-8787
▁War	-8788
▁Wed	-8789
▁ago	-8790
▁ain	-8791
▁bas	-8792
▁bex	-8793
▁bit	-8794
▁div	-8795
▁dog	-8796
▁elk	-8797
▁gas	-8798
▁gir	-8799
awr	-8800
cene	-8801
eito	-8802
houu	-8803
most	-8804
ncil	-8805
vena	-8806
▁hay	-8807
▁hel	-8808
▁hix	-8809
▁hoP	-8810
▁imm	-8811
▁ket	-8812
▁kuh	-8813
▁lis	-8814
▁met	-8815
▁pay	-8816
▁pot	-8817
▁red	-8818
▁rod	-8819
▁sca	-8820
▁sti	-8821
▁tas	-8822
▁tat	-8823
▁umm	-8824
▁unh	-8825
▁wuh	-8826
▁xou	-8827
Hiiko	-8828
Hiiwo	-8829
Wohei	-8830
ammad	-8831
annah	-8832
arren	-8833
assho	-8834
bisoo	-8835
boono	-8836
brose	-8837
ceene	-8838
cehee	-8839
chair	-8840
cihco	-8841
cooon	-8842
cross	-8843
ebbee	-8844
ebcii	-8845
ebihi	-8846
ebyih	-8847
eekei	-8848
eekoo	-8849
eeseh	-8850
eesei	-8851
eewoo	-8852
ehcii	-8853
ehcoo	-8854
ehibe	-8855
ehiht	-8856
eibih	-8857
eibit	-8858
eicit	-8859
eihce	-8860
eitii	-8861
eline	-8862
eseih	-8863
esoho	-8864
etebe	-8865
etebi	-8866
etehk	-8867
etiiP	-8868
etons	-8869
exowo	-8870
eyoot	-8871
field	-8872
garet	-8873
hebin	-8874
heiht	-8875
hetii	-8876
hetit	-8877
heyoo	-8878
hiinP	-8879
hootP	-8880
husei	-8881
ihbei	-8882
ihcen	-8883
ihein	-8884
ihibe	-8885
ihiit	-8886
ihnot	-8887
ihwox	-8888
iibei	-8889
iicou	-8890
iikon	-8891
iince	-8892
iisib	-8893
iisko	-8894
iisto	-8895
iitce	-8896
iites	-8897
iixou	-8898
ineen	-8899
uth	-8900
ches	-8901
ibou	-8902
naum	-8903
▁cul	-8904
▁ele	-8905
▁eye	-8906
ineni	-8907
inouh	-8908
iston	-8909
iteen	-8910
itiin	-8911
itoni	-8912
itowu	-8913
keley	-8914
kokei	-8915
koote	-8916
kosoo	-8917
kotou	-8918
kubee	-8919
nebee	-8920
neece	-8921
neeci	-8922
neehi	-8923
neesi	-8924
neinP	-8925
nenin	-8926
nihee	-8927
nihou	-8928
niiis	-8929
niiso	-8930
nonou	-8931
nooxo	-8932
nouht	-8933
noyei	-8934
obeet	-8935
obeit	-8936
oeheb	-8937
oeino	-8938
oenei	-8939
ohnii	-8940
ohnoo	-8941
ohook	-8942
onbee	-8943
onceh	-8944
oncoo	-8945
oneta	-8946
oneti	-8947
onica	-8948
oniin	-8949
oniis	-8950
onnii	-8951
onoon	-8952
onoox	-8953
onowu	-8954
onsee	-8955
ooben	-8956
osper	-8957
othes	-8958
otnee	-8959
ounih	-8960
ounin	-8961
outei	-8962
ouwou	-8963
owoku	-8964
owuni	-8965
oxone	-8966
plume	-8967
rsday	-8968
seiit	-8969
seito	-8970
sesei	-8971
sibee	-8972
siisi	-8973
sooti	-8974
souho	-8975
souri	-8976
stand	-8977
sther	-8978
stoot	-8979
teesP	-8980
teisi	-8981
tenee	-8982
tenei	-8983
tenow	-8984
tetee	-8985
tokoy	-8986
touno	-8987
toxei	-8988
ttoni	-8989
ttono	-8990
uhtii	-8991
usein	-8992
uteno	-8993
uusce	-8994
uusno	-8995
uusoo	-8996
uuxoo	-8997
uwono	-8998
wonno	-8999
wooku	-9000
woonP	-9001
wuhuu	-9002
xohee	-9003
xoowo	-9004
xowus	-9005
yeiho	-9006
yonii	-9007
yoote	-9008
▁Amen	-9009
▁Beel	-9010
▁Beex	-9011
▁Beis	-9012
▁Bell	-9013
▁Burg	-9014
▁Ceen	-9015
▁Coal	-9016
▁Deal	-9017
▁Dono	-9018
▁Harr	-9019
▁Here	-9020
▁Hesi	-9021
▁Hine	-9022
▁Husb	-9023
▁Kono	-9024
▁Meow	-9025
▁Mont	-9026
▁Nebi	-9027
▁NeeP	-9028
▁Next	-9029
▁Nooh	-9030
▁Noon	-9031
▁Rawl	-9032
▁Reno	-9033
▁Tece	-9034
▁Tees	-9035
▁Tell	-9036
▁TohP	-9037
▁Yeiy	-9038
▁beic	-9039
▁beih	-9040
▁bese	-9041
▁biii	-9042
▁boot	-9043
▁boys	-9044
▁came	-9045
▁comp	-9046
▁drag	-9047
▁even	-9048
▁gone	-9049
▁heco	-9050
▁hitP	-9051
▁home	-9052
▁knew	-9053
▁kous	-9054
▁lady	-9055
▁live	-9056
▁lost	-9057
▁meat	-9058
▁neei	-9059
▁neen	-9060
▁nine	-9061
▁pick	-9062
▁pill	-9063
▁riot	-9064
▁rock	-9065
▁sebe	-9066
▁teci	-9067
▁tipi	-9068
▁town	-9069
▁tree	-9070
▁wind	-9071
▁woox	-9072
▁wotP	-9073
Heeyou	-9074
Neiwoo	-9075
aldine	-9076
beetno	-9077
beetoo	-9078
beihok	-9079
besiin	-9080
betini	-9081
biikoo	-9082
biseet	-9083
booone	-9084
cehiit	-9085
cencei	-9086
cenise	-9087
cihnii	-9088
ciinto	-9089
ebcebe	-9090
ebceno	-9091
ebiici	-9092
ebiixo	-9093
ebnihi	-9094
eciini	-9095
eeetii	-9096
eeneec	-9097
eeneih	-9098
eetbii	-9099
eeteno	-9100
eetini	-9101
eeyeih	-9102
ehiise	-9103
ehiisi	-9104
eibese	-9105
eibeti	-9106
eibino	-9107
eiheet	-9108
eiibes	-9109
eineit	-9110
eineti	-9111
einini	-9112
eisiiP	-9113
eitibe	-9114
eitisi	-9115
eiyeiP	-9116
enetii	-9117
enouni	-9118
ersion	-9119
eseiht	-9120
eseine	-9121
esiine	-9122
esinee	-9123
espect	-9124
hentoo	-9125
hentou	-9126
hetino	-9127
hiinin	-9128
hiisii	-9129
hiisoo	-9130
hiitou	-9131
hinono	-9132
hoowoe	-9133
hooxeb	-9134
hooxuu	-9135
icihce	-9136
iciino	-9137
ihbeet	-9138
ihbehi	-9139
ihceni	-9140
ihceno	-9141
ihciit	-9142
ihcino	-9143
iheiit	-9144
ihkoni	-9145
ihoobe	-9146
ihtebe	-9147
ihtoyo	-9148
iiceto	-9149
iicihP	-9150
iihoho	-9151
iikoto	-9152
iikoxo	-9153
iiniis	-9154
iiniit	-9155
iinsee	-9156
iitboo	-9157
iiteex	-9158
iiteso	-9159
iiteto	-9160
iitiin	-9161
iitooP	-9162
iiwonP	-9163
iiwoxu	-9164
iixoot	-9165
iixoxo	-9166
iiyouh	-9167
ikowuu	-9168
incent	-9169
ineeno	-9170
ininoo	-9171
inooni	-9172
isiini	-9173
isoono	-9174
itonih	-9175
itouhu	-9176
itoxoo	-9177
iwohoe	-9178
iwoono	-9179
iyoohk	-9180
keihit	-9181
kohuni	-9182
koniit	-9183
kookox	-9184
koubii	-9185
koxoho	-9186
koyone	-9187
kuxone	-9188
nebeit	-9189
neebee	-9190
neecih	-9191
neetii	-9192
neniin	-9193
nesday	-9194
nglish	-9195
niitii	-9196
niiton	-9197
ninino	-9198
nkuuhu	-9199
nokuno	-9200
noohow	-9201
nounou	-9202
nouuhu	-9203
nouutP	-9204
obeeno	-9205
oeenih	-9206
oehino	-9207
oekuun	-9208
ohoeni	-9209
ohoeto	-9210
ohuuhu	-9211
ohwuho	-9212
oniito	-9213
onisee	-9214
onisei	-9215
onohow	-9216
ooheet	-9217
oohnee	-9218
ookcih	-9219
ookuno	-9220
ookuuP	-9221
ooneet	-9222
oonoxo	-9223
ooonoo	-9224
ootece	-9225
ootiiP	-9226
ootino	-9227
oowceh	-9228
ooweix	-9229
oowtoo	-9230
oowuhP	-9231
oowuse	-9232
ooxuuP	-9233
osohoe	-9234
oteese	-9235
oteyou	-9236
otiiwo	-9237
otowou	-9238
oubeet	-9239
ousihe	-9240
ouutii	-9241
ouuwuh	-9242
owoono	-9243
owunoo	-9244
oxonei	-9245
oxunee	-9246
pposed	-9247
sebiho	-9248
seihit	-9249
siibee	-9250
siisoo	-9251
stoowu	-9252
stouhu	-9253
teebit	-9254
telope	-9255
tiihee	-9256
tipede	-9257
tohuuk	-9258
toneen	-9259
tookoo	-9260
toosoo	-9261
tousce	-9262
towuni	-9263
uannah	-9264
uhtiit	-9265
uhuyoo	-9266
ukoohu	-9267
unihii	-9268
uniini	-9269
utiibe	-9270
utiino	-9271
uuhuni	-9272
uusiii	-9273
uuteno	-9274
uuwuno	-9275
uxohot	-9276
uyeini	-9277
uyeino	-9278
verick	-9279
woncou	-9280
woohun	-9281
woonee	-9282
wooyei	-9283
wunino	-9284
wuuhee	-9285
wuunei	-9286
xobeit	-9287
xootei	-9288
yeekuu	-9289
yeihce	-9290
yeinou	-9291
yihoon	-9292
yiiyii	-9293
yohoot	-9294
yootii	-9295
youhuu	-9296
▁Annie	-9297
▁Benih	-9298
▁Betty	-9299
▁Biibi	-9300
▁Caper	-9301
▁Cenei	-9302
▁Ciito	-9303
▁Frank	-9304
▁Ghost	-9305
▁Gunni	-9306
▁Heeto	-9307
▁Henii	-9308
▁Hesei	-9309
▁Hibii	-9310
▁Hills	-9311
▁Hokok	-9312
▁Jonah	-9313
▁Merle	-9314
▁Nenei	-9315
▁Nihni	-9316
▁Niibe	-9317
▁Nooko	-9318
▁Noowu	-9319
▁Notoo	-9320
▁Ralph	-9321
▁Sonny	-9322
▁Their	-9323
▁Those	-9324
▁Tiana	-9325
▁Tohce	-9326
▁Tonou	-9327
▁Tooto	-9328
▁Tooyo	-9329
▁Touku	-9330
▁Track	-9331
▁Trail	-9332
▁Under	-9333
▁Wiles	-9334
▁beesP	-9335
▁beise	-9336
▁biice	-9337
▁biiyo	-9338
▁bonoo	-9339
▁ceceh	-9340
▁ceenP	-9341
▁ceene	-9342
▁ceeno	-9343
▁cisii	-9344
▁drink	-9345
▁early	-9346
▁focus	-9347
▁guess	-9348
▁hands	-9349
▁heese	-9350
▁heetn	-9351
▁hides	-9352
▁hiisP	-9353
▁hinoh	-9354
▁hoeii	-9355
▁hoonP	-9356
▁hooyo	-9357
▁keihP	-9358
▁kinda	-9359
▁kooxu	-9360
▁money	-9361
▁neesi	-9362
▁neyoo	-9363
▁nihse	-9364
▁niixo	-9365
▁nokoh	-9366
▁nookP	-9367
▁noote	-9368
▁noxoo	-9369
▁noxow	-9370
▁paper	-9371
▁phone	-9372
▁plate	-9373
▁pries	-9374
▁short	-9375
▁songs	-9376
▁start	-9377
▁store	-9378
▁stuff	-9379
▁sweet	-9380
▁tesco	-9381
▁tihni	-9382
▁tooxu	-9383
▁totou	-9384
▁tousP	-9385
▁whate	-9386
▁wonee	-9387
▁woowP	-9388
▁world	-9389
▁wotto	-9390
▁yeini	-9391
▁young	-9392
awrence	-9393
bebiyei	-9394
beetboo	-9395
beetohP	-9396
beetouu	-9397
behiihi	-9398
beiiton	-9399
beseyei	-9400
betinee	-9401
bexohei	-9402
bexoxoo	-9403
biineet	-9404
biineti	-9405
ceestii	-9406
cehinoo	-9407
cihbiin	-9408
cihcehi	-9409
cihnouu	-9410
ciinoho	-9411
ciitein	-9412
coonite	-9413
ebiihco	-9414
ebiihii	-9415
ebiihot	-9416
ebkoohu	-9417
ebneyei	-9418
ebnoobe	-9419
eboonoo	-9420
ecoohei	-9421
ecootou	-9422
eebeiht	-9423
eebinoo	-9424
eekuuto	-9425
eeneito	-9426
eenihii	-9427
eenoone	-9428
eesisee	-9429
eetoxou	-9430
eewosoo	-9431
eexunoo	-9432
eicihit	-9433
eiheeno	-9434
eihehih	-9435
eiheiit	-9436
eineihi	-9437
eineiht	-9438
einokut	-9439
einowuu	-9440
eisiwoo	-9441
eitecoo	-9442
eiteeni	-9443
eitinee	-9444
eneinoo	-9445
eteinit	-9446
etnoono	-9447
exootii	-9448
eyeihii	-9449
eyeihne	-9450
heetneh	-9451
hehiine	-9452
heihcou	-9453
hoowooh	-9454
ihcehin	-9455
ihceite	-9456
ihcenii	-9457
ihcesii	-9458
ihciite	-9459
ihcikuu	-9460
iheenoo	-9461
iheihii	-9462
iheinee	-9463
ihetiit	-9464
ihkohoo	-9465
ihneeno	-9466
ihnenii	-9467
ihniiho	-9468
ihniiso	-9469
ihnohku	-9470
ihnoxow	-9471
ihoohok	-9472
ihsehno	-9473
ihteese	-9474
ihtonot	-9475
ihtooto	-9476
ihwooho	-9477
ihwoowo	-9478
iibiice	-9479
iibixoo	-9480
iicesis	-9481
iicetou	-9482
iicihce	-9483
iicihno	-9484
iiciice	-9485
iicisee	-9486
iiheene	-9487
iisihoo	-9488
iisiito	-9489
iistoxu	-9490
iiswoti	-9491
iitenow	-9492
iitohno	-9493
iiyohce	-9494
ineeyoo	-9495
inehous	-9496
inihiin	-9497
inonein	-9498
inouuhu	-9499
iteenee	-9500
iteneit	-9501
itoxoot	-9502
ketball	-9503
koheiis	-9504
koheiit	-9505
koheini	-9506
kohtobe	-9507
kohunee	-9508
koniini	-9509
koohehk	-9510
kooteso	-9511
kosooni	-9512
kuuhuni	-9513
kuutoni	-9514
mentary	-9515
mopolis	-9516
neeneeP	-9517
neeniii	-9518
neeseet	-9519
neetoto	-9520
neniisi	-9521
nentoot	-9522
neyeice	-9523
neyoone	-9524
nihoono	-9525
niibeet	-9526
niiseno	-9527
niisiho	-9528
niiwoot	-9529
ninihii	-9530
nkuutii	-9531
nohoono	-9532
noonouu	-9533
noonsoo	-9534
nosoune	-9535
nouunei	-9536
nowoono	-9537
oenooko	-9538
oeseese	-9539
oetiini	-9540
ohoenee	-9541
ohoenoo	-9542
ohtoono	-9543
ohuseee	-9544
oneenoo	-9545
oneinee	-9546
onentou	-9547
oniinii	-9548
onoonoo	-9549
oobeeno	-9550
oobeino	-9551
oohuuho	-9552
ookeihi	-9553
ookeino	-9554
ookooti	-9555
ookuhee	-9556
ookusee	-9557
oonobee	-9558
oonooni	-9559
oontece	-9560
ootoobe	-9561
ootosoo	-9562
oototou	-9563
ootoxei	-9564
oowoono	-9565
oowouhu	-9566
oowunih	-9567
oowuune	-9568
ooxuwuu	-9569
oseikuu	-9570
otehein	-9571
ouniine	-9572
ouubeti	-9573
ouuhuni	-9574
owooono	-9575
owoteno	-9576
owoukuu	-9577
owuuwun	-9578
oxonoot	-9579
seentou	-9580
seyeini	-9581
souhone	-9582
teeteco	-9583
teiitoo	-9584
teneihi	-9585
tiihoot	-9586
tiitiin	-9587
tooneti	-9588
toonhei	-9589
tootowo	-9590
tounoot	-9591
tousebi	-9592
uhcehih	-9593
uheihii	-9594
ukoohut	-9595
ukoohuu	-9596
utoonoo	-9597
uunisee	-9598
uuwunoo	-9599
uuwutii	-9600
uxootou	-9601
woohuni	-9602
woteiho	-9603
woxhoox	-9604
wuseeni	-9605
wuseeno	-9606
xebeino	-9607
xeciini	-9608
xoheiit	-9609
xohowoo	-9610
xoniini	-9611
xonoono	-9612
xookeen	-9613
xotiibe	-9614
xoxonee	-9615
xoxonei	-9616
xuuteen	-9617
yeihein	-9618
yootiit	-9619
▁Africa	-9620
▁Albert	-9621
▁Alvena	-9622
▁Beneet	-9623
▁Caesar	-9624
▁Ceecee	-9625
▁Cenoot	-9626
▁Cihwon	-9627
▁Cowell	-9628
▁Hailey	-9629
▁Henees	-9630
▁Hestoo	-9631
▁Hihtou	-9632
▁Hiseih	-9633
▁Hixono	-9634
▁Hookuu	-9635
▁Hoonou	-9636
▁Hoowoo	-9637
▁Hughes	-9638
▁Jungle	-9639
▁Keinoo	-9640
▁Koocii	-9641
▁Koowot	-9642
▁Martha	-9643
▁Moneta	-9644
▁Neiteh	-9645
▁NeyeiP	-9646
▁Nihkou	-9647
▁Nihnoh	-9648
▁Niicih	-9649
▁Niicii	-9650
▁Niinih	-9651
▁Niiwoo	-9652
▁Nookoo	-9653
▁Nootto	-9654
▁Parker	-9655
▁Plumes	-9656
▁Powder	-9657
▁States	-9658
▁Tetons	-9659
▁Tohbee	-9660
▁Toonhe	-9661
▁Toonne	-9662
▁United	-9663
▁Warren	-9664
▁WonooP	-9665
▁Wotnih	-9666
▁beecet	-9667
▁beetei	-9668
▁beetou	-9669
▁beexou	-9670
▁behind	-9671
▁beneeP	-9672
▁beseee	-9673
▁betooo	-9674
▁betoot	-9675
▁biinei	-9676
▁biixot	-9677
▁booono	-9678
▁bridge	-9679
▁called	-9680
▁cechou	-9681
▁ceesei	-9682
▁cencei	-9683
▁ceniiP	-9684
▁cenoho	-9685
▁cetoun	-9686
▁cihbis	-9687
▁ciinee	-9688
▁ciiyei	-9689
▁coocou	-9690
▁couldn	-9691
▁hecesi	-9692
▁heecen	-9693
▁heesce	-9694
▁heethi	-9695
▁hehcii	-9696
▁heneih	-9697
▁heniih	-9698
▁hesowo	-9699
▁hestoo	-9700
▁hetcee	-9701
▁hiceii	-9702
▁hiheio	-9703
▁hiikou	-9704
▁hiinee	-9705
▁hineci	-9706
▁hiteno	-9707
▁hitese	-9708
▁hokeih	-9709
▁hootni	-9710
▁hoowei	-9711
▁hoowni	-9712
▁hotiiw	-9713
▁hotnei	-9714
▁hunono	-9715
▁keicii	-9716
▁konouu	-9717
▁koocoo	-9718
▁koohen	-9719
▁kookoe	-9720
▁koosoo	-9721
▁kooxne	-9722
▁listen	-9723
▁neenin	-9724
▁neetne	-9725
▁nehtii	-9726
▁nihbih	-9727
▁nihkou	-9728
▁nihtes	-9729
▁niicou	-9730
▁niihee	-9731
▁niiito	-9732
▁niiniP	-9733
▁niitce	-9734
▁nohkce	-9735
▁nohkuu	-9736
▁nohuux	-9737
▁nookon	-9738
▁nootou	-9739
▁noowoo	-9740
▁scared	-9741
▁siikoo	-9742
▁siinii	-9743
▁silver	-9744
▁tebino	-9745
▁tihbee	-9746
▁tihcee	-9747
▁tihnes	-9748
▁tihnih	-9749
▁tihtei	-9750
▁tootoo	-9751
▁trying	-9752
▁twenty	-9753
▁uncles	-9754
▁wooxuu	-9755
▁wosein	-9756
beeniini	-9757
beenoxuu	-9758
benoobee	-9759
besiiwoo	-9760
biinenin	-9761
ceeniini	-9762
ceestoni	-9763
ceiteeno	-9764
ceniisei	-9765
ciiheino	-9766
ciinenee	-9767
ciinenot	-9768
ciineyoo	-9769
ciintoot	-9770
ciisisee	-9771
ciitetee	-9772
ciitonou	-9773
ebiyihoo	-9774
eekookou	-9775
eekutiit	-9776
eeneibii	-9777
eeneicoo	-9778
eeneiyoo	-9779
eenetisi	-9780
eentooni	-9781
eesbixoo	-9782
eesiseet	-9783
eetoonoo	-9784
eeyeinoo	-9785
ehiitoon	-9786
eihinoni	-9787
eihoonee	-9788
eihooono	-9789
eiisinen	-9790
eikoohut	-9791
eineenoo	-9792
einihiit	-9793
einiicii	-9794
einiisih	-9795
eiseenee	-9796
eiseenou	-9797
enetiino	-9798
entouyoo	-9799
esnoneet	-9800
etiitono	-9801
etiiwooo	-9802
etiiwoot	-9803
hiitoone	-9804
hiiyohou	-9805
hoowuuni	-9806
ihbiibii	-9807
ihcehino	-9808
ihcihkoo	-9809
ihehkoni	-9810
ihiseeno	-9811
ihkotous	-9812
ihnehtii	-9813
ihneinoo	-9814
ihnoonoh	-9815
ihoownih	-9816
iiciinoo	-9817
iiheihit	-9818
iineeneh	-9819
iineinee	-9820
iiniihen	-9821
iiniiteh	-9822
iinkoohu	-9823
iinowooh	-9824
iinoxowu	-9825
iinseeni	-9826
iiscensi	-9827
iisiseet	-9828
iistoono	-9829
iitiseen	-9830
iiyoohoe	-9831
iiyouhut	-9832
ikuutiit	-9833
inobeeno	-9834
inonoobe	-9835
inowoono	-9836
itenowoo	-9837
itetehei	-9838
itooneen	-9839
itouhuno	-9840
ixoheihi	-9841
koohowoo	-9842
kookeihi	-9843
kooyeino	-9844
kotiihou	-9845
kutiinoo	-9846
kuutonee	-9847
neenooni	-9848
neetinoo	-9849
neetonee	-9850
neetotou	-9851
neexohei	-9852
neexohun	-9853
neneenit	-9854
neniinin	-9855
nihiitou	-9856
niihobei	-9857
niihoono	-9858
niinenno	-9859
niitiine	-9860
noneenoo	-9861
nookohei	-9862
nooninoo	-9863
nosounee	-9864
notiihee	-9865
nousinen	-9866
nowoonee	-9867
nowuunei	-9868
oeneetou	-9869
ohkoohut	-9870
ohnooone	-9871
ohouuhut	-9872
ohukoohu	-9873
ohwoonoo	-9874
onbooboo	-9875
onohowuu	-9876
ononitii	-9877
ookuhoot	-9878
ookutiit	-9879
ookuunee	-9880
oonehini	-9881
oonouuho	-9882
ooteihit	-9883
oowuunee	-9884
oteihino	-9885
otoyouhu	-9886
ouubeihi	-9887
ouubeiht	-9888
owotenou	-9889
siihinoo	-9890
siiniihe	-9891
teenbooo	-9892
teenocoo	-9893
teinooni	-9894
tiihiiho	-9895
tiiniihi	-9896
tonoonee	-9897
toohkoni	-9898
tookohei	-9899
tooniihi	-9900
tootouse	-9901
uhcehisi	-9902
useenino	-9903
uunkoohu	-9904
uuwuunee	-9905
uxotonou	-9906
wooneiit	-9907
woowooho	-9908
xoneesei	-9909
xonihoot	-9910
xouubeso	-9911
xowouhut	-9912
xuhcehit	-9913
xuwutiit	-9914
yeinooni	-9915
yoohowoo	-9916
▁Ambrose	-9917
▁Arminto	-9918
▁Ceeceno	-9919
▁Ceneeno	-9920
▁Ciiteex	-9921
▁Donovan	-9922
▁Heenees	-9923
▁Heeteco	-9924
▁Hiniito	-9925
▁Hitesei	-9926
▁Hitonih	-9927
▁Honoono	-9928
▁Husband	-9929
▁Jimtown	-9930
▁Kooheih	-9931
▁Koonehe	-9932
▁Martina	-9933
▁Montana	-9934
▁Neeneis	-9935
▁Nesihoo	-9936
▁Niiboot	-9937
▁Niikoxo	-9938
▁Noonsoo	-9939
▁NoosouP	-9940
▁Nototii	-9941
▁Rawlins	-9942
▁Siineih	-9943
▁Tecenoo	-9944
▁Theresa	-9945
▁Trosper	-9946
▁beexnee	-9947
▁beexuni	-9948
▁beneeci	-9949
▁beneexP	-9950
▁beniibi	-9951
▁betkouu	-9952
▁beyoowu	-9953
▁biinoot	-9954
▁biisnih	-9955
▁calling	-9956
▁ceenisi	-9957
▁ceneehe	-9958
▁ceneito	-9959
▁chicken	-9960
▁cihcesi	-9961
▁ciiteso	-9962
▁clothes	-9963
▁college	-9964
▁culture	-9965
▁fifteen	-9966
▁grandpa	-9967
▁hecesii	-9968
▁heebehi	-9969
▁heeneit	-9970
▁heescii	-9971
▁heesnee	-9972
▁heesneh	-9973
▁heetboo	-9974
▁heeteci	-9975
▁heetnou	-9976
▁heetsii	-9977
▁heeyouP	-9978
▁heeyowu	-9979
▁hehnehe	-9980
▁heihbii	-9981
▁heniini	-9982
▁hesooku	-9983
▁heteixo	-9984
▁heyeihi	-9985
▁hibixoo	-9986
▁hiinixo	-9987
▁hiisiii	-9988
▁hiistii	-9989
▁hineyei	-9990
▁hitoowu	-9991
▁hiyeihe	-9992
▁honooko	-9993
▁hoonino	-9994
▁hoonoxo	-9995
▁hootneh	-9996
▁hoowceh	-9997
▁hoowoto	-9998
▁hoowtoo	-9999
▁keetcii	-10000
▁kooniit	-10001
▁kooxcei	-10002
▁neciini	-10003
▁neentou	-10004
▁neihcih	-10005
▁nesihoo	-10006
▁neyeihP	-10007
▁nihceno	-10008
▁nihcoon	-10009
▁nihkoxo	-10010
▁nihnohk	-10011
▁nihwono	-10012
▁nihwoti	-10013
▁niiceno	-10014
▁niihenP	-10015
▁niihoon	-10016
▁niinihi	-10017
▁niiniiP	-10018
▁niinooP	-10019
▁niinsee	-10020
▁niiscec	-10021
▁niisino	-10022
▁niisnee	-10023
▁niitobe	-10024
▁niitohP	-10025
▁niitono	-10026
▁niitowo	-10027
▁nisikoc	-10028
▁nonouxo	-10029
▁nookbei	-10030
▁nookouu	-10031
▁noonoxo	-10032
▁noonsih	-10033
▁nooxeih	-10034
▁notonoh	-10035
▁noxowuP	-10036
▁outside	-10037
▁popcorn	-10038
▁siiheet	-10039
▁siihiih	-10040
▁sixties	-10041
▁teacher	-10042
▁telling	-10043
▁through	-10044
▁tohbeet	-10045
▁tohnihi	-10046
▁tohuubi	-10047
▁tohuuko	-10048
▁toonhet	-10049
▁wonoono	-10050
▁woohone	-10051
▁woowoti	-10052
▁wosouhu	-10053
▁woxtoot	-10054
▁woxutoo	-10055
▁xonooku	-10056
asshopper	-10057
beetohnii	-10058
beexookee	-10059
biineihit	-10060
bootowuno	-10061
cebihcehi	-10062
cebiseeni	-10063
ceenokuno	-10064
ceestowoo	-10065
ceniiseit	-10066
cesiikohe	-10067
cesisnihi	-10068
ciineneit	-10069
ciiteinei	-10070
ciitohwoo	-10071
ciixokuni	-10072
cooniinen	-10073
ebcebiihi	-10074
ecoohoono	-10075
ecouhuuho	-10076
eeckoohun	-10077
eecxootee	-10078
eenebeiht	-10079
eentoonee	-10080
eesnehtii	-10081
ehiiniihi	-10082
eihehebin	-10083
eiihcehit	-10084
eiisineni	-10085
eixohoono	-10086
eniixobee	-10087
esoohowoo	-10088
heenetino	-10089
hiisetiit	-10090
hinenitee	-10091
hoooninoo	-10092
ihcebisee	-10093
ihcebixoo	-10094
ihceciito	-10095
ihcihceno	-10096
ihniisino	-10097
ihniitouu	-10098
ihnookoxo	-10099
ihtonotin	-10100
ihwotikuu	-10101
ihyeinino	-10102
iibeteeet	-10103
iihooteni	-10104
iiniistoo	-10105
iisiinini	-10106
iisiitene	-10107
iistokohu	-10108
iistoohok	-10109
iiteexoku	-10110
iitniitoo	-10111
iitowunee	-10112
iiyohoote	-10113
iniisooni	-10114
iteneinoo	-10115
itoonoono	-10116
itootiini	-10117
ixootiini	-10118
kosoutiit	-10119
kuhneehek	-10120
kuhneenoo	-10121
neeneinoo	-10122
neenetino	-10123
neenowoot	-10124
neetohbii	-10125
nehtiitii	-10126
nestoonoo	-10127
neyooheet	-10128
niihobeit	-10129
niiinenno	-10130
niiniihii	-10131
niisonoon	-10132
niitenoot	-10133
nohceinee	-10134
nokooyeit	-10135
noohowooo	-10136
noohowoti	-10137
nookeihit	-10138
noonotnoo	-10139
nottoneet	-10140
nottoneit	-10141
nousineno	-10142
nouutenee	-10143
nouutenin	-10144
ohooniini	-10145
ohouwunee	-10146
oneentoot	-10147
onkoohuno	-10148
onkuutiit	-10149
onoheinoo	-10150
oobeciihi	-10151
oobeihino	-10152
oohobeihi	-10153
oohootowu	-10154
ookuheino	-10155
ookutiino	-10156
ookuutiit	-10157
ooneeneti	-10158
oonotoono	-10159
oowbeetou	-10160
oowuseeni	-10161
oowuunono	-10162
ooxeihini	-10163
ooyeitiit	-10164
oteihinee	-10165
oukutooni	-10166
ounetobee	-10167
ouyeitibe	-10168
owooyeiti	-10169
owuunenno	-10170
seenebeti	-10171
seenookuu	-10172
seikuutii	-10173
siikoheit	-10174
sinihiito	-10175
tebkuutii	-10176
teenboone	-10177
teexokuut	-10178
teiniicii	-10179
tiitonoun	-10180
tnoohobee	-10181
tootiinin	-10182
tounineet	-10183
toustoobe	-10184
towuuneih	-10185
useenooni	-10186
uxotiinoo	-10187
woteeseet	-10188
wouunonoo	-10189
wuuneenee	-10190
xootowuno	-10191
xouubeihi	-10192
xouuwoote	-10193
xuuhetiit	-10194
yihxohoot	-10195
yiiskoohu	-10196
yooxuunec	-10197
▁Beesiihi	-10198
▁Berkeley	-10199
▁Biibeeno	-10200
▁Charlene	-10201
▁Gunnison	-10202
▁Heetihni	-10203
▁Hehniisi	-10204
▁HeihoowP	-10205
▁Heihoowu	-10206
▁Hiniihei	-10207
▁Hoonobee	-10208
▁Hoonoyoo	-10209
▁HoowoohP	-10210
▁Hoowusee	-10211
▁Hooxohoe	-10212
▁Konohxuu	-10213
▁Kooxuuhu	-10214
▁Maverick	-10215
▁Missouri	-10216
▁Muhammad	-10217
▁Neniihei	-10218
▁Neyeihei	-10219
▁Nihceece	-10220
▁Nihneyei	-10221
▁Nihniihe	-10222
▁Nihnooko	-10223
▁Niiseiht	-10224
▁Niitowoo	-10225
▁Niiwoowo	-10226
▁Noosouni	-10227
▁Sheridan	-10228
▁Siisiiko	-10229
▁Teesiihi	-10230
▁Thursday	-10231
▁Tohuucee	-10232
▁Whiteman	-10233
▁beebebii	-10234
▁beeteeni	-10235
▁beexoowu	-10236
▁beexotii	-10237
▁beniicei	-10238
▁beteihii	-10239
▁biibeeno	-10240
▁biibiibi	-10241
▁biiteino	-10242
▁bixooxun	-10243
▁cebiseet	-10244
▁cebtokoy	-10245
▁ceenokut	-10246
▁ceeyowco	-10247
▁ceibenoo	-10248
▁ceniinii	-10249
▁cesistoo	-10250
▁cihnooke	-10251
▁ciineeno	-10252
▁ciineyei	-10253
▁ciiniini	-10254
▁ciiteini	-10255
▁feathers	-10256
▁heebehce	-10257
▁heebehni	-10258
▁heeneini	-10259
▁heeneitP	-10260
▁heenetiP	-10261
▁heenetit	-10262
▁heesneen	-10263
▁heestoot	-10264
▁heetbeex	-10265
▁heetecii	-10266
▁heetneeP	-10267
▁heetnehP	-10268
▁heetniin	-10269
▁heetohni	-10270
▁heetoxei	-10271
▁heetteco	-10272
▁heetwono	-10273
▁heeyeihP	-10274
▁heeyeino	-10275
▁heineyei	-10276
▁heneinee	-10277
▁heniisii	-10278
▁hentooto	-10279
▁hesiisei	-10280
▁hetcihno	-10281
▁heteehin	-10282
▁hetneyei	-10283
▁hetniini	-10284
▁hihoowuu	-10285
▁hiinooko	-10286
▁hiisiine	-10287
▁hiniinis	-10288
▁hinoyoot	-10289
▁hisiisei	-10290
▁hohookei	-10291
▁honootee	-10292
▁honooyoo	-10293
▁hookecii	-10294
▁hoowneen	-10295
▁hoowtowo	-10296
▁hoowusee	-10297
▁hoseikuu	-10298
▁hotonihi	-10299
▁hotoonee	-10300
▁hotoonoo	-10301
▁huutouuk	-10302
▁keiciini	-10303
▁koohecee	-10304
▁kooheihP	-10305
▁kookoyou	-10306
▁kouhuyoo	-10307
▁kouniihi	-10308
▁machines	-10309
▁neeciini	-10310
▁neeneeto	-10311
▁neeneise	-10312
▁neeneitP	-10313
▁neenetit	-10314
▁neesiini	-10315
▁neetinoo	-10316
▁neihinoo	-10317
▁neineyei	-10318
▁neniitei	-10319
▁neyeinee	-10320
▁nihbeete	-10321
▁nihbetee	-10322
▁nihbisno	-10323
▁nihceite	-10324
▁nihcooco	-10325
▁nihkonoh	-10326
▁nihnihii	-10327
▁nihniitP	-10328
▁nihniito	-10329
▁nihteebe	-10330
▁nihwotei	-10331
▁niibiino	-10332
▁niibisni	-10333
▁niiheene	-10334
▁niikonoh	-10335
▁niineyoo	-10336
▁niiniici	-10337
▁niiniito	-10338
▁niinotto	-10339
▁niisiihi	-10340
▁niistiin	-10341
▁niitiine	-10342
▁niitobee	-10343
▁niitooni	-10344
▁nonookei	-10345
▁noobesei	-10346
▁noohobee	-10347
▁nookubee	-10348
▁noonotii	-10349
▁noonotto	-10350
▁noonowoo	-10351
▁noosouni	-10352
▁noowunen	-10353
▁probably	-10354
▁siihoowP	-10355
▁siinenee	-10356
▁supposed	-10357
▁tihbiino	-10358
▁tihciino	-10359
▁tihniisi	-10360
▁tohbetee	-10361
▁tohciini	-10362
▁tohneyei	-10363
▁tohniisi	-10364
▁tohnoono	-10365
▁tohuubih	-10366
▁tohuunih	-10367
▁tohuutox	-10368
▁tomatoes	-10369
▁toonhini	-10370
▁toonnehe	-10371
▁toonniit	-10372
▁toonnuhu	-10373
▁tootheet	-10374
▁tootouno	-10375
▁tousooti	-10376
▁whatever	-10377
▁wonneyei	-10378
▁wooneihi	-10379
▁woxutoot	-10380
▁xonouuwu	-10381
ceciiniini	-10382
ceestoonee	-10383
cesihcehit	-10384
cesisniisi	-10385
cetenowoot	-10386
cihnooxeih	-10387
ciineyeino	-10388
ciinohowoo	-10389
ciiteneihi	-10390
cooniibooo	-10391
cowokuseet	-10392
ebneeheyei	-10393
ebnoohobee	-10394
eebiihiiho	-10395
eecxooyeih	-10396
eeneestoon	-10397
eeneiniini	-10398
eeneinisee	-10399
eeneiscowo	-10400
eeneitenoo	-10401
eeneitenou	-10402
eeneitisee	-10403
ehiibeihio	-10404
eiciibeeet	-10405
eiisinenoo	-10406
einoonesei	-10407
eixoheinoo	-10408
eyooteihit	-10409
hehiinenin	-10410
ihiihooxeb	-10411
ihkoxuuten	-10412
ihnouxonee	-10413
ihtokohuno	-10414
iiciinenou	-10415
iihiinenno	-10416
iinoohobee	-10417
iinooxeihi	-10418
iinotoonoo	-10419
iisinihiin	-10420
iisniistii	-10421
iiteyeinin	-10422
iitneenini	-10423
iitoonooni	-10424
kohtowusee	-10425
kohuusiini	-10426
kutiseenoo	-10427
kutooxobei	-10428
neenehiise	-10429
neenesooku	-10430
neihoownee	-10431
neneeninee	-10432
nentooyein	-10433
niiniisihi	-10434
niiniistoo	-10435
niiseihini	-10436
niisneniit	-10437
niitobeeno	-10438
nohkuusiii	-10439
nokohuunoo	-10440
nokotiinoo	-10441
noohobeino	-10442
noohowooon	-10443
nookuceihi	-10444
nookuhcehi	-10445
nouuhcehin	-10446
nouuteneit	-10447
nowuuneeno	-10448
nowuunoono	-10449
ohuukoohut	-10450
oneenetini	-10451
onohowuune	-10452
ookootiino	-10453
ookuhcehit	-10454
ookuheinoo	-10455
ooncebitee	-10456
ooneiitono	-10457
oonoyoohoo	-10458
ootoneinoo	-10459
ootowootee	-10460
oowotoneen	-10461
oowotoneit	-10462
oowuuniini	-10463
ooxuunonee	-10464
ooxuwuutee	-10465
oteihinoni	-10466
owouunonee	-10467
oxuuhetino	-10468
seeneisiii	-10469
teenotoyoo	-10470
teesciiyei	-10471
teexouuhut	-10472
teihiitoon	-10473
tiitoonini	-10474
tonouneihi	-10475
totoubeeno	-10476
towootiini	-10477
towuuneiht	-10478
uheihiinou	-10479
uubeihinoo	-10480
uxootowuno	-10481
wonotoonoo	-10482
woohoninoo	-10483
wooneiiton	-10484
woteneinoo	-10485
wouuneenoo	-10486
xoniseenoo	-10487
yookuutiit	-10488
yooniibino	-10489
▁Capernaum	-10490
▁Galileans	-10491
▁Geraldine	-10492
▁Heetneene	-10493
▁Heetniice	-10494
▁Heihoowuu	-10495
▁Heneeneti	-10496
▁Hiihoowno	-10497
▁Hiihoowoe	-10498
▁Hiihoowuu	-10499
▁Konohuuhu	-10500
▁Konowuuhu	-10501
▁Kooheetni	-10502
▁Neniteeno	-10503
▁Nihkookou	-10504
▁Nihneenit	-10505
▁Niibeetno	-10506
▁Niibeetoh	-10507
▁Niibeteee	-10508
▁Niiseihit	-10509
▁Nonoonoko	-10510
▁Notiitiit	-10511
▁Simondson	-10512
▁Tohbehiis	-10513
▁Wednesday	-10514
▁Wosouhone	-10515
▁Yiihoonoo	-10516
▁bebiisceh	-10517
▁beebeetou	-10518
▁beeteyook	-10519
▁beexookee	-10520
▁biineinoo	-10521
▁biiniisoo	-10522
▁biinohooo	-10523
▁biisibino	-10524
▁biiwoohut	-10525
▁ceebikoni	-10526
▁ceitoosoo	-10527
▁centipede	-10528
▁cihnouute	-10529
▁cihwonbii	-10530
▁ciibeetii	-10531
▁ciixootee	-10532
▁grandsons	-10533
▁hecesiihi	-10534
▁hecoxonoh	-10535
▁heebiitoo	-10536
▁heecetino	-10537
▁heeneenei	-10538
▁heeneesih	-10539
▁heeneisii	-10540
▁heeneisno	-10541
▁heeneiyoo	-10542
▁heenentou	-10543
▁heeseenei	-10544
▁heestooni	-10545
▁heetceece	-10546
▁heeteihit	-10547
▁heetihbis	-10548
▁heetkonoh	-10549
▁heetkonoo	-10550
▁heetkoone	-10551
▁heetneeti	-10552
▁heetnihii	-10553
▁heetniise	-10554
▁heetohbih	-10555
▁heetohnii	-10556
▁heetootee	-10557
▁heetwonee	-10558
▁heetwonii	-10559
▁heetwonoo	-10560
▁heetyoohu	-10561
▁heihoowno	-10562
▁heitootou	-10563
▁heneeneti	-10564
▁heniihoho	-10565
▁heniisnoh	-10566
▁heniixoot	-10567
▁hesnonoot	-10568
▁hetniinii	-10569
▁hihnoohoo	-10570
▁hiiceebeh	-10571
▁hiihootei	-10572
▁hiihoowuP	-10573
▁hiiskohko	-10574
▁hiteseiwo	-10575
▁hitesoono	-10576
▁hitoonoho	-10577
▁hitouunen	-10578
▁hokooxune	-10579
▁hookohuus	-10580
▁hoononowu	-10581
▁hootoohoe	-10582
▁hoowbeetP	-10583
▁hoowuceno	-10584
▁hooxuwuut	-10585
▁hotookuhu	-10586
▁immersion	-10587
▁konowuuhu	-10588
▁koociicee	-10589
▁koociinee	-10590
▁kooheinei	-10591
▁koohinono	-10592
▁kooneniit	-10593
▁koowootii	-10594
▁neeceenou	-10595
▁neecetino	-10596
▁neeneisce	-10597
▁neenentou	-10598
▁neihcebii	-10599
▁neihoowce	-10600
▁neisiihoo	-10601
▁neniiwoot	-10602
▁neniiwouh	-10603
▁neyeitiit	-10604
▁nihbeetce	-10605
▁nihceecee	-10606
▁nihciicih	-10607
▁nihciinoo	-10608
▁nihciitei	-10609
▁nihkookon	-10610
▁nihkouute	-10611
▁nihneenih	-10612
▁nihniitoo	-10613
▁nihnoohoo	-10614
▁nihnoonoo	-10615
▁nihnouuso	-10616
▁nihtootou	-10617
▁niibiinoo	-10618
▁niibistei	-10619
▁niicihnoo	-10620
▁niicoocou	-10621
▁niikookoh	-10622
▁niineenee	-10623
▁niineenih	-10624
▁niineyeit	-10625
▁niiniisih	-10626
▁niinoonoh	-10627
▁niinoonoo	-10628
▁niiseekuu	-10629
▁niisetini	-10630
▁niisihoot	-10631
▁niistiino	-10632
▁niitkokoh	-10633
▁niitneyei	-10634
▁niitohcii	-10635
▁niitoonoo	-10636
▁niixoonee	-10637
▁nonoonoko	-10638
▁noohootou	-10639
▁nookuhoho	-10640
▁noononsih	-10641
▁noosounih	-10642
▁noosoutou	-10643
▁noowouuno	-10644
▁notonihei	-10645
▁nouuhcehi	-10646
▁noxowuuhu	-10647
▁siihoowoe	-10648
▁siikookon	-10649
▁siiwootii	-10650
▁tihbeteet	-10651
▁tihnoohoo	-10652
▁tihtokoho	-10653
▁tohcihnoo	-10654
▁tohuuciiP	-10655
▁toonhiite	-10656
beniiinenno	-10657
biiwoohunoo	-10658
cebixotiino	-10659
cesiseeneti	-10660
ciinoheinoo	-10661
ciiteneihit	-10662
cooniinenno	-10663
ecoohohkoni	-10664
eeneestoono	-10665
eeneistoono	-10666
eihehiiniit	-10667
eihonookeen	-10668
esinihiitou	-10669
esowobeihit	-10670
etiitoonini	-10671
hiiwoonhehe	-10672
ihniisnenii	-10673
ihniistiino	-10674
ihnoonotnoo	-10675
iicxooyeihi	-10676
iinebkuutii	-10677
iiniistiino	-10678
iinouutowuu	-10679
iisiiteneit	-10680
iistootiini	-10681
iitbisiitoo	-10682
iitneeneyei	-10683
iitnokooyei	-10684
iitwooniini	-10685
iiwoowoxube	-10686
iixoxonotii	-10687
inobeenoono	-10688
inowuneehek	-10689
kohtobeenee	-10690
kotiiseenoo	-10691
neeteihinoo	-10692
neetiininoo	-10693
neetouhunoo	-10694
neihoowuuni	-10695
neniteenino	-10696
niiheneihin	-10697
niiheneihit	-10698
niihiitooni	-10699
niihootiini	-10700
niiniiboohu	-10701
niisiheinoo	-10702
niisiitenou	-10703
niiteheinoo	-10704
noohowoonoo	-10705
nouutowoono	-10706
obetiitooni	-10707
onohoekoohu	-10708
oobeeneetou	-10709
oohootowuno	-10710
oseikuutiit	-10711
oteihehkoni	-10712
siisoowoono	-10713
soohootowoo	-10714
tonounowuni	-10715
toukutoohok	-10716
towuuneenee	-10717
towuuneenoo	-10718
uunseetiini	-10719
uuwuutowuno	-10720
wooneihinoo	-10721
wuuhuutooni	-10722
yoohootowuu	-10723
yoohuutooni	-10724
▁Heetneenit	-10725
▁Heetnehnee	-10726
▁Heetniihen	-10727
▁Heetniinoo	-10728
▁Heetoustoo	-10729
▁Heeyowuuni	-10730
▁Heihoownih	-10731
▁Hiihoowooh	-10732
▁Hiihoowuni	-10733
▁Hoowoohnee	-10734
▁Howouunone	-10735
▁Nihnottono	-10736
▁Nihwoniini	-10737
▁Niitowuuhu	-10738
▁Nonoohowoo	-10739
▁Siibeebeet	-10740
▁Whiteplume	-10741
▁basketball	-10742
▁beesneecee	-10743
▁beneetisee	-10744
▁beteentoot	-10745
▁betooheeno	-10746
▁betoootono	-10747
▁ceniinonoo	-10748
▁cihnoohowu	-10749
▁ciibeetono	-10750
▁ciisibinoo	-10751
▁elementary	-10752
▁hecescehee	-10753
▁heebehneen	-10754
▁heecisiini	-10755
▁heecisisee	-10756
▁heenetiino	-10757
▁heentoonee	-10758
▁heesineyei	-10759
▁heesinonee	-10760
▁heeskoneen	-10761
▁heetbebiis	-10762
▁heetbeesoo	-10763
▁heetbeteee	-10764
▁heetniibei	-10765
▁heetniiboo	-10766
▁heetniihoo	-10767
▁heetniikoo	-10768
▁heetniitni	-10769
▁heetniitno	-10770
▁heetnootoo	-10771
▁heetoukuhu	-10772
▁hehiisetii	-10773
▁hehnoonsoo	-10774
▁heihoownee	-10775
▁heiteyoono	-10776
▁hibesiibeh	-10777
▁hiihoowuno	-10778
▁hiiniseeni	-10779
▁hiisiiteno	-10780
▁hiniininoo	-10781
▁hitesiinen	-10782
▁hiwoxutoot	-10783
▁honootiino	-10784
▁hoowoohwoo	-10785
▁hoowunihii	-10786
▁hoowuusein	-10787
▁hoteisoono	-10788
▁hotneihoow	-10789
▁hoxobetiit	-10790
▁kookooshih	-10791
▁kooxheeyou	-10792
▁neenebiite	-10793
▁neihniisih	-10794
▁neihoowbei	-10795
▁neihoowbii	-10796
▁neihoowceh	-10797
▁neyooxetii	-10798
▁nihbisiini	-10799
▁nihciiteit	-10800
▁nihneeneih	-10801
▁niibeetnii	-10802
▁niiheniihi	-10803
▁niiheniini	-10804
▁niihoonice	-10805
▁niineyeihi	-10806
▁niinooxuwu	-10807
▁niinoxohoe	-10808
▁niisniikou	-10809
▁niisonoxoh	-10810
▁niitoukuhu	-10811
▁niiwonoote	-10812
▁nonoohobei	-10813
▁nonoononoo	-10814
▁nonooxeihi	-10815
▁nookonokut	-10816
▁noononitii	-10817
▁nootineihi	-10818
▁notoniheit	-10819
▁nouuciitoo	-10820
▁seyeiniihi	-10821
▁siibeebeet	-10822
▁siineihoow	-10823
▁tebinouhuu	-10824
▁teiitooyoo	-10825
▁teneexokut	-10826
▁tihceentou	-10827
▁tohnokohut	-10828
▁tohuucensi	-10829
▁tohuuciini	-10830
▁tohuuwoowo	-10831
▁toonbeneet	-10832
▁toonheesoo	-10833
▁toonhonouu	-10834
▁toonniicii	-10835
▁toyouniihi	-10836
▁understand	-10837
▁wheelchair	-10838
▁wonceenoku	-10839
▁woxtootino	-10840
beteenitoono	-10841
cebiihineeni	-10842
ebiihooxebii	-10843
eeneisiiteno	-10844
eeneistoonoo	-10845
eeneitenowoo	-10846
eenesoohobei	-10847
eibetiitooni	-10848
hotiiciiheit	-10849
ihbeesinihii	-10850
ihbeexookeen	-10851
ihcehiitooni	-10852
iicebiihinee	-10853
koohuutonoot	-10854
koxuuteniini	-10855
neeneixoohoo	-10856
neenestoonoo	-10857
neniteeniine	-10858
niiniiitowoo	-10859
noohobeinoni	-10860
noohootowuni	-10861
nouuhcehinoo	-10862
oeneetowunee	-10863
oeseiteenino	-10864
onohowuunoot	-10865
oonoyoohobei	-10866
ootonounowoo	-10867
ooxohoenihii	-10868
oteenebeihit	-10869
ouuwuhetinoo	-10870
ouyeitiitoon	-10871
owooyeitinoo	-10872
owouunoninee	-10873
seentootiini	-10874
sowobeihinoo	-10875
tebihehiinit	-10876
tonounowunoo	-10877
totoubeihino	-10878
uhcehiitooni	-10879
uheihiinoono	-10880
woteikuutono	-10881
yoohootowuno	-10882
▁Ceeciiniini	-10883
▁Heetwoniini	-10884
▁Heihtoustoo	-10885
▁Hibesiiwoho	-10886
▁Hiinooninoo	-10887
▁Neeneisiini	-10888
▁Neihoowbeet	-10889
▁Neihoowuuni	-10890
▁Nihniitonou	-10891
▁Niinotiihou	-10892
▁Noosouneyei	-10893
▁Noosouniini	-10894
▁Thermopolis	-10895
▁Woteiheihii	-10896
▁beebeebiiti	-10897
▁beebeehiiho	-10898
▁beesnenitee	-10899
▁beniiinenii	-10900
▁biikooniihi	-10901
▁cebiihetiit	-10902
▁ceebehnonih	-10903
▁ceiteehiiho	-10904
▁cihwoteesee	-10905
▁cowouuwutii	-10906
▁heebehciini	-10907
▁heeneiniito	-10908
▁heenetsinee	-10909
▁heetihneeni	-10910
▁heetneentou	-10911
▁heetniinisi	-10912
▁heetniisiii	-10913
▁heetniisnee	-10914
▁heetniisnoh	-10915
▁heetniistoo	-10916
▁heetniixoxo	-10917
▁heetnoxohoe	-10918
▁heetxouubei	-10919
▁hehniiseiht	-10920
▁heiniistoot	-10921
▁heinotiihoo	-10922
▁heneeyeihno	-10923
▁heteehibino	-10924
▁heteenetiit	-10925
▁hibesiibeih	-10926
▁hiihoowucou	-10927
▁hiihoowuuno	-10928
▁hiiyohootei	-10929
▁hiiyoootino	-10930
▁hiteehibino	-10931
▁hitouunenno	-10932
▁kookoosneih	-10933
▁kouutenowuu	-10934
▁neihoowbise	-10935
▁neniiseihit	-10936
▁neniisoonoh	-10937
▁neniitobeet	-10938
▁nihcenenoot	-10939
▁nihneeneyei	-10940
▁nihnoohobee	-10941
▁nihnoohowoo	-10942
▁nihoonouuho	-10943
▁niibeexuuni	-10944
▁niiceeceesi	-10945
▁niikookokoh	-10946
▁niikouuteno	-10947
▁niikoxuuten	-10948
▁niineeneyei	-10949
▁niineyeihei	-10950
▁niiniistiit	-10951
▁niiniitobee	-10952
▁niinohkusei	-10953
▁niinoononoo	-10954
▁niinotiihou	-10955
▁niisootosoo	-10956
▁nonoohowoot	-10957
▁noohootowoo	-10958
▁nooneniixoo	-10959
▁noosouniine	-10960
▁noosouniisi	-10961
▁nottoneinoo	-10962
▁teeceeneeto	-10963
▁tohuubooboo	-10964
▁toonheentoo	-10965
▁toonheihcou	-10966
▁tootousiini	-10967
▁wooxutoonoo	-10968
▁yeheihoowun	-10969
cesistootiini	-10970
cihnooxeihohk	-10971
ciiciineyoono	-10972
ciineneihinoo	-10973
ciinenowuunei	-10974
ebniiitowuune	-10975
eecxooyeihino	-10976
eenetiitoonin	-10977
etebinouhuuni	-10978
ihciinoohobee	-10979
ihnoxohoeniii	-10980
iiciinoohobee	-10981
iiciiskoohuno	-10982
iinikotiinino	-10983
iinowooheinoo	-10984
iiscebiseenoo	-10985
iixoohootowoo	-10986
iixoxonotiino	-10987
kotiitooninoo	-10988
niiitowuuneen	-10989
noohobeihinoo	-10990
oenookouhunoo	-10991
okeciihihinoo	-10992
onohoentouyoo	-10993
oonowooyeitit	-10994
oowuniihiseet	-10995
oowuuheihiiho	-10996
owoukuutiinoo	-10997
wonootiseenoo	-10998
▁Beeheeteihin	-10999
▁Beiseeteihit	-11000
▁Cebiihineeno	-11001
▁Ceeneeteeyoo	-11002
▁Heetneeninoo	-11003
▁Hetebinouhuu	-11004
▁Hookeciihihi	-11005
▁Hoonoyoohobe	-11006
▁NeihoowbeetP	-11007
▁Nookbiixonoo	-11008
▁beneexookeet	-11009
▁beniiinookee	-11010
▁beniiinootno	-11011
▁ciikosoutiit	-11012
▁heeneisneyei	-11013
▁heenesowohou	-11014
▁heesiitousih	-11015
▁heesinihiini	-11016
▁heetbiinebee	-11017
▁heetihciinee	-11018
▁heetkoxuuten	-11019
▁heetneeneise	-11020
▁heetniihoono	-11021
▁heetniistiin	-11022
▁heetniistoon	-11023
▁heetniitonou	-11024
▁heetnotiihoo	-11025
▁heetookohuus	-11026
▁heetyihoonoo	-11027
▁hehniisetini	-11028
▁heneeceeniit	-11029
▁heniisiiteno	-11030
▁hetneihoowoe	-11031
▁hiitoonehini	-11032
▁hinoohowooon	-11033
▁hiseibiixuut	-11034
▁hiteseibinoo	-11035
▁hiwoxtootino	-11036
▁hiwoxuuhusei	-11037
▁hoohookeenit	-11038
▁hoonoyoohobe	-11039
▁hootneeninee	-11040
▁hooweeteenee	-11041
▁hoowniitehei	-11042
▁hoowuunentoo	-11043
▁howouunoneit	-11044
▁keihniitonoo	-11045
▁kookouniisou	-11046
▁kooneetciini	-11047
▁koosooniisei	-11048
▁neeneisiinoo	-11049
▁neeneistooni	-11050
▁neesooneenoo	-11051
▁neetneihoowu	-11052
▁neihoowbeeti	-11053
▁neniiseihini	-11054
▁neniitowoohu	-11055
▁nihbiineihit	-11056
▁nihcebkoohut	-11057
▁nihceeceitee	-11058
▁nihciineneit	-11059
▁nihciiteinoo	-11060
▁nihnoohowoot	-11061
▁nihnoonohkco	-11062
▁niinotonihei	-11063
▁niiteheibeti	-11064
▁niiteiyookuu	-11065
▁niiwoowoseit	-11066
▁nonoohowoono	-11067
▁nonouhtiinoo	-11068
▁noonoheisiiP	-11069
▁noonoohootou	-11070
▁noosounentou	-11071
▁teiitooneihi	-11072
▁teneiitooyoo	-11073
▁tihwooneihit	-11074
▁tohuubeetnoh	-11075
▁tohuucebisee	-11076
beteentootiini	-11077
ciiteneihiinoo	-11078
eboonoyoohowot	-11079
eboonoyoohowun	-11080
ebwoteikuutono	-11081
eeetiinohookee	-11082
esineniteeniit	-11083
iisinihiitooni	-11084
neetokooyeinoo	-11085
niitceecesisoo	-11086
niiteheibetino	-11087
noonottoneinoo	-11088
oniitowootiini	-11089
ouubeihiitooni	-11090
oxuuhetiitooni	-11091
tebinouhuunino	-11092
woohuutooninoo	-11093
yiisiikoheinoo	-11094
yoohootowoonoo	-11095
▁Heetniixoohoo	-11096
▁Neniiheneihin	-11097
▁Niinosouniini	-11098
▁Tekoonineihii	-11099
▁beneetiseenoo	-11100
▁beteetosoonei	-11101
▁biiceiniisiis	-11102
▁ceeceeyotisin	-11103
▁ciisiniihiihi	-11104
▁hebiitiihiiho	-11105
▁heenetiitooni	-11106
▁heetbebiisceh	-11107
▁heetniinoohoo	-11108
▁heetniiseekuu	-11109
▁heetniistoono	-11110
▁heetniiteneet	-11111
▁heetnokohunoo	-11112
▁hesoohobetiit	-11113
▁hihtousinihii	-11114
▁hiicetiininoo	-11115
▁hiisibiinenin	-11116
▁hineeceebinoo	-11117
▁hiteneyooonin	-11118
▁hookohuusiini	-11119
▁hookoubiixuut	-11120
▁hoonoyoohobei	-11121
▁hootneeneisoo	-11122
▁hootniixoohoo	-11123
▁hoowuciisiihi	-11124
▁neeneicxooyei	-11125
▁neeneihoowooh	-11126
▁neenentooyeit	-11127
▁nihniiteheiwo	-11128
▁nihnoohowoono	-11129
▁nihtootonouno	-11130
▁niineeneihoot	-11131
▁niinentooyein	-11132
▁niinosouniini	-11133
▁niitootoxuuus	-11134
▁noosouneentou	-11135
▁siisiiyeibiis	-11136
▁toonheetniini	-11137
ceitoonetiitoon	-11138
eenetiitooninoo	-11139
iicixooyeiniihi	-11140
oonoyoohootowoo	-11141
▁Heesiitiseehek	-11142
▁Heetniiteheibe	-11143
▁Heetnoonoyooho	-11144
▁Hoonoyoohobeti	-11145
▁beexoubiiseeno	-11146
▁beneexookeenoo	-11147
▁heestootiinini	-11148
▁heetciinenowoo	-11149
▁heetneenetinoo	-11150
▁heetneesiiniit	-11151
▁heetneeteinino	-11152
▁heetneihoowuto	-11153
▁heetniiheneihi	-11154
▁heetnosouniini	-11155
▁heetohtonotini	-11156
▁heetwonkookone	-11157
▁heetwotoxoobee	-11158
▁heihwoninoohoo	-11159
▁hiihooweeteene	-11160
▁hoonoyoohootoo	-11161
▁hootceecobooni	-11162
▁hooxeihiinenno	-11163
▁hooxuwuunenino	-11164
▁neesbeteetosoo	-11165
▁neniiheneihiit	-11166
▁nihneeniitonou	-11167
▁nihniiheneihit	-11168
▁nihniiteheibei	-11169
▁nihnoohobeinoo	-11170
▁noohobeihiinoo	-11171
▁notikoniihiiho	-11172
▁siineihoowuuni	-11173
▁tihwooneihinoo	-11174
▁tohuubiiwoohun	-11175
▁toonheeneestoo	-11176
▁toonheesinihii	-11177
eboonoyoohowunee	-11178
iitonouneihiinoo	-11179
kouutenowuunoono	-11180
niisonoonibeihin	-11181
otoxuuhetiitooni	-11182
tesnohkuseiciini	-11183
woteikuutoneinoo	-11184
▁heeneistootiini	-11185
▁heetbeetiseenoo	-11186
▁heetniiteheibin	-11187
▁heetnoohowoonee	-11188
▁hononeenebetiit	-11189
▁neeneisinihiini	-11190
▁neihoownoohowoo	-11191
▁nihniiteheiwoot	-11192
▁nihnoohootowuno	-11193
▁niikoxuuteniini	-11194
▁niiniiteheibeti	-11195
▁noosouneentoono	-11196
▁tihcesiskuutiit	-11197
▁toonheestoononi	-11198
WC	-11199
br	-11200
du	-11201
ft	-11202
lt	-11203
yl	-11204
ale	-11205
anu	-11206
bor	-11207
dle	-11208
eak	-11209
era	-11210
est	-11211
eus	-11212
ews	-11213
get	-11214
gin	-11215
hed	-11216
hol	-11217
ier	-11218
ife	-11219
ild	-11220
llf	-11221
log	-11222
mee	-11223
onr	-11224
pha	-11225
pis	-11226
rol	-11227
sil	-11228
tew	-11229
toP	-11230
uly	-11231
val	-11232
xeh	-11233
xot	-11234
xut	-11235
yre	-11236
ysi	-11237
▁Ap	-11238
▁Ha	-11239
▁Sa	-11240
▁fi	-11241
▁oo	-11242
▁op	-11243
Heii	-11244
aaaa	-11245
abri	-11246
acks	-11247
aiah	-11248
alms	-11249
bilt	-11250
boat	-11251
bove	-11252
btoo	-11253
ceiP	-11254
cket	-11255
ease	-11256
ebko	-11257
eecx	-11258
ehee	-11259
eiih	-11260
etiP	-11261
hawk	-11262
heep	-11263
idon	-11264
inoh	-11265
ires	-11266
llfo	-11267
mond	-11268
more	-11269
neeh	-11270
nett	-11271
nohu	-11272
nowP	-11273
nsei	-11274
oeet	-11275
oeko	-11276
oenP	-11277
oils	-11278
omon	-11279
ooxP	-11280
osoh	-11281
othy	-11282
otin	-11283
ouds	-11284
ougl	-11285
ouis	-11286
owuh	-11287
owut	-11288
oxon	-11289
pple	-11290
rawf	-11291
rink	-11292
rner	-11293
seii	-11294
siiP	-11295
stan	-11296
ttii	-11297
uana	-11298
uhou	-11299
vy	-11300
▁yo	-11301
eten	-11302
uuse	-11303
uuxo	-11304
youP	-11305
▁Aar	-11306
▁Ann	-11307
▁Ard	-11308
▁Bur	-11309
▁CWC	-11310
▁Can	-11311
▁Car	-11312
▁Har	-11313
▁His	-11314
▁Hob	-11315
▁Hor	-11316
▁Mag	-11317
▁Max	-11318
▁May	-11319
▁Met	-11320
▁Mex	-11321
▁Nor	-11322
▁Pat	-11323
▁Rab	-11324
▁Ses	-11325
▁Sis	-11326
▁Sky	-11327
▁Tyr	-11328
▁Wes	-11329
▁biP	-11330
▁cow	-11331
▁dis	-11332
▁dit	-11333
▁fis	-11334
▁has	-11335
▁hik	-11336
▁ind	-11337
▁law	-11338
▁leg	-11339
▁pen	-11340
▁pow	-11341
▁shh	-11342
▁sku	-11343
▁sky	-11344
▁sou	-11345
▁sun	-11346
▁wow	-11347
alley	-11348
aming	-11349
athol	-11350
beebi	-11351
besei	-11352
bisni	-11353
cebxo	-11354
ceeni	-11355
ceiwo	-11356
cesoo	-11357
cinoo	-11358
citoo	-11359
cooxu	-11360
cowou	-11361
dress	-11362
ebeti	-11363
ebiin	-11364
ebiiw	-11365
ecker	-11366
ecooP	-11367
eenoh	-11368
eetne	-11369
ehnoo	-11370
eihow	-11371
einno	-11372
einox	-11373
eisit	-11374
eitin	-11375
etcii	-11376
etneh	-11377
harco	-11378
heebe	-11379
heesi	-11380
henee	-11381
hiefs	-11382
hihci	-11383
hodes	-11384
hokoo	-11385
honoh	-11386
honoo	-11387
hooni	-11388
hotoo	-11389
hotot	-11390
huuni	-11391
ickie	-11392
icoot	-11393
iddle	-11394
idend	-11395
iibih	-11396
iiboo	-11397
inino	-11398
istoo	-11399
ga	-11400
pn	-11401
sa	-11402
Noh	-11403
hem	-11404
sit	-11405
▁Su	-11406
etce	-11407
nebi	-11408
neec	-11409
sebi	-11410
utee	-11411
▁Tes	-11412
▁bar	-11413
cehih	-11414
ceise	-11415
eehee	-11416
ehtou	-11417
eneti	-11418
ihoow	-11419
iiini	-11420
itooP	-11421
kohku	-11422
kokiy	-11423
koonP	-11424
kouso	-11425
kutee	-11426
lehem	-11427
lomon	-11428
meema	-11429
neeko	-11430
neenP	-11431
neewo	-11432
neibe	-11433
neibi	-11434
nenei	-11435
nenou	-11436
nesee	-11437
niibo	-11438
nival	-11439
nment	-11440
nohco	-11441
nohoe	-11442
nokok	-11443
nonoo	-11444
nootP	-11445
nouse	-11446
nowoh	-11447
noxoo	-11448
oanna	-11449
ohnee	-11450
ohoso	-11451
oneen	-11452
onini	-11453
onroe	-11454
oohee	-11455
oonit	-11456
oonot	-11457
ooone	-11458
ootin	-11459
oowot	-11460
oowou	-11461
ooxee	-11462
ooyoo	-11463
orial	-11464
ourth	-11465
ouwut	-11466
oyone	-11467
reful	-11468
riend	-11469
rtain	-11470
salms	-11471
sehce	-11472
seihi	-11473
senoo	-11474
seyoo	-11475
stiit	-11476
stood	-11477
tebei	-11478
teeci	-11479
tions	-11480
toohu	-11481
toooh	-11482
unbii	-11483
urity	-11484
urtle	-11485
useeP	-11486
uters	-11487
utiit	-11488
uutee	-11489
uwoot	-11490
woohP	-11491
woyoo	-11492
wuhoo	-11493
wuusi	-11494
xebio	-11495
xowuu	-11496
yeinP	-11497
yeito	-11498
yiisi	-11499
ehe	-11500
uwo	-11501
vel	-11502
cito	-11503
idle	-11504
mmer	-11505
nold	-11506
tein	-11507
▁son	-11508
eenou	-11509
eeyou	-11510
eihih	-11511
itooo	-11512
okoot	-11513
seyou	-11514
stooP	-11515
yohei	-11516
yoone	-11517
ysite	-11518
▁Amer	-11519
▁Apri	-11520
▁Bene	-11521
▁Bets	-11522
▁Crow	-11523
▁Cyre	-11524
▁Dale	-11525
▁Dece	-11526
▁Good	-11527
▁Haas	-11528
▁Hair	-11529
▁Head	-11530
▁Hice	-11531
▁Janu	-11532
▁Jews	-11533
▁July	-11534
▁Koki	-11535
▁Koku	-11536
▁Koot	-11537
▁Made	-11538
▁Many	-11539
▁Neeh	-11540
▁Nete	-11541
▁Nose	-11542
▁Pend	-11543
▁Pius	-11544
▁Plat	-11545
▁Sain	-11546
▁Seco	-11547
▁Snow	-11548
▁Stew	-11549
▁TihP	-11550
▁Walm	-11551
▁Walt	-11552
▁Woni	-11553
▁Wono	-11554
▁area	-11555
▁bark	-11556
▁bear	-11557
▁beef	-11558
▁bene	-11559
▁biiP	-11560
▁both	-11561
▁bull	-11562
▁calf	-11563
▁cenP	-11564
▁cihi	-11565
▁cont	-11566
▁deep	-11567
▁does	-11568
▁each	-11569
▁else	-11570
▁face	-11571
▁flag	-11572
▁full	-11573
▁girl	-11574
▁give	-11575
▁hair	-11576
▁heei	-11577
▁hene	-11578
▁hiko	-11579
▁hooP	-11580
▁huto	-11581
▁huux	-11582
▁inoo	-11583
▁legs	-11584
▁lima	-11585
▁lose	-11586
▁lots	-11587
▁mari	-11588
▁mixe	-11589
▁news	-11590
▁noox	-11591
▁pict	-11592
▁pork	-11593
▁puni	-11594
▁room	-11595
▁stud	-11596
▁tone	-11597
▁took	-11598
▁towo	-11599
ue	-11600
gra	-11601
uhi	-11602
▁de	-11603
onni	-11604
sium	-11605
snoo	-11606
▁Dor	-11607
▁Tec	-11608
eenen	-11609
etbii	-11610
ihces	-11611
kokoo	-11612
tiiwo	-11613
tosei	-11614
▁Fore	-11615
▁Gamb	-11616
▁Nene	-11617
▁York	-11618
▁reco	-11619
▁show	-11620
▁warm	-11621
▁wife	-11622
▁woon	-11623
▁yihP	-11624
▁yiih	-11625
Nonook	-11626
amburg	-11627
attery	-11628
avywei	-11629
aymond	-11630
beetee	-11631
beetii	-11632
besoot	-11633
beteen	-11634
beyook	-11635
bkuuhu	-11636
boonit	-11637
booono	-11638
ceesey	-11639
cihbii	-11640
cihcei	-11641
cihini	-11642
ciicii	-11643
ciinih	-11644
ciinou	-11645
ciitou	-11646
ciixoo	-11647
ciseet	-11648
eecesi	-11649
eehehk	-11650
eeping	-11651
eesiii	-11652
eesnoh	-11653
eetiin	-11654
eetnee	-11655
ehceno	-11656
eibihe	-11657
eihein	-11658
eiisin	-11659
einoku	-11660
eiwooo	-11661
eneral	-11662
ergast	-11663
eseene	-11664
etesih	-11665
etnihi	-11666
eyeini	-11667
eyooni	-11668
gether	-11669
heenoo	-11670
heetni	-11671
heetou	-11672
hetibe	-11673
hiibee	-11674
hooono	-11675
hoowuP	-11676
hooxei	-11677
hunter	-11678
huuhuu	-11679
ibinoo	-11680
idgely	-11681
iheito	-11682
ihetit	-11683
ihniit	-11684
ihnous	-11685
ihyeih	-11686
iibeih	-11687
iibisP	-11688
iihcih	-11689
iiheit	-11690
iiiini	-11691
iineso	-11692
iinihi	-11693
iiniin	-11694
iinoxu	-11695
iisite	-11696
iitees	-11697
iitowo	-11698
iixoni	-11699
33	-11700
ced	-11701
hew	-11702
▁ii	-11703
▁th	-11704
acob	-11705
cisi	-11706
hoxu	-11707
huno	-11708
neno	-11709
seeP	-11710
toxP	-11711
▁Get	-11712
beene	-11713
besoo	-11714
eenii	-11715
iishe	-11716
liced	-11717
oncih	-11718
ooxoo	-11719
uusei	-11720
wonii	-11721
yokut	-11722
▁Heen	-11723
▁teap	-11724
cebxoo	-11725
ehiito	-11726
ihiino	-11727
ihnoot	-11728
iiscii	-11729
iiteni	-11730
ikokoh	-11731
ineyei	-11732
iniiih	-11733
inowun	-11734
iseeni	-11735
itenot	-11736
itesii	-11737
itetuu	-11738
itiini	-11739
itonot	-11740
koheis	-11741
kuunoo	-11742
llfold	-11743
morrow	-11744
neebii	-11745
neecei	-11746
nihcih	-11747
niiino	-11748
niiyei	-11749
niwoot	-11750
nootii	-11751
nouxoo	-11752
oeinow	-11753
oheino	-11754
ohowoo	-11755
ohowuu	-11756
ohukoo	-11757
oneeno	-11758
oniisi	-11759
onnihi	-11760
ononih	-11761
onoxuu	-11762
oohoox	-11763
ookbih	-11764
ookuni	-11765
ookuto	-11766
ooneen	-11767
oosoot	-11768
ootono	-11769
oowoeP	-11770
oowuce	-11771
oowuuh	-11772
oseino	-11773
osinen	-11774
otiini	-11775
ouglas	-11776
ouheih	-11777
ouuwoo	-11778
owling	-11779
owooon	-11780
owoyee	-11781
oxoeno	-11782
oxonii	-11783
pecker	-11784
raight	-11785
rthday	-11786
secino	-11787
seenou	-11788
siineb	-11789
siinen	-11790
siinit	-11791
siixoo	-11792
sinooo	-11793
soowoo	-11794
strong	-11795
teesei	-11796
tiibis	-11797
touwoo	-11798
toyoow	-11799
3:	-11800
rp	-11801
dom	-11802
ieh	-11803
uhP	-11804
uso	-11805
cans	-11806
oteh	-11807
ouwu	-11808
tles	-11809
unii	-11810
▁Daw	-11811
▁bot	-11812
▁bra	-11813
▁eat	-11814
▁rid	-11815
eneih	-11816
nebeh	-11817
nihce	-11818
▁Cowo	-11819
▁Dawn	-11820
etiiwo	-11821
ihkoho	-11822
neihow	-11823
niiyou	-11824
oheihi	-11825
siihit	-11826
tiihok	-11827
tineet	-11828
touhut	-11829
unowoo	-11830
utoyoo	-11831
uutoon	-11832
uwuusi	-11833
vehead	-11834
wohuuk	-11835
woonou	-11836
wooyou	-11837
wouhuu	-11838
xoheet	-11839
xoheih	-11840
xohein	-11841
xohuhu	-11842
xouube	-11843
xouuwP	-11844
xoxono	-11845
xtoono	-11846
xuuhuu	-11847
xuunoo	-11848
xuwuhe	-11849
xuwuno	-11850
xuyeit	-11851
yeihei	-11852
yeihok	-11853
yeinih	-11854
yoobee	-11855
yoohuu	-11856
yoowoo	-11857
▁Aaron	-11858
▁Basil	-11859
▁Bears	-11860
▁Beehi	-11861
▁Betha	-11862
▁Betsy	-11863
▁Bible	-11864
▁Biino	-11865
▁Cesis	-11866
▁Ciite	-11867
▁Clark	-11868
▁Coowo	-11869
▁Crawf	-11870
▁Drink	-11871
▁Gabri	-11872
▁Great	-11873
▁Hebii	-11874
▁Heeni	-11875
▁Heeso	-11876
▁Heito	-11877
▁Hetii	-11878
▁Hihce	-11879
▁HiisP	-11880
▁Hiisi	-11881
▁Hinot	-11882
▁Hisio	-11883
▁Hitei	-11884
▁Hoeii	-11885
▁Hotel	-11886
▁Hunee	-11887
▁Jacob	-11888
▁Judas	-11889
▁KeihP	-11890
▁March	-11891
▁Might	-11892
▁Myrna	-11893
▁Necei	-11894
▁NiinP	-11895
▁NiisP	-11896
▁Niiso	-11897
▁Niixo	-11898
▁Nohku	-11899
gns	-11900
xno	-11901
howu	-11902
imbo	-11903
kuuP	-11904
owko	-11905
▁per	-11906
beini	-11907
cehit	-11908
eixoo	-11909
koehi	-11910
kouse	-11911
kunih	-11912
nouwu	-11913
uubei	-11914
wooob	-11915
xooke	-11916
xooko	-11917
xoone	-11918
▁Kouu	-11919
▁nowu	-11920
eyooke	-11921
ihiine	-11922
ihoowu	-11923
iisoho	-11924
kooxoo	-11925
nehyoo	-11926
niikuu	-11927
owoxoo	-11928
owuuwu	-11929
uheino	-11930
wonben	-11931
▁Hiini	-11932
▁Noote	-11933
▁Noxow	-11934
▁Piper	-11935
▁Ruben	-11936
▁Saint	-11937
▁Senec	-11938
▁Sharp	-11939
▁Sidon	-11940
▁Sodom	-11941
▁Spoon	-11942
▁Tecum	-11943
▁Wally	-11944
▁Whole	-11945
▁Woono	-11946
▁apple	-11947
▁beeci	-11948
▁beisP	-11949
▁belly	-11950
▁below	-11951
▁beneh	-11952
▁beteb	-11953
▁beyoo	-11954
▁biini	-11955
▁cause	-11956
▁cebis	-11957
▁ceite	-11958
▁cihbe	-11959
▁cihto	-11960
▁ciitP	-11961
▁cloud	-11962
▁coach	-11963
▁coohP	-11964
▁court	-11965
▁cover	-11966
▁creek	-11967
▁daugh	-11968
▁ditch	-11969
▁docto	-11970
▁falls	-11971
▁fifth	-11972
▁forks	-11973
▁found	-11974
▁ghost	-11975
▁grade	-11976
▁hehce	-11977
▁hello	-11978
▁hesii	-11979
▁hetno	-11980
▁heyei	-11981
▁hihto	-11982
▁hinis	-11983
▁hiten	-11984
▁hiwoo	-11985
▁hiyee	-11986
▁hooho	-11987
▁hotwo	-11988
▁keetP	-11989
▁keino	-11990
▁kohto	-11991
▁konee	-11992
▁kotou	-11993
▁lunch	-11994
▁mahou	-11995
▁memor	-11996
▁mixed	-11997
▁names	-11998
▁neecP	-11999
are	-12000
uit	-12001
vil	-12002
yot	-12003
▁Da	-12004
▁Ga	-12005
eehi	-12006
ican	-12007
tius	-12008
▁For	-12009
adies	-12010
cisoo	-12011
eecoo	-12012
siboo	-12013
tooku	-12014
▁Gail	-12015
etiihi	-12016
hoowoo	-12017
inoobe	-12018
itoonP	-12019
nasium	-12020
neebih	-12021
niibee	-12022
ontius	-12023
ookute	-12024
oowoxo	-12025
tinono	-12026
toyoho	-12027
▁Civil	-12028
▁Neesi	-12029
▁Nooti	-12030
▁kooni	-12031
▁neeti	-12032
▁neino	-12033
▁never	-12034
▁noboo	-12035
▁nocoo	-12036
▁nohkP	-12037
▁nohoo	-12038
▁nonoy	-12039
▁nooni	-12040
▁noowo	-12041
▁pills	-12042
▁proud	-12043
▁riots	-12044
▁sheep	-12045
▁signs	-12046
▁siiwo	-12047
▁skull	-12048
▁smart	-12049
▁spear	-12050
▁straw	-12051
▁tapes	-12052
▁thief	-12053
▁tihko	-12054
▁tires	-12055
▁tohso	-12056
▁tokoo	-12057
▁touno	-12058
▁towoo	-12059
▁trail	-12060
▁weeds	-12061
▁while	-12062
▁wonwo	-12063
▁woonP	-12064
▁wooni	-12065
▁works	-12066
▁wotii	-12067
▁wrong	-12068
▁xooxo	-12069
Nookbih	-12070
atholic	-12071
attress	-12072
beexuni	-12073
beexuno	-12074
betebih	-12075
betoooP	-12076
betoooh	-12077
bisiihi	-12078
cebiini	-12079
cebitoo	-12080
ceciito	-12081
ceeneti	-12082
ceenoho	-12083
ceihini	-12084
ceiteen	-12085
ceiteso	-12086
ceneeno	-12087
cesisih	-12088
cihbeet	-12089
ciibeet	-12090
ciinini	-12091
ciitono	-12092
ebiibee	-12093
eebeino	-12094
eeciini	-12095
eekuuni	-12096
eeneenP	-12097
eeneino	-12098
eenesii	-12099
cit	-12100
hod	-12101
hur	-12102
ihc	-12103
ina	-12104
esoh	-12105
etwo	-12106
iboo	-12107
touP	-12108
▁Hoe	-12109
behei	-12110
kenee	-12111
onhii	-12112
sihci	-12113
ukoni	-12114
▁Biii	-12115
▁Ceeh	-12116
▁Heto	-12117
▁Trib	-12118
▁biso	-12119
ceesih	-12120
eenete	-12121
eiikoo	-12122
kookuu	-12123
niscih	-12124
oonein	-12125
oowkou	-12126
teesci	-12127
▁April	-12128
▁ceeci	-12129
▁fries	-12130
▁gravy	-12131
▁hihni	-12132
▁hotce	-12133
▁nooox	-12134
▁tooth	-12135
cihbeit	-12136
eesinoo	-12137
eesneet	-12138
eestooP	-12139
eeteihi	-12140
eetooni	-12141
eetoxuu	-12142
eexoowu	-12143
ehkoohu	-12144
eiheibe	-12145
eihiino	-12146
eiincen	-12147
eiinhiP	-12148
eiiseet	-12149
eiiseni	-12150
eineeso	-12151
eineeti	-12152
eixowoo	-12153
emorial	-12154
eseihii	-12155
eseitit	-12156
esoheiP	-12157
etiibin	-12158
etiihee	-12159
etiinou	-12160
etneyei	-12161
etouuhu	-12162
harcoal	-12163
hcehino	-12164
henetii	-12165
hiiniit	-12166
hiisiii	-12167
hoonoxo	-12168
ibetiit	-12169
ihcebih	-12170
ihcihto	-12171
ihcihwo	-12172
ihciisi	-12173
iheihok	-12174
ihiibee	-12175
ihiisei	-12176
ihkotee	-12177
ihniihe	-12178
ihniini	-12179
ihnonoo	-12180
ihoowuu	-12181
ihteete	-12182
ihwotei	-12183
iibeexo	-12184
iicecin	-12185
iinceno	-12186
iiniise	-12187
iinooto	-12188
iinotii	-12189
iiseihi	-12190
iisibii	-12191
iisinen	-12192
iisisei	-12193
iisnees	-12194
iisooni	-12195
iitcooh	-12196
iitebii	-12197
iiteebe	-12198
iitenei	-12199
:3	-12200
eon	-12201
gar	-12202
icii	-12203
kohP	-12204
nita	-12205
onho	-12206
onko	-12207
ounP	-12208
xuuP	-12209
▁pre	-12210
eexuu	-12211
eiito	-12212
eixou	-12213
etnoo	-12214
eyoti	-12215
iitko	-12216
kousi	-12217
wouhu	-12218
xeeno	-12219
▁adul	-12220
▁blan	-12221
▁hear	-12222
eiheen	-12223
eonard	-12224
ihnono	-12225
iinoko	-12226
iisihi	-12227
neihou	-12228
nookuu	-12229
nooten	-12230
ohouhu	-12231
oonini	-12232
oowtou	-12233
siikoh	-12234
teexoo	-12235
▁Ceesi	-12236
▁Ciini	-12237
▁Heetn	-12238
▁beeto	-12239
▁biici	-12240
▁front	-12241
▁hooxu	-12242
▁small	-12243
beiscei	-12244
eewoono	-12245
eihooni	-12246
enetiin	-12247
esneeno	-12248
iikoohu	-12249
iitesbe	-12250
iitouni	-12251
iitoxuu	-12252
ikoohut	-12253
ineyooh	-12254
iniisoo	-12255
inoneen	-12256
inoneet	-12257
inoneih	-12258
isineni	-12259
itenowu	-12260
itooxno	-12261
ixotiit	-12262
iyoonin	-12263
kecouhu	-12264
keeekon	-12265
koninoo	-12266
koowtoo	-12267
kooxcei	-12268
koxunoo	-12269
kuunino	-12270
neehono	-12271
neehouu	-12272
neenoko	-12273
neetiit	-12274
niikohu	-12275
niinihi	-12276
niiseet	-12277
niiseih	-12278
niitoon	-12279
niitoot	-12280
niiwouh	-12281
nohkohu	-12282
nohooku	-12283
noteiit	-12284
nouhuni	-12285
nowooni	-12286
nowuuno	-12287
oeitini	-12288
oekuuhu	-12289
oeneetP	-12290
oesiihi	-12291
oewoowo	-12292
oneetou	-12293
onneyei	-12294
onobeih	-12295
onoheit	-12296
ontoono	-12297
ontouse	-12298
oobeihi	-12299
ebh	-12300
han	-12301
key	-12302
uht	-12303
urd	-12304
▁As	-12305
oehe	-12306
ooyo	-12307
▁Jas	-12308
aturd	-12309
ebiiP	-12310
eesko	-12311
ihiin	-12312
iiswo	-12313
inini	-12314
owuun	-12315
tooxu	-12316
xuuyo	-12317
▁CihP	-12318
▁ceyo	-12319
▁salt	-12320
▁than	-12321
ebiibi	-12322
eesihi	-12323
eiisee	-12324
iinouh	-12325
iinoxo	-12326
niitee	-12327
oononi	-12328
oubeti	-12329
tootii	-12330
towuuP	-12331
uhoono	-12332
uneyei	-12333
uxoyoo	-12334
wootoo	-12335
▁Biito	-12336
▁Hiite	-12337
▁kooto	-12338
▁nooxu	-12339
▁tihco	-12340
aturday	-12341
cetowuu	-12342
eesoowu	-12343
ihiihoo	-12344
kohowoo	-12345
nowuuni	-12346
oobetee	-12347
oohootP	-12348
ookukoo	-12349
ookuuto	-12350
oonokoo	-12351
oonooko	-12352
oonoowu	-12353
oonotoo	-12354
oonteec	-12355
oontoot	-12356
ooseiti	-12357
ootenoo	-12358
ootinoo	-12359
ootonoo	-12360
ootowuu	-12361
oowbisP	-12362
oowoohP	-12363
oowotow	-12364
oowoxuu	-12365
oowuceh	-12366
oowucii	-12367
oowukuu	-12368
oowunii	-12369
oowunin	-12370
oowusii	-12371
oowuuto	-12372
oowuwoo	-12373
ooxeihi	-12374
ooxuuhu	-12375
oteheih	-12376
oteibit	-12377
otoohoe	-12378
oubeibe	-12379
oucooti	-12380
ousoono	-12381
oustoon	-12382
owootee	-12383
oxowoot	-12384
oyeisei	-12385
seentoo	-12386
seihehk	-12387
sibetit	-12388
siheino	-12389
siinono	-12390
sinihin	-12391
sonoono	-12392
sonoxoh	-12393
soohoot	-12394
teeskuu	-12395
tesoono	-12396
teteeso	-12397
tetehei	-12398
tokokuh	-12399
lda	-12400
eeyo	-12401
ebcih	-12402
ebkoo	-12403
ebnoo	-12404
einen	-12405
etbeh	-12406
otoow	-12407
tooot	-12408
toune	-12409
yiihi	-12410
▁Hiii	-12411
▁Wote	-12412
▁bice	-12413
▁turn	-12414
▁wuho	-12415
beetoe	-12416
behcii	-12417
eitoot	-12418
ninehk	-12419
ototee	-12420
oxoeni	-12421
soonoo	-12422
▁Hiibi	-12423
▁Hiino	-12424
▁hoowo	-12425
▁kokoo	-12426
▁tihne	-12427
▁tohbi	-12428
biitoon	-12429
eeneinP	-12430
eenoono	-12431
eihiini	-12432
ihbeesi	-12433
iiciinP	-12434
ineihit	-12435
kohoeno	-12436
koohube	-12437
ooneihi	-12438
tenoono	-12439
toneeno	-12440
tonounP	-12441
tooohei	-12442
touheih	-12443
uceitoo	-12444
uncihce	-12445
urrants	-12446
useihih	-12447
uuhuuno	-12448
uxohoet	-12449
wonoono	-12450
wosooni	-12451
woteiih	-12452
woteino	-12453
wuuneen	-12454
xonetii	-12455
xonihoo	-12456
xoninoo	-12457
xonotii	-12458
xuutowu	-12459
xyootou	-12460
yihkoni	-12461
yihxohu	-12462
yoohobe	-12463
yoohowo	-12464
yoohowu	-12465
yooteno	-12466
▁Almost	-12467
▁Andrew	-12468
▁Anyway	-12469
▁Arnold	-12470
▁Bebiis	-12471
▁Beteen	-12472
▁Biisee	-12473
▁Ceecei	-12474
▁Cihnei	-12475
▁Cihnoo	-12476
▁Durham	-12477
▁German	-12478
▁Grants	-12479
▁Heenet	-12480
▁Heenou	-12481
▁Heetei	-12482
▁Heetko	-12483
▁Heetoh	-12484
▁Heetoo	-12485
▁Heihoo	-12486
▁Heinoo	-12487
▁HeneeP	-12488
▁Herman	-12489
▁Hetiit	-12490
▁Hiheio	-12491
▁Hiiwoo	-12492
▁Hiyeih	-12493
▁Hoocoo	-12494
▁Joanna	-12495
▁Johnny	-12496
▁Keinii	-12497
▁Kookoh	-12498
▁Kouute	-12499
▁Do	-12500
▁fl	-12501
▁ra	-12502
cker	-12503
neci	-12504
ried	-12505
▁Did	-12506
eewou	-12507
ehehk	-12508
tesni	-12509
towou	-12510
▁Show	-12511
cebieh	-12512
enitou	-12513
hobeit	-12514
inonot	-12515
shland	-12516
▁nouun	-12517
ceenisi	-12518
eenowou	-12519
eeyoono	-12520
eiheini	-12521
eiyoono	-12522
hetinoo	-12523
neniibe	-12524
oxuuhet	-12525
teenooP	-12526
teenooo	-12527
xoneiht	-12528
▁Miller	-12529
▁Monica	-12530
▁Monroe	-12531
▁Neehee	-12532
▁Neesoo	-12533
▁Nesiho	-12534
▁Nihceh	-12535
▁Nihkox	-12536
▁Nihnih	-12537
▁Nihyih	-12538
▁Niibis	-12539
▁Niisei	-12540
▁Niitoo	-12541
▁Niiyoo	-12542
▁Psalms	-12543
▁Rabbit	-12544
▁Second	-12545
▁Siinii	-12546
▁Tohcee	-12547
▁Tribal	-12548
▁Turtle	-12549
▁Tyrone	-12550
▁Willow	-12551
▁Wootoo	-12552
▁across	-12553
▁battle	-12554
▁beesih	-12555
▁beexuP	-12556
▁behiis	-12557
▁beisno	-12558
▁biibee	-12559
▁biinoo	-12560
▁ceecih	-12561
▁ceenih	-12562
▁ceenoh	-12563
▁ceewoh	-12564
▁chiefs	-12565
▁cihcee	-12566
▁cihcei	-12567
▁cihnoh	-12568
▁cihtoo	-12569
▁cihwoo	-12570
▁ciibii	-12571
▁ciiwoo	-12572
▁conoot	-12573
▁coocoo	-12574
▁coonii	-12575
▁corner	-12576
▁dickie	-12577
▁elders	-12578
▁forget	-12579
▁friend	-12580
▁hebeih	-12581
▁heetes	-12582
▁heetho	-12583
▁heeyoo	-12584
▁heibii	-12585
▁heicii	-12586
▁heihce	-12587
▁heihek	-12588
▁heihno	-12589
▁heihoo	-12590
▁heiteh	-12591
▁heniin	-12592
▁hetboo	-12593
▁hetcei	-12594
▁hetcoo	-12595
▁hetkou	-12596
▁hetnei	-12597
▁hettou	-12598
▁hibeih	-12599
oxe	-12600
cond	-12601
uxoe	-12602
▁Chu	-12603
▁Sam	-12604
▁sit	-12605
hoowP	-12606
ohnin	-12607
owing	-12608
▁Booo	-12609
▁Cesi	-12610
▁cold	-12611
eseeno	-12612
hetbee	-12613
isinen	-12614
ootine	-12615
uheihi	-12616
▁Ceebe	-12617
▁bisei	-12618
▁close	-12619
▁niece	-12620
▁thirt	-12621
Netesih	-12622
ebiicis	-12623
ihniise	-12624
iiciine	-12625
iikonii	-12626
itoneih	-12627
oeseeno	-12628
skuutii	-12629
tohcoot	-12630
▁Ceniit	-12631
▁hihbii	-12632
▁hihcee	-12633
▁hihnoh	-12634
▁hihnot	-12635
▁hiihei	-12636
▁hiihii	-12637
▁hiisei	-12638
▁hiisih	-12639
▁hiiwoo	-12640
▁hitesi	-12641
▁hobooo	-12642
▁hoheis	-12643
▁honoox	-12644
▁hooteh	-12645
▁hootii	-12646
▁hootoo	-12647
▁huusii	-12648
▁huutii	-12649
▁indian	-12650
▁ketnee	-12651
▁kokouh	-12652
▁konoot	-12653
▁koowoo	-12654
▁kooyei	-12655
▁koxoho	-12656
▁ladies	-12657
▁leaves	-12658
▁living	-12659
▁neceet	-12660
▁neecet	-12661
▁nehbii	-12662
▁neibee	-12663
▁neicih	-12664
▁neihni	-12665
▁neniih	-12666
▁neniii	-12667
▁nihcen	-12668
▁nihiiP	-12669
▁nihyii	-12670
▁niiboo	-12671
▁niinis	-12672
▁niisce	-12673
▁niisee	-12674
▁niisic	-12675
▁niisne	-12676
▁niisno	-12677
▁niiteh	-12678
▁niitno	-12679
▁ninety	-12680
▁nobody	-12681
▁nohkei	-12682
▁nookuu	-12683
▁noonoP	-12684
▁nootni	-12685
▁nooxoo	-12686
▁nooxot	-12687
▁nouute	-12688
▁nouuto	-12689
▁picked	-12690
▁pictur	-12691
▁potato	-12692
▁prayer	-12693
▁record	-12694
▁reserv	-12695
▁second	-12696
▁siiheh	-12697
▁siihih	-12698
▁sliced	-12699
set	-12700
▁Pr	-12701
onwo	-12702
▁noP	-12703
arter	-12704
aster	-12705
cinei	-12706
iheen	-12707
ihoon	-12708
▁Hole	-12709
enough	-12710
siiisi	-12711
touhoo	-12712
▁NookP	-12713
▁hicii	-12714
▁neigh	-12715
biibiso	-12716
niihite	-12717
ohniine	-12718
onetino	-12719
oonoxou	-12720
ooxowou	-12721
oubeeno	-12722
souhuno	-12723
uusiite	-12724
▁ciitee	-12725
▁enough	-12726
▁hiixou	-12727
▁niitow	-12728
▁socket	-12729
▁spoils	-12730
▁summer	-12731
▁taking	-12732
▁tastes	-12733
▁teapot	-12734
▁tebexo	-12735
▁teexok	-12736
▁things	-12737
▁thirty	-12738
▁though	-12739
▁tihbis	-12740
▁tihcoo	-12741
▁tihnei	-12742
▁tohcei	-12743
▁tohkou	-12744
▁tohnei	-12745
▁tohtei	-12746
▁tohwon	-12747
▁tohyii	-12748
▁tokoho	-12749
▁toonno	-12750
▁toonoo	-12751
▁toukou	-12752
▁tousih	-12753
▁towoho	-12754
▁trails	-12755
▁window	-12756
▁wohnoh	-12757
▁woonii	-12758
▁woowox	-12759
▁wottou	-12760
▁wowoon	-12761
▁woxuuP	-12762
▁xouuhu	-12763
▁yeinii	-12764
▁yellow	-12765
▁yohwot	-12766
bebiisii	-12767
beebenii	-12768
beineihi	-12769
beseeeno	-12770
beteenin	-12771
beteenou	-12772
bihcehin	-12773
biibinee	-12774
biineiit	-12775
biistiin	-12776
bisiseen	-12777
bixootou	-12778
bootiini	-12779
cebkoohu	-12780
ceeteene	-12781
ceibenou	-12782
ceiteewo	-12783
cesisnii	-12784
cesisnoo	-12785
cihwoowo	-12786
cihwotee	-12787
ciineeno	-12788
ciinenei	-12789
ciitoohu	-12790
ciseenoo	-12791
coonenii	-12792
cooninoo	-12793
cowooyei	-12794
ebciitei	-12795
ebiinowu	-12796
ebkuutii	-12797
ecenowoo	-12798
eenebeit	-12799
\{3	-12800
bers	-12801
uoia	-12802
▁Sad	-12803
▁air	-12804
▁bad	-12805
▁hat	-12806
behis	-12807
couts	-12808
koono	-12809
▁Noah	-12810
ceisee	-12811
eeyeit	-12812
iicebe	-12813
iiceii	-12814
iiyeit	-12815
kookoe	-12816
teeyou	-12817
tually	-12818
▁liver	-12819
▁sehno	-12820
ihciice	-12821
iiseyei	-12822
ineekoo	-12823
ineewoo	-12824
kookoxu	-12825
kooyeit	-12826
owotone	-12827
snoneet	-12828
▁scouts	-12829
eeneenih	-12830
eeneiniP	-12831
eeneitou	-12832
eeniicie	-12833
eesinouh	-12834
eesneyei	-12835
eetiseet	-12836
eetootii	-12837
ehcoboot	-12838
ehiitono	-12839
ehinowuu	-12840
ehniisih	-12841
eibeeeno	-12842
eicihini	-12843
eihcehit	-12844
eiheenoo	-12845
eihiinen	-12846
eihiisoo	-12847
eiineihi	-12848
eiinoono	-12849
eiisetii	-12850
einiisib	-12851
einohwoo	-12852
eitonoti	-12853
eixohoot	-12854
entoohok	-12855
eteinino	-12856
etiihoot	-12857
etniisou	-12858
exoutiit	-12859
hobeinoo	-12860
hobeinou	-12861
hooxuwuu	-12862
huutiino	-12863
ibiisiin	-12864
ihbeseee	-12865
ihceeceh	-12866
ihcehyoo	-12867
ihcihnee	-12868
ihcihnii	-12869
ihciinen	-12870
ihciinii	-12871
ihneeyei	-12872
ihniinih	-12873
ihnowone	-12874
ihtoyote	-12875
ihxouuwu	-12876
iibisiii	-12877
iiceeceh	-12878
iiheihin	-12879
iihootei	-12880
iincitii	-12881
iiniibei	-12882
iinohkco	-12883
iisceece	-12884
iisciini	-12885
iiseinee	-12886
iiskokoh	-12887
iisnihii	-12888
iisoonoo	-12889
iiteenou	-12890
iitentoo	-12891
iitnihii	-12892
iitniisi	-12893
iitootii	-12894
iitootou	-12895
iitousih	-12896
iitoxuno	-12897
inebeeno	-12898
iniinoox	-12899
mmy	-12900
▁Ti	-12901
ouho	-12902
ylon	-12903
enehk	-12904
heete	-12905
isino	-12906
xeeni	-12907
xesoo	-12908
▁bike	-12909
▁hold	-12910
▁hoxe	-12911
▁sehP	-12912
enouhu	-12913
iixouu	-12914
owouuh	-12915
uxohei	-12916
▁Sweet	-12917
▁Tebii	-12918
▁Tommy	-12919
▁Wylon	-12920
▁still	-12921
ecootoo	-12922
eenowot	-12923
enowuno	-12924
entooto	-12925
esiinii	-12926
koxkoho	-12927
nouhuno	-12928
oteniit	-12929
▁Niihee	-12930
▁Tihcee	-12931
▁heceso	-12932
▁hiinih	-12933
▁hokoxo	-12934
▁tihcou	-12935
ciiciite	-12936
iibooboo	-12937
iniitiin	-12938
inoninoo	-12939
inookuun	-12940
inowoobe	-12941
inowunoo	-12942
iteneeno	-12943
iteninee	-12944
itoniini	-12945
itoonoti	-12946
iyihoono	-12947
iyootiin	-12948
konoonoo	-12949
koohuune	-12950
kuhcehih	-12951
kuneseet	-12952
kuseenoo	-12953
neeheini	-12954
neeniiho	-12955
neeniise	-12956
neeniisi	-12957
neeninoo	-12958
neesiiis	-12959
neetoowu	-12960
neeyohwo	-12961
neiitono	-12962
neniibei	-12963
neniteen	-12964
nenteewo	-12965
neyeinee	-12966
neyeitou	-12967
niibooni	-12968
niihenee	-12969
niihoote	-12970
niikohoo	-12971
niineyoo	-12972
niiseihi	-12973
niisibei	-12974
niisiiis	-12975
niisouhu	-12976
niistiiP	-12977
ninouhuu	-12978
nohkuune	-12979
noonowoo	-12980
noonoyei	-12981
noowuuhu	-12982
nooxuwuu	-12983
nottobee	-12984
nottonei	-12985
nouuteno	-12986
nowousee	-12987
nowuunin	-12988
nowuunoo	-12989
oekoohut	-12990
oeneekuu	-12991
oeneenei	-12992
ohoninoo	-12993
ohookeen	-12994
ohowuune	-12995
ohuseeet	-12996
ohwootno	-12997
okunoono	-12998
onbiibii	-12999
ats	-13000
cism	-13001
heum	-13002
iicP	-13003
▁beP	-13004
ebyii	-13005
night	-13006
otoos	-13007
oyoox	-13008
uucis	-13009
▁lear	-13010
beexto	-13011
eihtoo	-13012
esooni	-13013
iicowo	-13014
kotiin	-13015
koxone	-13016
niheit	-13017
skohoe	-13018
teecis	-13019
teibin	-13020
ustard	-13021
xohoeh	-13022
xonebe	-13023
▁behis	-13024
▁biswo	-13025
▁ciiwo	-13026
▁learn	-13027
▁rheum	-13028
▁seene	-13029
▁woxko	-13030
cowotee	-13031
noyeino	-13032
oneeyoo	-13033
ousihoo	-13034
outihii	-13035
toneiht	-13036
wuunoti	-13037
xobeibe	-13038
▁kooxce	-13039
beexeene	-13040
ceenokuh	-13041
ihbetooo	-13042
kotiinee	-13043
niheinee	-13044
niinihii	-13045
nootenoo	-13046
oncihnei	-13047
onesneet	-13048
oninihii	-13049
onohunoo	-13050
oobeinee	-13051
oobeinoo	-13052
ooceihit	-13053
ooceinen	-13054
ookootii	-13055
ooneihit	-13056
ooneinee	-13057
ooninehk	-13058
oonoohok	-13059
oonoosoo	-13060
oonoxoot	-13061
ootiihok	-13062
oowotone	-13063
oowuhwoo	-13064
oowuukoy	-13065
oowuunci	-13066
ooxebeit	-13067
ooxoubee	-13068
osohoeet	-13069
oteinoon	-13070
oteyooni	-13071
otoobeno	-13072
otoosoot	-13073
oubeihit	-13074
ouheihoo	-13075
outoohoe	-13076
ouubeino	-13077
ouuwuuhu	-13078
owouutii	-13079
owuseeno	-13080
oxobeihi	-13081
oxoneino	-13082
seesiici	-13083
sihcehit	-13084
siiciwoo	-13085
siitenei	-13086
sinonoot	-13087
sisenino	-13088
siwooyoo	-13089
soohooto	-13090
sowouuno	-13091
teebiyoo	-13092
teenooni	-13093
teexokut	-13094
teneinoo	-13095
tiiniisi	-13096
tiinotii	-13097
tiitiini	-13098
tokohube	-13099
kes	-13100
oxP	-13101
kuhut	-13102
ontii	-13103
oxeti	-13104
▁bead	-13105
▁bebi	-13106
▁find	-13107
▁kill	-13108
iisooo	-13109
iiwoni	-13110
isooni	-13111
netiin	-13112
teesis	-13113
▁Teeco	-13114
▁child	-13115
▁conti	-13116
heeneis	-13117
ihtoyou	-13118
iibiini	-13119
iiwonoo	-13120
kuhunee	-13121
oxtoono	-13122
soonino	-13123
uhcehin	-13124
▁Cobouu	-13125
▁brakes	-13126
▁nihbei	-13127
biisihoo	-13128
ihniihen	-13129
ihniiwoh	-13130
iibiinei	-13131
iicihwon	-13132
niisihit	-13133
niisisee	-13134
seineebi	-13135
teexotii	-13136
toniheet	-13137
tonounit	-13138
tooneeno	-13139
tooxebei	-13140
tooyeito	-13141
touheihk	-13142
touneihi	-13143
towoonee	-13144
toyobein	-13145
toyoohow	-13146
ttoneeno	-13147
uhcehini	-13148
uhehiisi	-13149
ukoohuno	-13150
unebinoo	-13151
useeneet	-13152
usibetit	-13153
utoneihi	-13154
uukohein	-13155
uxoheiit	-13156
uxoheino	-13157
uxootiin	-13158
vernment	-13159
woneenei	-13160
woneetei	-13161
wookohei	-13162
wooyooni	-13163
wuuhoeno	-13164
wuuneino	-13165
xeihinoo	-13166
xoenowoo	-13167
xonihein	-13168
xootowuu	-13169
xouuwuno	-13170
yeihoono	-13171
yeitooni	-13172
yihkoohu	-13173
yihxohoo	-13174
ymnasium	-13175
yooniini	-13176
yooteihi	-13177
▁Beneexo	-13178
▁Beniine	-13179
▁Bernita	-13180
▁Bethany	-13181
▁Burnett	-13182
▁Ceneece	-13183
▁Cenihno	-13184
▁Charles	-13185
▁Douglas	-13186
▁Foreman	-13187
▁Gabriel	-13188
▁Gambler	-13189
▁Germany	-13190
▁Harring	-13191
▁Headley	-13192
▁Heentoo	-13193
▁Heeteci	-13194
▁Heetnei	-13195
▁Heetoot	-13196
▁Heeyeih	-13197
▁Hehiisi	-13198
▁Heneene	-13199
ion	-13200
Bear	-13201
ears	-13202
iiye	-13203
utch	-13204
▁Isa	-13205
▁cam	-13206
▁own	-13207
iyehk	-13208
ouise	-13209
outoo	-13210
souhe	-13211
uheen	-13212
▁Them	-13213
▁Wind	-13214
▁WonP	-13215
▁open	-13216
xowuhu	-13217
▁Isaac	-13218
▁Tears	-13219
▁ciisP	-13220
▁henec	-13221
▁hokoh	-13222
▁kouto	-13223
▁wothe	-13224
Bearing	-13225
hiitoon	-13226
iheisee	-13227
itoonot	-13228
kuutone	-13229
niiteni	-13230
nohohoo	-13231
nootino	-13232
▁camera	-13233
▁heisie	-13234
▁koohoo	-13235
▁wonoon	-13236
etiibeti	-13237
ihniinii	-13238
iixowoot	-13239
kuutonoo	-13240
niihenno	-13241
niitenoo	-13242
teenoxoh	-13243
wuuninee	-13244
▁Heniise	-13245
▁Heniisi	-13246
▁Hentoot	-13247
▁Hiisibi	-13248
▁Hinenno	-13249
▁Hoonowo	-13250
▁Hoownii	-13251
▁Hotiibe	-13252
▁January	-13253
▁Keetcei	-13254
▁Keetcii	-13255
▁Koohini	-13256
▁Kooxnih	-13257
▁Neeneti	-13258
▁Neneene	-13259
▁Neyeihe	-13260
▁NihnooP	-13261
▁Nihteco	-13262
▁NihwonP	-13263
▁NiibisP	-13264
▁Niiinon	-13265
▁Niinihi	-13266
▁Niinono	-13267
▁Noosouh	-13268
▁Pontius	-13269
▁Raymond	-13270
▁Ridgely	-13271
▁Senecas	-13272
▁Sherman	-13273
▁Springs	-13274
▁Susanna	-13275
▁Teecixo	-13276
▁Tohuuno	-13277
▁Trumble	-13278
▁Walmart	-13279
▁Waltman	-13280
▁Woneene	-13281
▁Woniini	-13282
▁Woxonoh	-13283
▁anymore	-13284
▁bebiise	-13285
▁bebiisi	-13286
▁bebiiti	-13287
▁because	-13288
▁beeneih	-13289
▁beetnee	-13290
▁beexkou	-13291
▁beihkou	-13292
▁beiscec	-13293
▁beiseet	-13294
▁beneebe	-13295
▁beteeho	-13296
▁beteenP	-13297
▁beteeto	-13298
▁biiseen	-13299
▁ru	-13300
hiho	-13301
sono	-13302
▁who	-13303
cecii	-13304
eihek	-13305
iniin	-13306
niice	-13307
ohoet	-13308
▁Toyo	-13309
▁hebi	-13310
▁help	-13311
beneno	-13312
heetne	-13313
ihbisi	-13314
ihnohk	-13315
kuutou	-13316
oowuut	-13317
ouwuno	-13318
▁Hetni	-13319
▁Toyou	-13320
▁knows	-13321
▁rocks	-13322
▁rules	-13323
cooonee	-13324
ihsehce	-13325
iitoxei	-13326
iixobee	-13327
iixokee	-13328
oohowot	-13329
oxonihe	-13330
▁Ceebii	-13331
▁Woonoo	-13332
▁bisnee	-13333
▁bisnih	-13334
▁cebeso	-13335
▁neetni	-13336
bootowoo	-13337
nookutii	-13338
oobeesei	-13339
siiyohou	-13340
tohuutox	-13341
woteihit	-13342
xoenowuu	-13343
▁biiteih	-13344
▁bisceih	-13345
▁bisiito	-13346
▁bohooku	-13347
▁canning	-13348
▁careful	-13349
▁cebiini	-13350
▁ceestoo	-13351
▁ceibnei	-13352
▁ceniite	-13353
▁certain	-13354
▁cihteco	-13355
▁ciibehi	-13356
▁ciiciit	-13357
▁ciinihi	-13358
▁ciinoho	-13359
▁ciiteit	-13360
▁command	-13361
▁communi	-13362
▁coocooh	-13363
▁coocowo	-13364
▁council	-13365
▁cutting	-13366
▁dollars	-13367
▁fishing	-13368
▁getting	-13369
▁hamburg	-13370
▁hebiibi	-13371
▁heebete	-13372
▁heeceno	-13373
▁heecoho	-13374
▁heeneco	-13375
▁heeneeP	-13376
▁heenetP	-13377
▁heesise	-13378
▁heesnoo	-13379
▁heetboh	-13380
▁heetceb	-13381
▁heetehP	-13382
▁heeteno	-13383
▁heetesP	-13384
▁heetoxo	-13385
▁heetwot	-13386
▁hehiisi	-13387
▁heihcih	-13388
▁heihcou	-13389
▁heneebe	-13390
▁heneihi	-13391
▁heneini	-13392
▁heneixo	-13393
▁henihce	-13394
▁heniinP	-13395
▁heteino	-13396
▁hetiise	-13397
▁hetkoxo	-13398
▁hibiibi	-13399
amie	-13400
ckie	-13401
ourd	-13402
▁Roy	-13403
allon	-13404
iseen	-13405
neexo	-13406
oniho	-13407
oyoot	-13408
usini	-13409
▁Wolf	-13410
▁heec	-13411
citone	-13412
eeteih	-13413
eicito	-13414
ihnene	-13415
ihtoko	-13416
itouse	-13417
neniiP	-13418
nihehe	-13419
noooxu	-13420
skoohu	-13421
tiseen	-13422
usibei	-13423
uusnoh	-13424
yootoo	-13425
▁Ceixo	-13426
▁gourd	-13427
▁haven	-13428
▁truth	-13429
eicinoo	-13430
eiinowu	-13431
eiyooni	-13432
iiwooho	-13433
ohkohuu	-13434
ohowuni	-13435
oniseen	-13436
▁gallon	-13437
beebeeto	-13438
ceiyooni	-13439
iitiinee	-13440
neenetit	-13441
oeetiini	-13442
oowentou	-13443
oteihehk	-13444
oteihibe	-13445
otoxuuni	-13446
useenoni	-13447
xootonei	-13448
xootowoo	-13449
▁General	-13450
▁Heetbis	-13451
▁cecehne	-13452
▁hicebii	-13453
▁hicecni	-13454
▁hihcino	-13455
▁hiikono	-13456
▁hiisbii	-13457
▁hiisibe	-13458
▁hiixouu	-13459
▁hiixoxo	-13460
▁hikokiy	-13461
▁hiseinP	-13462
▁hiteehe	-13463
▁hitenou	-13464
▁hitowoo	-13465
▁hokokuy	-13466
▁honobee	-13467
▁hookono	-13468
▁hoononi	-13469
▁hoontoo	-13470
▁hoosoot	-13471
▁hootnei	-13472
▁hoowcei	-13473
▁hoowneh	-13474
▁hoowtou	-13475
▁hooxeih	-13476
▁hooyeit	-13477
▁hotniit	-13478
▁hoyeibi	-13479
▁keihcee	-13480
▁konooko	-13481
▁koohihP	-13482
▁koohini	-13483
▁koohuut	-13484
▁kookoho	-13485
▁kookoxo	-13486
▁kouskuu	-13487
▁koxohow	-13488
▁mustard	-13489
▁nebeete	-13490
▁neeneih	-13491
▁neeniit	-13492
▁neetnee	-13493
▁neheiho	-13494
▁nehinee	-13495
▁neicito	-13496
▁neihbii	-13497
▁neisiiP	-13498
▁neneeti	-13499
acco	-13500
tese	-13501
▁thu	-13502
bacco	-13503
iheih	-13504
heetih	-13505
iicooo	-13506
iihiih	-13507
iisnei	-13508
iitiib	-13509
wohbii	-13510
xohoen	-13511
yootow	-13512
▁Benny	-13513
▁Cooxu	-13514
▁Houwo	-13515
▁Hoyoo	-13516
▁Koyih	-13517
▁Plume	-13518
▁wonei	-13519
beenowo	-13520
ihkocoo	-13521
ihkonee	-13522
iiniitP	-13523
ooxusee	-13524
otenino	-13525
oxetiin	-13526
xowusee	-13527
▁Neetou	-13528
▁booone	-13529
▁ceisin	-13530
▁hitooo	-13531
beetoxoh	-13532
beetoxoo	-13533
ebiseeni	-13534
einetino	-13535
iinokohu	-13536
inootino	-13537
ookuunei	-13538
uxooyehk	-13539
woohuuho	-13540
yooteiht	-13541
▁Biixuut	-13542
▁hitenin	-13543
▁koxuuhu	-13544
▁neniice	-13545
▁neniite	-13546
▁neyeice	-13547
▁neyeihe	-13548
▁neyeisi	-13549
▁neyeito	-13550
▁nihcees	-13551
▁nihnihi	-13552
▁nihniit	-13553
▁nihwone	-13554
▁nihyiis	-13555
▁niibeiP	-13556
▁niicebe	-13557
▁niicihP	-13558
▁niihiin	-13559
▁niihouu	-13560
▁niihoxo	-13561
▁niiniit	-13562
▁niinisi	-13563
▁niinohk	-13564
▁niisnih	-13565
▁niitcee	-13566
▁niitees	-13567
▁niiteno	-13568
▁niitone	-13569
▁niitsei	-13570
▁niixook	-13571
▁nookbih	-13572
▁nookeni	-13573
▁nookoot	-13574
▁noonoti	-13575
▁nooxowo	-13576
▁numbers	-13577
▁parents	-13578
▁priests	-13579
▁respect	-13580
▁schools	-13581
▁siinehe	-13582
▁siiyoho	-13583
▁siteeno	-13584
▁springs	-13585
▁started	-13586
▁tattoos	-13587
▁tebinoo	-13588
▁teciihi	-13589
▁tihcebe	-13590
▁tihnouu	-13591
▁tohbeih	-13592
▁tohnooP	-13593
▁tohuube	-13594
▁tohuuci	-13595
▁tohuuho	-13596
▁tohuuse	-13597
▁tonounP	-13598
▁tonoune	-13599
ibo	-13600
ffee	-13601
ward	-13602
▁cav	-13603
eiheb	-13604
ffice	-13605
iihot	-13606
okuut	-13607
sions	-13608
uutii	-13609
▁Gary	-13610
▁Keel	-13611
ceiise	-13612
ihtoun	-13613
ookuhu	-13614
▁noonP	-13615
biiteet	-13616
eseinee	-13617
ihbesii	-13618
ihnouxo	-13619
iikokoo	-13620
iisetee	-13621
kookoho	-13622
kuuneet	-13623
onoonee	-13624
▁Noonot	-13625
▁beexeh	-13626
▁beexni	-13627
▁ceniin	-13628
▁hotous	-13629
▁neesoh	-13630
▁neisoh	-13631
eescihno	-13632
iiwoowoo	-13633
iiyihoot	-13634
kohowuni	-13635
ouutowoo	-13636
teesenoo	-13637
wonoonoo	-13638
▁Hetoono	-13639
▁Hoowtou	-13640
▁Kooneen	-13641
▁NihniiP	-13642
▁Niiscec	-13643
▁beexwoo	-13644
▁hiicebe	-13645
▁toonnii	-13646
▁tootohP	-13647
▁toukuhu	-13648
▁toustoo	-13649
▁wonoonP	-13650
▁wooxehe	-13651
▁wotnuhu	-13652
▁wowoono	-13653
▁xouuwoo	-13654
Nonookteh	-13655
anderbilt	-13656
avyweight	-13657
beenoonoo	-13658
beeteenei	-13659
benohooxe	-13660
betooohei	-13661
betoootou	-13662
biibiinoo	-13663
bisihcehi	-13664
bisiseeni	-13665
bixouuhut	-13666
cebeihino	-13667
ceecesisi	-13668
ceiteebin	-13669
ceiteenoo	-13670
ceitoonee	-13671
ceiwootee	-13672
cesiceini	-13673
cesihcehi	-13674
cesiseene	-13675
cesisiine	-13676
cesisinoo	-13677
cesisitee	-13678
cihciiten	-13679
cihiitono	-13680
ciinenoot	-13681
cxooyeiht	-13682
ebeeneini	-13683
ebiihiiho	-13684
ebiinisee	-13685
ebiinokok	-13686
ebiisihci	-13687
ebiiyohou	-13688
ebniitouu	-13689
ebootiini	-13690
ecooheino	-13691
ecoonoono	-13692
eebiitono	-13693
eehentoot	-13694
eeneeneti	-13695
eeneetoxu	-13696
eeneihino	-13697
eeneiteno	-13698
eeneseise	-13699
eel	-13700
res	-13701
arry	-13702
▁cry	-13703
owouh	-13704
▁SehP	-13705
▁sick	-13706
▁whis	-13707
etniih	-13708
iinini	-13709
nenees	-13710
oownoh	-13711
uxohee	-13712
uxohun	-13713
xuusoo	-13714
▁About	-13715
eibeeni	-13716
hiinono	-13717
iibeete	-13718
iyeihio	-13719
kohuuto	-13720
neeteco	-13721
oowuhno	-13722
▁Hitouu	-13723
▁Sister	-13724
▁Yeiyoo	-13725
▁cecino	-13726
▁cecnii	-13727
▁koohuh	-13728
▁niiwox	-13729
▁nootto	-13730
▁really	-13731
ceestiit	-13732
eibeesei	-13733
iisneeno	-13734
neneehek	-13735
neneenin	-13736
sibeinoo	-13737
teeneiht	-13738
toustoon	-13739
▁Stewart	-13740
▁bebiisP	-13741
▁ceentou	-13742
▁hebeete	-13743
▁heetouu	-13744
▁nebiito	-13745
▁nihtebi	-13746
▁nihtees	-13747
▁niiwouh	-13748
▁tohcooh	-13749
eeneitini	-13750
eeneteini	-13751
eenetiino	-13752
eenotiiwo	-13753
eenowoono	-13754
eesneenoo	-13755
eesnoneet	-13756
eheiniisi	-13757
ehootiini	-13758
eihcehino	-13759
eihinooni	-13760
eiikuutii	-13761
eiisineno	-13762
eikoohuno	-13763
eineeceen	-13764
einowuune	-13765
eiseenook	-13766
eisinenoo	-13767
eniheihit	-13768
esineenoo	-13769
esinihiit	-13770
esooneeno	-13771
etiihiiho	-13772
etiiwooon	-13773
eyooniini	-13774
heeckoohu	-13775
heihiinou	-13776
hiitooone	-13777
hoowuceno	-13778
hooxuunou	-13779
huutoonin	-13780
iciinenee	-13781
ihbesenee	-13782
ihcebinoo	-13783
ihceeceno	-13784
ihcesisih	-13785
ihciinowo	-13786
iheihinoo	-13787
ihkoheiis	-13788
ihkoonook	-13789
ihnebihce	-13790
ihnoteyei	-13791
ihnottone	-13792
ihnouuhce	-13793
ihnoxowus	-13794
ihooninoo	-13795
ihteetebe	-13796
ihyihkooh	-13797
iibiineit	-13798
iibisinoo	-13799
eg	-13800
late	-13801
▁gym	-13802
iinot	-13803
▁Used	-13804
ebiito	-13805
eebeit	-13806
eetoon	-13807
iisehP	-13808
iitohP	-13809
neciin	-13810
nohuut	-13811
ohwuun	-13812
▁Wooho	-13813
▁nenes	-13814
bixooto	-13815
cooneee	-13816
eeteeni	-13817
eixonoo	-13818
ihciito	-13819
oecooco	-13820
oubeihi	-13821
tebinoo	-13822
▁Betebi	-13823
▁Hiniin	-13824
▁Nooxow	-13825
▁hiteeh	-13826
▁office	-13827
▁yihoot	-13828
ciinonih	-13829
eeteinit	-13830
einoonno	-13831
iiteetee	-13832
obeihino	-13833
oowohbii	-13834
teesceno	-13835
woteisee	-13836
xonookee	-13837
yokooxuu	-13838
▁Burgess	-13839
▁Nihnook	-13840
▁Noohobe	-13841
▁ceecees	-13842
▁heesnii	-13843
▁hotohuu	-13844
▁kotousi	-13845
▁tohciiP	-13846
▁tootono	-13847
cihnoehit	-13848
iicihiixo	-13849
iiciicesi	-13850
iiciinouu	-13851
iiciiteno	-13852
iihohkoni	-13853
iihoonoxo	-13854
iinesooku	-13855
iiniiwouh	-13856
iinkoohut	-13857
iinotonih	-13858
iinottono	-13859
iinoxohoe	-13860
iintiseet	-13861
iiscoocoo	-13862
iiseihino	-13863
iisibinoo	-13864
iisiiteni	-13865
iisneenou	-13866
iitbeetoh	-13867
iitenowuu	-13868
iitinihii	-13869
iitneenei	-13870
iitooneih	-13871
iixoneihi	-13872
inihiihok	-13873
inookeeno	-13874
inootinoo	-13875
inowounoo	-13876
inowuunee	-13877
itoneihin	-13878
itooneihi	-13879
itooneino	-13880
itootowuu	-13881
iwookecii	-13882
iyihoonoo	-13883
koheiseso	-13884
kohtowuhe	-13885
koohuukoo	-13886
kooneniii	-13887
koonkuuhu	-13888
kooxuusee	-13889
kouutowuu	-13890
ktootiini	-13891
neebeteee	-13892
neeniibei	-13893
neentooni	-13894
neetiinoo	-13895
neihkotee	-13896
neininehk	-13897
neniibeit	-13898
nenteenit	-13899
ehib	-13900
wuho	-13901
▁Ali	-13902
arden	-13903
obeen	-13904
ononi	-13905
▁Ceee	-13906
▁gets	-13907
heyein	-13908
howooo	-13909
ihbebi	-13910
notnoo	-13911
snonee	-13912
▁Hetno	-13913
beenoon	-13914
ciinenP	-13915
cowoobe	-13916
eeyooku	-13917
eibeeet	-13918
heetnoo	-13919
iinoote	-13920
iiyeini	-13921
nooteso	-13922
ookuhei	-13923
▁Hetyii	-13924
▁Hoowoh	-13925
▁boboot	-13926
▁hiniit	-13927
▁koxouh	-13928
ciininoo	-13929
heenetit	-13930
ihnouute	-13931
iiitooni	-13932
iiscebih	-13933
noohootP	-13934
nottonou	-13935
ntootiin	-13936
okuutoon	-13937
ookenini	-13938
▁biseene	-13939
▁ceebehP	-13940
▁cesisno	-13941
▁hetiibe	-13942
▁koocoot	-13943
▁nihtoyo	-13944
▁nonotoo	-13945
eenebinee	-13946
itooneiit	-13947
neyooheti	-13948
neyooonit	-13949
niibootou	-13950
niiheihit	-13951
niiheyoti	-13952
niisiibee	-13953
niiswotto	-13954
niitbiibi	-13955
niiteheit	-13956
niitonein	-13957
niitonibe	-13958
niitoonoo	-13959
niixouhut	-13960
nohkutoot	-13961
noohowuno	-13962
noonoohoo	-13963
nooxohowu	-13964
notitonoo	-13965
nottonein	-13966
nouutenoo	-13967
nouutooni	-13968
ntooneihi	-13969
oeebeteee	-13970
oeetiinoo	-13971
oexotiibe	-13972
ohookeeni	-13973
ohukoohut	-13974
ohwootnee	-13975
okeciihih	-13976
okuutonou	-13977
oneihinoo	-13978
onestoowu	-13979
onheeneti	-13980
onookuhoo	-13981
onoonoxoo	-13982
oohobeeno	-13983
oohowunee	-13984
ookooneet	-13985
ookowunoo	-13986
ookuhoono	-13987
ookuunino	-13988
ookuuyeit	-13989
oononobee	-13990
ootineeni	-13991
ootonouno	-13992
ootowoono	-13993
ootowunee	-13994
ooweenetP	-13995
ooweeneti	-13996
oowotiiwo	-13997
oowotonin	-13998
oowotonoo	-13999
▁fly	-14000
▁ice	-14001
bihee	-14002
ibiin	-14003
▁fair	-14004
boooti	-14005
eibexo	-14006
ibiino	-14007
nbiibi	-14008
otoyei	-14009
outino	-14010
uubiis	-14011
▁ceeyo	-14012
▁color	-14013
▁heyii	-14014
▁named	-14015
▁stand	-14016
ciibeno	-14017
eekuuno	-14018
ihnisih	-14019
onbiici	-14020
tobeeni	-14021
▁Hobson	-14022
▁Jackie	-14023
▁Wothih	-14024
▁beexce	-14025
▁heesco	-14026
▁wothih	-14027
boootono	-14028
ebiiteno	-14029
eekuunoo	-14030
ihbooboo	-14031
iicoonoo	-14032
iisibeso	-14033
iistouse	-14034
koyeinoo	-14035
ooxuuyei	-14036
sinouhut	-14037
xeeninee	-14038
▁Hoowkou	-14039
▁ciineno	-14040
▁heecese	-14041
▁hetouse	-14042
eekuunino	-14043
ihbehiini	-14044
oowotowoo	-14045
oowotowuu	-14046
oowuhcehi	-14047
oowuwoono	-14048
ooxuuceno	-14049
ooxuunone	-14050
oteihiino	-14051
otoonouhu	-14052
ounobeeno	-14053
ouubeihin	-14054
ouuheihoo	-14055
owooneiht	-14056
owooteiht	-14057
owoowusee	-14058
owuuneino	-14059
owuunoono	-14060
owuuwunoo	-14061
oxootowoo	-14062
secinouhu	-14063
seenentou	-14064
sehtonihe	-14065
sehtoniho	-14066
siiseyook	-14067
siiyoonoo	-14068
soohootow	-14069
soohowoot	-14070
tiitoonoo	-14071
tiixoohoo	-14072
tikotiino	-14073
tonihoono	-14074
tonooxohu	-14075
tonouneih	-14076
tootiseet	-14077
toowootou	-14078
toukuhuno	-14079
toukutiit	-14080
towuuneen	-14081
towuunoti	-14082
ttoneinoo	-14083
uhooxebii	-14084
utoneihit	-14085
uuscoboot	-14086
uwooninoo	-14087
uxoheihin	-14088
uxoheihit	-14089
uxootonei	-14090
uxootonoo	-14091
verything	-14092
woneeneti	-14093
wooneinoo	-14094
wooniinit	-14095
wootowuni	-14096
woteiheit	-14097
woteiseet	-14098
wouunonou	-14099
oos	-14100
▁US	-14101
beee	-14102
eixP	-14103
ibese	-14104
ookut	-14105
towoh	-14106
▁koko	-14107
eibini	-14108
eineen	-14109
eyeiti	-14110
iisiis	-14111
nokuni	-14112
otoxou	-14113
ouyein	-14114
woxuun	-14115
xyooto	-14116
▁HeesP	-14117
[...]
