<unk>	0
<s>	0
</s>	0
'	-1.36733
3	-2.69913
i	-3.29598
▁nih	-4.17507
▁	-4.25226
▁he	-4.31854
u	-4.347
oo	-4.40604
o	-4.42102
oh	-4.70277
e	-4.74337
ei	-4.75951
▁ne	-4.82521
ii	-4.89229
▁'	-5.00856
▁noh	-5.08122
nuhu	-5.08981
▁nuh	-5.1037
P	-5.10833
ih	-5.23271
iit	-5.29451
▁nehe	-5.45458
▁Noh	-5.53745
in	-5.60019
▁hi	-5.63027
▁n	-5.64379
no	-5.69403
ee	-5.70526
uhu	-5.72895
nih	-5.74292
▁yeah	-5.74981
▁hee	-5.81732
▁wohei	-5.83956
▁hini	-5.86144
▁hinee	-5.89178
ne	-5.91082
▁Wohei	-5.91768
iihi	-5.92323
▁wo	-5.98479
▁wootii	-6.00296
iini	-6.0127
▁nee	-6.04823
▁nii	-6.0571
uuno	-6.0884
oot	-6.10207
ou	-6.15148
t	-6.16376
ni	-6.23312
hehe	-6.24601
▁3	-6.24777
▁tih	-6.25605
▁Ne	-6.30734
▁Nih	-6.3331
▁N	-6.3658
▁He	-6.36866
▁nenee	-6.37032
▁niiyou	-6.37252
h	-6.40383
▁woow	-6.42207
ce	-6.53808
eino	-6.5393
ini	-6.54951
nii	-6.55979
▁beh	-6.58824
nee	-6.59855
eeno	-6.60706
▁h	-6.62753
▁nooxeihi	-6.64836
▁ni	-6.65162
-	-6.65544
▁huut	-6.6705
it	-6.68208
▁ce	-6.68891
▁uhh	-6.69257
▁hiiwoon	-6.70203
noo	-6.71274
s	-6.71412
▁hii	-6.72699
▁niine	-6.73356
▁hinon	-6.74878
▁hoo	-6.76281
inoo	-6.77908
▁nihii	-6.78316
▁toh	-6.81121
n	-6.83018
▁B	-6.83285
en	-6.85742
▁ci	-6.88122
▁you	-6.88596
etiit	-6.89601
▁no	-6.89617
▁ho	-6.89772
eit	-6.91436
:	-6.93345
eehek	-6.93943
oowuu	-6.95328
▁howoo	-6.95886
▁tei	-6.96465
▁heet	-6.97128
▁huu	-6.97788
on	-7.00584
oowu	-7.04047
eti	-7.04097
einoo	-7.04354
▁A	-7.06725
eihoho	-7.08385
▁heenei	-7.08555
▁uhm	-7.09841
▁hoowuuni	-7.10464
oono	-7.10813
▁Wootii	-7.11247
▁hih	-7.13857
isiihi	-7.13966
yoonoh	-7.145
▁know	-7.14524
eesoo	-7.16822
▁heetne	-7.18359
oe	-7.18605
ino	-7.19236
ci	-7.1924
hi	-7.1977
▁Hee	-7.20653
iiP	-7.21247
▁honoh	-7.23345
owo	-7.23505
wo	-7.24141
▁t	-7.26007
▁kookon	-7.27602
▁be	-7.27609
▁"	-7.28373
inou	-7.28563
eecxo	-7.28851
▁nono	-7.29415
eihii	-7.30406
▁Wo	-7.32273
▁hei	-7.32605
▁hiit	-7.33121
▁ceese	-7.33567
▁beebeet	-7.36731
▁neih	-7.3845
▁Woow	-7.38806
ihi	-7.39362
▁hinen	-7.40495
▁huutiino	-7.4308
oonoo	-7.43171
iisiini	-7.43401
eitiit	-7.43687
▁heenoo	-7.43858
▁neneenit	-7.43907
▁that	-7.44152
▁H	-7.45069
inowoo	-7.45769
▁heetP	-7.47297
inono	-7.47557
▁Nehe	-7.47648
▁bii	-7.47984
▁cih	-7.48762
ooni	-7.50277
eihiiho	-7.50705
▁Yeah	-7.51009
▁henee	-7.52042
▁niiP	-7.52595
▁heetih	-7.53135
ono	-7.53219
▁neyei	-7.54051
▁neneenin	-7.55174
owu	-7.558
▁co	-7.56411
▁woo	-7.59455
▁hisei	-7.60147
▁Nuh	-7.61671
▁heeyouhuu	-7.62004
uni	-7.63069
iine	-7.63866
▁neneeninoo	-7.63899
▁Howoo	-7.64126
▁Nii	-7.64296
▁koo	-7.64393
▁b	-7.64868
oni	-7.64896
▁hoh	-7.65498
oohok	-7.66374
eet	-7.665
eihi	-7.67307
▁Nee	-7.68146
itoo	-7.69297
uu	-7.69974
▁biito	-7.70153
▁bei	-7.70223
bii	-7.70843
▁Hi	-7.71623
▁neh	-7.74168
▁bee	-7.74391
▁Hihcebe	-7.7443
▁the	-7.75145
nei	-7.75564
▁heetniini	-7.76131
einiihi	-7.76372
▁heetnee	-7.76434
▁I	-7.76485
▁hihcebe	-7.77784
he	-7.81209
▁neisonoo	-7.81504
een	-7.82132
▁heehehk	-7.82844
bee	-7.83612
▁heeyou	-7.84365
eenei	-7.85021
iitiino	-7.85394
▁Kookon	-7.86224
▁cee	-7.86336
eb	-7.88034
ow	-7.89227
)	-7.89789
etii	-7.90073
eeneti	-7.9137
▁been	-7.91399
▁(	-7.91697
▁howoh	-7.92681
kokoh	-7.93187
▁heetce	-7.933
ein	-7.94115
▁hiine	-7.94115
neyei	-7.94143
▁Hinee	-7.94742
▁neeyou	-7.95656
be	-7.96381
▁to	-7.97262
hmm	-7.98107
▁neihoowoe	-7.98941
':	-7.99331
name	-7.99473
▁noo	-7.99661
owuu	-7.99745
tii	-7.99914
ooxeihi	-8.00872
▁Niiyou	-8.02337
oho	-8.02416
▁hiiko	-8.02529
eihok	-8.0255
ooku	-8.02889
usee	-8.03081
▁honoot	-8.03481
▁wonoo	-8.04498
un	-8.04839
▁nihP	-8.04968
useet	-8.05862
▁nec	-8.06384
▁heetnii	-8.06451
▁woxhooxebii	-8.07994
enee	-8.0877
ihce	-8.0899
eihit	-8.09112
soo	-8.09584
nono	-8.10481
"	-8.11204
▁heetni	-8.11242
▁Hini	-8.12276
owoo	-8.12845
▁T	-8.13326
▁it	-8.13594
niihi	-8.13786
uuhu	-8.149
oniini	-8.15038
▁Nenee	-8.15536
▁tous	-8.1599
koohut	-8.16689
iis	-8.16997
eesih	-8.17137
ecoo	-8.17504
inowuu	-8.17615
koohu	-8.17629
iiteihi	-8.17755
eih	-8.18641
▁Hiiko	-8.18672
eihehi	-8.18778
ut	-8.18865
▁niico	-8.19108
cih	-8.19274
▁niini	-8.19295
▁nei	-8.19363
noh	-8.19374
▁xonou	-8.20373
▁neneeninee	-8.20568
▁hoowoe	-8.20763
▁hohou	-8.21021
hu	-8.21087
oon	-8.21602
xo	-8.21898
▁Hoowuuni	-8.22358
▁neinoo	-8.22681
woo	-8.23777
ebiihi	-8.24086
▁a	-8.24309
▁neenei	-8.25402
▁beebei	-8.25579
ootiini	-8.2708
▁betebihoho	-8.27597
▁say	-8.28237
▁neene	-8.29163
▁woxu	-8.29294
▁Huut	-8.29488
▁ko	-8.30087
▁ahh	-8.30192
▁niito	-8.30708
▁No	-8.3076
to	-8.30952
▁they	-8.31152
towuunoot	-8.31242
▁niisi	-8.32477
▁bi	-8.32613
eh	-8.32633
▁niis	-8.32677
oowuuhu	-8.32852
eesiini	-8.32935
ot	-8.33542
▁nihco	-8.33862
soho	-8.34386
▁hoseino	-8.34389
enou	-8.34527
▁teebe	-8.35178
▁wookecii	-8.35499
▁neniteeno	-8.35502
▁Hii	-8.35604
▁Beebeet	-8.35895
ihP	-8.35948
et	-8.36345
}	-8.36568
▁hiseino	-8.37149
ko	-8.37302
uh	-8.37676
ebii	-8.37714
▁Henee	-8.38046
▁nebesiibeh	-8.38547
eni	-8.38999
iyoo	-8.39143
▁hiih	-8.39602
▁tohuu	-8.39602
▁Heet	-8.40015
ookuu	-8.40058
d	-8.40432
hkoni	-8.40566
oehih	-8.40995
too	-8.41162
▁yeheihoo	-8.41376
▁hiisoh	-8.41952
yoo	-8.42551
ecoonoo	-8.43276
iisih	-8.43761
▁heebe	-8.43916
▁hoono	-8.44167
y	-8.44258
{	-8.44278
▁Hiiwoon	-8.4511
entoo	-8.45481
isi	-8.4644
neniteeno	-8.46537
ke	-8.47262
etiino	-8.47826
ebiini	-8.48105
▁niixoo	-8.4896
towuune	-8.49174
eestoo	-8.49449
nenitee	-8.49806
ehk	-8.50522
teco	-8.51325
▁Yeheihoo	-8.51722
▁Hohou	-8.51758
▁wonooniii	-8.51789
▁li	-8.51991
▁hinit	-8.52044
oow	-8.52148
.	-8.52547
innit	-8.52955
iwoo	-8.53331
einoon	-8.53585
▁heihii	-8.54373
ecoot	-8.55059
▁nookuho	-8.55719
▁wox	-8.56026
iicxooyeinii	-8.56108
▁heetno	-8.56761
oowuuni	-8.56998
iitou	-8.57123
▁neito	-8.57453
▁hihii	-8.57953
niisih	-8.58155
▁heebeh	-8.58164
▁heetn	-8.58339
▁Neneeninoo	-8.5857
▁nenitee	-8.58614
▁niibi	-8.59347
and	-8.59358
▁hito	-8.59916
\}	-8.60274
eihiinoo	-8.61588
▁Heeyou	-8.62703
▁coo	-8.62716
▁Ce	-8.6279
es	-8.63094
▁Heetne	-8.63574
co	-8.64168
iixoohoo	-8.64437
▁biibi	-8.6445
▁hoowP	-8.64638
▁hiniisonoon	-8.64683
iinoo	-8.64715
▁of	-8.65145
▁hiikoot	-8.65286
▁hu	-8.65473
ihno	-8.65609
▁heetoh	-8.65695
\{	-8.65761
ooninoo	-8.66292
▁niino	-8.67647
▁hoowuni	-8.67704
▁sos	-8.67761
▁there	-8.67808
▁heenee	-8.68041
oniihi	-8.68404
▁niit	-8.68418
▁one	-8.68586
▁Tih	-8.68908
▁hookoh	-8.6899
▁woxhoox	-8.69176
▁hin	-8.69474
▁was	-8.70502
▁hono	-8.7059
tou	-8.71195
wohei	-8.71589
▁hoowooh	-8.7159
▁hoowu	-8.71914
▁niibootno	-8.72163
▁hoonoo	-8.72435
ine	-8.72941
eini	-8.7341
▁ciibeh	-8.73539
▁cei	-8.73611
▁kee	-8.73757
▁hinenno	-8.74655
entou	-8.74659
▁Tous	-8.74968
neeniini	-8.75581
ehiiho	-8.76048
▁yein	-8.76191
onP	-8.76259
eeP	-8.76741
eiP	-8.77205
▁het	-8.77335
▁hiniin	-8.77438
▁nihno	-8.77479
▁too	-8.78094
inihii	-8.78916
ees	-8.79286
▁ceece	-8.79386
▁nihce	-8.79587
▁hees	-8.79632
oteihi	-8.79868
uno	-8.79992
▁Ho	-8.80056
inee	-8.80091
onoo	-8.8034
eene	-8.80474
iiheihoo	-8.80775
etiitooni	-8.81038
▁hoow	-8.8106
bih	-8.81272
iisi	-8.81714
neen	-8.82096
▁Jesus	-8.82189
▁wohoe	-8.8232
niini	-8.82408
▁nenii	-8.82512
kuu	-8.82536
oteihit	-8.83257
▁heetnoo	-8.83294
nou	-8.8364
▁cese	-8.84165
▁teec	-8.84358
▁tohuuP	-8.84401
▁hino	-8.84433
is	-8.85035
koo	-8.85322
▁beeheeteihit	-8.8538
▁heeyouhuuho	-8.85477
▁hiseihih	-8.85911
oku	-8.85979
ebno	-8.86232
▁Huu	-8.86709
neeni	-8.86963
eenee	-8.86969
ing	-8.87147
ihcih	-8.87236
▁nohkuseic	-8.87269
▁Hih	-8.87504
neeP	-8.87588
▁neecee	-8.87686
itoono	-8.87804
niisi	-8.88159
tei	-8.88334
▁Niine	-8.88521
▁heni	-8.88769
▁heisonoonin	-8.89017
▁koh	-8.89812
▁se	-8.90112
re	-8.90285
ouu	-8.90301
▁beniiinenno	-8.90438
kuuhu	-8.90486
onou	-8.909
▁hiinoon	-8.91886
▁ceesey	-8.92123
▁hiyeih	-8.92205
▁nihbi	-8.92297
coo	-8.92641
itooni	-8.9265
▁S	-8.92708
us	-8.92738
ho	-8.93017
oowo	-8.9325
▁said	-8.93698
▁niiheyoo	-8.93754
eihino	-8.93824
▁Hiit	-8.94005
▁Hei	-8.94155
towuunee	-8.94207
▁houu	-8.9426
noono	-8.94282
iino	-8.94841
my	-8.95051
▁cenih	-8.95068
iisP	-8.95118
▁xonouu	-8.95317
▁C	-8.95426
▁this	-8.95446
▁hiniiteh	-8.95625
▁Hoo	-8.95912
▁hiiteen	-8.96602
w	-8.96668
▁niih	-8.96696
unoo	-8.97005
▁ceenoku	-8.97231
iisinihii	-8.97292
▁hinenitee	-8.9743
▁is	-8.97778
▁heene	-8.9782
useenoo	-8.98018
se	-8.9802
▁niiboot	-8.98252
▁woxuu	-8.98398
▁hmm	-8.99111
iisoo	-8.99164
▁niibei	-8.99516
eentou	-8.99848
▁woowuuno	-8.99922
▁Toh	-8.99948
▁beeheeteihin	-8.99958
eso	-9.00187
eno	-9.00234
onohoe	-9.00514
▁c	-9.00598
▁beexo	-9.00758
▁niice	-9.00774
ceh	-9.008
▁heetou	-9.01281
▁bexo	-9.01526
▁nihcih	-9.0161
ed	-9.01674
▁hiinoo	-9.01785
hee	-9.02075
▁noono	-9.02195
ooke	-9.02239
▁nihnee	-9.02307
▁niiinon	-9.02557
▁Nono	-9.02594
▁hiisi	-9.02666
oobe	-9.02695
bei	-9.03026
▁bis	-9.03071
▁hiiwo	-9.03308
▁cii	-9.03714
uuni	-9.03751
▁Heihii	-9.03787
▁Be	-9.03921
▁neeceeno	-9.04253
iice	-9.04647
towuuneinoo	-9.04785
okut	-9.0493
oehi	-9.05002
▁neixoo	-9.05055
iitP	-9.0541
▁hoonii	-9.05744
▁hiisiis	-9.05788
▁benee	-9.06134
tee	-9.06272
useeno	-9.06354
▁boo	-9.0662
▁hineniteeniit	-9.06839
eeneisiini	-9.06973
ceno	-9.07157
iisiine	-9.07583
▁hineniteeno	-9.08151
▁heetniiP	-9.08529
inowuno	-9.0855
▁see	-9.08622
▁totoos	-9.08689
▁Heetih	-9.08714
▁niisih	-9.08738
▁ceee	-9.0926
enoo	-9.09637
inow	-9.10101
▁nonii	-9.10461
▁Koo	-9.10718
iin	-9.11774
nihii	-9.12716
▁what	-9.12782
eboosei	-9.12784
▁hoseih	-9.13046
▁nooku	-9.13123
▁neeneis	-9.13184
m	-9.13223
▁benii	-9.13476
eeni	-9.13655
▁hotii	-9.13996
▁Cih	-9.14224
eihoo	-9.14551
eesinihii	-9.14605
▁beni	-9.15045
ise	-9.15365
▁go	-9.15876
eiho	-9.16127
▁Wonoo	-9.16237
ookuut	-9.16255
▁ciit	-9.16262
▁Hoono	-9.16453
c	-9.16834
▁nookeih	-9.16938
tiino	-9.17059
▁yehei	-9.17069
▁nookhoosei	-9.17193
▁neneenini	-9.17379
oninoo	-9.17406
ootee	-9.17409
ousoo	-9.17621
neeno	-9.1792
ec	-9.18204
▁hiisiihi	-9.18663
eiti	-9.18888
neeniihi	-9.18899
koohuno	-9.19191
▁toonhei	-9.19656
▁niitP	-9.19673
teenoowu	-9.19675
▁yeneini	-9.19731
▁te	-9.20031
ust	-9.20104
cesis	-9.2014
▁Neneenin	-9.20602
nehe	-9.20602
towuuno	-9.20733
hei	-9.20834
▁nohuu	-9.20976
▁G	-9.21004
itee	-9.2101
oobein	-9.21166
▁nooke	-9.21327
▁heesi	-9.2134
eetou	-9.21345
siihi	-9.21815
▁heentou	-9.21815
▁hunee	-9.22103
▁toon	-9.22127
si	-9.22233
eestoot	-9.22392
oowP	-9.22425
▁hiihoowuuni	-9.22455
▁noonoko	-9.22518
▁hiihoow	-9.22617
▁M	-9.22656
tiit	-9.22918
▁Yeh	-9.23026
▁NiiP	-9.23052
iico	-9.23148
koohunoo	-9.23351
▁heih	-9.2353
▁And	-9.23897
▁hinenteeniit	-9.2393
ti	-9.24152
einiini	-9.24718
xoo	-9.2473
▁neyeih	-9.24733
▁noto	-9.25124
cihce	-9.25307
cii	-9.25903
▁heetee	-9.26136
eeckoohut	-9.26338
▁heetbii	-9.26525
▁on	-9.26668
▁tohP	-9.26709
▁heisonoo	-9.26941
nP	-9.27006
▁wonooneihi	-9.272
▁his	-9.27246
kohei	-9.27466
▁don	-9.27508
ooto	-9.28379
see	-9.28512
▁beteen	-9.28787
ebi	-9.28809
ok	-9.28813
hii	-9.29179
▁Ni	-9.29259
isiihoho	-9.29497
▁how	-9.29555
▁nouu	-9.29802
eici	-9.2995
oowoe	-9.30044
▁Neene	-9.30191
▁ceh	-9.30426
ox	-9.30618
inonoo	-9.31042
▁John	-9.31224
ouute	-9.31497
iskuu	-9.31691
itoon	-9.32218
bi	-9.32334
onookeeno	-9.32415
▁hiniito	-9.32506
eesP	-9.32676
ohut	-9.33115
▁Neih	-9.33285
▁hitei	-9.33413
▁neisie	-9.33931
▁touku	-9.34036
▁You	-9.34138
wuuhu	-9.34309
▁Cee	-9.3432
▁tecenoo	-9.34445
usi	-9.34579
iisiii	-9.3472
eeniihi	-9.34722
▁nihi	-9.34793
▁heneecee	-9.35097
▁niin	-9.3533
▁tohce	-9.35437
▁oh	-9.35605
ihnoohobee	-9.35731
nihi	-9.35734
tiini	-9.35753
\'	-9.35821
▁heetniis	-9.35851
koh	-9.36151
▁up	-9.36425
▁yiisiihi	-9.36547
kuutii	-9.36639
▁Ah	-9.36681
▁niibeet	-9.36713
▁nihbii	-9.36786
eyoo	-9.36803
▁we	-9.36976
one	-9.37166
▁ciibeet	-9.37452
eihini	-9.37525
entoot	-9.37663
eenoo	-9.3777
neh	-9.37961
▁HeetP	-9.37974
▁Heetce	-9.37994
ehi	-9.38239
ousoon	-9.38274
▁betooot	-9.38551
oyoo	-9.38786
eeneetowoo	-9.38805
▁yeh	-9.38893
te	-9.39112
▁nohku	-9.39283
▁yoo	-9.39353
▁nohtou	-9.3939
iistoo	-9.39419
▁Neihoowo	-9.39717
ibe	-9.39731
▁or	-9.39808
ote	-9.39809
▁kooko	-9.40018
▁cihnee	-9.40213
iheit	-9.40326
inowunee	-9.40448
▁Been	-9.4065
behe	-9.40667
▁neniisi	-9.40704
ohu	-9.41275
▁Niico	-9.41287
oone	-9.41519
▁heniisih	-9.41607
▁hinii	-9.41825
▁Nihco	-9.41843
▁kou	-9.41952
▁me	-9.41992
▁hohoot	-9.42074
▁hosei	-9.42083
etiin	-9.42172
▁tohno	-9.42726
eniihi	-9.42746
toono	-9.42853
▁nu	-9.43266
▁biikoo	-9.43476
▁heentoo	-9.44081
eisee	-9.44129
▁betebihehi	-9.44141
beh	-9.44145
oteihiit	-9.4439
▁heentoot	-9.44534
▁heeneisoo	-9.4457
▁bixoo	-9.44776
uuwo	-9.44866
sei	-9.44933
▁kooP	-9.44995
ito	-9.45005
▁hooxono	-9.45112
hohkon	-9.45136
▁heetneh	-9.45204
▁nowo	-9.45315
eesi	-9.45616
▁tou	-9.45666
▁hoowuu	-9.45747
▁toonP	-9.45763
▁booo	-9.45807
▁cihP	-9.45956
▁W	-9.46183
▁Niito	-9.46283
▁hoot	-9.46542
▁beeteenoo	-9.46694
iisinihiit	-9.46893
▁heso	-9.47124
ouutou	-9.47164
eininoo	-9.47357
▁here	-9.47445
▁niisiini	-9.47457
▁Uhm	-9.47698
▁down	-9.47699
▁They	-9.47715
neenit	-9.48134
iicih	-9.48367
▁in	-9.48685
▁hisein	-9.48734
tiinoo	-9.4876
▁heetniisiini	-9.48999
▁hitonih	-9.49019
▁heetwo	-9.49063
▁hinenin	-9.49162
ihino	-9.49525
ihii	-9.49655
onookee	-9.49961
▁heetneyei	-9.50167
▁hibii	-9.50176
▁neiwoo	-9.50329
▁niinih	-9.5056
▁niicii	-9.50681
▁okay	-9.50739
▁ceexoon	-9.50802
noohobe	-9.50812
▁So	-9.50827
▁Beh	-9.5086
▁Honoot	-9.50882
▁huseino	-9.51032
▁noosou	-9.51148
oobee	-9.51316
beet	-9.51426
iteh	-9.51465
ibehe	-9.51648
▁Noo	-9.5165
▁boh	-9.51759
▁hiicooo	-9.5209
iisiitenou	-9.52268
eenetit	-9.5231
▁neeneisiini	-9.52473
▁heesiini	-9.52477
▁niineyei	-9.52482
eetox	-9.52545
iicis	-9.52675
▁neihoowuni	-9.52906
oteiht	-9.52943
etini	-9.53029
▁tohnee	-9.53314
▁heesoo	-9.53388
onoot	-9.535
eihohkon	-9.53539
▁so	-9.53557
▁sii	-9.53671
koxo	-9.53854
▁Uhh	-9.53854
▁totoonee	-9.53906
oxoeyoo	-9.5404
▁ceebe	-9.5422
▁niitoh	-9.54311
▁neneenino	-9.54368
hiit	-9.54424
ehe	-9.54688
oowuni	-9.54862
ihnee	-9.55116
ihinoo	-9.55122
▁hooxebin	-9.55139
eeneisiine	-9.55254
▁\'	-9.55365
▁Niini	-9.55703
▁Heetniini	-9.55732
▁Nohuu	-9.55788
▁Teeb	-9.55877
ook	-9.55981
towuunou	-9.56204
ihbii	-9.5636
uxotii	-9.56374
eitino	-9.56394
▁neihoow	-9.56421
iyei	-9.56452
▁abo	-9.56479
▁nihwoo	-9.56636
iseet	-9.56648
▁D	-9.5669
eesiine	-9.56879
ebiit	-9.5695
▁hetei	-9.5764
▁bisii	-9.57686
▁Howoh	-9.57719
yei	-9.5787
▁neihoowP	-9.57954
▁Nihii	-9.58113
▁nihnii	-9.5827
▁heeneti	-9.58291
eenetino	-9.58434
▁biino	-9.58438
▁konoo	-9.5863
▁tees	-9.58727
toot	-9.58891
iP	-9.58902
▁Tei	-9.58958
ihnii	-9.5904
cowo	-9.59124
▁Arapaho	-9.5919
a	-9.59342
iseenoo	-9.59468
use	-9.59835
noohowoot	-9.59956
towoo	-9.60079
so	-9.60378
▁something	-9.60413
▁Mary	-9.60421
▁heetwon	-9.60423
▁Co	-9.60512
▁heebiyoo	-9.60581
ouyeiti	-9.608
besiiwoho	-9.60882
eek	-9.60904
▁your	-9.60942
'.	-9.61072
yooniibinoo	-9.61211
▁word	-9.61608
kocoo	-9.61661
yoon	-9.61682
▁betee	-9.61783
▁at	-9.62011
towuunei	-9.62038
iteet	-9.62088
niisiini	-9.62098
ohwuu	-9.62107
tokohu	-9.62199
iise	-9.62438
onoh	-9.62465
etiinoo	-9.62552
niine	-9.62727
eeneixoohoo	-9.62942
▁cihce	-9.63042
▁heetnei	-9.63069
onise	-9.63109
ihneen	-9.63202
▁cec	-9.6321
ihko	-9.63397
▁hooyei	-9.63491
oobei	-9.6365
iitooni	-9.63705
eeneistoo	-9.63807
▁right	-9.63861
▁That	-9.63862
▁Wayne	-9.63867
▁kooxhe	-9.63872
▁get	-9.63929
▁over	-9.63944
▁Joe	-9.64046
betoootiini	-9.64084
▁have	-9.64091
▁but	-9.6415
etino	-9.64153
tobee	-9.64158
eentoo	-9.64475
▁Hoonii	-9.64572
▁niinee	-9.64675
hek	-9.64749
wooce	-9.65237
▁Ci	-9.65261
ebP	-9.65309
ciitei	-9.65401
▁Heetn	-9.65495
▁ceebeh	-9.65549
b	-9.65699
owoot	-9.65968
ihei	-9.65985
tousihi	-9.66148
tiitooni	-9.66298
biibi	-9.6631
▁Neinoo	-9.66505
iisce	-9.66533
entoonoo	-9.66703
iyou	-9.66719
▁hiisii	-9.66724
ebce	-9.66857
yih	-9.67122
onee	-9.67126
▁beeteen	-9.67228
eyei	-9.67263
ihoot	-9.67295
▁heenees	-9.67465
▁them	-9.67541
ousei	-9.67575
unei	-9.67578
▁Bii	-9.67764
▁hiniisonooninoo	-9.67823
towuuni	-9.68052
ooP	-9.68056
▁Neneeni	-9.68146
▁heetihce	-9.68153
▁niiseiht	-9.68216
onohoeno	-9.68259
ihnoh	-9.68292
iiwoho	-9.68297
▁heeneesiini	-9.68363
iyihoo	-9.68438
inP	-9.68604
▁nebesiiwoo	-9.68668
ehinoo	-9.68729
ookoo	-9.68759
tooni	-9.69008
iiyoo	-9.69422
r	-9.69456
hoo	-9.69526
tonouneihiinoo	-9.69601
niit	-9.69629
▁niicih	-9.69637
teen	-9.6977
▁hiix	-9.69856
konoo	-9.69888
owoto	-9.70028
eestoonoo	-9.70175
eeneisoo	-9.70385
itoone	-9.7049
tootiini	-9.70776
▁heeninouhu	-9.70958
cihno	-9.70984
iihok	-9.71112
▁siisiiko	-9.71145
eeckoohu	-9.71317
iitono	-9.71318
▁.	-9.71359
itooneinoo	-9.71633
beteee	-9.7175
eeneesiini	-9.71972
▁hiwoxuuhuu	-9.72019
eestoon	-9.72201
hok	-9.72242
sooni	-9.724
▁Yehei	-9.72607
▁tihP	-9.72803
▁heetoot	-9.72886
▁Ko	-9.7298
ihit	-9.73423
▁biine	-9.735
itoot	-9.73555
ikuu	-9.73609
ouyeitiit	-9.73792
eiteen	-9.73981
ehit	-9.74008
▁niibii	-9.74166
▁heetcih	-9.7456
▁for	-9.74615
eeckoohunoo	-9.74993
▁beesneniteeno	-9.75057
▁hiteixo	-9.75145
▁notoone	-9.75159
▁F	-9.75178
ciini	-9.75244
▁wonoh	-9.75245
▁hibesiiwoho	-9.75306
isee	-9.75313
eeneis	-9.7553
neenei	-9.75542
▁Heetnee	-9.75662
▁got	-9.75844
cebe	-9.75884
iistoot	-9.75934
▁hiihoowP	-9.76013
▁Hoow	-9.76254
▁toonheet	-9.76461
ecoono	-9.76639
▁heesiine	-9.76727
ihoo	-9.76807
▁hoto	-9.76975
iitoo	-9.7734
▁nihwo	-9.77352
nohkco	-9.77719
▁hiwoxuu	-9.77739
toxu	-9.7778
onookeen	-9.7832
▁niiso	-9.78481
noohooto	-9.78622
einit	-9.78767
k	-9.78889
▁neneeni	-9.78934
▁good	-9.78985
▁did	-9.78992
▁heetbiine	-9.78995
yooniiwo	-9.79003
▁nees	-9.79041
▁Wox	-9.79069
toonoo	-9.79166
▁year	-9.79191
xu	-9.79202
onei	-9.79366
noohowoo	-9.794
▁hotooneeno	-9.79473
▁him	-9.79742
tP	-9.79754
inoot	-9.80379
eihin	-9.80438
ebe	-9.80557
unP	-9.80559
▁toonhee	-9.80593
beebee	-9.80605
ihnihi	-9.80658
▁heeneisiini	-9.80832
oneihi	-9.80836
ootii	-9.81206
▁kooh	-9.81289
ouh	-9.81326
▁neeso	-9.81348
▁koxo	-9.8171
▁ciini	-9.81803
▁bebiis	-9.81834
▁hiitiino	-9.81841
ehiit	-9.81875
itoonoo	-9.81997
▁hiihoowooh	-9.82021
▁neehii	-9.82114
▁heetiine	-9.82184
cou	-9.82272
▁hisi	-9.82445
▁beexoo	-9.82446
▁heesP	-9.82509
iitousinihiitoon	-9.82548
▁nesi	-9.8258
eenino	-9.82649
▁heetbi	-9.82843
ihe	-9.82871
▁heenetiit	-9.82944
▁Hiiwo	-9.8304
obee	-9.83043
niibei	-9.83138
▁Jerusalem	-9.83149
ookuheiitono	-9.832
ihnoohoot	-9.83288
▁wot	-9.83367
▁Neeyou	-9.83384
▁nihnoohowo	-9.83416
▁Ciibeh	-9.83438
kuutiit	-9.83608
▁heeneis	-9.83619
▁But	-9.8376
▁teesi	-9.83902
cebiseenoo	-9.83923
neet	-9.84107
▁toonh	-9.84113
ehce	-9.84367
▁hohootin	-9.8438
▁Heetnii	-9.84393
ihnoo	-9.84529
esiini	-9.84639
▁heinoo	-9.84647
▁neyeiP	-9.84754
▁use	-9.84824
eibe	-9.8495
bixoo	-9.85056
hoowu	-9.85168
itootou	-9.85199
esP	-9.85209
oonee	-9.85371
▁The	-9.85382
inihiit	-9.85403
iih	-9.85472
iheihi	-9.85474
▁w	-9.85488
iyoono	-9.85644
eenentou	-9.85797
▁kookou	-9.85871
▁kooneen	-9.85955
▁heesih	-9.86034
tiin	-9.86053
etiini	-9.86266
eeneet	-9.86338
oeP	-9.86434
iho	-9.86505
▁niiciiheh	-9.86643
hiitooni	-9.86645
▁noonoo	-9.86774
▁cenee	-9.86784
uusiini	-9.8681
▁hiixoohoo	-9.86812
uxoo	-9.86848
eihinoo	-9.86927
niitP	-9.87135
ihcii	-9.87201
▁neisii	-9.87347
▁boy	-9.8747
iiwoo	-9.87496
iinee	-9.8752
▁xooxonou	-9.87544
▁had	-9.87632
▁niscih	-9.87651
iheinoo	-9.8769
eiseet	-9.87772
niistii	-9.87848
▁hotiiwo	-9.8794
▁all	-9.88014
oc	-9.88103
▁ceneeno	-9.88263
eibeihiiho	-9.88275
▁hiihoowuni	-9.884
▁netei	-9.88434
▁name	-9.88489
iten	-9.88595
▁hoowuuhu	-9.88597
eestoono	-9.88653
cei	-9.88664
towuunoo	-9.88748
▁bes	-9.8889
▁ceneeteen	-9.88954
▁hoownee	-9.89299
ihcehi	-9.89417
eiht	-9.89569
eikuu	-9.89701
▁Heenei	-9.89703
▁heetniit	-9.8972
iheino	-9.89974
▁hoote	-9.90443
betee	-9.90458
entoono	-9.90498
▁Hookoh	-9.90603
ihnihii	-9.91208
woono	-9.91225
iteno	-9.91239
eibeih	-9.91267
▁St	-9.91271
nooke	-9.91333
▁beneet	-9.91557
▁notonih	-9.91558
oowunee	-9.91579
teenii	-9.9159
yoone	-9.91606
teenetiitooninoo	-9.91697
▁old	-9.91757
oownee	-9.91777
okun	-9.9202
▁Christ	-9.92042
▁Simon	-9.92042
▁Creek	-9.92044
▁Ceesey	-9.92061
▁would	-9.92062
na	-9.92106
▁Ceenoku	-9.9211
▁niinoono	-9.9212
▁cooh	-9.92142
oxoo	-9.92147
▁hitesiino	-9.92194
▁hesitee	-9.92416
inon	-9.92478
▁ceniixoote	-9.92527
▁niisP	-9.92648
▁heetihP	-9.92708
eetP	-9.92708
esooku	-9.92743
▁way	-9.92769
▁beteeno	-9.92806
oox	-9.92809
▁neheicoo	-9.92827
▁Heetwon	-9.92938
oowoto	-9.93017
▁cesis	-9.93143
towuuneit	-9.93409
▁woosoo	-9.93417
ehihi	-9.93835
ihc	-9.93869
oowoo	-9.9392
iibii	-9.93942
niis	-9.93962
ecxo	-9.93972
eesinihiit	-9.94017
eeneisP	-9.94108
▁heesiitousih	-9.94143
eco	-9.94255
itesee	-9.94301
▁Hiihoow	-9.94439
▁hiihoowu	-9.94639
▁koxuute	-9.94706
eisonoo	-9.94714
▁hokok	-9.94874
▁won	-9.94986
eiso	-9.9499
ihcihno	-9.95025
▁s	-9.95192
▁niiniisi	-9.95422
▁hooweentoo	-9.95465
▁neeni	-9.95835
yihoo	-9.96068
▁hot	-9.96085
▁cihno	-9.96097
noohoo	-9.96246
uune	-9.96287
niiP	-9.96377
▁Niixoo	-9.96418
onoono	-9.96484
▁Nei	-9.96507
ihni	-9.96508
▁call	-9.96802
▁when	-9.96836
▁sooxe	-9.96852
▁beniiinen	-9.96886
eeneisinihii	-9.96888
▁heetoo	-9.96963
einee	-9.97022
▁siisiiyei	-9.97074
▁bebene	-9.97087
▁ciito	-9.97156
▁Bee	-9.97227
iinP	-9.97471
iiyohou	-9.9748
▁niihok	-9.97518
▁Sa	-9.97813
won	-9.97922
etee	-9.98057
eiyoo	-9.98387
oteihinoo	-9.98812
▁niiwo	-9.9887
▁heetneenei	-9.98923
▁Heen	-9.98965
onkuu	-9.99184
beso	-9.9937
▁huni	-9.9973
er	-9.9981
iiwo	-9.9987
sih	-9.9995
iiceh	-9.99976
▁wonooyoo	-9.99985
ihwoo	-10.0007
▁Beebei	-10.0011
▁heniis	-10.0028
▁hoonoyoohoo	-10.003
useen	-10.005
ihco	-10.0076
eibeh	-10.0083
▁hinenino	-10.0083
▁Hoowu	-10.0095
eeseh	-10.0115
▁niinii	-10.0116
uniihi	-10.0121
ooteibeihii	-10.0121
▁koohee	-10.013
▁Heebe	-10.0142
neiteh	-10.0144
▁betebi	-10.0144
▁niic	-10.0147
▁hetP	-10.0169
▁niiceece	-10.017
uus	-10.0174
eiwo	-10.0175
kooko	-10.0182
▁back	-10.0185
▁talk	-10.0186
▁Niibeet	-10.0191
▁hooxei	-10.0197
▁wouukohei	-10.0198
▁toonhe	-10.0201
▁cebe	-10.0205
eiseeno	-10.0208
▁koun	-10.0242
▁her	-10.0244
eiihcehi	-10.0244
cihP	-10.0252
▁Nihcih	-10.0259
ooxohoeneeneti	-10.0266
▁niibeetP	-10.0283
▁neeneistoo	-10.032
ohk	-10.0357
▁heito	-10.038
iitoxu	-10.0381
▁beteetox	-10.0431
oonino	-10.0443
eibes	-10.0443
▁Neenei	-10.0466
▁woowo	-10.0469
▁Teec	-10.0485
oohooto	-10.0491
ihin	-10.0494
itoonoot	-10.0505
eebe	-10.052
oteni	-10.0521
▁do	-10.0525
itese	-10.0565
▁kox	-10.058
▁Niineyei	-10.0587
▁Kooko	-10.0598
▁beex	-10.0609
oohowoo	-10.0611
woot	-10.0614
onohu	-10.0621
▁ceikoohu	-10.0637
ihou	-10.0641
oxou	-10.0644
▁houunen	-10.0646
eihoot	-10.0646
yoono	-10.067
▁cebitee	-10.0676
▁time	-10.0696
otoonee	-10.0698
▁Brown	-10.0707
▁tihno	-10.0712
▁neihoowu	-10.0716
▁beesoowuunen	-10.0716
oneeneti	-10.0718
woteikuu	-10.0732
uuceh	-10.0734
▁hiniiboot	-10.0744
inoneihiinoo	-10.0745
cooti	-10.0746
eeniini	-10.0757
▁noon	-10.0775
▁Ceece	-10.0776
▁henii	-10.0776
▁cen	-10.0782
iinii	-10.0797
▁hetiine	-10.0803
eitit	-10.0805
ooo	-10.0836
▁heeteh	-10.084
you	-10.0844
iinikotii	-10.086
eeneesoo	-10.0864
▁koonee	-10.0882
iic	-10.0887
▁howoto	-10.0904
▁neeneyei	-10.0912
▁beebee	-10.0917
cee	-10.0924
sou	-10.0929
▁niibe	-10.0931
teenetiitoonin	-10.0936
eestootiin	-10.0945
eenetiitooni	-10.0951
▁koohe	-10.0956
▁beteeniisi	-10.0963
▁hite	-10.0991
niiseiht	-10.0992
▁hiiyoo	-10.0995
▁woniini	-10.1014
sP	-10.1017
iyooni	-10.102
eeyoo	-10.1023
▁Niibi	-10.1026
iito	-10.1027
▁tohuuni	-10.1031
iisinihiinoo	-10.105
oonotii	-10.1051
▁she	-10.1074
▁heihoowuni	-10.1114
itii	-10.1138
eibetiit	-10.1145
einotii	-10.1157
ell	-10.1163
▁hecexo	-10.1193
noot	-10.1212
inii	-10.123
▁nihneyei	-10.1233
towuunin	-10.1234
kay	-10.1261
▁khoo	-10.1267
▁wheel	-10.1268
ounec	-10.1273
inowuni	-10.1282
▁Neixoo	-10.1285
▁Huutiino	-10.1287
▁J	-10.1289
ohwoot	-10.1295
oen	-10.1297
▁hiihoowuu	-10.1318
▁Niice	-10.1318
▁beeyoo	-10.1325
▁k	-10.1336
oohowun	-10.1349
eihoono	-10.1355
noohoot	-10.1356
sii	-10.1367
oet	-10.1395
▁NihP	-10.1413
oxeihi	-10.1433
tenou	-10.1447
▁tece	-10.1451
onohei	-10.1453
▁biih	-10.1453
owooni	-10.1468
▁two	-10.1474
▁cenii	-10.1487
hP	-10.1508
ostei	-10.1509
▁neihoowuuni	-10.1512
oeno	-10.1522
ard	-10.153
soh	-10.1549
einou	-10.1568
niistiit	-10.1582
nowoo	-10.1584
ciinen	-10.1592
heteenetiitoonin	-10.1594
▁nihnoono	-10.1596
ineebe	-10.1596
ihbeh	-10.161
woti	-10.1617
tonounowoo	-10.1619
enii	-10.162
einoni	-10.1645
▁Woo	-10.1662
etiitoonin	-10.1672
ookuun	-10.1679
iihoo	-10.1687
▁huh	-10.1696
▁Noono	-10.1697
▁wooxe	-10.1713
iisbii	-10.1717
▁Heenee	-10.172
iisei	-10.1724
▁tihcih	-10.1726
oeniini	-10.174
iibi	-10.1762
cesisoo	-10.1763
ookuuni	-10.1768
useeni	-10.1774
ihnei	-10.1775
etP	-10.178
▁neteenetiit	-10.1796
▁niinoo	-10.1801
ciiteit	-10.1818
▁neeneisinihii	-10.1823
▁noosouniini	-10.1825
▁koowoow	-10.1828
▁hebii	-10.1836
wuu	-10.1842
▁seenook	-10.185
▁nonooneehei	-10.1851
▁White	-10.1851
▁heetihcih	-10.1856
▁Andy	-10.1857
▁Neheicoo	-10.1865
ooxu	-10.1866
okunoo	-10.1878
booboo	-10.1882
▁heetko	-10.1883
ecoon	-10.1893
oto	-10.1894
beesei	-10.1895
eiyeitiit	-10.1897
▁nihnoh	-10.1898
▁hiinooninoo	-10.1908
neihi	-10.1923
ohno	-10.193
ciinenoo	-10.1933
▁Hiihoowuuni	-10.1934
owouunonei	-10.1937
eenentoo	-10.194
▁hiihoownee	-10.194
▁neneesi	-10.1947
ouubeihinoo	-10.1947
▁out	-10.195
▁heetwoniini	-10.1962
ohkonee	-10.1968
ld	-10.1977
▁other	-10.1985
▁Hoowuni	-10.1985
inone	-10.1986
ibii	-10.1989
▁nihbis	-10.1999
wonoote	-10.2006
yihoot	-10.2035
▁Kooneet	-10.2041
xootiini	-10.205
oti	-10.2052
▁hitoo	-10.2055
niisP	-10.2063
xoh	-10.2079
▁biiino	-10.2086
ihek	-10.2091
onobee	-10.2096
eeckoohuno	-10.2159
iinenno	-10.2161
itou	-10.2164
ib	-10.2166
oesei	-10.2166
yoox	-10.2168
woniini	-10.218
▁niihi	-10.2186
▁niineyeih	-10.2193
eeneestoo	-10.2197
▁beete	-10.2215
▁koxuuten	-10.2235
▁woh	-10.2245
oxo	-10.2258
inoni	-10.227
unou	-10.2273
ninoo	-10.2274
inoono	-10.2282
▁Noosou	-10.2285
towuun	-10.2298
▁Beeteen	-10.2305
▁niiko	-10.2307
▁hooxuu	-10.2314
kou	-10.2314
oowuh	-10.2318
onii	-10.2324
▁cecinii	-10.2343
niitowootowoo	-10.2346
ihoono	-10.2353
▁heeyowu	-10.2358
ice	-10.2362
▁heen	-10.2366
eesinihiinoo	-10.2382
▁Hoowoe	-10.2389
▁neniisih	-10.2392
▁beteentoo	-10.2405
owuuhu	-10.2408
▁Hoowooh	-10.2413
▁hohooti	-10.242
▁heces	-10.242
niitowooto	-10.2425
▁woohoniih	-10.243
ebinoo	-10.2431
eiino	-10.2457
eeneetou	-10.2473
▁school	-10.2476
▁konouutosei	-10.2476
ver	-10.2478
▁some	-10.2478
▁siihoowuuni	-10.2479
▁niiciihoho	-10.248
st	-10.248
▁hoocoo	-10.2497
▁Ceese	-10.2503
ihneh	-10.2514
ah	-10.2518
▁hookeciihihi	-10.252
uxotiit	-10.2528
coono	-10.2534
▁hit	-10.2538
ill	-10.2539
▁betebihehiho	-10.254
iisii	-10.2546
ihcee	-10.2551
g	-10.2552
▁Nihkoo	-10.2553
eiheenetiit	-10.2553
▁kohei	-10.2555
▁hohootno	-10.2559
▁neniiseti	-10.2559
itoohu	-10.2578
▁heetneenit	-10.2584
utii	-10.2608
▁siiP	-10.2621
▁Tohuu	-10.2627
ehno	-10.263
uxo	-10.2639
hoti	-10.265
uyei	-10.2668
▁heetse	-10.2673
▁niicie	-10.2675
toon	-10.2681
iitii	-10.2685
noohobeihiinoo	-10.2711
oeetii	-10.2713
oehit	-10.2713
▁neeneisP	-10.2716
iiw	-10.272
▁Nohtou	-10.2733
owuno	-10.2735
oohowoot	-10.2738
eekuu	-10.2759
▁tihneyei	-10.2767
boo	-10.2776
▁ceneece	-10.2777
onin	-10.2785
▁wookec	-10.2786
eyeino	-10.2791
iitisee	-10.2793
uxou	-10.2796
ciineno	-10.2822
ootiino	-10.2833
soni	-10.2835
tonounowuu	-10.2845
▁niibeexo	-10.2856
▁heesinihii	-10.2867
iyeino	-10.2869
▁Heebeh	-10.2884
▁heyeih	-10.2905
hinee	-10.2907
ve	-10.2909
▁Noox	-10.2915
yooniibin	-10.2924
▁Hiikoo	-10.2929
cesisiini	-10.2929
▁nihko	-10.2935
▁kokuy	-10.294
ly	-10.295
ohwootiini	-10.2955
▁heetihnee	-10.297
itooninoo	-10.2976
owouunoni	-10.2986
▁Tootei	-10.3
▁biitei	-10.3005
teno	-10.3007
▁Hinen	-10.3011
▁Nihwon	-10.3012
onookei	-10.3015
niistoo	-10.3016
▁hetce	-10.3017
▁Hono	-10.3018
ohwoo	-10.3033
ehiitooni	-10.3038
itoonee	-10.3062
▁tee	-10.3064
▁Toon	-10.3066
koohun	-10.3078
owuuni	-10.3082
isonoo	-10.3088
▁Neihoow	-10.3096
x	-10.3097
▁hiniisiiho	-10.3097
▁Bobby	-10.3142
▁Bambi	-10.3142
▁Peter	-10.3142
▁sometimes	-10.3143
▁hibetebihow	-10.3145
▁hikokuy	-10.3146
▁Toonhe	-10.3148
▁can	-10.3152
▁niitouu	-10.3165
▁these	-10.3166
▁tohcii	-10.3167
towuno	-10.317
▁hehniiseihini	-10.3184
ciiP	-10.3187
ihciini	-10.3199
iisiitenoot	-10.3201
p	-10.3216
eihehiho	-10.3216
▁hiihoowoe	-10.3219
▁ceheekuut	-10.3233
▁hoowuniihii	-10.3246
iixoo	-10.3253
▁Cihce	-10.3254
▁cebteenoc	-10.3257
eixootiini	-10.3264
eeneine	-10.3265
▁hiis	-10.3288
▁nook	-10.333
nna	-10.3349
▁ciitei	-10.3356
▁hehniiseihi	-10.3361
eseihi	-10.3363
nenebiihi	-10.3365
ciiniini	-10.3367
way	-10.3373
▁tihnee	-10.3374
▁niiinono	-10.3389
ehiino	-10.3396
ceece	-10.34
niistoonoo	-10.3404
biito	-10.3406
okuno	-10.3415
▁bisi	-10.3417
▁ceb	-10.3422
niiwoh	-10.343
▁honouuneeno	-10.3432
▁hooxo	-10.3441
▁keih	-10.3466
hiine	-10.3484
tehei	-10.3489
huh	-10.3497
▁heeyeih	-10.3538
▁niisoo	-10.354
▁konohu	-10.3541
eiyeiti	-10.3551
▁neci	-10.3558
teh	-10.3563
neeneyei	-10.3579
oohei	-10.3581
▁hey	-10.3586
▁nihniisih	-10.3592
eixo	-10.3595
ehP	-10.3601
useehek	-10.3622
ihoox	-10.363
niitowoo	-10.3646
ounii	-10.3649
ese	-10.3656
iibehe	-10.3659
▁heetoono	-10.3689
teeneihi	-10.3725
cebiseet	-10.3725
▁Cei	-10.3728
nenno	-10.3735
▁hineniteen	-10.3746
oowuniihisee	-10.3755
▁now	-10.3759
ihbi	-10.3781
▁nenei	-10.3789
▁heniise	-10.3789
▁heetneeneis	-10.3789
▁kind	-10.3794
eenebe	-10.3796
▁heetbee	-10.3803
▁heeyei	-10.3804
▁hoowunee	-10.3807
▁hihcebee	-10.3814
iineyei	-10.3818
▁tihce	-10.3834
▁siine	-10.3846
tonoun	-10.3848
ooxuu	-10.3848
▁Jack	-10.3852
▁last	-10.3857
▁Beteetox	-10.3857
▁Stephens	-10.3857
▁kokounow	-10.3858
▁yookoxuu	-10.3858
ouuteiseet	-10.3859
▁teeteehek	-10.386
▁Heisonoonin	-10.3862
▁means	-10.3863
▁woowotox	-10.3866
▁ceexoo	-10.3869
▁Niino	-10.3876
▁noxowu	-10.3876
▁houwo	-10.3882
▁noohowunee	-10.3886
▁Noohowunee	-10.3891
▁hehniiseti	-10.3892
oy	-10.3892
hiiho	-10.3913
yii	-10.3916
ooyei	-10.3925
▁Hoh	-10.3926
▁hoonou	-10.3931
onoho	-10.3931
▁hiiyohou	-10.3934
iixo	-10.3942
▁Heetni	-10.3944
▁man	-10.3951
neinoo	-10.3953
obe	-10.3958
▁heetco	-10.396
▁honoo	-10.3962
▁heesneenoo	-10.3963
itoonei	-10.3964
koohuutooni	-10.3969
▁niicoonbii	-10.3987
▁ciiis	-10.4
▁tohco	-10.4002
▁tohuunee	-10.401
oonoot	-10.4011
iyooninoo	-10.4023
▁heetihni	-10.4041
uunoo	-10.4041
einooku	-10.4043
koxcei	-10.4053
▁niihen	-10.4054
nini	-10.4057
▁Totoo	-10.4067
woowo	-10.4067
oxu	-10.4075
ootiin	-10.4087
oobeit	-10.4089
▁neebeh	-10.4091
▁ceeciis	-10.4093
▁bisP	-10.4101
▁neeP	-10.4104
▁nosoun	-10.4104
▁hoowoohP	-10.4108
iton	-10.412
okuni	-10.4123
uusoh	-10.4142
einin	-10.4148
our	-10.4148
oute	-10.4152
▁hotei	-10.4155
▁niici	-10.4159
iiko	-10.4167
hiitooo	-10.4189
▁Tou	-10.419
einoonin	-10.4197
noohobee	-10.4215
▁beet	-10.4217
▁Koxuuten	-10.4236
▁beis	-10.4243
uukohei	-10.4245
wu	-10.4245
▁neeyei	-10.4251
ooho	-10.4251
itenoo	-10.4278
ciiteinoo	-10.4293
▁hootn	-10.431
neihit	-10.4314
oniitowoo	-10.4314
▁Nihno	-10.4321
oxuyoo	-10.4334
ll	-10.4339
▁heetniiteheibe	-10.4377
seino	-10.438
▁Neyei	-10.4392
eeneetowuu	-10.4397
▁nihbeet	-10.4401
eeninoo	-10.4405
▁hebesiibe	-10.4409
eiseen	-10.4411
-3	-10.4419
onohoo	-10.4433
enei	-10.4448
▁nonoo	-10.445
owoonoo	-10.4458
woohu	-10.4459
▁beebe	-10.446
oteihini	-10.4465
hini	-10.447
heet	-10.4484
▁ceecii	-10.4485
▁neP	-10.4502
▁nihwon	-10.4513
eib	-10.4514
isei	-10.4515
huuwoon	-10.4516
▁hoocoon	-10.4518
cootiini	-10.4521
▁hice	-10.4525
▁Niis	-10.453
▁heetebinouhuuni	-10.4532
eesise	-10.454
▁niiwohoe	-10.4548
bisP	-10.4564
▁kokiy	-10.4575
▁hineeceeniit	-10.4578
oukutoo	-10.459
▁wote	-10.4591
tonouno	-10.4599
nowu	-10.4611
▁biixoo	-10.4619
▁Bonkers	-10.4626
▁Abraham	-10.4626
▁ahm	-10.4626
▁biiciixo	-10.4627
ander	-10.4629
iicetowoo	-10.4631
uhcehit	-10.4632
uukoheit	-10.4657
▁Heetneyei	-10.4658
▁day	-10.4658
▁seenookuu	-10.4659
niihen	-10.4664
neniteeniini	-10.4665
▁hoowoo	-10.4673
▁night	-10.4678
etouuhut	-10.4682
iinihii	-10.4684
seenoo	-10.4687
▁hisiiseii	-10.4691
▁Niibii	-10.4694
aver	-10.4704
-'	-10.4711
▁toonhees	-10.4711
ootowoo	-10.4716
eiwoho	-10.4733
▁teesii	-10.4747
towuuneino	-10.4749
▁hehnee	-10.4751
▁hoonobee	-10.4759
ihee	-10.476
iihoote	-10.4775
ciin	-10.4792
ihyihoo	-10.4793
iiteno	-10.4795
kookon	-10.4805
eibeihii	-10.4812
▁We	-10.4817
eenetiit	-10.4822
▁hoocoono	-10.4826
koohuni	-10.4827
okuutooni	-10.4834
▁hentoo	-10.485
▁Hisei	-10.4852
le	-10.4859
esiihi	-10.4861
▁ohh	-10.4864
oxowu	-10.4871
ihse	-10.4871
iniihi	-10.4877
▁nihneenit	-10.4882
▁beeh	-10.4893
▁Nihbi	-10.4912
▁hehniisi	-10.4912
eeneesinihii	-10.4926
▁nebi	-10.4928
benoo	-10.493
▁hiihoowbeet	-10.4933
▁hitiin	-10.4953
▁It	-10.4953
ouwoxuu	-10.4954
nokohut	-10.4958
▁hiiyou	-10.4959
itone	-10.497
oun	-10.4972
▁huusi	-10.4991
iisno	-10.5
▁hootnii	-10.5005
ouwox	-10.5009
▁nihnoo	-10.501
onnee	-10.5016
oohowo	-10.503
eestooni	-10.5032
usei	-10.5033
oonoyoohootowoo	-10.5037
▁us	-10.505
▁hesowobeihiit	-10.5062
eenP	-10.5064
▁hitoono	-10.5073
eeteihit	-10.5076
iinoono	-10.5084
einino	-10.5085
▁Woowuuno	-10.5092
▁heti	-10.5094
eihei	-10.5097
▁Ciitei	-10.5105
▁ciintoo	-10.5107
▁hetni	-10.5113
▁ceceec	-10.5116
eentoono	-10.5137
ohoeno	-10.5139
▁fro	-10.5152
coboot	-10.5155
neyeiP	-10.516
▁niistii	-10.5174
▁tootou	-10.5177
▁beneesoo	-10.5178
▁Noto	-10.5179
iihoot	-10.5194
bis	-10.5196
ty	-10.5197
iitne	-10.52
ir	-10.5204
▁Heetniis	-10.5205
ceihi	-10.5208
oowunoo	-10.5211
iyihoot	-10.5212
koni	-10.5218
▁gon	-10.5219
▁heihoow	-10.5219
cesisP	-10.5219
entoon	-10.5226
▁bo	-10.5232
tone	-10.525
woon	-10.5252
▁heetoxu	-10.5257
▁How	-10.527
uhcehi	-10.5274
etit	-10.5274
▁neneenee	-10.5276
niisihi	-10.5281
▁hoowbeet	-10.5282
ihneenin	-10.5297
tobeet	-10.5302
▁hiniisi	-10.531
einootno	-10.5312
▁beniine	-10.5321
kuutooo	-10.5327
▁heete	-10.5337
onoxoh	-10.5339
esitee	-10.534
biinoot	-10.5342
▁neheic	-10.538
▁niibis	-10.538
▁nohk	-10.5387
ceeceh	-10.5393
▁hiteneyooo	-10.5402
iistoonoo	-10.5414
▁neen	-10.5415
▁niicoo	-10.5419
ecootiini	-10.5429
▁neniihei	-10.5443
yeit	-10.5444
▁Nihwoo	-10.5444
ene	-10.5445
iitiine	-10.5445
▁guy	-10.5449
▁think	-10.5458
▁biikousiis	-10.5459
▁hiteebiyoo	-10.5459
▁hundred	-10.5459
▁Flora	-10.5459
▁dance	-10.5459
▁with	-10.546
tiine	-10.546
▁hikoobe	-10.546
▁hiwoxuuhooxebii	-10.5461
▁Beeheeteihit	-10.5461
▁siihoow	-10.5461
▁heeteenebetiit	-10.5463
▁Siiyeih	-10.5465
▁let	-10.5467
▁heetooni	-10.5468
▁notoniheihii	-10.5468
▁My	-10.5468
▁heeti	-10.5469
▁guys	-10.547
▁hiP	-10.547
▁tohnii	-10.5476
eeneinono	-10.5479
▁beeteet	-10.5481
iiniistiit	-10.5484
▁nisice	-10.5485
eyoono	-10.5486
unono	-10.5487
tobeeno	-10.5491
ecoohok	-10.5492
▁Cas	-10.55
▁touhoono	-10.5504
▁Nooke	-10.5508
iyeihiiho	-10.5509
▁heh	-10.5513
▁Heneecee	-10.5515
▁Bi	-10.5527
neecee	-10.5538
oteeyoono	-10.5539
▁siisiiyeino	-10.5542
▁Nebesii	-10.5542
▁nons	-10.5543
okecii	-10.5548
▁hiise	-10.5553
▁heneebees	-10.5556
▁beneexo	-10.5563
▁heetoon	-10.5566
oyei	-10.5572
onouu	-10.5587
noohootowoo	-10.5588
ineyoohee	-10.559
▁hiitousih	-10.5591
▁heeneesoo	-10.5607
▁yonoo	-10.5609
▁Ick	-10.561
▁heeyowuusi	-10.5611
ouniini	-10.5612
▁nonoocoo	-10.5615
iiniistii	-10.5619
tes	-10.5627
▁biixonoo	-10.563
as	-10.5637
▁hehneh	-10.5638
▁Nonoohowo	-10.564
niiteheibei	-10.5642
eci	-10.5652
owootiini	-10.5654
▁cooco	-10.5655
▁hetii	-10.5662
teeno	-10.5665
ouseino	-10.5668
ooweentou	-10.5669
enP	-10.5686
▁tohcih	-10.5686
oowuuninoo	-10.57
ehisei	-10.5705
obeti	-10.5722
outii	-10.5726
▁tihbii	-10.5727
ihini	-10.5729
ineyei	-10.5738
toyo	-10.5744
▁m	-10.5747
▁hiwo	-10.5754
▁uh	-10.5756
iitox	-10.5756
ite	-10.5758
▁nihni	-10.5768
eenin	-10.5769
eebeihi	-10.5771
▁heetete	-10.578
▁toonheetniis	-10.5784
etiitooninoo	-10.5785
entooni	-10.5789
▁ceno	-10.5796
l	-10.5802
▁heebehP	-10.5818
nottono	-10.5838
eyeih	-10.5841
owoh	-10.5844
▁tooyo	-10.5853
▁nebesiibe	-10.5855
niito	-10.5866
neenoo	-10.5887
benoheino	-10.5902
towuuneihi	-10.5917
▁heentoonoo	-10.5917
ihciitei	-10.592
beeto	-10.5927
ootou	-10.5934
f	-10.5938
▁cowo	-10.5943
oteihin	-10.5948
▁neetneihoow	-10.595
bexo	-10.5957
itei	-10.5986
neeneh	-10.599
ciihi	-10.6001
▁nenebe	-10.6011
coocoo	-10.6014
tiibe	-10.6017
niitoo	-10.6025
eitiitoon	-10.603
bise	-10.6037
▁ceniini	-10.6037
ad	-10.6041
▁Too	-10.6054
oonoko	-10.6055
▁Se	-10.6057
otoonoo	-10.6058
▁heetniice	-10.6068
▁To	-10.6071
▁hetcih	-10.6078
nooP	-10.6079
▁di	-10.6094
eeneesinihiinoo	-10.6095
▁heesinihiin	-10.6096
wooneihi	-10.6113
▁biibii	-10.613
▁neese	-10.6135
ig	-10.614
oteeyoo	-10.6155
▁niitou	-10.6156
▁hiniisoono	-10.6164
li	-10.6173
tonoono	-10.6182
oohohk	-10.619
▁nihniihen	-10.619
▁hiniis	-10.6206
iisiiteno	-10.6237
▁niibiibi	-10.625
▁henei	-10.6256
▁neniisoo	-10.6257
▁tooto	-10.6271
▁g	-10.6279
eebee	-10.6292
iwonoh	-10.6317
niiteheibe	-10.6319
▁heeneet	-10.6332
noohowoono	-10.6334
▁not	-10.6334
ouyeitino	-10.6343
▁beneexookee	-10.6353
▁Noohowun	-10.6356
▁horse	-10.6358
uffalo	-10.6358
▁Indian	-10.6358
▁tohnooke	-10.6361
▁non	-10.6364
▁Galilee	-10.6368
▁George	-10.6368
▁beescenee	-10.6368
▁niisootoxuuus	-10.6368
▁four	-10.637
▁Ahm	-10.6372
▁Moss	-10.6377
▁Indians	-10.6379
▁niineniiniicie	-10.6381
▁neecisee	-10.6382
▁tell	-10.6383
ihbeebi	-10.6386
▁neihoowno	-10.639
ihwo	-10.6393
▁Yein	-10.6398
▁biibeet	-10.6403
ihcehit	-10.6404
ihcihce	-10.6405
neeniibei	-10.6411
▁nooko	-10.6428
otkon	-10.6431
▁niiwoowo	-10.6442
▁ceeneeteeyo	-10.6444
▁heetese	-10.6448
▁ceesis	-10.6468
oonootii	-10.6472
▁beteetosoo	-10.6474
yihoonoo	-10.6476
▁heetihco	-10.648
▁hiikoo	-10.6488
neenii	-10.6493
noohowo	-10.6493
onno	-10.6496
ter	-10.6501
eenetinoo	-10.6504
▁heihoowP	-10.651
eenowoo	-10.6511
inoneit	-10.6514
hou	-10.652
itet	-10.6525
einootee	-10.6527
▁tec	-10.6541
▁Tom	-10.6543
iitooninoo	-10.6544
▁Heetyihoono	-10.6555
▁niiwoo	-10.6558
eeneisi	-10.6586
▁hetnii	-10.6591
▁Niisi	-10.6597
▁neyooxet	-10.6609
onwoo	-10.6613
oneino	-10.6621
▁tohni	-10.6622
itooto	-10.6624
▁niitse	-10.6625
▁heecis	-10.6627
▁Neihoowu	-10.6628
towuuninee	-10.6634
▁koohei	-10.6647
▁hoowuniih	-10.6649
nino	-10.6651
iisoono	-10.6651
oxuu	-10.6654
▁nohkuu	-10.6663
ookuhu	-10.668
wootii	-10.6683
neene	-10.6685
noowuuhu	-10.6686
▁Niih	-10.6687
▁yiii	-10.669
oesee	-10.6693
bebiis	-10.67
tees	-10.6715
▁ciibehnei	-10.6718
▁hohookee	-10.6721
ciiteneihiinoo	-10.673
biineihi	-10.6734
iteenoo	-10.6737
▁heninouhuu	-10.6738
iiniisih	-10.6748
▁heesitee	-10.6754
▁Beexo	-10.6757
notiiho	-10.676
niitowoot	-10.6763
▁niitonouno	-10.6769
ncei	-10.6772
ooniihi	-10.6774
nookee	-10.6774
eeneistoot	-10.6775
▁tecenoon	-10.6793
ocoo	-10.6799
ihci	-10.6804
noonoh	-10.6807
▁nototii	-10.6811
ebino	-10.6819
▁nihcihce	-10.6823
▁Heihoow	-10.6825
iinono	-10.683
ebee	-10.6838
▁nonoohowo	-10.6842
inonee	-10.6845
▁beneex	-10.6848
wuuhuno	-10.6862
▁tohuuno	-10.6888
ihbiibi	-10.689
eenetini	-10.6893
ouyeitiitoon	-10.6896
hoot	-10.69
al	-10.6904
iiyo	-10.6913
▁Te	-10.692
▁heetniinoo	-10.6923
woxu	-10.6929
▁heesinihiit	-10.6934
ookuutii	-10.6934
nosouniini	-10.694
etnii	-10.6947
▁heiP	-10.6965
oowusee	-10.6975
ihniitobee	-10.7006
eitee	-10.7024
wonoh	-10.7026
yeini	-10.7042
uxotiino	-10.705
▁nihcii	-10.7059
wooniini	-10.7065
▁K	-10.7073
eihehk	-10.7085
otox	-10.7086
eihee	-10.7088
▁hoowce	-10.7095
uun	-10.7098
▁nosounii	-10.7102
inoneihi	-10.7114
toonee	-10.7119
▁siinih	-10.7122
hose	-10.7135
▁niikoo	-10.7142
▁hoko	-10.7146
ookuhoo	-10.7152
ihyii	-10.7169
oneiht	-10.7181
▁She	-10.7186
▁nosouniini	-10.7192
ebnee	-10.7198
▁ceniino	-10.7205
noohobeen	-10.7221
ar	-10.7223
noohootowuno	-10.7229
otoyoo	-10.7231
betiitooni	-10.7235
▁beneetoh	-10.7235
biixuut	-10.7235
seese	-10.7238
ouuhut	-10.725
hoono	-10.7257
usoho	-10.7259
▁neenih	-10.7269
owunehk	-10.7271
▁heneene	-10.728
neenee	-10.7291
eihiin	-10.7291
cebixotii	-10.7301
oehinoo	-10.7321
ouutei	-10.733
wonbii	-10.7333
▁beneebee	-10.7335
esi	-10.7336
▁Nenitee	-10.7338
ciiteino	-10.7341
iici	-10.7355
▁brother	-10.7355
▁ceitoono	-10.7361
▁Francis	-10.7368
▁Shakespeare	-10.7368
▁Custer	-10.7368
iitoxuuus	-10.7369
▁hiniisiihehinoo	-10.7369
▁Star	-10.7369
▁Dance	-10.7369
▁kookuyon	-10.737
cause	-10.737
etiiwoohuut	-10.7371
▁toukuhuu	-10.7372
▁hehniiseih	-10.7372
▁week	-10.7374
etiitoon	-10.7374
▁saying	-10.7384
▁Sun	-10.7392
ehino	-10.7397
▁heteehinoo	-10.7408
▁hokooxuno	-10.7409
eiyeitit	-10.7409
▁niitoot	-10.741
▁hoseikuutii	-10.7412
▁touyoono	-10.7413
eeteebe	-10.7414
▁kokiyono	-10.7415
hiihi	-10.7416
▁neniisoono	-10.7416
▁morning	-10.7423
noonoo	-10.7424
▁siiyeih	-10.7425
▁hoowno	-10.7428
eeneisiiteno	-10.7428
eeneesP	-10.7433
okoo	-10.7437
cihnoo	-10.7447
▁Hees	-10.7463
▁heeneixoohoo	-10.7464
▁cesisiihi	-10.7469
itootowoo	-10.747
▁Ra	-10.7471
oowuseet	-10.7471
ihnoono	-10.7471
neih	-10.7472
uxohoot	-10.7473
▁niise	-10.7477
eihio	-10.7478
ouniih	-10.7479
▁niinen	-10.748
ebiis	-10.7499
iyoon	-10.7501
▁heeneisii	-10.7502
niitonou	-10.7512
▁hotonih	-10.7521
tokohut	-10.7521
ihneenino	-10.7521
▁nesiho	-10.7522
▁ye	-10.7525
iikone	-10.7529
▁niiseihit	-10.7535
▁HeetniiP	-10.7543
oekuu	-10.7543
ebit	-10.7547
▁ciinoo	-10.7561
▁bus	-10.7564
▁Tec	-10.7575
onbii	-10.7578
teenih	-10.7595
ihtoo	-10.7607
▁beneesei	-10.7618
oohoot	-10.7623
▁hibe	-10.7636
ffe	-10.7637
nit	-10.7649
▁com	-10.7659
esowobeihi	-10.7663
nesooku	-10.7681
▁hebes	-10.7694
▁yih	-10.7705
▁st	-10.7705
▁neniis	-10.7709
tonou	-10.7719
eeneeto	-10.772
▁nihcihno	-10.772
otoonooto	-10.7724
eeti	-10.7733
iiniini	-10.7745
if	-10.7751
▁hentou	-10.7755
hiininoo	-10.7762
▁heetwoowo	-10.7768
ch	-10.7769
ihiitooni	-10.7775
▁koox	-10.7788
iseeno	-10.7802
eeckoo	-10.7803
beexuuni	-10.7807
iisiitenowoo	-10.7811
▁ceeceh	-10.7813
▁toonheenei	-10.7821
▁Niinoo	-10.7825
eise	-10.7829
▁Koh	-10.783
iheihit	-10.7834
eetoxu	-10.7836
niiteheiwoo	-10.7836
▁nooh	-10.7839
▁toonhii	-10.7845
▁toonheetn	-10.7862
▁hiso	-10.7863
itousinihiitoon	-10.7864
oohowu	-10.7868
yootiini	-10.7875
▁Beni	-10.7882
▁niitoo	-10.7913
wusee	-10.7917
▁netesei	-10.792
▁niiyoo	-10.7921
▁honowu	-10.7927
eeteehek	-10.7936
▁heeneinono	-10.7957
ibee	-10.7959
▁Neh	-10.7968
son	-10.7985
otP	-10.7988
▁al	-10.7991
ouubeih	-10.7995
ooneit	-10.7996
cowoo	-10.7999
tenoo	-10.8001
noohobeit	-10.8012
iinokotii	-10.8014
▁noosounii	-10.8014
eenet	-10.8017
itenoot	-10.8017
▁niibeetce	-10.8024
benenoo	-10.8028
▁hetiini	-10.8035
neeheyei	-10.8037
eiisi	-10.8038
oocei	-10.8045
enowoo	-10.8054
nottonoo	-10.8059
oohobe	-10.8066
ra	-10.8092
▁noosoun	-10.8092
oonoyoohobe	-10.81
▁Bei	-10.8118
ihnotiitii	-10.8128
▁toot	-10.8133
▁nihnoohooto	-10.8135
eenees	-10.8138
▁hook	-10.8145
▁heetcii	-10.8151
siini	-10.8152
▁f	-10.8152
howoh	-10.8152
ihnosouniini	-10.8153
einoot	-10.8159
ebnii	-10.816
oxoh	-10.8161
iheeno	-10.8164
▁Ceh	-10.8167
▁neeneihi	-10.818
▁keihcii	-10.8188
iisou	-10.8189
ben	-10.8211
▁noowoh	-10.8216
neewoo	-10.8216
▁thre	-10.8224
xooni	-10.8231
▁hetneihoow	-10.8231
▁Konoo	-10.8235
cooco	-10.8238
ohoe	-10.8247
▁Neeyei	-10.825
▁neeneisoo	-10.8256
▁kooxo	-10.8258
itenee	-10.8266
nihiitooni	-10.8266
iiho	-10.8273
notiitiinoo	-10.8279
▁heetneihoow	-10.828
eiseenoo	-10.8297
▁toonheetnii	-10.8308
▁niisootox	-10.8312
▁Ben	-10.8315
eeso	-10.8323
▁hitouw	-10.8331
neyeih	-10.8331
eihou	-10.8331
kookou	-10.8331
▁heecet	-10.8333
iiseh	-10.8354
ceni	-10.836
ihbee	-10.8361
▁heetniin	-10.8369
owunee	-10.837
▁Kooh	-10.8375
eetee	-10.8377
ihbih	-10.8383
▁Heetneyeih	-10.8384
▁heenentoo	-10.8384
owuni	-10.8385
well	-10.8389
neneeninoo	-10.8389
▁bebii	-10.839
▁nebii	-10.8392
▁honou	-10.8393
boboo	-10.84
▁hetne	-10.8402
an	-10.841
been	-10.841
towuuneet	-10.8413
oyeit	-10.8425
▁nootinei	-10.8427
eiinox	-10.8429
oonei	-10.8433
oeseitee	-10.8433
▁ceecei	-10.8434
iisnoh	-10.8449
▁wono	-10.8458
▁Nihnee	-10.8458
oobeese	-10.8461
ouuyokoy	-10.8468
wuseenoo	-10.8472
▁tihcii	-10.8473
beebeet	-10.8474
▁neeneh	-10.8479
uunooninisin	-10.8479
▁School	-10.8479
▁Shoshone	-10.8479
▁Teresa	-10.8479
▁first	-10.8479
▁medicine	-10.8479
▁Dodge	-10.8479
▁Pilate	-10.8479
▁Adam	-10.8479
▁David	-10.8479
▁Henry	-10.8479
▁Kooheesnee	-10.848
tenowoo	-10.848
oeni	-10.8481
▁Jam	-10.8481
▁hookeciihiht	-10.8481
rent	-10.8482
ecoohuuho	-10.8482
▁were	-10.8483
▁thought	-10.8483
▁hiwookeciibinoo	-10.8484
eetehk	-10.8484
▁mean	-10.8486
▁niiwohoenoot	-10.8487
echariah	-10.8487
▁hiitouuk	-10.8487
▁Hooxeb	-10.8489
▁water	-10.849
▁Wouukohei	-10.8491
▁Sand	-10.8494
▁Bear	-10.8495
▁Heesneenoo	-10.8495
▁heeneestootiini	-10.8499
▁long	-10.8501
▁notoniheihiiho	-10.8503
▁hetneihoowuuni	-10.8507
▁kokuyono	-10.8508
▁houuneecee	-10.8511
▁hitenoo	-10.8514
▁want	-10.8515
▁Beeyoo	-10.8515
▁tohcee	-10.8515
onoheihiiho	-10.8516
▁Tohnooke	-10.8516
eenebeihi	-10.8523
▁hehiixoo	-10.8533
▁heeneise	-10.8542
▁biis	-10.8542
▁hesnee	-10.8546
▁hooninou	-10.8555
ixotii	-10.8556
▁Hiisiis	-10.8559
▁niicoon	-10.8562
▁heetcihce	-10.8571
▁tohuubiibi	-10.8573
ihkohei	-10.8576
▁heesneet	-10.858
▁ones	-10.8582
▁noobe	-10.8585
▁niiseti	-10.8587
ame	-10.8589
hiitooninoo	-10.859
▁koxuuteniini	-10.8601
▁noxowuuni	-10.8604
▁ciitoo	-10.8606
iheti	-10.8608
iicii	-10.8609
▁Heetbi	-10.8611
▁heitoustoo	-10.8611
boone	-10.8615
▁nihtonouno	-10.8616
▁well	-10.862
einooni	-10.8625
▁house	-10.8629
▁Heetnoo	-10.8638
ooteebe	-10.8639
uwoono	-10.8644
▁nihkooko	-10.8646
▁heetnoh	-10.8647
▁hentoot	-10.8648
▁tihboo	-10.8652
sbeteetosoo	-10.8654
ebkox	-10.8661
▁heihoowoe	-10.8661
eiise	-10.8662
▁yii	-10.8663
ebnoh	-10.8665
▁hoseihiinen	-10.8669
eetoot	-10.8672
ceenoku	-10.8674
neenino	-10.8678
once	-10.8678
▁Hoowuu	-10.8678
cxo	-10.8688
nooni	-10.8694
nokooyei	-10.8696
▁nihniistiit	-10.8696
iitini	-10.87
notiihoot	-10.8704
ihnoohobe	-10.8712
▁heetniisP	-10.8723
eseiti	-10.8724
uxooni	-10.8731
▁hoowuniihi	-10.8734
▁Niit	-10.874
ihn	-10.8741
owooyeitit	-10.8742
▁neetneihoowooh	-10.8743
▁heetneeneti	-10.8751
▁heeneisP	-10.8753
iibiibi	-10.8756
▁tonounowu	-10.8756
▁niihe	-10.8757
isP	-10.8766
oneit	-10.8769
▁Hey	-10.8773
▁ceecee	-10.8775
iwo	-10.8795
▁kei	-10.8795
iicoo	-10.8797
tooto	-10.8799
ookuuhu	-10.8806
▁Koohe	-10.882
niihenehei	-10.8825
niisonoonibeihin	-10.8826
wuno	-10.8832
▁Heh	-10.884
huuho	-10.8855
▁tootheih	-10.8863
oonoxoeheti	-10.8871
▁tohnoh	-10.8873
▁heeyow	-10.8873
ciinenowoo	-10.8874
ookutii	-10.8874
▁bisiini	-10.8888
▁niiniibei	-10.889
▁biit	-10.8898
nouu	-10.89
wonneyei	-10.89
▁neeneisinihiit	-10.8901
wonP	-10.8901
▁nosouni	-10.8902
oohoo	-10.8905
▁an	-10.8906
▁hootniis	-10.8907
tiinee	-10.8907
toneeno	-10.8914
ouyeit	-10.892
seeno	-10.893
▁Al	-10.8934
niitobeenoo	-10.8935
▁Coo	-10.8946
iibee	-10.8947
otouh	-10.8953
nouukuu	-10.8959
etiiwoohu	-10.8971
itoonou	-10.8979
neyoo	-10.8981
inenno	-10.8987
neeto	-10.8992
neeneti	-10.8993
iitoonoo	-10.8996
eyeihno	-10.8997
▁heniiboot	-10.9
▁noko	-10.9001
xoheinoo	-10.9003
neenou	-10.9007
neyeitii	-10.9012
ihbiine	-10.9015
ihsii	-10.9018
▁siih	-10.9019
▁tak	-10.9026
niiniisih	-10.9027
▁Yoo	-10.9033
uuwuu	-10.9038
▁toyou	-10.9043
sineetiin	-10.9046
▁koy	-10.9051
▁Tes	-10.9061
▁cebiihineeno	-10.9068
▁hiihoowuh	-10.9071
ebeenei	-10.9078
eestootiini	-10.9083
iistii	-10.9093
▁Biixoo	-10.911
woxutoo	-10.912
▁sh	-10.9122
▁nihcee	-10.9124
iibeteee	-10.9127
eeneisinihiinoo	-10.9134
▁ciinenoo	-10.9135
woteinooni	-10.9136
▁Cihbe	-10.9139
ibes	-10.9143
oteyoo	-10.9148
beit	-10.915
inonoot	-10.9155
niistootiini	-10.9155
eetoh	-10.9171
ohtee	-10.9173
▁woti	-10.9179
iteto	-10.9185
▁heetniiwo	-10.9192
▁heetc	-10.9193
beebii	-10.9197
inowu	-10.9206
beteeeno	-10.9209
▁neesoo	-10.9209
ciinkuu	-10.9212
▁tohu	-10.9227
otii	-10.9228
▁Koxuute	-10.9236
iiniseet	-10.9238
▁are	-10.9245
▁hetbii	-10.925
cihbee	-10.9253
▁Sii	-10.9253
utoo	-10.9257
xoheit	-10.9271
▁nihkoo	-10.9275
oneinoo	-10.9281
noox	-10.9284
iiwone	-10.9289
▁hiteenetiit	-10.9298
ouP	-10.9299
ceniihei	-10.9308
▁hoowee	-10.9318
yo	-10.9321
▁touyoo	-10.9322
▁Nihnii	-10.9322
▁heetneihoowu	-10.9323
iiyohoot	-10.9335
eyeit	-10.9344
hootou	-10.9344
osteihoo	-10.9345
▁heihoowu	-10.9347
ihnoohoo	-10.9358
oob	-10.9359
oowut	-10.936
▁niihencebkoohu	-10.9367
eseh	-10.9372
ouwun	-10.9372
itenou	-10.9376
niitowootowuu	-10.9377
eete	-10.9385
okuuto	-10.9388
▁Th	-10.939
▁tohuuce	-10.9394
▁heniisii	-10.9398
onohoene	-10.9399
oseikuu	-10.94
▁hetn	-10.9408
iiteseit	-10.9415
oowbii	-10.9419
etin	-10.942
esnoneet	-10.9426
▁th	-10.9451
eihoh	-10.9458
▁wotee	-10.9466
ootowoot	-10.947
▁heeneisih	-10.9471
▁tokooxuu	-10.9479
eteini	-10.948
▁hiisiini	-10.9483
noonoko	-10.9484
ouuh	-10.9485
wooni	-10.9495
ost	-10.95
▁l	-10.9504
owooo	-10.9506
iibiibii	-10.9507
iiscih	-10.9525
▁heeneecxooyei	-10.9541
ihtei	-10.9544
▁nookoox	-10.9553
▁tebinou	-10.9553
uneihii	-10.9564
eis	-10.9574
ete	-10.9586
iiniihi	-10.9586
▁Nec	-10.9589
eese	-10.9595
xt	-10.96
▁huuh	-10.9613
em	-10.9623
▁cihwon	-10.9633
oeneet	-10.9634
cenisi	-10.9634
ux	-10.9637
enec	-10.9641
cen	-10.9641
▁niiniistii	-10.9652
wottonee	-10.9655
▁nene	-10.9657
▁Heetwo	-10.9662
esnee	-10.9663
▁siisoowoo	-10.9664
eiitono	-10.9666
▁heeneesce	-10.9668
niiteheibeihi	-10.9676
▁neihoowbeet	-10.9684
sbixoo	-10.9694
oxoneet	-10.97
eibee	-10.9702
uxoh	-10.9704
▁hihP	-10.9706
cebii	-10.9707
ttle	-10.9709
nooxeihi	-10.971
▁Cihno	-10.9712
▁Koonee	-10.9715
beetou	-10.9726
nonih	-10.9727
▁lot	-10.9728
▁River	-10.9729
abeth	-10.9729
▁Goggles	-10.9729
▁Israel	-10.9729
▁Washakie	-10.9729
▁Clay	-10.9729
▁Judea	-10.9729
▁kids	-10.9729
▁woxusiitono	-10.9729
▁Tootheihiitisee	-10.9729
▁Casper	-10.9729
einotiibin	-10.9729
▁everything	-10.973
▁woowoxutoohuuho	-10.973
▁dad	-10.973
▁every	-10.973
ouxosi	-10.973
▁hiincebiit	-10.973
▁Dickie	-10.9731
▁today	-10.9731
▁Koowoow	-10.9732
▁nookuhsoono	-10.9732
▁beesibino	-10.9732
▁siineihoowoe	-10.9733
▁could	-10.9733
▁neisiihehinoo	-10.9733
▁Hin	-10.9733
▁hooxuwuutono	-10.9734
▁heeneeyoohuuho	-10.9736
▁hookotoo	-10.9738
▁six	-10.9738
▁husei	-10.9739
▁nootneihi	-10.974
▁beeheeteiht	-10.974
▁beteneyooo	-10.9741
▁people	-10.9741
▁Buffalo	-10.9744
▁noowunen	-10.975
niistiinoo	-10.9752
oeneecee	-10.9754
▁Heni	-10.9754
▁hisitee	-10.9754
▁Ceebeh	-10.9754
▁niibeihiiho	-10.9755
▁Nihnoohowo	-10.9758
▁niinoohobeihi	-10.9758
iiciini	-10.9759
▁dog	-10.976
▁teiitoonoku	-10.9762
▁hitiiteen	-10.9764
▁hibio	-10.9766
▁mad	-10.9772
▁Heeneti	-10.9774
▁ciiyoono	-10.9776
▁For	-10.9776
▁hites	-10.9776
einiicie	-10.9777
▁hiniihei	-10.9781
▁make	-10.9785
coboo	-10.9786
▁biisee	-10.9786
▁neihoowbeetP	-10.9788
▁hebiito	-10.979
▁Heeno	-10.9794
▁Noohootoo	-10.9796
towuuneihit	-10.9798
▁hokoo	-10.9804
▁tohkooko	-10.981
▁noonoh	-10.9811
toneinoo	-10.9813
▁heeneestoo	-10.9813
▁work	-10.9816
oneihino	-10.9817
nen	-10.9818
▁siihe	-10.9819
▁houunenno	-10.982
sohoe	-10.9828
esoonee	-10.9828
▁neeceen	-10.9829
ceenokut	-10.9831
▁Neneen	-10.9832
▁hohookeeno	-10.9839
▁nihto	-10.984
▁tenei	-10.9844
eibeenoo	-10.9849
ohteet	-10.9851
ooteeni	-10.9854
▁NeihoowP	-10.9858
ehte	-10.986
kuutiinoo	-10.9863
▁kookouniisoo	-10.9866
▁heihoowuu	-10.987
nny	-10.9883
eitiino	-10.9883
▁biixuut	-10.9887
eibi	-10.99
▁Hiitous	-10.9914
▁heetwonP	-10.9915
towuu	-10.9917
ounit	-10.9918
▁hete	-10.9921
einiicii	-10.9921
▁ceen	-10.9936
▁hoonoyoohootow	-10.9938
neenihi	-10.9947
niiniibei	-10.9949
ciito	-10.9951
H	-10.9958
ight	-10.9959
▁beniice	-10.9962
▁boboo	-10.9969
nottonoot	-10.9974
neetinoo	-10.9994
oeyoono	-10.9996
▁Woxuu	-10.9999
▁yihoo	-10.9999
kox	-11.0008
teyei	-11.0009
ouyeitinoo	-11.0009
▁hookuu	-11.0012
oowuuteen	-11.0013
ihcoo	-11.0015
▁niitei	-11.0025
nookei	-11.0025
▁niiseih	-11.0035
▁nihwoowo	-11.0035
yein	-11.004
▁niiteheibetiit	-11.0041
▁heetkoo	-11.0061
▁Tee	-11.0066
etiibe	-11.0069
▁coowo	-11.0072
▁nookon	-11.0076
itiit	-11.0082
▁Toonh	-11.0087
▁bebiisi	-11.0089
noxowuuni	-11.0092
▁xo	-11.0102
onbiibi	-11.0102
▁hiniisoon	-11.0105
▁cenihP	-11.0107
ixoo	-11.0108
▁heneinoote	-11.0111
xoohoo	-11.0124
etniisiini	-11.0128
ex	-11.0128
ciineneihit	-11.0143
▁hiseih	-11.0145
▁huunoon	-11.0145
iyoot	-11.015
niitouuhu	-11.0159
niiseti	-11.0172
ihciibii	-11.0173
oonin	-11.0178
▁Hiihoowu	-11.0182
eebeinoo	-11.0183
eesce	-11.0187
iisinoo	-11.0189
hot	-11.019
▁whi	-11.0191
neeneis	-11.02
hoowoohnee	-11.0202
niiseihit	-11.0205
oxobei	-11.0212
iistiinoo	-11.0213
iibeh	-11.0227
oote	-11.0228
oeyoo	-11.0229
iiscowo	-11.0229
cebiihineet	-11.023
▁d	-11.0236
▁Heetneenin	-11.0236
▁hetnoo	-11.0236
man	-11.0238
ohuni	-11.0239
▁senii	-11.0246
▁neiibeh	-11.0247
▁Het	-11.0254
obeinoo	-11.0257
▁heneeceen	-11.0258
▁nihceh	-11.026
▁Y	-11.0261
oohootowoo	-11.0262
eeneisih	-11.0264
ibino	-11.0267
▁tihbi	-11.0282
▁nookeihi	-11.0285
▁heetihbii	-11.0288
isiini	-11.0299
uxootiin	-11.0307
▁hoownii	-11.0325
iiheeneti	-11.0327
▁heetwoo	-11.0331
nenee	-11.0335
noohobeihino	-11.0337
▁tohuuwonniit	-11.0349
▁hen	-11.0353
▁nonoono	-11.0356
kohtowutoo	-11.0357
ceceec	-11.0367
▁hootnee	-11.0372
oeneeto	-11.0378
oxuuheti	-11.039
▁hooku	-11.0392
▁besoo	-11.0396
oxei	-11.0398
iitoh	-11.0402
▁noyoot	-11.0416
▁Hiwoxuu	-11.0417
neehebeh	-11.0422
ehei	-11.0424
▁Heniis	-11.0437
ootowuno	-11.0441
eecikoohu	-11.0442
▁niibeete	-11.0443
uuP	-11.0445
noonotiihoo	-11.0452
▁Hiinoon	-11.0454
▁nihiitono	-11.0468
niiciiheh	-11.0469
iwoho	-11.047
biineit	-11.0474
eeteiht	-11.0474
▁Nihbii	-11.0481
▁nihwoniini	-11.0487
hehk	-11.0494
▁niiheeneti	-11.0495
neehek	-11.0502
▁nosou	-11.0503
cebiihetiitooni	-11.0504
▁cowoo	-11.0504
biinoono	-11.0507
beex	-11.0509
oekoohu	-11.0532
eenowoot	-11.0532
ebin	-11.0535
ceiteet	-11.0543
▁heetbis	-11.0543
iiniisi	-11.0545
▁heetihneyei	-11.0545
ouw	-11.0558
▁hocoo	-11.056
▁Koon	-11.0561
ihbe	-11.0561
▁heeneine	-11.0562
eyoone	-11.0569
niistiino	-11.0574
bisiseet	-11.0574
▁Hosei	-11.0575
niiteheiwoot	-11.058
eenetP	-11.0582
▁cebisee	-11.0586
koe	-11.0593
itono	-11.0593
eeneistooni	-11.0595
iiwono	-11.0607
ihkou	-11.0608
▁hoowuun	-11.0609
ooxuwutii	-11.0611
tebinoo	-11.0623
ookeit	-11.0627
how	-11.0639
▁noons	-11.064
bixou	-11.0652
tonounoo	-11.0653
▁heeneisi	-11.0658
bout	-11.0665
▁heeneesi	-11.0671
hih	-11.0672
iihou	-11.0681
oxonoo	-11.0687
▁hoohookeenin	-11.0688
▁Wot	-11.0689
ciisiihi	-11.0698
hiinoo	-11.0698
niiteh	-11.0701
ather	-11.0702
▁nohohoonii	-11.0702
biiwoohut	-11.0715
▁Cenih	-11.072
xohoot	-11.0722
▁Cii	-11.0728
▁niicooco	-11.0729
censi	-11.0739
eenetin	-11.0741
oowbeet	-11.0742
tece	-11.0746
▁ceitee	-11.0751
otoonootowoo	-11.0755
▁niisei	-11.0755
▁hiseihi	-11.0763
ciino	-11.0767
nin	-11.0779
▁heetnotiiho	-11.0781
esei	-11.0782
oonoxoo	-11.0782
ohcoo	-11.079
eenowo	-11.0808
▁Niin	-11.0816
toukuhu	-11.0817
useenee	-11.0818
▁hitiini	-11.0818
itonih	-11.0818
oneenei	-11.0822
eiyei	-11.0822
▁Kox	-11.0828
▁neihoownee	-11.0829
ihbis	-11.083
beexP	-11.0831
towooto	-11.0832
▁noonoxoo	-11.0838
iiciino	-11.0844
▁Mar	-11.0844
air	-11.0844
▁hibei	-11.0849
kohtowunihii	-11.085
niistoon	-11.0859
beteenoo	-11.086
▁hiixoo	-11.0861
xono	-11.087
xohei	-11.0876
yooniib	-11.0877
uusii	-11.0883
▁Hebes	-11.0887
niiheneihit	-11.0891
oxonee	-11.0893
woow	-11.0894
uP	-11.0895
niitouuhut	-11.0898
▁niinoh	-11.0898
ihbeex	-11.09
ebisee	-11.0902
▁heeseh	-11.0907
cihwoniini	-11.0913
iitiseet	-11.0914
iikohei	-11.0916
owuuteen	-11.0918
▁hiihoowc	-11.0936
▁heecxooyei	-11.0939
▁Bis	-11.095
neeciini	-11.0962
▁niitootox	-11.0973
bisiitonei	-11.0977
iyeit	-11.0979
▁Neiso	-11.0981
eiheino	-11.0984
niiteheiwou	-11.0984
xohoo	-11.0989
▁tihcesis	-11.0991
▁koe	-11.0994
ouubeihit	-11.1005
neniiwoot	-11.1006
▁niibeebi	-11.1007
ihyihoono	-11.1011
▁beteee	-11.1014
wuuci	-11.1021
eeneitP	-11.1028
niitobee	-11.1034
▁hoxtoono	-11.1039
censinenoo	-11.1047
▁niiniis	-11.1052
▁beebi	-11.1057
eiwoo	-11.1059
eP	-11.1072
▁heetniistiino	-11.1072
ninehk	-11.1072
uxotiin	-11.1073
eiikuu	-11.1073
▁noohoot	-11.1074
▁beebii	-11.1076
▁niinoohowo	-11.1081
▁heinoonin	-11.1089
▁tohuun	-11.1089
ixo	-11.1092
▁Ciino	-11.1102
▁nihn	-11.1108
▁ceeseini	-11.1116
▁Kou	-11.112
itoonin	-11.1122
▁hootno	-11.1123
eenotii	-11.1127
owooyeitinoo	-11.1129
eeteihinoo	-11.1132
eneetowoo	-11.1141
ihnec	-11.1141
iihoonoo	-11.1147
hit	-11.1155
▁hiwoxuuhoox	-11.1156
▁Alfred	-11.1158
▁Michael	-11.1158
▁Nookhoosei	-11.1158
▁machine	-11.1158
▁maybe	-11.1158
▁ranch	-11.1158
▁remember	-11.1158
▁language	-11.1158
▁Herod	-11.1158
▁Riverton	-11.1158
▁notoyeicii	-11.1158
▁somebody	-11.1158
▁more	-11.1158
▁food	-11.1158
▁better	-11.1159
▁casino	-11.1159
▁Sooxe	-11.1159
▁nisicoho	-11.116
▁Bebene	-11.1161
▁Matt	-11.1165
▁yenein	-11.1166
▁heicin	-11.1167
▁biibinootno	-11.1167
▁Heitoustoo	-11.1167
oowotoo	-11.1169
▁side	-11.1169
▁heteneyooo	-11.117
▁story	-11.1171
▁wooxoho	-11.1171
iteco	-11.1176
otooneet	-11.1176
▁howooyeiti	-11.1177
▁hototii	-11.1177
esee	-11.1177
▁off	-11.1177
▁days	-11.1179
▁heetseese	-11.1181
iisiiten	-11.1184
▁hiin	-11.1187
▁Heeninouhu	-11.1187
▁niistoot	-11.1188
▁heeneetse	-11.1188
▁Koohee	-11.1189
biineihit	-11.1189
▁ma	-11.1191
▁Hooxono	-11.1191
▁Yeneini	-11.1192
▁hebesii	-11.1193
▁koohih	-11.1193
ihnoohootowuu	-11.1194
▁hiniisooninoo	-11.1195
▁niibeh	-11.1196
▁beskooteeno	-11.1197
▁niinkoohu	-11.12
▁kon	-11.12
▁neesiiis	-11.1202
oowotono	-11.1202
uhcehinoo	-11.1203
▁tohuus	-11.1204
▁went	-11.1207
owouunonin	-11.1207
▁niinokohut	-11.1208
eneihit	-11.1209
▁hebeeteini	-11.1212
▁toonheesiini	-11.1215
▁bexookee	-11.1218
ihniibee	-11.1218
▁neniiheneihit	-11.122
▁wookeciisoono	-11.122
▁hunit	-11.1226
eeneestoot	-11.1228
eebeihit	-11.1232
▁cihbee	-11.1237
uut	-11.1243
eitinoo	-11.1246
iiteyeino	-11.1252
▁hetneihoowu	-11.127
▁heetniisiine	-11.1272
▁niibootono	-11.1274
oneebetiit	-11.1275
▁xooku	-11.1278
▁Niiwo	-11.1278
koxu	-11.1283
▁tooti	-11.1286
ceibiihi	-11.1286
xoheino	-11.1289
▁heetniinono	-11.129
teesiseet	-11.1293
▁Cihbiinei	-11.1298
▁cut	-11.1299
toyou	-11.1299
▁kookoyoo	-11.13
ooxuwuut	-11.1304
▁bisce	-11.1307
▁beneetP	-11.131
▁yihkoohu	-11.1312
uhce	-11.1313
▁neenee	-11.1316
▁heeneetoh	-11.1317
▁nihc	-11.1319
▁Keet	-11.1322
▁SiiP	-11.1323
▁kooniini	-11.1326
beihino	-11.1327
▁beexuuni	-11.1328
▁toonheetniisini	-11.1334
▁hiice	-11.1335
ciintoonoo	-11.1337
etesih	-11.1338
iicxooyei	-11.1343
▁heetcebe	-11.1344
▁says	-11.1345
nohk	-11.1347
▁hitihii	-11.1355
▁hitouwo	-11.1356
▁Beexoo	-11.1362
ceeco	-11.1364
▁biiseeno	-11.1366
▁heetkoh	-11.137
▁betebihehih	-11.1372
uho	-11.1376
teeni	-11.1376
eebiit	-11.138
ceeP	-11.1384
eeneesinihiit	-11.1386
▁noxuutei	-11.1388
▁nihnoohootowoo	-11.1389
▁heetcihP	-11.1392
niiitowoo	-11.14
▁tootei	-11.141
niixoohoo	-11.1412
oowuunin	-11.1417
▁niibeebee	-11.142
iibeet	-11.142
▁neeneisi	-11.1421
▁Houu	-11.1427
beebeteee	-11.1429
ihseh	-11.1434
ineyoo	-11.1435
▁once	-11.1435
ihkooko	-11.1438
ooxohoenei	-11.1443
▁ceeciini	-11.1444
ookeinoo	-11.145
▁nihwonP	-11.1455
niihencebkoohut	-11.1456
eininehk	-11.1458
ciintoo	-11.1483
otooneenoo	-11.1485
wunoo	-11.1485
iik	-11.1493
▁toonouno	-11.1494
▁tohuucii	-11.1497
ohunoo	-11.1501
okuutooo	-11.1503
woteiho	-11.1504
▁hetcii	-11.1505
eeneetowuno	-11.1508
oxon	-11.1517
▁kookok	-11.152
▁nihooneih	-11.1523
▁hibiixuut	-11.1529
▁tohuubii	-11.1532
▁Nesi	-11.1543
oohobee	-11.1549
▁hiihoote	-11.155
▁tohwoo	-11.1559
itiinoo	-11.1567
▁beetce	-11.1567
itiino	-11.1574
▁niistiit	-11.1578
bisiii	-11.1583
eibeee	-11.1589
▁hiihoowuunon	-11.1596
nokooyeinoo	-11.1598
▁y	-11.1599
▁yeoh	-11.1609
▁R	-11.1612
iyootiini	-11.1618
ehiho	-11.1619
cihnee	-11.1627
eibeet	-11.1628
eenebee	-11.1634
tesih	-11.1638
▁honouu	-11.1639
▁siineih	-11.1643
uwuno	-11.1645
▁tousiini	-11.1646
oowce	-11.165
▁beskootee	-11.1655
cese	-11.1659
▁howoxtootiinin	-11.166
oheihiinoo	-11.1661
niisneniinoo	-11.1669
eisoo	-11.167
wootiini	-11.167
cowootee	-11.1678
▁niibeteee	-11.1689
wun	-11.1695
yeihiiho	-11.1696
▁niitec	-11.1701
▁ceeceno	-11.1703
▁neniiheneihin	-11.1711
▁ciibehnih	-11.1717
ehini	-11.1717
▁hitee	-11.1718
oowooh	-11.1719
▁heetnoonoo	-11.1721
niitono	-11.1723
noonohkco	-11.1726
iitei	-11.1734
▁ceeb	-11.174
onbiineihi	-11.1741
ku	-11.1742
ihyih	-11.1742
▁heetciitei	-11.1749
oteih	-11.1759
▁niibeex	-11.1761
nottoneihi	-11.1794
▁Keih	-11.1799
ineyooh	-11.1815
iceebeh	-11.1824
xotone	-11.1827
tonouneihit	-11.1837
▁heetbebiis	-11.1838
iiseeneti	-11.1839
seet	-11.1847
iinisee	-11.185
▁niibee	-11.1851
▁Me	-11.1879
▁ciin	-11.1879
tonounowunee	-11.1879
eecoho	-11.1888
▁hooxeihiinen	-11.1889
iniiteh	-11.19
eetoo	-11.1904
▁Koox	-11.1905
ould	-11.1905
▁Heetbii	-11.191
▁Noonoo	-11.1911
▁koxuu	-11.1913
ouut	-11.1915
tootou	-11.1915
eihow	-11.192
▁Heetneh	-11.1929
ihcehinoo	-11.194
eesini	-11.1954
eitooni	-11.1955
eenein	-11.1974
iisiitenee	-11.198
eneti	-11.1981
ey	-11.1983
oxowoo	-11.1997
▁Ciit	-11.201
▁hiisiisii	-11.2011
oebii	-11.2012
eiyeit	-11.202
▁Neihoowbeet	-11.2026
etei	-11.2031
iiyeih	-11.2036
enetiino	-11.2038
eeneisceece	-11.204
▁Hiine	-11.2043
etiinee	-11.2046
▁hootne	-11.2047
cebisee	-11.2048
ohei	-11.205
iyeihii	-11.2059
▁Bet	-11.2062
▁houun	-11.2068
▁hootnoo	-11.2069
ouuneenoo	-11.2075
iteso	-11.208
▁hetniis	-11.208
▁nihneyeih	-11.2087
ong	-11.21
wuuteen	-11.2102
iiniihencebkoohu	-11.2104
▁heestoo	-11.2104
esoohowoo	-11.2105
▁nestoo	-11.2105
▁konou	-11.2106
woh	-11.2106
▁nihcihP	-11.211
▁hiihoowce	-11.2116
iiwooku	-11.2118
uhei	-11.2121
▁Keihcii	-11.2127
eekuut	-11.213
heihiinoo	-11.2138
▁tohneh	-11.214
iitoxcec	-11.2146
▁niib	-11.2173
▁ceni	-11.2175
uxohoo	-11.219
esneet	-11.2195
xun	-11.2206
iinikotiino	-11.2212
▁pi	-11.2213
▁hooko	-11.2214
▁teiitoon	-11.2216
▁cenihce	-11.2221
ineniteeniit	-11.2229
ebih	-11.2237
▁hetnee	-11.2238
eeto	-11.2238
▁hiicooon	-11.2266
oneeno	-11.2269
tonoot	-11.2269
eetiini	-11.2275
neeninoo	-11.2276
▁wonooP	-11.2279
ebiihc	-11.2284
itowoo	-11.2287
▁tihc	-11.2291
▁nookuo	-11.2295
unee	-11.2297
ceitoonetiitoon	-11.2303
ebesiibeh	-11.2307
▁Da	-11.2313
heeno	-11.2316
▁hiniici	-11.234
▁ar	-11.2343
eciini	-11.2343
ecooni	-11.2347
▁bees	-11.2375
▁heeyowuu	-11.2378
▁woohon	-11.2381
▁cebii	-11.2381
▁Har	-11.2383
▁neeneistoono	-11.2384
▁nihniisi	-11.2399
ookei	-11.2403
▁niiwon	-11.2405
ihtes	-11.2425
ihneyei	-11.2427
oowuno	-11.2432
koxuuten	-11.2437
biineinoo	-11.2452
owoteno	-11.2454
N	-11.2457
howoo	-11.2476
▁Nosoun	-11.2484
yohou	-11.2485
esoo	-11.2493
touku	-11.2499
ind	-11.2505
▁notikoni	-11.2506
▁koxu	-11.2506
cibe	-11.2519
iixoxonee	-11.252
▁nihniistii	-11.2525
oneih	-11.2529
▁hoowuno	-11.253
eeneiteno	-11.2534
eeneinoo	-11.2543
onohowoo	-11.2548
cesiseeneti	-11.2548
▁heniisi	-11.2548
exoo	-11.2549
hiisi	-11.2554
ihto	-11.2554
kotousi	-11.2557
▁niitowoo	-11.2559
wooyoo	-11.2568
▁hootneeneis	-11.2575
▁heetec	-11.2582
oohobeihi	-11.259
neese	-11.2595
▁wosouh	-11.2604
neenini	-11.2627
ibeih	-11.2627
ootinee	-11.2627
▁toonheenee	-11.2629
▁Neeso	-11.263
ebiib	-11.2637
huut	-11.2638
biis	-11.2642
iicee	-11.2643
cebiihineenoo	-11.2653
niiheniini	-11.2659
hin	-11.266
▁heetohno	-11.2661
onit	-11.2662
▁heseis	-11.2663
eiteh	-11.2668
cihbisiseet	-11.2674
niitowoohu	-11.2676
oneihiinoo	-11.2677
▁hiihoowno	-11.2678
▁hiicetiinin	-11.268
▁niisoono	-11.2684
▁heetoonoo	-11.2692
tonee	-11.2699
huu	-11.2704
iistooni	-11.2708
ohuunoo	-11.2709
ciinoo	-11.2715
▁Konoh	-11.2717
▁hinow	-11.2718
eibinoo	-11.2721
▁nihtooto	-11.2742
niisce	-11.2748
oteenowo	-11.275
▁Hohoot	-11.2754
or	-11.2755
iikoo	-11.2759
neyeitiit	-11.2759
▁hooxuwuunen	-11.2759
ihceece	-11.2766
stootiini	-11.2776
eenetsin	-11.2776
▁hoteiciinee	-11.2781
▁heetcihno	-11.2782
iisini	-11.2789
eiyeihii	-11.2789
isin	-11.2791
▁pre	-11.2793
hiniibootiininoo	-11.2795
▁tokohoe	-11.28
iniisooni	-11.2801
ihbisiini	-11.2804
utoono	-11.2804
yooxuunokoy	-11.2824
▁Colorado	-11.2824
▁Joseph	-11.2824
▁Robert	-11.2824
▁Tillie	-11.2824
▁Waterman	-11.2824
▁Wyoming	-11.2824
▁wagon	-11.2824
▁Jimmy	-11.2824
▁Moses	-11.2824
▁Yohwot	-11.2824
▁heniiwohoenin	-11.2825
▁Bates	-11.2825
clock	-11.2825
▁cebiihinoot	-11.2825
▁Where	-11.2825
▁konohxuu	-11.2825
▁mother	-11.2825
▁hitooxuwuut	-11.2825
▁High	-11.2825
▁heninouhuuseino	-11.2825
▁Benii	-11.2825
▁kokoohowoot	-11.2825
▁Cora	-11.2825
hief	-11.2825
sebeyohoe	-11.2826
▁Siihoowuuni	-11.2826
▁hetebixoo	-11.2826
▁clan	-11.2826
▁toyooniihi	-11.2826
▁niscinec	-11.2828
▁wait	-11.2828
▁nonookoxoneet	-11.2829
▁nisikocoono	-11.2829
▁biisiinowoot	-11.2829
▁niitbisiseet	-11.283
▁There	-11.283
▁place	-11.283
▁wotooho	-11.283
▁hitotiibinoo	-11.2831
▁neeh	-11.2831
▁Kooxhe	-11.2832
▁beneesiseit	-11.2835
▁heeteetoo	-11.2835
uiver	-11.2835
▁Heeyouhuu	-11.2836
ontoo	-11.2836
▁hide	-11.2836
ihceenok	-11.2838
▁nihnosou	-11.2839
▁hiteexokuuton	-11.2839
▁kooheinoko	-11.2839
▁heetniiteseinee	-11.2841
uhoot	-11.2842
ouuyokoyono	-11.2843
▁Af	-11.2843
booboboo	-11.2844
kooP	-11.2845
oubeinoo	-11.2847
▁heneicii	-11.2847
▁Betebihehi	-11.2847
tebkuutii	-11.2849
▁howooyeitiit	-11.2849
▁niikooko	-11.285
▁hooxeihino	-11.285
teso	-11.2852
▁hitotiiw	-11.2854
▁heteneyooonin	-11.2857
▁ciineyoono	-11.2858
▁hiiheyoti	-11.2858
▁Totoonee	-11.2859
einP	-11.286
eenebeihiinoo	-11.2861
iitoot	-11.2861
▁hiwowoon	-11.2862
oxoneit	-11.2863
xe	-11.2864
▁heetneihoowuuni	-11.2865
ihtoyoohobee	-11.2866
▁hootoho	-11.2867
ihniitonee	-11.2868
▁hoohookeeni	-11.287
oohobei	-11.2874
▁heeteetoono	-11.2875
▁heenetiitono	-11.2875
ihnotitone	-11.2876
towo	-11.2876
▁yeiyoo	-11.2877
▁Arapahos	-11.2884
▁kooheihcii	-11.2885
tounineenoo	-11.2885
▁hitouunen	-11.2886
nehtiiheihi	-11.2889
okuutooono	-11.2895
eibeeenoo	-11.2895
▁noonotnoo	-11.2897
▁All	-11.2898
yohkon	-11.29
▁start	-11.2902
▁niibenei	-11.2905
tiseenoo	-11.2905
cooniinen	-11.2909
cenenoot	-11.2913
eestoobe	-11.2915
▁Niinotiiho	-11.2916
▁kookoh	-11.2921
beetP	-11.2921
▁Nihnoohobe	-11.2924
▁fo	-11.2925
teeneihit	-11.2927
ohookeenit	-11.2927
▁niibeetnee	-11.293
iiniseenoo	-11.2931
▁hoowuneyei	-11.2935
iiteen	-11.2935
yoohu	-11.2937
▁hiniisiihoho	-11.2939
eebit	-11.2944
▁beetou	-11.2947
▁ceeciisP	-11.2948
tonoo	-11.295
uusiiteno	-11.2961
ebiho	-11.2969
Blue	-11.2978
oonootee	-11.2979
kuhnee	-11.2981
eneihi	-11.2982
okokoh	-11.299
▁heteh	-11.3
ohcoono	-11.3003
▁ceniin	-11.3004
eseihinoo	-11.3004
▁Woxu	-11.3005
▁koto	-11.3006
▁noohooto	-11.301
▁niinohk	-11.3012
oobooo	-11.3014
▁Niinei	-11.3016
eeneitoo	-11.3017
iibiino	-11.3019
▁tebe	-11.302
ohuunou	-11.3021
▁hibeete	-11.3022
▁noohowun	-11.3026
outiit	-11.3029
cesisneyei	-11.3031
▁hookoo	-11.3032
▁tohbixoo	-11.3034
itetowuu	-11.3035
oonP	-11.3037
▁cenoot	-11.3041
▁Heetniiteheibe	-11.3048
▁notonihei	-11.3049
onowu	-11.3049
neyeito	-11.3055
▁hiitousinihii	-11.3062
biino	-11.3062
▁nehcih	-11.3063
▁heetniistoot	-11.3067
▁beneebeeto	-11.3068
▁tounoo	-11.3068
▁noonon	-11.3069
▁hootbii	-11.3074
hce	-11.3087
hoene	-11.3089
iteseit	-11.3089
▁Man	-11.309
yeih	-11.3092
iite	-11.3094
▁beneeto	-11.3094
▁kooheih	-11.3095
otoxuuheti	-11.3109
xouuwuseenoo	-11.3115
yooni	-11.3123
▁heetniibii	-11.3128
▁booboo	-11.3132
▁hootni	-11.3135
▁heetniitP	-11.3144
oucoo	-11.3162
▁niitowootowoo	-11.317
tobeenoo	-11.3173
▁Hiih	-11.3178
▁heetniibi	-11.318
iicoocoo	-11.3181
▁heeneicoo	-11.3187
▁noohootoo	-11.3189
▁nihciineno	-11.3193
oowun	-11.3194
uusiii	-11.3194
▁heixo	-11.3195
▁heeneisinihii	-11.3197
▁hihce	-11.3199
at	-11.3201
▁nihyih	-11.3207
beeno	-11.3208
▁niitoyo	-11.3209
▁hoon	-11.3211
▁hiito	-11.3214
oowohou	-11.3216
notiiheihi	-11.3223
▁nihbiinoo	-11.3223
▁nihceece	-11.3224
xoohok	-11.3238
eiheihi	-11.3238
▁nihneeni	-11.3247
▁kooheetcii	-11.3251
eeckoohun	-11.3256
tino	-11.3259
ecootono	-11.326
▁Toonhees	-11.3281
▁keet	-11.3281
noko	-11.3291
biibiineihi	-11.3297
ceikoohut	-11.3298
eihiit	-11.3304
▁heeneesinihii	-11.3304
woku	-11.3305
▁neeneistoot	-11.3309
uten	-11.3309
eihibe	-11.3312
ooniini	-11.3322
tenowuno	-11.3323
▁tohuuneenei	-11.3325
eihoone	-11.3336
teet	-11.3341
ecoohe	-11.3341
tonoti	-11.3346
▁by	-11.3348
eeneiP	-11.3351
▁Sh	-11.3358
eewo	-11.3361
yihkoohunoo	-11.3362
ookP	-11.3367
iinou	-11.3375
hiixoohoo	-11.3391
nd	-11.3398
▁Heetno	-11.3398
▁niiciino	-11.3399
▁toonheetneeneis	-11.34
all	-11.3402
▁niiniiboot	-11.3405
oohobeit	-11.3406
▁Beteen	-11.3411
▁niitehei	-11.3417
▁nebei	-11.3417
ihtoyo	-11.3418
▁heenes	-11.3419
ecoonee	-11.3428
tootonouneihiino	-11.343
ohwooni	-11.3431
siii	-11.3431
▁niinookon	-11.3433
woohok	-11.3433
▁heesii	-11.3433
▁Arapahoe	-11.3442
▁beniiine	-11.3444
▁seesii	-11.3446
niiteheibeti	-11.3455
▁niikoxuuten	-11.3458
▁In	-11.3459
▁Woxhoox	-11.346
ouhu	-11.346
▁as	-11.3464
ebiicis	-11.3472
itootoo	-11.348
▁hiteeh	-11.3483
▁hinowun	-11.3508
oehini	-11.3513
ounoo	-11.3517
eisi	-11.3518
ohwuh	-11.3521
▁Hoownee	-11.3525
▁hoowuh	-11.3528
hoeno	-11.3536
eteinino	-11.3536
▁kooheni	-11.3537
niiniiitowoo	-11.3552
▁nihbeex	-11.3552
▁Cr	-11.3553
etebihoho	-11.3554
eiinoo	-11.3555
Hoonoyoohootowoo	-11.3556
▁seese	-11.3559
towuuneihino	-11.3562
toyoohobei	-11.3568
▁hiinoono	-11.3569
▁kooheetni	-11.3575
ooxoho	-11.3577
otehein	-11.3594
bebiyein	-11.3608
hoonoyoohootowoo	-11.3611
oononox	-11.3614
▁ti	-11.3617
owoono	-11.362
ihoti	-11.3629
hiino	-11.3634
▁hiihoowunee	-11.3645
niihobeit	-11.3648
niistoono	-11.3648
▁hiihoowbeetce	-11.3658
▁hiicetin	-11.3659
ebwo	-11.3667
▁Ciite	-11.367
koohunino	-11.3671
itoxoot	-11.3675
wosoo	-11.3676
nehk	-11.3676
ciineyei	-11.3681
eebi	-11.3681
▁hoyoo	-11.3685
▁Tohuuc	-11.3686
▁tono	-11.3698
▁hoowentoo	-11.3705
toneit	-11.3709
▁heetniisoo	-11.3714
th	-11.3721
tousinihiitoon	-11.3721
ciiyei	-11.3722
iicet	-11.3731
▁behii	-11.3735
xP	-11.3736
▁hiitous	-11.3736
iiniito	-11.3738
inowun	-11.3741
▁Benee	-11.3749
▁hotou	-11.3755
hoowuP	-11.3756
non	-11.3757
▁Toothei	-11.3776
ibei	-11.3777
oteihino	-11.3779
▁ceec	-11.378
▁tohuucih	-11.3783
ciixootee	-11.3789
iixobee	-11.3789
iinoh	-11.3794
wuh	-11.3797
▁heihit	-11.38
hiitono	-11.3804
▁sevent	-11.3806
ihnih	-11.3812
xouuw	-11.3812
▁Toot	-11.3813
▁hiwoxu	-11.3822
eesii	-11.3822
neenentooyeit	-11.3824
▁heetniisi	-11.3826
owou	-11.3831
ihiinoseino	-11.3832
etinee	-11.3833
am	-11.3838
oninee	-11.3845
ting	-11.385
▁nihnohk	-11.3857
onohou	-11.3859
▁nebeh	-11.3864
▁hooweento	-11.3867
uuyoo	-11.3871
nookeihit	-11.3873
uxoheihi	-11.3875
▁heeneinoo	-11.3887
hiteenetiitoonin	-11.3898
oohowoono	-11.3903
▁niibeetoh	-11.391
etni	-11.3912
▁heniine	-11.3915
yeiP	-11.3916
▁niibeetei	-11.3923
▁tohuuh	-11.3927
▁Nonoohootow	-11.393
▁noohoo	-11.3934
▁hiibeex	-11.3936
yeino	-11.3937
eeneiniihi	-11.3937
iisnee	-11.3948
▁heeteihin	-11.3948
exo	-11.3954
▁need	-11.3954
▁heeto	-11.3961
▁heetneene	-11.3962
▁Neihoowno	-11.3964
▁Kooheetni	-11.3967
eiwoot	-11.3982
oonowoo	-11.3983
▁niibiineihi	-11.3983
eentoot	-11.3985
iyohou	-11.3986
▁Hoot	-11.3996
▁hoowoh	-11.3997
toehinoo	-11.3998
einei	-11.4006
▁Heetniihen	-11.4008
iicxooyeihi	-11.4012
wou	-11.4016
ohou	-11.4022
iihei	-11.4025
▁heetniiheneihi	-11.4026
oniino	-11.403
▁bebiisii	-11.4031
woohoniini	-11.4039
niisiine	-11.4039
beeci	-11.4045
eestoonee	-11.4045
▁P	-11.405
▁Gre	-11.4054
eeseet	-11.4062
ihiitoon	-11.4064
neenin	-11.4069
toustoo	-11.407
▁Ca	-11.4073
uxoho	-11.4075
ihnoonoo	-11.4076
▁heneeyeih	-11.4079
ookuunoo	-11.409
eneihiinoo	-11.41
▁koxuuhuunii	-11.4103
heinoo	-11.4111
▁Niicoonbi	-11.4112
ihiinoo	-11.412
isih	-11.4124
iibei	-11.4129
tounoot	-11.4137
itonee	-11.4143
eiyou	-11.4147
▁neihoowce	-11.4149
nonoxoo	-11.4155
cebkoohut	-11.4155
teeko	-11.416
ooko	-11.4169
eeneisii	-11.4172
eihe	-11.4173
▁nihbiineihi	-11.4176
▁Nihbis	-11.4181
▁hohookeen	-11.4183
otou	-11.4187
cihwonP	-11.4191
▁Nihnoo	-11.4196
ooneinoo	-11.4196
▁noosouwoo	-11.4196
eeneixoohootowoo	-11.4202
▁Kooni	-11.4202
▁Hito	-11.4207
eenebeeno	-11.4216
eeneit	-11.4225
niitonoo	-11.4228
▁beexu	-11.4238
▁neetP	-11.4241
▁niiteheiwo	-11.4245
▁tohbee	-11.4252
benei	-11.4254
inouhut	-11.4258
wot	-11.4261
beeP	-11.4279
▁tohuunii	-11.4283
eesiseen	-11.4292
tonounowuno	-11.4294
neeniistii	-11.4298
ake	-11.4311
▁Kooheet	-11.4314
hiixoo	-11.4314
siine	-11.4321
wonei	-11.4322
▁heisonooninoo	-11.4329
iihe	-11.433
teihinoo	-11.433
teesiseenoo	-11.4338
iisiitenei	-11.4346
▁Heihoowu	-11.4358
eboh	-11.4359
▁Hetei	-11.4363
iitonoono	-11.4364
yoohut	-11.4369
nooko	-11.4369
uuso	-11.4373
ihok	-11.4376
▁Mi	-11.4378
ihniitowoo	-11.4378
eiici	-11.4381
eeneestoon	-11.4382
▁notiitii	-11.4383
eeyou	-11.4387
▁Wal	-11.4396
ciite	-11.4396
▁howouunoni	-11.4399
hh	-11.4402
fe	-11.4403
▁tesnohkuseic	-11.4404
etniini	-11.4413
neeneistoo	-11.4415
iikon	-11.4419
notiitii	-11.4423
▁U	-11.4431
iisibinoo	-11.4441
nookeni	-11.4451
▁nowoo	-11.4456
cihwo	-11.4462
inonoono	-11.4462
hiinou	-11.4463
noononox	-11.4467
oowuuP	-11.447
biini	-11.4473
▁tohnih	-11.4473
▁Beehi	-11.4479
oko	-11.448
▁beneetisee	-11.4481
niisinihii	-11.4483
eenetiitoon	-11.4484
oowni	-11.4484
etehk	-11.4494
wuseet	-11.4496
nouuhcehit	-11.4505
ecootiin	-11.4509
yeinino	-11.451
niihobei	-11.4512
ay	-11.4525
notii	-11.4527
ihniitowoot	-11.4528
▁beniiin	-11.4532
▁Honouunee	-11.4544
iiwoot	-11.4551
▁nihniini	-11.456
▁heeneisiiteno	-11.4565
oowuniihkoohu	-11.4567
noohootowunee	-11.4568
eixotii	-11.4569
▁Won	-11.4569
iitenowoo	-11.4577
iiciinee	-11.4578
iisnii	-11.4582
ive	-11.4585
uutooni	-11.4586
biineti	-11.4586
ineeceeniitoonin	-11.4591
niixoo	-11.4591
binoo	-11.4591
oowoton	-11.4607
▁heniin	-11.4608
ent	-11.4614
▁niicee	-11.4621
ary	-11.4622
inihiin	-11.4629
ooono	-11.4629
▁heetniiteheibei	-11.4633
notoonoo	-11.4634
▁neniitone	-11.464
Wo	-11.4641
▁Kee	-11.4642
towuuneih	-11.4643
▁neenebiite	-11.4646
▁Toonheetniis	-11.4649
▁heihi	-11.465
▁tohn	-11.4654
einokoy	-11.4654
oetein	-11.4655
inihiinoo	-11.4659
eiiton	-11.466
▁Hooxo	-11.466
▁hokeciih	-11.4661
lady	-11.4663
usineni	-11.4665
wukoohu	-11.4665
(	-11.4667
esnonee	-11.4669
▁hoonoyoo	-11.4677
▁Nihwo	-11.4678
▁nihbiibii	-11.4679
osoh	-11.4683
ihbiineeno	-11.4686
▁Ma	-11.4688
▁heisiihehin	-11.4688
neetoto	-11.4693
▁touhoo	-11.4694
▁tousoo	-11.4697
iixoohootowoonoo	-11.4698
▁tohc	-11.4699
kohtowu	-11.4699
iitowoono	-11.4703
eenentoono	-11.4704
iteen	-11.4707
▁niiteheibeti	-11.4707
ihiiho	-11.4712
biiseeno	-11.4712
neihiinoo	-11.4712
iinokotiino	-11.4712
'"	-11.4713
isii	-11.4718
▁heebiyoono	-11.4721
▁nouutowu	-11.4722
eetiine	-11.4723
woonei	-11.4724
eneiise	-11.4724
▁beeso	-11.4729
ceecei	-11.4729
▁husein	-11.4735
▁behi	-11.4739
ehibe	-11.474
obei	-11.4741
notiihoo	-11.4746
ononitii	-11.4747
eeneise	-11.4748
raw	-11.4748
▁koonoh	-11.4752
oowusi	-11.4754
rough	-11.4759
niihobeinoo	-11.476
▁Do	-11.4769
biiti	-11.4777
▁nootineihi	-11.4783
eenebeihin	-11.4784
eiheheb	-11.479
▁neihoowooh	-11.479
neetiini	-11.4792
niitowo	-11.4793
heene	-11.4793
ixoho	-11.4796
▁Nihce	-11.4796
iixoxonotii	-11.4802
▁Heeyowuu	-11.4808
ooxo	-11.4811
▁song	-11.4814
oosouwo	-11.4821
ihciinenee	-11.4823
▁niinoonousi	-11.4824
anna	-11.4824
▁Cheyenne	-11.4824
▁Florence	-11.4824
▁Hudson	-11.4824
▁Irvin	-11.4824
▁Paul	-11.4824
▁Snake	-11.4824
▁Yolanda	-11.4824
▁nebetebiheb	-11.4824
▁peace	-11.4824
▁porcupine	-11.4824
▁Porky	-11.4824
▁Wilson	-11.4824
▁family	-11.4824
ihbeeseenet	-11.4824
▁candy	-11.4824
▁museum	-11.4824
▁yesterday	-11.4824
Friday	-11.4825
ietnam	-11.4825
▁Kate	-11.4825
▁Denver	-11.4825
hotiiciih	-11.4825
▁anything	-11.4825
▁nothing	-11.4825
▁Richard	-11.4825
▁hoosoonec	-11.4825
▁Hecesneecee	-11.4825
▁hihkonoot	-11.4825
teeteecibinibiis	-11.4825
ihniisinino	-11.4825
▁pick	-11.4825
▁watch	-11.4825
▁Jake	-11.4825
▁kooxwoow	-11.4825
▁howouunonetiit	-11.4825
▁Neetneihoowooh	-11.4826
▁Black	-11.4826
▁aunt	-11.4826
▁hitihiinin	-11.4827
▁bunch	-11.4827
▁neihoowtonoun	-11.4827
▁niisis	-11.4827
ecouhuu	-11.4827
▁hitookotoo	-11.4827
▁bag	-11.4827
fore	-11.4827
uunesitee	-11.4828
▁hitooxebi	-11.4828
▁hiinikotiitono	-11.4829
▁hitiisiinib	-11.4829
outibe	-11.4829
▁Ceeciis	-11.4831
▁hineiko	-11.4831
▁doing	-11.4831
cooniisei	-11.4831
▁neeceenouwo	-11.4831
▁nootiihoot	-11.4832
onniiteheiwo	-11.4832
▁hicebiis	-11.4832
▁heetohtonoti	-11.4832
iibiici	-11.4833
▁koonootoo	-11.4833
▁beenii	-11.4833
▁heitoustoobe	-11.4833
▁hooweentootiin	-11.4833
iiskoneet	-11.4834
ceese	-11.4834
▁nokokuy	-11.4834
iiheihoowun	-11.4835
▁nesiiseii	-11.4836
▁Bob	-11.4836
beihit	-11.4837
▁Willie	-11.4839
ouhunoo	-11.484
▁wonotonou	-11.4841
▁heetoustoon	-11.4842
▁ready	-11.4845
▁hitonounono	-11.4845
▁censibeit	-11.4845
▁cooxuceneihii	-11.4845
iineineet	-11.4845
▁pray	-11.4846
▁wookeciisoo	-11.4846
▁noxuhu	-11.4847
▁nonouhtiit	-11.4847
oonotohei	-11.4848
▁biibinootino	-11.4848
ounibe	-11.4849
ehiihiiho	-11.4849
▁hitouwunoo	-11.485
iistokohu	-11.4851
▁hiteenetiitono	-11.4853
▁besiiseii	-11.4854
ooxootee	-11.4856
▁cihneesee	-11.4859
▁owl	-11.4859
iisibit	-11.486
oohoohei	-11.4861
▁Ceneeteen	-11.4863
uukoheino	-11.4865
▁tousih	-11.4866
woohuno	-11.4869
▁times	-11.4871
▁heetihkou	-11.4874
▁Hooxei	-11.4876
▁heeteihiibeihii	-11.4876
▁cihbiini	-11.488
▁hiteexokuutoon	-11.4881
▁tohbii	-11.4882
▁Beis	-11.4882
iikoheit	-11.4883
▁noosoubii	-11.4885
▁niisootoxu	-11.4885
ihneeneh	-11.4885
▁Hiiyoo	-11.4887
▁cebiisiit	-11.4891
▁hetneiho	-11.4893
ciiciinii	-11.4895
▁hohookeenit	-11.4895
neniteesoo	-11.4895
el	-11.4896
ta	-11.4896
bebiisnei	-11.4897
▁niisiheihiinoo	-11.4898
iixoohootowoo	-11.4899
▁nihnoohobeti	-11.4901
ecootiininoo	-11.4901
▁mine	-11.4904
▁war	-11.4909
oeseet	-11.4909
▁pro	-11.4914
▁niineniiniicii	-11.4918
▁kookoos	-11.4919
ebkoohut	-11.4927
ibou	-11.4927
▁tohuuneyei	-11.4929
▁kokiyo	-11.4933
noseino	-11.4934
huusoh	-11.4934
▁June	-11.4937
▁cihnoo	-11.4947
ootno	-11.4949
▁niibeexP	-11.4949
▁Nohowoh	-11.4951
eihehih	-11.4955
▁heetneyeih	-11.4955
beniiineniininoo	-11.4959
▁heisiihehinoo	-11.4963
▁heeninouhut	-11.4963
cesistonouno	-11.4964
oyoti	-11.4966
▁niisiiis	-11.4967
isiine	-11.4969
▁toothei	-11.4972
▁heetniisce	-11.4975
itoonetin	-11.4975
▁heetniitoh	-11.4979
oxobeihi	-11.498
▁heetniicih	-11.4983
▁nihbiineinoo	-11.4983
▁neeceeniit	-11.4985
▁beniibi	-11.4992
▁toonnih	-11.4993
noniniixoo	-11.4993
▁Yeiy	-11.4994
▁hiicetino	-11.4994
▁siisoowoono	-11.4994
▁yiihoono	-11.4994
oonoyoohowoo	-11.4995
niiteheibeinoo	-11.4995
om	-11.4999
iitoxcecnibee	-11.5
otiiwo	-11.5
iikoheinoo	-11.5004
sohoen	-11.5004
▁neeciihi	-11.5008
▁nonooke	-11.501
oonoyoohooto	-11.5012
▁Cen	-11.5014
ciiciineneihi	-11.5018
oohobeihiinoo	-11.5019
oonoyoohobeihi	-11.5023
niisootoxu	-11.5023
eikoohuutooni	-11.5025
▁hiwoxhooxebii	-11.5025
▁neniitowootowoo	-11.5026
ound	-11.5027
xou	-11.5028
age	-11.5037
eiyeitini	-11.504
ooheihit	-11.5045
bP	-11.5048
xohoe	-11.5051
hiitei	-11.5052
▁hesiiseii	-11.5052
yooniibi	-11.5062
▁bisiitonei	-11.5064
ihbeesei	-11.5064
▁neniteen	-11.5066
eihoobe	-11.5066
▁Ciibehnih	-11.507
eboowuniihii	-11.5073
▁heestootiini	-11.508
▁hill	-11.5081
oohuutooni	-11.5087
▁toyo	-11.509
▁neisiiho	-11.5092
ehin	-11.5092
otowou	-11.5094
▁ceceecei	-11.5094
uukoheini	-11.5095
eihiitooni	-11.5096
iitse	-11.5098
▁heeneestoonoo	-11.51
▁Miss	-11.5102
wooono	-11.5102
oteihehk	-11.5106
▁nihbiinoot	-11.5108
iitiibi	-11.5109
ohuuwonniit	-11.511
teekuu	-11.5112
ooxuwuh	-11.5116
▁Tohno	-11.5117
▁hokeciihihi	-11.5117
iko	-11.5117
▁neeneistoon	-11.512
ebei	-11.512
ooyeit	-11.5125
▁Biikoo	-11.5127
▁nen	-11.5127
▁{	-11.5128
iisco	-11.5134
ikobee	-11.5135
▁bebiisiini	-11.5142
uukoheinoo	-11.5144
ihbiinee	-11.5144
eyou	-11.5146
eicii	-11.515
outeen	-11.5153
tous	-11.5153
▁noox	-11.5154
kookoh	-11.5161
oohootoo	-11.5164
niiniistii	-11.5165
ihkuutiit	-11.5169
biibii	-11.5173
▁heetcooco	-11.5174
niitonei	-11.5176
▁kooxnih	-11.5176
otoo	-11.5178
totou	-11.5181
oneet	-11.5182
esiwo	-11.5182
neebeteeno	-11.5185
▁niisneyei	-11.5187
iihoono	-11.5187
noononouhti	-11.5188
ootiit	-11.5192
towuunein	-11.5193
ehii	-11.5196
enitoot	-11.5198
▁necii	-11.5199
kuutiino	-11.52
itenowoo	-11.5205
iibetee	-11.5206
owuune	-11.5206
itooneit	-11.5209
niiboohu	-11.5213
▁heesneen	-11.5214
itetow	-11.5223
▁tohuuc	-11.5224
eneetou	-11.5225
▁hoowbii	-11.5225
▁Tohce	-11.5225
eicini	-11.5226
▁ciib	-11.523
iitoonin	-11.5236
oteeyoon	-11.5236
▁toonheetniisiin	-11.524
▁hitii	-11.5244
towuuneeno	-11.5246
▁koowo	-11.5247
▁ke	-11.5247
ceeceno	-11.5253
noti	-11.5254
iinise	-11.5259
ther	-11.526
yooP	-11.5261
▁Go	-11.5266
▁Bebiis	-11.5266
other	-11.527
cihbiineino	-11.5275
ihow	-11.5281
oowno	-11.5289
▁hetou	-11.529
▁Ceb	-11.529
iisko	-11.5296
uxotone	-11.5299
▁Heces	-11.53
oP	-11.5308
ceestoot	-11.531
oxuuhet	-11.5317
▁hoowo	-11.5317
▁niitohcii	-11.5323
eeneesiin	-11.5325
biine	-11.5327
▁nihnoonoh	-11.5328
ceecesis	-11.533
▁Siinih	-11.5333
niiseekuu	-11.5334
ookuuno	-11.5346
iixoxonotiin	-11.5347
ihnoxow	-11.5347
esinihii	-11.5351
▁heenetini	-11.5353
oontooneihi	-11.5356
▁tooniini	-11.5358
▁heesinihiinoo	-11.5359
▁Wonoh	-11.5359
▁heentoon	-11.5362
iitonouno	-11.5365
▁Konou	-11.5366
itiin	-11.5372
▁Hen	-11.5374
eihehinoo	-11.5376
enoot	-11.5376
▁Niic	-11.538
noohobeihi	-11.5384
seeni	-11.5384
oxobeit	-11.5387
▁noohootowu	-11.5388
▁heenetino	-11.5392
ehiihi	-11.5394
▁neniiso	-11.5402
▁Ti	-11.5405
▁xouuwu	-11.5406
benoheihii	-11.5409
soono	-11.541
niiniisi	-11.5413
oowuun	-11.5415
▁Nu	-11.5417
iyein	-11.5422
▁Ann	-11.5424
niiitowoot	-11.5426
▁tonouno	-11.543
nosouneyei	-11.5434
▁Niineyeih	-11.5438
▁neeyeici	-11.5438
etnee	-11.545
iikou	-11.5451
▁niiho	-11.5454
eesee	-11.5455
▁Neneenino	-11.5456
iisiihi	-11.5463
iiyohoote	-11.5466
▁niite	-11.5467
yoti	-11.5476
esowobeihit	-11.5478
eeneestootiini	-11.5479
ihceb	-11.5486
noote	-11.5486
hoe	-11.5488
esise	-11.5489
▁heeneesinihiit	-11.5491
ooxobei	-11.5492
iiyohei	-11.5497
ham	-11.5498
bisiitonoo	-11.55
▁Neyeihe	-11.5503
uwu	-11.5511
▁niibiibii	-11.5514
teneihiinoo	-11.5517
rth	-11.5518
oxtoono	-11.5524
onohowuune	-11.5534
▁r	-11.5535
▁Beetee	-11.5536
enoono	-11.5539
▁heetniistoon	-11.554
▁neeneisiine	-11.5543
▁ses	-11.5544
▁wohno	-11.5545
▁fa	-11.5564
coboono	-11.5567
uheit	-11.5568
▁los	-11.5573
▁Hoonoyoohowun	-11.5579
▁hineyoo	-11.558
hetit	-11.5585
xonoh	-11.5593
▁koocoo	-11.5601
niiteheibeit	-11.5604
▁heeneecxooyeihi	-11.5613
ihtees	-11.562
tonouyooninoo	-11.5622
oowotoneen	-11.5623
iineeneyei	-11.5629
ihkuu	-11.5629
nouuhcehinoo	-11.5631
beenoo	-11.5632
noohobeinoo	-11.5633
nokohunoo	-11.5635
iitiin	-11.5638
ry	-11.5639
ihoho	-11.5639
▁nokoo	-11.5649
touu	-11.565
iitenoo	-11.5651
▁betebiho	-11.5651
tonouneihiino	-11.5654
owohou	-11.5655
▁ceeneeteen	-11.5659
▁Heetnoh	-11.5659
▁tonoun	-11.566
▁neentoot	-11.5662
▁hehniisin	-11.5665
oohobeino	-11.567
▁Biih	-11.5673
ookeihi	-11.5673
yiisiihi	-11.5673
bab	-11.5675
▁heesowobeihi	-11.568
ihbeexo	-11.5684
etiihok	-11.5691
▁niibeetbii	-11.5693
ntoo	-11.5695
ooh	-11.5697
ebnou	-11.5701
▁koociinee	-11.5709
iwoot	-11.5713
iiniiniisih	-11.5715
iicihwon	-11.5715
▁hiitoto	-11.5719
iixokeee	-11.5721
ohkohu	-11.5721
ixoohoo	-11.5724
▁tohuuwo	-11.5733
oxone	-11.5735
▁neeneisih	-11.5742
niitonoot	-11.5748
▁beexou	-11.5749
owoten	-11.5756
tohP	-11.5757
niistoot	-11.5758
▁heeni	-11.5764
tenoot	-11.5767
▁Hisi	-11.5768
ers	-11.5774
oehino	-11.5778
hno	-11.5783
heyoti	-11.5785
ohusee	-11.5786
eesootoxuuni	-11.5787
uusi	-11.5787
xooyeinii	-11.579
ciintoot	-11.579
iinei	-11.5795
▁heetniistiin	-11.5801
cesisiihi	-11.5802
▁Am	-11.5803
ebceb	-11.5804
kookok	-11.5807
ebko	-11.5808
ebiinoo	-11.5812
▁nihcihwon	-11.5812
itooneti	-11.5813
neeyei	-11.5813
▁nihnon	-11.5818
iiteso	-11.5828
teteeso	-11.5833
biihi	-11.5835
▁niitowooto	-11.5835
ihcihP	-11.5841
▁nohkuseiciini	-11.5847
▁tohuubi	-11.5859
▁Nonii	-11.5869
eekuuni	-11.5873
bene	-11.5873
netino	-11.5874
▁niinotonihei	-11.5877
sooku	-11.5878
▁hookonoon	-11.5881
xonou	-11.5882
▁hoonouu	-11.5883
▁ro	-11.5886
wookeciiwo	-11.5891
oowneyei	-11.5894
▁heetb	-11.5898
▁ciino	-11.5908
hniitootoxu	-11.5909
▁hoox	-11.5909
▁heetniisih	-11.5909
▁Heetihcih	-11.5911
eec	-11.5915
utooni	-11.5915
beteentoo	-11.5917
▁heentooni	-11.592
onbeet	-11.592
me	-11.592
▁niiwoh	-11.5925
▁kooxne	-11.5926
esooneenoo	-11.5926
xuut	-11.593
▁tokohu	-11.5931
noniikohoo	-11.5933
▁nebeso	-11.5934
▁hoowouunonee	-11.5941
neetei	-11.5942
▁hetee	-11.5945
▁hehnoon	-11.5946
▁niinoonotton	-11.5947
nouuto	-11.5948
teyoo	-11.5949
tebe	-11.5951
▁Neniis	-11.5952
nowooyeitinoo	-11.5961
beih	-11.5963
xouuwoo	-11.5964
einoowoo	-11.597
oonoyoohobei	-11.597
▁koocii	-11.5973
iicisiini	-11.5973
▁heetceece	-11.5974
▁heetkou	-11.5977
ihcebe	-11.5979
▁hiicoo	-11.5987
nonouhti	-11.5989
▁ceebi	-11.5991
hoonoo	-11.5992
hut	-11.5997
beenoono	-11.6001
wonko	-11.6005
▁Neihoowooh	-11.6006
ooweix	-11.6008
ciibei	-11.6011
eeneiseeneine	-11.6018
▁heetihne	-11.6022
▁tihb	-11.6024
iisee	-11.6025
▁hiihoownii	-11.6028
iyehk	-11.603
▁heitou	-11.6034
oohk	-11.6035
▁howo	-11.6039
▁toonheetniistoo	-11.6042
eeneisinihiit	-11.6047
▁xouu	-11.6053
hinontootiininoo	-11.6057
otowuno	-11.6059
teexokut	-11.6067
kosoo	-11.6067
▁hetic	-11.6069
ouubeti	-11.607
teexouuhu	-11.6078
wonceenoku	-11.6081
▁heetneeni	-11.6081
▁Niibeete	-11.6087
niiseno	-11.6089
▁tihn	-11.6094
iicoot	-11.6097
iitoxuno	-11.6105
ooxohoenihii	-11.6109
ach	-11.6109
oohootowuu	-11.6116
eecxooyeih	-11.6118
etebe	-11.6121
iibis	-11.6123
▁siiyei	-11.613
▁heetbeteee	-11.6131
bebiisP	-11.6137
ihwoohon	-11.6142
bin	-11.6143
iibiineihi	-11.6152
▁new	-11.6154
oownoohoot	-11.6156
▁ceeceibecei	-11.6159
iteneit	-11.6162
▁Henei	-11.6164
ohuno	-11.6166
eeb	-11.6169
cihbiin	-11.6173
oneinee	-11.6178
iitiit	-11.6179
▁Nihcihwon	-11.618
eenesoohowo	-11.618
neeceeni	-11.6181
beseyei	-11.6182
cetenowoo	-11.6183
eeneihit	-11.6183
siiwohei	-11.6194
▁heetnoono	-11.6198
▁Nihceece	-11.6204
wuuni	-11.6208
koocei	-11.6215
neesee	-11.6215
ookuseet	-11.6218
eihP	-11.6219
bisnee	-11.6228
▁Heetwonb	-11.623
niinoono	-11.623
toonP	-11.6234
noononih	-11.6234
▁tohbi	-11.6235
▁Tohnosou	-11.6242
tono	-11.6251
▁hooxohoe	-11.6253
▁hootneenin	-11.626
ext	-11.627
▁heniisiiteno	-11.627
esnoneenoo	-11.6272
▁Don	-11.6276
iinsee	-11.6278
owouunonee	-11.6284
▁ceniinen	-11.6289
▁niitokohu	-11.6293
ouutouu	-11.6293
▁heneeceeno	-11.6301
▁noonoxo	-11.6307
▁nihbeebene	-11.6308
eeneesih	-11.631
neniiwou	-11.6313
noohobetit	-11.6315
tootono	-11.6315
bino	-11.6317
▁heninouhu	-11.6317
koohunee	-11.6323
nouuhcehi	-11.6332
nihiinoo	-11.6337
bebiisiini	-11.6341
ohuseee	-11.6342
eicit	-11.6346
iitenou	-11.6347
iinkoohu	-11.6352
ous	-11.6355
einohwoot	-11.6373
▁sk	-11.638
▁hiicet	-11.6382
heti	-11.6383
ecoobe	-11.6393
niicie	-11.6395
▁noxow	-11.6396
ecii	-11.6399
nihiit	-11.6421
iiceto	-11.6432
eihein	-11.6434
ihkuutii	-11.644
iicihno	-11.6446
esinee	-11.6447
ookuhee	-11.6447
wooneihinoo	-11.6448
▁niiniihen	-11.6454
▁neeneiP	-11.6455
towuuneti	-11.6455
eeneitisee	-11.6457
toyooni	-11.6458
oowuniih	-11.6469
eneit	-11.647
eetebei	-11.6472
▁nihtes	-11.6478
hen	-11.648
ihinee	-11.6481
▁keetni	-11.6481
tox	-11.6485
▁woP	-11.65
rrie	-11.6509
nouxoneti	-11.6509
eiheinoo	-11.6509
xoheiit	-11.651
▁cihbiine	-11.6515
koohehk	-11.6516
▁wootoo	-11.6524
hko	-11.6529
▁hooxeb	-11.6533
▁yo	-11.6536
iinenin	-11.6538
isoo	-11.6546
beseyoot	-11.6547
cesiikohe	-11.6547
▁heihow	-11.6552
ihnosou	-11.6554
ihne	-11.6556
▁heetneen	-11.6557
okoh	-11.6559
cebiseen	-11.656
▁tohbeet	-11.6562
iht	-11.6562
▁heetnottone	-11.6575
▁heetwonbii	-11.658
▁Noosoun	-11.6582
iisnoo	-11.6584
oteese	-11.6586
itoox	-11.6594
isinenoo	-11.6604
▁Nouu	-11.6605
▁henetii	-11.6605
noohowun	-11.6606
uute	-11.6608
▁woxkonee	-11.6613
neni	-11.6622
iitowoo	-11.6623
eetoono	-11.6624
ihkoxo	-11.6627
eneenit	-11.6631
ihnoko	-11.6635
nookeen	-11.6635
unh	-11.6637
niitoh	-11.6639
▁tohnoohowoo	-11.6647
etinoo	-11.6653
▁Woh	-11.6658
▁howoxu	-11.6664
▁heetneihoowun	-11.6666
▁kookooshih	-11.6668
sein	-11.6671
teeseneino	-11.6671
lve	-11.6671
▁heetox	-11.6675
cesistoono	-11.6676
ciixoku	-11.6682
▁heetihcii	-11.6683
biinei	-11.6688
▁heetniine	-11.6692
hiitoonin	-11.6696
nottobeet	-11.67
usetiit	-11.67
neebe	-11.6705
iinoohobee	-11.672
▁teexokuut	-11.6722
etebinouhuunino	-11.6724
niiitowuune	-11.6724
▁nookoo	-11.6725
iteeno	-11.6725
▁hoonoyoohobei	-11.673
▁ceeceb	-11.6732
▁ga	-11.6737
enow	-11.6738
eiis	-11.675
ibeet	-11.675
yeinou	-11.6757
iitoonootii	-11.6763
owohoeno	-11.6771
▁Cebe	-11.6774
oohootowuno	-11.6777
yeinoo	-11.6779
▁nihne	-11.678
eii	-11.6782
niiteheibeino	-11.6784
▁heetnosou	-11.6785
ihnottone	-11.6796
▁heetniiwoo	-11.68
iicoon	-11.6807
▁keini	-11.6811
ihoow	-11.6811
▁tes	-11.6812
noobe	-11.6815
▁heetnoonoxon	-11.6816
niiso	-11.6823
xuh	-11.6829
neec	-11.6833
iihoho	-11.684
▁niitooto	-11.6841
iniisih	-11.6844
▁koko	-11.6847
niiheneihi	-11.6849
ihciniih	-11.6849
▁Ye	-11.6851
oteinee	-11.6854
isetii	-11.6858
isoho	-11.6859
hiiwoon	-11.6861
ihein	-11.6861
oowotoot	-11.6862
iinikotiiho	-11.6867
otoxu	-11.6867
uhcehih	-11.6872
uukohe	-11.6878
iihee	-11.6879
iseihinoo	-11.6895
eneesP	-11.6896
ouse	-11.6899
tonin	-11.6901
▁siineihoowu	-11.6901
iincitii	-11.6915
notiitiit	-11.6917
esoohooto	-11.6922
coocowo	-11.6924
▁konoh	-11.6927
ihcihnoono	-11.6929
▁neesootox	-11.6934
obeihino	-11.6938
xouti	-11.694
▁hineeceew	-11.6946
onkuutii	-11.6947
▁Niibei	-11.6947
iisihoot	-11.6953
oebiibii	-11.6954
kon	-11.6957
▁niinosou	-11.6959
woxhoox	-11.6964
nowoono	-11.6971
iitoono	-11.6974
eeyeinoo	-11.6974
eentooni	-11.6975
▁tooncen	-11.6983
▁hiibineen	-11.6984
esoohowo	-11.699
eiisinen	-11.6997
iheihiinoo	-11.7003
ose	-11.7003
exou	-11.7013
ciit	-11.7015
▁tooth	-11.7019
eeneicoo	-11.7026
ouhuu	-11.7026
iisib	-11.7029
utiino	-11.7032
iwohoe	-11.7033
cihco	-11.7034
ebneyei	-11.7035
▁Hoonoo	-11.7035
ineet	-11.7038
cooP	-11.704
noni	-11.7041
cobooni	-11.7043
▁heetihniini	-11.7045
ookuhe	-11.7047
▁heeciscii	-11.7055
hiin	-11.7063
▁hooxebi	-11.7074
otiitiit	-11.7081
▁Hite	-11.7082
wP	-11.7084
iiwon	-11.709
iseen	-11.7093
▁hihc	-11.7097
niihencebkoohu	-11.7099
oxP	-11.71
▁tootonoun	-11.71
iicowoo	-11.7105
inoohoo	-11.7107
howou	-11.7107
wonceitoono	-11.711
eiheti	-11.7124
wuunoot	-11.7125
iiwoowo	-11.7128
▁niitbii	-11.7128
ihciino	-11.7135
Neisii	-11.7142
▁tihnihi	-11.7142
biinoo	-11.7144
▁heetbiibi	-11.7149
▁heetxouube	-11.7151
oniinoo	-11.7151
biistiin	-11.7155
wox	-11.7155
woncebiihinee	-11.7159
▁car	-11.7162
cebenowuun	-11.7162
ookohuus	-11.7162
▁nonouhti	-11.717
tecinihii	-11.717
M	-11.7172
day	-11.7173
▁Heetec	-11.7177
morning	-11.7177
neetonee	-11.7181
niisihoot	-11.7183
▁neeneiseenetin	-11.7186
ten	-11.7186
put	-11.7186
oniine	-11.7189
ack	-11.7198
iisinihiin	-11.7202
▁Beex	-11.7207
eeneisbii	-11.7208
▁heetceb	-11.721
osohoe	-11.7215
ebiseet	-11.7219
nees	-11.722
ana	-11.722
▁sitee	-11.722
ixoheihi	-11.7225
niiniiboohu	-11.7225
beetoh	-11.7226
heetce	-11.7227
eisei	-11.7232
ihehk	-11.7232
bisiini	-11.7234
iheibe	-11.7244
▁kohye	-11.7254
▁bebiiskoko	-11.7255
otoxuuni	-11.7255
▁beteetoxu	-11.7256
▁hicoo	-11.7263
ecooho	-11.7263
niiwo	-11.7268
neehohook	-11.7268
eenebeihit	-11.7269
▁bet	-11.7274
iisiisii	-11.7282
ihyihkoohuno	-11.7282
▁hotootou	-11.7283
▁noosouni	-11.7284
▁tohnoo	-11.7291
yooniini	-11.7291
▁noosouneyei	-11.7292
▁hooxoe	-11.7295
▁henP	-11.7299
▁heiteyoo	-11.7302
uhcehino	-11.7306
▁bebi	-11.7311
▁heetbeebee	-11.7312
▁sister	-11.7313
▁tribe	-11.7316
▁South	-11.7319
hoowuuni	-11.732
▁Dick	-11.7321
▁number	-11.7323
▁heetohco	-11.7324
▁real	-11.7324
▁thing	-11.7324
▁Blandy	-11.7324
▁California	-11.7324
▁Clifford	-11.7324
▁Jericho	-11.7324
▁Jordan	-11.7324
▁Katherine	-11.7324
▁Ranch	-11.7324
▁class	-11.7324
▁kidney	-11.7324
▁kookiyon	-11.7324
▁yeiyonoxuusii	-11.7324
▁mouth	-11.7324
yeihowoonooxebii	-11.7324
▁Redman	-11.7324
lives	-11.7325
▁Siisiiko	-11.7325
▁kokteeneih	-11.7325
▁cebtokoy	-11.7325
▁weekend	-11.7325
▁drum	-11.7325
▁Rock	-11.7325
areth	-11.7325
▁Hawaii	-11.7325
▁salad	-11.7325
▁Hardin	-11.7325
▁Neecisee	-11.7325
▁Willy	-11.7325
▁river	-11.7325
▁Neesootox	-11.7325
lbert	-11.7325
▁cloud	-11.7325
▁Deer	-11.7325
▁beteenbiitei	-11.7325
▁Ceeneeteeyoo	-11.7325
▁What	-11.7325
▁where	-11.7325
▁Ducky	-11.7325
▁neeceeniiinon	-11.7325
▁chair	-11.7325
▁Biixuut	-11.7325
▁sweet	-11.7325
▁fall	-11.7325
▁kohtowu	-11.7325
▁houunohwoot	-11.7325
▁hitesiiteen	-11.7326
▁Isa	-11.7326
▁Siiwootii	-11.7326
▁camp	-11.7326
▁Ciintoo	-11.7326
▁forgot	-11.7326
▁Battle	-11.7327
phone	-11.7327
▁green	-11.7327
beeteyook	-11.7327
owoukuutiinoo	-11.7327
▁even	-11.7327
▁Teetee	-11.7327
▁coming	-11.7327
▁hesnoot	-11.7327
oonou	-11.7328
▁hoseihiinoot	-11.7328
▁hihteexokuuton	-11.7328
thete	-11.7329
ehibeihiiho	-11.7329
etouuse	-11.7329
▁heetniitohbii	-11.7329
▁woteiheihii	-11.7329
▁Noxuhu	-11.7329
▁Mill	-11.7329
▁thinking	-11.7329
▁nootineehisei	-11.7329
▁months	-11.7329
▁cechou	-11.733
cesisihcehit	-11.733
▁Hmm	-11.733
eesiihi	-11.733
▁heibeneet	-11.733
xootowoot	-11.7331
▁toonbeneet	-11.7331
▁niiwookusee	-11.7331
▁Bull	-11.7332
▁high	-11.7332
▁hiihoowbebiis	-11.7332
▁run	-11.7333
▁hoowuniihiiteen	-11.7333
▁ciibehyihoo	-11.7333
▁hiteixooninoo	-11.7333
ebiinkoohu	-11.7333
ihtonot	-11.7333
ceibihcehit	-11.7334
▁hoonoyoohowunee	-11.7334
▁hiniinooxoo	-11.7335
oeneetowuu	-11.7336
inoneinoni	-11.7336
▁look	-11.7336
▁sisters	-11.7336
▁tribes	-11.7336
▁nihciino	-11.7338
▁hookecouhu	-11.7338
▁Rose	-11.7338
▁neeceenohoeno	-11.7339
▁heetwonkooko	-11.7339
▁heetniibeinee	-11.7339
otoowoot	-11.7339
▁niinohkuseic	-11.7339
lders	-11.7341
▁cetoun	-11.7341
▁Noosouneyei	-11.7342
▁beyoowu	-11.7343
▁niibiinoonee	-11.7343
▁nooxowuuni	-11.7343
▁heetniitoo	-11.7344
▁yookox	-11.7344
▁neihoowbise	-11.7345
▁hinooox	-11.7345
▁hitenowu	-11.7346
▁heetniitobeet	-11.7346
▁niihoowuh	-11.7346
onookuseet	-11.7346
▁ceebiseet	-11.7346
▁hihtousinihii	-11.7346
▁tekoonineihii	-11.7346
enetii	-11.7346
beesiseinoo	-11.735
niih	-11.7351
▁Heetnehnee	-11.7351
▁deer	-11.7351
ouuteenebeti	-11.7351
▁heetnehce	-11.7353
▁tohneenini	-11.7353
oowuhcehit	-11.7353
▁heetyii	-11.7355
▁hetiicooo	-11.7355
▁hootoohoe	-11.7356
▁leg	-11.7357
▁nihbeexo	-11.7357
uhceh	-11.7358
▁niibenenoo	-11.7358
hiiko	-11.7358
▁fift	-11.7359
▁beeteeenoo	-11.7359
▁horses	-11.7359
▁Wookecii	-11.736
▁heisiihe	-11.736
▁heihoowbeet	-11.7361
wottonouhut	-11.7367
▁any	-11.7368
▁keep	-11.7368
ooxeihino	-11.7368
ohuseeenoo	-11.7368
▁hiteehinoo	-11.7368
▁hookonoonii	-11.7369
iitbisiitoo	-11.7369
▁tohuubeebeteee	-11.737
noohootow	-11.737
▁Bill	-11.7371
▁Ceneece	-11.7371
eecikoohut	-11.7372
einoonesei	-11.7372
▁woman	-11.7372
oowotonoot	-11.7374
▁neteneyooo	-11.7374
oxobeinoo	-11.7375
▁hetcihce	-11.7376
▁hooxuwuut	-11.7377
niiseihini	-11.7377
▁Hohootno	-11.7378
scar	-11.7378
iistoonooni	-11.7379
oexootonee	-11.738
▁Pow	-11.738
nowoot	-11.7381
▁heetniinee	-11.7381
▁nihnohkuuni	-11.7382
okecouhu	-11.7382
▁nihnottoneinoo	-11.7383
ihkohtowu	-11.7383
etiiwoohut	-11.7385
nooxeihohk	-11.7387
rica	-11.7387
▁ciicii	-11.7388
▁neihoowni	-11.7388
ihciinoohobee	-11.7389
▁Beeheeteihin	-11.7391
eihehiininoo	-11.7391
▁Hoonoyoohobe	-11.7392
▁heetneenin	-11.7393
▁Beth	-11.7393
▁ceebiseenoo	-11.7394
▁hiinixo	-11.7395
▁hitooxu	-11.7397
vel	-11.7397
ookuutowoo	-11.7397
▁biixuutono	-11.7397
lement	-11.7398
▁ciinouutono	-11.7398
xouuwuh	-11.7399
▁niihooyoo	-11.7399
▁Heihoowun	-11.7399
▁niinoko	-11.74
▁heetneeneistoo	-11.7402
uxowoo	-11.7404
nihP	-11.7406
▁nonoohootowoo	-11.7407
ceestowoo	-11.7409
▁Yih	-11.7409
neneeninee	-11.7409
▁Bebii	-11.741
woneeneti	-11.741
oeniiniibei	-11.7411
ooneino	-11.7411
▁heniiyoo	-11.7412
biicitiit	-11.7412
kohyeibi	-11.7413
eboowuniihi	-11.7417
▁koociiP	-11.7419
ihiiniibei	-11.7419
▁ceixotii	-11.7419
oowuniihiseet	-11.7428
cial	-11.743
sinenoo	-11.7431
▁Bexo	-11.7434
cihnoh	-11.7434
eihohow	-11.7434
▁heetcebi	-11.7436
▁Heetnosou	-11.7437
ookuuhei	-11.744
teeneihini	-11.7441
cebiihinee	-11.7442
eseihino	-11.7442
▁heebehcee	-11.7442
▁heebehbii	-11.7443
niitobeet	-11.7443
koyootee	-11.7444
ebnoohobee	-11.7445
▁niicesistoo	-11.7445
oobeibe	-11.7446
▁heart	-11.7449
▁nihniiwoot	-11.7449
etebinouhuuni	-11.7449
kouhuyoo	-11.7449
▁tohuub	-11.7449
ihnouxonee	-11.7451
isiwo	-11.7451
eetoxuno	-11.7452
iiscebii	-11.7453
▁hehiisetii	-11.7454
▁touwo	-11.7456
oohooteebe	-11.7457
▁teneexoku	-11.7457
▁heeyowuusiini	-11.7457
▁toonouneihiino	-11.7461
oneentoo	-11.7464
nookeeno	-11.7466
▁part	-11.7467
eexu	-11.7469
einotiiwo	-11.747
beekoohut	-11.7471
woxtootino	-11.7471
alt	-11.7473
neesP	-11.7473
bebiisneen	-11.7473
▁heeneisiin	-11.7474
▁nihniitonoot	-11.7476
inihiihok	-11.7477
uunisee	-11.7477
▁neniitouuhut	-11.7478
ouyeitinee	-11.7479
▁niiwohoeno	-11.748
woone	-11.748
neehoonoxon	-11.7481
ouubeihiitoon	-11.7481
▁book	-11.7481
ceeh	-11.7482
ceiteehiiho	-11.7484
▁tihnii	-11.7485
▁nihtootonouno	-11.7485
▁hands	-11.7487
oeseenoo	-11.7488
ihtokohu	-11.7488
▁hiihoowbeetP	-11.7488
ally	-11.7489
▁Heetniihe	-11.749
esinihiit	-11.7491
umble	-11.7493
niiniistoo	-11.7494
▁heesowobeihit	-11.7495
▁Nene	-11.7495
▁niiniitobee	-11.7495
ocoono	-11.7495
neeceebin	-11.7496
▁niiwoniini	-11.7499
itouhu	-11.7502
inootit	-11.7503
▁Na	-11.7503
▁heetneesiini	-11.7504
▁Mon	-11.7505
owoon	-11.7509
▁bird	-11.7509
▁cihciitei	-11.7511
▁keetcii	-11.7513
▁heetihno	-11.7514
iiciiskoohu	-11.7519
ebciiteinoo	-11.7523
eixohei	-11.7527
▁niiteheibi	-11.753
▁ciixootee	-11.7532
▁yeini	-11.7533
▁wonbii	-11.7533
ebwoteikuuton	-11.7534
▁nihbisno	-11.7537
ceeceitooneti	-11.7538
▁niineeni	-11.7538
▁nihciicih	-11.7541
▁heeneistoo	-11.7542
eecxooyei	-11.7545
tnei	-11.7548
▁nokohu	-11.7548
▁heeneineniteeno	-11.7548
niisneniino	-11.7549
▁nottonin	-11.7552
▁store	-11.7552
▁niibeeteeneis	-11.7552
▁heneinee	-11.7554
▁heebehciini	-11.7554
▁cihco	-11.7558
▁hiiskoh	-11.7559
▁Heihoowuu	-11.756
iinokooyei	-11.7566
▁Kei	-11.7568
▁Kookoh	-11.757
ciisisee	-11.7571
▁nihcihbis	-11.7571
neeheyeisee	-11.7571
eteno	-11.7574
▁tootP	-11.7575
▁hentooni	-11.7576
▁siin	-11.7576
nosouneene	-11.7576
ss	-11.7577
▁niitnihii	-11.7577
eesiseet	-11.7578
▁wood	-11.7579
nonsoo	-11.758
uheiit	-11.7581
▁Biitei	-11.7585
▁Noosouni	-11.7587
eeneitenowoo	-11.7591
ousein	-11.7592
▁ceib	-11.7592
tohuu	-11.7593
▁niihencebkoohut	-11.7595
▁nihbee	-11.7596
beihi	-11.7596
▁heeckoohu	-11.7597
▁hoohookeenit	-11.7598
eixooni	-11.7599
▁clo	-11.76
tootoustoo	-11.7602
▁Hookeciihihi	-11.7604
▁cebiis	-11.7605
ouyeitit	-11.7606
uxoyoo	-11.7606
▁hibesiibeh	-11.7609
▁heetciini	-11.7611
uuwuut	-11.7612
yeihii	-11.7612
toxuuni	-11.7617
useebe	-11.7617
▁tonoo	-11.762
▁hibiixuutoonin	-11.7623
▁cenei	-11.7623
▁Niiinon	-11.7624
owouunonoo	-11.7625
▁Niiniisi	-11.7626
▁cenihno	-11.7628
unow	-11.7628
iitoxP	-11.7632
▁Jun	-11.7633
▁heinooninoo	-11.7636
iiniihen	-11.7636
niino	-11.7642
niiwookuxone	-11.7643
owouunon	-11.7647
▁heetniixoxo	-11.7649
xouubeihi	-11.7651
▁Woteiheihii	-11.7652
ciineneit	-11.7655
iistoohok	-11.7655
oeheb	-11.7657
niibooto	-11.7659
▁Heih	-11.7662
einenno	-11.7664
▁nonoohowoono	-11.7666
▁Iva	-11.7671
▁hinowou	-11.7677
iistoono	-11.7679
▁hokooxun	-11.7682
ets	-11.7682
ohnooone	-11.7683
▁heetniistoonoo	-11.7685
esinihiitoon	-11.7687
Ne	-11.7688
▁neniisei	-11.769
▁noohobe	-11.7691
▁ceitii	-11.7692
bisce	-11.7698
▁Cenee	-11.7698
isiitenou	-11.7699
iitoxuni	-11.7699
▁niicihno	-11.77
teebit	-11.7707
bisisee	-11.7713
ebceno	-11.7713
ihkoh	-11.7714
▁Wotnih	-11.7719
oeh	-11.7727
▁heetniisiitenow	-11.7727
▁hoowuce	-11.7728
▁ciineno	-11.7732
ebeet	-11.7732
▁nebe	-11.7734
eenetisi	-11.7736
▁tootheet	-11.7737
os	-11.7741
▁heetbeesoo	-11.7745
▁biixooto	-11.7746
iitiinoo	-11.775
▁cenoho	-11.7751
ihbeexookeen	-11.7752
etiitou	-11.7753
eisoono	-11.7753
▁hou	-11.7754
ookutiino	-11.7758
ookooneyei	-11.7759
▁nihniitowoo	-11.7768
eesno	-11.7771
iitoon	-11.7771
▁hiixoxo	-11.7772
▁Heene	-11.7772
▁Heso	-11.7774
▁hoteine	-11.7777
▁heetciino	-11.7779
yeh	-11.7779
oowuuteneihiinoo	-11.7784
▁heetonoti	-11.7786
woohuutooni	-11.7786
▁nihbeebee	-11.7793
▁wooxutoo	-11.7794
bebii	-11.7798
▁konoutoo	-11.7805
teenotoyo	-11.7806
ikoo	-11.7807
▁nihciini	-11.7807
▁Honoo	-11.7813
toyeinousi	-11.7817
iscoo	-11.7817
ihoowu	-11.7817
ootowuni	-11.7822
cihwon	-11.7822
eeneteini	-11.7823
niistone	-11.7828
▁heetbeh	-11.7838
▁heetceecei	-11.7842
▁hitesiin	-11.7842
etwoniinikotiino	-11.7842
iitowunee	-11.7845
iisni	-11.7846
ounino	-11.7848
▁hoononee	-11.7849
oocou	-11.7854
▁Nihnookon	-11.7858
esiikoohut	-11.7864
▁Neihoowuuni	-11.7865
eiyeihiiho	-11.7875
▁neneetii	-11.7879
▁seh	-11.788
ibeihit	-11.7881
neeceenit	-11.7891
tesnohkuseiciini	-11.7891
▁ceitoo	-11.7893
▁hitesii	-11.7893
oxoeni	-11.7894
▁nihcowoo	-11.7897
sinoo	-11.7897
▁hetneyei	-11.7904
teenboo	-11.7906
noxoonoo	-11.7907
wuni	-11.7907
henP	-11.791
eto	-11.791
▁Sp	-11.7912
ehiitoon	-11.7917
▁nookeciihihi	-11.7917
hk	-11.7919
ohookeen	-11.7921
cihbisiitonei	-11.7922
▁teiitoonii	-11.7923
▁Neniiheneihin	-11.7924
▁try	-11.7924
▁Beebe	-11.793
▁hetcihno	-11.793
▁Heetniice	-11.7939
▁Neyeih	-11.7945
▁heetniih	-11.7948
niico	-11.7951
▁hehniis	-11.7953
nowuno	-11.7954
hite	-11.7955
eewoot	-11.7958
iikoxo	-11.7961
ouuhu	-11.7964
▁Cebiihin	-11.7968
ohwoono	-11.7969
xuu	-11.7972
▁Hiihoowuh	-11.7975
▁Wotne	-11.7976
iisniistii	-11.7982
ukoohut	-11.7986
neeso	-11.799
▁nihbisP	-11.7991
usein	-11.7993
▁heetbeeto	-11.7995
unoot	-11.7999
niiitowoonoo	-11.7999
oxowoot	-11.8004
▁hetneh	-11.801
owuuci	-11.8013
ouubeihi	-11.8014
onsee	-11.8017
noohobein	-11.8019
touse	-11.8021
▁hotiiw	-11.8021
▁toonniit	-11.8022
itooninee	-11.8022
gas	-11.803
▁biseene	-11.8031
eeneiseineebeit	-11.8033
▁hitook	-11.8033
coonite	-11.8034
▁hote	-11.8034
ukoo	-11.8036
koy	-11.804
wooP	-11.8041
▁wohoono	-11.8043
yihxohe	-11.8045
▁notiih	-11.8046
▁tohbe	-11.8047
▁Hetneihoow	-11.8049
nehyonihe	-11.805
▁niibeebii	-11.8053
cebiiheti	-11.8057
▁cou	-11.8067
▁beexuni	-11.8069
nook	-11.807
▁Jo	-11.8073
eibit	-11.8073
esiine	-11.8079
esoohowu	-11.8086
tiihok	-11.8089
▁heecetino	-11.8091
▁neneeti	-11.8093
ceib	-11.8096
cihniiteheibin	-11.8098
▁heihooweet	-11.81
now	-11.8101
einii	-11.8102
▁nihciin	-11.8105
▁hookohuus	-11.8106
▁heetniihen	-11.8107
onto	-11.8107
▁hiteino	-11.8116
woteekoohuno	-11.8117
▁siinee	-11.8118
iiscee	-11.8122
▁Hoowusee	-11.8124
tenowunee	-11.8126
▁noosouneento	-11.8127
eenebi	-11.8127
coon	-11.8135
▁heihwon	-11.8143
benii	-11.8146
ebeeti	-11.815
▁kookouniisou	-11.8151
▁Beneet	-11.8156
▁nihb	-11.8157
noonotnoo	-11.8157
▁woox	-11.8166
cebiseeno	-11.8172
▁cebiseet	-11.8172
xoneenoo	-11.8177
otiini	-11.8177
eitisi	-11.818
▁hoowni	-11.8181
▁heebehn	-11.8183
teesi	-11.8183
nookuce	-11.819
▁heesoohowo	-11.819
▁nihnei	-11.8193
oenoo	-11.8195
noho	-11.82
▁wuh	-11.82
▁woniseineehiis	-11.8204
nottoneit	-11.8205
beteenitoono	-11.8208
bisihcehi	-11.8209
▁Ceen	-11.821
eibeti	-11.8211
eiheit	-11.8214
hokooxuuniiciihe	-11.8215
▁niitne	-11.8215
oosoo	-11.8221
▁Noohoot	-11.8224
▁toonne	-11.8228
▁tohuubiinoo	-11.8232
uyoono	-11.8241
etiiwo	-11.8253
▁See	-11.8255
teeP	-11.8256
▁Heetcih	-11.8257
▁hoonoyoohobe	-11.8257
ast	-11.8258
eninee	-11.826
▁hoowuciis	-11.827
iisiiniihi	-11.8274
cebixotiino	-11.8276
▁Hino	-11.8279
ment	-11.8279
nootoonootowoo	-11.8282
▁heetniibis	-11.8297
noonokohu	-11.8301
coonoo	-11.8302
ceecesistoo	-11.8304
▁Kooheih	-11.8308
▁notikoniihii	-11.8309
iiniiboohu	-11.8309
▁heetyoohu	-11.8309
oohu	-11.8318
▁su	-11.8319
eiciibeee	-11.832
eesniiteheiwo	-11.8322
▁Betee	-11.8324
ooxuunone	-11.8325
eseih	-11.8328
▁toonheeso	-11.8328
noohowu	-11.8328
ooteihit	-11.833
▁tohbeh	-11.8334
ge	-11.8335
▁hisio	-11.8336
niiboo	-11.8337
▁niihencebkoohuu	-11.8338
oohootowu	-11.8342
▁hinoohowo	-11.8343
af	-11.8349
▁heetihneeni	-11.835
iniibei	-11.8352
oowoono	-11.8355
▁nihneenei	-11.8366
cebiihee	-11.8366
▁Nihto	-11.8367
▁hitou	-11.8368
seiht	-11.837
hoowP	-11.8378
▁heetcihwon	-11.8379
iiyihoo	-11.8381
oseino	-11.8389
wn	-11.8394
ibinoo	-11.8398
nohku	-11.84
enowuno	-11.8401
usibetin	-11.8402
nouut	-11.8403
uxootonoo	-11.8404
▁hecesii	-11.8404
eeckoohuni	-11.8405
isp	-11.8412
▁niitobe	-11.8413
▁nihcebii	-11.8414
▁toonheentoo	-11.8416
llow	-11.8419
bixooto	-11.8423
eteinit	-11.8424
▁betii	-11.8424
neciini	-11.8425
▁nihkookou	-11.8428
▁heetniiwon	-11.8434
oekuun	-11.8437
▁hootwo	-11.8444
▁woxuusoo	-11.8446
wooto	-11.8446
biso	-11.8447
hihnestoobeihiit	-11.8447
▁tohuubeetn	-11.8456
▁Heibeex	-11.8456
▁heetohni	-11.8461
oowuP	-11.8464
eentoonoo	-11.8466
woohoniseeno	-11.8468
▁toonho	-11.8469
beibe	-11.8471
ciinenetino	-11.8471
sinen	-11.8471
einok	-11.8472
oowotone	-11.8478
enowunee	-11.8479
ookoote	-11.848
▁neetneihoowoohn	-11.8488
▁nohko	-11.8492
eeneistoono	-11.8497
oenii	-11.8504
obetiitooni	-11.8512
ouuto	-11.8514
▁beebeteen	-11.8515
esoohootowoo	-11.8516
▁Toonheetniisiin	-11.8517
eecxootee	-11.8522
woteihei	-11.8528
eixowoo	-11.8531
▁neetneihoowu	-11.8531
▁mea	-11.8533
▁heetihc	-11.8536
oese	-11.8538
▁ciite	-11.8538
onih	-11.8541
iitow	-11.8546
▁niibiinoo	-11.8547
oniit	-11.855
kooneno	-11.8551
noohootowuu	-11.8551
onohow	-11.8555
ceecensi	-11.8555
▁wothe	-11.8556
▁heetniino	-11.8561
▁heetnooxuu	-11.8562
exootii	-11.8563
eiin	-11.8565
inowou	-11.8575
okuut	-11.8576
besiibeh	-11.8577
▁Heetee	-11.8581
iicebiihinee	-11.8585
noonottoneihi	-11.8595
▁Ro	-11.8598
▁hiihoowuun	-11.8604
▁hoteisoon	-11.8605
ooxuuce	-11.8613
tokooxuu	-11.8614
einokut	-11.8618
noxowu	-11.8621
ottoneihit	-11.8624
etiihiiho	-11.8633
▁heetihbebiis	-11.8634
cesisniisi	-11.8638
noonottone	-11.8642
owoku	-11.8648
nootineihino	-11.8653
iisiin	-11.8653
eyoti	-11.8657
ciiten	-11.8657
iiceece	-11.8657
oowkou	-11.8666
▁noosounih	-11.8667
▁heetihnii	-11.8672
'{	-11.8673
towouuyoo	-11.8673
etebinouhuuninoo	-11.868
iisciitei	-11.8682
▁fr	-11.8683
▁heetniito	-11.8688
xko	-11.8693
eenesoohobe	-11.8702
beetnee	-11.8708
▁Heetou	-11.871
toneihit	-11.8719
neniisibei	-11.8719
▁toonheeneis	-11.8723
hciixootee	-11.8729
towuunoti	-11.8735
notiton	-11.8735
▁hotoonoo	-11.8736
yiisiikohei	-11.8742
koxuuteniini	-11.8744
iistiit	-11.8747
oteiniicii	-11.8747
▁niisinihiit	-11.8748
inoon	-11.8754
▁woxtoot	-11.8757
oneihit	-11.8762
▁tohuuciini	-11.8763
ikuutiit	-11.8765
▁niinoonousineno	-11.877
▁hotooo	-11.8771
obeet	-11.8774
▁bete	-11.8776
xohe	-11.8777
ihtebe	-11.8779
oowot	-11.8782
▁coocoboo	-11.8783
xoonoo	-11.8784
eenetiitooninoo	-11.8788
▁Ru	-11.8788
▁noohowoot	-11.8788
ohw	-11.8803
beteeet	-11.8803
eeneistoonoo	-11.8805
▁seven	-11.8806
▁hiiyohoote	-11.8814
ac	-11.8815
cebih	-11.8818
eeneisiheihi	-11.8826
▁nihbe	-11.8835
▁Niibeetc	-11.8838
oubee	-11.8839
wonben	-11.8841
▁Heetniisn	-11.8841
▁niitowo	-11.8842
kooti	-11.8843
▁toonheeneestoo	-11.8849
betino	-11.8849
▁honoono	-11.885
kuuto	-11.8851
▁tootous	-11.8858
▁Noon	-11.8862
▁nihkoh	-11.8863
ciiteini	-11.8866
▁beneebe	-11.8869
per	-11.8874
▁nonoohobei	-11.8888
▁Heetniinoo	-11.8891
▁toonn	-11.8892
iitneeneyei	-11.8896
hisei	-11.8907
beino	-11.8908
woteikuutono	-11.8911
yihxohu	-11.8915
eeneeP	-11.8916
teixo	-11.8918
ihniis	-11.8921
noonoohootowoo	-11.8922
▁ceebii	-11.8923
iitohno	-11.8925
▁Siihe	-11.8926
▁heentoono	-11.8927
okeciihih	-11.8928
▁HeeP	-11.8931
▁Heetihni	-11.8934
▁niiniini	-11.8938
ootone	-11.8947
iisiseet	-11.8949
kuyon	-11.895
kohou	-11.8951
▁tohuubeebetooo	-11.8951
ehiht	-11.8958
▁tihwo	-11.8961
ebiyihoo	-11.8961
ouutowoo	-11.8962
noohootowu	-11.8971
Heetneeckoohunoo	-11.8971
eecxooyeihinoo	-11.8982
▁tohuuko	-11.8984
▁hibetee	-11.8987
eetoxe	-11.8989
biiwoohunoo	-11.899
▁neisiih	-11.899
▁noonowoo	-11.8993
ihcebi	-11.8993
towootowun	-11.8993
ciibeet	-11.9002
ish	-11.9009
▁Biibi	-11.9011
oube	-11.9016
noonoohoo	-11.9017
▁nihtoun	-11.9021
iitonouneihiino	-11.9022
oonobee	-11.9027
▁toonheetne	-11.9029
cesisih	-11.9029
nousinenoo	-11.9032
▁eye	-11.9032
teihini	-11.9034
neniteenino	-11.9034
▁noonoohoo	-11.9035
▁niibiino	-11.9039
▁touhoon	-11.9039
iixoneihi	-11.9044
▁xonouuwu	-11.9046
▁heeskonee	-11.9047
oteihii	-11.9048
hiseibiixuut	-11.9051
etno	-11.9056
noonottoneinoo	-11.9056
oneiitooninoo	-11.9058
▁ceeyow	-11.9066
uxoton	-11.9075
yiisiikoheinoo	-11.9076
▁niiheneihin	-11.9079
▁niinoonon	-11.9087
▁noosouhe	-11.9088
cihnohk	-11.9092
▁Koko	-11.9092
wonotoonoo	-11.9093
iitnokooyei	-11.9095
▁kooxh	-11.91
▁heetniisinihiin	-11.9102
iisiitenowuu	-11.9106
ings	-11.9107
eihcehi	-11.911
behP	-11.9122
iib	-11.9123
nestoonoo	-11.9124
eehehk	-11.9126
beetneyei	-11.9128
▁hiteno	-11.9129
iitbii	-11.913
iitiseenoo	-11.9134
eeneeckoohu	-11.9136
rose	-11.9141
iwouh	-11.9142
teihi	-11.9144
woteekoohu	-11.9147
ihsehce	-11.9148
hiitisee	-11.9151
wonniis	-11.9154
▁nouut	-11.9155
oenowoo	-11.9156
▁woowosei	-11.916
▁Hoowbeet	-11.9165
▁Heetneeni	-11.9166
ounin	-11.9166
▁cenisi	-11.9172
okok	-11.9174
toyoohow	-11.9178
▁nihboo	-11.9181
▁honootiino	-11.9184
inookuun	-11.9186
▁nookb	-11.9193
nokoyon	-11.9196
teseiwo	-11.9198
▁heetes	-11.9203
eisiwoo	-11.9204
▁Ba	-11.9208
ihcoon	-11.9211
eesooku	-11.9211
▁wosouhu	-11.9211
iistootiini	-11.9213
niinikotiit	-11.9215
eesei	-11.9218
eey	-11.9223
▁biibee	-11.9224
iiniikoheit	-11.9225
▁ceiben	-11.9234
obeeno	-11.9236
▁nihtokohu	-11.9238
▁nooxow	-11.924
ookoubiixuut	-11.9241
▁cesistoo	-11.9242
iiheyoti	-11.9243
▁ben	-11.925
oosoot	-11.9253
tootoukutoo	-11.9254
cihit	-11.9258
stoo	-11.9258
▁heeneino	-11.9261
ooneiitono	-11.9262
otoonouhu	-11.9266
ley	-11.9269
▁hotnei	-11.9275
ebiihci	-11.9284
inen	-11.9299
iiscebiseenoo	-11.9302
ookuheino	-11.9303
▁niinoonoo	-11.9303
▁biiteino	-11.9304
nookoheino	-11.9309
ibeinee	-11.931
ixootiini	-11.9311
otoyo	-11.9316
iisiitene	-11.9319
eeneiyoo	-11.9319
otoobenoo	-11.9319
▁nihniito	-11.9322
▁hose	-11.9322
▁Cesis	-11.9325
der	-11.9327
neihinoo	-11.9327
▁heetnouu	-11.933
ebkoohu	-11.9332
neeneeP	-11.9332
▁wh	-11.9339
▁heeyouni	-11.9341
▁Hoon	-11.9342
▁kootee	-11.9345
▁tihnosoun	-11.9346
▁cebkoohuutii	-11.9347
iniisi	-11.935
iiciineno	-11.9351
isice	-11.9353
▁beneeci	-11.9353
iitiseen	-11.9354
▁niiceeceb	-11.9357
▁nokooyei	-11.9358
heeneixoohoo	-11.9358
eesneet	-11.9362
▁niinenii	-11.9363
iikoniin	-11.9363
eikoo	-11.9364
▁kooheicii	-11.9365
esooni	-11.9365
▁noohootowoo	-11.9367
ciineneino	-11.9367
koonooku	-11.9373
iitiseeno	-11.9374
▁hoowko	-11.9379
niiniiteheibeti	-11.938
▁heneeneti	-11.938
▁heescii	-11.9385
▁nou	-11.9387
▁cihnii	-11.9391
▁heetihbis	-11.9393
oubeti	-11.9393
oneenoo	-11.9396
▁hiihoowoo	-11.9399
ceecebiihinee	-11.941
▁niicihwon	-11.9412
etniis	-11.9414
oseitiseenoo	-11.9415
▁Niiwohoe	-11.9416
▁noohowo	-11.9418
▁kouuten	-11.9429
▁heetihniisi	-11.9432
▁kooxu	-11.9439
▁toonhiit	-11.9453
▁heetnootow	-11.946
iince	-11.9465
ciibii	-11.9467
ood	-11.9469
nowootiini	-11.9475
eiit	-11.9478
▁niisiin	-11.949
seh	-11.9494
ootino	-11.9494
neecihi	-11.9495
▁hiihoowo	-11.9497
iix	-11.9498
▁tohb	-11.9499
esneyei	-11.95
oteihibe	-11.9503
nohco	-11.9504
▁niinokohu	-11.9506
▁niicesis	-11.9509
▁Hiihoownee	-11.9511
▁heetihyihoo	-11.9511
tih	-11.9536
onoox	-11.954
woteesee	-11.9545
▁Ph	-11.9547
rs	-11.9552
▁niitow	-11.9554
Nei	-11.9555
noehinoo	-11.9555
ihcebisee	-11.956
▁Hu	-11.9561
otehei	-11.9562
bisiseen	-11.9565
oohuuho	-11.9568
▁Neisi	-11.957
▁hiisoo	-11.9571
ihnoonotnoo	-11.9572
▁heetniistoo	-11.9574
ciiciixo	-11.9579
ceitoone	-11.958
neeh	-11.9581
▁niinokotii	-11.9586
▁hetneihoowooh	-11.9591
neeneenou	-11.9594
ihcesis	-11.9598
▁Neneenini	-11.9606
kotoyoh	-11.9606
sihcehit	-11.9606
eeneihi	-11.9611
hokecii	-11.9612
cooh	-11.9615
uyeini	-11.9621
▁Mart	-11.9631
oonoyoohoo	-11.9634
▁pl	-11.9635
▁niiteiitoo	-11.9641
▁beetoh	-11.9646
iitenoot	-11.9646
oss	-11.9656
tonouni	-11.9656
▁noohobee	-11.9657
nihco	-11.9657
▁heetciineno	-11.9667
ciibeh	-11.9667
▁fi	-11.9667
▁Hoonoyoohowu	-11.9684
sinenino	-11.9684
ceenok	-11.9689
eikoohu	-11.969
toustoon	-11.9692
niitooni	-11.9692
iibisP	-11.9694
▁neneeP	-11.9699
uuciitoo	-11.97
iyeihi	-11.9701
▁yohou	-11.9704
▁hoxu	-11.9705
eseiht	-11.9709
ceenokun	-11.9713
iyihoono	-11.9713
▁Ciito	-11.9713
kuutoneit	-11.9716
▁nihniiteheibei	-11.9721
▁nihniiP	-11.9724
itesei	-11.9725
▁noonoyei	-11.9726
▁nohuux	-11.9728
oeckoohu	-11.973
eeneiteyei	-11.973
neit	-11.973
eixohoo	-11.9734
iitouuk	-11.9735
iisiitenowuni	-11.9739
oyeis	-11.974
beetini	-11.9745
ihkookoxo	-11.9756
niiteheiwo	-11.9758
bebiiskoko	-11.9765
isoono	-11.9765
cooneee	-11.9767
ooxeihini	-11.9771
ikotiit	-11.9774
iiciice	-11.9776
ebiin	-11.9776
inootee	-11.9776
ohuuhu	-11.9779
iiwonP	-11.9779
▁br	-11.9782
cebtoo	-11.9783
hyoo	-11.9792
iiniitonee	-11.9794
heihit	-11.9797
▁houuno	-11.9798
esnootiin	-11.9801
nosouP	-11.9803
ceikoohun	-11.9812
ina	-11.9819
▁Nihnotton	-11.9821
▁hootwon	-11.9821
oowniitobee	-11.9824
▁Heetneene	-11.9826
▁koohentoo	-11.9826
iibeebee	-11.9829
▁beic	-11.9829
iixoot	-11.9837
niiheneihiitono	-11.9839
▁p	-11.9841
tohoe	-11.9844
oenowu	-11.9846
▁heenetiino	-11.9847
onoon	-11.9847
▁heetniiboo	-11.9849
▁niikookohtowu	-11.9849
▁heecen	-11.9851
oxonei	-11.9851
onoonoo	-11.9853
ic	-11.9855
totoubeen	-11.9857
iisceece	-11.986
tiitii	-11.986
oonotoonee	-11.9863
noteii	-11.9865
ihcenii	-11.9866
iiniistiino	-11.9868
▁koohet	-11.9869
▁beexnee	-11.987
▁Niicih	-11.9873
▁bene	-11.9874
beteetosoo	-11.9876
▁neniiheneihiit	-11.9876
▁hooxohoen	-11.9877
▁hokoh	-11.9883
eeneinisee	-11.9884
eeneyei	-11.9894
niiniibooto	-11.9897
ihnoxohoen	-11.9899
owotP	-11.9912
heetP	-11.9915
▁tihcebii	-11.9915
▁tihbiino	-11.9918
onoote	-11.9921
ookonoo	-11.9924
oonotoonoo	-11.9927
ookusee	-11.9928
cus	-11.9936
itoneen	-11.9938
itoni	-11.9946
heihi	-11.9948
eyeiP	-11.9952
onookuh	-11.9954
oohowot	-11.9961
towootiini	-11.9963
▁Ar	-11.9964
▁niiscec	-11.9967
▁heetniisne	-11.9969
oohobeinoo	-11.997
▁Re	-11.9974
▁biisii	-11.9979
▁Heeyow	-11.9979
inebeeno	-11.9984
niin	-11.9985
eseise	-11.9986
ceiteen	-11.9986
init	-11.9987
ouwoo	-11.9998
ihcebii	-12.0001
▁hetniini	-12.0003
cec	-12.0005
▁Sher	-12.0009
ookuhcehi	-12.0009
ooyohkon	-12.0012
oowuce	-12.0012
ever	-12.0012
▁Howouunon	-12.0013
▁hinoyoot	-12.0014
▁Cihnee	-12.0016
oxoot	-12.0017
land	-12.0018
▁heetniiheneihin	-12.0021
ohtoono	-12.0021
▁xono	-12.0024
iseeni	-12.0027
▁heeneisinihiino	-12.003
noon	-12.0034
▁tru	-12.0036
▁hoononowu	-12.0037
ht	-12.0039
ciitein	-12.0044
▁hiihoowuc	-12.0046
▁niitonoun	-12.0052
iinosouniini	-12.0056
cihwoteikuutonei	-12.0068
▁Tooyo	-12.0076
▁Un	-12.0083
▁siinii	-12.0088
wunehk	-12.009
▁niitonou	-12.0092
cesice	-12.0098
nootou	-12.0099
Wohei	-12.0105
▁heetniiten	-12.0108
tesei	-12.0108
▁neniitowoo	-12.0108
ull	-12.0111
oeko	-12.0114
tootoyo	-12.0115
iineinee	-12.0116
ohkuseic	-12.0116
iteneinoo	-12.0119
nouhuno	-12.012
iisiitenow	-12.0124
oowouhu	-12.0128
iitiini	-12.013
▁heetihte	-12.014
▁huusoh	-12.0143
beexookee	-12.0147
iixoxonetii	-12.0147
eentoonee	-12.0154
biiwoohuno	-12.0158
cebkoohuutii	-12.016
▁hootcee	-12.0161
heetn	-12.0165
bixouut	-12.0172
niitouu	-12.0175
tha	-12.0176
▁bixo	-12.0178
▁Heetihc	-12.0178
▁betebihoh	-12.0181
▁Kookoos	-12.0195
kuutonee	-12.021
eeyo	-12.0211
▁niibeetc	-12.0212
uhut	-12.0216
oenook	-12.0216
iston	-12.0219
itooneihi	-12.0222
▁tohciic	-12.0223
oxuuhetino	-12.0223
▁Niici	-12.0223
eebeiht	-12.0224
ootowunee	-12.0225
noohowoonee	-12.0227
ceebeh	-12.0231
iso	-12.0231
heeyou	-12.0232
noehit	-12.0233
▁niiniisih	-12.0238
nentooyei	-12.0239
▁heeneh	-12.0239
▁tohuuniisi	-12.0241
ihcikuu	-12.0241
ihniisnenii	-12.0244
nokotiitoon	-12.0244
▁hetb	-12.0246
woohon	-12.0251
iciihi	-12.0252
teesisee	-12.0255
hihciniihi	-12.0257
▁Neihoowuu	-12.0264
▁Kook	-12.0271
iinoonotii	-12.0271
van	-12.0276
noneeno	-12.0276
ciinouu	-12.0276
iibixoo	-12.0278
▁nihneenih	-12.0282
itooneen	-12.0285
iinotiitiit	-12.0291
▁hesiisei	-12.0292
▁yeiniini	-12.0292
neesi	-12.0293
itoneihin	-12.0294
▁niiscibouhu	-12.0295
iyootiin	-12.0297
▁beesnenitee	-12.03
▁His	-12.0304
sil	-12.0304
owuuwun	-12.0306
beenee	-12.0307
neti	-12.0309
▁heetoyo	-12.0312
▁heeteino	-12.0312
oniin	-12.0313
owuun	-12.0314
▁Niibeeteene	-12.0317
▁bex	-12.0319
ation	-12.0321
▁niistiin	-12.0321
eenebei	-12.0329
▁heetnookoho	-12.0329
kohtobei	-12.0332
iixoxo	-12.0335
wlin	-12.0338
oenokohu	-12.0339
▁neihoowuu	-12.0341
iicebe	-12.0343
▁heitousinihii	-12.0345
▁hehiise	-12.0345
▁Toyo	-12.0348
bees	-12.0349
▁nooxowoo	-12.0349
▁kooho	-12.0349
▁hoowuneen	-12.0351
▁Tooto	-12.0351
▁koociice	-12.0353
▁koone	-12.036
tonounowu	-12.036
iiteihin	-12.0368
ooben	-12.0368
eico	-12.0369
ihceh	-12.0379
ookuunee	-12.038
▁heetniitni	-12.038
heyoo	-12.0381
hoho	-12.0381
eece	-12.0382
▁hibesiibe	-12.0383
oeso	-12.0384
▁Noohobe	-12.0389
oonoyoohowoot	-12.0392
esiiniihe	-12.0392
heino	-12.0395
cihwonnii	-12.0401
ions	-12.0402
▁Neeceeno	-12.0409
noohootowuni	-12.0412
uhe	-12.0413
oowus	-12.0415
itow	-12.0415
neebixoo	-12.0418
▁hoonookonoon	-12.0419
▁pa	-12.0419
iibe	-12.0419
ouno	-12.0419
▁neneen	-12.042
hentoo	-12.042
ookuh	-12.0432
▁niinosounee	-12.0433
▁beehii	-12.0435
▁hetbis	-12.0436
eeneitenoo	-12.0441
toukutiit	-12.0442
▁biixo	-12.0442
▁Niinoono	-12.0442
heit	-12.0443
teesci	-12.0452
ootoobe	-12.0452
wuseeni	-12.0453
kouten	-12.0455
ber	-12.0458
ngl	-12.0459
▁heetniise	-12.046
eenetiitoonin	-12.046
kohtowutoono	-12.0462
kouso	-12.0467
▁hisiisei	-12.047
Hiiko	-12.0471
eniini	-12.0473
▁toonhini	-12.0477
▁niiheene	-12.0478
▁niiitowoo	-12.0479
iscih	-12.0479
onbees	-12.048
▁koohein	-12.0482
etn	-12.0484
iitonoun	-12.0484
iheiitoonin	-12.0484
▁niinotii	-12.0486
▁niiniitouu	-12.0486
iiseenei	-12.0486
work	-12.0488
ooneihit	-12.0489
tootousiini	-12.0492
tonouneihi	-12.0492
einowuune	-12.0493
▁Nees	-12.0493
▁heetini	-12.0494
▁Niiwoowo	-12.0495
ookootiino	-12.0496
eeneitise	-12.0497
▁Niibeex	-12.0498
eiseeni	-12.05
▁hotneihoow	-12.0501
noonoohowo	-12.0502
▁noosounee	-12.0504
siisoowoono	-12.0505
iibeexo	-12.0507
▁tohuuciinii	-12.0508
ward	-12.051
oncebiihinee	-12.051
iinotii	-12.0512
F	-12.0512
▁hiisiiteno	-12.0514
▁star	-12.0515
S	-12.0516
Hiiwo	-12.0518
hous	-12.0519
▁hihnii	-12.0519
ebn	-12.0532
▁xoo	-12.0536
uutii	-12.0537
ceitee	-12.0539
▁noosounento	-12.0539
ootei	-12.054
evi	-12.0541
iikoheino	-12.0542
eneinoo	-12.0543
nohkuseiciini	-12.0543
inonein	-12.0547
▁Niinokohu	-12.0548
▁heteehin	-12.0549
beetboo	-12.0551
law	-12.0552
▁heeso	-12.0557
▁Nihwonce	-12.0559
ooxuwut	-12.056
▁woowot	-12.0566
ookutiit	-12.0568
inobeenoono	-12.0568
str	-12.057
▁hitonouno	-12.057
cihwoteikuu	-12.057
koxuuteen	-12.0583
ikoheit	-12.0586
beinoo	-12.0586
▁hihnoohoo	-12.0587
beiht	-12.0589
est	-12.0589
neneenit	-12.059
niniixoo	-12.0591
nehtiitii	-12.0593
▁niiboohu	-12.0594
▁hiiniseen	-12.0598
yd	-12.0598
toonhei	-12.0599
ohuu	-12.0602
ibiibi	-12.0606
teexokuut	-12.0607
▁hix	-12.0608
▁heteenetiit	-12.0609
▁Niiceece	-12.061
eboonoyoohowun	-12.0612
iiciinoo	-12.0614
▁nihnees	-12.0616
etne	-12.0617
akes	-12.062
otee	-12.062
neniteen	-12.0622
ecootonoo	-12.0627
▁Heetneenei	-12.0631
onbooboo	-12.0633
▁nete	-12.0633
▁Niites	-12.0634
▁niitcebiiheti	-12.0634
▁hetebinouhuu	-12.0636
ooxou	-12.0636
▁heecisisee	-12.0639
▁cr	-12.064
▁cowou	-12.064
lph	-12.0641
▁heihtou	-12.0641
▁beneesisei	-12.0642
▁toonneniito	-12.0642
▁Cle	-12.0644
ihkotous	-12.0644
▁nottowoo	-12.0646
oubei	-12.0648
inowousee	-12.0649
ihwoxkonee	-12.0649
▁heetnoonoyoohoo	-12.0649
uxohe	-12.065
oxonoot	-12.0651
iwookeciibi	-12.0652
noxoo	-12.0653
▁sp	-12.0654
oxowukoohu	-12.0655
▁War	-12.0656
▁nisikoc	-12.0656
awrence	-12.0658
eeetiinohookee	-12.0658
ihcebiihoooninoo	-12.0658
ntelope	-12.0658
onohoentouyoo	-12.0658
ouuwuhetinoo	-12.0658
▁Berkeley	-12.0658
▁Capernaum	-12.0658
▁Cebteenoc	-12.0658
▁Frank	-12.0658
▁Galileans	-12.0658
▁Geraldine	-12.0658
▁Gunnison	-12.0658
▁Hailey	-12.0658
▁Hughes	-12.0658
▁Husband	-12.0658
▁Jimtown	-12.0658
▁Maverick	-12.0658
▁Merle	-12.0658
▁Moneta	-12.0658
▁Montana	-12.0658
▁Simondson	-12.0658
▁Tetons	-12.0658
▁Thermopolis	-12.0658
▁Thursday	-12.0658
▁Trosper	-12.0658
▁Warren	-12.0658
▁Wednesday	-12.0658
▁basketball	-12.0658
▁centipede	-12.0658
▁chicken	-12.0658
▁culture	-12.0658
▁guess	-12.0658
▁immersion	-12.0658
▁picture	-12.0658
▁popcorn	-12.0658
▁uncles	-12.0658
▁wheelchair	-12.0658
▁teneiitooyoo	-12.0658
▁Arminto	-12.0658
▁noonoheisiiP	-12.0658
cooniibooo	-12.0658
orrow	-12.0658
▁Wiles	-12.0658
▁listen	-12.0658
ehiibeihio	-12.0658
▁Heseisiiniici	-12.0658
▁betkouu	-12.0658
▁hoheisiiniici	-12.0658
▁money	-12.0658
toukutooxebei	-12.0658
▁Theresa	-12.0658
▁grandpa	-12.0658
▁hesnonoot	-12.0658
niiwookoxone	-12.0658
▁niinentooyein	-12.0658
▁outside	-12.0658
▁drink	-12.0658
koheisenowun	-12.0658
ciisiwoxuuhei	-12.0658
▁Parker	-12.0658
▁teacher	-12.0658
▁betooheeno	-12.0658
▁priest	-12.0658
▁General	-12.0658
▁nonouhtiinoox	-12.0658
booo	-12.0658
yooxuunec	-12.0658
ihnebihce	-12.0658
▁ciikosoutiit	-12.0658
ihnookoxonee	-12.0658
▁kokuteen	-12.0658
iiteyeinin	-12.0658
▁elk	-12.0658
incent	-12.0658
▁understand	-12.0658
▁tipi	-12.0658
▁neeneisnontoon	-12.0658
▁early	-12.0658
▁Deal	-12.0658
▁biisibino	-12.0658
▁niitootoxuuus	-12.0658
▁college	-12.0659
▁Heihtoustoo	-12.0659
▁tihtokohowuu	-12.0659
▁Cobou	-12.0659
▁siikoocei	-12.0659
▁Ceniixootee	-12.0659
oeneetowunee	-12.0659
▁Whiteman	-12.0659
neetokooyeinoo	-12.0659
▁hebiitiihiiho	-12.0659
▁niiceeceesiton	-12.0659
▁girl	-12.0659
▁plate	-12.0659
▁hitiicooon	-12.0659
kotiiseenoo	-12.0659
▁bridge	-12.0659
▁biinohooo	-12.0659
▁tohuubiiwoohun	-12.0659
ounetobee	-12.0659
▁biisyein	-12.0659
▁xoucen	-12.0659
▁tomatoes	-12.0659
eekutiit	-12.0659
iinowooheinoo	-12.0659
▁taste	-12.0659
kuhneehek	-12.066
▁Track	-12.066
eboonoyoohowot	-12.066
▁tihneseihi	-12.066
▁siisiiyeibiis	-12.066
▁neentooneihin	-12.066
oyeisiinen	-12.066
otoowkuutii	-12.066
▁teiitooyoo	-12.066
▁ceeceeyotisin	-12.066
▁hetoonoyoohowoo	-12.066
▁feathers	-12.066
▁grandsons	-12.066
teheibeenowoonee	-12.0661
wuuhuutooni	-12.0661
▁pay	-12.0661
▁kooheesnee	-12.0661
▁beecet	-12.0661
iinebkuutii	-12.0662
▁riot	-12.0662
niiwoot	-12.0662
▁Hoonoyoohobeti	-12.0662
ebub	-12.0662
▁huutouuk	-12.0662
▁koohetbii	-12.0663
▁heetohwooyoo	-12.0663
▁heeneisno	-12.0663
eetbii	-12.0663
neenesinihe	-12.0663
ihnehtiihe	-12.0663
▁paper	-12.0663
▁Beiseeteihit	-12.0664
▁ceitoosoo	-12.0664
▁Susan	-12.0664
▁neecetino	-12.0664
▁cihnoohowu	-12.0664
ihbeesinihii	-12.0664
iicooo	-12.0664
▁nihwonsii	-12.0665
ihsehno	-12.0665
iiyouhut	-12.0665
▁hoowuusein	-12.0665
▁Plumes	-12.0665
eyooteihit	-12.0665
ecouhuuho	-12.0666
ebwoteikuu	-12.0666
▁fifteen	-12.0666
▁kookoxuuten	-12.0667
▁noobesei	-12.0667
▁called	-12.0668
▁turn	-12.0668
▁neihoownoohowoo	-12.0668
beneetiininoo	-12.0668
▁May	-12.0669
neexohun	-12.0669
▁heenetsinee	-12.0669
▁Charlene	-12.0669
▁hooxoehibi	-12.0669
pple	-12.067
▁heetookohuus	-12.067
ceibciineno	-12.067
▁eat	-12.067
iiyohce	-12.067
▁niikouuteno	-12.067
eenebeiht	-12.067
▁coowoocei	-12.067
cehyoootino	-12.0671
oteenebeihit	-12.0671
onohowuunoot	-12.0671
▁hoonino	-12.0671
oeseiteenino	-12.0671
iiciin	-12.0672
▁Clar	-12.0672
▁ceniinonooneih	-12.0672
▁koniset	-12.0673
▁niineeneihoot	-12.0673
▁Heetoustoo	-12.0674
▁heetniiteheibin	-12.0674
otoonoot	-12.0674
▁heetnoohowoonee	-12.0674
ceniiseit	-12.0674
▁hineeceebinoo	-12.0674
cket	-12.0674
eeneinooxuwut	-12.0674
hoowuniihiseehek	-12.0674
notiihee	-12.0675
owoukuu	-12.0675
very	-12.0675
▁Hixono	-12.0675
uwuusi	-12.0675
▁came	-12.0675
▁umm	-12.0675
▁howouunoneit	-12.0675
tounineet	-12.0676
▁tihbeteet	-12.0676
▁biiniisoo	-12.0676
woowoxutoo	-12.0676
▁heetkoxuuten	-12.0676
esineniteeniit	-12.0676
▁hoxobetiit	-12.0677
tootonouno	-12.0677
▁tihwooneihit	-12.0678
▁heihoownee	-12.0679
ceiteeno	-12.0679
etouuhu	-12.0679
▁songs	-12.068
▁toonheestoononi	-12.068
▁koonootoohoe	-12.068
sther	-12.068
▁noononitii	-12.0681
iciino	-12.0681
leep	-12.0682
▁cebiihetiit	-12.0683
ihnoonoh	-12.0683
esoohobeinoo	-12.0683
biinokok	-12.0683
▁Heetc	-12.0683
itoxoo	-12.0684
▁heetneesiiniit	-12.0684
▁ceneito	-12.0684
▁hides	-12.0684
▁Nonootowuune	-12.0685
▁Tyr	-12.0685
▁neeneicxooyei	-12.0686
latte	-12.0686
beexeene	-12.0686
▁niiteiyookuu	-12.0686
towuuneiitoonin	-12.0687
▁cihwoteesee	-12.0688
ookuhcehit	-12.0688
▁nihniiteheiwo	-12.0689
▁biixot	-12.069
▁Berni	-12.0691
tootee	-12.0691
iinikotiinino	-12.0691
notnoohoot	-12.0692
oonowooyeitit	-12.0692
cetenowoot	-12.0693
▁heetniiniibooto	-12.0694
▁keiciini	-12.0694
▁heetihnosou	-12.0694
▁niiwoowoseit	-12.0695
etouuhunoo	-12.0695
▁Hibesiiwoho	-12.0695
ceestoo	-12.0695
▁biiceiniisiis	-12.0695
thes	-12.0696
▁hitoonoho	-12.0696
▁nenees	-12.0696
▁hookoubiixuut	-12.0696
uheihiinoono	-12.0696
▁hooxeihiisoo	-12.0696
▁heebetohoot	-12.0696
▁heetnihii	-12.0697
▁heetciinenowoo	-12.0697
toneino	-12.0697
▁Sta	-12.0697
▁niiwoowoxu	-12.0698
▁hiteseiwo	-12.0698
hiitou	-12.0699
▁koohonoohow	-12.0699
▁ago	-12.0699
ihcihbisisee	-12.0699
▁ceeyowciiney	-12.0699
uuwuunee	-12.07
▁Reno	-12.0701
▁tihniisi	-12.0702
uceitone	-12.0703
ceibeno	-12.0704
▁Us	-12.0704
▁hiwoxhoox	-12.0704
▁wr	-12.0705
▁heecisiisiini	-12.0705
▁nihnosoun	-12.0705
eboonoyoohowunee	-12.0705
▁tohnokohut	-12.0706
eesinihiin	-12.0706
iwoowoxube	-12.0706
oxyooto	-12.0707
neenehtonitoot	-12.0707
nokohuuno	-12.0707
hcebe	-12.0708
houuneenoo	-12.071
eihehiiniit	-12.071
▁Nookbiixonoo	-12.071
▁toonheen	-12.0712
avy	-12.0712
totoubeih	-12.0713
▁heiteyoono	-12.0715
del	-12.0716
iiciinoohobee	-12.0716
ihniitouu	-12.0717
ookenin	-12.0717
▁nookouu	-12.0718
▁bill	-12.0719
▁Heneeyeihn	-12.0719
koxoho	-12.0719
kuhneet	-12.072
ciineneihinoo	-12.072
usibetit	-12.072
xouwoo	-12.072
▁teiitooneihi	-12.0722
eebexookee	-12.0722
iiniisonoonibeet	-12.0722
siwoono	-12.0723
▁hiixoohootowoo	-12.0724
▁Dur	-12.0724
▁nesihoo	-12.0724
▁Toonheeneit	-12.0724
▁hooxuwuunenino	-12.0725
ouyeitibe	-12.0725
▁niitoukuhu	-12.0725
▁tree	-12.0725
▁beneexookeenoo	-12.0726
eebiihiiho	-12.0727
▁nottoneinoo	-12.0727
▁niisooyohk	-12.0728
▁noosouneentoo	-12.0728
▁home	-12.0728
bisniiteheiwoo	-12.0729
▁pen	-12.0731
niicibisee	-12.0731
eihehebin	-12.0732
▁neeneinkoohu	-12.0732
nuh	-12.0733
teenoo	-12.0734
owuuneit	-12.0735
nouuteneihit	-12.0736
iiyih	-12.0739
▁kookoosneih	-12.0741
kohu	-12.0741
beniikoohut	-12.0742
▁woxutoot	-12.0744
▁siihoowoe	-12.0744
▁keihniitonoo	-12.0745
▁noowooyeiti	-12.0745
▁neniitobeet	-12.0746
▁Niibeetnee	-12.0746
▁heebehbeetni	-12.0747
▁heneeyeihno	-12.0748
▁heebiitooxobei	-12.0748
▁niibeexuuni	-12.0748
iineso	-12.0749
oneentoot	-12.0749
ouubeiht	-12.0751
esiikoohun	-12.0751
bobooteenebeihi	-12.0752
▁toonniicii	-12.0752
eexunoo	-12.0752
teni	-12.0752
▁cowouuwutii	-12.0753
wotitonee	-12.0753
cihciitein	-12.0755
nouxon	-12.0756
ukoohuuhe	-12.0757
▁hoxyoot	-12.0757
iisiiteneit	-12.0759
toyobeinoo	-12.076
▁heihoowneen	-12.0761
iyo	-12.0761
▁tihnoohoo	-12.0762
▁Nesihoo	-12.0763
cowokuseet	-12.0763
▁boys	-12.0763
▁honouute	-12.0764
uhcehiitooni	-12.0765
▁heetniihoo	-12.0765
eetiseet	-12.0765
▁news	-12.0765
iisiseni	-12.0765
▁heetneenetinoo	-12.0766
noonottobee	-12.0767
▁hookohuusiini	-12.0768
oniiniiteheiwo	-12.0769
xonouu	-12.077
ookuto	-12.077
▁nihkonoh	-12.0771
▁Heetoko	-12.0773
▁hiiceebeh	-12.0774
▁nootineihin	-12.0775
▁hetniibii	-12.0777
teetebein	-12.0779
▁beexotii	-12.0779
▁hay	-12.078
niitei	-12.0781
▁niikookoh	-12.0781
touneihi	-12.0781
beetnonouhtiibe	-12.0783
▁hiniinis	-12.0784
▁nihciineneit	-12.0786
uwo	-12.0787
▁op	-12.0789
▁nooneehei	-12.0791
▁nonookeihi	-12.0792
▁pill	-12.0792
▁heetyihoonoo	-12.0792
teenbooo	-12.0792
▁Beebee	-12.0793
uuwunoo	-12.0795
ohoeto	-12.0796
▁hetnooxuwu	-12.0797
▁hoonoyoohootoo	-12.0798
ookut	-12.08
Heeyou	-12.08
ooxuunonee	-12.0803
iicoonoo	-12.0803
teeneiht	-12.0804
etiiwoot	-12.0805
▁beteentoot	-12.0806
▁noonoyoohobei	-12.0806
▁tohuucebisee	-12.0806
▁beseee	-12.0807
eine	-12.0808
uuwuno	-12.0808
iikoto	-12.0808
nehtiiheit	-12.0809
▁heetnokohunoo	-12.081
owuuneino	-12.0811
ihb	-12.0813
▁Nihkookou	-12.0814
▁Siineih	-12.0815
▁neneeceeni	-12.0816
▁heteehi	-12.0816
▁Toonhii	-12.0817
▁Hitonih	-12.0817
iibeteeet	-12.0817
▁neihoowniitonoo	-12.0818
▁ciiciiskoohu	-12.0818
▁niineeneh	-12.0822
inobeeno	-12.0822
▁heetbeex	-12.0823
onkuutiit	-12.0823
▁red	-12.0824
eineiht	-12.0824
▁niibisni	-12.0826
nehtiitiit	-12.0826
▁Heitous	-12.0826
hoonoyoohoo	-12.0828
▁heteixo	-12.0828
▁Bea	-12.083
▁niikonoh	-12.0831
▁niikoon	-12.0832
▁ciibehcih	-12.0833
ooxobe	-12.0833
▁heetniistoono	-12.0833
teeteesiini	-12.0833
ukoohu	-12.0834
ppo	-12.0835
inonoobe	-12.0836
▁Hehnee	-12.0836
cihcebeno	-12.0838
cobo	-12.0839
▁tr	-12.084
nookoniini	-12.084
res	-12.084
woteeseet	-12.0841
xohun	-12.0842
niisneniit	-12.0842
ooxoeniini	-12.0842
▁betoootono	-12.0844
noxonoono	-12.0844
▁tohniisi	-12.0844
ookuhoot	-12.0845
▁Beeh	-12.0845
▁niibeetnii	-12.0846
ceniisei	-12.0846
▁ciineeno	-12.0847
▁wonceenoku	-12.0847
▁tohuuwon	-12.0848
▁hiwoxutoot	-12.0849
▁hiheio	-12.085
xonoo	-12.085
▁woxtootino	-12.085
▁tohuuciiP	-12.0853
cher	-12.0853
▁heetniibiibi	-12.0855
▁beniiceni	-12.0855
ihtonotin	-12.0857
▁heetbixouu	-12.0858
ciiteneihit	-12.0858
hiitoone	-12.086
oseikuutii	-12.086
iikouto	-12.086
tonei	-12.0861
▁ceeyowc	-12.0861
gle	-12.0864
▁hoowunihii	-12.0865
tal	-12.0865
▁heetcesistoo	-12.0865
nookuhu	-12.0865
oowuusiitene	-12.0868
otooneeno	-12.0869
▁heesnee	-12.0869
▁notoniheit	-12.087
▁tootouno	-12.0873
owouunoninee	-12.0874
niitiine	-12.0875
▁nonoohowoot	-12.0875
otoobeno	-12.0875
▁hiten	-12.0876
kouskuutiit	-12.0877
nouutowoonoyooho	-12.0878
▁nihniiheniistii	-12.0881
neibtii	-12.0881
▁teexo	-12.0882
▁niinosouniini	-12.0882
▁hoonoyoohobeihi	-12.0882
woneeteini	-12.0883
▁Hiibinee	-12.0886
▁niiseekuu	-12.0888
toseinou	-12.0889
noohobeti	-12.0893
uusno	-12.0893
▁par	-12.0899
teebinoo	-12.09
▁beehiini	-12.0901
▁heneixo	-12.0902
ihyihkooh	-12.0902
eeneinkoohu	-12.0903
ookootiinoo	-12.0904
▁heebehcih	-12.0904
▁kookooshe	-12.0905
▁Neebeh	-12.0907
heenetino	-12.0907
▁nihniiteheiwoot	-12.0907
hooxeb	-12.091
bit	-12.0911
▁beebebiis	-12.0911
▁nihteebe	-12.0912
iiheihit	-12.0912
heetnoonowooyeit	-12.0915
tootonouyooninoo	-12.0916
ebnoohooto	-12.0917
▁cebiihi	-12.0917
ouniine	-12.0919
▁tootoukuto	-12.0921
▁Hiteseiw	-12.0921
eebetei	-12.0922
uyeino	-12.0923
▁neihoowbii	-12.0923
ohukoohu	-12.0926
arry	-12.0927
itenoohok	-12.0927
ooceinen	-12.0927
▁heeseise	-12.0928
▁nooxo	-12.0929
▁toonheestoo	-12.093
▁hiisiin	-12.093
tineniteewo	-12.093
▁Hiyeih	-12.0931
▁wor	-12.0931
ihniiso	-12.0932
▁neeneisce	-12.0932
▁tohuucooxo	-12.0935
▁neeneitP	-12.0937
iineeneh	-12.0938
▁tohnoohooto	-12.0938
▁neeneisiin	-12.094
▁Hiihoowno	-12.0941
iitoonooni	-12.0942
beseee	-12.0943
oneh	-12.0944
cesisitoot	-12.0945
eeneinci	-12.0945
ceecebiiheti	-12.0945
ies	-12.0946
oucooti	-12.0948
touhoon	-12.095
nokohunino	-12.0952
cihciiteit	-12.0952
▁Hiihoowoe	-12.0953
eetoxou	-12.0954
▁Nihkou	-12.0955
▁lady	-12.0955
ooyeitiit	-12.0959
▁tihnoohooto	-12.0959
eeneestoono	-12.0962
toutiibis	-12.0962
▁Heitou	-12.0965
obeit	-12.0967
yookuu	-12.0967
▁nihnonouhti	-12.0968
iteneihi	-12.0968
eihiinit	-12.0971
niisiheinoo	-12.0972
koho	-12.0973
teneihi	-12.0974
yoootino	-12.0975
▁hoowuus	-12.0979
ouutii	-12.098
▁niinsee	-12.098
nottonin	-12.0982
▁hoowneen	-12.0983
▁hiicetiininoo	-12.0983
▁tohcihnoo	-12.0985
▁biiwoohut	-12.099
▁beexookee	-12.0991
▁heniihei	-12.0991
niiboot	-12.0993
▁tebinouhuuno	-12.0993
▁Heebehbi	-12.0999
▁noowuneniteen	-12.1
iibeetoh	-12.1001
▁niixo	-12.1002
heete	-12.101
ehehk	-12.1011
tobeeni	-12.1012
▁neihoowbei	-12.1014
▁ciiyo	-12.1017
▁cisii	-12.1017
▁niistiino	-12.1018
iibiice	-12.1018
▁hetneihooweento	-12.1021
etiiwooo	-12.1022
▁hibeteeno	-12.1025
▁heetciinen	-12.1026
wookecii	-12.1027
iiseiht	-12.1027
▁niixookuunee	-12.1029
ciitohei	-12.103
▁tohuuwoowo	-12.1031
▁Nookoo	-12.1033
uw	-12.1036
▁nihneeneyei	-12.104
▁heetohs	-12.1041
▁cihbis	-12.1046
oxooteenebe	-12.1052
▁ceenP	-12.1056
oteisoon	-12.1059
▁tonou	-12.1059
eixoheinoo	-12.1061
woteekoohuut	-12.1063
niitou	-12.1063
oeteisee	-12.1065
eiibes	-12.1065
▁neeneti	-12.1065
▁hoowusee	-12.1066
▁heebehce	-12.1069
▁betoot	-12.1071
eeteno	-12.1074
iibeebese	-12.1074
▁toonhootniis	-12.1075
▁nihbisiini	-12.1078
▁ceceh	-12.1078
uuxoo	-12.1079
▁hiistii	-12.1079
▁bel	-12.1082
▁neeneisinihiini	-12.1082
honobeeni	-12.1083
eitibe	-12.1089
▁hene	-12.109
seesiici	-12.1098
xoxuuheti	-12.1098
iiyohouseen	-12.1098
▁Noosounee	-12.1098
▁heniixoxonee	-12.1101
ibetiit	-12.1101
esoono	-12.1103
oohnee	-12.1104
eiisinenoo	-12.1104
noteiitihoo	-12.1108
ceihit	-12.1108
kooniiteetee	-12.111
wucen	-12.1113
▁tohnoono	-12.1113
beeseeneti	-12.1117
▁wonneyei	-12.1119
nosounee	-12.112
eic	-12.1122
ekoonineihii	-12.1123
▁niicihbeebee	-12.1124
▁Hooxohoenii	-12.1124
oxeti	-12.1125
▁Niicoon	-12.1127
eibihe	-12.1127
ohwoonoo	-12.113
▁neeheyeisee	-12.1132
bisihcehit	-12.1133
noohowoti	-12.1134
▁niicihnoo	-12.1134
▁Nihbeetb	-12.1137
▁niiskooko	-12.1138
▁sey	-12.1139
▁Tohuubii	-12.1142
ihniiteheibeiit	-12.1143
eeneisbiibi	-12.1143
eineit	-12.1144
ihceite	-12.1147
woteekoohut	-12.1152
hootP	-12.1153
etiihoot	-12.1155
cebihcehiitoon	-12.1159
try	-12.116
beexto	-12.1163
cihciineno	-12.1163
▁hibee	-12.1165
▁Koocii	-12.117
▁woonii	-12.1172
iinottono	-12.1172
▁Woowoxu	-12.1173
▁toonhinii	-12.1175
oowuuh	-12.1178
ciineyootiini	-12.1178
▁hotnii	-12.1179
neehiiho	-12.1184
eenini	-12.1186
useenino	-12.1187
▁toonce	-12.1189
owooyeitin	-12.1189
▁hiihoowuus	-12.119
▁xooxo	-12.119
onoheinoo	-12.1191
ikohei	-12.1191
▁beeP	-12.1192
▁Nihnei	-12.1193
nokooyeit	-12.1194
▁neniiwoot	-12.1198
noonokohunoo	-12.1202
▁Kooheihcii	-12.1209
oubeet	-12.1209
nooxeih	-12.1211
toneihi	-12.1213
utoneihit	-12.1213
▁live	-12.1214
iitboo	-12.1215
ihbeeto	-12.1216
▁neeneisko	-12.1216
ciiciisiikohei	-12.1217
▁neniibei	-12.1217
eeniisiitoon	-12.1218
oowuseenoo	-12.1222
▁niitcebisee	-12.1225
eehebeh	-12.1226
beteeenoo	-12.1229
eye	-12.1231
▁tohwon	-12.1231
▁Hehniis	-12.1232
▁beeb	-12.1235
▁tonoukuti	-12.1238
nestoobeit	-12.1243
eihinoni	-12.1244
▁hotous	-12.1244
▁heetniibei	-12.1246
eiisineni	-12.125
▁noosouniin	-12.125
▁heeneesinihiin	-12.1251
▁heetihbiibi	-12.1253
iiswoti	-12.1255
eitecoo	-12.1256
noxohoece	-12.1257
noxow	-12.1257
iitniiseekuu	-12.1259
owootee	-12.1259
▁niisooto	-12.1259
ihxouuwu	-12.1259
iiheinoo	-12.1259
went	-12.1262
onnoo	-12.1268
cihn	-12.1268
▁bish	-12.1272
▁Heetihbis	-12.1273
▁ceentou	-12.1274
niisei	-12.1274
utoneihi	-12.1276
niinihi	-12.1276
▁tohuunoono	-12.1285
heenei	-12.1285
▁Two	-12.1287
oxonihe	-12.129
ihbehnoo	-12.1293
▁noonotii	-12.1293
▁hiibi	-12.1294
▁heeteci	-12.1295
biibiineti	-12.1295
uheihiino	-12.1295
teesenoo	-12.1296
eiicen	-12.1296
▁hiniininoo	-12.1306
iinikotiini	-12.1306
▁heseisen	-12.1308
▁heetbebiisce	-12.131
xhooxebii	-12.1312
ooneet	-12.1312
▁heenein	-12.1312
▁hiihoowuno	-12.1314
▁woxesi	-12.1316
▁hetcee	-12.132
notoniheino	-12.1321
▁heey	-12.1321
iisihciniih	-12.1322
ihxoo	-12.1322
iisiiyoo	-12.1324
▁hotce	-12.1328
▁nihneeneh	-12.1328
etce	-12.1332
toukuhuno	-12.1333
▁sit	-12.1333
eeneecxooyeihi	-12.1333
hoxuyoot	-12.1334
oxowooxebei	-12.1337
▁Noonot	-12.134
iihoonoxo	-12.134
▁nihceite	-12.134
eseinoo	-12.1342
▁heeneesinihiino	-12.1342
oowuseeni	-12.1344
bes	-12.1345
ort	-12.1346
cebxoo	-12.1347
▁hitixon	-12.1354
miss	-12.1355
▁Wh	-12.1358
niisonoonibeihit	-12.136
iwou	-12.136
yooniibino	-12.136
ihnoohobeen	-12.1362
▁neeyeih	-12.1363
▁heetwoniin	-12.1366
▁hoxo	-12.1366
ebeiht	-12.137
▁nihciiteinoo	-12.137
▁hiti	-12.1371
ihces	-12.1373
▁tihbiinei	-12.138
amp	-12.1381
eeneistoon	-12.1382
oneihini	-12.1382
eskoneet	-12.1382
▁mar	-12.1387
eitinee	-12.1389
▁heetnokohun	-12.1393
ring	-12.1393
hiinokotiitoon	-12.1393
▁wotei	-12.14
▁heestoot	-12.1402
touninee	-12.1403
tonoonee	-12.1409
▁Toonheeso	-12.1409
eiheiit	-12.1411
▁heetecii	-12.1413
▁hihno	-12.1413
ookohuusiini	-12.1413
▁toonheestoon	-12.1418
▁heetciite	-12.1419
▁ciiyei	-12.1421
tenowuni	-12.1422
ihckuutii	-12.1423
▁ciineyei	-12.1426
▁heetciin	-12.143
ootiininoo	-12.1432
rol	-12.1433
ookeino	-12.1433
owko	-12.1435
cesistoo	-12.1436
iiteiyeekuu	-12.1438
▁niinooP	-12.1441
ineeyoo	-12.1443
▁Heneenet	-12.1445
ooweeneti	-12.1445
iiwoxu	-12.1451
▁hetneyeitii	-12.1453
esco	-12.1454
▁tohciini	-12.1455
nookooneyei	-12.146
xoxoo	-12.1466
▁touse	-12.1467
neyeihniiteheiwo	-12.1471
▁Got	-12.1472
▁hohookeeni	-12.1472
ton	-12.1474
iboo	-12.1476
▁Gr	-12.1478
▁kuh	-12.148
hceciito	-12.148
uff	-12.1486
iniini	-12.1487
iicihce	-12.1487
ico	-12.1489
▁niisihoot	-12.149
eiseenee	-12.149
▁heestoon	-12.1491
niihonkoohu	-12.1492
benouce	-12.1496
hiihoowuhciixoku	-12.1497
cihciite	-12.1498
▁beexni	-12.1499
noonoyei	-12.15
▁hebei	-12.1503
esooneet	-12.1504
▁heetneihoowooh	-12.1505
▁heebehni	-12.1505
▁woot	-12.1505
ebtoo	-12.1513
bisis	-12.1514
▁fis	-12.1515
▁niineeneyei	-12.1518
oteihinee	-12.1523
niiteheibee	-12.1524
▁thr	-12.1525
▁heetei	-12.1531
yooxuu	-12.1532
▁ciinee	-12.1532
uxooto	-12.1533
▁cenihnoono	-12.1543
enowuu	-12.1545
neeniise	-12.1546
nooxeihit	-12.1546
iibeetbiinoot	-12.1546
nosoune	-12.1547
noohobei	-12.1549
eyeihii	-12.1552
notonihoo	-12.1554
ihciiten	-12.1555
▁noohow	-12.1557
teeteesihcehino	-12.1559
espect	-12.156
▁nonookei	-12.156
oonooxuwu	-12.1561
oowouuneenoo	-12.1563
urger	-12.1564
▁nihciiteit	-12.1565
utch	-12.1565
▁hesi	-12.1566
▁niibeetniitehei	-12.157
▁hiihoowbii	-12.157
eboo	-12.1576
▁beehiin	-12.158
toneiitono	-12.1581
▁heetihneyeihe	-12.1585
▁heecisicii	-12.1585
▁heetneentoo	-12.1595
▁hehyein	-12.1595
▁tohuutoxu	-12.1596
ototee	-12.16
▁neet	-12.1601
▁neniitowooto	-12.1601
oeniin	-12.1602
▁heetneeneistoon	-12.1602
▁hotook	-12.1604
useenooni	-12.1606
▁hiibinee	-12.1606
▁teetee	-12.1607
okohu	-12.1607
▁Basi	-12.1608
uusce	-12.1609
iwoono	-12.161
eniixoo	-12.1612
iscei	-12.1613
wooneihit	-12.1616
noooxuneet	-12.1617
towuuneenoo	-12.1619
ihcenis	-12.1619
wow	-12.162
▁niibeetneyei	-12.1622
uuhuunokotii	-12.1623
▁hiiniikoheiit	-12.1624
hiiyohou	-12.1629
▁niitiine	-12.1631
inenteen	-12.1634
▁toonhooyei	-12.1635
▁tonoon	-12.1635
▁Heentoot	-12.1636
notiitiino	-12.1638
totoubeihi	-12.1639
owooyeiti	-12.164
beexuni	-12.1642
▁ciisibi	-12.1646
▁ceenokut	-12.1656
iiceecee	-12.1656
iineenee	-12.1657
▁hoowunii	-12.1658
▁Ceniino	-12.1669
▁heetniiteheiwoo	-12.1673
▁bebiise	-12.1673
▁Fourt	-12.1673
▁niisbiii	-12.1674
▁hetneihoowoe	-12.1675
teebe	-12.1677
toukut	-12.1678
▁mi	-12.1679
▁Ke	-12.1682
kook	-12.1682
iisibe	-12.1684
tesee	-12.1689
etebinouhuun	-12.1693
woowoxutoot	-12.1696
▁neenetit	-12.1697
cesisniini	-12.1698
ehiisetiit	-12.1702
ebciitei	-12.1704
eenebeit	-12.1716
▁Cihbis	-12.1716
▁Beneebe	-12.1719
▁heetniitesein	-12.1722
▁notonihein	-12.1725
wuho	-12.1725
ihbese	-12.1726
▁tohuuneen	-12.1728
▁Nebi	-12.1732
oxonoh	-12.1732
▁Hehniiseihi	-12.1735
ohoekoohuutonoot	-12.174
eix	-12.1741
eineti	-12.1742
iinokotiin	-12.1744
tooninoo	-12.1744
▁hecesiiteihi	-12.1745
iiwonoote	-12.1747
▁nihciitei	-12.1751
eseinebe	-12.1752
ceenokunoo	-12.1752
oowoteneinoo	-12.1758
▁Neeneis	-12.1759
▁heetyihxoh	-12.176
▁nihciinoo	-12.1762
usibei	-12.1762
▁Nihcii	-12.1763
ininoo	-12.1764
▁nihbiici	-12.1767
▁tohnosou	-12.1768
▁Nihn	-12.177
utoyoo	-12.1772
besoot	-12.1773
▁neeneise	-12.1774
inootino	-12.1777
▁niibeebeteee	-12.1778
▁Neeneistoo	-12.1779
▁neeciini	-12.1781
oeyei	-12.1782
nouutoo	-12.1782
▁hootniit	-12.1784
▁tape	-12.1786
ihtoukutii	-12.1787
niisnenii	-12.1797
iheinee	-12.1798
▁ceecenii	-12.1798
eeneetowuni	-12.1799
iixoosoo	-12.18
ambl	-12.1802
▁Tootheih	-12.1804
▁Hiihoowuu	-12.1805
iiso	-12.1809
▁niisootoxuun	-12.1811
▁hoowniitehei	-12.1811
istouse	-12.1812
▁Heeneetoh	-12.1812
oonoyoohobeihino	-12.1815
tebi	-12.1817
neetou	-12.1817
iixowuh	-12.182
iscibes	-12.1821
▁Hiino	-12.1822
▁heetihceest	-12.1823
▁niineyoo	-12.1823
tokoh	-12.1826
oyeiteih	-12.1826
▁nihnoohoo	-12.1826
▁heenetit	-12.1826
owun	-12.1831
ehiisi	-12.1833
▁Koone	-12.1833
um	-12.1833
hkooko	-12.1836
▁heetnooxeihi	-12.1845
onobeinooni	-12.1845
▁heetnoonoyooho	-12.1846
iibooboo	-12.1852
▁niibebiis	-12.186
inoneen	-12.1862
oowtou	-12.1863
▁nihcooco	-12.1867
teecis	-12.187
iitoxnenii	-12.1873
hinenitee	-12.1877
▁Tohnosoun	-12.1881
oowkohtobeeneet	-12.1882
tiitoon	-12.189
nehtonihoot	-12.189
▁Niibee	-12.1894
hino	-12.1896
▁Kon	-12.1897
htonotin	-12.19
niiniitouuhu	-12.1903
oxobe	-12.1903
▁hestoo	-12.1904
niisoo	-12.1907
▁neeneistooni	-12.1914
noxowuh	-12.1916
beeni	-12.1916
seenookuu	-12.1918
ihkohoo	-12.1919
ger	-12.192
toyoow	-12.192
▁nookonii	-12.1922
einihiit	-12.1924
▁Neeneti	-12.1928
eihiino	-12.1929
biici	-12.1931
▁xooxouu	-12.1932
wonbeebeteee	-12.1932
▁Hoowoo	-12.1933
bebi	-12.1934
▁hetbebiis	-12.1936
▁hiihooweeneti	-12.1936
iiniibei	-12.1938
▁Who	-12.1947
eiiseni	-12.1948
▁Niibiibi	-12.1949
▁Kooneen	-12.1953
▁hoowun	-12.196
neenetiitooni	-12.1961
etehko	-12.1965
▁Hetneihoowc	-12.1966
ouwu	-12.197
▁tihwooneihino	-12.1976
▁nihcoon	-12.1978
ouwou	-12.1979
iiciixo	-12.1981
▁beniiinookee	-12.1982
ehkoohu	-12.1985
iicebiihineen	-12.1991
own	-12.1991
▁Niiteinii	-12.1993
neenebetiit	-12.1996
onh	-12.1999
hiisiiteno	-12.2003
▁niineene	-12.2003
mad	-12.2004
ebnoono	-12.2012
ooxe	-12.2012
▁heebehko	-12.2015
hwoo	-12.2017
eeneitini	-12.2018
heenetiitooni	-12.2018
onisee	-12.2022
teexokuuton	-12.2023
▁Niiboot	-12.2023
▁ceniinii	-12.2024
niistiin	-12.2024
niiniskohoe	-12.2026
▁hiniP	-12.2028
niiniistiino	-12.2028
oxuuheihi	-12.2028
▁hooxuun	-12.2031
▁neniiseihin	-12.2032
ouni	-12.2033
oowohbii	-12.2034
iiniistoo	-12.2036
ihneinoo	-12.2038
iixoni	-12.2039
▁noosounentoo	-12.204
neeceewooto	-12.2044
ica	-12.2047
neeceeniitoonin	-12.2047
▁heniih	-12.2048
iyihoonoo	-12.205
woxuu	-12.2051
▁tihciic	-12.2057
niiheneiht	-12.2057
▁heetciice	-12.2057
▁hoowbebiis	-12.2058
cenee	-12.2058
iy	-12.2063
▁hoonoxo	-12.2064
war	-12.2067
cihciiten	-12.2067
kuh	-12.2068
▁Keetc	-12.207
heeneti	-12.207
neexohei	-12.2071
notonihei	-12.208
▁hoeii	-12.208
uuscoboo	-12.2083
neece	-12.2084
▁Nooko	-12.2086
beno	-12.2094
▁heetwottoneeno	-12.2101
▁hiniiheneihiit	-12.2102
noohobeinoni	-12.2105
hiisebi	-12.2105
▁niistonou	-12.2106
itowu	-12.2106
iniito	-12.2106
toobe	-12.2107
▁gone	-12.211
▁beetnee	-12.2111
▁Hohko	-12.2117
▁heetbe	-12.2125
ehiitono	-12.2127
noooxun	-12.2128
eiitooninoo	-12.213
beeniihi	-12.2131
itonoo	-12.2135
▁Wothi	-12.2138
▁heihoowooh	-12.2139
uniini	-12.2143
neekuu	-12.2144
kotii	-12.2151
nousi	-12.2158
eibini	-12.2158
ck	-12.2161
esiiniiheti	-12.2168
iicesis	-12.2172
unihii	-12.2175
tohcoot	-12.2177
oonoxowoot	-12.2182
oncihne	-12.2183
▁roo	-12.2184
▁kooneet	-12.2192
key	-12.2193
ye	-12.2193
ookoho	-12.2201
etneihoowoohnee	-12.2201
late	-12.2208
esowobeih	-12.2208
hiisiiyoo	-12.2208
woohut	-12.221
▁ba	-12.2214
uwoot	-12.222
okuyon	-12.2225
koohuuhei	-12.2226
▁niiyo	-12.223
hcih	-12.2246
tniistoonooni	-12.2249
▁heibeex	-12.2252
uxohee	-12.2252
▁sho	-12.2253
▁Heneebe	-12.2255
biiwoohun	-12.2256
ceiteebin	-12.2262
▁Koonii	-12.2264
hcehit	-12.2272
▁heeneitete	-12.2273
ucks	-12.2276
▁Hiihoowbeet	-12.2276
neniibe	-12.2279
eineeceen	-12.2284
iitonou	-12.2284
cihnouuhcehi	-12.2284
inenteeni	-12.2289
owuuwunoo	-12.2293
▁niitootoxuun	-12.2295
▁kooheetno	-12.2298
oowubein	-12.2298
woxusii	-12.2303
▁took	-12.2315
▁nihtootou	-12.2319
iisiis	-12.2319
oowei	-12.232
▁nihnoohowoot	-12.2321
koxkoho	-12.2322
iikookon	-12.2323
hnokohunoo	-12.2324
▁nihwoneenei	-12.2325
▁hetcooco	-12.2326
eixou	-12.2327
▁Hoonowo	-12.2327
▁noononinihii	-12.2332
▁nihceecee	-12.2334
iiskoohu	-12.2335
niihisee	-12.2336
▁Dor	-12.2337
▁hotniineyooh	-12.2337
bixooxu	-12.234
eekei	-12.2341
niiniitouub	-12.2343
eeneihoowuu	-12.2345
ihiihi	-12.2346
ebiih	-12.235
eeneinokotii	-12.2353
▁niinouu	-12.2353
▁fl	-12.2357
iiceeciiskoohu	-12.236
eenes	-12.2362
tiiP	-12.2363
eineenoo	-12.2367
noubee	-12.2367
itouse	-12.2368
▁niiniiP	-12.2376
okuutono	-12.2377
cesisbii	-12.2377
▁niicen	-12.2383
▁heeneit	-12.2384
▁Niibeetno	-12.2388
sineno	-12.2389
▁neeneih	-12.2392
oxko	-12.2393
▁Nenii	-12.2393
bininec	-12.2396
enebeeno	-12.2396
heenoo	-12.2397
ooxebei	-12.2397
▁Niib	-12.2399
yootiininoo	-12.24
otoos	-12.2401
hwonbii	-12.2402
kouutenowuuneino	-12.2405
nooto	-12.2407
▁nenes	-12.2417
udge	-12.2424
▁Kok	-12.2426
soot	-12.2427
esoonoot	-12.2432
etiiwoo	-12.2432
▁heitous	-12.2437
hciinoteibi	-12.2437
toto	-12.2438
▁heeteihit	-12.2439
ehcii	-12.2449
kokoy	-12.2451
skuutii	-12.2457
otiibe	-12.2458
huune	-12.247
oneti	-12.247
▁niitoonoo	-12.2472
▁Cihb	-12.2473
niistiini	-12.2475
ntoono	-12.2478
biineet	-12.2479
nestouhu	-12.2492
▁hon	-12.2495
▁heetnoon	-12.2495
▁heeyeihbee	-12.2499
inooni	-12.2503
kohtowusee	-12.2506
ster	-12.2507
etbi	-12.2509
▁heetnokooy	-12.2513
▁Jul	-12.2516
iicP	-12.2518
iteheibeiitoonin	-12.2518
eebeihinoo	-12.252
neecih	-12.2523
eihoowoe	-12.2529
cihwoneeneti	-12.253
yihkoohu	-12.2534
▁behiis	-12.2541
rail	-12.2542
▁Hinot	-12.2543
▁Nihneyei	-12.2544
okoy	-12.2545
▁tohuuy	-12.2546
sniisi	-12.2547
▁Hoseih	-12.2547
noonotii	-12.2549
▁neec	-12.2551
▁heesinihiini	-12.2551
▁siiyeine	-12.2552
okunee	-12.2552
cesisihce	-12.2553
▁tihco	-12.2555
oxoneino	-12.2559
hoox	-12.256
▁wonooyo	-12.2563
iisinihiini	-12.2565
iniisonoon	-12.2566
koheiisihce	-12.2568
cesisii	-12.2568
oowoot	-12.2571
ineihi	-12.2575
niisiseen	-12.2576
iibeetP	-12.2578
▁niitono	-12.2581
▁nihkoxo	-12.2583
▁neyeinee	-12.2585
▁neeneisinihiino	-12.2586
▁niiciinoo	-12.259
hild	-12.2591
noonotiitii	-12.2593
eetoxcecnibeenoo	-12.2594
▁tohuunih	-12.2595
▁noxohoeni	-12.2596
▁Nihceenoku	-12.2598
▁hiihoowbeetnee	-12.2606
wooo	-12.2609
ceeciino	-12.261
▁wonoon	-12.2619
▁hiko	-12.2619
iiniikoheinoo	-12.2621
▁niinotiiho	-12.2624
ihwotik	-12.2627
▁ciineneih	-12.2629
eesnee	-12.263
▁fla	-12.2633
oohootP	-12.2634
▁heetousiin	-12.2636
itoneih	-12.2639
▁niiheneihi	-12.2639
oowuhcehi	-12.2641
▁heeneisinihiit	-12.2647
▁heetcihwo	-12.2648
ihcehin	-12.265
etobee	-12.2656
▁niicoonbi	-12.2656
cesi	-12.266
eboonoyoohootow	-12.2664
▁biisisee	-12.2668
▁Neeneisi	-12.2671
ecooheino	-12.2673
▁tohbeteee	-12.2673
▁niibist	-12.2673
ihoobe	-12.2674
ihnohk	-12.2675
▁Whe	-12.2675
ecoohei	-12.2675
iinoonotonih	-12.2677
▁koyeiyein	-12.2678
toyoowu	-12.2679
▁keicii	-12.268
▁beteenni	-12.2683
koohuunoo	-12.2692
towuni	-12.2693
eebeino	-12.2693
ehiinii	-12.2693
▁hetniih	-12.2695
iiyihoonoo	-12.2695
▁hooton	-12.27
▁Nihwoni	-12.271
ookuutiit	-12.2714
xoho	-12.2714
ukuu	-12.2717
teetee	-12.272
nestoobeen	-12.272
oowuniihi	-12.2722
▁Not	-12.2725
▁niisnee	-12.2729
▁heetniitene	-12.2732
▁heetnooten	-12.2737
▁ciiwo	-12.2739
out	-12.2741
osohowuun	-12.2752
▁niihooni	-12.2758
eeneintokohu	-12.2759
iisbeebee	-12.2759
hiisoo	-12.2759
eeneisneyei	-12.2762
enehk	-12.2764
iinkoohut	-12.2768
▁heeneesih	-12.2771
▁Heetniito	-12.2782
▁noxoo	-12.2782
kono	-12.2783
iyohkon	-12.2784
▁tohuuneeni	-12.2787
oubeeno	-12.2787
ciinee	-12.2788
▁niihoon	-12.2789
woowosei	-12.2791
tootiin	-12.2793
nowo	-12.2798
▁Niiwon	-12.28
ihciin	-12.2804
niiteneihit	-12.2806
dan	-12.2809
esneenoo	-12.2812
iiseineebe	-12.2814
onetino	-12.2814
▁hiisibi	-12.2819
▁Nihni	-12.282
oobeino	-12.2832
eetoonoo	-12.2844
▁neihoowbeeti	-12.2847
ihneniinook	-12.2849
▁cihnouuten	-12.2855
▁hotoonee	-12.2857
▁niiton	-12.2858
tnoohowot	-12.2858
ookuheinoo	-12.2858
▁tohuuceece	-12.2862
iheihok	-12.2864
▁Heniisi	-12.2871
xouube	-12.288
ooxuwuheinoo	-12.288
▁hokou	-12.2881
iheihinoo	-12.2882
iisetee	-12.2882
▁Koohei	-12.2886
▁ceesish	-12.2886
ur	-12.289
▁niiceeciino	-12.2897
▁ceeceib	-12.2898
xootiin	-12.2899
itiine	-12.2902
▁siihiihoow	-12.2903
esoohobei	-12.2903
▁noononih	-12.2903
inoneih	-12.2904
uuhuno	-12.2908
itouusei	-12.2909
▁niiy	-12.291
▁Niiniitobee	-12.2913
▁Bes	-12.2913
▁hootniistoo	-12.2913
▁noxohoenii	-12.2915
oncih	-12.2918
wowooniini	-12.2919
ooxohoe	-12.2926
▁koxouh	-12.2928
ehtoneihi	-12.2931
▁heebehbeete	-12.2937
onnih	-12.2949
iyihooni	-12.295
▁neihoowuun	-12.2951
neeniitouuhut	-12.2951
ihniihen	-12.2951
cebiih	-12.2957
niikoheit	-12.2958
benou	-12.2962
eeneihkotee	-12.2964
uheihino	-12.2965
iinih	-12.2965
▁Biib	-12.2971
▁niiciito	-12.2972
bisbixoo	-12.2974
uwono	-12.2977
seihit	-12.2986
ototeihinoo	-12.2989
▁heneenetino	-12.2991
okohuno	-12.2993
oncoo	-12.2996
▁Cenii	-12.2999
▁Kono	-12.3002
▁cesisce	-12.3005
▁nihciinen	-12.3006
▁niibeeteene	-12.3006
iiniiniibei	-12.3015
cihniiteheibi	-12.3016
▁beisno	-12.3018
oonoosoo	-12.3019
ikouutenowuunee	-12.3021
eceitoonetiitoon	-12.3021
toyoobee	-12.3021
noonoyoohootowoo	-12.3022
cle	-12.3023
▁nihbeteee	-12.3032
biin	-12.3033
▁nonotoo	-12.304
▁Tr	-12.3041
ihcihwo	-12.3047
▁tihbetee	-12.3049
einohwoo	-12.3049
xootowun	-12.3051
▁hec	-12.3051
▁nihtoo	-12.3053
uunse	-12.3055
iinoohooto	-12.3063
tonounit	-12.3065
iineenei	-12.3067
ihbiibii	-12.3069
▁bebiisce	-12.3072
▁yiiso	-12.3082
niihouuhu	-12.3086
▁hiisP	-12.3086
▁Wote	-12.3087
▁nohkce	-12.3089
ihkoho	-12.3089
neyeihoonoo	-12.3091
etiitono	-12.3095
ceibe	-12.3096
ixotiit	-12.3096
▁nookeni	-12.3096
▁neniiseihi	-12.3097
old	-12.3109
oneihin	-12.3111
▁neetinoo	-12.3111
icee	-12.3113
▁wonwo	-12.3114
teihit	-12.3127
uutenin	-12.3127
iibeetno	-12.3133
teeskuu	-12.3133
▁cihko	-12.3138
▁nihkou	-12.3139
▁yihkoohun	-12.3143
eiinowoo	-12.3145
▁Ha	-12.3146
▁nihnoonoohowo	-12.3147
cihi	-12.3151
niinii	-12.3151
eesneenoo	-12.3154
▁tohnotiihoo	-12.3158
▁hiiwoo	-12.3158
▁hiitet	-12.3159
niiniikoheit	-12.3159
tnoowouunoneinee	-12.3163
▁heetceeston	-12.3164
▁cebis	-12.3165
▁hiitoo	-12.3166
ohoene	-12.3168
iiseihino	-12.317
▁tetees	-12.3172
▁neniiwo	-12.3174
▁Neniihe	-12.3175
ehib	-12.3181
'\{	-12.3183
▁nihnoonoo	-12.3186
▁heetciit	-12.3187
nookohowoo	-12.3187
erman	-12.3188
▁Hiihoowooh	-12.3189
yooto	-12.319
ihibe	-12.3195
oonoyeisi	-12.3196
▁heecxooyeihi	-12.3196
▁koonen	-12.3197
nooxeise	-12.3198
usineno	-12.3199
iikooko	-12.32
▁neeheyei	-12.3201
neeneistii	-12.3203
▁heetnooxohoen	-12.3203
niitokuwoon	-12.3205
towootowoo	-12.3205
onowutoot	-12.3211
ookohuusbii	-12.3217
▁Sk	-12.322
nooxohowu	-12.3225
cihko	-12.3226
toyeinousinen	-12.3227
▁ciiciito	-12.323
iiwotton	-12.3231
▁hiicii	-12.3234
okeciihihin	-12.3235
une	-12.3236
itP	-12.3239
ixoxonei	-12.3241
itenowu	-12.3241
eihihi	-12.3241
▁Beneexo	-12.3242
eiiseet	-12.3246
eeteenebeihiinoo	-12.3246
kooh	-12.3247
ehiisebeih	-12.3249
teex	-12.3249
▁hoowuciisii	-12.3249
ceeceenoku	-12.325
▁neesiini	-12.3253
▁kooheet	-12.3255
eineihi	-12.3257
niicii	-12.3259
▁neneet	-12.3262
nottonee	-12.3266
▁Heebehn	-12.3271
onneyei	-12.3275
iibeex	-12.3275
▁neeceenou	-12.3275
▁niinese	-12.3283
woncebiihineen	-12.3283
▁heeneiteno	-12.3283
eeteniihoo	-12.3284
notiihooninoo	-12.3285
▁Nihkoxuuten	-12.3285
ehiisetii	-12.3285
iitoxun	-12.3289
uxootonei	-12.3294
ookuhei	-12.3294
nest	-12.3296
yoot	-12.3297
▁Kookoosh	-12.331
▁hiwoxuuhu	-12.331
ald	-12.3311
▁cecnii	-12.3311
▁konow	-12.3312
▁Nohku	-12.3312
ookuho	-12.3315
ooninee	-12.3318
cihbe	-12.3321
▁heetihnoohowo	-12.3326
nohkce	-12.333
neenebiitebei	-12.3331
▁Now	-12.3332
▁Nihniiteheiwoo	-12.3334
▁koohecii	-12.3334
ebeebeeto	-12.3334
hceece	-12.3336
noononoxoo	-12.3337
▁Ciini	-12.334
niisiheihi	-12.3342
noxono	-12.3343
woniiteheibe	-12.3347
oyone	-12.335
owouunone	-12.3353
iitoyou	-12.3354
toocei	-12.3355
nootiini	-12.3356
utoonoo	-12.3358
okoho	-12.3362
coot	-12.3362
niibootowu	-12.3365
iiseineebi	-12.3368
eesko	-12.3369
▁nihcihne	-12.3376
▁hokous	-12.3385
eyeihne	-12.3386
▁hiihoowuuno	-12.3392
▁Nihi	-12.3393
mon	-12.3399
biseenoo	-12.3402
owusee	-12.3407
eeneesceece	-12.3413
seihi	-12.3414
▁kooxce	-12.3416
▁Nowo	-12.3417
etiiwoohun	-12.3418
betiit	-12.3424
ciicih	-12.3427
oonooxohoebei	-12.3429
inouhu	-12.3433
owotenoo	-12.3435
iites	-12.3436
▁Heebehno	-12.3437
wonce	-12.3438
▁kooxheet	-12.3442
▁henec	-12.3443
oowoohnee	-12.345
cihciitei	-12.3454
▁keibeet	-12.3459
eetiseenoo	-12.3461
▁nonouh	-12.3461
wootee	-12.3463
istootiini	-12.3466
woohunoo	-12.3472
hito	-12.3475
ohoninoo	-12.3476
ebco	-12.3477
souho	-12.3479
ello	-12.3479
▁ceene	-12.348
oninihii	-12.3482
wonoo	-12.3483
niheihiinoo	-12.3487
▁heetwot	-12.3488
eheit	-12.3491
nousinen	-12.3496
▁Bo	-12.3497
ciitenoot	-12.3499
eibino	-12.35
eesinouhu	-12.3501
▁De	-12.3501
inotonoh	-12.3502
ak	-12.3504
▁nihteesen	-12.3509
heeneiyoo	-12.351
owunoo	-12.3523
hceh	-12.3526
otoyei	-12.3526
eiisin	-12.3526
eesneyei	-12.3538
arter	-12.3539
oowunooxeih	-12.3547
oenou	-12.3554
▁cenihc	-12.3555
iikoot	-12.3557
iisiitenowun	-12.3563
owuseeno	-12.3563
▁nototiib	-12.3564
▁beniiineniini	-12.3565
cebiihi	-12.3569
▁neniitowo	-12.3569
▁ciisi	-12.3571
▁niinei	-12.3575
▁heesciin	-12.3576
▁heeyeihno	-12.3579
▁cihnoono	-12.3582
inenteenit	-12.3583
▁Niibis	-12.3588
sibeit	-12.3589
iisise	-12.3591
▁heesno	-12.3594
niitookooyei	-12.3605
usetiin	-12.3606
▁koon	-12.3607
ebbee	-12.3608
yiiyii	-12.361
nouunei	-12.361
iiheyoo	-12.3612
okooyei	-12.3621
ecooton	-12.3623
tniibiibi	-12.3626
ciinoheinoo	-12.3627
▁biinei	-12.3628
▁wouu	-12.3629
towoono	-12.3639
eenebeet	-12.3648
▁Nihkox	-12.3655
▁cihceb	-12.3655
▁Niinih	-12.3659
ebiinisee	-12.3664
▁mus	-12.3666
eyein	-12.3668
▁niinou	-12.3669
▁heetneeckoohuno	-12.367
eixohoot	-12.3675
ihcesisih	-12.3676
▁biice	-12.3681
each	-12.3682
uxotonei	-12.3683
iteneihit	-12.3683
▁Teeteen	-12.3689
▁nihoonou	-12.369
uunono	-12.3696
▁nonoohowu	-12.3696
sini	-12.3697
▁kok	-12.3705
▁liv	-12.3712
hkoxtisee	-12.3713
netit	-12.3718
iiniiniistiin	-12.3719
konoh	-12.372
eeneest	-12.3723
▁neihoown	-12.3727
▁niihee	-12.3728
eihcehit	-12.3728
ouyein	-12.3728
▁koxuutenii	-12.3737
uhuutooni	-12.3741
▁hooweeteenee	-12.3741
heenetini	-12.3743
▁heetniitonouno	-12.3746
▁Heetbebiis	-12.3747
seenetino	-12.3749
▁Hotei	-12.3751
owoooteihin	-12.3756
oonoxou	-12.3758
▁hiiniibiisei	-12.3759
▁Niinihi	-12.3761
nons	-12.377
▁Benih	-12.3776
▁neniisou	-12.3776
notonoh	-12.3777
▁cihto	-12.3778
outoohoe	-12.3778
niibooni	-12.3783
noonoxoo	-12.3793
▁nihnoohobeino	-12.3795
▁heetniitou	-12.3796
oonotooneenoo	-12.3796
▁dea	-12.38
eyooni	-12.3809
▁neniitono	-12.381
iisneen	-12.3814
okeciihihini	-12.3816
iihihi	-12.3816
▁ceneeyohw	-12.3824
ihcen	-12.3824
iiheneihiitoonin	-12.3825
iistonoun	-12.3825
eeteenee	-12.3827
▁Trib	-12.3829
iiwoni	-12.383
ooxuto	-12.383
enetiitooni	-12.3831
▁ceiteeni	-12.3834
niitouuhun	-12.3841
onobeih	-12.3847
▁Kooxn	-12.3848
icihce	-12.385
▁Teiitoon	-12.3854
iicooniini	-12.3855
ooweenet	-12.3856
tootonooxohei	-12.3858
▁hookuuhuu	-12.3862
etihkouutenowuun	-12.3864
▁niiteesin	-12.3867
itooneino	-12.3867
ohuukoohu	-12.3868
▁hoowe	-12.3869
ouutenin	-12.3878
eihehiin	-12.3883
iiniiniisi	-12.3884
iisnoohowoo	-12.3887
ihniitouuhun	-12.3893
▁Toonheet	-12.3901
etein	-12.3902
iiwottonee	-12.3902
beteeen	-12.3904
▁niibeetiisiite	-12.3906
teihino	-12.391
owuh	-12.391
noehi	-12.3911
ohoot	-12.3913
etebinouhuunit	-12.3914
ebeih	-12.3918
sin	-12.3919
biswoohon	-12.3921
ihcoonko	-12.3923
ohko	-12.3924
itoohun	-12.3925
eenowoono	-12.3928
ineyoohei	-12.3937
estoo	-12.3939
iineyeih	-12.3939
▁niibeetco	-12.3941
▁neciini	-12.3944
niicoobe	-12.3946
ihoowP	-12.395
oowuus	-12.3958
sineni	-12.3961
einokun	-12.3962
okunooni	-12.3962
hoonowoo	-12.3967
hoseikuutii	-12.3967
noonoohowoo	-12.397
▁nookohei	-12.3972
▁koociihi	-12.3972
iseihit	-12.3974
itoonetiitoon	-12.3974
hesowobeihiitono	-12.3975
kooneniit	-12.3977
oowtoo	-12.3986
▁niinosoun	-12.3987
▁Mu	-12.3989
ihciniihisee	-12.3992
owooxeihini	-12.3993
od	-12.3994
esoohobeit	-12.3998
▁toonheenees	-12.3999
▁heetbeexo	-12.4
iiskoo	-12.4
wuuno	-12.4004
eesin	-12.4004
tineet	-12.4007
▁konouuten	-12.4008
nohkuuni	-12.4012
xowuuni	-12.4015
woniiteno	-12.4018
oowoohP	-12.4019
etniineyoohein	-12.4021
biineino	-12.4022
nosou	-12.4029
▁heeneisneyei	-12.4029
iibiineit	-12.403
▁hoseikuu	-12.4033
▁betebih	-12.4034
eeteenebeihi	-12.4038
oxes	-12.4044
niixoot	-12.4049
siitenowoo	-12.4049
oyoot	-12.405
ibiin	-12.4052
kohk	-12.4052
▁Heeteenebe	-12.4054
eiheh	-12.4056
eteenetiitoonin	-12.4058
censin	-12.406
▁nihwoowot	-12.407
neyeinee	-12.4071
▁Tohuuce	-12.4073
oowotonei	-12.4077
ceenis	-12.4081
beebeteentoo	-12.4086
▁wowoo	-12.4088
▁Neihoowuni	-12.4088
oonookoo	-12.409
▁heetneyeini	-12.409
oxuuyei	-12.409
▁neihoowbeetce	-12.409
▁Heniise	-12.409
neeko	-12.4093
▁Heetcebe	-12.4094
ibeti	-12.4098
niice	-12.4101
eitini	-12.4101
▁koociih	-12.4105
▁Heneesnen	-12.4105
▁neeneihoowooh	-12.4106
heen	-12.4106
iiniitouuhu	-12.4116
▁heecisic	-12.4118
▁niiteheibeen	-12.4132
▁heetniiteno	-12.4133
ixoheit	-12.414
▁noote	-12.4141
ihwoti	-12.4149
eito	-12.4153
ceenou	-12.4153
▁Nooku	-12.416
▁tonoune	-12.416
oowentou	-12.4162
iitonouneihit	-12.4163
beehek	-12.4164
het	-12.4164
▁Ju	-12.4167
oonoyoohobee	-12.4168
oneihinoo	-12.4168
koonen	-12.4169
yihxotonoo	-12.4169
▁Hiihoowko	-12.417
▁cenohu	-12.417
▁neyooxetii	-12.4175
'\'	-12.4176
ineen	-12.4178
▁Nootton	-12.4179
▁benohei	-12.4184
enino	-12.4187
iiceno	-12.4188
▁hetniineyoohoo	-12.4188
▁heetnehno	-12.4191
sneh	-12.4194
▁Four	-12.4195
▁niibeetbis	-12.4197
niitehei	-12.4198
▁heebehcii	-12.4199
▁Heetkoo	-12.4203
heetnee	-12.4203
ihwoowo	-12.4204
▁dr	-12.4207
▁hookono	-12.4209
▁nihniiheno	-12.421
▁ceite	-12.421
niiteheibin	-12.4212
owuuneihi	-12.4212
heh	-12.4214
▁niiteheibeino	-12.4214
iinokotiinoo	-12.4215
niihenniistii	-12.4222
▁niitoneihi	-12.4228
▁hooxohoenii	-12.4231
eesinouh	-12.4232
▁kouutenowuunei	-12.4235
henee	-12.4239
niisoono	-12.424
▁noowuniih	-12.4241
▁neenentooyei	-12.4246
tousebi	-12.4247
niihencebkoohuun	-12.4248
oooxuneet	-12.4251
ineih	-12.4253
ihbisiitonei	-12.4254
ian	-12.4255
▁nehbii	-12.4258
usinenoo	-12.426
ants	-12.4262
▁heeyouP	-12.4264
▁tihwoon	-12.4267
sco	-12.4268
hem	-12.4273
siitiseehek	-12.4276
isinen	-12.4279
niikoheinoo	-12.4284
etnonouhtiibe	-12.4285
▁Hootne	-12.429
toyeinous	-12.4295
eesinih	-12.4302
▁kookohtobe	-12.4307
eikoohut	-12.4308
ooti	-12.4311
eihinee	-12.4311
tch	-12.4312
▁nihwox	-12.4313
iiciis	-12.4313
netiitooni	-12.4314
hbiineiit	-12.4316
▁heetniinisikoh	-12.4317
kootee	-12.4322
▁niibeebene	-12.4324
wunee	-12.4324
ookuno	-12.4326
nouuneenoo	-12.4326
▁neenii	-12.4328
eiheeno	-12.4334
eenih	-12.4334
yeiho	-12.4335
ononitiino	-12.4336
teeteesihcehi	-12.4339
▁mat	-12.4341
uusbii	-12.4343
eenebiite	-12.4343
iibeetini	-12.4343
▁Noxowuu	-12.4343
▁ceniite	-12.4345
ouwut	-12.4346
beetnottonoo	-12.4356
ents	-12.4357
etniistii	-12.4366
bou	-12.4368
ehiisebi	-12.4373
ooon	-12.4378
▁Noxow	-12.4379
siisiii	-12.4383
stii	-12.4387
iiniihe	-12.4387
ts	-12.4388
▁Ceecee	-12.4389
▁Heetniibi	-12.4393
kuutonoo	-12.4396
▁heenetin	-12.4396
oonowooyeiti	-12.4402
heetne	-12.4407
▁Niihoo	-12.4409
woteiseet	-12.4409
▁hoowbebiise	-12.4409
▁niitootonoun	-12.441
xoot	-12.4411
uwut	-12.4412
▁woteih	-12.4412
niisiheihiinoo	-12.4414
▁Heettous	-12.4414
ihbisee	-12.4416
▁hootneihoow	-12.4416
neiht	-12.4417
▁neniisnenii	-12.4418
wukoohun	-12.4426
eeneiniikohei	-12.4433
▁nihcenii	-12.4436
iseentootiini	-12.444
ses	-12.4442
oxuuhu	-12.4451
tow	-12.4452
hentou	-12.4453
▁Ceebe	-12.4453
nesei	-12.4454
▁Hiinoo	-12.4456
ehtiiho	-12.4457
ceestoonee	-12.4458
▁Ces	-12.4466
'\}	-12.4467
ouubeihin	-12.4468
tooxebi	-12.4472
eeneito	-12.4474
itenowuun	-12.4477
koso	-12.4479
niibootiininoo	-12.4483
tokoohowoo	-12.4485
cesiso	-12.4487
▁Hiisi	-12.4488
▁Jud	-12.4489
einiisih	-12.4491
▁nosounee	-12.4498
okus	-12.4498
▁hece	-12.4503
enowuuneen	-12.4508
▁Ga	-12.4516
enentou	-12.4518
esoohoot	-12.4521
neesiikoohut	-12.4521
ebneeheyei	-12.4522
▁hooweh	-12.4524
iseno	-12.4524
▁behP	-12.453
▁toototou	-12.4532
eniheihiinoo	-12.4534
▁Di	-12.4537
niitbiibi	-12.4539
etciini	-12.4541
nowunee	-12.4543
hoowuce	-12.4544
iscibouhut	-12.4546
▁tohuutox	-12.4548
▁hiitousinihiino	-12.4549
tohko	-12.455
iikoh	-12.4559
▁heetihneyeih	-12.4564
▁niisoonee	-12.4565
bisni	-12.4568
oteibit	-12.457
▁woohonisee	-12.4574
ohtoo	-12.4575
▁who	-12.4576
▁Hoownii	-12.4577
▁Nookuh	-12.4578
iitiib	-12.4582
owouunoneinee	-12.4583
▁niinooxuwu	-12.4586
▁toonheetneenei	-12.4589
ooxuwuhee	-12.4592
vil	-12.4594
hiho	-12.4594
▁toonheecxooyei	-12.4595
koonkuu	-12.46
▁Heetneen	-12.4602
istoo	-12.4602
▁woohonii	-12.4611
▁heetniiciit	-12.4612
▁Niibe	-12.4614
ciinto	-12.4614
▁Hoto	-12.4616
woniinokotii	-12.4618
otoonootiini	-12.4618
niistonei	-12.4619
▁tohuucebiiheti	-12.4623
eetini	-12.4624
▁Tooth	-12.4625
neyeisiini	-12.4625
cesceheekuutono	-12.4626
sibe	-12.4633
ebikoni	-12.4634
eteb	-12.4635
neexo	-12.4637
▁Heentoo	-12.4637
▁keihc	-12.4641
▁cebteenocoo	-12.4643
ump	-12.4649
enetit	-12.4654
▁heihoowni	-12.4658
nokohu	-12.4662
oteeno	-12.4662
▁tohuube	-12.4671
ohok	-12.4673
▁hiihoowkohtowu	-12.4677
▁heetii	-12.4677
not	-12.4683
▁Tohcih	-12.4687
eeyeih	-12.4687
heihino	-12.4687
eeci	-12.4688
betoootiin	-12.4693
▁nihcesis	-12.4695
oteyoon	-12.4699
▁tokoo	-12.4702
eebinoo	-12.4705
cesihcehi	-12.4709
yoohk	-12.4709
▁hibiho	-12.4712
iiteto	-12.4715
nohkuune	-12.4717
ebnoo	-12.4719
▁biitobee	-12.4725
etonoonee	-12.4729
niitone	-12.4738
▁hoowei	-12.4742
osein	-12.4743
utiit	-12.4745
▁niihoo	-12.4748
tain	-12.4749
teenP	-12.475
iniihencebkoohut	-12.4753
▁niitees	-12.4753
▁beesoowuu	-12.4758
okeciihihi	-12.4759
oowotow	-12.476
▁kooxcei	-12.4761
niisisee	-12.4761
tousP	-12.4762
▁hitoox	-12.4767
▁niihii	-12.4767
okohut	-12.4769
ler	-12.477
eetoxuuni	-12.4771
kooneni	-12.4775
▁hoe	-12.4776
iiseti	-12.4779
ouuyot	-12.478
eeckooh	-12.478
ciinii	-12.478
eeneetow	-12.4784
▁Hotii	-12.4785
iiwoon	-12.4786
ineniiniicie	-12.4789
▁neihoowuno	-12.4791
sinonee	-12.4792
neyeice	-12.4794
hiihooweeteenebe	-12.4795
cky	-12.4797
▁hotniit	-12.4798
oowuwoo	-12.4798
▁tootono	-12.4799
▁nihnoohobee	-12.4803
nentooyeit	-12.4804
▁heeyowb	-12.4806
inei	-12.4806
ooxP	-12.4809
owotoneit	-12.4812
ceeyotisin	-12.4814
nootno	-12.4817
art	-12.4826
etneyei	-12.4826
▁toukuhu	-12.4828
▁Tootou	-12.4828
ihbeexookee	-12.4828
▁heetnooxeihin	-12.4829
eteihiiwooneiit	-12.4831
▁hiiceti	-12.4834
onwoowo	-12.4834
▁niisic	-12.4835
ihcesisniisi	-12.4836
wookohei	-12.4842
pis	-12.4843
neenestoonoo	-12.4843
▁hotoo	-12.4846
okeciihihino	-12.4846
▁Nihbeet	-12.4846
▁heetniisn	-12.485
ibit	-12.4854
ihcino	-12.4856
▁Neniiseih	-12.4857
ng	-12.4863
ihwon	-12.4864
nookohei	-12.4867
▁heesbe	-12.4868
oxoeyoon	-12.4868
ciiniisi	-12.4869
▁Tootoun	-12.487
oonohookeeni	-12.4871
iikohoot	-12.4872
oxoobe	-12.4874
▁sc	-12.4881
▁niisnii	-12.4886
eecis	-12.4887
▁Hinenitee	-12.4888
nowuunoo	-12.4895
eeneisinihiito	-12.4897
ihtoun	-12.4898
oxobee	-12.4901
niseenoo	-12.4902
hiixoniheti	-12.4903
▁beesoowu	-12.4905
▁neentoo	-12.4905
teenebetiit	-12.4909
▁cebiihineen	-12.491
▁heinoohowoo	-12.4913
eneetP	-12.4918
beebe	-12.4928
▁Heetbeex	-12.493
esowobeihiit	-12.493
niiitowootiini	-12.4931
▁tohciin	-12.4932
notton	-12.4933
▁\{	-12.4934
ihnotiiheen	-12.4934
▁ri	-12.4935
▁nehei	-12.4936
▁hox	-12.4936
iisibi	-12.4937
osinen	-12.4938
notnoo	-12.4939
eex	-12.4939
oonoyoohowo	-12.494
iineh	-12.4944
▁ciixo	-12.4944
niiboohunoo	-12.4945
nouuteno	-12.4946
iitousih	-12.4947
enini	-12.495
ooxeih	-12.4957
▁hiinikotiit	-12.496
teexo	-12.496
onein	-12.4964
▁heetihwo	-12.4964
otoonobe	-12.4966
▁woxutoo	-12.4969
oowooyeiti	-12.497
▁tootousi	-12.4972
▁nihtoyo	-12.4977
▁ceneib	-12.4978
▁niinisee	-12.4979
eeneinikotii	-12.4981
iisibii	-12.4981
earn	-12.4986
▁Heetnoohowoon	-12.4988
hiiteen	-12.4997
kuut	-12.4998
▁Hetni	-12.5003
toowoo	-12.5006
iisiiteyei	-12.5006
oonotooneihi	-12.5008
ihcihnee	-12.5012
xouuwuuni	-12.5014
beiiton	-12.5018
heentou	-12.5021
iinokotiit	-12.5022
noonoohoot	-12.5026
uyoo	-12.5027
inowo	-12.5029
▁heetnokohu	-12.5035
▁niiteice	-12.5036
▁Nototii	-12.504
ooxohoenihiit	-12.5042
'3	-12.5043
▁Hoowuuh	-12.5043
▁Niicii	-12.5044
eesiinihii	-12.5044
▁Hiin	-12.5046
iiyooho	-12.5047
▁Nihyihoo	-12.5053
ciiciite	-12.5054
oexo	-12.5056
ciiteneihi	-12.5062
enebeihiinoo	-12.5063
▁Tohbehiis	-12.5073
▁neniitow	-12.5074
▁neyoo	-12.5076
▁nehton	-12.5077
nohkoohuuno	-12.508
neetP	-12.5082
▁nouun	-12.5086
▁niisce	-12.509
▁Burge	-12.5091
▁biici	-12.5093
▁xooxoo	-12.5093
koto	-12.5095
iiciinou	-12.5096
iitowuu	-12.5098
▁heesnoo	-12.5098
▁heebete	-12.51
okusee	-12.5104
neenih	-12.5108
▁neniiheneihi	-12.5108
▁hooxeih	-12.511
▁tohuuniiteheibe	-12.5113
eniheihit	-12.5114
ohowoot	-12.5116
konP	-12.5119
▁Betebi	-12.512
oonoxo	-12.512
uuwoon	-12.5121
iiniise	-12.5122
▁niiceecei	-12.5122
▁neteexokuu	-12.5125
uukohein	-12.5128
niikou	-12.5129
etniise	-12.5131
eenihii	-12.5131
ihniihobein	-12.5133
lume	-12.5133
etnoowouunouhun	-12.5133
ebwon	-12.5134
rry	-12.5135
▁heetnotiih	-12.5136
ninee	-12.5137
ikouutenowuunoo	-12.514
neneenin	-12.514
▁Nihc	-12.5148
neihoownee	-12.5151
eeneinko	-12.5152
ebiseeni	-12.5153
tese	-12.5155
▁coon	-12.5155
▁nihniitono	-12.5157
oncesiskuu	-12.516
iisiitenoo	-12.5161
uheino	-12.5164
toyeinouse	-12.5165
isiikohei	-12.5167
ooxei	-12.5176
oonoyoohowot	-12.5178
iibisiii	-12.5179
oohobeihino	-12.5179
▁cow	-12.5183
teexok	-12.5185
▁Siine	-12.5186
▁Hihtou	-12.5188
xootonei	-12.5189
▁hoowt	-12.5192
cihnouu	-12.5192
▁hisii	-12.5192
etniiyihoono	-12.5194
▁tebinouhuu	-12.5195
▁niibisnohk	-12.5196
ihciinen	-12.5197
▁ceebkoohu	-12.5201
▁Hoonoyoohoo	-12.5204
skoohu	-12.5204
▁Siiheetn	-12.5204
tootoxu	-12.5205
▁niiboo	-12.521
ress	-12.5211
▁heetneyeice	-12.5214
▁niineenee	-12.5215
▁niineyeihee	-12.5218
ookowun	-12.5218
lon	-12.522
itexo	-12.5222
oneiitono	-12.5225
enit	-12.5225
▁kohtow	-12.5228
tiseet	-12.5228
nonoo	-12.5229
▁howouunone	-12.5235
cecnibeet	-12.5236
▁yeneih	-12.5236
onohoenin	-12.5238
exowo	-12.524
ihciice	-12.524
eihiinen	-12.5242
hkonee	-12.5245
oowoohunoo	-12.5246
iitnee	-12.5248
▁heetihci	-12.5249
▁tohnosouyi	-12.525
iiyeihe	-12.5253
▁toonnono	-12.5254
bisiitoneihi	-12.5254
ohowoo	-12.5255
itesein	-12.5256
ciineyoono	-12.5258
iiniiniitouuhut	-12.5259
icoot	-12.5261
▁neeneeto	-12.5261
▁cesi	-12.5262
ineyooheti	-12.5265
ineeno	-12.527
niitoon	-12.5271
tobeen	-12.5271
neeckuutii	-12.5272
▁heesnonee	-12.5275
toneet	-12.5276
ihyeihone	-12.5277
▁siisiiyein	-12.5283
siixoohoo	-12.5284
▁beexko	-12.5285
ooyo	-12.529
▁Niiniihen	-12.5292
niiheneihin	-12.5293
▁toonheesinihii	-12.5295
▁Niinosou	-12.5295
▁beeteeni	-12.5295
▁niicihbe	-12.5299
nentou	-12.5302
kuusi	-12.5302
eiteeni	-12.5304
niisiis	-12.5307
iisc	-12.5308
niihooku	-12.5309
esneeno	-12.5309
▁hoowuute	-12.5311
oobeenebei	-12.5312
▁heetnosouneen	-12.5315
eiheibe	-12.5316
kotiinoo	-12.5317
▁kotoyo	-12.5317
▁Nooh	-12.5318
▁heseise	-12.5318
ihniistoo	-12.532
iitn	-12.5321
▁Hit	-12.5324
▁hoowoono	-12.5325
▁notiihei	-12.5326
▁tohuuciinee	-12.5327
neeneisiine	-12.5329
ohP	-12.533
sk	-12.533
niihenno	-12.5331
ooheihi	-12.5333
▁niiheen	-12.5337
▁nookh	-12.5338
beexn	-12.5343
▁Wa	-12.5344
niiyou	-12.5344
▁beesneecee	-12.5347
eenebetiitoon	-12.5347
ihbeebeteee	-12.5351
▁dra	-12.5353
▁niscihininouhu	-12.5357
okuutoon	-12.5358
toune	-12.536
▁beetee	-12.5361
tonounowun	-12.5365
▁heetcoo	-12.5369
▁koohuut	-12.5369
▁heetniitenow	-12.5371
niihennoohooto	-12.5372
tonooxohu	-12.5374
▁heetneeckoohun	-12.5378
ihciinoohoo	-12.5379
iinosou	-12.538
owoyoo	-12.538
sneyei	-12.5382
▁ciine	-12.5385
▁Nihyih	-12.5385
neeceenoho	-12.5387
eep	-12.5389
towuuneen	-12.539
neeci	-12.539
A	-12.539
▁heetniic	-12.5391
ouhuutooni	-12.5392
ihbebi	-12.5399
▁heetbiino	-12.54
▁Ciibehno	-12.5401
ookute	-12.5402
▁koxuuhu	-12.5402
cees	-12.5407
iiciiteno	-12.5412
▁Niinoh	-12.5412
▁biisi	-12.5414
▁sehno	-12.5415
beti	-12.542
koheisihce	-12.5421
amb	-12.5421
▁tohnosouc	-12.5421
unowoo	-12.5425
ohowuni	-12.5427
▁hoowkox	-12.5427
uhcehisi	-12.5428
▁nihnoonono	-12.543
oownonih	-12.5431
eecxooyeihino	-12.5432
▁ciiteno	-12.5433
▁benoh	-12.5435
iisihoo	-12.5436
ihiin	-12.5441
teesiseeno	-12.5442
▁niitobeen	-12.5442
▁heetcebiiheti	-12.5447
▁Niibeetbi	-12.5448
red	-12.5449
noninihiinoo	-12.5451
▁heneini	-12.5451
▁Cihwon	-12.5451
▁niineyeihe	-12.5453
onibe	-12.5453
etniistoo	-12.5454
owotone	-12.5456
▁nootneih	-12.5456
eixoo	-12.5457
ihnotiihe	-12.5457
▁niitnihi	-12.5457
▁Noonoxoo	-12.5458
▁honoonoo	-12.5458
iicooco	-12.546
▁beexce	-12.546
▁wonnotto	-12.5461
▁konowuu	-12.5465
▁heetniisiii	-12.5465
beniiinenno	-12.5466
dle	-12.5469
ihneeniiteheibe	-12.5471
▁niihoonoxo	-12.5473
siikoo	-12.5473
▁huun	-12.5474
beniiinookeen	-12.5476
ibenou	-12.5477
oteihiino	-12.5477
neniibeit	-12.5477
▁noowouunon	-12.5484
▁hoowkohtobee	-12.5485
inosounono	-12.5486
iisiikoheini	-12.5489
koutoneihi	-12.5494
hihtousini	-12.5496
▁Tooteen	-12.5496
ceesey	-12.5497
ceecoboo	-12.5498
siisiiyei	-12.5502
iheih	-12.5502
wooxeh	-12.5502
toyobein	-12.5505
cowouuwutii	-12.5505
▁cont	-12.5506
cihbeet	-12.5508
▁hitoonehin	-12.5508
▁niistoowo	-12.5508
ciinouutono	-12.5508
teiitoonoku	-12.551
▁Niibeh	-12.5511
▁kouskuu	-12.5511
wottonouhu	-12.5514
kooxcei	-12.5514
notikoni	-12.5515
ooxuwu	-12.5518
▁heetbeebe	-12.5518
neesiiis	-12.5519
ouwuno	-12.5523
▁Heetnoko	-12.5523
noonotnoohobee	-12.5523
oteinoon	-12.5523
ouuteeneb	-12.5527
▁Nesiho	-12.5528
R	-12.553
iniinoox	-12.5532
Bear	-12.5532
oxuh	-12.5535
biibisi	-12.5536
obeen	-12.5536
kotoyoo	-12.5537
▁niixook	-12.5539
noonohkus	-12.5539
▁niitonounowun	-12.5539
towunee	-12.5539
ery	-12.5539
itoneihiinoo	-12.554
cebitee	-12.554
▁keihniiton	-12.5542
▁niiniitehei	-12.5543
▁hiihoowni	-12.5543
ssion	-12.5543
koneet	-12.5545
nebesiiwoo	-12.5546
ihteesenee	-12.5546
ooxowou	-12.5546
kokiy	-12.5547
▁neihoowbee	-12.5547
teinee	-12.5548
▁heetnooteno	-12.555
cebkoohuu	-12.5552
eiinowu	-12.5552
beniiineniini	-12.5554
▁hiiyohoo	-12.5556
▁heeneeswo	-12.5556
▁towoh	-12.5556
▁Heetniiwo	-12.5556
onohowu	-12.5557
unders	-12.5559
owokuseet	-12.5562
▁touko	-12.5564
▁Ciibehnee	-12.5573
ouubeino	-12.5573
neeneisP	-12.5574
teexokunoo	-12.5576
▁heettous	-12.558
etniistiino	-12.558
▁wookeciisoon	-12.5581
▁Niinee	-12.5584
▁teexok	-12.5585
oxoeno	-12.5585
▁wowoon	-12.5588
▁nihniiseihi	-12.5588
ihteetebe	-12.559
uheihi	-12.5592
nottonein	-12.5594
uusei	-12.5594
▁va	-12.5594
iinoonoyoo	-12.5596
▁Neeneyei	-12.5597
▁beteeho	-12.5597
biisihoo	-12.56
neeniiteheibeti	-12.5601
aws	-12.5603
woxtootiini	-12.5603
▁hetcei	-12.5604
▁nihneenee	-12.5604
neetneihoowooh	-12.5604
oteenebei	-12.5605
ooxuun	-12.5605
▁hibeih	-12.5605
esoohobee	-12.5607
ihcooco	-12.5608
esooneeno	-12.5608
nouuhce	-12.5608
eenesiinii	-12.561
▁cihcooco	-12.5613
eeneixooho	-12.5613
heenee	-12.5614
iiboo	-12.5614
wottoneeno	-12.5617
niitenoot	-12.5618
rt	-12.5618
cihwoteiseen	-12.562
tooyeito	-12.562
eseihin	-12.562
iiniikoheiit	-12.5621
▁hehniitoot	-12.5623
beyook	-12.5623
tonouneebe	-12.5624
iinosounotii	-12.5624
ebniini	-12.5625
▁biswo	-12.5625
iinouutowuu	-12.5626
esiikoohu	-12.5626
▁heetkonoh	-12.5627
toohoe	-12.5627
lp	-12.5628
▁nihtouno	-12.5628
ihceitoonee	-12.5628
▁heetoxee	-12.5628
▁wonoowo	-12.5628
▁heesce	-12.5629
yeibi	-12.563
▁Hoonoyoohoot	-12.5631
Nonook	-12.5631
▁niicihwoteihei	-12.5632
eiwoobe	-12.5634
▁ciibii	-12.5635
▁though	-12.5636
oonoxonii	-12.5637
iinen	-12.5637
ebiitooxobei	-12.5637
iibistonouno	-12.564
eekuuto	-12.564
▁Nihniihen	-12.564
▁Neheic	-12.5641
▁netes	-12.5642
▁...	-12.5642
cesisn	-12.5642
body	-12.5644
▁Yihxo	-12.5644
iicebihcehi	-12.5644
▁grass	-12.5644
▁dollar	-12.5645
▁month	-12.5646
▁Plume	-12.5647
▁tohnoohoo	-12.5647
nouuteneit	-12.5648
▁biibinoot	-12.5648
▁Heetwoniini	-12.5649
▁neeneist	-12.565
ihniitone	-12.565
iisehtonih	-12.565
oonookonoon	-12.565
▁trail	-12.5652
▁neisiihehi	-12.5654
enetiin	-12.5654
▁kouute	-12.5654
▁hookuuhuh	-12.5654
ffice	-12.5656
verything	-12.5656
▁tomato	-12.5657
iinikotiitooni	-12.5657
omebody	-12.5657
▁cihcesis	-12.5657
notoyeic	-12.5657
▁Rich	-12.5658
Nookbi	-12.5658
prings	-12.5658
▁ciixouuwutoo	-12.5658
▁rheumat	-12.5658
owouuhuhcehin	-12.5658
▁heeneixoxonetii	-12.5658
Ashland	-12.5658
Rhodes	-12.5658
anderbilt	-12.5658
benohooxebeino	-12.5658
carnival	-12.5658
ecexookeet	-12.5658
eeneibiiinit	-12.5658
etnehciistiit	-12.5658
heetniitobeekuun	-12.5658
hwoteinoxonous	-12.5658
iicihiixoen	-12.5658
iisiixowootonoo	-12.5658
iisneesootox	-12.5658
uxoehetinoo	-12.5658
woodpecker	-12.5658
▁Arnold	-12.5658
▁Bible	-12.5658
▁Burnett	-12.5658
▁CWC	-12.5658
▁Catholic	-12.5658
▁Cooxuceneihii	-12.5658
▁Harrington	-12.5658
▁Hobson	-12.5658
▁January	-12.5658
▁Jews	-12.5658
▁Pendergast	-12.5658
▁Pontius	-12.5658
▁Psalms	-12.5658
▁Ridgely	-12.5658
▁Saturday	-12.5658
▁Senecas	-12.5658
▁Shavehead	-12.5658
▁Showboat	-12.5658
▁Snowball	-12.5658
▁Spoonhunter	-12.5658
▁Turtle	-12.5658
▁Underwood	-12.5658
▁York	-12.5658
▁adult	-12.5658
▁again	-12.5658
▁anymore	-12.5658
▁beetoooheinooni	-12.5658
▁blanket	-12.5658
▁careful	-12.5658
▁charcoal	-12.5658
▁communion	-12.5658
▁computers	-12.5658
▁currants	-12.5658
▁dividend	-12.5658
▁doctor	-12.5658
▁eagle	-12.5658
▁earrings	-12.5658
▁friend	-12.5658
▁headdress	-12.5658
▁hebetebiheb	-12.5658
▁heebetohuuk	-12.5658
▁heetohuucis	-12.5658
▁heniisciitohu	-12.5658
▁hisiiseyook	-12.5658
▁neighbor	-12.5658
▁signs	-12.5658
▁summer	-12.5658
▁teapot	-12.5658
▁walk	-12.5658
▁Foreman	-12.5658
ooxookuuhiit	-12.5658
▁Cyren	-12.5658
▁Jacob	-12.5658
▁Mexic	-12.5658
▁Niicihwonnotton	-12.5658
▁Sidon	-12.5658
▁ceyotowu	-12.5658
▁chiefs	-12.5658
▁heetbeenoohunoo	-12.5658
▁hiiboonit	-12.5658
▁nohkeiyonee	-12.5658
▁nonookonohwoot	-12.5658
hawk	-12.5658
ihkohtobeeneb	-12.5658
itesiineeceenit	-12.5658
noonoxoxoohow	-12.5658
oowkoonenowuu	-12.5658
▁koxuhtiit	-12.5658
▁nonookunesee	-12.5658
▁record	-12.5658
▁siiniinesin	-12.5658
ciiteteebeihi	-12.5658
rabb	-12.5658
▁Gym	-12.5658
▁enough	-12.5658
▁teeteecibininec	-12.5658
ihbehnouutenee	-12.5658
kookohtobetouu	-12.5658
tookowuutooninoo	-12.5658
▁Bethany	-12.5658
▁ceixohunee	-12.5658
▁lodge	-12.5658
▁potato	-12.5658
▁punish	-12.5658
arrow	-12.5658
oekuuheiht	-12.5658
▁hokoxoeyoono	-12.5658
▁Aaron	-12.5658
▁Sweet	-12.5658
▁grade	-12.5658
▁Margaret	-12.5658
▁Willow	-12.5658
▁heihoowoetesoon	-12.5658
▁tohceniiseet	-12.5658
beetohneeceewoon	-12.5658
ebeeneiniseet	-12.5658
niiswottoneen	-12.5658
▁America	-12.5658
▁beetebihehiin	-12.5658
▁proud	-12.5658
oownehtiihoo	-12.5658
▁Samari	-12.5658
▁brakes	-12.5658
▁cenihwoteihit	-12.5658
▁sebeyooho	-12.5658
▁Roger	-12.5658
▁niinottowo	-12.5658
owoyeese	-12.5658
▁Gail	-12.5658
imbo	-12.5658
ysite	-12.5658
▁color	-12.5658
▁step	-12.5658
ebniitouuw	-12.5658
▁Heetneihoowooh	-12.5658
oobeenebetiit	-12.5658
▁straight	-12.5658
iicenobeenoon	-12.5658
▁Piper	-12.5658
ehiisebeti	-12.5658
▁beisniiheneihin	-12.5658
▁hehnonouhtin	-12.5658
biibixoxoneti	-12.5658
ohouwuneeninoo	-12.5658
▁Grasshopper	-12.5658
▁Wothihtousi	-12.5658
▁biiwoohuut	-12.5658
▁neyeiyooyoo	-12.5658
▁ciiniyeihehk	-12.5658
uxooyehk	-12.5658
yiiscesisihcehit	-12.5658
▁hiciiyooninoo	-12.5658
▁wooxuuninoo	-12.5658
ooxoheeseenoo	-12.5658
▁canning	-12.5658
▁heecesesei	-12.5658
▁camera	-12.5658
ciinoononeiht	-12.5658
ountain	-12.5658
▁hehkuhneenoo	-12.5658
▁honoonoxon	-12.5658
cesisiteeheet	-12.5658
oniinkoohuuhei	-12.5658
▁hikoowun	-12.5658
▁dress	-12.5658
eehkuhneet	-12.5658
usineetino	-12.5658
▁chairman	-12.5658
▁heitohuutoxce	-12.5658
ciitotoohoe	-12.5658
▁Heenetsinee	-12.5658
▁else	-12.5658
oekuuceenok	-12.5658
hoxuyein	-12.5658
iicecinsi	-12.5658
▁ninety	-12.5658
▁Niiscec	-12.5658
▁heetnoooxuneen	-12.5658
▁mountain	-12.5658
▁neesneniini	-12.5658
ford	-12.5658
kookoxuxootiin	-12.5658
▁fries	-12.5658
▁calf	-12.5658
▁tohnosouseet	-12.5658
▁niinosoutonouno	-12.5659
▁tohnehtonihe	-12.5659
▁front	-12.5659
▁noosoutounowun	-12.5659
notiinooxebei	-12.5659
▁Johnny	-12.5659
▁creek	-12.5659
▁Kokoohowoot	-12.5659
▁thirty	-12.5659
▁gravy	-12.5659
betebihehiinit	-12.5659
ceecebenowuunei	-12.5659
niisokuwot	-12.5659
oowuuteneebe	-12.5659
▁Niiteheibi	-12.5659
▁hiniitoyeic	-12.5659
acism	-12.5659
▁Christmas	-12.5659
nowuunin	-12.5659
▁really	-12.5659
▁command	-12.5659
▁second	-12.5659
▁yihooninee	-12.5659
heeteihiwooneiit	-12.5659
xouuwooteeneetow	-12.5659
▁hesinonoot	-12.5659
ebciiskoohut	-12.5659
oeyokooxuu	-12.5659
▁beesihetiit	-12.5659
▁council	-12.5659
▁smart	-12.5659
cooniiteen	-12.5659
▁sick	-12.5659
▁por	-12.5659
▁Chick	-12.5659
▁heeteihibeihi	-12.5659
wonbeebenoho	-12.5659
yeintoowoohun	-12.5659
kooniiteenowuune	-12.5659
▁teeyeihein	-12.5659
▁ceiteenenno	-12.5659
▁stud	-12.5659
▁Ceitoosoo	-12.5659
▁Noonohohoon	-12.5659
iiniibisein	-12.5659
▁Tohuutesei	-12.5659
▁hiisibenein	-12.566
▁honooxuwuh	-12.566
▁cihbenohu	-12.566
▁grand	-12.566
▁Tears	-12.566
▁window	-12.566
ihteetoyeinousi	-12.566
seyeinitenowuun	-12.566
oowuniitoneibe	-12.566
▁fair	-12.566
▁heebetooxebii	-12.566
▁bark	-12.566
▁niihookohuus	-12.566
▁Niicihwono	-12.566
iisotoowoo	-12.566
▁Wolf	-12.566
▁Nooxowouhut	-12.566
▁tohuuwottonouhu	-12.566
▁Hotel	-12.566
▁battlefield	-12.566
▁koxkohoe	-12.566
iitooxobeihi	-12.566
▁hitonounooninoo	-12.566
port	-12.566
▁hitiicoono	-12.566
▁court	-12.566
▁Meth	-12.566
tneesinihin	-12.566
▁Heetnoohowo	-12.566
▁cebiteenoc	-12.566
▁keihciinoohowoo	-12.5661
▁hoowceniisei	-12.5661
▁ceeceestonei	-12.5661
▁cihnottoni	-12.5661
▁teeteesP	-12.5661
eesiniinit	-12.5661
▁beexehc	-12.5661
itootousinihiibe	-12.5661
oowubesiin	-12.5661
▁heneinokut	-12.5661
besenoot	-12.5661
woonotiibeet	-12.5661
oowotowunehk	-12.5661
▁nihneesnenii	-12.5661
mond	-12.5661
▁Mag	-12.5661
▁hecesneeceeno	-12.5661
oonooxoebiin	-12.5661
▁Beniiinenno	-12.5661
neeteineebi	-12.5661
▁Nouutowu	-12.5661
eixoteebee	-12.5661
▁oven	-12.5661
▁neihoowbeetohP	-12.5661
▁niitokooyei	-12.5662
▁heihiyohkon	-12.5662
okuutooonin	-12.5662
nehtiihetibe	-12.5662
▁Nottonin	-12.5662
▁hootonitese	-12.5662
▁hokeihtoono	-12.5662
ooxuucoono	-12.5662
▁Siisiiyei	-12.5662
oowuunenino	-12.5662
▁toonheecis	-12.5662
▁ketnee	-12.5662
▁Niiceeseineih	-12.5662
▁nouuteneihi	-12.5662
teetecitoo	-12.5662
▁belly	-12.5662
ooxuunoneinoni	-12.5662
▁nihciinohou	-12.5662
ihcesiikoohun	-12.5662
ndian	-12.5662
▁Honoosooti	-12.5662
▁hihbiinooon	-12.5662
▁hehniisootoxu	-12.5662
▁fire	-12.5662
▁hoteinenno	-12.5663
oonooxebii	-12.5663
▁rods	-12.5663
▁hoownoohootowuu	-12.5663
▁Niiteheibeinoo	-12.5663
▁rules	-12.5663
▁tattoos	-12.5663
▁rocks	-12.5663
▁parents	-12.5663
ebiixouuhut	-12.5663
▁neniitowun	-12.5663
beebenoobee	-12.5663
▁besinooo	-12.5663
ihnoonoooxunee	-12.5663
▁hinecibinoo	-12.5664
▁hotniinowousee	-12.5664
outihii	-12.5664
▁beans	-12.5664
▁both	-12.5664
▁Hoohookeeni	-12.5664
mart	-12.5664
▁springs	-12.5664
▁heeneixonihoot	-12.5664
▁tihbiiwoohunee	-12.5664
▁nonouxonetino	-12.5664
▁koxohow	-12.5664
iistoko	-12.5664
ihcihnouuhcehin	-12.5664
ooxohoeyei	-12.5664
▁Hiihoowbebiis	-12.5664
eeneisibiitoon	-12.5665
aming	-12.5665
hyeeyeine	-12.5665
▁beteenootno	-12.5665
▁tooteentoo	-12.5665
inistootowo	-12.5665
spear	-12.5665
▁siihehc	-12.5665
las	-12.5665
ohkoohut	-12.5665
ihceyooxoho	-12.5665
▁mid	-12.5665
▁hoteineecee	-12.5665
betooohoot	-12.5666
▁Arm	-12.5666
iininoo	-12.5666
▁hetebinouhuuho	-12.5666
ooyeisibe	-12.5666
▁office	-12.5666
▁tecinihiit	-12.5666
iinookon	-12.5666
oonteec	-12.5666
▁beeteetoxu	-12.5666
▁close	-12.5666
ebiihooxebiisoon	-12.5666
▁hiihoowoohnooP	-12.5666
howooyeiti	-12.5666
▁Siiniico	-12.5666
iiteetetees	-12.5666
ceiboowuhcehit	-12.5666
nonixohe	-12.5667
ihnoonottonee	-12.5667
▁Roy	-12.5667
▁beteenohwoot	-12.5667
▁Jas	-12.5667
▁neihnoohowooo	-12.5667
▁wooxubouhu	-12.5667
▁hoxoobeti	-12.5667
tniitenowuuneet	-12.5667
rna	-12.5668
koohuuwoot	-12.5668
▁niibeetiistoon	-12.5668
▁hooxeihiiniici	-12.5668
▁Yeeyi	-12.5669
▁bull	-12.5669
unch	-12.5669
eesixohoo	-12.5669
▁heetsiic	-12.5669
▁fork	-12.5669
▁Teesihceh	-12.5669
eenebeihok	-12.5669
ihxouubeih	-12.5669
▁hoowbeetciine	-12.5669
iitootoyoow	-12.567
woonikobee	-12.567
owuuneniinin	-12.567
▁Nihcoonnouuten	-12.567
heetneh	-12.567
ebnouuhcehi	-12.567
spiri	-12.567
lue	-12.5671
▁forks	-12.5671
▁Any	-12.5671
▁hitiisiineb	-12.5671
▁dollars	-12.5671
▁trails	-12.5671
neneetoowu	-12.5671
ooweenetiitoon	-12.5671
▁nohceineey	-12.5671
▁heetneeceenoho	-12.5671
▁hookowuut	-12.5671
iibeebixookoon	-12.5671
▁tax	-12.5671
ooxuunowoo	-12.5671
▁Heetcihwon	-12.5671
oteihiihiiho	-12.5672
▁nobody	-12.5672
tokoohowun	-12.5672
▁coach	-12.5672
neeniiyeih	-12.5672
▁nonouuto	-12.5672
ihnowone	-12.5672
▁nookohunoo	-12.5672
▁nihteexouuhuno	-12.5672
▁nihtoonoonoo	-12.5673
▁hiitexoon	-12.5673
▁bixoyein	-12.5673
xuuyo	-12.5673
▁Kokuy	-12.5673
cihnoehit	-12.5673
iintiseet	-12.5673
oxonoohobeti	-12.5673
▁sma	-12.5673
esoohobeet	-12.5673
▁heetnookeee	-12.5673
▁heetohkooxoo	-12.5673
▁niihowooyeitit	-12.5673
oehiinit	-12.5674
▁cry	-12.5674
▁tohbeteet	-12.5674
tootonouyoon	-12.5674
▁heetkoonenowoo	-12.5675
▁hiibeete	-12.5675
oxuut	-12.5675
▁nonooxeise	-12.5675
einooniinit	-12.5675
▁ask	-12.5675
▁nonookotoyoo	-12.5675
▁Howooyeiti	-12.5675
▁nehwoni	-12.5675
▁Nihkonoh	-12.5675
eeneyeictee	-12.5676
einiisib	-12.5676
coonenii	-12.5676
▁ceneeyohwu	-12.5676
eesowowu	-12.5676
niibouhun	-12.5676
▁heestonouno	-12.5676
ooseitiseet	-12.5676
▁hiiniinooxu	-12.5677
▁heetnookohuus	-12.5677
▁heetniitciineno	-12.5677
▁hohookeinen	-12.5677
▁fact	-12.5677
▁hiihooweix	-12.5677
▁Hole	-12.5677
onbeiitoon	-12.5677
▁tebexonoo	-12.5678
▁hiibeexuun	-12.5678
ihnoxowus	-12.5678
▁Beesoowuun	-12.5678
ciicesisinihiito	-12.5678
▁Crow	-12.5678
oteineetiit	-12.5678
▁hecexookeih	-12.5678
▁woowoxkon	-12.5678
▁Toonheecx	-12.5678
▁cenihwoowo	-12.5678
▁Hoseikuutii	-12.5678
▁Biiciixo	-12.5678
iiceecebiihetin	-12.5679
notoniheihiinit	-12.5679
▁nookoxuu	-12.5679
xouuweeckoohut	-12.5679
olog	-12.5679
uwooninoo	-12.5679
xohowuu	-12.5679
▁biisiwoo	-12.5679
▁biixootowoo	-12.5679
▁tihbeetbii	-12.5679
▁hebeete	-12.568
econd	-12.568
ihcihto	-12.568
▁hiniiwooon	-12.568
▁coowoxu	-12.568
▁Heetniiboo	-12.5681
iisixohoo	-12.5681
▁hecexooxebi	-12.5681
▁Neehtoneih	-12.5681
▁noxowuneeteih	-12.5682
▁niskohoe	-12.5682
ihnoocoon	-12.5682
▁beesniiciih	-12.5682
▁hoownottone	-12.5682
▁heeneetseese	-12.5682
▁hokokuy	-12.5683
iiheeneteini	-12.5683
▁Pat	-12.5683
▁pow	-12.5683
kut	-12.5683
ohwoohuu	-12.5683
iitootoukuhu	-12.5684
▁nokooyoot	-12.5684
uhcehinino	-12.5684
neeteineb	-12.5684
▁heetihbeteen	-12.5685
▁hotowouuyoo	-12.5685
iiniiteheino	-12.5685
▁niicihwoteiheit	-12.5685
▁toonnenii	-12.5685
▁Hiiceebeh	-12.5685
oldier	-12.5685
▁hitoohuu	-12.5686
▁grea	-12.5686
itenowuunin	-12.5686
▁reserv	-12.5686
▁nihteesciinen	-12.5686
nihiitono	-12.5686
Memorial	-12.5686
▁biiseen	-12.5687
▁heihoowunehtiih	-12.5687
▁Niisbeteetosoo	-12.5687
▁koohetcii	-12.5687
noxootoohobe	-12.5688
eeyooku	-12.5688
▁Nihooneih	-12.5688
▁things	-12.5688
▁hoonoyoohobeti	-12.5688
owouhti	-12.5688
woonoo	-12.5688
▁hihciineyoono	-12.5688
▁numbers	-12.5688
bebiisnottono	-12.5688
▁ceneetee	-12.5688
toototouwoot	-12.5689
▁niihohookeen	-12.5689
▁neicito	-12.5689
▁nihxouwoote	-12.5689
▁Herman	-12.5689
▁Hesnoneenoo	-12.5689
ihbexox	-12.5689
▁niiwoowosei	-12.569
nonoukoohut	-12.569
ebiinsee	-12.569
▁hoxes	-12.569
▁nocoo	-12.5691
eeneesihei	-12.5691
tesihcehiit	-12.5691
neeciihi	-12.5691
ihkoonook	-12.5691
▁heetnihiinee	-12.5692
▁niibecoono	-12.5692
neesesiihi	-12.5693
tetouu	-12.5693
etiibin	-12.5693
tbeteenitoonoo	-12.5693
tit	-12.5693
siiwoheibe	-12.5693
woneeneiteyei	-12.5694
▁tohnosouneeneti	-12.5694
ehiisetiinoo	-12.5695
eeneeteeneetowuu	-12.5695
ihtoko	-12.5695
oowucensinenoo	-12.5695
ebyii	-12.5695
cihwoteiseet	-12.5696
▁heihtoustoobe	-12.5696
▁Jackie	-12.5696
oxuuheit	-12.5696
niixowooteihinoo	-12.5696
iisibihee	-12.5697
ohneeyei	-12.5697
▁Heenesoohow	-12.5697
▁hoowcesis	-12.5697
ebiinoono	-12.5697
▁heehiise	-12.5698
▁Ceebini	-12.5698
▁biinin	-12.5698
▁hoxku	-12.5698
▁niibeeteinit	-12.5698
▁nokohuut	-12.5698
woowoxuhcehi	-12.5698
▁heetnookoo	-12.5698
oubeniiinenno	-12.5698
▁nihbetooohe	-12.5698
yooniininoo	-12.5699
▁niistoowoohuut	-12.5699
tootonounowuu	-12.5699
cectoni	-12.57
ciibenee	-12.57
beebenoot	-12.57
ebiiteno	-12.57
ciinenowuunei	-12.5701
▁meth	-12.5701
▁Ward	-12.5701
oniinokotii	-12.5702
▁beef	-12.5702
▁hoonoxowutoo	-12.5702
▁cecton	-12.5702
▁heetcenenoot	-12.5702
▁drain	-12.5702
yiisiikoheit	-12.5703
▁beteetoxuuni	-12.5703
niitobeekuut	-12.5703
niiniiboohuno	-12.5703
▁niibeebebii	-12.5704
niixohous	-12.5705
ihnosounoo	-12.5705
▁stand	-12.5706
▁heetohniixoot	-12.5706
▁Ceikoohu	-12.5706
▁ceniixouubeihi	-12.5706
▁tohbisnee	-12.5706
▁niihoonoxowut	-12.5707
▁neniisihooo	-12.5707
▁beeheetei	-12.5707
▁heecisiseet	-12.5707
▁neetousiini	-12.5708
hesiikoohu	-12.5708
▁pack	-12.5708
onheeneti	-12.5708
▁hookecii	-12.5708
ookuunino	-12.5709
▁tohuucoon	-12.5709
▁toonheesinihiit	-12.571
▁tohuuceenei	-12.571
▁hinoooxuu	-12.5711
neenouuneenoo	-12.5711
▁nihneeto	-12.5711
▁Nootinei	-12.5711
uxohoet	-12.5711
noxowuseyo	-12.5712
ciitohwoo	-12.5712
xesnoun	-12.5712
▁nookooyeinoo	-12.5712
ihbesenee	-12.5712
▁heetteesiseet	-12.5713
eenebinee	-12.5713
oowouuyeinoo	-12.5714
▁toonheeneisiini	-12.5714
iibistonounowun	-12.5714
▁Tootiino	-12.5714
▁tohciino	-12.5715
oxohoeniini	-12.5715
ihnouuhce	-12.5715
▁hitineniteewo	-12.5716
ciikohtowuhe	-12.5716
inowouseet	-12.5716
yeisise	-12.5716
▁Heetko	-12.5717
▁tohwooneihin	-12.5717
oowotoninee	-12.5717
▁pu	-12.5718
▁niiwoteihei	-12.5718
▁henihkote	-12.5718
uutoon	-12.5718
nooku	-12.5718
▁heeneicxooyei	-12.5718
outhern	-12.5719
owooneiht	-12.5719
iinestoobee	-12.572
▁Heihoowooh	-12.572
▁heniihoote	-12.572
▁Sad	-12.572
bobooteeneet	-12.5721
▁ceniicebi	-12.5721
▁lots	-12.5721
oohowunee	-12.5721
▁nihooncebitee	-12.5721
▁Sol	-12.5721
▁noyootino	-12.5722
▁Neihoowtonoun	-12.5722
▁koohoyei	-12.5722
ihnoohobet	-12.5722
▁tohuuboo	-12.5722
niisiiis	-12.5722
▁hoowuunentooh	-12.5722
▁heetnooxeihit	-12.5723
xoniseenoo	-12.5723
▁heneeteihit	-12.5724
▁Pro	-12.5724
▁heniisooninoo	-12.5724
▁hoonoxoobeti	-12.5724
▁hebiitooxobei	-12.5725
▁cover	-12.5725
▁cold	-12.5725
▁cl	-12.5725
▁weeds	-12.5726
▁gym	-12.5726
▁daughter	-12.5726
▁sehwo	-12.5726
▁nohceineenohwoo	-12.5726
owouutii	-12.5726
▁konooko	-12.5727
ihbesii	-12.5727
▁Keel	-12.5727
▁hiitoustoo	-12.5728
ookowunoo	-12.5728
▁neniisneniini	-12.5728
oowotowuu	-12.5729
▁Harris	-12.5729
iiciskoohut	-12.5729
▁heesneh	-12.573
▁tohnokooyein	-12.573
▁ciinouut	-12.573
▁bebiistii	-12.573
niiwoxeenebe	-12.5731
▁tihciinohu	-12.5731
▁lad	-12.5731
kooneniii	-12.5732
cihnoxuutei	-12.5732
beexookeet	-12.5732
etiiwooon	-12.5732
▁ceeetee	-12.5732
bisbee	-12.5732
▁ciiteihok	-12.5732
oowotonin	-12.5733
xootowoon	-12.5733
toototouwoo	-12.5733
▁Niisiyoo	-12.5733
▁bead	-12.5734
▁ceeceneeyohw	-12.5734
nottobeit	-12.5734
▁nihcoocoboo	-12.5734
ooweenetP	-12.5735
fight	-12.5735
▁niiheenetinee	-12.5735
ceiwootee	-12.5735
▁niikohtowu	-12.5735
▁heesinihiihok	-12.5735
ihneeno	-12.5736
▁woohonenow	-12.5736
neeceeniit	-12.5736
ihcihwoteiseen	-12.5737
ihnoonoxowuh	-12.5737
iisbeete	-12.5737
▁Noah	-12.5737
neeneiheit	-12.5737
▁niiniitoneihi	-12.5737
oobeihi	-12.5738
oniseen	-12.5738
beebebeenoxuuhe	-12.5738
koheit	-12.5739
▁Bears	-12.5739
▁tohuuciitohwoo	-12.5739
oeniiniikohei	-12.574
beebeeneiht	-12.574
niitoneibe	-12.574
▁bottle	-12.5741
▁hiihoowbeiitoo	-12.5741
▁wottou	-12.5741
▁brothers	-12.5742
tooneetiininoo	-12.5742
▁heetoxunenii	-12.5742
▁hokeciihiht	-12.5742
ihnouute	-12.5743
▁hoheis	-12.5743
eeneiseineebee	-12.5743
▁heihoowun	-12.5744
oononkuutii	-12.5744
▁heetniihobeinoo	-12.5745
▁hiniinooxuut	-12.5745
▁neetoustoo	-12.5746
xookuseet	-12.5748
▁coocowo	-12.5749
ooyeiko	-12.5749
▁Koociini	-12.5749
kotousinen	-12.5749
▁hiineniininoo	-12.575
ats	-12.575
eihiisoono	-12.575
eiseenook	-12.575
▁hetneyeih	-12.5751
▁reg	-12.5751
▁heniiscih	-12.5751
etnihi	-12.5752
▁heetniiniseenoo	-12.5752
▁Can	-12.5752
▁hiteseiiton	-12.5753
▁wottowu	-12.5753
▁hiciineyoono	-12.5753
▁toonnecii	-12.5754
▁yeyein	-12.5754
iinehtiiheti	-12.5754
▁heetnoko	-12.5755
▁hiixonihoo	-12.5755
▁heneeteihi	-12.5755
ebiibee	-12.5756
etiine	-12.5756
owooteiht	-12.5756
acr	-12.5756
ceenokuno	-12.5757
koheino	-12.5757
▁heetyihkoohunoo	-12.5757
▁heeneins	-12.5757
▁Woniiteno	-12.5758
▁heinokut	-12.5758
▁heniisehtonih	-12.5758
▁tohuutoxuno	-12.5758
▁heetnookohei	-12.5759
▁Nihteexo	-12.5759
▁hello	-12.5759
teesciineno	-12.576
nehtiitiinoo	-12.576
▁niinisikoh	-12.576
▁heetniikou	-12.5761
rnad	-12.5761
okeciihihnoo	-12.5761
▁niitoukous	-12.5761
▁Hitook	-12.5761
ooxuunoneti	-12.5763
eeteinit	-12.5763
▁nihceestonei	-12.5764
mps	-12.5764
▁tebexo	-12.5765
▁heetoustoo	-12.5765
▁noubeeno	-12.5766
yeeyeihowoo	-12.5766
▁heeneicxooyeihi	-12.5766
einooxebii	-12.5767
sacr	-12.5767
▁heeneisbiibi	-12.5767
cihcesisoo	-12.5768
onneeninoo	-12.5768
neeniisi	-12.5768
ooxusee	-12.5769
itenowuuneinoo	-12.5769
▁heetniisehtonih	-12.5769
▁dir	-12.5769
iikohtobeit	-12.5769
▁tihwon	-12.577
▁hokeciic	-12.577
heeneiseineewoot	-12.577
owuuwu	-12.5771
▁teeteecis	-12.5772
esiniwoot	-12.5772
bisniiteheibetin	-12.5773
oniniixouhut	-12.5773
iinestoo	-12.5774
neito	-12.5775
▁tohneeninoo	-12.5776
yiistokoh	-12.5776
ugar	-12.5776
▁heetnosounento	-12.5777
▁hoowbeetiini	-12.5777
uubeitooni	-12.5778
scowo	-12.5778
▁cihcoocoon	-12.5779
▁niinoxohoewo	-12.578
▁nihbeebenoh	-12.578
oneentoonoo	-12.578
▁nihyii	-12.5781
ooxuwuuneniin	-12.5782
▁nihwoteexo	-12.5782
▁ceeyotisin	-12.5782
niiteicihiitooni	-12.5782
▁Heetihciino	-12.5783
▁Neniisneniinoo	-12.5784
▁noonoxooteihi	-12.5784
ihetiit	-12.5784
▁neyeisisee	-12.5784
▁siteeno	-12.5785
iincesihcehi	-12.5785
▁heneenetit	-12.5786
ciinenowuunoo	-12.5786
▁kotousinen	-12.5786
▁niinoxowuuni	-12.5787
▁tohyihoot	-12.5787
woowoohonen	-12.5788
▁Heebehbeet	-12.5788
▁neeneetookooy	-12.5788
oowuuniisoon	-12.5788
▁Hoocoo	-12.5789
heetih	-12.5789
▁heesiitousP	-12.579
iitbeetoh	-12.579
wottoneet	-12.5791
les	-12.5792
▁kooheihciibe	-12.5792
▁koohihkoo	-12.5792
▁nihneeneiheit	-12.5793
▁hookuuhuho	-12.5793
cobot	-12.5794
▁mas	-12.5795
▁heniiswo	-12.5795
▁Nihnoono	-12.5795
toyeinousineet	-12.5796
▁nihwonoxowoo	-12.5796
▁Yookox	-12.5796
oenowoonei	-12.5797
▁hiihoowuhceece	-12.5797
oubeihit	-12.5797
oowoh	-12.5797
▁noonotnoohobee	-12.5798
▁niinosouheeneti	-12.5799
eesisee	-12.58
▁saw	-12.58
▁noonohooke	-12.5801
▁neebehneet	-12.5801
▁gut	-12.5801
iehtiitoon	-12.5802
iinohooteini	-12.5802
shad	-12.5802
tooxu	-12.5803
▁yihxohee	-12.5803
beetohwoni	-12.5803
▁ciiciineyei	-12.5804
▁xouuwoote	-12.5804
▁heetoxeeni	-12.5805
▁tootheti	-12.5805
iiciixook	-12.5806
▁Honooneeneb	-12.5806
▁neeniit	-12.5806
▁beisbii	-12.5806
▁hitenin	-12.5806
▁neinooninoo	-12.5806
oxooteenowo	-12.5806
neesiini	-12.5806
nootookohei	-12.5807
iinestoobeihi	-12.5807
▁xooxouuwutoo	-12.5807
▁besnooo	-12.5807
▁Noyoot	-12.5807
seihehk	-12.5807
bri	-12.5808
▁wotnenee	-12.5808
koutoxuuheti	-12.5808
▁biisiiton	-12.5808
▁hitoseinou	-12.5808
oonoxowutoo	-12.5809
▁nihbiswoohone	-12.5809
▁pas	-12.581
nouuteneih	-12.581
▁hihniiheneihiit	-12.581
itootowu	-12.5811
▁neteenetiitono	-12.5814
night	-12.5814
ident	-12.5815
▁nihtebeni	-12.5815
▁nihwoteikuuton	-12.5815
▁Wy	-12.5815
▁hoteiciineeno	-12.5816
ebiihiiho	-12.5816
▁tokohoeno	-12.5817
bebiisceenokunoo	-12.5817
▁Tohuunee	-12.5817
tooyohkon	-12.5817
▁Keicii	-12.5817
iiyoohe	-12.5818
yookuutiit	-12.5819
▁teetetees	-12.5819
owouciton	-12.582
beebi	-12.582
▁heteiitooneihi	-12.5821
▁heetneyeiwo	-12.5823
otoohoe	-12.5823
uxoheihin	-12.5823
▁nonoohobeihi	-12.5824
touuseen	-12.5824
▁Hookonoo	-12.5824
iitentoo	-12.5824
ihbebeitei	-12.5824
▁hiisiitenoo	-12.5826
tootiino	-12.5826
ooyoti	-12.5827
▁shh	-12.5828
eebeteee	-12.5828
eeneceso	-12.5828
▁nihcesiskuutii	-12.5829
oowukuu	-12.5829
▁niiseihi	-12.5829
▁showe	-12.5829
▁Par	-12.5829
▁heetiixoo	-12.583
▁kootoyo	-12.5831
▁hitoonehinoo	-12.5831
iiheihin	-12.5832
▁beise	-12.5833
▁niitcebiihineet	-12.5834
neetni	-12.5834
▁contin	-12.5835
▁hiye	-12.5835
honowu	-12.5836
iiceeceeh	-12.5838
▁Toonniiniini	-12.5838
▁Kooheetcii	-12.5839
itooneiit	-12.584
▁Hiisibi	-12.584
▁hokse	-12.5841
▁Rus	-12.5841
iineniinin	-12.5841
ceecebiseeno	-12.5843
iisniiseekuu	-12.5844
▁heecisiini	-12.5844
beetiistoot	-12.5844
yoohun	-12.5845
oobeteekoohu	-12.5845
iniinooxuno	-12.5846
uceitooneino	-12.5846
neniiwoo	-12.5846
▁woowooyo	-12.5846
▁hoowoohoniini	-12.5847
▁Heetniinee	-12.5847
▁koohece	-12.5848
iixowooteih	-12.5848
▁toyeinousii	-12.5848
tousiisiiten	-12.5848
niinooxuwut	-12.5849
▁koocee	-12.5851
▁niistoowoot	-12.5851
▁Flo	-12.5851
seineekuutii	-12.5851
▁hooy	-12.5853
▁hiixouu	-12.5853
▁hold	-12.5853
bisiikohei	-12.5853
▁tohuuciiceih	-12.5853
wuuhoen	-12.5853
iibeteentoo	-12.5854
▁tohnosouniin	-12.5854
uxohun	-12.5854
▁Noowoh	-12.5854
toukutii	-12.5854
ebeyohei	-12.5855
▁bro	-12.5855
▁heetnih	-12.5856
xoheihok	-12.5856
▁tom	-12.5857
urd	-12.5857
▁neneeceenit	-12.5857
▁duck	-12.5857
▁Cebkoohu	-12.5858
owtootiseet	-12.5858
hxouuwoote	-12.5859
heihk	-12.5859
ehtoun	-12.5859
▁heetihbebiise	-12.5859
rink	-12.586
▁hoonounowoo	-12.586
▁nihneenece	-12.586
▁Kooxnih	-12.586
iinootowu	-12.586
▁biikou	-12.5861
▁toonnii	-12.5861
▁beexceece	-12.5861
▁niiniitobeenoo	-12.5862
▁hononiton	-12.5862
▁hetehbii	-12.5862
▁beneesiibee	-12.5863
ookukoo	-12.5864
ihcihceno	-12.5865
▁Ty	-12.5866
▁Heetniiheneihin	-12.5866
▁cesisii	-12.5866
cihcenohusee	-12.5867
▁ciineyoo	-12.5867
▁Heetyihxot	-12.5867
oontoot	-12.5867
▁conooco	-12.5867
oug	-12.5868
▁heetniikoo	-12.5871
▁neniiheneiht	-12.5871
▁coowoo	-12.5871
ooxoet	-12.5873
iiciiteneihi	-12.5873
▁Hetoonoyooho	-12.5873
▁nookoowu	-12.5873
niiniistiinoo	-12.5876
▁hineyoohu	-12.5876
▁names	-12.5876
▁Hot	-12.5876
woowoxe	-12.5878
▁heniitootone	-12.5878
kouuteneihi	-12.5879
neetikotiino	-12.5879
eck	-12.5879
cation	-12.588
ihnous	-12.588
etesi	-12.5882
ookohoe	-12.5882
▁nihyihooni	-12.5883
hiibee	-12.5884
oward	-12.5884
eiyeitinee	-12.5884
▁Koowothi	-12.5885
▁heetciinon	-12.5885
ooceihit	-12.5886
▁ciici	-12.5887
ihtoyoun	-12.5888
ookok	-12.5888
▁beteehoo	-12.5889
▁Neihoowbeetoh	-12.5889
▁Touhoon	-12.5889
▁kookoho	-12.5889
eiciini	-12.5891
neeneihit	-12.5892
eibeeni	-12.5893
▁nihnoooxuneet	-12.5893
kotoyohuut	-12.5895
▁ciibehbe	-12.5896
beihinoo	-12.5896
ebkuutii	-12.5898
▁Heeneecxooyei	-12.59
iicisiiis	-12.59
ras	-12.5902
▁hetneihoowuus	-12.5902
behkooko	-12.5902
▁heebehto	-12.5903
▁Noohootowoo	-12.5904
uniinit	-12.5906
ooheisiini	-12.5907
iiyihkoohu	-12.5907
iikono	-12.5908
onisei	-12.5909
▁tihwoniini	-12.591
▁heetneentoonoo	-12.5911
▁heniixoneih	-12.5912
tousebiixoh	-12.5912
▁ciinowo	-12.5912
▁niibooot	-12.5912
▁nooxowoot	-12.5914
ihneetetee	-12.5915
▁nentooy	-12.5915
▁Tooyoohootow	-12.5915
▁Niiniistii	-12.5916
ootoonouhun	-12.5916
▁kill	-12.5916
woteexohoo	-12.5916
▁heetiini	-12.5917
▁niiniibooho	-12.5917
▁nihbeebiineih	-12.5917
▁Hooxuu	-12.5917
▁heetniiniisooni	-12.5918
woxuhooxebii	-12.5918
▁Heeyeih	-12.5919
eesnehtiiheihi	-12.592
▁hoowehciis	-12.5921
▁hoonoyoohowoo	-12.5922
uhcehisiwoo	-12.5922
▁hitesi	-12.5924
iisneenonihoo	-12.5924
▁Noosounent	-12.5924
oyokun	-12.5924
hkohtobeih	-12.5925
neeneincitii	-12.5925
kouskuutii	-12.5925
ume	-12.5925
▁conoot	-12.5926
▁woxuuniici	-12.5926
▁hotwo	-12.5927
tebkuu	-12.5927
teesihcehit	-12.5927
▁beniiinP	-12.5927
▁howooyeitit	-12.5928
atch	-12.5928
▁tooyoowu	-12.593
▁heesiiseineebei	-12.5931
▁niinosouniistii	-12.5931
ceestone	-12.5931
teesiseeni	-12.5931
otisee	-12.5931
tootooyeit	-12.5931
neenoko	-12.5931
▁Mat	-12.5932
▁Niinoonon	-12.5933
▁Heetniitou	-12.5933
eiisineno	-12.5934
ooxoehibi	-12.5934
▁beebexoo	-12.5934
▁heesise	-12.5934
▁niibeteentoo	-12.5935
ebiisno	-12.5936
noniikuhu	-12.5936
▁niibeese	-12.5937
hiinin	-12.5937
oowuunee	-12.5938
ciiciiskoohu	-12.5939
wono	-12.594
eiihcehino	-12.594
iibeteeenee	-12.594
▁huucooo	-12.5941
ouheihoo	-12.5941
iinotiitii	-12.5941
iibiinei	-12.5942
eeneiten	-12.5942
▁heesiitousi	-12.5943
woni	-12.5944
bisise	-12.5944
▁Neihoowehc	-12.5944
▁hetneihoowuu	-12.5944
iseenou	-12.5945
oeseite	-12.5945
▁Wes	-12.5946
▁bisceece	-12.5947
essibein	-12.5947
▁tohcesis	-12.5948
inobeenoonoo	-12.5948
▁law	-12.5948
gram	-12.5948
niiteheiwoon	-12.5949
▁Ciineyei	-12.5949
▁nonook	-12.5949
tisee	-12.595
usetii	-12.595
uana	-12.5952
ooneinoni	-12.5954
▁koowoowuuno	-12.5955
arp	-12.5956
soxuuhetiit	-12.5956
oowunii	-12.5956
neehi	-12.5957
▁hoowuuheene	-12.5957
▁nookooxuu	-12.5957
▁Tihbeeto	-12.5958
eebenoobee	-12.5958
▁teneiitoon	-12.5958
ihcihbixo	-12.5959
▁tohuuciiciin	-12.5961
ciiciineyei	-12.5962
ilda	-12.5962
rat	-12.5963
▁tohbeetohni	-12.5964
▁Heisonoo	-12.5964
ebyihkoohu	-12.5965
ouho	-12.5965
▁leas	-12.5965
▁cees	-12.5968
▁wonoonP	-12.5969
iiseene	-12.597
▁Heetniisce	-12.5972
▁neeneitox	-12.5972
ooxoe	-12.5973
iinseen	-12.5973
▁heebehnii	-12.5973
▁Heetceece	-12.5974
ohuutono	-12.5975
niisiseet	-12.5977
▁ciinoh	-12.5977
neeneihoot	-12.5978
▁nihtotouw	-12.5978
▁donut	-12.5979
▁Nihyiis	-12.5979
ookukoohut	-12.5981
▁heetniibiino	-12.5982
▁howooniit	-12.5983
heetni	-12.5983
▁noonoyoohooto	-12.5984
▁huux	-12.5985
woxhooxebii	-12.5985
ihkotoyoho	-12.5985
nottobeebe	-12.5985
iinisootowuu	-12.5986
▁neebehce	-12.5986
▁heetohko	-12.5987
▁heeneetox	-12.599
▁niiteheibeit	-12.599
ooxuuniici	-12.599
▁hoowuneeni	-12.5991
neebeteee	-12.5991
▁Nihwonko	-12.5991
iinouutowuuh	-12.5991
▁nihniisiton	-12.5992
▁tohuukou	-12.5995
▁Nihniiheneihi	-12.5996
heesinihiit	-12.5996
ouheih	-12.5997
▁toonheetniisP	-12.5997
ebiibi	-12.5998
eeneisiitenoo	-12.5999
eeneinxooto	-12.5999
▁nottoneen	-12.6
▁cooniineet	-12.6
▁heesnoneenoo	-12.6001
oowotowoo	-12.6003
▁hetneihoowP	-12.6003
yeeyih	-12.6003
ookootii	-12.6004
eetoxcecnibee	-12.6004
▁noonoox	-12.6005
▁noohowoh	-12.6005
tootiseet	-12.6006
cebkoohuni	-12.6007
▁hibooo	-12.6007
iiteexokunoo	-12.6009
▁hiihoowteen	-12.601
▁hiisbii	-12.6011
ciiteneihiino	-12.6013
oyeineetii	-12.6014
face	-12.6016
▁neniitobeenoo	-12.6017
neyeiniiteheiwo	-12.6017
ookooney	-12.6018
ihniisootoxun	-12.6021
iinentooyei	-12.6021
iiniiheneihi	-12.6022
▁noonotonihe	-12.6022
iicebkoohut	-12.6023
ihtoyeinous	-12.6024
esiinii	-12.6025
▁toukoy	-12.6026
eeneitotoonee	-12.6027
▁tohniisneniin	-12.6028
niinisikohouhun	-12.6029
einiisi	-12.6031
▁Kookoosheih	-12.6031
▁Yihxohei	-12.6032
▁Ceibisee	-12.6032
eetohnoo	-12.6032
oeseeno	-12.6033
ebcii	-12.6034
oowbeexooke	-12.6034
eeneete	-12.6035
itootowuu	-12.6035
rack	-12.6035
bisihcehinoo	-12.6035
eniiniibei	-12.6036
siiyeih	-12.6038
ooxuwuheihi	-12.6038
iitbis	-12.6038
▁nookoniini	-12.6039
▁nonoohoo	-12.6039
ecinoo	-12.604
▁Neniisei	-12.604
tousihe	-12.604
oohoe	-12.604
▁toonheesinihiin	-12.6041
▁nooxu	-12.6042
▁hihcowo	-12.6043
iinokohu	-12.6043
▁heetniisiiteno	-12.6046
iitoyeinousi	-12.6046
nouubeihinoo	-12.6046
koutoneihin	-12.6046
▁Koohoowo	-12.6047
▁hoowbise	-12.6047
▁hesoohobetiiton	-12.6047
itoonehin	-12.6047
iteeheet	-12.6049
▁tohuunihii	-12.6049
▁tohuuciino	-12.605
▁heetniiteheiwou	-12.6051
oeitini	-12.6051
▁hoowoohcei	-12.6051
ooxoyoo	-12.6052
neeteetooneihi	-12.6054
itonot	-12.6054
▁cihciiteit	-12.6055
uhoo	-12.6055
nihnoohowoot	-12.6059
konohbiine	-12.6061
iitnokohut	-12.6061
▁howookeciibin	-12.6061
▁Neniitone	-12.6062
niitowuusoo	-12.6062
▁Toonheesi	-12.6063
▁beiseeteih	-12.6063
niitbiibii	-12.6064
eiicenis	-12.6064
eetoon	-12.6069
ihcei	-12.6069
iinoniikoheino	-12.6069
▁Heetneeneti	-12.6074
▁nowookeciib	-12.6075
uxoheino	-12.6075
▁heetniibeh	-12.6075
▁kohk	-12.6076
sihoot	-12.6077
▁hootniistiino	-12.6078
onoheihi	-12.6078
niitobeebe	-12.6078
oteinooni	-12.6079
beexuyihoo	-12.6079
▁toonhiino	-12.6083
▁Coocoboo	-12.6084
▁nihnoohowoo	-12.6084
ohukoo	-12.6084
oonheestoononi	-12.6085
koot	-12.6086
ihciibeetoh	-12.6087
wonkooko	-12.6087
▁ceniihoot	-12.6088
uusiiwoohuno	-12.6088
▁Nihcihtoo	-12.6088
▁Hetbis	-12.6091
▁heibeexcih	-12.6094
behkonootow	-12.6094
▁Hetc	-12.6095
oeetiinoo	-12.6096
▁hiiniseenoo	-12.6096
outs	-12.6097
▁nisihi	-12.6098
eekuunoo	-12.6098
ihsehyihoo	-12.6099
beteesibi	-12.61
▁Niinoti	-12.61
▁neihoownii	-12.6102
eiseenooni	-12.6102
iiteesc	-12.6103
iinoote	-12.6104
heeckoohu	-12.6105
iiswo	-12.6106
nowuune	-12.6106
ntou	-12.6107
owoxuseni	-12.6107
▁hixon	-12.6108
▁neecet	-12.611
eineeti	-12.6111
iicec	-12.6112
toyoohowoot	-12.6113
beeseenebeti	-12.6113
▁beesneeceen	-12.6113
▁hetbixoo	-12.6115
▁heeteeseno	-12.6115
▁cecino	-12.6116
▁noosouneenento	-12.6117
niiteheiwot	-12.6118
tootousinihiin	-12.6118
▁Heenetiit	-12.6118
▁notoon	-12.6119
uheihiinoo	-12.6119
touhuno	-12.6121
eibeeeno	-12.6122
eeneini	-12.6122
▁heetciibeno	-12.6123
niiyeiheti	-12.6126
▁si	-12.6126
▁nokohuuno	-12.6127
▁cenihniit	-12.6128
beetohyihoo	-12.6129
oonoxyooto	-12.613
▁hetnei	-12.613
▁toonhiibeet	-12.613
iyoonin	-12.6132
tootokoho	-12.6133
ebcenii	-12.6133
▁tohuusiisii	-12.6134
ihniistii	-12.6137
▁nihniitobee	-12.6137
teenooP	-12.6138
▁hiisiitene	-12.6138
▁kotousi	-12.6139
koehi	-12.6139
▁tihbixoo	-12.614
okuutowun	-12.6141
▁tra	-12.6142
ihteete	-12.6143
▁niineyeineen	-12.6144
▁ciinonih	-12.6145
ebiiw	-12.6147
▁hooxuutokohu	-12.6148
▁Nihwoniin	-12.6148
▁heeneinsee	-12.6149
ils	-12.6149
▁Heetihbebiis	-12.6149
▁tohuucebkoohu	-12.615
ebeeniini	-12.6152
nosouniiyei	-12.6154
▁hiihoowcensi	-12.6154
▁heihoowuuni	-12.6157
iinxooto	-12.6158
▁niitno	-12.6159
▁ciineneihit	-12.6159
ema	-12.6159
okuseet	-12.6161
iicisniis	-12.6164
iisiixonee	-12.6164
iicooninoo	-12.6165
iineeci	-12.6165
onohunoo	-12.6165
ihniiitowuun	-12.6166
eyootiini	-12.6166
▁heneecei	-12.6167
▁kooceentoo	-12.6169
▁ciinouu	-12.6169
eeciini	-12.617
ohookeeniit	-12.617
▁Heetihkooko	-12.617
▁heenison	-12.6171
▁tohnosouno	-12.6171
iiwoowoxuu	-12.6171
▁nookonohwoo	-12.6173
▁cihnoneet	-12.6173
▁noohobeinoo	-12.6176
▁heetcee	-12.6176
iiscensine	-12.6176
nihyeihonei	-12.6178
eteeneetowuu	-12.6178
heeneis	-12.6178
▁cebiteeno	-12.6178
hoonoyoohowoot	-12.6179
▁Heetniibeeto	-12.6179
esii	-12.618
▁heeneetoono	-12.6181
iisnihii	-12.6185
▁hetc	-12.6186
▁neeceenit	-12.6186
▁yeneihon	-12.6186
owkuu	-12.6188
eeceenooxuwuunen	-12.6188
cihbiibis	-12.6189
▁hoowbe	-12.6189
▁ceenkoo	-12.619
onko	-12.619
howoto	-12.6191
oubeihi	-12.6191
ciiciinen	-12.6193
cihkoo	-12.6195
iicihcee	-12.6196
▁niinohohoon	-12.6196
▁Hetebinouhuuni	-12.6197
▁noohk	-12.6198
▁niinouukuu	-12.6201
cihiitono	-12.6201
seyou	-12.6201
wonceeceit	-12.6201
cebtii	-12.6205
oonoxobei	-12.6205
iskookohk	-12.6207
icP	-12.6207
niibeiit	-12.6208
ebeti	-12.6208
▁Niitehei	-12.6209
ebc	-12.6209
▁Nookeih	-12.6209
▁heetniitbee	-12.6209
kohoe	-12.621
▁tohuucihc	-12.6212
neniiheneiht	-12.6213
▁heniisciite	-12.6214
iinoko	-12.6214
▁Heetihbii	-12.6214
▁nihkookon	-12.6215
xoheihin	-12.6215
▁heeneite	-12.6217
sehce	-12.6218
ihbeetohnoohooto	-12.6218
▁tohcens	-12.6218
▁Honouun	-12.622
▁heetnoohoo	-12.6221
▁nohuuxon	-12.6222
▁Heetihneyeih	-12.6224
▁res	-12.6225
▁niiniistiinoo	-12.6227
rman	-12.6227
cihceesiton	-12.6227
iisiixoow	-12.6231
▁Nihciinkuu	-12.6231
oxowneeheyei	-12.6231
bebiisce	-12.6232
soonino	-12.6232
ecootone	-12.6234
owbeesesei	-12.6236
▁tohuucebiih	-12.6236
▁Hetiitonoun	-12.6236
▁nebiixuut	-12.6237
ooxuuseeno	-12.6237
ihceitee	-12.6237
isineni	-12.6239
oowotonoo	-12.6239
ebiinis	-12.6239
▁niisbee	-12.6239
ihoonkoo	-12.6239
▁Heetneeneixo	-12.624
nowuuneen	-12.624
▁niicebe	-12.624
▁hoxtoonou	-12.6242
beexce	-12.6246
tenoono	-12.6247
iiniisihoo	-12.6247
einokoyon	-12.6249
▁Niitonoun	-12.6249
▁Niiciiten	-12.625
iniitiin	-12.625
ihbetooohe	-12.625
▁heetbiici	-12.6251
touseb	-12.6251
nohceiyooni	-12.6252
▁heetcihbis	-12.6252
pri	-12.6256
nooxobei	-12.6257
Koxuus	-12.6257
▁heesinihiinee	-12.6258
▁heebeto	-12.626
eeneisiinokotiin	-12.6261
▁than	-12.6262
ihxouu	-12.6263
oowunihii	-12.6264
hiitiseenoo	-12.6264
▁Por	-12.6265
oeseikuu	-12.6265
eeneitookohei	-12.6267
xootowuu	-12.6268
oowuse	-12.627
teenooni	-12.627
iixouu	-12.6273
▁Ciibehc	-12.6274
▁niece	-12.6276
eseinebeinoo	-12.6278
▁kooneetni	-12.6279
▁heetxouubee	-12.628
▁heeneesbeebetee	-12.628
▁heeneiseineebei	-12.628
eeteihin	-12.6282
oenee	-12.6282
iiyohoe	-12.6282
▁heetniitnokohun	-12.6283
▁niibisce	-12.6284
▁woowoseit	-12.6285
iisibiitooni	-12.6285
iiniistoowoo	-12.6286
▁niitkookoh	-12.6287
▁teneete	-12.6289
ceitoonei	-12.629
▁Heesi	-12.6293
eeneisibi	-12.6295
oobeenebeihi	-12.6296
▁forg	-12.63
enowoot	-12.63
▁nootikonin	-12.6301
ohukoohut	-12.6302
op	-12.6303
▁keetn	-12.6304
▁tihniistii	-12.6305
▁Kooc	-12.6309
ps	-12.631
oonotoonootow	-12.631
▁nihkouuten	-12.631
ihkootee	-12.6312
cihbiineih	-12.6317
▁hetnehce	-12.6318
▁niiseese	-12.6319
teetec	-12.6319
itooxu	-12.632
▁Sehno	-12.6324
oowbeetP	-12.6324
▁ceeciin	-12.6326
▁beisiini	-12.6326
▁tebinouu	-12.6327
iineenehtonihein	-12.6328
▁heetnotiitiino	-12.6328
iicisee	-12.6329
▁cebiseen	-12.6331
ihyiis	-12.6333
▁hoonowouu	-12.6334
yeinenii	-12.6334
▁neniih	-12.6335
▁nihcensinenoo	-12.6335
iheiitooninoo	-12.6336
▁hoonoxoo	-12.6337
[...]
