<unk>	0
<s>	0
</s>	0
in	-0
no	-1
▁b	-2
si	-3
▁y	-4
▁e	-5
▁r	-6
an	-7
ƛin	-8
or	-9
ay	-10
▁n	-11
ow	-12
ir	-13
▁ne	-14
▁m	-15
▁d	-16
▁ž	-17
un	-18
za	-19
ed	-20
▁k	-21
ur	-22
▁i	-23
▁x	-24
ar	-25
▁bi	-26
oq	-27
▁yi	-28
er	-29
▁q	-30
id	-31
ix	-32
bi	-33
▁t	-34
▁h	-35
on	-36
aq	-37
▁z	-38
eł	-39
ad	-40
oƛ	-41
äy	-42
es	-43
▁ʕ	-44
iz	-45
▁eƛin	-46
▁š	-47
al	-48
▁zow	-49
tow	-50
▁ɣ	-51
▁u	-52
▁si	-53
aw	-54
oł	-55
ey	-56
▁ł	-57
▁ri	-58
gon	-59
▁neł	-60
aƛ	-61
od	-62
aɣ	-63
eb	-64
▁c	-65
eƛ	-66
ni	-67
▁ƛ	-68
▁zown	-69
aħ	-70
xo	-71
oqno	-72
▁esi	-73
ał	-74
▁ža	-75
ži	-76
▁be	-77
▁mi	-78
▁kid	-79
edu	-80
ayn	-81
as	-82
ut	-83
irno	-84
yo	-85
▁nesi	-86
▁N	-87
abi	-88
ek	-89
▁di	-90
ru	-91
▁ħ	-92
▁yoł	-93
▁s	-94
äsi	-95
▁xan	-96
anu	-97
▁g	-98
▁el	-99
uk	-100
rno	-101
ok	-102
oy	-103
ya	-104
▁ik	-105
▁es	-106
▁H	-107
aza	-108
ax	-109
qor	-110
ox	-111
osi	-112
sä	-113
ud	-114
eda	-115
▁E	-116
▁re	-117
iƛ	-118
▁dä	-119
nosi	-120
iru	-121
▁X	-122
▁me	-123
▁ɣʕ	-124
ab	-125
▁bik	-126
▁Ž	-127
▁B	-128
▁žek	-129
az	-130
▁sis	-131
▁sid	-132
iq	-133
▁uži	-134
anix	-135
inč	-136
em	-137
am	-138
▁S	-139
ul	-140
ac	-141
ez	-142
uł	-143
ex	-144
▁deb	-145
ebi	-146
en	-147
žin	-148
▁xiz	-149
ɣor	-150
us	-151
is	-152
zaƛ	-153
ik	-154
oƛin	-155
ec	-156
eni	-157
▁bay	-158
run	-159
▁Neł	-160
oz	-161
▁id	-162
▁kidb	-163
▁žedu	-164
▁esirno	-165
odin	-166
▁č	-167
at	-168
xor	-169
uƛ	-170
urno	-171
▁teƛ	-172
aɣor	-173
girno	-174
▁oqno	-175
▁za	-176
ebin	-177
ida	-178
▁El	-179
▁teł	-180
▁yeda	-181
il	-182
▁yiz	-183
▁šebin	-184
▁Y	-185
im	-186
oɣ	-187
▁babi	-188
ił	-189
▁yisi	-190
▁ä	-191
▁anu	-192
iw	-193
▁nesä	-194
až	-195
edur	-196
▁p	-197
▁neła	-198
▁ay	-199
▁ič	-200
▁yał	-201
▁boqno	-202
▁ye	-203
▁yił	-204
▁bar	-205
▁gul	-206
▁D	-207
▁M	-208
▁eni	-209
ak	-210
ʕa	-211
sno	-212
▁Xiz	-213
▁idu	-214
▁how	-215
erno	-216
ono	-217
▁yołƛin	-218
ʕu	-219
▁teƛno	-220
▁Xizyo	-221
eq	-222
▁esiw	-223
▁yedu	-224
▁šebi	-225
▁deber	-226
▁łi	-227
▁xec	-228
ƛax	-229
▁maħ	-230
uq	-231
kin	-232
aʕ	-233
et	-234
▁nex	-235
oräy	-236
▁ber	-237
▁ɣud	-238
esun	-239
anƛin	-240
▁A	-241
iƛin	-242
▁esin	-243
▁I	-244
▁ʕaƛ	-245
um	-246
▁K	-247
▁łʕ	-248
oɣno	-249
▁rok	-250
xosi	-251
▁sida	-252
▁R	-253
adä	-254
adaq	-255
bin	-256
▁eƛ	-257
ol	-258
orno	-259
ah	-260
utk	-261
▁yik	-262
iri	-263
▁quł	-264
▁sadaq	-265
žä	-266
▁bič	-267
▁hem	-268
ag	-269
tin	-270
▁esn	-271
▁hun	-272
gir	-273
runi	-274
▁babiw	-275
▁dey	-276
▁äƛ	-277
▁där	-278
▁bʕ	-279
▁elo	-280
▁ɣʕutk	-281
ce	-282
cin	-283
izi	-284
arno	-285
▁bex	-286
▁reƛ	-287
▁rod	-288
oc	-289
▁oq	-290
▁bodin	-291
▁How	-292
man	-293
▁Ža	-294
azar	-295
▁mež	-296
▁w	-297
▁beł	-298
▁Sida	-299
yn	-300
▁Z	-301
oyä	-302
▁roq	-303
▁bayn	-304
os	-305
▁Q	-306
zin	-307
▁eniw	-308
▁xanä	-309
▁Hem	-310
▁ƛex	-311
▁boq	-312
▁but	-313
▁Neła	-314
▁yisä	-315
▁iduɣor	-316
▁biš	-317
▁zaw	-318
▁xecin	-319
▁äƛiru	-320
▁-	-321
yos	-322
▁łʕono	-323
’,	-324
▁T	-325
daħ	-326
iza	-327
äƛin	-328
ʕano	-329
aƛin	-330
▁Elo	-331
▁xab	-332
▁yałru	-333
oyn	-334
▁až	-335
zo	-336
asi	-337
asaq	-338
▁adä	-339
▁neƛ	-340
yoł	-341
ženi	-342
▁ħal	-343
▁yiła	-344
ɣeni	-345
ira	-346
▁oz	-347
▁qʕ	-348
oƛix	-349
▁xal	-350
▁maħor	-351
gu	-352
ič	-353
▁Ne	-354
aš	-355
de	-356
aqʕ	-357
izaƛ	-358
▁xizor	-359
esed	-360
▁bok	-361
ayx	-362
łin	-363
łi	-364
anä	-365
▁ayn	-366
▁bit	-367
▁meč	-368
▁łin	-369
▁nełas	-370
▁xizay	-371
▁xed	-372
▁aždaħ	-373
▁zaman	-374
ten	-375
▁aħ	-376
▁ruk	-377
▁kurno	-378
om	-379
own	-380
▁rä	-381
▁ʕA	-382
▁bod	-383
▁užä	-384
▁xabar	-385
uš	-386
”.	-387
▁yič	-388
▁Ħ	-389
äɣor	-390
▁šeƛ	-391
inosi	-392
▁hemedur	-393
iy	-394
uz	-395
ani	-396
▁ɣʕan	-397
▁nesiq	-398
▁rodin	-399
war	-400
ʕim	-401
▁mesed	-402
▁yizi	-403
▁ičin	-404
▁berten	-405
der	-406
yoƛ	-407
▁bä	-408
▁žeda	-409
uƛin	-410
▁beč	-411
▁mad	-412
▁yay	-413
el	-414
▁rac	-415
▁debi	-416
▁hunix	-417
azi	-418
oni	-419
▁užin	-420
▁bazar	-421
▁egirno	-422
oč	-423
näy	-424
irun	-425
▁buk	-426
▁nesir	-427
▁yisir	-428
▁babiya	-429
▁Ł	-430
eze	-431
adin	-432
asin	-433
▁ciq	-434
▁žan	-435
▁bełiq	-436
▁xalq	-437
▁nesis	-438
▁ƛexun	-439
ib	-440
awni	-441
▁bes	-442
▁Nesi	-443
▁ɣudi	-444
▁roqno	-445
▁l	-446
and	-447
sin	-448
ʕun	-449
▁aɣ	-450
▁bʕeƛ	-451
cx	-452
qo	-453
ux	-454
äz	-455
▁U	-456
▁iħ	-457
▁cey	-458
▁raq	-459
▁ray	-460
▁rut	-461
▁xex	-462
▁micx	-463
oƛixno	-464
▁esiya	-465
▁xanes	-466
▁begirno	-467
eč	-468
wa	-469
▁C	-470
maʕ	-471
▁ix	-472
▁zey	-473
▁Žedu	-474
▁kidbä	-475
▁resun	-476
▁bercin	-477
▁hemedurtow	-478
▁Howži	-479
qay	-480
▁ig	-481
▁däz	-482
▁teq	-483
▁kidno	-484
▁xizyo	-485
uc	-486
łe	-487
že	-488
▁sasaq	-489
▁yoqno	-490
▁O	-491
ažb	-492
▁Yi	-493
ałäy	-494
oder	-495
otow	-496
▁goƛ	-497
▁žaw	-498
aygon	-499
▁Ražb	-500
▁gulu	-501
▁zows	-502
▁žoyä	-503
▁adäza	-504
▁bižin	-505
▁aynosi	-506
▁Ražbadin	-507
ač	-508
▁ez	-509
orol	-510
▁kur	-511
▁roƛ	-512
▁ħaƛ	-513
▁žawab	-514
▁baru	-515
ot	-516
▁ƛʕ	-517
inäy	-518
xanu	-519
▁Hemeł	-520
▁esnabi	-521
iš	-522
▁eq	-523
▁ex	-524
oxno	-525
▁baq	-526
▁hud	-527
▁rik	-528
▁riy	-529
▁roɣno	-530
abin	-531
▁Hud	-532
▁riq	-533
▁łiy	-534
▁rigu	-535
▁šida	-536
▁eɣeni	-537
▁eč	-538
▁biq	-539
▁kec	-540
▁erno	-541
▁izin	-542
▁risno	-543
▁soder	-544
▁yołäsi	-545
▁Š	-546
gin	-547
uru	-548
▁Is	-549
▁aq	-550
▁boyn	-551
▁razi	-552
▁bitor	-553
▁eženi	-554
▁guluƛ	-555
▁tełxor	-556
▁baynosi	-557
▁yegirno	-558
▁Mi	-559
▁ak	-560
ukar	-561
▁boc	-562
▁hal	-563
▁moƛ	-564
▁reč	-565
siƛin	-566
▁besun	-567
▁boɣno	-568
▁nasin	-569
▁nełaz	-570
gan	-571
▁bic	-572
▁yex	-573
maʕil	-574
▁dand	-575
▁utin	-576
▁xanez	-577
▁micxir	-578
▁Ismaʕil	-579
ob	-580
uh	-581
är	-582
maɣ	-583
ʕid	-584
▁uk	-585
atow	-586
širu	-587
▁did	-588
▁eli	-589
▁ħon	-590
ixosi	-591
▁bisno	-592
▁mečoƛ	-593
▁retin	-594
▁zawru	-595
▁zownanu	-596
▁en	-597
oxin	-598
▁Xan	-599
▁baš	-600
▁boƛ	-601
▁har	-602
ixƛin	-603
▁ixiw	-604
▁halmaɣ	-605
▁mesedyos	-606
uno	-607
łiƛ	-608
▁iz	-609
aład	-610
▁bet	-611
▁ric	-612
▁ičäsi	-613
▁esnaza	-614
▁zawruni	-615
▁Al	-616
▁dow	-617
aqʕuł	-618
däɣor	-619
unosi	-620
▁Hemedur	-621
▁nesiqor	-622
▁Xizyogon	-623
uħ	-624
dur	-625
yoq	-626
▁Nes	-627
▁boy	-628
▁keze	-629
og	-630
▁Di	-631
▁łä	-632
alam	-633
▁qac	-634
▁žed	-635
▁ʕoƛ	-636
ʕanon	-637
▁Nesä	-638
▁ƛʕeb	-639
▁howži	-640
▁nukar	-641
▁yegir	-642
▁łʕonon	-643
▁esirnosi	-644
irb	-645
azay	-646
▁baħ	-647
xoƛin	-648
▁anusi	-649
▁nesiz	-650
▁bercinaw	-651
exo	-652
yox	-653
zay	-654
łäy	-655
▁et	-656
araw	-657
oxor	-658
uraw	-659
▁Kid	-660
▁Sis	-661
▁Taw	-662
▁buq	-663
▁kik	-664
▁idur	-665
▁bizin	-666
▁eniya	-667
▁yižin	-668
▁eqerno	-669
▁bazargan	-670
ace	-671
ada	-672
žen	-673
ełno	-674
iłno	-675
▁ret	-676
▁yuk	-677
▁yut	-678
warid	-679
▁howl	-680
▁roda	-681
▁raład	-682
▁sidaɣ	-683
▁ʕuraw	-684
aɣʕ	-685
zas	-686
▁gu	-687
▁ʕU	-688
oloq	-689
ʕida	-690
▁qʕa	-691
▁rič	-692
▁Nełƛ	-693
▁yołi	-694
▁ƛirb	-695
▁xediw	-696
▁ʕoloq	-697
ig	-698
uni	-699
▁Sid	-700
▁yoq	-701
▁čan	-702
▁rayn	-703
▁xexo	-704
▁ɣudƛ	-705
▁butin	-706
▁debez	-707
▁gulun	-708
▁anuƛin	-709
▁ɣʕanaza	-710
da	-711
uy	-712
zi	-713
▁bez	-714
▁haq	-715
▁saɣ	-716
▁yow	-717
▁eƛix	-718
▁nece	-719
▁bexur	-720
▁bečed	-721
▁nexno	-722
anixƛin	-723
▁Hemełƛ	-724
it	-725
ali	-726
adur	-727
▁žaq	-728
▁ozur	-729
▁sosi	-730
▁ɣuno	-731
▁Sasaq	-732
▁debeq	-733
▁nełaq	-734
▁dandir	-735
eš	-736
äx	-737
ayz	-738
▁an	-739
▁im	-740
▁ro	-741
inaw	-742
▁ʕaq	-743
▁qʕaƛ	-744
▁yizä	-745
▁zira	-746
▁ziru	-747
▁caƛin	-748
▁siskin	-749
▁resunäy	-750
qʕ	-751
up	-752
▁ac	-753
agal	-754
asno	-755
ʕuya	-756
▁Užä	-757
▁din	-758
▁rex	-759
▁rät	-760
ortow	-761
▁Babi	-762
▁Elay	-763
▁Zown	-764
▁elay	-765
▁meža	-766
ma	-767
▁G	-768
ora	-769
ozo	-770
yoz	-771
▁ur	-772
▁däq	-773
▁tup	-774
▁Žan	-775
▁ʕom	-776
▁Yisä	-777
▁egir	-778
▁bičin	-779
▁raqru	-780
▁xexbi	-781
▁yičin	-782
▁neširu	-783
▁ʕaƛaɣor	-784
?”	-785
ilq	-786
ino	-787
isd	-788
oxt	-789
▁ci	-790
aman	-791
oboy	-792
ukul	-793
▁hib	-794
▁hor	-795
▁mix	-796
iruni	-797
▁Bilq	-798
▁Xanä	-799
▁adäz	-800
▁yayn	-801
▁ɣʕaɣ	-802
izaɣor	-803
umukul	-804
▁Nedur	-805
▁barun	-806
▁nełar	-807
▁teqno	-808
ama	-809
ini	-810
iqʕ	-811
äza	-812
ʕał	-813
▁ok	-814
▁yä	-815
ader	-816
alay	-817
aniƛ	-818
sƛin	-819
umak	-820
usen	-821
▁koƛ	-822
▁rig	-823
▁roy	-824
warił	-825
▁best	-826
▁esun	-827
▁bikor	-828
▁kumak	-829
▁nełaƛ	-830
▁Ħusen	-831
▁ɣʕutku	-832
mar	-833
non	-834
oƛƛ	-835
wan	-836
▁bu	-837
irir	-838
yabi	-839
▁raƛ	-840
oxtur	-841
▁Kidb	-842
▁elur	-843
▁esir	-844
▁rižin	-845
▁yizir	-846
▁harizi	-847
▁Zownƛax	-848
li	-849
moƛ	-850
yor	-851
▁Łʕ	-852
ilič	-853
▁bac	-854
▁boɣ	-855
▁min	-856
▁ʕiy	-857
adiru	-858
qorno	-859
▁meži	-860
▁Šebi	-861
▁baħar	-862
▁besur	-863
▁magal	-864
▁žedur	-865
▁yaqʕuł	-866
▁ciqaɣor	-867
▁ɣʕanabi	-868
la	-869
äł	-870
’.	-871
▁W	-872
lah	-873
uny	-874
ynč	-875
ʕoƛ	-876
▁oc	-877
ahaw	-878
iräy	-879
uruš	-880
▁biħ	-881
▁maʕ	-882
▁mec	-883
▁res	-884
▁urɣ	-885
▁ɣun	-886
▁ɣʕw	-887
unyal	-888
yabin	-889
▁beže	-890
▁dice	-891
aynosi	-892
runtow	-893
▁Zaman	-894
▁dunyal	-895
▁rutirno	-896
▁ħumukul	-897
▁äƛirugon	-898
yä	-899
”,	-900
oza	-901
uqʕ	-902
wax	-903
▁ži	-904
▁dib	-905
▁gur	-906
▁his	-907
▁hič	-908
▁roc	-909
▁bara	-910
▁bayr	-911
▁ezun	-912
▁howt	-913
▁nexƛ	-914
▁zeyä	-915
▁Tawad	-916
▁bełiƛ	-917
▁diƛin	-918
▁eniwn	-919
▁nesił	-920
▁yisiq	-921
waxatow	-922
▁bukayn	-923
▁yałzay	-924
▁regirno	-925
▁šebinon	-926
▁bertenno	-927
▁bertenyoł	-928
mu	-929
usa	-930
▁is	-931
▁mu	-932
▁łe	-933
azir	-934
eruc	-935
izin	-936
▁Beł	-937
▁baɣ	-938
▁bis	-939
▁biž	-940
▁ela	-941
▁puƛ	-942
▁req	-943
▁ris	-944
▁yok	-945
ayzik	-946
ozoni	-947
▁biłe	-948
▁howž	-949
▁ižin	-950
▁wʕał	-951
orolay	-952
▁kecno	-953
▁nełał	-954
▁tełer	-955
▁yesun	-956
▁žedus	-957
▁bašiqʕ	-958
▁doxtur	-959
▁sideni	-960
▁butirno	-961
▁zamanał	-962
esi	-963
ura	-964
uza	-965
zar	-966
žet	-967
▁ax	-968
awaƛ	-969
onoč	-970
orey	-971
äzay	-972
▁gug	-973
▁meš	-974
▁moč	-975
▁pik	-976
▁qoq	-977
▁yiq	-978
▁šet	-979
▁šud	-980
▁ɣam	-981
▁ʕAl	-982
ʕidar	-983
▁Idur	-984
▁Yedu	-985
▁onoč	-986
▁Žeda	-987
▁ʕaƛa	-988
▁Nesis	-989
▁dahaw	-990
▁hudun	-991
▁žeduq	-992
▁kidbez	-993
iɣ	-994
wʕ	-995
äƛ	-996
mat	-997
zaq	-998
äru	-999
▁Aħ	-1000
▁at	-1001
▁in	-1002
▁iq	-1003
▁iš	-1004
uhal	-1005
ženä	-1006
▁miƛ	-1007
▁par	-1008
▁yez	-1009
▁žuk	-1010
▁Howl	-1011
▁Yisi	-1012
▁aħoz	-1013
▁sidä	-1014
iqilič	-1015
▁didiw	-1016
▁gurow	-1017
▁mežur	-1018
▁ozuri	-1019
▁regir	-1020
▁kidbes	-1021
▁ɣʕutka	-1022
▁bełiqan	-1023
▁eƛinosi	-1024
▁Hudayzik	-1025
▁ʕAliqilič	-1026
lu	-1027
onč	-1028
zat	-1029
zał	-1030
▁ya	-1031
▁ħo	-1032
akan	-1033
eneš	-1034
igoƛ	-1035
irxo	-1036
▁Deb	-1037
▁Hun	-1038
▁Yił	-1039
▁lil	-1040
▁nay	-1041
▁roɣ	-1042
▁uqʕ	-1043
▁yaq	-1044
isƛin	-1045
▁Yeda	-1046
▁biša	-1047
▁boda	-1048
▁mixƛ	-1049
▁roži	-1050
▁yown	-1051
amalay	-1052
▁boxin	-1053
▁hemeł	-1054
▁heneš	-1055
▁kinaw	-1056
▁yutin	-1057
xanuƛin	-1058
▁aždaħä	-1059
▁ečruni	-1060
▁rukayn	-1061
▁rätiru	-1062
▁maduhal	-1063
▁yaynosi	-1064
▁yałrułi	-1065
▁yisiqor	-1066
ła	-1067
rab	-1068
▁ił	-1069
edan	-1070
emot	-1071
town	-1072
uzaƛ	-1073
ušin	-1074
▁biz	-1075
▁hok	-1076
▁iłe	-1077
▁mač	-1078
▁row	-1079
▁yiž	-1080
▁łäs	-1081
▁ƛäx	-1082
▁ʕAƛ	-1083
aħama	-1084
rabuz	-1085
xosin	-1086
▁ceyä	-1087
▁ħalt	-1088
ahadur	-1089
▁dibir	-1090
▁hoboy	-1091
▁roƛik	-1092
▁yałza	-1093
▁oƛixno	-1094
▁qʕaƛin	-1095
▁yołƛax	-1096
▁ɣʕaɣʕu	-1097
▁ɣʕuruš	-1098
▁zownƛax	-1099
▁ʕArabuz	-1100
’-	-1101
han	-1102
ran	-1103
unč	-1104
łun	-1105
▁al	-1106
▁er	-1107
▁ʕO	-1108
axay	-1109
aɣat	-1110
ediw	-1111
ixor	-1112
umru	-1113
▁Eni	-1114
▁bäs	-1115
▁caƛ	-1116
▁eƛa	-1117
▁mus	-1118
▁riħ	-1119
▁ħur	-1120
ixanu	-1121
uqʕno	-1122
uruni	-1123
▁Alim	-1124
▁bayx	-1125
▁odin	-1126
▁oqxo	-1127
▁ħonƛ	-1128
äsiƛin	-1129
▁Allah	-1130
▁Babiw	-1131
▁Eženi	-1132
▁bišwa	-1133
▁didur	-1134
▁hawaƛ	-1135
▁nexxo	-1136
▁xexoy	-1137
▁łʕora	-1138
▁ɣʕway	-1139
▁ʕumru	-1140
▁nełqor	-1141
▁wʕałer	-1142
▁Xizaɣor	-1143
▁boƛixno	-1144
▁dunyalƛ	-1145
▁äƛiruxor	-1146
ƛa	-1147
diw	-1148
xay	-1149
ʕal	-1150
▁Es	-1151
▁ox	-1152
▁äk	-1153
aquł	-1154
išat	-1155
ogaƛ	-1156
▁Teł	-1157
▁bix	-1158
▁dar	-1159
▁tun	-1160
inƛin	-1161
▁bigu	-1162
▁hudu	-1163
▁maqʕ	-1164
▁qʕaš	-1165
▁rocu	-1166
▁Bełiq	-1167
▁bayru	-1168
▁begir	-1169
▁däqor	-1170
▁hunar	-1171
▁reqen	-1172
▁tełäy	-1173
▁wazir	-1174
▁yisis	-1175
▁žeduz	-1176
▁ɣamas	-1177
▁babiwz	-1178
▁kidbed	-1179
▁urɣizi	-1180
▁horoƛin	-1181
▁kidbabi	-1182
▁yałruni	-1183
▁howlotow	-1184
▁raładyoł	-1185
go	-1186
na	-1187
ub	-1188
uɣ	-1189
än	-1190
ade	-1191
aʕb	-1192
iya	-1193
ney	-1194
was	-1195
yan	-1196
yno	-1197
ʕaƛ	-1198
▁am	-1199
▁ut	-1200
▁łu	-1201
azaq	-1202
iran	-1203
irur	-1204
izaz	-1205
ägon	-1206
▁big	-1207
▁däƛ	-1208
▁gan	-1209
▁moł	-1210
▁rek	-1211
▁Ħon	-1212
uyxor	-1213
yaɣor	-1214
▁Sosi	-1215
▁Zira	-1216
▁aluk	-1217
▁boyx	-1218
▁elor	-1219
▁koyä	-1220
▁moči	-1221
▁wasi	-1222
▁xwas	-1223
▁ƛuza	-1224
ayxƛin	-1225
neyzat	-1226
▁Nełaƛ	-1227
▁ayzaƛ	-1228
▁bexun	-1229
▁bicin	-1230
▁bičix	-1231
▁rečuƛ	-1232
▁xaner	-1233
▁yedan	-1234
▁yizin	-1235
▁yoɣno	-1236
▁zirun	-1237
▁žaqor	-1238
▁anuƛax	-1239
▁bayrno	-1240
▁idurno	-1241
▁bečedaw	-1242
▁mamalay	-1243
▁maħorno	-1244
▁maʕišat	-1245
▁sasaqor	-1246
▁łinałäy	-1247
▁iduɣorno	-1248
▁neƛanƛin	-1249
▁retinƛin	-1250
▁ʕUneyzat	-1251
▁Zamanałäy	-1252
▁bečedawni	-1253
ež	-1254
oħ	-1255
ra	-1256
ƛi	-1257
ara	-1258
art	-1259
ruk	-1260
ubi	-1261
ude	-1262
▁Ye	-1263
▁as	-1264
▁na	-1265
anaw	-1266
ceni	-1267
▁Beq	-1268
▁Zey	-1269
▁aɣi	-1270
▁cek	-1271
▁gon	-1272
▁muh	-1273
▁waħ	-1274
▁äsi	-1275
▁ħuk	-1276
▁ƛel	-1277
iɣruk	-1278
sinan	-1279
▁Yiła	-1280
▁daʕb	-1281
▁elus	-1282
▁tupi	-1283
▁Kidbä	-1284
▁baqru	-1285
▁esiws	-1286
▁gogaƛ	-1287
▁kaɣat	-1288
▁moƛał	-1289
▁nediw	-1290
▁nedur	-1291
▁pikru	-1292
▁rukar	-1293
▁teƛxo	-1294
▁yisno	-1295
▁yiłar	-1296
▁zownč	-1297
▁ʕomoy	-1298
▁Neširu	-1299
▁kidbeq	-1300
▁ƛexasi	-1301
▁riqirno	-1302
▁xabarno	-1303
▁yoƛixno	-1304
▁zowsƛin	-1305
▁łiynosi	-1306
▁Sasaqosi	-1307
▁bašiqʕoy	-1308
▁zownanuƛax	-1309
oh	-1310
či	-1311
ayä	-1312
obi	-1313
axor	-1314
eyno	-1315
iyaw	-1316
uruč	-1317
▁Did	-1318
▁biy	-1319
▁buž	-1320
▁ele	-1321
▁eƛo	-1322
▁gam	-1323
▁lag	-1324
▁mur	-1325
▁net	-1326
▁pos	-1327
▁reš	-1328
▁saħ	-1329
▁ħaž	-1330
▁ħoš	-1331
▁łox	-1332
▁ʕab	-1333
azoni	-1334
yoxor	-1335
▁Elor	-1336
▁Kusa	-1337
▁bʕoƛ	-1338
▁däde	-1339
▁eloš	-1340
▁igor	-1341
▁oxin	-1342
▁riyn	-1343
▁riłe	-1344
▁Beqes	-1345
▁Eɣeni	-1346
▁Hudun	-1347
▁Hunix	-1348
▁Nełas	-1349
▁boƛik	-1350
▁esiwn	-1351
▁howža	-1352
▁mežus	-1353
▁nazay	-1354
▁nesiƛ	-1355
▁oqzaƛ	-1356
▁qalam	-1357
▁riguƛ	-1358
▁yukay	-1359
▁äsiru	-1360
▁ħadur	-1361
▁ƛirba	-1362
▁ʕUmar	-1363
▁ʕaƛar	-1364
▁ʕaƛos	-1365
▁ʕoƛno	-1366
▁babiwn	-1367
▁bišwan	-1368
▁neƛƛin	-1369
▁xanqor	-1370
▁xwasar	-1371
▁Elaygon	-1372
▁rodanix	-1373
▁ɣʕutkun	-1374
▁micxirno	-1375
▁Ražbadinä	-1376
du	-1377
ałi	-1378
bik	-1379
łiq	-1380
ʕuƛ	-1381
▁Ok	-1382
▁ah	-1383
▁iy	-1384
▁oč	-1385
▁äs	-1386
eqor	-1387
erxo	-1388
isdä	-1389
ogon	-1390
ukin	-1391
urxo	-1392
xozo	-1393
▁Xed	-1394
▁Xex	-1395
▁Yiz	-1396
▁bec	-1397
▁däx	-1398
▁hil	-1399
▁mek	-1400
▁mis	-1401
▁nuc	-1402
▁puħ	-1403
▁riƛ	-1404
▁roč	-1405
▁yod	-1406
▁Ħas	-1407
▁ɣur	-1408
aytow	-1409
maʕat	-1410
ubazi	-1411
žigon	-1412
▁Boƛƛ	-1413
▁biča	-1414
▁egin	-1415
▁eyno	-1416
▁haqa	-1417
▁ixin	-1418
▁mada	-1419
▁qʕab	-1420
▁čant	-1421
alawni	-1422
aniƛäy	-1423
omceni	-1424
wariłi	-1425
▁ciqqo	-1426
▁däder	-1427
▁hibon	-1428
▁miƛin	-1429
▁rukay	-1430
▁xanqo	-1431
▁xanzo	-1432
▁yiłas	-1433
▁ħalał	-1434
▁Łʕono	-1435
▁Žigoƛ	-1436
▁žaƛin	-1437
▁Babiya	-1438
▁Tawadä	-1439
▁kidber	-1440
▁nełqay	-1441
▁oqnosi	-1442
▁xabary	-1443
▁xander	-1444
▁yeženi	-1445
▁yeɣeni	-1446
▁Sidaquł	-1447
▁bexurno	-1448
▁žamaʕat	-1449
▁Ismaʕilä	-1450
▁babiwqor	-1451
▁bełiqanä	-1452
▁kidbeqor	-1453
▁kwaxatow	-1454
▁Alimaħama	-1455
iħ	-1456
ug	-1457
agu	-1458
ala	-1459
bar	-1460
dux	-1461
ori	-1462
san	-1463
▁Až	-1464
▁už	-1465
agaħ	-1466
aqor	-1467
ataw	-1468
odor	-1469
ohor	-1470
oran	-1471
uƛƛi	-1472
xoli	-1473
▁Dey	-1474
▁Esn	-1475
▁Maħ	-1476
▁Uži	-1477
▁bat	-1478
▁beɣ	-1479
▁ent	-1480
▁her	-1481
▁naz	-1482
▁rad	-1483
▁riž	-1484
▁räs	-1485
▁tat	-1486
▁yac	-1487
▁yet	-1488
▁yiħ	-1489
▁Łox	-1490
▁žax	-1491
▁ɣwʕ	-1492
alini	-1493
ayran	-1494
derno	-1495
irdux	-1496
noƛin	-1497
oƛƛin	-1498
ʕidan	-1499
▁Qart	-1500
▁ader	-1501
▁amma	-1502
▁horo	-1503
▁icin	-1504
▁qaca	-1505
▁riyx	-1506
▁Aždaħ	-1507
▁bezun	-1508
▁bežet	-1509
▁bukar	-1510
▁eniwq	-1511
▁esiwq	-1512
▁imyoq	-1513
▁murad	-1514
▁oqinč	-1515
▁regin	-1516
▁ričin	-1517
▁xizaz	-1518
▁ħaƛun	-1519
▁łinaƛ	-1520
▁žigon	-1521
▁ɣudes	-1522
waridno	-1523
▁bičäsi	-1524
▁boqzaƛ	-1525
▁lilyox	-1526
▁miskin	-1527
▁qʕaƛan	-1528
▁xexłiƛ	-1529
▁łiyrno	-1530
▁aždaħes	-1531
▁boqnosi	-1532
▁moƛaxay	-1533
▁zownƛin	-1534
▁łinasno	-1535
▁ħumukuli	-1536
ap	-1537
ays	-1538
imo	-1539
▁Oƛ	-1540
▁ad	-1541
▁aš	-1542
▁äč	-1543
ahar	-1544
anłi	-1545
axru	-1546
azin	-1547
edin	-1548
esno	-1549
uret	-1550
▁Bik	-1551
▁Däz	-1552
▁Gul	-1553
▁kar	-1554
▁muš	-1555
▁qem	-1556
▁riz	-1557
▁rił	-1558
▁sab	-1559
▁yic	-1560
▁yoƛ	-1561
▁zig	-1562
▁ʕad	-1563
▁ʕan	-1564
aɣʕin	-1565
ixozo	-1566
izoni	-1567
yołäy	-1568
zaqor	-1569
äyƛin	-1570
äłrun	-1571
▁Esin	-1572
▁Yizi	-1573
▁bown	-1574
▁boƛƛ	-1575
▁eluq	-1576
▁enda	-1577
▁exun	-1578
▁habi	-1579
▁huni	-1580
▁reže	-1581
▁ukay	-1582
▁zeyn	-1583
▁łiyn	-1584
alamno	-1585
irigon	-1586
xanusi	-1587
▁Xanes	-1588
▁bužzi	-1589
▁debex	-1590
▁gamiƛ	-1591
▁reƛno	-1592
▁yexun	-1593
▁yisił	-1594
▁čuret	-1595
▁šudaƛ	-1596
▁šušin	-1597
ahadurä	-1598
urnokin	-1599
▁adäzar	-1600
▁badiru	-1601
▁bikori	-1602
▁dowqor	-1603
▁esanix	-1604
▁kidbeƛ	-1605
▁neƛnäy	-1606
▁rayrno	-1607
▁roqinč	-1608
▁ʕomoyä	-1609
▁dicegon	-1610
▁retinäy	-1611
▁Kwaxatow	-1612
▁kumakyor	-1613
▁naysinan	-1614
▁raładyoz	-1615
▁rodanƛin	-1616
▁yizirabi	-1617
▁łinałäyn	-1618
▁zamanałäy	-1619
äk	-1620
agi	-1621
däy	-1622
ece	-1623
ere	-1624
ibi	-1625
ima	-1626
kar	-1627
noc	-1628
orž	-1629
zox	-1630
ƛer	-1631
▁Be	-1632
▁Ox	-1633
▁Oz	-1634
▁az	-1635
▁iž	-1636
▁od	-1637
asił	-1638
aħin	-1639
ałer	-1640
aʕal	-1641
ganä	-1642
gtow	-1643
ibaw	-1644
isno	-1645
nayx	-1646
qinč	-1647
ubin	-1648
uqor	-1649
uran	-1650
urec	-1651
ułäy	-1652
weze	-1653
zoni	-1654
ʕuna	-1655
▁Aħm	-1656
▁Bac	-1657
▁Baq	-1658
▁Ber	-1659
▁Din	-1660
▁Goq	-1661
▁bad	-1662
▁bah	-1663
▁bäk	-1664
▁cax	-1665
▁esa	-1666
▁eže	-1667
▁hut	-1668
▁ker	-1669
▁lel	-1670
▁nar	-1671
▁noc	-1672
▁riš	-1673
▁tam	-1674
▁yaħ	-1675
▁ziy	-1676
▁žas	-1677
▁ʕAt	-1678
roƛin	-1679
yosno	-1680
ʕaƛin	-1681
ʕunan	-1682
▁Eniw	-1683
▁aħin	-1684
▁bark	-1685
▁bʕał	-1686
▁esix	-1687
▁hibo	-1688
▁imad	-1689
▁iħuz	-1690
▁rown	-1691
▁royn	-1692
▁łeno	-1693
▁ʕeze	-1694
adanix	-1695
oxirno	-1696
xosini	-1697
▁Hoboy	-1698
▁ayrno	-1699
▁biqir	-1700
▁biynč	-1701
▁biħan	-1702
▁bodix	-1703
▁däqay	-1704
▁howlo	-1705
▁iduza	-1706
▁kanłi	-1707
▁nesix	-1708
▁parax	-1709
▁qacis	-1710
▁rutin	-1711
▁ukayn	-1712
▁čanya	-1713
▁babiwq	-1714
▁gugyoƛ	-1715
▁heresi	-1716
▁iqirno	-1717
▁magalu	-1718
▁radiru	-1719
▁riyrno	-1720
▁tungin	-1721
▁užiqor	-1722
▁xediwn	-1723
▁xexoyn	-1724
▁yegira	-1725
▁esnabin	-1726
▁magalun	-1727
▁nesider	-1728
▁royxosi	-1729
▁sisxoli	-1730
▁xizaɣor	-1731
▁ħaƛanix	-1732
▁ɣʕaɣʕun	-1733
▁Howlotow	-1734
▁bezunosi	-1735
▁ɣʕutkaɣor	-1736
▁ʕArabuzan	-1737
▁maduhalłiq	-1738
▁resunäyƛin	-1739
▁bertenyołxor	-1740
gi	-1741
awn	-1742
mes	-1743
noƛ	-1744
uri	-1745
yar	-1746
łer	-1747
ʕuy	-1748
▁Ik	-1749
▁aw	-1750
aliħ	-1751
atno	-1752
ebed	-1753
imoƛ	-1754
iqor	-1755
iłer	-1756
iłäy	-1757
ogun	-1758
ułno	-1759
ułun	-1760
ƛinč	-1761
▁Cey	-1762
▁Där	-1763
▁Kus	-1764
▁bow	-1765
▁bäč	-1766
▁cuc	-1767
▁daw	-1768
▁ezu	-1769
▁iča	-1770
▁kut	-1771
▁max	-1772
▁meɣ	-1773
▁muk	-1774
▁neš	-1775
▁qun	-1776
▁quq	-1777
▁raħ	-1778
▁täƛ	-1779
▁yes	-1780
▁zok	-1781
▁čar	-1782
▁ħiš	-1783
▁ħiƛ	-1784
▁žar	-1785
▁ʕez	-1786
aʕalł	-1787
irƛin	-1788
orola	-1789
▁ahli	-1790
▁aɣʕu	-1791
▁baɣm	-1792
▁borž	-1793
▁gama	-1794
▁iyos	-1795
▁iħun	-1796
▁nexa	-1797
▁nełƛ	-1798
▁pand	-1799
▁raqʕ	-1800
▁sist	-1801
▁yiłe	-1802
▁ƛʕor	-1803
▁Bazar	-1804
▁Deber	-1805
▁ayäsi	-1806
▁bečeł	-1807
▁bižix	-1808
▁boqxo	-1809
▁bukay	-1810
▁daʕba	-1811
▁esinč	-1812
▁eženä	-1813
▁hokom	-1814
▁mešok	-1815
▁taliħ	-1816
▁tupin	-1817
▁xalič	-1818
▁Ħasan	-1819
▁ħukmu	-1820
▁Łʕora	-1821
▁łinar	-1822
▁šahar	-1823
▁Žedus	-1824
▁žedaƛ	-1825
▁žedun	-1826
▁žeduł	-1827
▁ɣunoq	-1828
▁ɣunoƛ	-1829
▁ʕazar	-1830
däɣorno	-1831
irizoni	-1832
▁besuro	-1833
▁bexayn	-1834
▁boqłin	-1835
▁gulubi	-1836
▁hemesi	-1837
▁nexäsi	-1838
▁raʕalł	-1839
▁roqłin	-1840
▁sisgon	-1841
▁sistow	-1842
▁yukayn	-1843
▁ħayran	-1844
▁ħuržen	-1845
▁łʕoran	-1846
▁ƛirbał	-1847
▁bełiquz	-1848
▁biqirno	-1849
▁eniwqor	-1850
▁esnazar	-1851
▁habihan	-1852
▁paraxat	-1853
▁reqenno	-1854
▁rodoƛin	-1855
▁roqxosi	-1856
▁roqäƛin	-1857
▁tełäzay	-1858
▁yexurno	-1859
▁yołäƛin	-1860
▁zowerno	-1861
▁ʕoloqan	-1862
▁halmaɣłi	-1863
▁sasaqosi	-1864
▁xizyogon	-1865
▁bukaynosi	-1866
▁Hemedurtow	-1867
ic	-1868
qu	-1869
uč	-1870
äc	-1871
ayɣ	-1872
era	-1873
isi	-1874
mos	-1875
nin	-1876
nox	-1877
rxo	-1878
udi	-1879
umi	-1880
yat	-1881
zaz	-1882
▁ec	-1883
▁hi	-1884
▁iƛ	-1885
▁uy	-1886
▁äx	-1887
azaƛ	-1888
aʕat	-1889
elaw	-1890
eneč	-1891
hizi	-1892
imor	-1893
irič	-1894
ixno	-1895
iłin	-1896
oqan	-1897
oqor	-1898
ołäy	-1899
rinč	-1900
uhun	-1901
usno	-1902
uƛer	-1903
▁Dib	-1904
▁Mež	-1905
▁Oƛƛ	-1906
▁anƛ	-1907
▁ayx	-1908
▁aħo	-1909
▁aɣʕ	-1910
▁baƛ	-1911
▁bäq	-1912
▁däł	-1913
▁iyn	-1914
▁kam	-1915
▁koč	-1916
▁oqƛ	-1917
▁tax	-1918
▁xot	-1919
▁zam	-1920
▁ħam	-1921
▁łeɣ	-1922
▁łoħ	-1923
▁łäy	-1924
▁šil	-1925
▁ʕil	-1926
ayƛin	-1927
cegon	-1928
wäƛin	-1929
zames	-1930
załer	-1931
äruni	-1932
ʕimno	-1933
▁Hudu	-1934
▁acno	-1935
▁ayru	-1936
▁baha	-1937
▁bʕuƛ	-1938
▁dowƛ	-1939
▁eluz	-1940
▁gond	-1941
▁isno	-1942
▁ičix	-1943
▁iħuł	-1944
▁muši	-1945
▁oɣno	-1946
▁pard	-1947
▁taqʕ	-1948
▁teƛa	-1949
▁were	-1950
▁yowa	-1951
ayxanu	-1952
▁Eniya	-1953
▁Nełaq	-1954
▁Xanez	-1955
▁bašla	-1956
▁betin	-1957
▁bišad	-1958
▁dandi	-1959
▁debeƛ	-1960
▁esiwr	-1961
▁esiwz	-1962
▁haraƛ	-1963
▁howda	-1964
▁iguni	-1965
▁insan	-1966
▁ičinč	-1967
▁kurxo	-1968
▁mołin	-1969
▁nagaħ	-1970
▁netin	-1971
▁qazaq	-1972
▁qʕaƛu	-1973
▁riynč	-1974
▁rožin	-1975
▁ruhun	-1976
▁sider	-1977
▁taraw	-1978
▁xecix	-1979
▁yezun	-1980
▁yisiz	-1981
▁yizis	-1982
▁yodin	-1983
▁ħalaq	-1984
▁ħonno	-1985
▁ɣudin	-1986
▁ʕaƛoz	-1987
arnokin	-1988
▁Hemeła	-1989
▁Sosisi	-1990
▁baħarč	-1991
▁boqinč	-1992
▁igorno	-1993
▁izirno	-1994
▁kidbeł	-1995
▁neside	-1996
▁xedyox	-1997
▁yičäsi	-1998
▁čuqʕno	-1999
▁Ħusenä	-2000
▁ħurmat	-2001
▁žaqʕuł	-2002
▁ʕoƛnon	-2003
▁barułun	-2004
▁bodanix	-2005
▁boyxosi	-2006
▁doxturä	-2007
▁esinosi	-2008
▁hemediw	-2009
▁madaxor	-2010
▁roƛixno	-2011
▁sosigon	-2012
▁šebiƛin	-2013
▁žeduqor	-2014
▁ɣamasya	-2015
▁ʕeziyaw	-2016
▁lilyoxor	-2017
▁ɣʕanabin	-2018
▁ɣʕanazas	-2019
▁Hudayziko	-2020
▁bašiqʕoyn	-2021
▁ɣʕutkoxor	-2022
▁bazaryaɣor	-2023
▁ʕArabuzanä	-2024
.”	-2025
äq	-2026
ƛo	-2027
adi	-2028
ana	-2029
ari	-2030
dan	-2031
erb	-2032
eyn	-2033
gär	-2034
ide	-2035
iƛb	-2036
moq	-2037
niƛ	-2038
oru	-2039
oyx	-2040
rus	-2041
uci	-2042
wad	-2043
ʕin	-2044
▁Ac	-2045
▁Ad	-2046
▁Qʕ	-2047
▁ač	-2048
▁ał	-2049
▁kw	-2050
▁oɣ	-2051
▁ɣo	-2052
agin	-2053
apar	-2054
aqay	-2055
arum	-2056
aħam	-2057
edon	-2058
edun	-2059
ikin	-2060
irin	-2061
iyor	-2062
izaq	-2063
iłxo	-2064
qosi	-2065
ukno	-2066
ures	-2067
urun	-2068
utow	-2069
łäsi	-2070
łäyn	-2071
ʕimƛ	-2072
▁Biš	-2073
▁Boc	-2074
▁Ele	-2075
▁Hič	-2076
▁Idu	-2077
▁Neš	-2078
▁Wal	-2079
▁beq	-2080
▁beƛ	-2081
▁biƛ	-2082
▁cin	-2083
▁heq	-2084
▁iħu	-2085
▁kes	-2086
▁keč	-2087
▁laɣ	-2088
▁paš	-2089
▁pur	-2090
▁rix	-2091
▁ser	-2092
▁tuš	-2093
▁wal	-2094
▁yäk	-2095
▁yäs	-2096
▁zer	-2097
▁łib	-2098
▁łäł	-2099
▁šuš	-2100
▁žaz	-2101
▁ƛoħ	-2102
▁ʕOm	-2103
danix	-2104
erhan	-2105
inanu	-2106
yarno	-2107
załäy	-2108
ʕirno	-2109
▁Bara	-2110
▁Musa	-2111
▁buci	-2112
▁buqʕ	-2113
▁buyn	-2114
▁daru	-2115
▁etix	-2116
▁exur	-2117
▁eƛis	-2118
▁iday	-2119
▁iłno	-2120
▁išno	-2121
▁mežä	-2122
▁nʕoƛ	-2123
▁roqä	-2124
▁rowa	-2125
▁sayɣ	-2126
▁tatu	-2127
▁užiq	-2128
▁yałi	-2129
▁yeže	-2130
▁yiča	-2131
▁yoƛƛ	-2132
▁ziya	-2133
▁Šida	-2134
▁žiƛb	-2135
▁ɣʕul	-2136
aharno	-2137
ariłno	-2138
▁Boƛƛo	-2139
▁Dibir	-2140
▁Didur	-2141
▁Maħor	-2142
▁Mesed	-2143
▁Nełaz	-2144
▁Sidaɣ	-2145
▁Xedya	-2146
▁ayƛin	-2147
▁aħozä	-2148
▁baruq	-2149
▁bayan	-2150
▁bišan	-2151
▁boynč	-2152
▁hunin	-2153
▁inkar	-2154
▁madaħ	-2155
▁musno	-2156
▁nucos	-2157
▁oqäsi	-2158
▁qaciz	-2159
▁rayza	-2160
▁razin	-2161
▁roƛƛo	-2162
▁sidaƛ	-2163
▁sidqo	-2164
▁tamaš	-2165
▁teƛsi	-2166
▁urɣel	-2167
▁yiziq	-2168
▁yiłaq	-2169
▁šinaw	-2170
▁žigoƛ	-2171
▁žukłi	-2172
▁ƛʕeba	-2173
▁ɣoɣor	-2174
▁ʕilmu	-2175
wariłiƛ	-2176
yoqorno	-2177
▁Berten	-2178
▁Esnaza	-2179
▁Sisgon	-2180
▁Xexłiƛ	-2181
▁bayƛin	-2182
▁biqinč	-2183
▁boqäsi	-2184
▁esunäy	-2185
▁exurno	-2186
▁hokomƛ	-2187
▁kidƛin	-2188
▁onočaƛ	-2189
▁pandur	-2190
▁pašman	-2191
▁qʕirič	-2192
▁rodäsi	-2193
▁roqace	-2194
▁tušman	-2195
▁xanłin	-2196
▁xanłun	-2197
▁xecinč	-2198
▁xedyos	-2199
▁xizayn	-2200
▁yayrno	-2201
▁žedude	-2202
▁ƛuzabi	-2203
▁ƛäxuru	-2204
▁ƛʕoreł	-2205
ixanuƛin	-2206
▁Zamanaƛ	-2207
▁bayrinč	-2208
▁bayxƛin	-2209
▁bełiqus	-2210
▁bičirno	-2211
▁bodoƛin	-2212
▁elaygon	-2213
▁iħułxor	-2214
▁mesedno	-2215
▁nesiqay	-2216
▁rexurno	-2217
▁salamno	-2218
▁yukarno	-2219
▁zamanno	-2220
▁šebinno	-2221
▁ʕoloqbi	-2222
▁Bełiqanä	-2223
▁bitazoni	-2224
▁boqnoanu	-2225
▁deberƛin	-2226
▁howžatow	-2227
▁nexxoƛin	-2228
▁roqnoƛin	-2229
▁sasaqtow	-2230
▁tełxorno	-2231
▁zowwäƛin	-2232
▁šebintow	-2233
▁ƛirbałix	-2234
▁ɣʕurušno	-2235
▁bazarganä	-2236
▁ʕUneyzatä	-2237
▁ʕiyayxƛin	-2238
▁bazarganbi	-2239
▁bazarganza	-2240
▁bercinawni	-2241
▁bexursiƛin	-2242
▁ʕAliqiličä	-2243
▁bertenyołer	-2244
▁ħurženyabin	-2245
▁Hudayzikotow	-2246
ro	-2247
sa	-2248
ayƛ	-2249
ažg	-2250
dal	-2251
din	-2252
ečk	-2253
ili	-2254
muk	-2255
oda	-2256
oqʕ	-2257
uɣw	-2258
xar	-2259
yaƛ	-2260
čey	-2261
šel	-2262
ʕir	-2263
▁En	-2264
▁Re	-2265
▁or	-2266
abul	-2267
akin	-2268
alan	-2269
amal	-2270
anin	-2271
anir	-2272
araɣ	-2273
arik	-2274
ekin	-2275
ešon	-2276
ider	-2277
irsi	-2278
izay	-2279
osin	-2280
unzi	-2281
utin	-2282
ärno	-2283
▁Bar	-2284
▁Mad	-2285
▁Moƛ	-2286
▁Roƛ	-2287
▁Waħ	-2288
▁bak	-2289
▁bog	-2290
▁bät	-2291
▁cir	-2292
▁eso	-2293
▁hob	-2294
▁muč	-2295
▁oqa	-2296
▁osi	-2297
▁oyn	-2298
▁ozƛ	-2299
▁pul	-2300
▁put	-2301
▁rez	-2302
▁ruł	-2303
▁ruɣ	-2304
▁räč	-2305
▁siħ	-2306
▁uyn	-2307
▁ħil	-2308
▁Łin	-2309
▁łac	-2310
▁łem	-2311
▁łet	-2312
▁łoč	-2313
▁žež	-2314
▁ƛen	-2315
▁ʕOƛ	-2316
arƛin	-2317
ažgit	-2318
inƛax	-2319
nokin	-2320
orgon	-2321
osini	-2322
ranix	-2323
usƛin	-2324
waƛin	-2325
xorno	-2326
yoqor	-2327
ʕułno	-2328
▁Ceyä	-2329
▁Elus	-2330
▁Umuk	-2331
▁Yizä	-2332
▁Zeyä	-2333
▁bezu	-2334
▁boqa	-2335
▁bʕaƛ	-2336
▁ence	-2337
▁esiy	-2338
▁ečru	-2339
▁hečk	-2340
▁hoko	-2341
▁mecr	-2342
▁meča	-2343
▁neti	-2344
▁neƛa	-2345
▁ogun	-2346
▁orez	-2347
▁posu	-2348
▁puħo	-2349
▁pʕaƛ	-2350
▁qema	-2351
▁qʕiƛ	-2352
▁rešt	-2353
▁rʕoƛ	-2354
▁sidƛ	-2355
▁užir	-2356
▁ħaƛa	-2357
▁łera	-2358
▁łiyr	-2359
▁łoħr	-2360
▁Žoyä	-2361
▁ƛeli	-2362
▁ɣutk	-2363
▁ʕant	-2364
araɣno	-2365
imoxor	-2366
iranix	-2367
näyƛin	-2368
▁Nasin	-2369
▁Nesir	-2370
▁Nesiƛ	-2371
▁Raład	-2372
▁Suƛƛi	-2373
▁Telaw	-2374
▁Zeyes	-2375
▁anunč	-2376
▁anuru	-2377
▁ayrun	-2378
▁azbar	-2379
▁bišno	-2380
▁boqsi	-2381
▁boƛix	-2382
▁boƛäx	-2383
▁cuƛer	-2384
▁diwan	-2385
▁dowde	-2386
▁howła	-2387
▁imadu	-2388
▁kedon	-2389
▁koyär	-2390
▁madax	-2391
▁mečoł	-2392
▁mežuq	-2393
▁mušin	-2394
▁nazon	-2395
▁nełde	-2396
▁onoču	-2397
▁qoqoƛ	-2398
▁rexun	-2399
▁rizin	-2400
▁rodan	-2401
▁sapar	-2402
▁sasił	-2403
▁suƛƛi	-2404
▁teqxo	-2405
▁užibi	-2406
▁xanłi	-2407
▁yexur	-2408
▁yiził	-2409
▁čaran	-2410
▁ħalik	-2411
▁ħažat	-2412
▁ħošin	-2413
▁šibaw	-2414
▁Žeduł	-2415
▁žeduƛ	-2416
▁ɣurox	-2417
▁ɣuruš	-2418
▁ʕAƛoz	-2419
▁ʕaƛay	-2420
▁ʕaƛox	-2421
orolayä	-2422
▁Allahä	-2423
▁Aħmadä	-2424
▁Maħama	-2425
▁Qartay	-2426
▁Yaqʕuł	-2427
▁akiłno	-2428
▁bayrun	-2429
▁bayzaƛ	-2430
▁behizi	-2431
▁bexada	-2432
▁bełiqa	-2433
▁bičinč	-2434
▁buyxor	-2435
▁kikxor	-2436
▁maxšel	-2437
▁mažgit	-2438
▁nukarä	-2439
▁pikrun	-2440
▁riynox	-2441
▁ruqʕno	-2442
▁räyƛin	-2443
▁wallah	-2444
▁yayƛin	-2445
▁čʕaƛin	-2446
▁ʕiyayn	-2447
▁ʕiyayx	-2448
▁Yisägon	-2449
▁aždaħno	-2450
▁baħarči	-2451
▁besunäy	-2452
▁bikorin	-2453
▁bitaɣor	-2454
▁boqxosi	-2455
▁esiwqor	-2456
▁kuroƛin	-2457
▁neširur	-2458
▁nukarza	-2459
▁rayxosi	-2460
▁rizirno	-2461
▁teqerno	-2462
▁teqnosi	-2463
▁teƛanix	-2464
▁yaraɣno	-2465
▁yukayru	-2466
▁zowäƛin	-2467
▁šebitow	-2468
▁ʕoloqza	-2469
▁ʕoƛiran	-2470
▁Bazargan	-2471
▁barkalan	-2472
▁esiranix	-2473
▁ičäsiƛin	-2474
▁mamalayƛ	-2475
▁netintow	-2476
▁yałrułin	-2477
▁ƛäxuruni	-2478
▁Bertenyoł	-2479
▁eniwdäɣor	-2480
▁eynodanix	-2481
▁neširuxay	-2482
▁rukaynosi	-2483
▁xabaryayn	-2484
▁xabaryayx	-2485
▁yukaynosi	-2486
▁ħumukulis	-2487
▁ʕaƛaɣorno	-2488
▁didurnokin	-2489
▁kidbedäɣor	-2490
▁ħumukulibin	-2491
iʕ	-2492
yx	-2493
äd	-2494
ɣe	-2495
alq	-2496
aru	-2497
ice	-2498
igu	-2499
ila	-2500
iyä	-2501
iči	-2502
laƛ	-2503
lus	-2504
mun	-2505
naq	-2506
oli	-2507
oyo	-2508
raw	-2509
ual	-2510
ula	-2511
žis	-2512
ɣen	-2513
ɣet	-2514
ʕeƛ	-2515
▁As	-2516
▁Id	-2517
▁aƛ	-2518
▁eš	-2519
▁yu	-2520
▁Ži	-2521
akno	-2522
ambi	-2523
amus	-2524
anon	-2525
arab	-2526
aram	-2527
awus	-2528
aysi	-2529
azax	-2530
azał	-2531
bʕoƛ	-2532
danƛ	-2533
eley	-2534
eres	-2535
hanä	-2536
ibin	-2537
ikay	-2538
ilaw	-2539
imat	-2540
isdi	-2541
mʕal	-2542
ogol	-2543
olun	-2544
onił	-2545
orił	-2546
orok	-2547
ołun	-2548
utan	-2549
uħam	-2550
äsin	-2551
äƛru	-2552
łinč	-2553
žmar	-2554
ʕizi	-2555
▁Bes	-2556
▁Haq	-2557
▁Kut	-2558
▁Mus	-2559
▁Qac	-2560
▁ana	-2561
▁axw	-2562
▁aħn	-2563
▁bił	-2564
▁cim	-2565
▁daq	-2566
▁ged	-2567
▁hiƛ	-2568
▁hoq	-2569
▁igo	-2570
▁kaw	-2571
▁kaƛ	-2572
▁kok	-2573
▁maq	-2574
▁mar	-2575
▁mas	-2576
▁obi	-2577
▁pak	-2578
▁pun	-2579
▁rag	-2580
▁ras	-2581
▁rec	-2582
▁rit	-2583
▁ruħ	-2584
▁räk	-2585
▁tus	-2586
▁xux	-2587
▁yaw	-2588
▁yaƛ	-2589
▁yis	-2590
▁yoɣ	-2591
▁zah	-2592
▁ħak	-2593
▁ħir	-2594
▁ħob	-2595
▁łäƛ	-2596
▁šiš	-2597
▁šuƛ	-2598
▁ʕOl	-2599
▁ʕag	-2600
▁ʕuq	-2601
alyos	-2602
eynod	-2603
inayn	-2604
iƛƛin	-2605
moxor	-2606
orkin	-2607
orƛin	-2608
qaɣor	-2609
ugani	-2610
uxanu	-2611
zagon	-2612
zaqay	-2613
ärułi	-2614
ärƛin	-2615
ʕalim	-2616
ʕimak	-2617
▁Adäz	-2618
▁Aħya	-2619
▁Bayn	-2620
▁Bʕeƛ	-2621
▁Howt	-2622
▁Howž	-2623
▁Rigu	-2624
▁Sidä	-2625
▁azir	-2626
▁ačqʕ	-2627
▁aħya	-2628
▁ałni	-2629
▁baya	-2630
▁bečn	-2631
▁bełi	-2632
▁beɣe	-2633
▁boƛi	-2634
▁boɣa	-2635
▁esan	-2636
▁eƛno	-2637
▁gugu	-2638
▁haqu	-2639
▁izmu	-2640
▁keca	-2641
▁kuro	-2642
▁kwat	-2643
▁maħi	-2644
▁muži	-2645
▁nasi	-2646
▁osiw	-2647
▁oƛix	-2648
▁rayr	-2649
▁rayx	-2650
▁riƛu	-2651
▁sual	-2652
▁ukru	-2653
▁užiƛ	-2654
▁yaɣʕ	-2655
▁ziys	-2656
▁łiya	-2657
▁šiqʕ	-2658
▁žuka	-2659
▁ƛisi	-2660
▁ɣedu	-2661
abanaw	-2662
adäɣor	-2663
ayxosi	-2664
aɣʕƛin	-2665
ernosi	-2666
idaɣor	-2667
iraɣor	-2668
iyäƛin	-2669
moƛxor	-2670
orolaz	-2671
uħaraw	-2672
▁Bełiƛ	-2673
▁Debez	-2674
▁Howła	-2675
▁Muħam	-2676
▁Xediw	-2677
▁Yisiz	-2678
▁acmoq	-2679
▁bexor	-2680
▁bełis	-2681
▁bigza	-2682
▁biqin	-2683
▁butni	-2684
▁caƛix	-2685
▁cedin	-2686
▁cucik	-2687
▁debeł	-2688
▁därno	-2689
▁elzox	-2690
▁geres	-2691
▁gondu	-2692
▁gugin	-2693
▁gulus	-2694
▁hison	-2695
▁hisos	-2696
▁igtow	-2697
▁istow	-2698
▁kočor	-2699
▁maqʕi	-2700
▁maʕna	-2701
▁mogol	-2702
▁močin	-2703
▁nesän	-2704
▁ozzaq	-2705
▁ozƛäy	-2706
▁qacan	-2707
▁qaciƛ	-2708
▁raƛin	-2709
▁režet	-2710
▁rigut	-2711
▁riħin	-2712
▁roxin	-2713
▁serun	-2714
▁taxeƛ	-2715
▁tungi	-2716
▁ukrun	-2717
▁uqʕno	-2718
▁xande	-2719
▁xexza	-2720
▁yisiƛ	-2721
▁yoxin	-2722
▁zowno	-2723
▁äčiza	-2724
▁ħaƛin	-2725
▁ħilla	-2726
▁łaħin	-2727
▁łenon	-2728
▁łeɣin	-2729
▁łinaq	-2730
▁łinax	-2731
▁Žeduq	-2732
▁žader	-2733
▁žedar	-2734
▁ƛexus	-2735
▁ʕOmoy	-2736
▁ʕUraw	-2737
iranƛin	-2738
ʕunesno	-2739
▁Dibirä	-2740
▁Iduɣor	-2741
▁Kidbez	-2742
▁Oƛƛozo	-2743
▁Tawadi	-2744
▁Yeženi	-2745
▁adäzay	-2746
▁anaƛin	-2747
▁barubi	-2748
▁baybik	-2749
▁bečełi	-2750
▁bodäsi	-2751
▁boqnäy	-2752
▁bukayx	-2753
▁dawlaƛ	-2754
▁däqƛin	-2755
▁esinäy	-2756
▁esoƛin	-2757
▁gondun	-2758
▁gugyoq	-2759
▁hemece	-2760
▁hemeła	-2761
▁hemełƛ	-2762
▁ixinno	-2763
▁kecäsi	-2764
▁mekoyx	-2765
▁nełade	-2766
▁nełder	-2767
▁oxirno	-2768
▁pakmos	-2769
▁qoqoƛu	-2770
▁qunyox	-2771
▁qułtow	-2772
▁retäsi	-2773
▁roqzaƛ	-2774
▁roqäsi	-2775
▁rukayx	-2776
▁saɣyat	-2777
▁sidqor	-2778
▁sosisi	-2779
▁tusnaq	-2780
▁ukarno	-2781
▁utirno	-2782
▁xediya	-2783
▁xedyor	-2784
▁xexbin	-2785
▁xexzas	-2786
▁yaɣʕin	-2787
▁yeženä	-2788
▁yołali	-2789
▁äsuƛin	-2790
▁äƛirun	-2791
▁łočyaƛ	-2792
▁łäyrun	-2793
▁ƛʕebaƛ	-2794
▁ʕabdal	-2795
▁ʕazara	-2796
Bahadurä	-2797
ixosiƛin	-2798
▁baħaray	-2799
▁besuroz	-2800
▁bežigon	-2801
▁bizirno	-2802
▁biłetow	-2803
▁boxirno	-2804
▁bukaynč	-2805
▁bäsuƛin	-2806
▁bʕałayn	-2807
▁deberno	-2808
▁dibirno	-2809
▁egirƛin	-2810
▁esnazaq	-2811
▁eƛixosi	-2812
▁huduƛin	-2813
▁kidbaza	-2814
▁maharno	-2815
▁nukarbi	-2816
▁ozzałer	-2817
▁pardagi	-2818
▁pulanaw	-2819
▁qoqoƛix	-2820
▁režigon	-2821
▁riguƛin	-2822
▁tełerno	-2823
▁uqʕełno	-2824
▁zamanaƛ	-2825
▁zigolun	-2826
▁äsuruni	-2827
▁äƛiruni	-2828
▁čanyabi	-2829
▁łiboqan	-2830
▁ɣamasno	-2831
▁ɣʕutkox	-2832
▁ɣʕutkoł	-2833
▁Alimaħam	-2834
▁baħarayn	-2835
▁bercingo	-2836
▁besurobi	-2837
▁bizinosi	-2838
▁bodinosi	-2839
▁boržizin	-2840
▁kidbeder	-2841
▁kidberno	-2842
▁nesistow	-2843
▁nexanƛin	-2844
▁rodixƛin	-2845
▁saparyox	-2846
▁xandäɣor	-2847
▁xizaygon	-2848
▁yezunosi	-2849
▁egiranƛin	-2850
▁esnazaqor	-2851
▁maʕišatno	-2852
▁regirnosi	-2853
▁ħalikataw	-2854
▁ɣʕurušyoƛ	-2855
▁ʕoloqanaw	-2856
▁Didurnokin	-2857
▁raładyołäy	-2858
▁raʕalłixor	-2859
▁zamanałäza	-2860
▁łinasnotow	-2861
▁aħinyoqorno	-2862
▁bazarganbin	-2863
▁micxiryosno	-2864
eg	-2865
ew	-2866
nč	-2867
op	-2868
re	-2869
st	-2870
uʕ	-2871
xa	-2872
äs	-2873
łä	-2874
aba	-2875
alä	-2876
aqi	-2877
bet	-2878
hun	-2879
idä	-2880
ild	-2881
iłi	-2882
iƛa	-2883
kum	-2884
lun	-2885
moł	-2886
ode	-2887
oqu	-2888
rik	-2889
unt	-2890
urƛ	-2891
usä	-2892
wač	-2893
xoƛ	-2894
yay	-2895
yik	-2896
zan	-2897
zix	-2898
łaƛ	-2899
šno	-2900
žiƛ	-2901
ʕaš	-2902
ʕaɣ	-2903
ʕlu	-2904
▁Am	-2905
▁Aɣ	-2906
▁Ig	-2907
▁Ix	-2908
▁Ič	-2909
▁Me	-2910
▁Už	-2911
▁ar	-2912
▁ot	-2913
▁oƛ	-2914
▁rʕ	-2915
▁te	-2916
▁ħa	-2917
▁ƛa	-2918
▁ʕI	-2919
acet	-2920
alno	-2921
anaʕ	-2922
araƛ	-2923
awnä	-2924
axum	-2925
azan	-2926
ažar	-2927
edix	-2928
enek	-2929
enno	-2930
ersi	-2931
ełsi	-2932
iqay	-2933
iqno	-2934
iqoy	-2935
irus	-2936
irza	-2937
iyan	-2938
iƛer	-2939
mild	-2940
nkin	-2941
olow	-2942
räsi	-2943
rƛin	-2944
ucin	-2945
uder	-2946
ugon	-2947
uqno	-2948
urqʕ	-2949
äynč	-2950
äłru	-2951
ħmat	-2952
ʕuri	-2953
ʕutk	-2954
▁Ayn	-2955
▁Bay	-2956
▁Buq	-2957
▁Ciq	-2958
▁Esi	-2959
▁Hor	-2960
▁Mek	-2961
▁Nay	-2962
▁Rič	-2963
▁Way	-2964
▁Yoƛ	-2965
▁ahl	-2966
▁akä	-2967
▁aqʕ	-2968
▁ays	-2969
▁ayƛ	-2970
▁aɣä	-2971
▁box	-2972
▁bäz	-2973
▁ced	-2974
▁dur	-2975
▁ečr	-2976
▁kod	-2977
▁käc	-2978
▁mat	-2979
▁nak	-2980
▁ocä	-2981
▁own	-2982
▁peč	-2983
▁qid	-2984
▁rak	-2985
▁raɣ	-2986
▁ruz	-2987
▁räq	-2988
▁sik	-2989
▁täq	-2990
▁ust	-2991
▁wey	-2992
▁xäc	-2993
▁yeč	-2994
▁yox	-2995
▁ħol	-2996
▁ħoʕ	-2997
▁ħul	-2998
▁Łäs	-2999
▁łas	-3000
▁šom	-3001
▁Žek	-3002
▁žaƛ	-3003
▁žop	-3004
▁ƛis	-3005
alłiƛ	-3006
axayn	-3007
axrun	-3008
aymoƛ	-3009
ikays	-3010
iräsi	-3011
ixyoł	-3012
noanu	-3013
oqʕoy	-3014
oxinč	-3015
oxłin	-3016
udani	-3017
urinč	-3018
urnäy	-3019
urtow	-3020
uɣwey	-3021
xaɣor	-3022
xoƛax	-3023
zoxor	-3024
äygon	-3025
äytow	-3026
äłinč	-3027
ʕiłno	-3028
ʕuyza	-3029
▁Aluk	-3030
▁Best	-3031
▁Debi	-3032
▁Goqi	-3033
▁Izin	-3034
▁Okun	-3035
▁Qʕaš	-3036
▁Qʕiš	-3037
▁Xalq	-3038
▁Ziru	-3039
▁akik	-3040
▁akił	-3041
▁amru	-3042
▁ašun	-3043
▁ašuƛ	-3044
▁aɣbi	-3045
▁aɣin	-3046
▁bodo	-3047
▁ceyn	-3048
▁ciqa	-3049
▁elar	-3050
▁elin	-3051
▁eliz	-3052
▁eluƛ	-3053
▁ežen	-3054
▁ganƛ	-3055
▁igin	-3056
▁iynč	-3057
▁iħux	-3058
▁kosi	-3059
▁maħl	-3060
▁moƛa	-3061
▁muhu	-3062
▁nuci	-3063
▁qʕay	-3064
▁qʕiš	-3065
▁radi	-3066
▁risa	-3067
▁riso	-3068
▁riya	-3069
▁rodo	-3070
▁royx	-3071
▁räči	-3072
▁urgu	-3073
▁užis	-3074
▁xeca	-3075
▁yiza	-3076
▁yižo	-3077
▁yowx	-3078
▁yołä	-3079
▁yuyn	-3080
▁ħala	-3081
▁ħalk	-3082
▁ħobo	-3083
▁ħoyä	-3084
▁žade	-3085
▁ɣuro	-3086
▁ɣʕay	-3087
acekin	-3088
anaƛin	-3089
aniqor	-3090
anyabi	-3091
ebedes	-3092
erbaqi	-3093
ełxosi	-3094
idäɣor	-3095
irerno	-3096
irirno	-3097
odoraw	-3098
oxnosi	-3099
uläɣor	-3100
yołxor	-3101
ʕanoqu	-3102
ʕidayn	-3103
ʕimaku	-3104
▁Aħmad	-3105
▁Baxum	-3106
▁Bežet	-3107
▁Bisno	-3108
▁Elayn	-3109
▁Elozo	-3110
▁Eženä	-3111
▁Goqix	-3112
▁Hawaƛ	-3113
▁Igtow	-3114
▁Mirza	-3115
▁Nagaħ	-3116
▁Nediw	-3117
▁Nesiq	-3118
▁Nesiz	-3119
▁Nełar	-3120
▁Sadaq	-3121
▁Sasił	-3122
▁Walla	-3123
▁Xaner	-3124
▁aɣzas	-3125
▁barus	-3126
▁baynč	-3127
▁begin	-3128
▁bexux	-3129
▁butix	-3130
▁ceyes	-3131
▁dalay	-3132
▁dawla	-3133
▁elayn	-3134
▁exura	-3135
▁eƛäsi	-3136
▁heqno	-3137
▁hisno	-3138
▁izäsi	-3139
▁lamus	-3140
▁maħin	-3141
▁mešin	-3142
▁mitow	-3143
▁muhum	-3144
▁naɣor	-3145
▁neƛan	-3146
▁neƛsi	-3147
▁näƛru	-3148
▁onoča	-3149
▁puħor	-3150
▁qʕaba	-3151
▁qʕiči	-3152
▁raynč	-3153
▁rekan	-3154
▁resux	-3155
▁reyno	-3156
▁rezun	-3157
▁reƛił	-3158
▁ricin	-3159
▁riqir	-3160
▁riłen	-3161
▁roƛix	-3162
▁sabaw	-3163
▁salam	-3164
▁sanaʕ	-3165
▁xedya	-3166
▁yayru	-3167
▁yetin	-3168
▁yetix	-3169
▁yicin	-3170
▁zirur	-3171
▁äƛiza	-3172
▁čanta	-3173
▁ħošos	-3174
▁łukin	-3175
▁Žedur	-3176
▁žaqay	-3177
▁žedas	-3178
▁ɣudbi	-3179
▁ɣutan	-3180
▁ʕAƛos	-3181
▁ʕagar	-3182
▁ʕaƛno	-3183
▁ʕaƛoł	-3184
▁ʕenek	-3185
Bahadur	-3186
aniƛäyn	-3187
axrudin	-3188
ixanusi	-3189
orolayn	-3190
ʕunader	-3191
▁Aždaħä	-3192
▁Babiwn	-3193
▁Doxtur	-3194
▁Elaɣor	-3195
▁Esnabi	-3196
▁Howžin	-3197
▁Idurno	-3198
▁Tełxor	-3199
▁akixor	-3200
▁babiws	-3201
▁baqinč	-3202
▁bayäru	-3203
▁bexura	-3204
▁beɣeni	-3205
▁bigtow	-3206
▁butnoƛ	-3207
▁bäsuru	-3208
▁dibirä	-3209
▁dowder	-3210
▁därƛin	-3211
▁eliƛin	-3212
▁elułäy	-3213
▁eniyan	-3214
▁esiwde	-3215
▁eynoda	-3216
▁ezuzaƛ	-3217
▁eƛizaƛ	-3218
▁gulude	-3219
▁guluza	-3220
▁kesubi	-3221
▁kokoru	-3222
▁maqʕiƛ	-3223
▁mužmar	-3224
▁neƛinč	-3225
▁oqäƛin	-3226
▁puräza	-3227
▁raqƛin	-3228
▁rayäru	-3229
▁retinč	-3230
▁riqinč	-3231
▁ričäsi	-3232
▁roqnäy	-3233
▁ruzman	-3234
▁räsuru	-3235
▁sayɣat	-3236
▁sidade	-3237
▁simild	-3238
▁tamaša	-3239
▁teƛinč	-3240
▁užibin	-3241
▁užiƛin	-3242
▁xedyoq	-3243
▁xexoyä	-3244
▁yacʕal	-3245
▁yigtow	-3246
▁yizide	-3247
▁yoqinč	-3248
▁yoqƛin	-3249
▁yuqʕno	-3250
▁zaħmat	-3251
▁zowali	-3252
▁zowrno	-3253
▁äsirus	-3254
▁ħišäsi	-3255
▁ħukmat	-3256
▁Łʕonon	-3257
▁łiyzaƛ	-3258
▁šebigo	-3259
▁šilabi	-3260
▁žopono	-3261
▁ɣwʕadi	-3262
▁ɣʕwayn	-3263
▁ɣʕways	-3264
▁ʕabasi	-3265
▁ʕiyada	-3266
▁ʕomoyn	-3267
bahadurä	-3268
wʕaɣʕƛin	-3269
▁Allahqo	-3270
▁Dicegon	-3271
▁Hunixor	-3272
▁Mamalay	-3273
▁Muħamad	-3274
▁Nełagon	-3275
▁Qartayä	-3276
▁Salamno	-3277
▁Tawadiƛ	-3278
▁aɣʕuxor	-3279
▁babiwde	-3280
▁badiƛin	-3281
▁barubin	-3282
▁baruqor	-3283
▁bayxosi	-3284
▁bazarya	-3285
▁bexarno	-3286
▁bisnosi	-3287
▁bizizaq	-3288
▁bičiƛin	-3289
▁bišerno	-3290
▁boržizi	-3291
▁bukarno	-3292
▁durimoƛ	-3293
▁egirinč	-3294
▁esanƛin	-3295
▁esnazas	-3296
▁exunosi	-3297
▁ezunosi	-3298
▁halmaɣä	-3299
▁henešno	-3300
▁hunixor	-3301
▁kedonno	-3302
▁keroqor	-3303
▁kuranix	-3304
▁kurnosi	-3305
▁madaħor	-3306
▁muʕalim	-3307
▁necetow	-3308
▁netikin	-3309
▁neƛxosi	-3310
▁raynosi	-3311
▁raładno	-3312
▁riyxanu	-3313
▁roƛxosi	-3314
▁rukarno	-3315
▁sosikin	-3316
▁wallahi	-3317
▁yeduƛin	-3318
▁yesuzaƛ	-3319
▁yexorił	-3320
▁yutizaƛ	-3321
▁Ħumukul	-3322
▁šidaƛin	-3323
▁šiqʕono	-3324
▁ɣoɣorik	-3325
▁ɣunoqay	-3326
▁ɣʕutkoz	-3327
▁ʕabasin	-3328
eynodaniƛ	-3329
ixyołiƛin	-3330
▁Naysinan	-3331
▁adäzarno	-3332
▁bodanƛin	-3333
▁bäqiruni	-3334
▁dahawtow	-3335
▁debertow	-3336
▁halmaɣbi	-3337
▁kidbabin	-3338
▁kidbełäy	-3339
▁kumakyoƛ	-3340
▁mečołxor	-3341
▁meɣyoqor	-3342
▁miskinaw	-3343
▁narnokin	-3344
▁nesiqayn	-3345
▁ozurabin	-3346
▁raʕalłix	-3347
▁regirinč	-3348
▁roqsiƛin	-3349
▁sidaɣaza	-3350
▁waħazoni	-3351
▁xabaryoƛ	-3352
▁xexoybin	-3353
▁yołalini	-3354
▁yukayrun	-3355
▁łarnokin	-3356
▁šaharyar	-3357
▁šebinabi	-3358
▁ɣʕanazar	-3359
▁ʕenekizi	-3360
▁ʕomoybin	-3361
▁Howlaytow	-3362
▁Ismaʕiles	-3363
▁bercinawt	-3364
▁besurozaƛ	-3365
▁bexuranix	-3366
▁didiwnkin	-3367
▁halmaɣbin	-3368
▁halmaɣłin	-3369
▁hemełatow	-3370
▁howlortow	-3371
▁micxiryos	-3372
▁miskinłiƛ	-3373
▁nesiqorno	-3374
▁qʕaƛanada	-3375
▁sasiłnosi	-3376
▁sidenigon	-3377
▁yaqʕułgon	-3378
▁yegirxanu	-3379
▁ħumukulin	-3380
▁łʕonontow	-3381
▁Ražbadinno	-3382
▁babiwderno	-3383
▁mesedyosno	-3384
▁yegiranƛin	-3385
▁Ražbadinqor	-3386
..	-3387
ci	-3388
lk	-3389
mo	-3390
ož	-3391
Ža	-3392
?”,	-3393
?”.	-3394
anq	-3395
arƛ	-3396
aža	-3397
beg	-3398
ede	-3399
eyx	-3400
gix	-3401
hay	-3402
icu	-3403
inq	-3404
iwt	-3405
iħo	-3406
išq	-3407
mor	-3408
mox	-3409
nan	-3410
orä	-3411
quł	-3412
saq	-3413
taħ	-3414
uda	-3415
ump	-3416
umä	-3417
uƛi	-3418
xot	-3419
zak	-3420
zoq	-3421
zoƛ	-3422
äyr	-3423
ħor	-3424
šaw	-3425
ʕog	-3426
ʕub	-3427
ʕur	-3428
ʕwa	-3429
▁Ak	-3430
▁An	-3431
▁Aq	-3432
▁Az	-3433
▁Dä	-3434
▁Ex	-3435
▁Eč	-3436
▁Eƛ	-3437
▁Ha	-3438
▁Oč	-3439
▁Uk	-3440
▁mo	-3441
▁pu	-3442
▁Łi	-3443
acen	-3444
adał	-3445
aguy	-3446
alah	-3447
anan	-3448
arbi	-3449
ayat	-3450
ayib	-3451
azab	-3452
azaħ	-3453
aħar	-3454
ałin	-3455
ałno	-3456
ašiƛ	-3457
begä	-3458
ecen	-3459
ekzo	-3460
exno	-3461
ečed	-3462
gani	-3463
giru	-3464
ibli	-3465
idaƛ	-3466
idox	-3467
imoq	-3468
imos	-3469
iszi	-3470
izad	-3471
izax	-3472
izir	-3473
ičur	-3474
iłir	-3475
iƛäy	-3476
mƛin	-3477
nayn	-3478
noni	-3479
nsan	-3480
osno	-3481
oxxo	-3482
ozas	-3483
ozis	-3484
ozox	-3485
ołno	-3486
oƛƛo	-3487
sini	-3488
udes	-3489
ulam	-3490
ulaʕ	-3491
uqin	-3492
urox	-3493
ursi	-3494
ušyo	-3495
xoza	-3496
yayx	-3497
yode	-3498
ärun	-3499
äsit	-3500
ħizi	-3501
ʕoni	-3502
▁Bet	-3503
▁Cim	-3504
▁Ela	-3505
▁Eli	-3506
▁Hay	-3507
▁Miƛ	-3508
▁Naz	-3509
▁Rok	-3510
▁Sir	-3511
▁Tun	-3512
▁Zow	-3513
▁aki	-3514
▁azb	-3515
▁aħi	-3516
▁aħy	-3517
▁ažo	-3518
▁bał	-3519
▁beg	-3520
▁beš	-3521
▁bäx	-3522
▁deq	-3523
▁gel	-3524
▁gib	-3525
▁haw	-3526
▁hoz	-3527
▁isi	-3528
▁iyo	-3529
▁iyx	-3530
▁iči	-3531
▁iħä	-3532
▁kob	-3533
▁kot	-3534
▁kuc	-3535
▁kuč	-3536
▁may	-3537
▁meq	-3538
▁muɣ	-3539
▁naʕ	-3540
▁näx	-3541
▁oxi	-3542
▁pay	-3543
▁ros	-3544
▁rož	-3545
▁ruy	-3546
▁räš	-3547
▁räƛ	-3548
▁sip	-3549
▁suħ	-3550
▁ulk	-3551
▁unt	-3552
▁yec	-3553
▁yeg	-3554
▁yät	-3555
▁yäč	-3556
▁zeb	-3557
▁zur	-3558
▁äru	-3559
▁äsu	-3560
▁łaq	-3561
▁łek	-3562
▁łuq	-3563
▁Šet	-3564
▁šem	-3565
▁Žed	-3566
▁Žin	-3567
▁Žäd	-3568
▁žin	-3569
▁ʕar	-3570
▁ʕuƛ	-3571
atyoƛ	-3572
cetow	-3573
erłin	-3574
eyƛin	-3575
hayaw	-3576
isdis	-3577
iwtow	-3578
ixƛax	-3579
iłinč	-3580
iłiri	-3581
lałäy	-3582
maɣor	-3583
oxäsi	-3584
salam	-3585
taħiq	-3586
ukyoƛ	-3587
urƛin	-3588
uxosi	-3589
wadma	-3590
ynanu	-3591
yołer	-3592
yxosi	-3593
zaɣor	-3594
äƛiru	-3595
łiƛin	-3596
ʕanix	-3597
ʕaraw	-3598
ʕiday	-3599
ʕimbi	-3600
ʕimes	-3601
ʕiłxo	-3602
ʕunän	-3603
▁Acno	-3604
▁Amma	-3605
▁Dand	-3606
▁Habi	-3607
▁Horo	-3608
▁Išno	-3609
▁Meža	-3610
▁Meži	-3611
▁Nece	-3612
▁Roda	-3613
▁adäy	-3614
▁akin	-3615
▁akäz	-3616
▁aqno	-3617
▁araq	-3618
▁asno	-3619
▁aħna	-3620
▁ažom	-3621
▁aƛin	-3622
▁baba	-3623
▁bays	-3624
▁baɣʕ	-3625
▁beqa	-3626
▁boɣƛ	-3627
▁bäsu	-3628
▁cudi	-3629
▁egär	-3630
▁eluł	-3631
▁ensi	-3632
▁enła	-3633
▁eqro	-3634
▁ersi	-3635
▁esus	-3636
▁exuƛ	-3637
▁ezur	-3638
▁eƛuk	-3639
▁gula	-3640
▁hunä	-3641
▁idun	-3642
▁iswa	-3643
▁iyon	-3644
▁iziƛ	-3645
▁iħäy	-3646
▁ižix	-3647
▁kero	-3648
▁kesu	-3649
▁kikƛ	-3650
▁kodi	-3651
▁kura	-3652
▁kwar	-3653
▁laga	-3654
▁marɣ	-3655
▁maxs	-3656
▁meɣu	-3657
▁miyä	-3658
▁mump	-3659
▁nełd	-3660
▁obiy	-3661
▁oqsi	-3662
▁ozno	-3663
▁ozäy	-3664
▁qart	-3665
▁qoqƛ	-3666
▁quqa	-3667
▁qʕod	-3668
▁raɣʕ	-3669
▁roqa	-3670
▁roys	-3671
▁roƛa	-3672
▁roɣa	-3673
▁räti	-3674
▁rʕaƛ	-3675
▁taxƛ	-3676
▁teƛƛ	-3677
▁užix	-3678
▁užił	-3679
▁užän	-3680
▁waħo	-3681
▁xiza	-3682
▁yagi	-3683
▁yayr	-3684
▁yezu	-3685
▁yeɣe	-3686
▁yoqa	-3687
▁yäsu	-3688
▁zowä	-3689
▁Ħonƛ	-3690
▁ħinq	-3691
▁łemu	-3692
▁łiyä	-3693
▁łʕeb	-3694
▁łʕor	-3695
▁žežu	-3696
▁žirb	-3697
▁ɣanq	-3698
▁ʕaža	-3699
▁ʕede	-3700
▁ʕišq	-3701
abulaw	-3702
aguyaw	-3703
akanno	-3704
arabaš	-3705
arawni	-3706
axorno	-3707
aɣorno	-3708
ebedzo	-3709
erhanä	-3710
ełnosi	-3711
ełxanu	-3712
ešonad	-3713
iblisä	-3714
imabin	-3715
imatno	-3716
irduxä	-3717
irnosi	-3718
iräzay	-3719
kumƛin	-3720
oderno	-3721
orolaq	-3722
towgon	-3723
xozoni	-3724
žisƛin	-3725
ʕimbin	-3726
ʕiryoł	-3727
ʕuyzix	-3728
▁Azbar	-3729
▁Baħar	-3730
▁Bečed	-3731
▁Dahaw	-3732
▁Eniwn	-3733
▁Guluƛ	-3734
▁Howlo	-3735
▁Howža	-3736
▁Kaɣat	-3737
▁Kutak	-3738
▁Madax	-3739
▁Magal	-3740
▁Nazay	-3741
▁Nesän	-3742
▁Nełde	-3743
▁Qacis	-3744
▁Xexbi	-3745
▁Xizay	-3746
▁Xizor	-3747
▁Yisis	-3748
▁Yisił	-3749
▁Yisän	-3750
▁Yizir	-3751
▁Zownč	-3752
▁akäza	-3753
▁askar	-3754
▁axway	-3755
▁aynäy	-3756
▁ašunä	-3757
▁aɣʕuz	-3758
▁aɣʕwa	-3759
▁badin	-3760
▁balah	-3761
▁barur	-3762
▁baruz	-3763
▁baruƛ	-3764
▁bayza	-3765
▁bašan	-3766
▁bašił	-3767
▁bažar	-3768
▁baƛin	-3769
▁besux	-3770
▁betix	-3771
▁bexar	-3772
▁beyno	-3773
▁bissi	-3774
▁bišom	-3775
▁bodan	-3776
▁boƛƛo	-3777
▁bucin	-3778
▁buqin	-3779
▁bäsno	-3780
▁caxno	-3781
▁ceyez	-3782
▁ciqes	-3783
▁ciqez	-3784
▁darsi	-3785
▁daruy	-3786
▁däzno	-3787
▁elude	-3788
▁endur	-3789
▁eniws	-3790
▁eräsi	-3791
▁esira	-3792
▁exasi	-3793
▁eƛace	-3794
▁ganbi	-3795
▁ganin	-3796
▁gugir	-3797
▁haqar	-3798
▁igoza	-3799
▁iłäsi	-3800
▁kawum	-3801
▁kikin	-3802
▁kodin	-3803
▁kosix	-3804
▁kursi	-3805
▁lagiq	-3806
▁laɣes	-3807
▁mamal	-3808
▁mecno	-3809
▁mežiz	-3810
▁mežiƛ	-3811
▁mežuƛ	-3812
▁mučar	-3813
▁nagon	-3814
▁nexan	-3815
▁nexsi	-3816
▁nełan	-3817
▁neƛno	-3818
▁nociƛ	-3819
▁odäsi	-3820
▁oqłin	-3821
▁oqƛin	-3822
▁orezn	-3823
▁ozzar	-3824
▁ozzat	-3825
▁qeman	-3826
▁quqix	-3827
▁qułno	-3828
▁qʕayz	-3829
▁rayru	-3830
▁resus	-3831
▁rexor	-3832
▁reƛis	-3833
▁reɣet	-3834
▁rigza	-3835
▁rišin	-3836
▁roqxo	-3837
▁roƛno	-3838
▁roɣxo	-3839
▁rutir	-3840
▁sabru	-3841
▁saħno	-3842
▁tatan	-3843
▁tupiƛ	-3844
▁xanno	-3845
▁xiszi	-3846
▁xuxix	-3847
▁yaqru	-3848
▁yaħna	-3849
▁yegär	-3850
▁yiħun	-3851
▁yoqxo	-3852
▁yukar	-3853
▁yuqin	-3854
▁zahru	-3855
▁ziruz	-3856
▁äčiru	-3857
▁ħaram	-3858
▁ħažin	-3859
▁Łinaƛ	-3860
▁łiłir	-3861
▁łäxor	-3862
▁Šibaw	-3863
▁šakno	-3864
▁Žedun	-3865
▁žedaq	-3866
▁žedał	-3867
▁ƛaƛin	-3868
▁ƛexux	-3869
▁ƛisin	-3870
▁ƛoħon	-3871
▁ƛʕori	-3872
▁ɣeduƛ	-3873
▁ɣirno	-3874
▁ɣunno	-3875
▁ɣʕays	-3876
▁ʕAƛar	-3877
▁ʕalay	-3878
▁ʕansa	-3879
▁ʕayib	-3880
▁ʕazab	-3881
▁ʕaƛor	-3882
aranƛin	-3883
aħiruni	-3884
erbašiƛ	-3885
irduxno	-3886
oräytow	-3887
ursiƛin	-3888
wariłin	-3889
xanaƛin	-3890
xosiƛin	-3891
yaɣorno	-3892
▁Bełiqa	-3893
▁Buqbet	-3894
▁Howlay	-3895
▁Nediwt	-3896
▁Siskin	-3897
▁Umukus	-3898
▁Xander	-3899
▁Xedyos	-3900
▁Yeženä	-3901
▁aynƛin	-3902
▁aysƛin	-3903
▁ayäƛin	-3904
▁azirod	-3905
▁aħnayx	-3906
▁aħozis	-3907
▁aħoziz	-3908
▁aħołun	-3909
▁babiwƛ	-3910
▁bayrsi	-3911
▁baɣmar	-3912
▁beženi	-3913
▁bicäsi	-3914
▁bikorä	-3915
▁bisäsi	-3916
▁bodinč	-3917
▁bogmor	-3918
▁boƛƛik	-3919
▁buqʕno	-3920
▁bužzin	-3921
▁bäsunč	-3922
▁bʕulam	-3923
▁cirabi	-3924
▁daʕban	-3925
▁deqƛin	-3926
▁däztow	-3927
▁elazay	-3928
▁eleley	-3929
▁elogon	-3930
▁elorno	-3931
▁elotow	-3932
▁eženis	-3933
▁eƛäƛin	-3934
▁hisona	-3935
▁idutow	-3936
▁istowl	-3937
▁izizaƛ	-3938
▁ičanix	-3939
▁ičirno	-3940
▁ičiƛin	-3941
▁iħubin	-3942
▁kidbän	-3943
▁kikxar	-3944
▁kikxay	-3945
▁kočori	-3946
▁kuräsi	-3947
▁maqʕir	-3948
▁masala	-3949
▁muhubi	-3950
▁mučari	-3951
▁nedurä	-3952
▁netiey	-3953
▁nexłin	-3954
▁nełłäy	-3955
▁oqanix	-3956
▁qalamä	-3957
▁qʕaban	-3958
▁qʕaƛun	-3959
▁qʕiƛci	-3960
▁qʕiƛur	-3961
▁rayrxo	-3962
▁rayzaƛ	-3963
▁raɣʕin	-3964
▁riqira	-3965
▁riłäsi	-3966
▁royłin	-3967
▁räqinč	-3968
▁rätinč	-3969
▁saɣłin	-3970
▁saɣłiƛ	-3971
▁sidadä	-3972
▁sisini	-3973
▁suħmat	-3974
▁tełäyn	-3975
▁ukaynč	-3976
▁utizaƛ	-3977
▁wazirä	-3978
▁xecäsi	-3979
▁xedyoz	-3980
▁yayrun	-3981
▁yałrun	-3982
▁yexasi	-3983
▁yexura	-3984
▁yižinč	-3985
▁yowäsi	-3986
▁yuyxor	-3987
▁zeybin	-3988
▁zigara	-3989
▁äxuƛin	-3990
▁Ħasanä	-3991
▁Ħayran	-3992
▁Łʕoran	-3993
▁łiyace	-3994
▁łäłxor	-3995
▁šudabi	-3996
▁žanaza	-3997
▁žukani	-3998
▁ʕaƛasi	-3999
▁ʕaƛoza	-4000
▁ʕoƛira	-4001
odorawni	-4002
urqʕotow	-4003
äłrungon	-4004
▁Allahes	-4005
▁Bełiqan	-4006
▁Doxturä	-4007
▁Nesiqor	-4008
▁Neširur	-4009
▁Rigutow	-4010
▁Sasaqor	-4011
▁Tabanaw	-4012
▁Tawadir	-4013
▁Tawadis	-4014
▁Tełerno	-4015
▁Tiblisä	-4016
▁Yedugon	-4017
▁Zowsƛin	-4018
▁azbarno	-4019
▁aħyabin	-4020
▁aždaħzo	-4021
▁babiyan	-4022
▁bahadur	-4023
▁baydanƛ	-4024
▁baħaraw	-4025
▁baħnayx	-4026
▁besuron	-4027
▁bexuran	-4028
▁bexurxo	-4029
▁bihayaw	-4030
▁biynosi	-4031
▁bišanix	-4032
▁bižoƛin	-4033
▁biƛurox	-4034
▁bodinäy	-4035
▁boqanix	-4036
▁boynosi	-4037
▁boyxƛin	-4038
▁boɣoƛin	-4039
▁bäqiƛin	-4040
▁bäčiƛin	-4041
▁bʕaƛoyn	-4042
▁cirabin	-4043
▁egirnäy	-4044
▁eniwqay	-4045
▁eqroƛin	-4046
▁eƛisƛin	-4047
▁eƛiłiri	-4048
▁eƛnoqor	-4049
▁gamušyo	-4050
▁guluzaƛ	-4051
▁gurħizi	-4052
▁harizin	-4053
▁hunarno	-4054
▁iduzasi	-4055
▁imyoqor	-4056
▁insanzo	-4057
▁ičinosi	-4058
▁ižixƛin	-4059
▁kecnosi	-4060
▁kočorał	-4061
▁madazax	-4062
▁naʕanan	-4063
▁nesiłno	-4064
▁nełaqor	-4065
▁oqsiƛin	-4066
▁ozurabi	-4067
▁qʕabani	-4068
▁radiƛin	-4069
▁raganix	-4070
▁raqʕäsi	-4071
▁resuzaƛ	-4072
▁rešambi	-4073
▁riqäƛin	-4074
▁riynoxu	-4075
▁riłetow	-4076
▁rodinäy	-4077
▁roxirno	-4078
▁roɣnosi	-4079
▁rułirno	-4080
▁räsuƛin	-4081
▁räčiƛin	-4082
▁sadaqor	-4083
▁sidaɣor	-4084
▁sideniƛ	-4085
▁teƛxosi	-4086
▁täƛruni	-4087
▁ukayzaƛ	-4088
▁wasiyat	-4089
▁xaličan	-4090
▁xecäƛin	-4091
▁xizorno	-4092
▁yayxƛin	-4093
▁yezanix	-4094
▁yičirno	-4095
▁yičiƛin	-4096
▁yižanix	-4097
▁yowanix	-4098
▁ħolimoƛ	-4099
▁łinarey	-4100
▁łinarno	-4101
▁łʕonoqu	-4102
▁Šebitow	-4103
▁Žabulaw	-4104
▁žeduqay	-4105
▁žeduƛin	-4106
▁žiƛbosi	-4107
▁ƛirbałi	-4108
▁ƛäxuƛin	-4109
▁ɣarabaš	-4110
▁ɣunoqor	-4111
▁ɣʕutkos	-4112
▁ɣʕutkoƛ	-4113
▁ʕOloqan	-4114
▁ʕaƛarno	-4115
▁ʕomoybi	-4116
▁Eɣenigon	-4117
▁Hoboygon	-4118
▁Ismaʕila	-4119
▁Mesedyos	-4120
▁Qʕašizaƛ	-4121
▁Sasaqtow	-4122
▁aqruntow	-4123
▁babiwder	-4124
▁bazaryay	-4125
▁baɣmoxor	-4126
▁begirinč	-4127
▁begirƛin	-4128
▁bercinłä	-4129
▁betinƛin	-4130
▁bexunosi	-4131
▁bičixosi	-4132
▁biħanayn	-4133
▁bišadyos	-4134
▁bišadyoƛ	-4135
▁bukayrun	-4136
▁bukayzaƛ	-4137
▁buqʕełno	-4138
▁butinosi	-4139
▁ciqqotow	-4140
▁dahawgon	-4141
▁egiranix	-4142
▁halmaɣza	-4143
▁hoboyƛin	-4144
▁magalabi	-4145
▁mamalayä	-4146
▁moƛaxayn	-4147
▁mumpaʕat	-4148
▁mustaħiq	-4149
▁nesisgon	-4150
▁nełasgon	-4151
▁nełdäɣor	-4152
▁neƛxoƛin	-4153
▁nukarbin	-4154
▁oqäsiƛin	-4155
▁qunyoxor	-4156
▁qʕaširno	-4157
▁regirƛin	-4158
▁retinanu	-4159
▁roqxoƛin	-4160
▁sayɣatno	-4161
▁suƛƛitow	-4162
▁ukayxanu	-4163
▁wazirbin	-4164
▁waħozoni	-4165
▁wʕałzoni	-4166
▁xabarkin	-4167
▁xanderno	-4168
▁xexoyabi	-4169
▁yałruxor	-4170
▁yegirinč	-4171
▁yiħinosi	-4172
▁yiłzaqay	-4173
▁yižixosi	-4174
▁yowanƛin	-4175
▁yutinosi	-4176
▁čantaɣor	-4177
▁ħonqaɣor	-4178
▁łaqnokin	-4179
▁ƛexunƛin	-4180
▁ɣʕanazaq	-4181
▁ʕoloqbin	-4182
▁Baxumesed	-4183
▁Bazarganä	-4184
▁Bečedawni	-4185
▁Nesiqorno	-4186
▁Neširaɣor	-4187
▁aynosigon	-4188
▁bayaniqor	-4189
▁bayruntow	-4190
▁bercinłiƛ	-4191
▁bukarnosi	-4192
▁butirnosi	-4193
▁ciqaɣorno	-4194
▁esixosini	-4195
▁hemesitow	-4196
▁howlaytow	-4197
▁marɣalyos	-4198
▁micxiryoƛ	-4199
▁mogolarno	-4200
▁nesidäɣor	-4201
▁qalamäɣor	-4202
▁qʕaƛanayx	-4203
▁rodaniƛäy	-4204
▁rukaranix	-4205
▁rukarerno	-4206
▁rukaysƛin	-4207
▁tełxorkin	-4208
▁täqruntow	-4209
▁wasimoxor	-4210
▁xaličabin	-4211
▁ħurmatyox	-4212
▁žamaʕatyo	-4213
▁Hudayzikon	-4214
▁Ražbadinzo	-4215
▁babiwdäɣor	-4216
▁bazaryarno	-4217
▁bičixozoni	-4218
▁kidbederno	-4219
▁lilyoxaɣor	-4220
▁madaxosini	-4221
▁neširuxayt	-4222
▁raładyołer	-4223
▁reqenyołäy	-4224
▁roqxanuƛin	-4225
▁wazirzaqor	-4226
▁yegirxoƛin	-4227
▁yeynodaniƛ	-4228
▁łinasnokin	-4229
▁bazarganzar	-4230
▁kumakyorgon	-4231
▁nesidäɣorno	-4232
▁ʕalaykumƛin	-4233
▁Hudayzikogon	-4234
▁bexuranixƛin	-4235
ep	-4236
mʕ	-4237
uw	-4238
wd	-4239
äš	-4240
ħo	-4241
łu	-4242
ɣw	-4243
anz	-4244
azo	-4245
bul	-4246
dow	-4247
ewn	-4248
ezi	-4249
goł	-4250
iki	-4251
ixt	-4252
law	-4253
may	-4254
noč	-4255
ort	-4256
oys	-4257
oƛa	-4258
rax	-4259
rin	-4260
ulh	-4261
uħi	-4262
uła	-4263
ułi	-4264
xol	-4265
yaw	-4266
yax	-4267
žit	-4268
ƛix	-4269
ɣuł	-4270
ʕes	-4271
ʕon	-4272
ʕot	-4273
▁Ez	-4274
▁Hi	-4275
▁os	-4276
▁ow	-4277
▁ša	-4278
▁ƛe	-4279
abaɣ	-4280
agon	-4281
arya	-4282
asiw	-4283
axar	-4284
aziq	-4285
aƛix	-4286
dowr	-4287
ebey	-4288
ebix	-4289
ecno	-4290
egon	-4291
exoy	-4292
eyxä	-4293
ilya	-4294
iqur	-4295
iray	-4296
ireł	-4297
iwsi	-4298
izan	-4299
už	-4300
ät	-4301
čo	-4302
ank	-4303
cel	-4304
gza	-4305
ral	-4306
rer	-4307
xoz	-4308
zäy	-4309
▁eg	-4310
agun	-4311
amiƛ	-4312
arsi	-4313
labi	-4314
odek	-4315
ohom	-4316
omce	-4317
oqay	-4318
oreƛ	-4319
oƛno	-4320
qiru	-4321
rebi	-4322
udin	-4323
udäy	-4324
ulza	-4325
unon	-4326
uyał	-4327
učzi	-4328
ułin	-4329
wdun	-4330
ʕuba	-4331
▁Bec	-4332
▁Bit	-4333
▁Däq	-4334
▁Goƛ	-4335
▁Okä	-4336
▁Raq	-4337
▁Reč	-4338
▁Ruy	-4339
▁Yex	-4340
▁alž	-4341
▁ann	-4342
▁aħa	-4343
▁bol	-4344
▁bož	-4345
▁buɣ	-4346
▁cug	-4347
▁ero	-4348
▁ełu	-4349
▁gir	-4350
▁guz	-4351
▁guš	-4352
▁hiɣ	-4353
▁ist	-4354
▁iya	-4355
▁kak	-4356
▁kic	-4357
▁koy	-4358
▁käk	-4359
▁met	-4360
▁nig	-4361
▁nin	-4362
▁nuʕ	-4363
▁oƛƛ	-4364
▁qal	-4365
▁qaħ	-4366
▁qiƛ	-4367
▁qot	-4368
▁rax	-4369
▁reg	-4370
▁sir	-4371
▁war	-4372
▁wil	-4373
▁xar	-4374
▁zek	-4375
▁zul	-4376
▁äxu	-4377
▁äči	-4378
▁čer	-4379
▁ħaħ	-4380
▁ħim	-4381
▁ħit	-4382
▁Łas	-4383
▁łaƛ	-4384
▁šeš	-4385
▁šäš	-4386
▁Žam	-4387
▁Žaq	-4388
▁Žar	-4389
▁žäd	-4390
▁ƛeš	-4391
▁ɣal	-4392
▁ʕal	-4393
▁ʕon	-4394
Maħam	-4395
amałi	-4396
anayn	-4397
arumä	-4398
asƛin	-4399
awt	-4400
ozä	-4401
rac	-4402
rur	-4403
uma	-4404
uɣʕ	-4405
zon	-4406
▁ha	-4407
adaw	-4408
ekan	-4409
idoƛ	-4410
ikru	-4411
imix	-4412
ired	-4413
orax	-4414
ozaq	-4415
ozon	-4416
ozya	-4417
oƛik	-4418
reza	-4419
urbi	-4420
uros	-4421
uxor	-4422
xort	-4423
▁His	-4424
▁Nar	-4425
▁bud	-4426
▁gut	-4427
▁hik	-4428
▁hul	-4429
▁yad	-4430
▁zir	-4431
▁Žaz	-4432
▁žad	-4433
amxor	-4434
anibi	-4435
axtow	-4436
aymos	-4437
ayrno	-4438
ayzaƛ	-4439
ayłin	-4440
ačaɣʕ	-4441
aɣorä	-4442
aɣʕir	-4443
butin	-4444
cekin	-4445
ertow	-4446
erzaƛ	-4447
estow	-4448
eytow	-4449
ełzaƛ	-4450
gotow	-4451
ikayä	-4452
imatä	-4453
intow	-4454
irinč	-4455
iryoz	-4456
isdin	-4457
isini	-4458
ixana	-4459
iyawt	-4460
iʕmat	-4461
kinwa	-4462
mołäy	-4463
mʕalä	-4464
nonan	-4465
omƛer	-4466
oqosi	-4467
oqtow	-4468
oƛäyr	-4469
qilič	-4470
rošaw	-4471
towwa	-4472
ugabi	-4473
ulaʕi	-4474
unanu	-4475
unƛin	-4476
urułi	-4477
urzak	-4478
uħima	-4479
wariʕ	-4480
warno	-4481
wʕadi	-4482
yazay	-4483
yałer	-4484
yoxno	-4485
yozał	-4486
yxƛin	-4487
zarno	-4488
zatow	-4489
äzoni	-4490
łanix	-4491
łerno	-4492
łäzay	-4493
šinaw	-4494
ƛinno	-4495
ʕałay	-4496
ʕimde	-4497
▁Elaz	-4498
▁Enda	-4499
cen	-4500
dax	-4501
eyä	-4502
łno	-4503
ʕač	-4504
▁ic	-4505
▁we	-4506
▁äz	-4507
anił	-4508
ełxo	-4509
imay	-4510
imon	-4511
iwan	-4512
uqay	-4513
▁Dow	-4514
▁Net	-4515
▁Yik	-4516
▁eƛi	-4517
▁gag	-4518
▁igu	-4519
▁mak	-4520
▁yuƛ	-4521
▁zap	-4522
▁šak	-4523
▁ʕam	-4524
ałiru	-4525
ałxor	-4526
ałäyn	-4527
detow	-4528
irułi	-4529
iłäsi	-4530
rerno	-4531
ułäsi	-4532
xazay	-4533
xokin	-4534
ʕuƛin	-4535
▁Elur	-4536
▁Gulu	-4537
▁Hari	-4538
▁Ixiw	-4539
▁Onoč	-4540
▁Ozur	-4541
▁Qura	-4542
▁Razi	-4543
▁Suƛi	-4544
▁Užir	-4545
▁Were	-4546
▁Yałi	-4547
▁Yoƛo	-4548
▁aceł	-4549
▁aqiw	-4550
▁aqru	-4551
▁aqza	-4552
▁aqʕu	-4553
▁ayan	-4554
▁ayra	-4555
▁ažoƛ	-4556
▁aɣiw	-4557
▁bižo	-4558
▁boko	-4559
▁bolž	-4560
▁bowa	-4561
▁bowƛ	-4562
▁boys	-4563
▁boyƛ	-4564
▁boɣo	-4565
▁buta	-4566
▁bʕel	-4567
▁caƛo	-4568
▁ciqo	-4569
▁ciyo	-4570
▁elon	-4571
▁esis	-4572
▁exwa	-4573
▁eɣen	-4574
▁gibu	-4575
▁guru	-4576
▁hari	-4577
▁howz	-4578
▁igun	-4579
▁izix	-4580
▁iłet	-4581
▁karu	-4582
▁kiki	-4583
▁kusa	-4584
▁kuła	-4585
▁manz	-4586
▁mark	-4587
▁naib	-4588
▁naza	-4589
▁nexä	-4590
▁noci	-4591
▁nocu	-4592
▁obiw	-4593
▁oƛäx	-4594
▁part	-4595
▁qala	-4596
▁ragi	-4597
▁reku	-4598
▁risä	-4599
des	-4600
ʕiw	-4601
▁Ar	-4602
▁Ax	-4603
▁Ay	-4604
▁Iq	-4605
▁Iz	-4606
▁Iħ	-4607
araš	-4608
dizi	-4609
izar	-4610
izas	-4611
umin	-4612
▁Ram	-4613
▁mag	-4614
▁wac	-4615
▁yäz	-4616
▁ħos	-4617
▁łic	-4618
▁ɣuɣ	-4619
amali	-4620
arbin	-4621
irisi	-4622
isƛax	-4623
karno	-4624
ħorno	-4625
ʕiƛin	-4626
▁Alay	-4627
▁Užin	-4628
▁akix	-4629
▁asoł	-4630
▁aynč	-4631
▁biqa	-4632
▁biyn	-4633
▁bišƛ	-4634
▁boqƛ	-4635
▁eƛan	-4636
▁iman	-4637
▁iħuƛ	-4638
▁roqx	-4639
▁rowx	-4640
▁roɣo	-4641
▁ruqʕ	-4642
▁ruɣu	-4643
▁räqi	-4644
▁räsu	-4645
▁uyno	-4646
▁užiz	-4647
▁xanƛ	-4648
▁yayx	-4649
▁yiłä	-4650
▁yoqƛ	-4651
▁yoyn	-4652
▁yoƛi	-4653
▁yuqʕ	-4654
▁zebu	-4655
▁zeru	-4656
▁zewn	-4657
▁zeyƛ	-4658
▁ziyƛ	-4659
▁zowa	-4660
▁äxuz	-4661
▁äynč	-4662
▁čany	-4663
▁čara	-4664
▁čuqʕ	-4665
▁ħažƛ	-4666
▁ħoši	-4667
▁ħuli	-4668
▁łaci	-4669
▁šuša	-4670
▁ƛelƛ	-4671
▁ɣuna	-4672
▁ɣʕuč	-4673
alałäy	-4674
anibin	-4675
anixno	-4676
aniłer	-4677
aqaɣor	-4678
ayziko	-4679
azaɣor	-4680
aʕidaƛ	-4681
edanix	-4682
ediłin	-4683
ilično	-4684
imater	-4685
imoqor	-4686
iniƛäy	-4687
iqoybi	-4688
irduxƛ	-4689
iriɣor	-4690
izarno	-4691
ičurič	-4692
iħotow	-4693
iłnosi	-4694
noƛƛin	-4695
ohores	-4696
oqʕoyn	-4697
oxxosi	-4698
oynosi	-4699
omo	-4700
žär	-4701
▁ek	-4702
idzo	-4703
irač	-4704
irłi	-4705
yołi	-4706
▁Meč	-4707
▁bäc	-4708
▁gič	-4709
▁isƛ	-4710
▁räx	-4711
▁Ħal	-4712
▁žim	-4713
asini	-4714
ayxno	-4715
iqoyn	-4716
qoƛin	-4717
yozaz	-4718
ʕanoq	-4719
ʕimzo	-4720
▁aħon	-4721
▁gani	-4722
▁isin	-4723
▁kidä	-4724
▁qʕil	-4725
▁riyä	-4726
▁yayƛ	-4727
▁äƛin	-4728
atawni	-4729
aƛinno	-4730
ozaxor	-4731
salamu	-4732
udäɣor	-4733
uqorno	-4734
urnosi	-4735
uwataw	-4736
uɣweyn	-4737
äsianu	-4738
łanƛin	-4739
ʕaɣʕun	-4740
ʕugani	-4741
ʕuyzaɣ	-4742
ʕwaƛin	-4743
▁Adäza	-4744
▁Aħozä	-4745
▁Barur	-4746
▁Bayru	-4747
▁Bizin	-4748
▁Boƛik	-4749
▁Boɣno	-4750
▁Debeq	-4751
▁Diwan	-4752
▁Däzoq	-4753
▁Esinč	-4754
▁Esiya	-4755
▁Gamiƛ	-4756
▁Gogaƛ	-4757
▁Gulun	-4758
▁Howsi	-4759
▁Hunin	-4760
▁Insan	-4761
▁Kidir	-4762
▁Kusaƛ	-4763
▁Marya	-4764
▁Mežus	-4765
▁Musaq	-4766
▁Nazon	-4767
▁Nexno	-4768
▁Nełan	-4769
▁Nełał	-4770
▁Nukar	-4771
▁Ozuri	-4772
▁Ozzaq	-4773
▁Qazaq	-4774
▁Sebix	-4775
▁Soder	-4776
▁Tełer	-4777
▁Tungi	-4778
▁Xanzo	-4779
▁Yegir	-4780
▁Yisiq	-4781
▁Yizis	-4782
▁Yiłar	-4783
▁adiru	-4784
▁adoru	-4785
▁akbar	-4786
▁anuza	-4787
▁atinč	-4788
▁ayrxo	-4789
▁aħozi	-4790
▁aħyan	-4791
▁aɣʕur	-4792
▁baran	-4793
▁baɣma	-4794
▁beciz	-4795
▁beciƛ	-4796
▁beqes	-4797
▁beɣet	-4798
▁bicix	-4799
den	-4800
▁Os	-4801
oƛis	-4802
▁Anu	-4803
▁Keč	-4804
▁ezä	-4805
▁kos	-4806
▁łäz	-4807
oxnon	-4808
ärinč	-4809
▁beza	-4810
▁ceyz	-4811
▁ečuy	-4812
▁iħay	-4813
▁moƛu	-4814
▁ozqo	-4815
▁riyr	-4816
▁riys	-4817
▁ukar	-4818
▁yexa	-4819
▁ħaƛu	-4820
aceƛin	-4821
orolas	-4822
▁Howda	-4823
▁Ričas	-4824
▁Xanno	-4825
▁aqrun	-4826
▁aqƛin	-4827
▁baħna	-4828
▁besač	-4829
▁bitay	-4830
▁bitaz	-4831
▁bitin	-4832
▁bitir	-4833
▁bixno	-4834
▁bizix	-4835
▁biłet	-4836
▁bižan	-4837
▁biƛno	-4838
▁bodač	-4839
▁bogun	-4840
▁boƛƛi	-4841
▁buqno	-4842
▁bʕeƛä	-4843
▁caƛiƛ	-4844
▁ceyde	-4845
▁ciqeł	-4846
▁cucix	-4847
▁cucił	-4848
▁dabaɣ	-4849
▁daqäy	-4850
▁debin	-4851
▁dikin	-4852
▁elosi	-4853
▁eloša	-4854
▁endiw	-4855
▁eniwr	-4856
▁enłaƛ	-4857
▁esiwł	-4858
▁esiyn	-4859
▁ezunč	-4860
▁ezura	-4861
▁ečrut	-4862
▁ečula	-4863
▁ešayn	-4864
▁eƛnoq	-4865
▁gagal	-4866
▁gaman	-4867
▁ganzo	-4868
▁geler	-4869
▁godek	-4870
▁gonda	-4871
▁gugya	-4872
▁guluč	-4873
▁halag	-4874
▁haqan	-4875
▁hilno	-4876
▁hohom	-4877
▁hozur	-4878
▁hudul	-4879
▁idusi	-4880
▁inžit	-4881
▁iqäru	-4882
▁isäsi	-4883
▁izinč	-4884
▁izmun	-4885
▁iłeni	-4886
▁išinč	-4887
▁kakno	-4888
▁kamin	-4889
▁karun	-4890
▁kecan	-4891
▁kecsi	-4892
▁kikiw	-4893
▁kikix	-4894
▁kikno	-4895
▁kikxo	-4896
▁kuczi	-4897
▁kušin	-4898
▁maday	-4899
▁Ił	-4900
▁Mu	-4901
aymo	-4902
nada	-4903
uzas	-4904
▁daƛ	-4905
▁sas	-4906
▁Mada	-4907
aniłno	-4908
▁mahar	-4909
▁maħiq	-4910
▁mečar	-4911
▁mečwa	-4912
▁mežan	-4913
▁mežar	-4914
▁mežin	-4915
▁mežuł	-4916
▁migon	-4917
▁minut	-4918
▁muqno	-4919
▁nazoƛ	-4920
▁netey	-4921
▁ninor	-4922
▁nocun	-4923
▁näxno	-4924
▁oqnäy	-4925
▁ozyoł	-4926
▁ozłer	-4927
▁payda	-4928
▁posun	-4929
▁qaraw	-4930
▁qaħłi	-4931
▁qidoq	-4932
▁qizan	-4933
▁qʕays	-4934
▁qʕaƛo	-4935
▁radin	-4936
▁ragin	-4937
▁resno	-4938
▁rešon	-4939
▁reɣuł	-4940
▁riqin	-4941
▁ritir	-4942
▁rixra	-4943
▁ričix	-4944
▁riħun	-4945
▁riƛix	-4946
▁roqsi	-4947
▁roƛäk	-4948
▁roɣwa	-4949
▁rutix	-4950
▁räsru	-4951
▁räynč	-4952
▁sasiw	-4953
▁sidde	-4954
▁sikno	-4955
▁sipat	-4956
▁tatun	-4957
▁tełsi	-4958
▁tełäz	-4959
▁täƛno	-4960
▁täƛru	-4961
▁ulkał	-4962
▁uqʕeł	-4963
▁uynon	-4964
▁uyrax	-4965
▁uyxor	-4966
▁wizir	-4967
▁xaneł	-4968
▁xanxo	-4969
▁yaziq	-4970
▁yedun	-4971
▁yexux	-4972
▁yečiw	-4973
▁yiqin	-4974
▁yisix	-4975
▁yisän	-4976
▁yiynč	-4977
▁yizar	-4978
▁yiziz	-4979
▁yiziƛ	-4980
▁yičix	-4981
▁yiłaƛ	-4982
▁yižix	-4983
▁yižiƛ	-4984
▁yołin	-4985
▁yoƛƛo	-4986
▁yoɣsi	-4987
▁zaral	-4988
▁zawza	-4989
▁zeyän	-4990
▁zikru	-4991
▁ziran	-4992
▁ziruƛ	-4993
▁zowan	-4994
▁zozis	-4995
▁zurma	-4996
▁äqinč	-4997
▁čučzi	-4998
▁ħažan	-4999
▁ħiroq	-5000
▁ħišin	-5001
▁ħoʕni	-5002
▁ħulin	-5003
▁łiboƛ	-5004
▁łinał	-5005
▁łäħor	-5006
▁Šebey	-5007
▁Šebin	-5008
▁šadał	-5009
▁šeyxä	-5010
▁šišin	-5011
▁šudax	-5012
▁Žagon	-5013
▁Žeduƛ	-5014
▁Žigon	-5015
▁žagon	-5016
▁žarno	-5017
▁žedaz	-5018
▁žubin	-5019
▁ƛeles	-5020
▁ƛelin	-5021
▁ƛexeƛ	-5022
▁ƛexuƛ	-5023
▁ƛoħay	-5024
▁ɣired	-5025
▁ɣudeł	-5026
▁ɣunoz	-5027
▁ɣunoł	-5028
▁ɣuron	-5029
▁ɣwʕad	-5030
▁ɣʕayz	-5031
▁ɣʕuɣʕ	-5032
▁ɣʕwač	-5033
▁ʕAƛox	-5034
▁ʕIsaq	-5035
▁ʕOloq	-5036
▁ʕOƛno	-5037
▁ʕadal	-5038
▁ʕadlu	-5039
▁ʕalam	-5040
▁ʕarab	-5041
▁ʕuqła	-5042
ariyawt	-5043
aymoxor	-5044
aɣorgon	-5045
aɣʕirno	-5046
erhanes	-5047
erhanno	-5048
erxotow	-5049
ełsiƛin	-5050
ešonayx	-5051
irsiƛin	-5052
iruntow	-5053
irxoƛin	-5054
isdiqor	-5055
izaxozo	-5056
iłnoanu	-5057
orolays	-5058
oräygon	-5059
oxranix	-5060
oƛinosi	-5061
urnotow	-5062
wariʕel	-5063
wdunasi	-5064
xosianu	-5065
yayxƛin	-5066
yoqaysi	-5067
zadäɣor	-5068
ärnoƛin	-5069
ɣenägon	-5070
ʕaƛiłno	-5071
▁Babiws	-5072
▁Badiru	-5073
▁Baħarč	-5074
▁Behizi	-5075
▁Bercin	-5076
▁Bełiqu	-5077
▁Bikorä	-5078
▁Buyxor	-5079
▁Dandir	-5080
▁Eleley	-5081
▁Elogon	-5082
▁Ečruni	-5083
▁Hemece	-5084
▁Howžäy	-5085
▁Hudayƛ	-5086
▁Igorno	-5087
▁Kurzak	-5088
▁Mamali	-5089
▁Nełquł	-5090
▁Oƛixno	-5091
▁Qʕaƛin	-5092
▁Qʕišod	-5093
▁Reɣeni	-5094
▁Ruyxor	-5095
▁Siryos	-5096
▁Xediya	-5097
▁Yaɣʕin	-5098
▁Yeɣeni	-5099
▁Yigtow	-5100
▁aderno	-5101
▁asaɣor	-5102
▁axarno	-5103
▁axaɣor	-5104
▁ačqʕaq	-5105
▁babiwr	-5106
▁babiwł	-5107
▁badinč	-5108
▁baqƛin	-5109
▁bayace	-5110
▁bayrxo	-5111
▁bayäsi	-5112
▁bałgoł	-5113
▁begira	-5114
▁besunč	-5115
▁betäsi	-5116
▁bexaru	-5117
▁bexasi	-5118
▁bexora	-5119
▁bexwad	-5120
▁bełiqu	-5121
▁biqira	-5122
▁bixzin	-5123
▁biyran	-5124
▁biyrno	-5125
▁boyzaƛ	-5126
▁boyłin	-5127
▁butnin	-5128
▁butäsi	-5129
▁bäqinč	-5130
▁bätuza	-5131
▁bäzinč	-5132
▁bäčiru	-5133
▁bʕałay	-5134
▁bʕałno	-5135
▁bʕeliz	-5136
▁ceyder	-5137
▁ciqqay	-5138
▁deyƛin	-5139
▁dicego	-5140
▁elaƛin	-5141
▁elaɣor	-5142
▁eqersi	-5143
▁eranix	-5144
▁ernosi	-5145
▁eroƛin	-5146
▁esirsi	-5147
▁esiyan	-5148
▁esurno	-5149
▁exuran	-5150
▁ezäɣor	-5151
▁eženił	-5152
▁eƛakin	-5153
▁gedmoq	-5154
▁gušiwt	-5155
▁heqäsi	-5156
▁hoboda	-5157
▁hoboyä	-5158
▁howžär	-5159
▁hunarä	-5160
▁iduzan	-5161
▁imadał	-5162
▁indowr	-5163
▁iqirxo	-5164
▁iynanu	-5165
▁ičizaƛ	-5166
▁išrinč	-5167
▁karuni	-5168
▁karƛin	-5169
▁kidgon	-5170
▁kikibi	-5171
▁kobora	-5172
▁kurinč	-5173
▁kurnäy	-5174
▁laɣłun	-5175
▁manzil	-5176
▁maxsar	-5177
▁małiru	-5178
▁maʕdin	-5179
▁mecrex	-5180
▁mecreƛ	-5181
▁mekoyn	-5182
▁mešibi	-5183
▁mešori	-5184
▁močibi	-5185
▁nexnäy	-5186
▁nełdäy	-5187
▁nełxor	-5188
▁niʕmat	-5189
▁nʕoƛał	-5190
▁odoƛin	-5191
▁onočas	-5192
▁onočun	-5193
▁oqxosi	-5194
▁ozyode	-5195
▁pečmox	-5196
▁posurƛ	-5197
▁qartay	-5198
▁qoqƛer	-5199
▁qʕašiƛ	-5200
▁raqinč	-5201
▁raqʕza	-5202
▁rayäsi	-5203
▁rayƛin	-5204
▁regirƛ	-5205
▁resunč	-5206
▁rexasi	-5207
▁rexayx	-5208
▁rexura	-5209
▁reɣeni	-5210
▁reʕizi	-5211
▁riqäsi	-5212
▁rixäsi	-5213
▁ričinč	-5214
▁rižinč	-5215
▁rocasi	-5216
▁roynäy	-5217
▁rukada	-5218
▁rutira	-5219
▁ruyxor	-5220
▁rägiru	-5221
▁räƛiru	-5222
▁rʕałay	-5223
▁rʕołun	-5224
▁sisxol	-5225
▁siħrus	-5226
▁taqʕor	-5227
▁teqzaƛ	-5228
▁teqäsi	-5229
▁tełgon	-5230
▁teƛnäy	-5231
▁teƛƛin	-5232
▁tupäsi	-5233
▁urgubi	-5234
▁užiłun	-5235
▁užiłäy	-5236
▁užiƛer	-5237
▁xaliča	-5238
▁xanłiƛ	-5239
▁xarcel	-5240
▁xediwq	-5241
▁xediwƛ	-5242
▁xexzar	-5243
▁xäciza	-5244
▁yaqinč	-5245
▁yaqrun	-5246
▁yayace	-5247
▁yaynäy	-5248
▁yayzay	-5249
▁yiziri	-5250
▁yiłqor	-5251
▁yoqäsi	-5252
▁yoqłin	-5253
▁yäqinč	-5254
▁yäqiru	-5255
▁zowzaƛ	-5256
▁äxuzay	-5257
▁äčizar	-5258
▁äčiƛin	-5259
▁čantan	-5260
▁čantaƛ	-5261
▁čanyan	-5262
▁čanyas	-5263
▁čardaħ	-5264
▁ħamori	-5265
▁ħažałi	-5266
▁ħonbin	-5267
▁ħonzaq	-5268
▁ħukmun	-5269
▁Łaymoƛ	-5270
▁łaymoƛ	-5271
▁łiyrsi	-5272
▁łoħros	-5273
▁šibawz	-5274
▁Žedude	-5275
▁žedzox	-5276
▁ƛirbaq	-5277
▁ƛirbas	-5278
▁ɣwʕadä	-5279
▁ɣʕilya	-5280
▁ɣʕwayr	-5281
▁ʕadlun	-5282
▁ʕagarł	-5283
▁ʕažaib	-5284
▁ʕomoyƛ	-5285
▁ʕumruł	-5286
axrudinä	-5287
bulayƛin	-5288
odorawnä	-5289
uxanuƛin	-5290
uɣweymoł	-5291
zoxortow	-5292
äƛirugon	-5293
ʕanontow	-5294
ʕanoquno	-5295
ʕimłerno	-5296
ʕiłxotow	-5297
▁Allahzo	-5298
▁Aždaħes	-5299
▁Encegon	-5300
▁Habihan	-5301
▁Harihun	-5302
▁Huläɣor	-5303
▁Kidbaza	-5304
▁Maharno	-5305
▁Moƛaxay	-5306
▁Nesirno	-5307
▁Nełaqno	-5308
▁Qartayn	-5309
▁Sisxoli	-5310
▁Suƛitow	-5311
▁Tawadiz	-5312
▁Tełäzay	-5313
▁Yedagon	-5314
▁Yisiqor	-5315
▁Zamanał	-5316
▁Zirulaw	-5317
▁akrošaw	-5318
▁aqugani	-5319
▁aqʕuros	-5320
▁atinosi	-5321
▁ayroƛin	-5322
▁ayärƛin	-5323
▁azbarya	-5324
▁aziroyn	-5325
▁aħinyoƛ	-5326
▁badirun	-5327
▁barkala	-5328
▁barusno	-5329
▁baruzaq	-5330
▁baruzno	-5331
▁baynƛax	-5332
▁bayrnäy	-5333
▁baysƛin	-5334
▁baħnayn	-5335
▁bašiqor	-5336
▁bažarin	-5337
▁baɣruni	-5338
▁becider	-5339
▁bexasin	-5340
▁beynoyn	-5341
▁bečełiƛ	-5342
▁bikorbi	-5343
▁bikoris	-5344
▁bikorzo	-5345
▁biqinäy	-5346
▁bisanix	-5347
▁biyrƛin	-5348
▁bičinäy	-5349
▁biħanay	-5350
▁biħinäy	-5351
▁biħurno	-5352
▁bišxosi	-5353
▁bodäƛin	-5354
▁boynanu	-5355
▁boysƛin	-5356
▁boyxozo	-5357
▁boƛäxza	-5358
▁boɣanix	-5359
▁butirxo	-5360
▁caƛoƛin	-5361
▁cedäƛin	-5362
▁dowqosi	-5363
▁däqorno	-5364
▁elusƛin	-5365
▁encetow	-5366
▁enduräz	-5367
▁eniwrno	-5368
▁esirzaƛ	-5369
▁esiwƛin	-5370
▁esixosi	-5371
▁esixoza	-5372
▁esnazał	-5373
▁etixƛin	-5374
▁exarƛin	-5375
▁exuräsi	-5376
▁exuxosi	-5377
▁eƛixƛax	-5378
▁guluzaz	-5379
▁guluzał	-5380
▁gulułäy	-5381
▁hardizi	-5382
▁hiboreƛ	-5383
▁hiƛirno	-5384
▁howziri	-5385
▁hunizax	-5386
▁imxaɣor	-5387
▁insanes	-5388
▁istolow	-5389
▁istowli	-5390
▁izinosi	-5391
▁izirƛin	-5392
▁iziłinč	-5393
▁ižanƛin	-5394
▁kecerno	-5395
▁kidbede	-5396
▁kičurič	-5397
▁kočorin	-5398
▁kurxosi	-5399
▁madaxay	-5400
▁madazaħ	-5401
▁magazin	-5402
▁maydanƛ	-5403
▁maħiłäy	-5404
▁mežiƛin	-5405
▁mežuqor	-5406
▁mežułäy	-5407
▁minaraƛ	-5408
▁mołoƛin	-5409
▁mužmarƛ	-5410
▁nazosno	-5411
▁nesiqno	-5412
▁nełaqno	-5413
▁nełarno	-5414
▁nełasno	-5415
▁neƛanix	-5416
▁oqnoanu	-5417
▁oqnoƛin	-5418
▁oqxoƛin	-5419
▁oxirƛin	-5420
▁ozzataw	-5421
▁posurxo	-5422
▁putceni	-5423
▁puħorno	-5424
▁qalamäy	-5425
▁qazaqxo	-5426
▁raqruyä	-5427
▁rayxƛin	-5428
▁raɣʕäsi	-5429
▁recurxo	-5430
▁rekuyał	-5431
▁retizaƛ	-5432
▁retäƛin	-5433
▁rečiwsi	-5434
▁rečuƛäy	-5435
▁reƛiłer	-5436
▁riqinäy	-5437
▁risanix	-5438
▁riynoxa	-5439
▁riyrinč	-5440
▁riyxosi	-5441
▁rizirxo	-5442
▁riħoƛin	-5443
▁riħurno	-5444
▁rižanix	-5445
▁rižirno	-5446
▁roqnosi	-5447
▁rowanix	-5448
▁rukaynč	-5449
▁rukayru	-5450
▁räšruni	-5451
▁sadaqay	-5452
▁sadaqno	-5453
▁sidagon	-5454
▁sidaquł	-5455
▁simildi	-5456
▁sualyor	-5457
▁tabanaw	-5458
▁tamašan	-5459
▁taxeƛno	-5460
▁teƛnosi	-5461
▁ukayrun	-5462
▁uqʕäłru	-5463
▁uqʕłäsi	-5464
▁utinosi	-5465
▁užinosi	-5466
▁wasimoƛ	-5467
▁wilayat	-5468
▁xanesno	-5469
▁xecinäy	-5470
▁yayxanu	-5471
▁yayxosi	-5472
▁yaħnayx	-5473
▁yedaƛin	-5474
▁yegirxo	-5475
▁yežigon	-5476
▁yiqirno	-5477
▁yisider	-5478
▁yiziqor	-5479
▁yizirno	-5480
▁yiziƛin	-5481
▁yičizaƛ	-5482
▁yiłaqor	-5483
▁yižirno	-5484
▁yodanix	-5485
▁yoqxosi	-5486
▁yowsƛin	-5487
▁yowxozo	-5488
▁yowäƛin	-5489
▁yoxirno	-5490
▁yołiƛin	-5491
▁yukaynč	-5492
▁yutirxo	-5493
▁zirusno	-5494
▁ziruƛin	-5495
▁zowanix	-5496
▁ħadurłi	-5497
▁ħalarno	-5498
▁ħalaxor	-5499
▁ħamorok	-5500
▁ħaƛuƛin	-5501
▁Łinasno	-5502
▁łemuƛin	-5503
▁łiłiroƛ	-5504
▁šebigon	-5505
▁šilazaƛ	-5506
▁šiširno	-5507
▁Žamaʕat	-5508
▁Žeduqor	-5509
▁žedaqor	-5510
▁žedudäy	-5511
▁žedułäy	-5512
▁žirbabi	-5513
▁žiƛboyä	-5514
▁ƛirbabi	-5515
▁ƛisirno	-5516
▁ƛuzazas	-5517
▁ɣudegon	-5518
▁ɣurušno	-5519
▁ɣutaneł	-5520
▁ɣwʕader	-5521
▁ɣwʕadin	-5522
▁ɣʕutkar	-5523
▁ʕOƛiran	-5524
▁ʕazabno	-5525
▁ʕaƛoxor	-5526
▁ʕuqłäsi	-5527
aguyawtow	-5528
oniłxosin	-5529
wariłiłer	-5530
wariłiłäy	-5531
▁Dahawgon	-5532
▁Kidbezno	-5533
▁Oƛƛozoni	-5534
▁Raładyoz	-5535
▁Raładyoł	-5536
▁anuƛinno	-5537
▁ayruntow	-5538
▁ayruxort	-5539
▁aħoziqor	-5540
▁aɣʕwarno	-5541
▁bayanƛin	-5542
▁bayrułer	-5543
▁baħarawn	-5544
▁baɣnoƛin	-5545
▁baɣʕiłno	-5546
▁bexorani	-5547
▁bexurinč	-5548
▁bexuxƛin	-5549
▁bełiqubi	-5550
▁biqinanu	-5551
▁biqinosi	-5552
▁biqirnäy	-5553
▁bitorgon	-5554
▁bičanƛin	-5555
▁bičinosi	-5556
▁bičixozo	-5557
▁biħanada	-5558
▁bišadyoł	-5559
▁bižisƛin	-5560
▁bodixosi	-5561
▁bodixƛin	-5562
▁boqxoƛin	-5563
▁boƛixnäy	-5564
▁boɣanƛin	-5565
▁boɣsiƛin	-5566
▁bäčiruni	-5567
▁caƛinosi	-5568
▁cedisƛin	-5569
▁cimyarno	-5570
▁cuciłace	-5571
▁dandirno	-5572
▁dandixno	-5573
▁debeqƛin	-5574
▁debeztow	-5575
▁dibirder	-5576
▁dibirqor	-5577
▁didiwtow	-5578
▁dowdäɣor	-5579
▁doxturbi	-5580
▁dunyalqo	-5581
▁egirnosi	-5582
▁esirxosi	-5583
▁esiyagon	-5584
▁halmaɣer	-5585
▁hawšinaw	-5586
▁hemełtow	-5587
▁hunixoza	-5588
▁iduzaɣor	-5589
▁ixinabin	-5590
▁karamałi	-5591
▁kidbeqay	-5592
▁kidbeƛer	-5593
▁kuranƛin	-5594
▁käczaɣor	-5595
▁lilyoxar	-5596
▁maduhalä	-5597
▁mamalayn	-5598
▁maħortow	-5599
▁mekoyxno	-5600
▁mužmareł	-5601
▁nesirgon	-5602
▁nesirtow	-5603
▁nesiłgon	-5604
▁nesiłtow	-5605
▁nexsiƛin	-5606
▁nełaqgon	-5607
▁nełastow	-5608
▁nełqorno	-5609
▁nukarzaƛ	-5610
▁pandurno	-5611
▁pardagin	-5612
▁pikruxor	-5613
▁pʕaƛirno	-5614
▁qʕašizaƛ	-5615
▁qʕišoder	-5616
▁radiruni	-5617
▁rayräƛin	-5618
▁raładyoƛ	-5619
▁resunanu	-5620
▁resunosi	-5621
▁retixosi	-5622
▁retixƛin	-5623
▁riqisƛin	-5624
▁risanƛin	-5625
▁risnoanu	-5626
▁ričixosi	-5627
▁rižinosi	-5628
▁riƛixƛin	-5629
▁rodinosi	-5630
▁rodinƛin	-5631
▁roqoƛƛin	-5632
▁ročyoxno	-5633
▁rukarinč	-5634
▁rukaynoƛ	-5635
▁rukayzaƛ	-5636
▁rutirƛin	-5637
▁sadaqƛin	-5638
▁sasaqaza	-5639
▁sidxokin	-5640
▁simildis	-5641
▁taqʕorno	-5642
▁teƛnoanu	-5643
▁täƛnoƛin	-5644
▁užizaqor	-5645
▁xedyoqor	-5646
▁xedyoxay	-5647
▁xizazgon	-5648
▁xwasarno	-5649
▁yaqnoƛin	-5650
▁yaqʕułer	-5651
▁yayräƛin	-5652
▁yaziqłiƛ	-5653
▁yałzatow	-5654
▁yegirłin	-5655
▁yiqixana	-5656
▁yisirƛin	-5657
▁yičanƛin	-5658
▁yičiräsi	-5659
▁yodanƛin	-5660
▁yodixosi	-5661
▁yoqsiƛin	-5662
▁yołƛinno	-5663
▁yätiruni	-5664
▁zawnoƛin	-5665
▁zawrułin	-5666
▁zaħmataw	-5667
▁äsiruxor	-5668
▁čanyazaƛ	-5669
▁Ħusenqor	-5670
▁Ħusenƛin	-5671
▁ħalkaraw	-5672
▁ħurmatno	-5673
▁šebinƛin	-5674
▁ƛexunosi	-5675
▁ƛirbałin	-5676
▁ɣunoqayn	-5677
▁ɣʕanazaz	-5678
▁ʕOmoyqor	-5679
▁ʕalamałi	-5680
▁ʕantawni	-5681
▁ʕantawnä	-5682
▁ʕiyayrno	-5683
▁ʕoloqzas	-5684
ʕuyzaɣaɣor	-5685
▁Aždaħägon	-5686
▁Hemełaquł	-5687
▁Ismaʕilzo	-5688
▁Neširutow	-5689
▁Ražbadinƛ	-5690
▁Telawäɣor	-5691
▁aħnayxosi	-5692
▁baqruntow	-5693
▁barudäɣor	-5694
▁baruqorno	-5695
▁baħarčiłi	-5696
▁begiranix	-5697
▁bełiqanbi	-5698
▁bełiqanes	-5699
▁bełiqanza	-5700
▁bičiƛinno	-5701
▁biħadanix	-5702
▁bolžalyos	-5703
▁daruyabin	-5704
▁diwanbegä	-5705
▁esiwqorno	-5706
▁exursiƛin	-5707
▁girimabin	-5708
▁habihanes	-5709
▁habihanno	-5710
▁harimoxor	-5711
▁hemecetow	-5712
▁hudayziko	-5713
▁maduhales	-5714
▁maqʕäytow	-5715
▁masalałäy	-5716
▁muhumabin	-5717
▁muʕalimno	-5718
▁nełdergon	-5719
▁neširaɣor	-5720
▁neƛnäyƛin	-5721
▁obiydäɣor	-5722
▁pašmanłiƛ	-5723
▁qarawulza	-5724
▁qʕaƛanayn	-5725
▁qʕiƛurabi	-5726
▁rasadanix	-5727
▁rečuƛerno	-5728
▁riqiranix	-5729
▁riyxanusi	-5730
▁rukarnosi	-5731
▁rukayxanu	-5732
▁rukayxƛin	-5733
▁sanaʕałin	-5734
▁sasaqorno	-5735
▁sasaqozox	-5736
▁tataniłxo	-5737
▁xabaryabi	-5738
▁xizaɣorsi	-5739
▁xizaɣorzo	-5740
▁yawnoƛƛin	-5741
▁yičäsiƛin	-5742
▁Ħumukuliƛ	-5743
▁ħumukuliƛ	-5744
▁łiboqande	-5745
▁łiyranƛin	-5746
▁žaqʕułgon	-5747
▁ƛexasiƛin	-5748
▁ɣunoxorno	-5749
▁ʕAwdunasi	-5750
▁ʕedeʕaraw	-5751
▁Azbaryoxor	-5752
▁Bazarganbi	-5753
▁Didurnotow	-5754
▁Ražbadiner	-5755
▁Ražbadines	-5756
▁Ražbadinqo	-5757
▁Ražbadinxo	-5758
▁barkatawni	-5759
▁baynosigon	-5760
▁bazarganzo	-5761
▁baɣmaɣorno	-5762
▁bezanixƛin	-5763
▁biqiranƛin	-5764
▁boqxanuƛin	-5765
▁boyxosiƛin	-5766
▁gamušyozaq	-5767
▁guluzaxozo	-5768
▁kaɣatyabin	-5769
▁kidbazaqor	-5770
▁madaxozoni	-5771
▁mesedyosni	-5772
▁meɣyoqorno	-5773
▁riqirsiƛin	-5774
▁riyxanuƛin	-5775
▁ričiranƛin	-5776
▁rowanixƛin	-5777
▁saɣyatyabi	-5778
▁teƛxanaƛin	-5779
▁ukayruntow	-5780
▁xabaryabin	-5781
▁yexursiƛin	-5782
▁yiqiranƛin	-5783
▁yičaniƛäyn	-5784
▁yodanixƛin	-5785
▁yowanixƛin	-5786
▁ƛirbadäɣor	-5787
▁ʕUmarqilič	-5788
▁ʕUneyzatno	-5789
▁ʕoloqzaqor	-5790
▁Baxumesedun	-5791
▁Tawadidäɣor	-5792
▁azirodoƛƛin	-5793
▁bukayruntow	-5794
▁esiranixƛin	-5795
▁esnazadäɣor	-5796
▁kumakyorƛin	-5797
▁mažgityaɣor	-5798
▁raładyołxor	-5799
▁ričixosiƛin	-5800
▁sasaqosigon	-5801
▁sidadäzagon	-5802
▁ħurmatyoxay	-5803
▁ɣʕutkoxorno	-5804
▁ʕArabuzande	-5805
▁ʕArabuzanno	-5806
▁ʕoloqanawni	-5807
▁aderzoxortow	-5808
▁biqixyołiƛin	-5809
▁riqixyołiƛin	-5810
▁rukaranixƛin	-5811
▁yexoriłxosin	-5812
▁maduhalłiqozoni	-5813
...	-5814
egm	-5815
nsa	-5816
uʕł	-5817
...”	-5818
abuž	-5819
bdal	-5820
gula	-5821
iʕan	-5822
uyax	-5823
uʕan	-5824
ʕaru	-5825
▁Anƛ	-5826
▁Ars	-5827
▁Aɣi	-5828
▁Exa	-5829
▁Ečr	-5830
▁Eɣw	-5831
▁Rät	-5832
▁eɣe	-5833
▁ico	-5834
▁kep	-5835
▁oys	-5836
▁oƛi	-5837
▁qep	-5838
▁Šew	-5839
▁ʕIš	-5840
adawa	-5841
anzan	-5842
arzäy	-5843
denno	-5844
därno	-5845
egmus	-5846
olowä	-5847
rezał	-5848
rezaƛ	-5849
tirłi	-5850
ulhut	-5851
urqʕo	-5852
xexoy	-5853
yoħor	-5854
zoniƛ	-5855
šayat	-5856
šnoyx	-5857
ʕogce	-5858
ʕoged	-5859
ʕuban	-5860
ʕurin	-5861
ʕuriƛ	-5862
▁Amir	-5863
▁Araq	-5864
▁Asaq	-5865
▁Asoq	-5866
▁Aɣin	-5867
▁Beɣe	-5868
▁Biči	-5869
▁Buħi	-5870
▁Dowƛ	-5871
▁Däde	-5872
▁Esiƛ	-5873
▁Ezun	-5874
▁Eƛni	-5875
▁Ixin	-5876
▁Iħuƛ	-5877
▁Iħäy	-5878
▁Miyä	-5879
▁Nuʕł	-5880
▁Qaca	-5881
▁Reže	-5882
▁Ukay	-5883
▁Ukru	-5884
▁Waħa	-5885
▁abuž	-5886
▁ariƛ	-5887
▁ayro	-5888
▁bank	-5889
▁buħi	-5890
▁bäti	-5891
▁egix	-5892
▁ešad	-5893
▁ežis	-5894
▁hiɣa	-5895
▁imxa	-5896
▁ižis	-5897
▁ižiƛ	-5898
▁kawu	-5899
▁oɣʕ	-5900
oboru	-5901
oride	-5902
łikin	-5903
▁Užiz	-5904
▁ałux	-5905
▁kici	-5906
▁kosa	-5907
▁kuča	-5908
▁kway	-5909
▁niga	-5910
▁ocät	-5911
▁oɣan	-5912
▁purł	-5913
▁rask	-5914
▁ritä	-5915
▁rožƛ	-5916
▁ruħč	-5917
▁rʕoq	-5918
▁suƛi	-5919
▁weeƛ	-5920
▁yadi	-5921
▁zank	-5922
▁Ħalt	-5923
▁ħill	-5924
▁ħimu	-5925
▁Łiƛa	-5926
▁šušo	-5927
▁ƛoħo	-5928
adambi	-5929
agiqay	-5930
ahełxo	-5931
alʕizi	-5932
anizas	-5933
aramäz	-5934
arbiya	-5935
ariłxo	-5936
awuses	-5937
azaxar	-5938
azaxno	-5939
aƛaƛix	-5940
danyay	-5941
dugani	-5942
edixoz	-5943
erakin	-5944
gärinč	-5945
ikayär	-5946
ilawbi	-5947
ilimay	-5948
imarsi	-5949
inosin	-5950
iriyaw	-5951
irozya	-5952
ičurin	-5953
iʕangi	-5954
mołäyn	-5955
mʕalin	-5956
mʕaliƛ	-5957
mʕalär	-5958
nayłin	-5959
ngotow	-5960
odreza	-5961
odäsin	-5962
oliƛäy	-5963
oqaqay	-5964
oquqno	-5965
oraxno	-5966
orqosi	-5967
oyoƛin	-5968
ozonis	-5969
salama	-5970
udagon	-5971
udanin	-5972
umiqay	-5973
uräsit	-5974
utanno	-5975
uzaxar	-5976
ułersi	-5977
wadmay	-5978
wʕacet	-5979
xorzoq	-5980
zontow	-5981
äqruni	-5982
ħanzan	-5983
ɣurułi	-5984
ɣwedin	-5985
ʕuyzad	-5986
▁Aqƛin	-5987
▁Barus	-5988
▁Baruƛ	-5989
▁Beɣet	-5990
▁Bišad	-5991
▁Bišan	-5992
▁Bišno	-5993
▁Bʕeƛo	-5994
▁Cimno	-5995
▁Dandi	-5996
▁Däxor	-5997
▁Endur	-5998
▁Eƛnin	-5999
ayɣat	-6000
isiyä	-6001
učini	-6002
zazno	-6003
▁Qudi	-6004
▁bäqi	-6005
▁uyra	-6006
amusno	-6007
awusno	-6008
ebelaw	-6009
imołäy	-6010
nayƛin	-6011
urusno	-6012
▁Cuƛer	-6013
▁Haqan	-6014
▁Haqoƛ	-6015
▁Haraƛ	-6016
▁Iqira	-6017
▁Izäsi	-6018
▁Iłira	-6019
▁Kecno	-6020
▁Madaħ	-6021
▁Madaƛ	-6022
▁Mekoq	-6023
▁Mečoł	-6024
▁Mežuz	-6025
▁Moƛał	-6026
▁Musaz	-6027
▁Musał	-6028
▁Nagon	-6029
▁Netin	-6030
▁Onoču	-6031
▁Ramaz	-6032
▁Raqru	-6033
▁Recen	-6034
▁Režet	-6035
▁Reɣet	-6036
▁Roƛxo	-6037
▁Ruysi	-6038
▁Sapar	-6039
▁Tabul	-6040
▁Täƛru	-6041
▁Ukrus	-6042
▁Wayčo	-6043
▁Wizir	-6044
▁Yedun	-6045
▁Yeɣen	-6046
▁Yigza	-6047
▁Yoƛƛo	-6048
▁Ziyan	-6049
▁acmox	-6050
▁acmoł	-6051
▁adäyt	-6052
▁alžan	-6053
▁aqʕun	-6054
▁aqʕza	-6055
▁aħyaƛ	-6056
▁aɣzaz	-6057
▁bagin	-6058
▁bałgo	-6059
▁bežis	-6060
▁biłis	-6061
▁bižiƛ	-6062
▁bogno	-6063
▁boxix	-6064
▁budum	-6065
▁buɣaz	-6066
▁cudin	-6067
▁daqay	-6068
▁haxar	-6069
▁hiƛun	-6070
▁hiɣar	-6071
▁hoboł	-6072
▁hozuƛ	-6073
▁hulin	-6074
▁kamir	-6075
▁kepaw	-6076
▁kicir	-6077
▁kosin	-6078
▁koyiq	-6079
▁kučin	-6080
▁kučis	-6081
▁laɣbi	-6082
▁makru	-6083
▁mazaħ	-6084
▁muɣno	-6085
▁obiwn	-6086
▁obiws	-6087
▁ozzäy	-6088
▁oƛixa	-6089
▁oɣłin	-6090
▁oɣʕno	-6091
▁pečma	-6092
▁pulaw	-6093
▁pureł	-6094
▁putce	-6095
▁qalno	-6096
▁qotno	-6097
▁rasgi	-6098
▁raɣin	-6099
awnč	-6100
▁awä	-6101
awnin	-6102
ilawn	-6103
rułer	-6104
▁Ceyn	-6105
▁duri	-6106
▁yesa	-6107
ałiłer	-6108
aʕatno	-6109
ʕimłer	-6110
▁Ceyez	-6111
▁Ričiƛ	-6112
▁däłer	-6113
▁nešur	-6114
▁nucin	-6115
▁qunno	-6116
▁quqan	-6117
▁rawnč	-6118
▁raħat	-6119
▁raɣiƛ	-6120
▁raɣru	-6121
▁recen	-6122
▁regis	-6123
▁rixoƛ	-6124
▁roqxa	-6125
▁ruqʕo	-6126
▁räšru	-6127
▁saʕat	-6128
▁siħir	-6129
▁siħru	-6130
▁taqʕo	-6131
▁ukruƛ	-6132
▁ulkas	-6133
▁užide	-6134
▁yagin	-6135
▁yaɣʕo	-6136
▁yesux	-6137
▁yigza	-6138
▁yoxir	-6139
▁yoynč	-6140
▁zahir	-6141
▁zeroq	-6142
▁zerun	-6143
▁ägiru	-6144
▁äxuru	-6145
▁äzuno	-6146
▁čolow	-6147
▁ħamim	-6148
▁ħaħno	-6149
▁ħaħxo	-6150
▁ħažis	-6151
▁ħirar	-6152
▁ħiroƛ	-6153
▁ħobon	-6154
▁ħolaq	-6155
▁łacqo	-6156
▁łasey	-6157
▁łelaw	-6158
▁šešoƛ	-6159
▁šidaƛ	-6160
▁Žoyän	-6161
▁žiman	-6162
▁žimäy	-6163
▁ƛešun	-6164
▁ƛisix	-6165
▁ƛisiƛ	-6166
▁ɣuɣud	-6167
▁ʕAnsa	-6168
▁ʕalax	-6169
▁ʕamoƛ	-6170
▁ʕezen	-6171
Maħamas	-6172
adałxor	-6173
adyołer	-6174
akanyar	-6175
amusyoq	-6176
aratyoƛ	-6177
arumƛin	-6178
asmaɣor	-6179
aymozaƛ	-6180
ayxnoyä	-6181
aħäruni	-6182
ałzatow	-6183
ažarizi	-6184
aƛäytow	-6185
ebedłiƛ	-6186
exoyzas	-6187
hanägon	-6188
ilawƛin	-6189
imorkin	-6190
inayzaƛ	-6191
ineyƛin	-6192
ircetow	-6193
irułäyn	-6194
iräłinč	-6195
isdider	-6196
małiłer	-6197
odorawn	-6198
oldenno	-6199
▁odo	-6200
▁žäk	-6201
ilima	-6202
xozox	-6203
äqinč	-6204
▁Adäy	-6205
▁Bero	-6206
▁Beže	-6207
▁Borž	-6208
▁ačit	-6209
▁irsi	-6210
▁odix	-6211
▁riša	-6212
aħinno	-6213
aʕaley	-6214
olimoƛ	-6215
uxozox	-6216
uyałer	-6217
zoxƛin	-6218
▁Eniwq	-6219
▁Goqiq	-6220
▁Risno	-6221
▁Užide	-6222
▁keran	-6223
▁keroq	-6224
▁lelno	-6225
▁rišan	-6226
▁rišxo	-6227
▁tamiħ	-6228
▁ukayy	-6229
▁yaħno	-6230
▁ziyas	-6231
asinibi	-6232
omƛerce	-6233
oniłinč	-6234
oraxaza	-6235
oriłƛin	-6236
oxäygon	-6237
ozałäyn	-6238
qnäyƛin	-6239
sinigon	-6240
tizarno	-6241
uliłäsi	-6242
uramxor	-6243
uratyoƛ	-6244
uxanusi	-6245
uħarawn	-6246
xozołäy	-6247
yozałer	-6248
äłruƛin	-6249
šnayƛin	-6250
ʕimakun	-6251
ʕoniqor	-6252
ʕonyayx	-6253
ʕäsianu	-6254
▁Besura	-6255
▁Buħima	-6256
▁Bʕeƛoq	-6257
▁Ceyqor	-6258
▁Ciqqor	-6259
▁Därgon	-6260
▁Exaniƛ	-6261
▁Eɣweni	-6262
▁Haqayn	-6263
▁Howłaƛ	-6264
▁Igaɣor	-6265
▁Iqiran	-6266
▁Kidiro	-6267
▁Mekoyx	-6268
▁Nełdäy	-6269
▁Nukarä	-6270
▁Onočas	-6271
▁Osaxor	-6272
▁Ozyode	-6273
▁Qʕašiƛ	-6274
▁Siryoz	-6275
▁Telawi	-6276
▁Ukayyä	-6277
▁Wallah	-6278
▁Wizirä	-6279
▁Yeɣenä	-6280
▁abužah	-6281
▁akiqno	-6282
▁akizax	-6283
▁akäzno	-6284
▁akäłru	-6285
▁aqʕuyä	-6286
▁ayaniq	-6287
▁ayxana	-6288
▁ayxƛin	-6289
▁aħnada	-6290
▁aħnays	-6291
▁ašunin	-6292
▁ažoqay	-6293
▁bahana	-6294
▁bankan	-6295
▁bašice	-6296
▁baɣmaz	-6297
▁baɣmox	-6298
▁begäsi	-6299
apk	-6300
▁kap	-6301
▁sap	-6302
apyan	-6303
axrud	-6304
azina	-6305
▁Deyn	-6306
▁Gula	-6307
▁Maħl	-6308
▁Užiq	-6309
▁riłu	-6310
▁yoƛa	-6311
▁Šapk	-6312
▁ʕans	-6313
ohorza	-6314
▁Ciqez	-6315
▁Maħam	-6316
▁adäsi	-6317
▁beɣen	-6318
▁cugum	-6319
▁heres	-6320
▁hersi	-6321
▁howož	-6322
▁kapek	-6323
▁karač	-6324
▁riyxa	-6325
▁ruɣuł	-6326
▁yiħuł	-6327
▁yoƛor	-6328
▁äčinč	-6329
iroƛƛin	-6330
odorłiƛ	-6331
yołäysi	-6332
▁Aždaħa	-6333
▁Aždaħƛ	-6334
▁Maħaza	-6335
▁Maħlar	-6336
▁Užizar	-6337
▁batiza	-6338
▁beynod	-6339
▁beɣula	-6340
▁biłäsi	-6341
▁biƛira	-6342
▁boboru	-6343
▁boƛƛäy	-6344
▁buqʕan	-6345
▁bäciza	-6346
▁bäziru	-6347
▁bäčiza	-6348
▁ciqłer	-6349
▁cuƛert	-6350
▁debełi	-6351
▁dowdäy	-6352
▁däłtow	-6353
▁egixwa	-6354
▁elaqay	-6355
▁elułsi	-6356
▁eqärun	-6357
▁etizaq	-6358
▁exuroƛ	-6359
▁ełuyax	-6360
▁ešurno	-6361
▁eženiz	-6362
▁eɣenin	-6363
▁eɣetow	-6364
▁gagali	-6365
▁gondaz	-6366
▁gugira	-6367
▁gugixt	-6368
▁guzqay	-6369
▁hersiq	-6370
▁hečker	-6371
▁hilmoł	-6372
▁hisonä	-6373
▁howłaƛ	-6374
▁hunice	-6375
▁igunir	-6376
▁iqirač	-6377
▁iyrinč	-6378
▁iyxƛin	-6379
▁ičixoz	-6380
▁kurzak	-6381
▁käcrus	-6382
▁maydan	-6383
▁mecrax	-6384
▁mekoda	-6385
▁minnan	-6386
▁močiƛa	-6387
▁mušimo	-6388
▁nełdär	-6389
▁nełƛer	-6390
▁neƛčey	-6391
▁nigaɣʕ	-6392
▁nuʕbin	-6393
▁nʕoƛaƛ	-6394
▁odoman	-6395
▁orezni	-6396
▁oynosi	-6397
▁oɣoƛin	-6398
▁paydax	-6399
iħod	-6400
iħom	-6401
ugar	-6402
▁Gug	-6403
▁Siħ	-6404
alaik	-6405
xozoz	-6406
▁Igza	-6407
▁beca	-6408
▁yoda	-6409
bikori	-6410
iħiłno	-6411
iħomes	-6412
▁Boƛƛi	-6413
▁Xexza	-6414
▁Xexłi	-6415
▁Yiziq	-6416
▁daqor	-6417
▁ixina	-6418
▁mekoy	-6419
▁mekwa	-6420
▁misal	-6421
▁nucoƛ	-6422
▁ročno	-6423
▁yesus	-6424
▁yodix	-6425
▁ziyan	-6426
▁ɣalat	-6427
▁ɣuros	-6428
alawniƛ	-6429
giħiłno	-6430
imatƛin	-6431
imorƛin	-6432
iħodyos	-6433
odorłin	-6434
olaytow	-6435
▁Gugyoq	-6436
▁Yiziri	-6437
▁becono	-6438
▁buħima	-6439
▁exurxo	-6440
▁eynoyn	-6441
▁malaik	-6442
▁purqay	-6443
▁pʕaƛux	-6444
▁qidobi	-6445
▁quqäsi	-6446
▁qʕilon	-6447
▁qʕišod	-6448
▁qʕišon	-6449
▁radinč	-6450
▁raqʕru	-6451
▁rasada	-6452
▁raxƛin	-6453
▁recura	-6454
▁rexora	-6455
▁risrer	-6456
▁riyrxo	-6457
▁riƛinč	-6458
▁riƛubi	-6459
▁rosyoƛ	-6460
▁rožbin	-6461
▁roƛnox	-6462
▁sabani	-6463
▁siryoz	-6464
▁tatuwa	-6465
▁tungix	-6466
▁täqinč	-6467
▁užizaz	-6468
▁wacʕal	-6469
▁xanzoq	-6470
▁xanzoƛ	-6471
▁xiräsi	-6472
▁xizaza	-6473
▁xäcinč	-6474
▁yadinč	-6475
▁yayrxo	-6476
▁yaħmoƛ	-6477
▁yaɣʕiƛ	-6478
▁yecasi	-6479
▁yegaru	-6480
▁yegäru	-6481
▁yegäsi	-6482
▁yetixa	-6483
▁yexurƛ	-6484
▁yicäsi	-6485
▁yiħixt	-6486
▁yoxäru	-6487
▁yoƛƛoz	-6488
▁yätiru	-6489
▁yäčinč	-6490
▁yäčiru	-6491
▁zulmun	-6492
▁äsirur	-6493
▁ħalkił	-6494
▁ħillan	-6495
▁ħiroza	-6496
▁ħoʕƛix	-6497
▁Łaxtow	-6498
▁Łoxnon	-6499
užzi	-6500
▁owo	-6501
aħłiq	-6502
erxot	-6503
ʕuƛas	-6504
▁Moƛa	-6505
▁Okuz	-6506
▁Yeza	-6507
▁asoƛ	-6508
▁ałno	-6509
▁bäči	-6510
▁iyyä	-6511
▁muri	-6512
▁naey	-6513
▁rʕuƛ	-6514
▁yoxa	-6515
▁ƛiso	-6516
udegon	-6517
uliyaw	-6518
▁Bužzi	-6519
▁Däzno	-6520
▁lagan	-6521
▁lagax	-6522
▁lagił	-6523
▁lagiƛ	-6524
▁muhru	-6525
▁muroƛ	-6526
▁netay	-6527
▁rešak	-6528
▁waħaz	-6529
▁ħošan	-6530
▁ħošis	-6531
▁Žamal	-6532
▁žiƛbo	-6533
▁ƛelza	-6534
uhalłiq	-6535
▁Mužmar	-6536
▁Zeygon	-6537
▁asatow	-6538
▁berobi	-6539
▁bokobi	-6540
▁caxinč	-6541
▁guluči	-6542
▁icozaƛ	-6543
▁iynosi	-6544
▁iyxanu	-6545
▁iyäƛin	-6546
▁netayr	-6547
▁qʕayde	-6548
▁łemuri	-6549
▁łiyrxo	-6550
▁łočyoƛ	-6551
▁łoħran	-6552
▁łoħrod	-6553
▁łoħron	-6554
▁šidaƛa	-6555
▁šiqʕon	-6556
▁Žädgon	-6557
▁žasgon	-6558
▁žirbał	-6559
▁ɣoɣoru	-6560
▁ɣudest	-6561
▁ɣʕuler	-6562
▁ʕAbdal	-6563
▁ʕAnsan	-6564
▁ʕIyayx	-6565
▁ʕOmoyn	-6566
▁ʕansan	-6567
▁ʕantaw	-6568
▁ʕantłi	-6569
▁ʕarada	-6570
▁ʕazart	-6571
▁ʕaƛnos	-6572
▁ʕomoyq	-6573
anixaysi	-6574
azaɣorno	-6575
aħłiqtow	-6576
ecenyayx	-6577
etirozya	-6578
ełxanuzo	-6579
idoxaɣor	-6580
ikayägon	-6581
iqnotown	-6582
ixozosno	-6583
odxorzoq	-6584
ohoresno	-6585
oniłxosi	-6586
orolagon	-6587
oxäsigon	-6588
ozonägon	-6589
oƛixosin	-6590
qaranƛin	-6591
ulaʕitow	-6592
urxozoni	-6593
xanusiłi	-6594
załäygon	-6595
ʕogedtow	-6596
▁Asaqoza	-6597
▁Asoqtow	-6598
▁Barusno	-6599
ežƛ	-6600
uban	-6601
▁uti	-6602
ʕaƛäł	-6603
ʕuyan	-6604
▁Daʕb	-6605
▁Uyno	-6606
▁odan	-6607
▁reka	-6608
▁utik	-6609
▁utix	-6610
▁čʕaƛ	-6611
▁ħežƛ	-6612
▁Łiya	-6613
▁Žubi	-6614
alägon	-6615
anizaz	-6616
iranił	-6617
osures	-6618
äħorno	-6619
▁Daʕba	-6620
▁Xizaz	-6621
▁bigut	-6622
▁butna	-6623
▁rekuł	-6624
▁roƛƛi	-6625
▁teqra	-6626
▁łiyra	-6627
anyaɣor	-6628
ʕaƛäłza	-6629
▁Sidade	-6630
▁Sosiƛa	-6631
▁Yuyxor	-6632
▁beginč	-6633
▁bukara	-6634
▁gander	-6635
▁ganzaq	-6636
▁hohomł	-6637
▁mežusä	-6638
▁pardag	-6639
▁qazaqä	-6640
▁utanix	-6641
▁utiran	-6642
▁yiłade	-6643
▁yuqʕek	-6644
▁yäziru	-6645
▁ɣamasy	-6646
ženyaɣor	-6647
ʕidasini	-6648
▁Becawni	-6649
▁Bitaɣor	-6650
▁Bišanon	-6651
▁Dibirän	-6652
▁Didurgo	-6653
▁Däderno	-6654
▁Encetow	-6655
▁Eniwqno	-6656
▁Esnazaq	-6657
▁Esnazał	-6658
▁Exunosi	-6659
▁Exurnäy	-6660
▁Ečriłno	-6661
▁Goqiƛin	-6662
▁Haqoƛer	-6663
▁Horoƛin	-6664
▁Hudunon	-6665
▁Insanzo	-6666
▁Kusagon	-6667
▁Kusaqor	-6668
▁Kusaƛin	-6669
▁Madaƛäz	-6670
▁Maħazay	-6671
▁Mežuqay	-6672
▁Muʕalim	-6673
▁Nazołno	-6674
▁Necetow	-6675
▁Neširun	-6676
▁Nukarza	-6677
▁Qacisni	-6678
▁Qazaqza	-6679
▁Qʕišdes	-6680
▁Qʕišdäy	-6681
▁Raładno	-6682
▁Rečuƛer	-6683
▁Roƛiqur	-6684
▁Roƛxosi	-6685
▁Rätiƛin	-6686
▁Sosigon	-6687
▁Telawär	-6688
▁Umukusä	-6689
▁Ungotow	-6690
▁Waʕaley	-6691
▁Xediyan	-6692
▁Yiziqor	-6693
▁adäyzoƛ	-6694
▁ahlimor	-6695
▁ahlimos	-6696
▁akamxor	-6697
▁akiłace	-6698
▁annabin	-6699
ayƛa	-6700
uqƛa	-6701
äyƛa	-6702
ʕalu	-6703
▁Esa	-6704
▁Eƛa	-6705
▁era	-6706
▁oxä	-6707
ruxay	-6708
łunno	-6709
ʕaliz	-6710
ʕiyor	-6711
▁Esan	-6712
▁musr	-6713
▁oxix	-6714
▁riħo	-6715
▁tung	-6716
izaxay	-6717
yayƛin	-6718
▁Mekos	-6719
▁Tełäy	-6720
▁biguƛ	-6721
▁bixzi	-6722
▁bäsru	-6723
▁caƛač	-6724
▁daram	-6725
▁darun	-6726
▁därƛa	-6727
▁erali	-6728
▁koyän	-6729
▁musoƛ	-6730
▁oxira	-6731
▁qʕayä	-6732
▁qʕašo	-6733
▁ħuruƛ	-6734
▁Łinaq	-6735
▁łiyän	-6736
▁žežun	-6737
ixanuzo	-6738
ruxaysi	-6739
äxuruni	-6740
▁Babiwƛ	-6741
▁Eluqƛa	-6742
▁Tełtow	-6743
▁ahlimo	-6744
▁aɣixor	-6745
▁bogmoƛ	-6746
▁bäsinč	-6747
▁darƛin	-6748
▁ererno	-6749
▁iħixor	-6750
▁moƛałä	-6751
▁mʕaliz	-6752
▁odinäy	-6753
▁riħada	-6754
▁tungił	-6755
▁šebiƛa	-6756
▁ɣʕwayä	-6757
▁ɣʕwayƛ	-6758
▁Howžiƛa	-6759
▁Ramazan	-6760
▁akäzayn	-6761
▁asoqtow	-6762
▁aħyakin	-6763
▁aħyaxor	-6764
▁aħyałer	-6765
▁ałnoxay	-6766
▁ažombin	-6767
▁ažomzas	-6768
▁aɣʕuxay	-6769
▁badirur	-6770
▁baqruce	-6771
▁baqrułi	-6772
▁baruqay	-6773
▁barułäy	-6774
▁bayäsin	-6775
▁bałgołi	-6776
▁bašiqay	-6777
▁baɣmart	-6778
▁becurno	-6779
▁begärun	-6780
▁beqaɣor	-6781
▁betixoz	-6782
▁bexarur	-6783
▁bexoräł	-6784
▁bečełin	-6785
▁bečnabi	-6786
▁bečnayn	-6787
▁bełisno	-6788
▁bešnayx	-6789
▁beɣurxo	-6790
▁bigełno	-6791
▁bisanir	-6792
▁bixiłer	-6793
▁biyrinč	-6794
▁biħurxo	-6795
▁bogurno	-6796
▁bowsƛin	-6797
▁bowäƛin	-6798
▁božaraw	-6799
hmos	-6800
umsaq	-6801
ʕogxo	-6802
▁hiƛu	-6803
▁iłen	-6804
▁kami	-6805
▁oqła	-6806
▁rowo	-6807
▁rowä	-6808
▁uqʕł	-6809
▁łuey	-6810
eytown	-6811
▁Debex	-6812
▁Yedan	-6813
▁Yiłaƛ	-6814
▁biziƛ	-6815
▁iłeda	-6816
▁iłewa	-6817
▁iłira	-6818
▁iłnon	-6819
▁roɣsi	-6820
▁uqʕło	-6821
▁yownč	-6822
▁ʕAƛor	-6823
urumsaq	-6824
xosinin	-6825
zoxosin	-6826
ʕuyaniƛ	-6827
▁Hudunč	-6828
▁Magalu	-6829
▁bezunč	-6830
▁bizinč	-6831
▁bizira	-6832
▁iłegon	-6833
▁kosyar	-6834
▁naysin	-6835
▁rexunč	-6836
▁rihmos	-6837
▁roɣinč	-6838
▁wacłin	-6839
▁yaqƛin	-6840
▁łiyran	-6841
▁žatown	-6842
▁ƛäxunč	-6843
▁ʕAƛaza	-6844
▁Bahadur	-6845
▁bezuzaƛ	-6846
▁boƛixsi	-6847
▁boƛƛäyr	-6848
▁bäturun	-6849
▁bʕałäyn	-6850
▁caxruni	-6851
▁ceyesno	-6852
▁ciqqosi	-6853
▁dadäɣor	-6854
▁dahełxo	-6855
▁daramno	-6856
▁daruyar	-6857
▁dibires	-6858
▁dibirez	-6859
▁dibirzo	-6860
▁dibirän	-6861
▁didurƛa	-6862
▁diwanno	-6863
▁egärinč	-6864
▁egärƛin	-6865
▁eluqƛin	-6866
▁ersiƛax	-6867
▁esixozo	-6868
▁esurƛin	-6869
▁esuxanu	-6870
▁esäruni	-6871
▁esärułi	-6872
▁exuntow	-6873
▁exuƛƛin	-6874
▁eynoynč	-6875
▁ečriłno	-6876
▁ešunanu	-6877
▁gagirun	-6878
▁geresni	-6879
▁gogaƛäz	-6880
▁gulučin	-6881
▁gutanno	-6882
▁harihun	-6883
▁heqnosi	-6884
▁heresin	-6885
▁hisonär	-6886
▁hisołäy	-6887
▁hoboyƛa	-6888
▁hohomaw	-6889
▁hokomeł	-6890
▁hoqoƛno	-6891
▁hudunon	-6892
▁igorkin	-6893
▁inkarno	-6894
▁inžitłi	-6895
▁iqinanu	-6896
▁iqärƛin	-6897
▁ixinabi	-6898
▁iħanayn	-6899
iɣu	-6900
iɣaƛ	-6901
iɣuƛ	-6902
oxäƛ	-6903
wʕar	-6904
▁Aħa	-6905
▁ati	-6906
▁axä	-6907
▁ins	-6908
▁näƛ	-6909
▁Łäƛ	-6910
▁ƛäƛ	-6911
ƛirxo	-6912
▁Ozat	-6913
▁axar	-6914
▁iqir	-6915
▁yiqa	-6916
▁yiqi	-6917
▁šuda	-6918
▁ʕAlä	-6919
ubaraw	-6920
wʕadin	-6921
załxor	-6922
▁Yisir	-6923
▁Yisiƛ	-6924
▁axaza	-6925
▁axbin	-6926
▁axiru	-6927
▁bahan	-6928
▁bixił	-6929
▁gugix	-6930
▁mušno	-6931
▁paraq	-6932
▁qoqbi	-6933
▁raħno	-6934
▁yiqir	-6935
▁yizaq	-6936
▁ħosno	-6937
▁ħoyos	-6938
▁šudno	-6939
akanyoł	-6940
irxotow	-6941
oniłƛin	-6942
roƛinno	-6943
wʕariłi	-6944
▁aħozir	-6945
▁idäzay	-6946
▁insanä	-6947
▁iqizaƛ	-6948
▁izirxo	-6949
▁ičirxo	-6950
▁iłetow	-6951
▁onočar	-6952
▁qoqxor	-6953
▁ruqʕsi	-6954
▁yezura	-6955
▁yiqinč	-6956
▁yownäy	-6957
▁žukanä	-6958
▁ɣudzał	-6959
▁ʕOƛira	-6960
aqʕƛirxo	-6961
oxäƛirun	-6962
▁Dibirno	-6963
▁bahanar	-6964
▁bitirxo	-6965
▁egärułi	-6966
▁eɣwedin	-6967
▁iħäzoni	-6968
▁iłetown	-6969
▁kamirno	-6970
▁karačel	-6971
▁kawumox	-6972
▁kiʕangi	-6973
▁koyiƛer	-6974
▁lagiłäy	-6975
▁lamusaw	-6976
▁lamusno	-6977
▁mekoyxo	-6978
▁mezarno	-6979
▁mečołer	-6980
▁minutno	-6981
▁mogolar	-6982
▁mogolxo	-6983
▁mołinäy	-6984
▁mołäƛin	-6985
▁moƛugon	-6986
▁muhubin	-6987
▁mučarin	-6988
▁mužikin	-6989
▁naibłin	-6990
▁nazorno	-6991
▁nazołno	-6992
▁neduräy	-6993
▁nesidäy	-6994
▁nexxozo	-6995
▁nełdayn	-6996
▁nešurur	-6997
▁näƛruni	-6998
▁odinƛin	-6999
elmu	-7000
nesi	-7001
ozad	-7002
▁isw	-7003
eresi	-7004
exoyä	-7005
nesiƛ	-7006
zarsi	-7007
▁biso	-7008
▁diyä	-7009
▁ises	-7010
▁isxo	-7011
▁išxo	-7012
▁roww	-7013
ozałäy	-7014
▁Arsen	-7015
▁Bełis	-7016
▁Kusar	-7017
▁asasi	-7018
▁biłen	-7019
▁habih	-7020
▁iswan	-7021
▁narƛa	-7022
▁rowwä	-7023
▁žazar	-7024
▁ɣʕwak	-7025
▁ʕelmu	-7026
atyabin	-7027
▁Aħugon	-7028
▁Heresi	-7029
▁Xexoyä	-7030
▁babiyä	-7031
▁baruyä	-7032
▁bayran	-7033
▁bayrur	-7034
▁bayrut	-7035
▁baɣman	-7036
▁bisinč	-7037
▁bižinč	-7038
▁ezunäy	-7039
▁guluyä	-7040
▁howžäy	-7041
▁kawubi	-7042
▁kecnot	-7043
▁rigzar	-7044
▁risäsi	-7045
▁yesunč	-7046
▁yutäru	-7047
edaniłer	-7048
uzaqorno	-7049
äłruntow	-7050
▁Arsener	-7051
▁Tawadix	-7052
▁Yaynosi	-7053
▁bayrƛin	-7054
▁bisoƛin	-7055
▁bisxosi	-7056
▁bižanix	-7057
▁bižaraw	-7058
▁bižirno	-7059
▁iswaqor	-7060
▁ižinanu	-7061
▁lelabin	-7062
▁oreznin	-7063
▁osugani	-7064
▁oxisƛin	-7065
▁ozyołer	-7066
▁oƛosini	-7067
▁oƛäxrun	-7068
▁posukin	-7069
▁posures	-7070
▁qacisni	-7071
▁qalamez	-7072
▁qalamxo	-7073
▁qalamzo	-7074
▁qartayä	-7075
▁qʕašder	-7076
▁qʕodaza	-7077
▁ragäƛin	-7078
▁regiroƛ	-7079
▁rekarbi	-7080
▁reynoyx	-7081
▁rečuƛer	-7082
▁rešnada	-7083
▁reƛiłäy	-7084
▁reɣułxo	-7085
▁riguƛay	-7086
▁risäƛin	-7087
▁ritirer	-7088
▁rixerno	-7089
▁riyräsi	-7090
▁riyxƛin	-7091
▁rišanix	-7092
▁rodanił	-7093
▁roqxonč	-7094
▁rowsƛin	-7095
▁royxozo	-7096
▁roƛiqur	-7097
▁roƛixxo	-7098
▁rukarxo	-7099
▁Wel	-7100
▁Wey	-7101
▁Łʕo	-7102
almoƛ	-7103
asmar	-7104
aywan	-7105
aʕyor	-7106
iräyn	-7107
äłƛin	-7108
▁Okus	-7109
▁Wʕał	-7110
▁Yoƛƛ	-7111
▁biħn	-7112
▁gwan	-7113
▁kwan	-7114
▁maʕn	-7115
▁mect	-7116
▁reso	-7117
▁rišw	-7118
▁rʕeł	-7119
wadmoƛ	-7120
yorƛin	-7121
äłäƛin	-7122
▁Weleč	-7123
▁Ziruq	-7124
▁biħin	-7125
▁biħun	-7126
▁esiro	-7127
▁esirä	-7128
▁ezwan	-7129
▁gwanɣ	-7130
▁kokor	-7131
▁reswa	-7132
▁urɣiz	-7133
▁äyƛin	-7134
▁čamal	-7135
araʕyor	-7136
iräytow	-7137
▁Kidber	-7138
▁Welečo	-7139
▁aħinno	-7140
▁biħada	-7141
▁boɣäsi	-7142
▁esiran	-7143
▁esirač	-7144
▁gondaƛ	-7145
▁kwanin	-7146
▁rʕełay	-7147
▁ukayyä	-7148
▁yaqino	-7149
▁ħaywan	-7150
▁Šebiey	-7151
▁ʕOƛnon	-7152
ʕunqorno	-7153
ʕutkoxor	-7154
▁Yoƛƛozo	-7155
▁besuroq	-7156
▁bešnada	-7157
▁bikorxo	-7158
▁biħuƛin	-7159
▁bišomra	-7160
▁boƛƛozo	-7161
▁esirłin	-7162
▁ganiƛin	-7163
▁kokorun	-7164
▁magalas	-7165
▁mežikin	-7166
▁qʕalmoƛ	-7167
▁resobin	-7168
▁resurno	-7169
▁rečuxor	-7170
▁ričirxo	-7171
▁rižinäy	-7172
▁rutirxo	-7173
▁ruzmanƛ	-7174
▁ruɣubin	-7175
▁ruɣutow	-7176
▁räqiƛin	-7177
▁sabanin	-7178
▁sasiłno	-7179
▁saʕatno	-7180
▁seranix	-7181
▁siħiraw	-7182
▁siħiray	-7183
▁siħirno	-7184
▁taqʕaza	-7185
▁tarbiya	-7186
▁teƛxozo	-7187
▁ukarƛin	-7188
▁untaraw	-7189
▁urɣelno	-7190
▁waranin	-7191
▁wazirbi	-7192
▁wazires	-7193
▁wʕałxor	-7194
▁xediyan	-7195
▁xexoybi	-7196
▁xexoyza	-7197
▁xiriyaw	-7198
▁yadiƛin	-7199
Deyn	-7200
łäza	-7201
amanč	-7202
aɣäza	-7203
imäza	-7204
iräza	-7205
isdiz	-7206
isdiƛ	-7207
iƛäza	-7208
qizin	-7209
uräza	-7210
yozod	-7211
▁Esiw	-7212
▁Rʕał	-7213
▁hiba	-7214
▁yäłi	-7215
▁łoxt	-7216
amanča	-7217
aniƛax	-7218
ciruni	-7219
iłaniƛ	-7220
oysƛin	-7221
yoztow	-7222
łiqosi	-7223
▁ciqor	-7224
▁egirƛ	-7225
▁esunč	-7226
▁hibos	-7227
▁igozo	-7228
▁mešor	-7229
▁rigłi	-7230
▁roysi	-7231
▁royxo	-7232
▁tupis	-7233
▁ħimun	-7234
▁žukan	-7235
azasƛin	-7236
eryabin	-7237
isdiƛin	-7238
▁Raɣäza	-7239
▁däqgon	-7240
▁däqkin	-7241
▁egirsi	-7242
▁eluqor	-7243
▁eženir	-7244
▁hunäza	-7245
▁insanƛ	-7246
▁rigtow	-7247
▁tełäza	-7248
▁yäsƛin	-7249
▁łoxnon	-7250
alamqosi	-7251
orolader	-7252
▁Deberno	-7253
▁Rʕałayn	-7254
▁Siħirno	-7255
▁adäzgon	-7256
▁adäztow	-7257
▁akiƛäza	-7258
▁bikores	-7259
▁biynanu	-7260
▁ciqłäza	-7261
▁esisƛin	-7262
▁esnałin	-7263
▁esunanu	-7264
▁hiboƛin	-7265
▁nełader	-7266
▁raysƛin	-7267
▁tamanča	-7268
▁urqizin	-7269
▁xecaniƛ	-7270
▁yayrinč	-7271
▁yexursi	-7272
▁yiqizaƛ	-7273
▁yisiden	-7274
▁yisiłno	-7275
▁yisoƛin	-7276
▁yitirłi	-7277
▁yizałäy	-7278
▁yizuqor	-7279
▁yiħinäy	-7280
▁yiħoƛin	-7281
▁yiħurxo	-7282
▁yiłader	-7283
▁yiłetow	-7284
▁yižoƛin	-7285
▁yodoƛin	-7286
▁yownƛax	-7287
▁yowxƛin	-7288
▁yoysƛin	-7289
▁yoɣełno	-7290
▁yäsuƛin	-7291
▁yäčizay	-7292
▁zigaraƛ	-7293
▁zirurno	-7294
▁ziruzno	-7295
▁äciruni	-7296
▁äƛinƛin	-7297
▁čantasi	-7298
▁čanyaza	-7299
čqʕ	-7300
esma	-7301
qʕin	-7302
upin	-7303
uyey	-7304
ʕuma	-7305
▁Gan	-7306
▁Guħ	-7307
▁yäž	-7308
ayzon	-7309
dinaw	-7310
ʕaɣʕu	-7311
▁Ačqʕ	-7312
▁Ganƛ	-7313
▁Guħƛ	-7314
▁aceƛ	-7315
▁bowx	-7316
▁yowł	-7317
ortown	-7318
▁Tupin	-7319
▁aciru	-7320
▁etali	-7321
▁haqoƛ	-7322
▁hiboq	-7323
▁iqʕin	-7324
▁rexar	-7325
▁risxo	-7326
▁roƛäx	-7327
▁yižis	-7328
▁yowač	-7329
▁zirus	-7330
▁ziruł	-7331
▁čanaq	-7332
ayzoniq	-7333
irsiƛax	-7334
orolayz	-7335
▁bexurƛ	-7336
▁boqali	-7337
▁caƛiru	-7338
▁cugumä	-7339
▁etixoz	-7340
▁eƛiłin	-7341
▁kurali	-7342
▁ozuras	-7343
▁ozuriƛ	-7344
▁qʕaƛix	-7345
▁qʕaƛum	-7346
▁rexada	-7347
▁rexayn	-7348
▁sabrun	-7349
▁yowace	-7350
izaqorno	-7351
▁Sasaqay	-7352
▁bašiłäy	-7353
▁bexurač	-7354
▁debezno	-7355
▁haqazay	-7356
▁haqoƛäy	-7357
▁moƛutow	-7358
▁nełaqay	-7359
▁quqirxo	-7360
▁qʕaƛumo	-7361
▁raynanu	-7362
▁rexarno	-7363
▁roqʕuma	-7364
▁rätiƛin	-7365
▁yizärno	-7366
▁yowxanu	-7367
▁yowłiri	-7368
▁čanaqan	-7369
▁čardaħä	-7370
▁čuqʕäsi	-7371
▁Ħalarno	-7372
▁Ħasaner	-7373
▁Ħasanno	-7374
▁Ħolimoƛ	-7375
▁Ħuseneł	-7376
▁Ħusenno	-7377
▁ħalałno	-7378
▁ħamarno	-7379
▁ħaramaw	-7380
▁ħažataw	-7381
▁ħaƛirxo	-7382
▁ħaƛunay	-7383
▁ħaƛunäy	-7384
▁ħaƛurun	-7385
▁ħaƛurxo	-7386
▁ħaƛułin	-7387
▁ħoʕoƛin	-7388
▁Łʕonoqu	-7389
▁Łʕonosi	-7390
▁łenokin	-7391
▁łeɣirno	-7392
▁łinaqor	-7393
▁łinałno	-7394
▁łiynƛax	-7395
▁łiysƛin	-7396
▁łäħorno	-7397
▁łäłäzay	-7398
▁šemrebi	-7399
ip	-7400
mx	-7401
bac	-7402
las	-7403
šam	-7404
ʕip	-7405
eles	-7406
emiƛ	-7407
guni	-7408
igza	-7409
inot	-7410
iqix	-7411
mxux	-7412
udez	-7413
ugan	-7414
šamt	-7415
šinč	-7416
ɣort	-7417
▁Beš	-7418
▁Eže	-7419
▁Sab	-7420
▁cez	-7421
▁guħ	-7422
▁nič	-7423
▁čor	-7424
ažari	-7425
iqayn	-7426
iqixa	-7427
mʕali	-7428
ʕipaw	-7429
▁Idaz	-7430
▁axoł	-7431
▁aɣił	-7432
▁guħx	-7433
▁qura	-7434
▁riča	-7435
▁uqʕo	-7436
▁čorp	-7437
▁ʕilm	-7438
ateles	-7439
emotya	-7440
oxorno	-7441
unigon	-7442
▁Bigza	-7443
▁Imxux	-7444
▁Išamt	-7445
▁Sabru	-7446
▁aħyał	-7447
▁cezya	-7448
▁nično	-7449
▁qʕaƛa	-7450
▁režin	-7451
▁ričok	-7452
▁ričär	-7453
▁sideƛ	-7454
▁uqʕek	-7455
▁yoqan	-7456
▁yoqsi	-7457
▁äšinč	-7458
▁čorpa	-7459
udezoni	-7460
ʕuyazix	-7461
▁Riqixa	-7462
▁Sideni	-7463
▁Sidqor	-7464
▁ašuƛäy	-7465
▁bažari	-7466
▁cezyaz	-7467
▁egiroƛ	-7468
▁nediwt	-7469
▁nełquł	-7470
▁oƛƛosi	-7471
▁qułgon	-7472
▁regira	-7473
▁yiguni	-7474
▁yizace	-7475
▁yoqzaƛ	-7476
▁ɣalbac	-7477
▁ʕilmuƛ	-7478
oqaƛinno	-7479
▁Idazayn	-7480
▁Nełasno	-7481
▁ašuƛäyd	-7482
▁aɣiqayn	-7483
▁beɣetow	-7484
▁esirinč	-7485
▁gagalin	-7486
▁guħxaza	-7487
▁izixƛin	-7488
▁rayrace	-7489
▁ričirno	-7490
▁riƛułno	-7491
▁xexbiya	-7492
▁yoqäƛin	-7493
▁yoxärus	-7494
▁zaʕipaw	-7495
▁šešerxo	-7496
▁šilazan	-7497
▁šuliyaw	-7498
▁šušanix	-7499
di	-7500
bon	-7501
exa	-7502
udƛ	-7503
xon	-7504
ʕaz	-7505
▁Et	-7506
ariƛ	-7507
ałiƛ	-7508
bʕaɣ	-7509
endi	-7510
esir	-7511
oxsi	-7512
ołiƛ	-7513
runä	-7514
want	-7515
▁Boy	-7516
▁Ric	-7517
▁gup	-7518
Nesir	-7519
awusä	-7520
bʕaɣu	-7521
iłzaƛ	-7522
razał	-7523
uriyä	-7524
▁Oƛix	-7525
▁geni	-7526
▁nełä	-7527
unoqay	-7528
▁Elexa	-7529
▁Etali	-7530
▁Kusaq	-7531
▁Maʕat	-7532
▁Sidas	-7533
▁bezux	-7534
▁elbon	-7535
▁narce	-7536
▁oqxon	-7537
▁sisno	-7538
▁walla	-7539
▁zendi	-7540
▁ħaƛus	-7541
▁ħurno	-7542
nosigon	-7543
oxsiƛax	-7544
oƛixosi	-7545
▁Raɣʕin	-7546
▁aynƛax	-7547
▁bitaza	-7548
▁därtow	-7549
▁ečrunä	-7550
▁kodyox	-7551
▁pʕaƛun	-7552
▁risäru	-7553
▁tełtow	-7554
▁Begirno	-7555
▁Boyxosi	-7556
▁ricinäy	-7557
▁sidenis	-7558
▁yizärun	-7559
▁yiłasno	-7560
▁šušoƛin	-7561
▁šäšiƛin	-7562
▁Žamaler	-7563
▁žaderno	-7564
▁žadäɣor	-7565
▁žanazał	-7566
▁žežułäy	-7567
▁žukaniq	-7568
▁ƛaƛaƛix	-7569
▁ƛisiran	-7570
▁ƛuzabin	-7571
▁ƛuzazaq	-7572
▁ƛäxurun	-7573
▁ɣunoxor	-7574
▁ɣunoƛer	-7575
▁ɣuɣaymo	-7576
▁ɣwʕadan	-7577
▁ɣʕulabi	-7578
▁ɣʕwačul	-7579
▁ʕAƛoxar	-7580
▁ʕAƛtown	-7581
▁ʕOmoyza	-7582
▁ʕUmares	-7583
▁ʕUmarqo	-7584
▁ʕabdalƛ	-7585
▁ʕadalaw	-7586
▁ʕadalno	-7587
▁ʕagarłi	-7588
▁ʕalazan	-7589
▁ʕamołno	-7590
▁ʕaƛozał	-7591
▁ʕiyaynč	-7592
Maħamaƛin	-7593
aniłnotow	-7594
ariłnoanu	-7595
aryayxƛin	-7596
axrudinno	-7597
azirzagon	-7598
erhanesno	-7599
axš	-7600
axƛ	-7601
oya	-7602
anya	-7603
ałäz	-7604
oqax	-7605
ossi	-7606
oyaƛ	-7607
taza	-7608
zaza	-7609
▁Aɣä	-7610
▁Bud	-7611
▁Riħ	-7612
▁Yet	-7613
▁hab	-7614
▁kus	-7615
▁tuk	-7616
▁yiš	-7617
▁zaɣ	-7618
▁šow	-7619
▁šuk	-7620
▁Žun	-7621
aryar	-7622
axƛäz	-7623
▁adek	-7624
▁elaq	-7625
▁elas	-7626
▁eläy	-7627
▁ežin	-7628
▁habs	-7629
▁qoqä	-7630
▁royƛ	-7631
▁unti	-7632
▁yaƛʕ	-7633
▁Žung	-7634
axšizi	-7635
azader	-7636
ebozya	-7637
edagon	-7638
▁Riħox	-7639
▁Yizin	-7640
▁babiƛ	-7641
▁kusaq	-7642
▁narey	-7643
▁nełax	-7644
▁sissi	-7645
▁sossi	-7646
▁tukam	-7647
▁xizok	-7648
▁yaƛʕo	-7649
▁zaɣru	-7650
▁ħalad	-7651
▁ħonce	-7652
▁ħoyaƛ	-7653
▁ɣʕwad	-7654
algotow	-7655
ʕanogon	-7656
▁Budumä	-7657
▁Taxƛäz	-7658
▁adäzan	-7659
▁aħozix	-7660
▁boynäy	-7661
▁eɣenän	-7662
▁narčey	-7663
▁risnäy	-7664
▁tukamƛ	-7665
▁yišäsi	-7666
▁zahrun	-7667
▁šukrun	-7668
▁Žungut	-7669
anazader	-7670
aramałäz	-7671
esedagon	-7672
iłxanusi	-7673
▁Nesider	-7674
▁Qebozya	-7675
▁Riħoxaz	-7676
▁beynoyx	-7677
▁bittaza	-7678
▁bičanix	-7679
▁bokobin	-7680
▁boxärno	-7681
▁ičixosi	-7682
▁kecanix	-7683
▁royxanu	-7684
▁yiqiłin	-7685
▁łäyzaza	-7686
▁žazaqor	-7687
▁ɣʕwadbi	-7688
eynoyxosi	-7689
ešizaxozo	-7690
eƛxanuƛin	-7691
ikmałiłer	-7692
iranixgon	-7693
moƛxorgon	-7694
obolaytow	-7695
odyołäysi	-7696
oładyołer	-7697
urqʕotown	-7698
xanuwaƛin	-7699
abno	-7700
edyo	-7701
eker	-7702
ełas	-7703
mabi	-7704
urzo	-7705
xono	-7706
äsič	-7707
▁Buk	-7708
▁ata	-7709
▁hek	-7710
▁tut	-7711
Nełas	-7712
Xedyo	-7713
oxono	-7714
uħizi	-7715
▁elaƛ	-7716
▁igot	-7717
▁ruyä	-7718
alameł	-7719
▁Akbar	-7720
▁Debeł	-7721
▁Debeƛ	-7722
▁Miƛin	-7723
▁digon	-7724
▁däzoƛ	-7725
▁ečrił	-7726
▁puħon	-7727
▁qʕilo	-7728
▁räsič	-7729
▁sosit	-7730
▁tutur	-7731
▁xirno	-7732
▁łaces	-7733
irełinč	-7734
▁Akiƛer	-7735
▁Bukayx	-7736
▁Nedurä	-7737
▁Xexzaq	-7738
▁adabno	-7739
▁batiru	-7740
▁bikyos	-7741
▁imanno	-7742
▁išxosi	-7743
▁rułira	-7744
▁užitow	-7745
▁yayäru	-7746
▁yałzar	-7747
betaxtow	-7748
▁Bukayxa	-7749
▁Hemełaƛ	-7750
▁Qalameł	-7751
▁atiruni	-7752
▁bexurna	-7753
▁ersiƛin	-7754
▁guluƛay	-7755
▁nexxosi	-7756
▁risoƛin	-7757
▁sasaqay	-7758
▁tuturłi	-7759
▁ħaƛaƛin	-7760
äsianuƛin	-7761
ʕunaäƛiru	-7762
ʕunzontow	-7763
▁Adäztown	-7764
▁Assalama	-7765
▁Ayruntow	-7766
▁Aħmadƛin	-7767
▁Babiwrno	-7768
▁Bayzatow	-7769
▁Baħarayä	-7770
▁Bažarizi	-7771
▁Becurinč	-7772
▁Bikoride	-7773
▁Bitazoni	-7774
▁Bišadyoƛ	-7775
▁Bʕeƛägon	-7776
▁Cimyarno	-7777
▁Debertow	-7778
▁Diwanyoƛ	-7779
▁Doxturza	-7780
▁Eludegon	-7781
▁Enduräza	-7782
▁Eniyagon	-7783
▁Gulučini	-7784
▁Habihanƛ	-7785
▁Imxuxgon	-7786
▁Ixinabin	-7787
▁Kaɣatyoƛ	-7788
▁Kidbazał	-7789
▁Mamalayä	-7790
▁Moƛaxayn	-7791
▁Nediwtow	-7792
▁Nedurgon	-7793
▁Nesisgon	-7794
▁Netintow	-7795
▁Nełasgon	-7796
▁Oqnäyƛin	-7797
▁Osaxorno	-7798
▁Ozatawni	-7799
ayd	-7800
ała	-7801
enč	-7802
oxƛ	-7803
uka	-7804
ʕiƛ	-7805
▁At	-7806
▁cu	-7807
ayru	-7808
aħid	-7809
ałay	-7810
udoz	-7811
umoƛ	-7812
ways	-7813
xayn	-7814
▁Kik	-7815
▁yoč	-7816
▁žał	-7817
lałay	-7818
oƛała	-7819
xotow	-7820
▁bexw	-7821
▁caƛi	-7822
▁cugu	-7823
▁howł	-7824
▁meza	-7825
▁Žuka	-7826
aduraw	-7827
iriłno	-7828
iyoħor	-7829
ʕidaza	-7830
▁bežin	-7831
▁dowqo	-7832
▁esace	-7833
▁gibaq	-7834
▁qemas	-7835
▁rikin	-7836
▁ukrus	-7837
▁yexor	-7838
▁zudäy	-7839
▁ɣuden	-7840
▁ɣways	-7841
ʕoƛirsi	-7842
▁Ezuzaƛ	-7843
▁Kikxor	-7844
▁aħirno	-7845
▁besura	-7846
▁bitoxƛ	-7847
▁caƛiza	-7848
▁dowƛer	-7849
▁howłaq	-7850
▁imxayn	-7851
▁käczar	-7852
▁ozäɣor	-7853
▁pikruƛ	-7854
▁rešoni	-7855
▁rikinä	-7856
▁rizäsi	-7857
▁rutinč	-7858
▁zawzay	-7859
▁šayxno	-7860
aqʕułenč	-7861
warʕaraw	-7862
▁Yiłagon	-7863
▁askarno	-7864
▁ašuƛayd	-7865
▁bexwayn	-7866
▁eqäruni	-7867
▁exurnäy	-7868
▁howloza	-7869
▁kawumoz	-7870
▁mezałin	-7871
▁muradno	-7872
▁nexełno	-7873
▁risxozo	-7874
▁ħaduraw	-7875
▁ħaltown	-7876
▁ʕAƛoxor	-7877
Yaqʕułenč	-7878
▁Ozurazaq	-7879
▁Oƛixatow	-7880
▁Qʕišodes	-7881
▁Ramazanä	-7882
▁Raħäruni	-7883
▁Ričiƛƛin	-7884
▁Saparyox	-7885
▁Sasiłace	-7886
▁Sasiłzaƛ	-7887
▁Sebixaza	-7888
▁Suƛƛitow	-7889
▁Umukusez	-7890
▁Umukusno	-7891
▁Xexoyzas	-7892
▁Xexzaqno	-7893
▁Xizazgon	-7894
▁Yaqʕułno	-7895
▁Yaqʕułƛa	-7896
▁Yałzatow	-7897
▁Yisisgon	-7898
▁Yiziqgon	-7899
eka	-7900
šun	-7901
▁qo	-7902
arad	-7903
aɣaw	-7904
gonä	-7905
imoł	-7906
ngon	-7907
odix	-7908
orek	-7909
yoza	-7910
▁Mow	-7911
▁qoš	-7912
▁qul	-7913
▁yaɣ	-7914
▁äƛi	-7915
▁łar	-7916
argon	-7917
aryos	-7918
aƛƛin	-7919
esgon	-7920
eygon	-7921
oxnäy	-7922
yogon	-7923
šanix	-7924
▁Ader	-7925
▁ayza	-7926
▁aɣʕn	-7927
▁buɣa	-7928
▁gali	-7929
▁osiy	-7930
▁oƛƛo	-7931
▁yʕoƛ	-7932
▁ɣudä	-7933
amanat	-7934
aradam	-7935
arašaw	-7936
haryos	-7937
ilimoł	-7938
ulaɣor	-7939
utirno	-7940
ʕidasi	-7941
▁Daɣaw	-7942
▁Hudäy	-7943
▁Kinaw	-7944
▁Rečuƛ	-7945
▁ašuni	-7946
▁aɣʕnä	-7947
▁codix	-7948
▁neład	-7949
▁quluq	-7950
▁riƛin	-7951
▁rošun	-7952
▁zebun	-7953
▁šudał	-7954
aradamu	-7955
bišanix	-7956
tutirno	-7957
łarašaw	-7958
ʕidarno	-7959
▁Hudäyz	-7960
▁amanat	-7961
▁axorek	-7962
▁caxäsi	-7963
▁naƛƛin	-7964
▁nexzaƛ	-7965
▁riħunč	-7966
▁yaɣrus	-7967
▁ʕoƛnot	-7968
▁Hulaɣor	-7969
▁egäruni	-7970
▁eluqgon	-7971
▁encekin	-7972
▁icisƛin	-7973
▁mišayat	-7974
▁nesäƛin	-7975
▁raqruce	-7976
▁roqxanu	-7977
▁yizizaƛ	-7978
▁äruntow	-7979
ayxosiƛin	-7980
▁Hudäyzik	-7981
▁Xedyosni	-7982
▁Yizirabi	-7983
▁Yoƛozoni	-7984
▁acmoqosi	-7985
▁anuwaƛin	-7986
▁assalamu	-7987
▁ayäsiƛin	-7988
▁azbaryan	-7989
▁azbaryoz	-7990
▁azbaryoł	-7991
▁azirodoƛ	-7992
▁aħinoƛno	-7993
▁aħoderno	-7994
▁aħozizar	-7995
▁babiwzno	-7996
▁badinƛin	-7997
▁badiruce	-7998
▁badiruni	-7999
eys	-8000
eyƛ	-8001
iey	-8002
taw	-8003
zey	-8004
iney	-8005
išno	-8006
orut	-8007
towl	-8008
ärur	-8009
▁Riƛ	-8010
▁buy	-8011
▁ruq	-8012
▁taw	-8013
▁yak	-8014
▁łeł	-8015
▁ɣoq	-8016
diƛin	-8017
iqoyä	-8018
orabi	-8019
ʕorut	-8020
▁Riƛu	-8021
▁ažru	-8022
▁meys	-8023
azaqor	-8024
azaƛin	-8025
iqorno	-8026
unosin	-8027
zasƛin	-8028
ʕuruni	-8029
▁Elzox	-8030
▁Maħix	-8031
▁Rišno	-8032
▁dowzo	-8033
▁esayn	-8034
▁siden	-8035
▁sideł	-8036
▁tawak	-8037
▁uyran	-8038
▁yizix	-8039
▁žasno	-8040
iyantaw	-8041
▁Istowl	-8042
▁Telawä	-8043
▁dandix	-8044
▁nexzey	-8045
▁neƛani	-8046
▁näxinč	-8047
▁riszaƛ	-8048
▁ruqäsi	-8049
▁sidenä	-8050
▁yayzaƛ	-8051
▁ƛʕebał	-8052
alazaqor	-8053
aƛuxozox	-8054
orolaqor	-8055
ʕutkaɣor	-8056
▁baynƛin	-8057
▁bukaran	-8058
▁buytown	-8059
▁eƛintow	-8060
▁muhuzaƛ	-8061
▁nesizno	-8062
▁rutiran	-8063
▁sipatno	-8064
▁tawakal	-8065
▁teqärur	-8066
▁čamalig	-8067
▁šiširsi	-8068
ebelawzas	-8069
▁Hemełtow	-8070
▁Hunixozo	-8071
▁Wʕałzoni	-8072
▁adäzagon	-8073
▁bahadurä	-8074
▁batiruni	-8075
▁bayoƛƛin	-8076
▁bayrnosi	-8077
▁bayrxosi	-8078
▁bazaryar	-8079
▁baħarawx	-8080
▁baħarčiq	-8081
▁baħarčir	-8082
▁baħarčis	-8083
▁baħarčix	-8084
▁bašiłgon	-8085
▁bažarizi	-8086
▁becunosi	-8087
▁begirnäy	-8088
▁begirzaƛ	-8089
▁besuroqu	-8090
▁bexaruni	-8091
▁bexuräsi	-8092
▁bexusƛin	-8093
▁bečnazaƛ	-8094
▁beɣusƛin	-8095
▁biqirinč	-8096
▁biqiräsi	-8097
▁bissiƛin	-8098
▁bisxoƛin	-8099
ʕɣ	-8100
alʕ	-8101
kal	-8102
oka	-8103
očo	-8104
oƛo	-8105
oʕɣ	-8106
uht	-8107
▁ʕE	-8108
onax	-8109
osni	-8110
ozoƛ	-8111
yoce	-8112
▁Oka	-8113
▁ayr	-8114
▁oɣƛ	-8115
▁oʕɣ	-8116
▁šar	-8117
▁šay	-8118
▁šid	-8119
▁ʕEz	-8120
▁ʕor	-8121
▁ʕur	-8122
dagin	-8123
edizi	-8124
nitow	-8125
notow	-8126
oƛočo	-8127
uhtan	-8128
uinaw	-8129
ʕidat	-8130
▁Hoka	-8131
▁erxo	-8132
▁šayt	-8133
▁ʕEze	-8134
▁ʕorƛ	-8135
▁ʕurq	-8136
edosni	-8137
ełimay	-8138
nantow	-8139
urambi	-8140
uratow	-8141
ʕuyasi	-8142
▁Kusan	-8143
▁Mežur	-8144
▁Qʕaba	-8145
▁bayär	-8146
▁ozzał	-8147
▁rayno	-8148
▁teƛan	-8149
▁waħħo	-8150
▁łinan	-8151
▁łinas	-8152
▁žaxno	-8153
alʕizin	-8154
ardagin	-8155
▁Sisini	-8156
▁bownäy	-8157
▁buhtan	-8158
▁gegmus	-8159
▁hedizi	-8160
▁huinaw	-8161
▁kurzaƛ	-8162
▁oʕɣqay	-8163
▁šarʕim	-8164
▁šidqay	-8165
▁žarƛin	-8166
exuratow	-8167
išatyoce	-8168
▁Hisonax	-8169
▁Suƛƛisi	-8170
▁aždaħez	-8171
▁bełiqun	-8172
▁biguƛin	-8173
▁didurey	-8174
▁kwarkal	-8175
▁mečołno	-8176
▁nesiłäy	-8177
▁rełimay	-8178
▁riynosi	-8179
▁ročyabi	-8180
▁seroƛin	-8181
▁ħažoƛin	-8182
▁łeɣaniƛ	-8183
▁žežuqay	-8184
▁bečedawn	-8185
▁bitirnäy	-8186
▁bitirxot	-8187
▁biyranix	-8188
▁bizanƛin	-8189
▁bizixƛax	-8190
▁bičärƛin	-8191
▁biħanayx	-8192
▁biħanayƛ	-8193
▁biħusƛin	-8194
▁biłetown	-8195
▁biłäsiwa	-8196
▁bišroƛin	-8197
▁bižanƛin	-8198
▁biƛixosi	-8199
emä	-8200
nos	-8201
ʕaž	-8202
▁Ya	-8203
awar	-8204
ezno	-8205
imoz	-8206
inon	-8207
iqun	-8208
oxoƛ	-8209
yasi	-8210
▁Hoq	-8211
▁Xab	-8212
▁nec	-8213
▁piš	-8214
▁łan	-8215
▁ɣod	-8216
yoder	-8217
ʕažun	-8218
ʕuyaz	-8219
▁Roƛƛ	-8220
▁ayxa	-8221
▁bayƛ	-8222
▁cemä	-8223
▁moła	-8224
▁nesa	-8225
▁piša	-8226
bintow	-8227
osigon	-8228
ɣanƛin	-8229
▁Xabar	-8230
▁bokor	-8231
▁weeni	-8232
▁äƛino	-8233
▁ɣodos	-8234
imozgon	-8235
wadanix	-8236
ʕuyazis	-8237
▁Ciqqay	-8238
▁butnos	-8239
▁iyxosi	-8240
▁kidtow	-8241
▁raħira	-8242
▁täqrun	-8243
▁yexora	-8244
▁yäsuru	-8245
▁zeygon	-8246
▁ƛexand	-8247
▁ɣutkoƛ	-8248
▁caxxosi	-8249
▁eƛinanu	-8250
▁mežurno	-8251
▁saparno	-8252
▁yayäƛin	-8253
▁łiyxosi	-8254
▁žanawar	-8255
▁Nesiztow	-8256
▁bečedawt	-8257
▁bodalini	-8258
▁boqanƛin	-8259
▁boqoƛƛin	-8260
▁boqsiƛax	-8261
▁boqxoƛax	-8262
▁boƛäxrun	-8263
▁budumqor	-8264
▁bukarera	-8265
▁bukayłin	-8266
▁butirƛin	-8267
▁butniƛin	-8268
▁bäxuruni	-8269
▁bäzirubi	-8270
▁bʕulamed	-8271
▁caxnoƛin	-8272
▁caƛinanu	-8273
▁caƛinƛin	-8274
▁caƛiruni	-8275
▁caƛixƛin	-8276
▁cezyazno	-8277
▁ciqaɣort	-8278
▁ciqełxor	-8279
▁ciqqorno	-8280
▁ciqqoƛin	-8281
▁cucixace	-8282
▁cucixäsi	-8283
▁dahawcen	-8284
▁dandixoƛ	-8285
▁daqorƛin	-8286
▁darsimoƛ	-8287
▁daruyabi	-8288
▁daʕbaƛin	-8289
▁debeqkin	-8290
▁didiwgon	-8291
▁didiwkin	-8292
▁dowderno	-8293
▁dowzoniƛ	-8294
▁doxturqo	-8295
▁doxturän	-8296
▁dunyales	-8297
▁dädertow	-8298
▁däderƛin	-8299
ano	-8300
azä	-8301
šan	-8302
šru	-8303
▁qu	-8304
aday	-8305
oqus	-8306
ruce	-8307
uruq	-8308
▁Aħy	-8309
▁Kec	-8310
▁Tam	-8311
▁Yez	-8312
▁coł	-8313
▁owa	-8314
iħono	-8315
owƛin	-8316
oyƛin	-8317
utnoƛ	-8318
utyos	-8319
▁Aħos	-8320
▁Sidƛ	-8321
▁madä	-8322
▁misi	-8323
▁neƛƛ	-8324
alisno	-8325
arawgo	-8326
yortow	-8327
▁Aħyaq	-8328
▁Moƛaq	-8329
▁Tamaš	-8330
▁Yiłaz	-8331
▁Yišan	-8332
▁bexad	-8333
▁bisan	-8334
▁bäšru	-8335
▁cigon	-8336
▁däłäy	-8337
▁madär	-8338
▁zeyes	-8339
▁čanmo	-8340
▁ħamay	-8341
▁łoxno	-8342
▁žatow	-8343
▁ɣedun	-8344
▁ʕarza	-8345
▁Akiłno	-8346
▁Butnoƛ	-8347
▁Tamaša	-8348
▁axukin	-8349
▁barude	-8350
▁eladay	-8351
▁esäƛin	-8352
▁ganbin	-8353
▁giħono	-8354
▁yisäsi	-8355
▁Kecnosi	-8356
▁Kidbazä	-8357
▁bexursi	-8358
▁cołizin	-8359
▁elurƛin	-8360
▁esiyqor	-8361
▁eƛinłin	-8362
▁misikin	-8363
▁oqanƛin	-8364
▁raxiƛin	-8365
▁sabaniƛ	-8366
▁siderno	-8367
▁xäciƛin	-8368
▁yexunäy	-8369
▁yiłałno	-8370
▁yoqacen	-8371
▁yäsruce	-8372
▁ƛexuzaƛ	-8373
▁Babiwqay	-8374
▁Yezunosi	-8375
▁aždaħqor	-8376
▁daʕbałer	-8377
▁egirerno	-8378
▁elozagon	-8379
▁eludeƛin	-8380
▁endurtow	-8381
▁eniwqayn	-8382
▁eqernosi	-8383
▁esaniqno	-8384
▁esiräƛin	-8385
▁etalisno	-8386
▁exasiƛin	-8387
▁ezuranix	-8388
▁ezurerno	-8389
▁gedmoqay	-8390
▁gondaɣor	-8391
▁gugirzaƛ	-8392
▁gugixƛin	-8393
▁gulučini	-8394
▁gwanɣizi	-8395
▁habihand	-8396
▁habsaʕat	-8397
▁haqarƛin	-8398
▁henešyos	-8399
Mi	-8400
ɣu	-8401
ald	-8402
ema	-8403
noł	-8404
rsi	-8405
šiƛ	-8406
▁em	-8407
▁it	-8408
ecač	-8409
orsi	-8410
oyaw	-8411
udan	-8412
▁Hal	-8413
▁Xot	-8414
▁rir	-8415
aldat	-8416
anqor	-8417
imasi	-8418
masno	-8419
oyode	-8420
ukyoł	-8421
▁Ešiƛ	-8422
▁Meɣu	-8423
▁Qema	-8424
▁awar	-8425
▁emad	-8426
▁itix	-8427
▁oqač	-8428
▁oqčo	-8429
▁riža	-8430
▁yoys	-8431
agoyaw	-8432
aziyaw	-8433
irersi	-8434
▁Kusax	-8435
▁Xecač	-8436
▁aɣzaq	-8437
▁becin	-8438
▁bužin	-8439
▁iqinč	-8440
▁lagis	-8441
▁riris	-8442
▁ruɣuƛ	-8443
▁yoƛƛi	-8444
▁łacez	-8445
▁łäsno	-8446
aldatbi	-8447
aqaɣort	-8448
▁Halmaɣ	-8449
▁Nełqay	-8450
▁awarag	-8451
▁emadun	-8452
▁kwayär	-8453
▁rečnoł	-8454
▁zigari	-8455
▁čantay	-8456
▁Kusaxno	-8457
▁acxazay	-8458
▁boqxanu	-8459
▁hadambi	-8460
▁mežärsi	-8461
▁micxirä	-8462
▁oreznar	-8463
▁qʕašdes	-8464
▁raziyaw	-8465
▁resatow	-8466
▁tamadaq	-8467
▁yiyxosi	-8468
▁yičäƛin	-8469
▁yiłagon	-8470
▁zawrułi	-8471
▁äɣurułi	-8472
▁Łinaqey	-8473
▁Halmaɣza	-8474
▁Muħamadä	-8475
▁awarager	-8476
▁baɣʕizaƛ	-8477
▁gugisƛin	-8478
▁howdagon	-8479
▁howzałäy	-8480
▁hunaryos	-8481
▁igozatow	-8482
▁istowliƛ	-8483
▁iyxanusi	-8484
▁ičixozoł	-8485
▁iħuxaɣor	-8486
▁iħuxorno	-8487
▁iłäsiƛin	-8488
▁išanixno	-8489
▁kamirinč	-8490
▁kapekkin	-8491
▁kidbazaq	-8492
▁kidbazas	-8493
▁kidbazaƛ	-8494
▁kidbeden	-8495
▁kidbezno	-8496
▁kidbeƛäy	-8497
▁kikxaɣor	-8498
▁kinawtow	-8499
zä	-8500
uky	-8501
ulä	-8502
žek	-8503
ašin	-8504
iwzä	-8505
urez	-8506
urqo	-8507
▁Hut	-8508
▁Nex	-8509
▁eza	-8510
▁gaƛ	-8511
▁mox	-8512
▁när	-8513
▁räy	-8514
▁ɣez	-8515
▁ɣut	-8516
irłin	-8517
iƛxor	-8518
ʕazaƛ	-8519
▁igix	-8520
▁iħuq	-8521
▁äsin	-8522
alašin	-8523
umerno	-8524
zaytow	-8525
▁Acxor	-8526
▁asazo	-8527
▁becän	-8528
▁hobol	-8529
▁kwayä	-8530
▁moxon	-8531
▁Žeduz	-8532
aƛʕanix	-8533
ranixno	-8534
ukyorno	-8535
▁Babiwq	-8536
▁aderzo	-8537
▁biyzaƛ	-8538
▁hobolo	-8539
▁mekwan	-8540
▁qʕaƛis	-8541
▁riyäsi	-8542
▁roynon	-8543
▁ziruyä	-8544
▁čarman	-8545
▁žukzar	-8546
▁ƛirbar	-8547
arašawni	-8548
▁boxinäy	-8549
▁hokožek	-8550
▁humerno	-8551
▁lalašin	-8552
▁muhukin	-8553
▁oƛixzaƛ	-8554
▁rodinon	-8555
▁äsinƛin	-8556
▁ɣoɣoräk	-8557
▁ɣʕwaybi	-8558
▁Bercingo	-8559
▁Boƛƛäɣor	-8560
▁Nexanƛin	-8561
▁baħarayƛ	-8562
▁bičirłin	-8563
▁bukarƛin	-8564
▁cedinƛax	-8565
▁didurtow	-8566
▁habihanä	-8567
▁huniƛxor	-8568
▁kičuriču	-8569
▁kursiƛin	-8570
▁kwaraħid	-8571
▁kwaraħin	-8572
▁käkirułi	-8573
▁lagiłƛin	-8574
▁lamusyoq	-8575
▁madargon	-8576
▁madaxosi	-8577
▁madaxtow	-8578
▁makruƛin	-8579
▁mamalayz	-8580
▁mamalaył	-8581
▁manzilno	-8582
▁maqʕixno	-8583
▁maxsarno	-8584
▁maxšelno	-8585
▁maydanzo	-8586
▁maħlarno	-8587
▁maħlazay	-8588
▁maʕdinay	-8589
▁maʕnatow	-8590
▁mecrexor	-8591
▁mesedyoz	-8592
▁mešorłäy	-8593
▁mežustow	-8594
▁mežusƛin	-8595
▁močitown	-8596
▁mołixosi	-8597
▁mołixozo	-8598
▁moƛałtow	-8599
yoc	-8600
alin	-8601
axza	-8602
ašiq	-8603
iday	-8604
iqeq	-8605
iraq	-8606
udaƛ	-8607
uqan	-8608
žiru	-8609
▁New	-8610
ekayä	-8611
inkin	-8612
iraqa	-8613
laƛin	-8614
manaw	-8615
nixno	-8616
rakin	-8617
yocet	-8618
ʕinäy	-8619
▁Nasi	-8620
▁Roƛo	-8621
▁beqä	-8622
▁iyač	-8623
▁roƛo	-8624
▁zeyq	-8625
▁äƛiz	-8626
alamzo	-8627
ositow	-8628
osiƛin	-8629
yrakin	-8630
▁Qʕayä	-8631
▁beroz	-8632
▁bisxo	-8633
▁biłin	-8634
▁hawan	-8635
▁qurun	-8636
▁ragis	-8637
▁rižun	-8638
▁Šudaƛ	-8639
▁ʕašiq	-8640
cinoƛin	-8641
edanayx	-8642
irisini	-8643
uqanbin	-8644
urmanaw	-8645
yacegon	-8646
▁Newoza	-8647
▁baɣmay	-8648
▁bäžiru	-8649
▁däxtow	-8650
▁ezanix	-8651
▁igorsi	-8652
▁ičinäy	-8653
▁ičiqeq	-8654
▁qemayä	-8655
▁užigon	-8656
▁yisinč	-8657
▁yukada	-8658
edixozos	-8659
uħarawni	-8660
▁Režigon	-8661
▁boƛaxza	-8662
▁boɣnosi	-8663
▁bäziƛin	-8664
▁esnazaz	-8665
▁guluƛno	-8666
▁kerozaq	-8667
▁moƛałäy	-8668
▁muhruza	-8669
▁oɣanƛin	-8670
▁qazaqza	-8671
▁äƛizayn	-8672
Bahadurzo	-8673
usurmanaw	-8674
▁Mirzaƛin	-8675
▁Sasaqaza	-8676
▁Sebixasi	-8677
▁Wallaƛin	-8678
▁Yoƛosini	-8679
▁bašiłäyn	-8680
▁kuckinwa	-8681
▁muʕalimä	-8682
▁naysinän	-8683
▁nedugani	-8684
▁netayrce	-8685
▁nexnogon	-8686
▁nexxoƛax	-8687
▁nełasƛin	-8688
▁nełałtow	-8689
▁nełdaɣor	-8690
▁nełdegon	-8691
▁nełzaqay	-8692
▁neƛxoƛax	-8693
▁neƛłikin	-8694
▁nigaɣʕič	-8695
▁nucosgon	-8696
▁nukarzaq	-8697
▁nukarzar	-8698
▁nukarzas	-8699
reł	-8700
ʕxo	-8701
▁eɣ	-8702
dada	-8703
eƛin	-8704
idäy	-8705
oyoƛ	-8706
xƛin	-8707
ʕlun	-8708
▁Ist	-8709
▁ban	-8710
▁bas	-8711
lotow	-8712
owtow	-8713
oxira	-8714
▁Elin	-8715
▁raɣä	-8716
▁yiyn	-8717
etinäy	-8718
lotown	-8719
snoƛin	-8720
▁Aɣzas	-8721
▁Zozis	-8722
▁bʕula	-8723
▁duʕan	-8724
▁kikoƛ	-8725
▁rułir	-8726
▁ħonbi	-8727
▁žedux	-8728
ahowtow	-8729
▁Guluza	-8730
▁Radiru	-8731
▁ažomzo	-8732
▁basada	-8733
▁biguni	-8734
▁caƛäsi	-8735
▁egiran	-8736
▁eɣurno	-8737
▁oynƛax	-8738
▁roxira	-8739
▁royzaƛ	-8740
▁roƛnin	-8741
▁zawruƛ	-8742
▁šudbin	-8743
▁ʕAdada	-8744
owlotown	-8745
▁Mečołer	-8746
▁Retinäy	-8747
▁asoƛxor	-8748
▁ačqʕayx	-8749
▁boqacet	-8750
▁eniwsni	-8751
▁esiwqno	-8752
▁maħasin	-8753
▁ozzałäy	-8754
▁partalq	-8755
▁radirur	-8756
▁soderno	-8757
▁yizidäy	-8758
▁ħoyäɣor	-8759
▁łiyxƛin	-8760
▁šudaxor	-8761
edanixƛin	-8762
▁Dahowtow	-8763
▁aždaħqay	-8764
▁babiwqno	-8765
▁boyrerno	-8766
▁henešƛin	-8767
▁hohomłix	-8768
▁kidbeqno	-8769
▁maʕdinaw	-8770
▁muradƛin	-8771
▁musrabin	-8772
▁nesirƛin	-8773
▁nukarłun	-8774
▁oqnäyƛin	-8775
▁oreznabi	-8776
▁osaxorno	-8777
▁oynäyƛin	-8778
▁ozurazaq	-8779
▁ozyortow	-8780
▁oƛƛosini	-8781
▁pakmosni	-8782
▁pandurya	-8783
▁pardagix	-8784
▁partalno	-8785
▁pašmanno	-8786
▁pečmaɣor	-8787
▁pikrazał	-8788
▁pikrukin	-8789
▁pikruzał	-8790
▁putcegon	-8791
▁pʕoƛirsi	-8792
▁qacisgon	-8793
▁qizanyor	-8794
▁qizanyos	-8795
▁qoqƛäƛin	-8796
▁qʕabaniƛ	-8797
▁qʕaƛoƛin	-8798
▁qʕišodäy	-8799
aht	-8800
biħ	-8801
irƛ	-8802
owt	-8803
▁Oš	-8804
anno	-8805
arza	-8806
ukya	-8807
łace	-8808
▁Cek	-8809
▁Mix	-8810
▁Ošk	-8811
▁nan	-8812
▁Ħib	-8813
▁Šeƛ	-8814
ilłin	-8815
urqor	-8816
urubi	-8817
▁Ozno	-8818
▁Xanƛ	-8819
▁mowt	-8820
▁raht	-8821
▁yäži	-8822
▁łono	-8823
arizin	-8824
aynkin	-8825
biħyoƛ	-8826
omexno	-8827
orabin	-8828
uranix	-8829
ʕiryoƛ	-8830
ʕułäsi	-8831
▁Hudod	-8832
▁Waħħo	-8833
▁Yežen	-8834
▁igono	-8835
▁išara	-8836
▁maħla	-8837
▁mežas	-8838
▁mežux	-8839
▁oxirƛ	-8840
▁xecan	-8841
▁äziru	-8842
▁Ħibaƛ	-8843
▁łonon	-8844
▁šomon	-8845
▁Žedaƛ	-8846
▁ʕabas	-8847
aqʕułno	-8848
waridaw	-8849
▁Babiwł	-8850
▁Elorno	-8851
▁aƛirun	-8852
▁bäciru	-8853
▁dowxor	-8854
▁izäsin	-8855
▁iħułer	-8856
▁kecnäy	-8857
▁purłäz	-8858
▁xanƛin	-8859
▁yezunč	-8860
▁yizade	-8861
▁zirude	-8862
▁ħurubi	-8863
▁ʕabasä	-8864
aganiłno	-8865
biħyoƛäy	-8866
waridƛin	-8867
▁Yeženir	-8868
▁Ziragon	-8869
▁balahno	-8870
▁naynkin	-8871
▁resułin	-8872
▁xexzade	-8873
▁yaqruni	-8874
▁yizäƛin	-8875
▁yodinäy	-8876
▁ɣʕutkay	-8877
▁ɣʕwačni	-8878
▁ʕagarłä	-8879
▁Maryames	-8880
▁Yaqʕułäy	-8881
▁esuranix	-8882
▁hunaryoƛ	-8883
▁ozurazaƛ	-8884
▁purłäzan	-8885
▁qʕodreza	-8886
▁radinƛin	-8887
▁raqʕanix	-8888
▁rayrerno	-8889
▁rayrułäy	-8890
▁rayrxosi	-8891
▁raħatyoƛ	-8892
▁raħiräsi	-8893
▁raɣʕoƛin	-8894
▁rekarbin	-8895
▁reqenyoł	-8896
▁retixanu	-8897
▁rexałxor	-8898
▁rexorani	-8899
eno	-8900
idu	-8901
uga	-8902
▁Na	-8903
anza	-8904
ałxo	-8905
okin	-8906
oqun	-8907
oris	-8908
ärza	-8909
▁iza	-8910
▁naħ	-8911
▁ħuł	-8912
axinč	-8913
idƛin	-8914
ukgon	-8915
▁Yayn	-8916
▁akiq	-8917
▁exux	-8918
▁lidu	-8919
▁meka	-8920
▁ocär	-8921
▁rodä	-8922
▁sera	-8923
▁Łeno	-8924
ilawni	-8925
iyorno	-8926
wanƛin	-8927
ʕinosi	-8928
▁Digon	-8929
▁Siden	-8930
▁Walah	-8931
▁anuzo	-8932
▁aħoyä	-8933
▁biqis	-8934
▁eƛiłi	-8935
▁naħuz	-8936
▁regix	-8937
▁teƛxa	-8938
▁yowan	-8939
▁ƛelez	-8940
arnoƛin	-8941
ukyabin	-8942
umzałäy	-8943
▁Kidbes	-8944
▁ašiłno	-8945
▁eqärza	-8946
▁esuzaƛ	-8947
▁howlor	-8948
▁isałxo	-8949
▁išanix	-8950
▁ižanir	-8951
▁mecreq	-8952
▁regäru	-8953
▁xanbin	-8954
▁yičinč	-8955
▁čerayx	-8956
ʕaniƛäyn	-8957
▁Baħarčä	-8958
▁aɣʕuroƛ	-8959
▁bayanix	-8960
▁baħirno	-8961
▁elurtow	-8962
▁yawruni	-8963
▁yičinäy	-8964
▁łiłiroł	-8965
▁Šebigon	-8966
▁ɣudełno	-8967
oynosigon	-8968
▁Aħmadqor	-8969
▁besanƛin	-8970
▁kamiruni	-8971
▁karnoƛin	-8972
▁mamalays	-8973
▁nełałgon	-8974
▁rexunƛin	-8975
▁rexurnäy	-8976
▁rezunosi	-8977
▁rezurinč	-8978
▁rečuƛgon	-8979
▁rešonaza	-8980
▁ricanƛin	-8981
▁riqinanu	-8982
▁riqinosi	-8983
▁rixintow	-8984
▁riynoxuq	-8985
▁riyranix	-8986
▁ričanƛin	-8987
▁ričiƛƛin	-8988
▁riħinosi	-8989
▁riłiqosi	-8990
▁rišerłin	-8991
▁rižanƛin	-8992
▁rižixosi	-8993
▁rižixƛin	-8994
▁riƛixoza	-8995
▁riƛixozo	-8996
▁rodisƛin	-8997
▁rodixanu	-8998
▁rodixosi	-8999
bok	-9000
eqa	-9001
erƛ	-9002
goƛ	-9003
izo	-9004
qon	-9005
xow	-9006
yon	-9007
▁ba	-9008
▁Že	-9009
adno	-9010
ašid	-9011
elun	-9012
ewno	-9013
ezni	-9014
idno	-9015
idoq	-9016
oraq	-9017
oyäy	-9018
urad	-9019
ureł	-9020
warʕ	-9021
ʕunƛ	-9022
▁bax	-9023
▁boč	-9024
▁čok	-9025
bašid	-9026
daxor	-9027
eryon	-9028
zaxar	-9029
▁Bʕał	-9030
▁ayär	-9031
▁ažoq	-9032
▁ažoz	-9033
▁qeqa	-9034
anigon	-9035
azayzo	-9036
eynoda	-9037
icazał	-9038
mʕalay	-9039
oqadno	-9040
warʕel	-9041
ʕimqon	-9042
▁Iłnon	-9043
▁Murad	-9044
▁Roƛik	-9045
▁Zewno	-9046
▁iħurƛ	-9047
▁oqnon	-9048
▁pelun	-9049
▁reƛiƛ	-9050
▁rodix	-9051
▁yitin	-9052
▁yuyoƛ	-9053
▁Ħoyäy	-9054
▁łiƛin	-9055
▁ʕamal	-9056
bitowwa	-9057
xowaƛin	-9058
äɣorƛin	-9059
▁Bʕałno	-9060
▁adäzoƛ	-9061
▁bisxot	-9062
▁bäxuru	-9063
▁ciqzaq	-9064
▁eqräsi	-9065
▁kecnon	-9066
▁qʕašin	-9067
▁rišerƛ	-9068
▁yoqnäy	-9069
▁žiƛbon	-9070
alamezni	-9071
▁Beynoda	-9072
▁besuros	-9073
▁bexaniƛ	-9074
▁bezanix	-9075
▁bokorno	-9076
▁ixdaxor	-9077
▁maqʕizo	-9078
▁mežaƛin	-9079
▁mežudäy	-9080
▁mučaris	-9081
▁qʕaysno	-9082
▁raħirxo	-9083
▁riłixor	-9084
▁sodersi	-9085
▁yecurno	-9086
▁yexuran	-9087
▁yiynanu	-9088
▁Žedaxay	-9089
▁žedaqay	-9090
odäɣorƛin	-9091
warʕelyoƛ	-9092
▁Assalamu	-9093
▁Howžigoƛ	-9094
▁Zewnoƛax	-9095
▁rečuƛxor	-9096
▁roqanƛin	-9097
▁roqnoƛax	-9098
▁roqxaƛin	-9099
imä	-9100
uba	-9101
ʕus	-9102
adar	-9103
etra	-9104
eƛno	-9105
irik	-9106
uħqo	-9107
▁Biƛ	-9108
▁Oku	-9109
▁Ħaš	-9110
oqzaƛ	-9111
yozaƛ	-9112
łacen	-9113
ʕakin	-9114
▁Biša	-9115
▁Doxt	-9116
▁Xant	-9117
▁baył	-9118
▁hoka	-9119
▁idäy	-9120
▁łiys	-9121
▁ʕIšq	-9122
ometra	-9123
ulaʕin	-9124
▁Reƛno	-9125
▁bacin	-9126
▁bayno	-9127
▁bixiq	-9128
▁rowan	-9129
▁rožes	-9130
▁yawno	-9131
▁ħuħqo	-9132
▁Babiwr	-9133
▁Biƛira	-9134
▁Xantuz	-9135
▁Yoqzaƛ	-9136
▁bexunč	-9137
▁bičira	-9138
▁eloƛin	-9139
▁esizaƛ	-9140
▁esursi	-9141
▁imadun	-9142
▁reženi	-9143
▁užiqay	-9144
▁yoɣäsi	-9145
▁Ħaširu	-9146
▁ʕadada	-9147
ilometra	-9148
oƛäyrcen	-9149
▁Boržizi	-9150
▁bayxanu	-9151
▁bičiłin	-9152
▁boxäƛin	-9153
▁boƛäxru	-9154
▁boɣnayx	-9155
▁dibirqo	-9156
▁esinanu	-9157
▁hokobin	-9158
▁kurerno	-9159
▁nukarqo	-9160
▁qʕaƛuma	-9161
▁rownosi	-9162
▁roɣełno	-9163
▁yiyxƛin	-9164
▁ħaƛurno	-9165
aɣʕiryabi	-9166
▁Bełiquza	-9167
▁Doxturno	-9168
▁akiłäsin	-9169
▁babiwgon	-9170
▁baynosin	-9171
▁bayłxanu	-9172
▁baħarayz	-9173
▁mešinƛin	-9174
▁roƛixace	-9175
▁roƛixnäy	-9176
▁roƛnoxut	-9177
▁roɣanƛin	-9178
▁roɣrerno	-9179
▁roɣxosin	-9180
▁rukaräsi	-9181
▁rukayxow	-9182
▁rukayzay	-9183
▁rukayƛin	-9184
▁rutirzaƛ	-9185
▁rutäruni	-9186
▁räqiruni	-9187
▁räsnoƛin	-9188
▁räsrułäy	-9189
▁sabawłun	-9190
▁sadaqgon	-9191
▁salamƛin	-9192
▁saldatbi	-9193
▁sasaqort	-9194
▁sasugani	-9195
▁saɣyatno	-9196
▁sidadäza	-9197
▁sidderno	-9198
▁soderƛin	-9199
luƛ	-9200
mač	-9201
omi	-9202
uƛa	-9203
wat	-9204
▁äq	-9205
cewa	-9206
ozay	-9207
umiƛ	-9208
unoq	-9209
uƛax	-9210
▁buł	-9211
▁xir	-9212
▁yag	-9213
▁Šom	-9214
kodin	-9215
▁Elon	-9216
▁Nełq	-9217
▁izis	-9218
▁iħiq	-9219
▁riqa	-9220
▁räxu	-9221
▁xomi	-9222
▁łuƛa	-9223
ašunoq	-9224
ilisno	-9225
iruxor	-9226
▁ičira	-9227
▁tełno	-9228
▁ukada	-9229
▁xecač	-9230
▁yoƛäk	-9231
▁łoħra	-9232
▁Šomon	-9233
aširuni	-9234
iłxoƛin	-9235
odinosi	-9236
▁Adäzar	-9237
▁Okuƛin	-9238
▁Sidadä	-9239
▁ayrinč	-9240
▁baɣinč	-9241
▁biqirƛ	-9242
▁ciqbin	-9243
▁daʕbał	-9244
▁elozay	-9245
▁gelmač	-9246
▁rätiza	-9247
▁ukayza	-9248
▁xalmoƛ	-9249
▁yiłqay	-9250
▁äqiƛin	-9251
▁łʕorän	-9252
▁Šebiƛa	-9253
▁šebint	-9254
▁šomoƛa	-9255
▁ƛelzas	-9256
▁ƛexunč	-9257
▁ʕOmoyä	-9258
ʕiłxoƛin	-9259
▁Eniwrno	-9260
▁betinäy	-9261
▁butizaƛ	-9262
▁bułirno	-9263
▁eniwder	-9264
▁esunosi	-9265
▁icingon	-9266
▁qalamär	-9267
▁raynƛin	-9268
▁xirerxo	-9269
▁yaganix	-9270
▁ƛʕorłäy	-9271
▁ʕagaraw	-9272
▁Azbaryoz	-9273
▁Nełqazay	-9274
▁Sidadäza	-9275
▁debinƛin	-9276
▁istowlix	-9277
▁qʕabanin	-9278
▁riqanƛin	-9279
▁rizärinč	-9280
▁roƛxoƛin	-9281
▁suratyoƛ	-9282
▁taliħawn	-9283
▁taliħƛin	-9284
▁tamašałi	-9285
▁teqroƛin	-9286
▁teqsiƛin	-9287
▁tełäygon	-9288
▁tełäzgon	-9289
▁teƛnogon	-9290
▁tupingon	-9291
▁ukaynosi	-9292
▁ulkałkin	-9293
▁uqʕłanix	-9294
▁utiranix	-9295
▁užintown	-9296
▁užitowwa	-9297
▁wazirłun	-9298
▁weeƛirno	-9299
ica	-9300
iłä	-9301
umƛ	-9302
ʕap	-9303
imar	-9304
iłsi	-9305
▁Min	-9306
▁Qun	-9307
▁Roc	-9308
▁ayä	-9309
▁azu	-9310
▁wel	-9311
▁xaw	-9312
▁Ħaž	-9313
▁Isno	-9314
▁ayno	-9315
▁aysi	-9316
▁barä	-9317
▁beɣa	-9318
▁esiƛ	-9319
▁igza	-9320
▁teqa	-9321
▁wele	-9322
ołäysi	-9323
▁Bukar	-9324
▁Debin	-9325
▁Qacan	-9326
▁Roɣno	-9327
▁Rukar	-9328
▁aqinč	-9329
▁ceyno	-9330
▁gulur	-9331
▁mecqo	-9332
▁neƛoƛ	-9333
▁nucoł	-9334
▁xawoc	-9335
▁yičir	-9336
▁yiłał	-9337
▁yiłen	-9338
▁yogun	-9339
▁zeyza	-9340
▁šilaƛ	-9341
▁Maryam	-9342
▁Neside	-9343
▁Qunyox	-9344
▁kamäsi	-9345
▁mesedä	-9346
▁nexinč	-9347
▁nʕoƛun	-9348
▁odäƛin	-9349
▁oxiƛin	-9350
▁raqrun	-9351
▁rocazo	-9352
▁rodiłä	-9353
▁ħalica	-9354
▁axwaɣor	-9355
▁baqruni	-9356
▁bitirno	-9357
▁bukayxa	-9358
▁hokomxo	-9359
▁hudukin	-9360
▁kecxosi	-9361
▁lagiqor	-9362
▁nesägon	-9363
▁nełatow	-9364
▁raħataw	-9365
▁risxosi	-9366
▁yaħnayn	-9367
▁yisäƛin	-9368
▁yizider	-9369
▁yiłanix	-9370
▁Ħažataw	-9371
▁łerakin	-9372
▁žadaɣor	-9373
▁Nesiqosi	-9374
▁Rukarƛin	-9375
▁egirxosi	-9376
▁esirerno	-9377
▁neƛsiƛin	-9378
▁nukarzaz	-9379
▁oƛixnosi	-9380
▁wizirłäy	-9381
▁wʕałerno	-9382
▁xaličabi	-9383
▁xandärno	-9384
▁xannonan	-9385
▁xanqorno	-9386
▁xanłunno	-9387
▁xarcelid	-9388
▁xarcelin	-9389
▁xecinosi	-9390
▁xecixanu	-9391
▁xedyoqay	-9392
▁xexbikin	-9393
▁xexbiƛin	-9394
▁xexzaqor	-9395
▁xiyantaw	-9396
▁xizaytow	-9397
▁yacʕalno	-9398
▁yacʕalqo	-9399
beč	-9400
muq	-9401
qʕu	-9402
▁Aƛ	-9403
sƛax	-9404
äasi	-9405
▁Buc	-9406
▁Roq	-9407
▁beh	-9408
elmay	-9409
iƛinä	-9410
oƛinč	-9411
reran	-9412
ulhun	-9413
zinan	-9414
ʕuqʕu	-9415
ʕurxo	-9416
▁bero	-9417
▁nexw	-9418
▁qʕič	-9419
▁yiči	-9420
▁ɣunä	-9421
adaraw	-9422
aniƛin	-9423
irusno	-9424
iłerno	-9425
muqayn	-9426
oxerno	-9427
rnokin	-9428
uderno	-9429
uqerno	-9430
▁Buciƛ	-9431
▁Nesan	-9432
▁däqno	-9433
▁guluq	-9434
▁kesun	-9435
▁raħmu	-9436
▁xecis	-9437
▁yexar	-9438
▁Žedaq	-9439
▁žakin	-9440
▁žaƛer	-9441
▁ɣudiƛ	-9442
▁ɣudod	-9443
uranƛin	-9444
▁Roqnäy	-9445
▁Xizayn	-9446
▁Yeduyä	-9447
▁aħnayƛ	-9448
▁behila	-9449
▁bätiru	-9450
▁hunäsi	-9451
▁nartow	-9452
▁nʕoƛas	-9453
▁qʕičin	-9454
▁qʕuqʕu	-9455
▁rigłin	-9456
▁rižäsi	-9457
▁ħamayn	-9458
▁łelmay	-9459
▁šebiey	-9460
▁barurno	-9461
▁biyxanu	-9462
▁eƛixozo	-9463
▁ičanƛin	-9464
▁nesisno	-9465
▁nesätow	-9466
▁nexwasi	-9467
▁oqnoƛax	-9468
▁rešonin	-9469
▁ukrułäy	-9470
▁xecanix	-9471
▁xecirno	-9472
▁xizaynč	-9473
▁yaysƛax	-9474
▁yałiƛin	-9475
▁yedakin	-9476
▁yisägon	-9477
▁čuqerno	-9478
▁ʕadanłi	-9479
alamäzoni	-9480
▁Bäxuruni	-9481
▁baɣmaɣor	-9482
▁dabaɣyos	-9483
▁hunärƛin	-9484
▁qoqoƛinč	-9485
▁regirnäy	-9486
▁räsruxor	-9487
▁sasaqasi	-9488
▁teƛsiƛax	-9489
▁yaqʕułäy	-9490
▁yawnoƛin	-9491
▁yayoƛƛin	-9492
▁yayäruni	-9493
▁yałzarno	-9494
▁yaɣʕirun	-9495
▁yecinosi	-9496
▁yegirƛin	-9497
▁yegärinč	-9498
▁yegärƛin	-9499
ʕoq	-9500
▁xä	-9501
alum	-9502
rułi	-9503
uxar	-9504
▁Hag	-9505
▁Rac	-9506
▁Ruq	-9507
▁išƛ	-9508
▁liɣ	-9509
nibin	-9510
ʕurqo	-9511
▁Ižin	-9512
▁baša	-9513
▁eƛni	-9514
▁kiri	-9515
adäƛin	-9516
aluman	-9517
iłxosi	-9518
oräysi	-9519
unoxor	-9520
ʕimkin	-9521
ʕutkun	-9522
ʕuxosi	-9523
▁Kurno	-9524
▁Nełäz	-9525
▁Sideƛ	-9526
▁Yoɣno	-9527
▁Zirun	-9528
▁bičas	-9529
▁bišxo	-9530
▁boɣsi	-9531
▁bätir	-9532
▁iqira	-9533
▁kecač	-9534
▁kosiƛ	-9535
▁maqiz	-9536
▁mežił	-9537
▁moƛan	-9538
▁sirya	-9539
▁xäcin	-9540
▁yayan	-9541
▁ħaƛux	-9542
▁šudbi	-9543
arbiłun	-9544
iƛingon	-9545
orolayq	-9546
▁Sayɣat	-9547
▁ayxosi	-9548
▁bʕeƛez	-9549
▁eƛanix	-9550
▁eƛoƛin	-9551
▁maħlay	-9552
▁qułkin	-9553
▁yxexoy	-9554
▁łʕorat	-9555
▁ʕarzaƛ	-9556
anadanix	-9557
ʕurqotow	-9558
▁Guluzaƛ	-9559
▁Hoboyƛa	-9560
▁Ozzałer	-9561
▁Xaluman	-9562
▁bowanix	-9563
▁bätirut	-9564
▁didiwƛa	-9565
▁esinƛax	-9566
▁exunƛax	-9567
▁hudulaw	-9568
▁ičixozo	-9569
▁regirxo	-9570
▁rodäsin	-9571
▁ładäɣor	-9572
wariʕelno	-9573
▁Didurgon	-9574
▁Ozurabin	-9575
▁betixosi	-9576
▁biħisƛin	-9577
▁iduzasin	-9578
▁maħorƛin	-9579
▁raqʕyabi	-9580
▁riqarzäy	-9581
▁ričinčey	-9582
▁suħmatno	-9583
▁xäcinƛin	-9584
▁yegirnäy	-9585
▁yesunosi	-9586
▁yesuxanu	-9587
▁yetinƛin	-9588
▁yetixosi	-9589
▁yetixozo	-9590
▁yetixƛin	-9591
▁yexorani	-9592
▁yexurinč	-9593
▁yexusƛin	-9594
▁yicalini	-9595
▁yiqinanu	-9596
▁yiqixozo	-9597
▁yiqärułi	-9598
▁yisiłtow	-9599
äzo	-9600
▁ca	-9601
▁Ceƛ	-9602
▁Zek	-9603
amizi	-9604
arizi	-9605
aʕizi	-9606
iruce	-9607
marno	-9608
unizi	-9609
▁Zeyn	-9610
▁akan	-9611
▁bexa	-9612
▁bʕaɣ	-9613
▁etin	-9614
▁hunƛ	-9615
▁utiƛ	-9616
orolan	-9617
ʕanosi	-9618
▁Kusas	-9619
▁ašuno	-9620
▁bexus	-9621
▁bełin	-9622
▁bełiz	-9623
▁darno	-9624
▁deyno	-9625
▁därsi	-9626
▁eloza	-9627
▁laɣde	-9628
▁mežay	-9629
▁mežaƛ	-9630
▁ozyoƛ	-9631
▁roƛon	-9632
▁xuxin	-9633
▁yoɣxo	-9634
▁äruni	-9635
▁łäxay	-9636
▁žazas	-9637
▁ɣʕaɣʕ	-9638
azartow	-9639
edinosi	-9640
ełnoƛin	-9641
ešonayƛ	-9642
ʕułnowa	-9643
▁Harizi	-9644
▁ayruni	-9645
▁ašunoz	-9646
▁ceyłäy	-9647
▁deygon	-9648
▁deytow	-9649
▁guzqor	-9650
▁rodinč	-9651
▁roqƛin	-9652
▁užisno	-9653
▁yexaru	-9654
▁äƛiruq	-9655
▁łinaƛa	-9656
▁ƛʕebno	-9657
uganitow	-9658
▁Sidakin	-9659
▁atixosi	-9660
▁baruzaƛ	-9661
▁baynanu	-9662
▁bayruce	-9663
▁butanix	-9664
▁caxoƛin	-9665
▁kecxozo	-9666
▁mežaɣor	-9667
▁nełasgo	-9668
▁nukarer	-9669
▁qidozaq	-9670
▁roqanix	-9671
▁rorqosi	-9672
▁ħaƛanir	-9673
▁ƛešoƛin	-9674
▁ɣʕutkoq	-9675
▁ʕUmarno	-9676
▁ʕayibno	-9677
Bahadurer	-9678
▁bʕaɣizaƛ	-9679
▁därsitow	-9680
▁etinaƛin	-9681
▁kurnoanu	-9682
▁räxuruni	-9683
▁xediwqor	-9684
▁yisiłäyn	-9685
▁yizanƛin	-9686
▁yiziräsi	-9687
▁yizzoxor	-9688
▁yičäruni	-9689
▁yiłdetow	-9690
▁yiłetown	-9691
▁yižisƛax	-9692
▁yižisƛin	-9693
▁yižixƛin	-9694
▁yoqxosin	-9695
▁yoƛozoni	-9696
▁yoƛƛosin	-9697
▁yukarinč	-9698
▁yukarčey	-9699
andi	-9700
zoce	-9701
▁Qiƛ	-9702
▁esw	-9703
aniza	-9704
kinda	-9705
oƛäsi	-9706
xayzo	-9707
łäƛin	-9708
ʕanot	-9709
▁Eloš	-9710
▁iyoł	-9711
▁kasi	-9712
▁ƛexa	-9713
deʕizi	-9714
inoƛin	-9715
ixaƛin	-9716
äziƛin	-9717
▁Eloza	-9718
▁Eloša	-9719
▁bičan	-9720
▁bišin	-9721
▁bokon	-9722
▁boqun	-9723
▁eniwz	-9724
▁eniwł	-9725
▁iduzo	-9726
▁landi	-9727
▁nʕoƛu	-9728
▁yegin	-9729
▁yiħan	-9730
▁ziruq	-9731
▁ħalno	-9732
▁ʕoƛoz	-9733
erxoƛin	-9734
imoqgon	-9735
izaxosi	-9736
▁Izirno	-9737
▁alžanä	-9738
▁ceyqor	-9739
▁howlay	-9740
▁izanix	-9741
▁izirač	-9742
▁ozurin	-9743
▁qʕabir	-9744
▁rodasi	-9745
▁zawƛin	-9746
▁łʕonot	-9747
▁ƛexäsi	-9748
anayxosi	-9749
▁Aħyaƛin	-9750
▁Bäziƛin	-9751
▁Dowqosi	-9752
▁Nełałäy	-9753
▁adiruni	-9754
▁akiłäza	-9755
▁bešnoyx	-9756
▁butiƛin	-9757
▁edeʕizi	-9758
▁egirčey	-9759
▁eniwsno	-9760
▁eswałno	-9761
▁etixosi	-9762
▁ešadƛin	-9763
▁izirinč	-9764
▁neƛaniƛ	-9765
▁rigutow	-9766
▁xanägon	-9767
▁yayrƛin	-9768
▁yäzurun	-9769
▁äƛiruce	-9770
▁ħalaƛin	-9771
▁Eɣenägon	-9772
▁ayaniqor	-9773
▁bayäruni	-9774
▁biqiƛƛin	-9775
▁bukaruni	-9776
▁guginosi	-9777
▁kasiruni	-9778
▁mesedƛin	-9779
▁nexłäƛin	-9780
▁nʕoƛugon	-9781
▁ukaysƛin	-9782
▁ustarbin	-9783
▁xecingon	-9784
▁xecinƛax	-9785
▁xecinƛin	-9786
▁yiħanada	-9787
▁yuqʕełno	-9788
▁yutanƛin	-9789
▁yäžiruni	-9790
▁zamzames	-9791
▁zaɣrušaw	-9792
▁zeroqozo	-9793
▁zirurƛin	-9794
▁zownoƛax	-9795
▁zurmasno	-9796
▁ägirułin	-9797
▁ätizarno	-9798
▁čamaligo	-9799
ago	-9800
uša	-9801
bigu	-9802
iyon	-9803
omał	-9804
orin	-9805
oxƛa	-9806
▁got	-9807
▁oda	-9808
▁Ħak	-9809
▁Žas	-9810
aqʕun	-9811
arder	-9812
ʕimär	-9813
▁Okur	-9814
▁becä	-9815
▁ceyq	-9816
▁ičiƛ	-9817
▁kuša	-9818
▁łina	-9819
▁šayx	-9820
▁ɣira	-9821
awruni	-9822
irułin	-9823
urerno	-9824
▁Roƛno	-9825
▁Roƛƛo	-9826
▁Sidaƛ	-9827
▁aɣʕux	-9828
▁ciyon	-9829
▁esäru	-9830
▁guluz	-9831
▁mečox	-9832
▁mežuz	-9833
▁nesäq	-9834
▁neƛač	-9835
▁qʕayn	-9836
▁xalno	-9837
▁xedyo	-9838
▁yetas	-9839
▁yiłde	-9840
▁šemno	-9841
▁Žałäy	-9842
▁ɣomał	-9843
▁Qʕirič	-9844
▁aždaħa	-9845
▁baqʕun	-9846
▁bäčinč	-9847
▁moƛałt	-9848
▁nocubi	-9849
▁oƛixxo	-9850
▁rayrun	-9851
▁utizaq	-9852
▁waħaza	-9853
▁xazina	-9854
▁žukkin	-9855
inosigon	-9856
▁aħyałäy	-9857
▁aždaħeł	-9858
▁bašiqno	-9859
▁bitazar	-9860
▁exanƛin	-9861
▁imadabi	-9862
▁rawruni	-9863
▁rexuzaƛ	-9864
▁roqacet	-9865
▁sidaɣar	-9866
▁Ħasanes	-9867
▁šebičey	-9868
▁ʕaƛosno	-9869
ełxanaƛin	-9870
▁Kidbägon	-9871
▁Qazaqzar	-9872
▁aždaħtow	-9873
▁bowwäƛin	-9874
▁caxnoanu	-9875
▁hemedurt	-9876
▁nukarqor	-9877
▁rigzaxay	-9878
▁xedyozas	-9879
▁xizayƛin	-9880
▁yizinosi	-9881
▁yičinosi	-9882
▁čanyabin	-9883
▁čanyazas	-9884
▁čerayzaƛ	-9885
▁čuqʕnosi	-9886
▁čʕaƛanix	-9887
▁Ħasanƛin	-9888
▁Ħusenłäy	-9889
▁ħaladtow	-9890
▁ħalarƛin	-9891
▁ħaliłäsi	-9892
▁ħalkiłiƛ	-9893
▁ħayranno	-9894
▁ħaƛanƛin	-9895
▁ħaƛnixno	-9896
▁ħaƛurinč	-9897
▁ħaƛurnäy	-9898
▁ħaƛuxosi	-9899
min	-9900
▁le	-9901
aʕam	-9902
iboƛ	-9903
iräz	-9904
uzoq	-9905
ʕimä	-9906
▁iža	-9907
▁Łaz	-9908
ałazi	-9909
luƛin	-9910
ʕimez	-9911
ʕimqo	-9912
▁Bišƛ	-9913
▁Diƛa	-9914
▁aɣes	-9915
▁aɣez	-9916
▁aɣeł	-9917
▁aɣis	-9918
▁aɣzo	-9919
▁exor	-9920
▁iyoq	-9921
▁mecu	-9922
▁meši	-9923
▁risƛ	-9924
▁yoyx	-9925
azaqay	-9926
aƛirun	-9927
onibin	-9928
ozaƛin	-9929
uƛinno	-9930
▁Ditow	-9931
▁Kidno	-9932
▁Nesił	-9933
▁Okude	-9934
▁aɣʕun	-9935
▁madał	-9936
▁roqux	-9937
▁Łiboƛ	-9938
▁ƛuƛin	-9939
ʕonigon	-9940
ʕonägon	-9941
ʕunerno	-9942
▁Tungin	-9943
▁biszaƛ	-9944
▁debiya	-9945
▁eƛinäy	-9946
▁igoxxo	-9947
▁muɣbin	-9948
▁orezna	-9949
▁qepƛix	-9950
▁waħozo	-9951
▁xedyoƛ	-9952
▁zowƛin	-9953
▁Elorgon	-9954
▁aždaħer	-9955
▁bełiqur	-9956
▁bizirxo	-9957
▁debikin	-9958
▁debiƛin	-9959
▁hunixno	-9960
▁ixiwtow	-9961
▁käkirus	-9962
▁madaɣor	-9963
▁mołirxo	-9964
▁mäħorno	-9965
▁nesirsi	-9966
▁qʕayzno	-9967
▁radirun	-9968
▁rizirłi	-9969
▁yayngon	-9970
▁yayruni	-9971
▁yizigon	-9972
▁yizixno	-9973
▁žedagon	-9974
▁ʕOloqza	-9975
emiƛxorno	-9976
ʕutkazoni	-9977
▁Bahadurä	-9978
▁aqonibin	-9979
▁exoriłno	-9980
▁hunixtow	-9981
▁kidnogon	-9982
▁mežurƛin	-9983
▁nesisƛin	-9984
▁oqaniƛax	-9985
▁raładyos	-9986
▁xedyoder	-9987
▁yaqʕułno	-9988
▁ħišixosi	-9989
▁ħišiłzaƛ	-9990
▁ħurženya	-9991
▁łaciraqa	-9992
▁łanałäyn	-9993
▁łełanƛin	-9994
▁łinasƛin	-9995
▁łiyärułi	-9996
▁łoħrodär	-9997
▁łoħrołäy	-9998
▁łärnokin	-9999
uwa	-10000
▁Oh	-10001
▁go	-10002
umbi	-10003
▁Mač	-10004
▁łux	-10005
▁baħa	-10006
▁ceyƛ	-10007
▁ezux	-10008
▁oqwa	-10009
▁raqä	-10010
▁raya	-10011
▁zeys	-10012
azaqar	-10013
▁Ixdax	-10014
▁Zirur	-10015
▁bišer	-10016
▁ceyqo	-10017
▁däzoq	-10018
▁gogan	-10019
▁hulon	-10020
▁kidwa	-10021
▁kuran	-10022
▁moƛaq	-10023
▁netäy	-10024
▁raqza	-10025
▁rodač	-10026
▁roƛor	-10027
▁teqsi	-10028
▁xuxiƛ	-10029
▁ħaƛis	-10030
▁žoyän	-10031
▁ɣudir	-10032
aqaygon	-10033
▁baruwa	-10034
▁baruza	-10035
▁eniwde	-10036
▁exuƛin	-10037
▁eɣeniq	-10038
▁eɣeniƛ	-10039
▁howžan	-10040
▁igaɣor	-10041
▁iħaɣor	-10042
▁iħuxor	-10043
▁pʕaƛus	-10044
▁waħƛin	-10045
▁yaqrus	-10046
▁yiqäsi	-10047
▁ƛʕebaq	-10048
▁Esanayn	-10049
▁Magalun	-10050
▁Ozzałäy	-10051
▁Xanerno	-10052
▁gulubin	-10053
▁guluqor	-10054
▁ičinanu	-10055
▁kuräƛin	-10056
▁nełałäy	-10057
▁xizoxno	-10058
▁yisiqay	-10059
▁ħaƛoƛin	-10060
▁šebinwa	-10061
▁Žeduder	-10062
▁žawabno	-10063
▁žedurno	-10064
▁ʕaƛołer	-10065
▁Hudaygon	-10066
▁Sasaqgon	-10067
▁aħozider	-10068
▁bercinłi	-10069
▁bečnaqay	-10070
▁hudaygon	-10071
▁kidbätow	-10072
▁regärinč	-10073
▁ukaranix	-10074
▁yičixƛin	-10075
▁yoqnoƛax	-10076
▁łäyrułer	-10077
▁łʕorłäyn	-10078
▁Šebintow	-10079
▁šaharyoz	-10080
▁šarʕimoƛ	-10081
▁šaširuni	-10082
▁šemqaɣor	-10083
▁šomoƛała	-10084
▁šušisƛin	-10085
▁šäširuni	-10086
▁Žaqʕułno	-10087
▁Žazasƛin	-10088
▁Žedułtow	-10089
▁Žungutaw	-10090
▁žaqʕułno	-10091
▁žawabtow	-10092
▁žawabyor	-10093
▁žedałtow	-10094
▁žeduqƛin	-10095
▁žedurgon	-10096
▁žigonƛin	-10097
▁ƛexyabin	-10098
▁ƛeɣanƛin	-10099
äwa	-10100
oyon	-10101
udär	-10102
ulhu	-10103
zuru	-10104
ʕuru	-10105
▁isä	-10106
▁oɣo	-10107
▁dowz	-10108
▁enza	-10109
▁esär	-10110
▁yisa	-10111
▁žedä	-10112
gintow	-10113
oqosin	-10114
uħorno	-10115
▁Barun	-10116
▁Migon	-10117
▁Xande	-10118
▁Xanłi	-10119
▁bigin	-10120
▁biqix	-10121
▁biqär	-10122
▁bixiz	-10123
▁boƛor	-10124
▁bʕaƛo	-10125
▁ciqär	-10126
▁ixiwt	-10127
▁nuʕłi	-10128
▁ozyor	-10129
▁ricis	-10130
▁Xanqay	-10131
▁aqäƛin	-10132
▁atagon	-10133
▁dowqay	-10134
▁eženiq	-10135
▁halizi	-10136
▁iħuxay	-10137
▁ukarač	-10138
däɣorgon	-10139
▁Hemediw	-10140
▁biqäƛin	-10141
▁bitorsi	-10142
▁dädäɣor	-10143
▁esnazaƛ	-10144
▁halmaɣƛ	-10145
▁mežizoƛ	-10146
▁netitow	-10147
▁roɣoƛin	-10148
▁ʕaƛatow	-10149
▁beginanu	-10150
▁besunanu	-10151
▁besuxƛax	-10152
▁betunosi	-10153
▁boqsiƛin	-10154
▁esnazade	-10155
▁halmaɣes	-10156
▁kidbägon	-10157
▁kurxoƛin	-10158
▁mesedyoƛ	-10159
▁nasintow	-10160
▁rigintow	-10161
▁riqixosi	-10162
▁riqixƛin	-10163
▁rišwanix	-10164
▁roqnoanu	-10165
▁rułirƛin	-10166
▁sasiłzaƛ	-10167
▁teƛsiƛin	-10168
▁xabaryoł	-10169
▁xanesgon	-10170
▁xecixosi	-10171
▁xecixƛin	-10172
▁yegirzaƛ	-10173
▁ƛirbaqor	-10174
▁ƛäxurubi	-10175
▁ƛäxurułi	-10176
▁ƛʕebaxay	-10177
▁ƛʕebrebi	-10178
▁ƛʕorłäyn	-10179
▁ɣarabašä	-10180
▁ɣeryabin	-10181
▁ɣunoqosi	-10182
▁ɣutkabin	-10183
▁ɣutkazay	-10184
▁ɣutkozas	-10185
▁ɣutkutow	-10186
▁ɣʕanazaƛ	-10187
▁ɣʕulader	-10188
▁ɣʕunoqay	-10189
▁ɣʕutkubi	-10190
▁ɣʕuɣʕura	-10191
▁ɣʕwaygon	-10192
▁ʕOloqzas	-10193
▁ʕOmoybin	-10194
▁ʕOmoyzaƛ	-10195
▁ʕUmarqor	-10196
▁ʕadadawa	-10197
▁ʕagarłän	-10198
▁ʕalaxyoƛ	-10199
anč	-10200
reč	-10201
▁Ħur	-10202
arzay	-10203
ʕerxo	-10204
▁Yiłƛ	-10205
▁etis	-10206
▁xira	-10207
▁yuti	-10208
idoxor	-10209
▁Beqez	-10210
▁aqzay	-10211
▁ayace	-10212
▁bežen	-10213
▁bʕaɣʕ	-10214
▁erayä	-10215
▁hokon	-10216
▁iħada	-10217
▁ozzas	-10218
▁recun	-10219
▁resan	-10220
▁retix	-10221
▁xizäy	-10222
▁yizas	-10223
▁ługon	-10224
azaykin	-10225
ełnoanu	-10226
iličqor	-10227
irduxän	-10228
ornotow	-10229
oxxoƛin	-10230
ʕidakin	-10231
ʕunełno	-10232
▁Sistow	-10233
▁boqace	-10234
▁bukada	-10235
▁exunäy	-10236
▁iziłno	-10237
ačaɣʕƛin	-10238
▁Musader	-10239
▁Tawadin	-10240
▁axwarno	-10241
▁häqruni	-10242
▁kikinäy	-10243
▁kikizaƛ	-10244
▁kikoƛin	-10245
▁mežatow	-10246
▁mežoxor	-10247
▁nesizoq	-10248
▁raładya	-10249
▁yegiran	-10250
▁yiziƛer	-10251
▁yutanix	-10252
▁yutirno	-10253
▁Žedułäy	-10254
ʕanazader	-10255
▁Boƛƛogon	-10256
▁Ismaʕilƛ	-10257
▁begirnon	-10258
▁boqnäyƛa	-10259
▁boƛƛäɣor	-10260
▁howžiƛin	-10261
▁kidbazar	-10262
▁nesiztow	-10263
▁qazaqzas	-10264
▁retisƛax	-10265
▁roɣnoanu	-10266
▁sanaʕałi	-10267
▁sodertow	-10268
▁xanzarsi	-10269
▁yaɣʕoƛin	-10270
▁čaƛʕanix	-10271
▁ʕansaqor	-10272
▁ʕažaibaw	-10273
▁ʕažaibno	-10274
▁ʕaƛaysin	-10275
▁ʕaƛoxaza	-10276
▁ʕedeʕizi	-10277
▁ʕiyaynäy	-10278
▁ʕoloqzaq	-10279
▁ʕomoyzaƛ	-10280
▁ʕuqłanix	-10281
▁ʕurawtow	-10282
▁ʕurqixor	-10283
Bahadurqor	-10284
Bahadurƛin	-10285
axrudinqor	-10286
axrudinƛin	-10287
aƛuxozoxay	-10288
ixanuzogon	-10289
ursiƛingon	-10290
uɣweymołäy	-10291
wariʕelyoł	-10292
yozałxorno	-10293
ʕuyasinibi	-10294
ʕuyzadäzay	-10295
▁Allahätow	-10296
▁Aħmadägon	-10297
▁Babiyagon	-10298
▁Baydanyay	-10299
▁Bexuratow	-10300
▁Bełiqanza	-10301
▁Bełiqubin	-10302
▁Bʕeƛoqgon	-10303
▁Diwanbegä	-10304
▁Eniwqorno	-10305
▁Esnazagon	-10306
▁Howlaygon	-10307
▁Howžigonä	-10308
▁Ismaʕiler	-10309
▁Ismaʕileł	-10310
▁Ismaʕilqo	-10311
▁Ismaʕilxo	-10312
▁Kidbazade	-10313
▁Kidbezgon	-10314
▁Madaxaɣor	-10315
▁Magalabin	-10316
▁Maħamaƛin	-10317
▁Mekodäsin	-10318
▁Metirozya	-10319
▁Muħamadno	-10320
▁Nesiderno	-10321
▁Nełaqorno	-10322
▁Nełqułtow	-10323
▁Neširugon	-10324
▁Neširuxay	-10325
▁Neširuzoƛ	-10326
▁Oƛƛozogon	-10327
▁Qartayder	-10328
▁Qʕišodgon	-10329
▁Ramazanno	-10330
▁Sasaqozox	-10331
▁Sasiłacen	-10332
▁Sasiłnosi	-10333
▁Sidenägon	-10334
▁Siskintow	-10335
▁Tawadider	-10336
▁Tawadiqor	-10337
▁Tawadisno	-10338
▁Tawadiƛin	-10339
▁Taxƛäzayn	-10340
▁Telawärno	-10341
▁Umukusƛin	-10342
▁Xizaɣorsi	-10343
▁Yaqʕułtow	-10344
▁Yegiranir	-10345
▁Yeženigon	-10346
▁aderzotow	-10347
▁adirułäyn	-10348
▁adäzaytow	-10349
▁ahlimoqor	-10350
▁akiłxoƛin	-10351
▁annazaqar	-10352
▁anuzaytow	-10353
▁ayxanaƛin	-10354
▁aħyałerno	-10355
▁aždaħäƛin	-10356
▁babiyagon	-10357
▁badinoƛin	-10358
▁baqrułäyn	-10359
▁baraxšizi	-10360
▁barułäysi	-10361
▁batizarno	-10362
▁bayranƛin	-10363
▁bayrxoƛax	-10364
▁bayxanusi	-10365
▁bayäsiƛin	-10366
▁bazarganƛ	-10367
▁baħnaynäy	-10368
▁baħnayłin	-10369
▁bašiqʕoyz	-10370
▁baɣwʕacet	-10371
▁begirerno	-10372
▁bercinawn	-10373
▁bercinawƛ	-10374
▁bercinłin	-10375
▁bertenƛin	-10376
▁besurobin	-10377
▁besuroqur	-10378
▁beswanƛin	-10379
▁bexaruzas	-10380
▁bexaynƛin	-10381
▁bexuranis	-10382
▁bexurnosi	-10383
▁bexurxosi	-10384
▁beynodäsi	-10385
▁bečełiƛin	-10386
▁bełiqaner	-10387
▁bełiqanez	-10388
▁bełiqanzo	-10389
▁bełiqanän	-10390
▁beɣenigon	-10391
▁bikoriqor	-10392
▁bitaɣorno	-10393
▁bitirerno	-10394
▁biyrančey	-10395
▁bizirerno	-10396
▁bičäsiƛin	-10397
▁biħurnosi	-10398
▁bišwannan	-10399
▁bižirerno	-10400
▁bodaniƛäy	-10401
▁bodäsiƛin	-10402
▁boqaniƛin	-10403
▁boqełxanu	-10404
▁boqxosini	-10405
▁boqäsiƛin	-10406
▁božarawni	-10407
▁boƛixnosi	-10408
▁boƛixxosi	-10409
▁boɣaniłer	-10410
▁boɣxanusi	-10411
▁boɣäsiƛax	-10412
▁bukaranix	-10413
▁bukarerno	-10414
▁bukayxana	-10415
▁bukayxanä	-10416
▁butiranił	-10417
▁bäcinoƛin	-10418
▁bäxurusno	-10419
▁bʕałayƛin	-10420
▁bʕaɣʕizaƛ	-10421
▁cugumäɣor	-10422
▁daruyarsi	-10423
▁debertown	-10424
▁diduräyƛa	-10425
▁dowderƛin	-10426
▁doxturqor	-10427
▁doxturłin	-10428
▁dunyaltow	-10429
▁esiranƛin	-10430
▁esirnoƛin	-10431
▁esiwdetow	-10432
▁esnazaden	-10433
▁esnazałäy	-10434
▁esuxanuzo	-10435
▁esärnoƛin	-10436
▁eynoyxosi	-10437
▁eƛixozoni	-10438
▁gagalazał	-10439
▁guludetow	-10440
▁guluqorno	-10441
▁gulučinin	-10442
▁haganiłno	-10443
▁halmaɣzar	-10444
▁halmaɣłun	-10445
▁henešyabi	-10446
▁hobołatow	-10447
▁howlotown	-10448
▁howožatow	-10449
▁hudukinda	-10450
▁hunizaxno	-10451
▁iduɣorƛin	-10452
▁imyoqorno	-10453
▁istolowäy	-10454
▁izirnoanu	-10455
▁iziräłinč	-10456
▁ičanixgon	-10457
▁iłetowgon	-10458
▁išanixƛin	-10459
▁išxanuƛin	-10460
▁kakičurin	-10461
▁kamiräƛin	-10462
▁kecäsiƛin	-10463
▁keroqazay	-10464
▁kidbäntow	-10465
▁kikxortow	-10466
▁kilometra	-10467
▁kičuričus	-10468
▁kuracekin	-10469
▁kuräsiƛin	-10470
▁lilyoxtow	-10471
▁madazaħno	-10472
▁madaħarno	-10473
▁madaħazay	-10474
▁maduhaler	-10475
▁maduhalqo	-10476
▁maduhalzo	-10477
▁magalabin	-10478
▁magalazaƛ	-10479
▁magazinno	-10480
▁maqʕizoni	-10481
▁maxsaryoƛ	-10482
▁maxšelyoƛ	-10483
▁mazaħarno	-10484
▁maħazayzo	-10485
▁maħlaytow	-10486
▁małiruxor	-10487
▁mažgityoz	-10488
▁maʕdinłiƛ	-10489
▁mežiƛäzay	-10490
▁mežzoxƛin	-10491
▁minutałer	-10492
▁miskinzar	-10493
▁muhumozas	-10494
▁muhumołäy	-10495
▁mučariłäy	-10496
▁nesicetow	-10497
▁nesiderno	-10498
▁nesirsini	-10499
▁nexnäyƛin	-10500
▁nexäsiƛin	-10501
▁neładerno	-10502
▁neširutow	-10503
▁neƛsiyołi	-10504
▁nukaresno	-10505
▁oqxosiƛin	-10506
▁oreznixor	-10507
▁ozzatawni	-10508
▁oƛixnoanu	-10509
▁oƛixxoƛin	-10510
▁oƛäxnoƛin	-10511
▁paqʕƛirxo	-10512
▁paraxataw	-10513
▁puräzagon	-10514
▁pʕaƛunosi	-10515
▁qaciqorno	-10516
▁qoqoƛiłin	-10517
▁qʕaradamu	-10518
▁qʕaydegon	-10519
▁qʕašanƛin	-10520
▁qʕašinosi	-10521
▁qʕaƛixanu	-10522
▁raqʕuxosi	-10523
▁raqʕyołäy	-10524
▁regiracet	-10525
▁regiranix	-10526
▁regirxosi	-10527
▁reqenyabi	-10528
▁retäsiƛin	-10529
▁rexadanix	-10530
▁rexoriłno	-10531
▁rexuräsit	-10532
▁reɣułatow	-10533
▁risnäyƛin	-10534
▁risxanusi	-10535
▁ritirerač	-10536
▁riyranƛin	-10537
▁riyxanuzo	-10538
▁riħadanix	-10539
▁riƛubigon	-10540
▁rodacekin	-10541
▁roqaniƛäy	-10542
▁roqnäyƛin	-10543
▁roqxanusi	-10544
▁roxirnosi	-10545
▁royxanusi	-10546
▁rukadäƛin	-10547
▁rukayxana	-10548
▁rukayxosi	-10549
▁rutirnosi	-10550
▁rätiruxor	-10551
▁rätiyäƛin	-10552
▁rätizaɣor	-10553
▁räƛiyäƛin	-10554
▁rʕałayzał	-10555
▁rʕełayzał	-10556
▁sadaqorno	-10557
▁sadaqosin	-10558
▁sanaʕataw	-10559
▁sasaqorsi	-10560
▁saɣyatyos	-10561
▁sidaɣazar	-10562
▁sisinigon	-10563
▁sodxorzoq	-10564
▁taqʕorgon	-10565
▁tełxortow	-10566
▁teƛxosini	-10567
▁teƛxozoni	-10568
▁tušmanbin	-10569
▁ukayyäƛin	-10570
▁untarawni	-10571
▁uqʕełanix	-10572
▁urɣizikin	-10573
▁užizasƛin	-10574
▁waranibin	-10575
▁wilayatzo	-10576
▁wʕałertow	-10577
▁xabaryada	-10578
▁xanłungon	-10579
▁xecirerno	-10580
▁xedyosgon	-10581
▁xexoynƛin	-10582
▁xizazagon	-10583
▁xizazarno	-10584
▁yacʕaltow	-10585
▁yaqʕułƛin	-10586
▁yayrnoƛin	-10587
▁yayruntow	-10588
▁yayäsiƛin	-10589
▁yałzatown	-10590
▁yałzaytow	-10591
▁yaɣʕinƛin	-10592
▁yegiranir	-10593
▁yešnayƛin	-10594
▁yeženiqor	-10595
▁yeɣenigon	-10596
▁yeɣenägon	-10597
▁yiqirnosi	-10598
▁yisełxosi	-10599
▁yisiqorno	-10600
▁yiziranix	-10601
▁yičirxosi	-10602
▁yiħułäƛin	-10603
▁yodäłäƛin	-10604
▁yoqäsiƛin	-10605
▁yoqƛingon	-10606
▁yoxiraniƛ	-10607
▁yołäsiƛin	-10608
▁yoƛƛosini	-10609
▁yoƛƛozoni	-10610
▁yukarnosi	-10611
▁yukaynanu	-10612
▁yukayruni	-10613
▁yukaysƛin	-10614
▁yutiranix	-10615
▁yutirnosi	-10616
▁yäsruntow	-10617
▁zeruyałer	-10618
▁zownäyƛin	-10619
▁zulmuqayn	-10620
▁Ħumukulin	-10621
▁ħalalawni	-10622
▁ħaramawni	-10623
▁ħaƛaniłer	-10624
▁ħaƛunosin	-10625
▁ħirozaqor	-10626
▁ħišiłnosi	-10627
▁ħukmatyoz	-10628
▁ħurmatyor	-10629
▁Łarašawni	-10630
▁łiyrxoƛin	-10631
▁Šebitowey	-10632
▁šaharyasi	-10633
▁šebinabin	-10634
▁šebinonwa	-10635
▁šebitowey	-10636
▁šomoraxno	-10637
▁šudaxaɣor	-10638
▁Žabulawes	-10639
▁Žamaʕatyo	-10640
▁Žedudäɣor	-10641
▁žamaʕatno	-10642
▁žanazaxor	-10643
▁žawharyos	-10644
▁žedaqorno	-10645
▁žedudetow	-10646
▁žeduqorno	-10647
▁žiƛbosiyä	-10648
▁ƛexunƛint	-10649
▁ƛoħazaɣor	-10650
▁ƛʕebrezał	-10651
▁ɣamasyayn	-10652
▁ɣuɣudoxor	-10653
▁ɣʕanabiwa	-10654
▁ɣʕanabiyä	-10655
▁ɣʕurušƛin	-10656
▁ɣʕutkarno	-10657
▁ɣʕutkazay	-10658
▁ɣʕutkoxay	-10659
▁ɣʕutkozas	-10660
▁ɣʕutkubin	-10661
▁ɣʕutkutow	-10662
▁ɣʕwačulis	-10663
▁ʕaƛoxarno	-10664
▁ʕaƛoxaɣor	-10665
▁ʕaƛozałno	-10666
▁ʕaƛozałäy	-10667
▁ʕiyayxanu	-10668
▁ʕiyayxtow	-10669
▁ʕoƛnontow	-10670
ełxanuwaƛin	-10671
irełxanuƛin	-10672
odrezaxazay	-10673
uranircetow	-10674
wariłiłerno	-10675
▁Alimaħamar	-10676
▁Alimaħamas	-10677
▁Amirħanzan	-10678
▁Asaqozagon	-10679
▁Ačqʕaynosi	-10680
▁Bazarganza	-10681
▁Baħarčiƛin	-10682
▁Bercinawni	-10683
▁Bełiqanqor	-10684
▁Bešerxotow	-10685
▁Buqbetaxar	-10686
▁Buqbetaxor	-10687
▁Buqbetałer	-10688
▁Cimyoqaysi	-10689
▁Hobolaytow	-10690
▁Ismaʕilgon	-10691
▁Ismaʕilqor	-10692
▁Ismaʕilzoq	-10693
▁Ismaʕilƛin	-10694
▁Istowlizaƛ	-10695
▁Kidiraygon	-10696
▁Madaxosini	-10697
▁Maduhalłiq	-10698
▁Mesedyosno	-10699
▁Mesedyołäy	-10700
▁Mešizaxozo	-10701
▁Muħamadqor	-10702
▁Muħamadƛin	-10703
▁Muʕalimkin	-10704
▁Neƛxanuƛin	-10705
▁Raładyazay	-10706
▁Ražbadinan	-10707
▁Recenyozaz	-10708
▁Tabuldiƛin	-10709
▁Tiblisäɣor	-10710
▁Wazirzagon	-10711
▁Waʕaleykum	-10712
▁Xediwqorno	-10713
▁Xizaɣorgon	-10714
▁Yexoriłƛin	-10715
▁Yeynoyxosi	-10716
▁Zamanałäza	-10717
▁abužahalno	-10718
▁acmołnonan	-10719
▁axorekasin	-10720
▁ayaniqaysi	-10721
▁azbaryoxor	-10722
▁ačqʕaynosi	-10723
▁aħyaxorkin	-10724
▁aždaħesƛin	-10725
▁aɣzaqozoni	-10726
▁babiwqorno	-10727
▁bahadurzas	-10728
▁barułungon	-10729
▁baynosiƛin	-10730
▁bayrnäyƛin	-10731
▁bayłxanuce	-10732
▁bazarganes	-10733
▁bazarganno	-10734
▁bazarganqo	-10735
▁baħarayłno	-10736
▁baħarčiyaw	-10737
▁bałgołibin	-10738
▁baɣnoƛinno	-10739
▁becursiƛin	-10740
▁begiranƛin	-10741
▁begirnoanu	-10742
▁begirnoƛin	-10743
▁besunäyƛin	-10744
▁betixanusi	-10745
▁betixozoni	-10746
▁bečedawnin	-10747
▁bečnazaxar	-10748
▁bełiqanzas	-10749
▁bešerxotow	-10750
▁bicixozoni	-10751
▁biqirxoƛin	-10752
▁biyxozołäy	-10753
▁bizirsiƛin	-10754
▁bičanixƛin	-10755
▁biłaniƛäyn	-10756
▁bišadyołno	-10757
▁bišanixƛin	-10758
▁bižanixƛin	-10759
▁bodanixƛin	-10760
▁bodinäyƛin	-10761
▁boyxanuƛin	-10762
▁boƛäxzaɣor	-10763
▁boɣanixƛin	-10764
▁boɣnoyxƛin	-10765
▁bukaranƛin	-10766
▁busurmanaw	-10767
▁butanixƛin	-10768
▁bäsrułiƛin	-10769
▁bäturuntow	-10770
▁bätuzaɣort	-10771
▁caxxosianu	-10772
▁cimyoqaysi	-10773
▁dabaɣyołäy	-10774
▁didiwnokin	-10775
▁eqersiyołi	-10776
▁esanadanix	-10777
▁etixozoder	-10778
▁etixozonis	-10779
▁etixozosno	-10780
▁ečriłsiƛin	-10781
▁eženidäɣor	-10782
▁eƛinosigon	-10783
▁gamušyozas	-10784
▁gugiranƛin	-10785
▁guluzaxosi	-10786
▁guluzaxoza	-10787
▁habihander	-10788
▁hemediwtow	-10789
▁hilmołäzay	-10790
▁hudulzaqor	-10791
▁indowrizaz	-10792
▁istowlizaq	-10793
▁ixinoxorno	-10794
▁iziłxanusi	-10795
▁ičiqeqełno	-10796
▁ičixosiƛin	-10797
▁iħanadanix	-10798
▁kawumoqosi	-10799
▁kedonyozaz	-10800
▁kiciresgon	-10801
▁kidbazadäy	-10802
▁koboraxaza	-10803
▁lamusyoqay	-10804
▁liɣʕonyayx	-10805
▁madaxortow	-10806
▁madazartow	-10807
▁madaƛäytow	-10808
▁maħorƛinno	-10809
▁mažgitägon	-10810
▁mažgitäɣor	-10811
▁mecrexorno	-10812
▁mešizaxozo	-10813
▁mežzoxosin	-10814
▁miskinawni	-10815
▁muhruzaxor	-10816
▁muradyołäy	-10817
▁nazosnotow	-10818
▁nesiqkinda	-10819
▁nesiqosini	-10820
▁nexxanuƛin	-10821
▁nexxowaƛin	-10822
▁nełaznitow	-10823
▁nełdäɣorno	-10824
▁neširutown	-10825
▁neƛxanuƛin	-10826
▁niʕmatyabi	-10827
▁nukarertow	-10828
▁nukarzasno	-10829
▁oqełxanuzo	-10830
▁panduryabi	-10831
▁putcenigon	-10832
▁qalamqaɣor	-10833
▁qalamxaɣor	-10834
▁qazaqzazno	-10835
▁qoqoƛixanu	-10836
▁qoqoƛixƛin	-10837
▁qunyoxaɣor	-10838
▁qunyoxorno	-10839
▁qʕaħłiqtow	-10840
▁qʕašacekin	-10841
▁qʕašaceƛin	-10842
▁qʕaširanix	-10843
▁qʕaƛanayru	-10844
▁qʕiƛurazaƛ	-10845
▁rayärnoƛin	-10846
▁raładyołno	-10847
▁raładyołsi	-10848
▁raɣʕäsitow	-10849
▁recenyocet	-10850
▁regirnokin	-10851
▁regirnoƛin	-10852
▁regirxoƛin	-10853
▁retixanusi	-10854
▁rexurnoanu	-10855
▁rexuxanusi	-10856
▁rexwadanix	-10857
▁reynodanix	-10858
▁reynodaniƛ	-10859
▁reynoynanu	-10860
▁rečuƛertow	-10861
▁ritirerzaƛ	-10862
▁ritäruntow	-10863
▁riyraniƛäy	-10864
▁rodanixgon	-10865
▁roqxosiƛin	-10866
▁roładyołer	-10867
▁roƛixnoƛin	-10868
▁roƛixsiƛin	-10869
▁rukadałxor	-10870
▁rukaranƛin	-10871
▁rutiranƛin	-10872
▁rutixanusi	-10873
▁rätiruntow	-10874
▁sabawyabin	-10875
▁saɣatyabin	-10876
▁sidernoƛin	-10877
▁tawakalyoƛ	-10878
▁teqnosigon	-10879
▁teƛanixƛin	-10880
▁teƛxanuƛin	-10881
▁ukayxanusi	-10882
▁ukayxanuwa	-10883
▁uqʕełnoƛin	-10884
▁wasiyatyoƛ	-10885
▁wilayatyoł	-10886
▁wizirłunno	-10887
▁xabaryołäy	-10888
▁xexoycekin	-10889
▁yayxanuƛax	-10890
▁yayxanuƛin	-10891
▁yaħnaynƛin	-10892
▁yałrułiƛin	-10893
▁yegirnoƛax	-10894
▁yegirsiƛin	-10895
▁yexoriłinč	-10896
▁yexurnoanu	-10897
▁yisanixƛin	-10898
▁yizärnoƛin	-10899
▁yičixozoni	-10900
▁yodiroƛƛin	-10901
▁yoxanixƛin	-10902
▁yoƛƛozoqor	-10903
▁zawrunigon	-10904
▁zawrunitow	-10905
▁zawrułiƛin	-10906
▁ziruznogon	-10907
▁ziyaratyoƛ	-10908
▁zowanirƛin	-10909
▁äƛirunigon	-10910
▁äƛiruxorno	-10911
▁čanaqanłiƛ	-10912
▁čardaħäɣor	-10913
▁čuqernoanu	-10914
▁Ħumukuliƛa	-10915
▁ħalalgotow	-10916
▁ħalikatawt	-10917
▁ħaƛuxosini	-10918
▁ħikmałiłer	-10919
▁ħonzaqaɣor	-10920
▁ħurženyabi	-10921
▁Łinasnokin	-10922
▁Łinasnotow	-10923
▁łebelawzas	-10924
▁łeɣirsiƛax	-10925
▁łinaqnokin	-10926
▁łinarnotow	-10927
▁łiyxosianu	-10928
▁łoħroderno	-10929
▁šaharyarno	-10930
▁šaharyaɣor	-10931
▁šušuliłäsi	-10932
▁Žabulawder	-10933
▁Žamaʕatyor	-10934
▁žadäɣorƛin	-10935
▁žamaʕattow	-10936
▁žamaʕatyor	-10937
▁žamaʕatyos	-10938
▁žamaʕatyoƛ	-10939
▁žedzoxaɣor	-10940
▁žiƛboyäƛin	-10941
▁ƛexandaƛin	-10942
▁ɣutanłäzay	-10943
▁ɣʕanabiłun	-10944
▁ɣʕanazader	-10945
▁ɣʕanazagon	-10946
▁ɣʕanazaqor	-10947
▁ɣʕanazaƛer	-10948
▁ɣʕuɣʕuruni	-10949
▁ʕUneyzates	-10950
▁ʕadalawniƛ	-10951
▁ʕagarłisno	-10952
▁ʕalazanyoz	-10953
▁ʕaƛaɣorƛin	-10954
▁Alimaħamade	-10955
▁Bazarganbin	-10956
▁Bazarganzar	-10957
▁Bertenyołer	-10958
▁Bertenyołäy	-10959
▁Dahawtowgon	-10960
▁Habihanägon	-10961
▁Ismaʕilesno	-10962
▁Mamalayägon	-10963
▁Mesedyoztow	-10964
▁Musaqilično	-10965
▁Mužmarłäzay	-10966
▁Nuʕłimorƛin	-10967
▁Oƛƛozonägon	-10968
▁Raładyołäza	-10969
▁Ražbadinłäy	-10970
▁Ražbadinƛin	-10971
▁Sasaqosigon	-10972
▁Xizaɣorsini	-10973
▁Zamanałäzay	-10974
▁ačqʕayxnoyä	-10975
▁barudäɣorno	-10976
▁baruzadäɣor	-10977
▁bazarganqay	-10978
▁bazarganzan	-10979
▁bazarganzał	-10980
▁bazaryayƛin	-10981
▁baħarčiƛinä	-10982
▁begiracekin	-10983
▁bertenyołäy	-10984
▁besuxanuƛin	-10985
▁bexurełxosi	-10986
▁bexwadanƛin	-10987
▁bełiquzaxar	-10988
▁biqiraniƛäy	-10989
▁bičintowgon	-10990
▁bičixosiƛin	-10991
▁biħanadanix	-10992
▁biħanayxozo	-10993
▁boƛixaceƛin	-10994
▁budalazaqor	-10995
▁buqbetaxtow	-10996
▁bʕulamzałer	-10997
▁bʕulamzałäy	-10998
▁dunyalkinwa	-10999
▁dunyalqoƛin	-11000
▁egirxanuƛin	-11001
▁eniwdäɣorno	-11002
▁exuranixƛin	-11003
▁eynodanixno	-11004
▁gedmoqaygon	-11005
▁gulunnantow	-11006
▁habihanerno	-11007
▁halmaɣdäɣor	-11008
▁halmaɣzaqay	-11009
▁halmaɣzasno	-11010
▁halmaɣłiqor	-11011
▁hemedurtown	-11012
▁hersiqanqor	-11013
▁iqiranixƛin	-11014
▁istolowäɣor	-11015
▁karačelyoza	-11016
▁kidbeqorƛin	-11017
▁kumakyoƛaza	-11018
▁lagiqnotown	-11019
▁lilyoxaytow	-11020
▁madaxosinin	-11021
▁madazaxaɣor	-11022
▁maħizaqorno	-11023
▁maħišatyoce	-11024
▁maħlazaytow	-11025
▁maʕišatäƛin	-11026
▁mesedyosgon	-11027
▁micxirnoƛin	-11028
▁micxiryosni	-11029
▁miskinawnin	-11030
▁mumpaʕatƛin	-11031
▁nełdäɣorƛin	-11032
▁niʕmatyabin	-11033
▁nukarzaskin	-11034
▁oqxanuwaƛin	-11035
▁qalamäɣorno	-11036
▁qʕaƛanayłin	-11037
▁raładyołäza	-11038
▁regirxanusi	-11039
▁retixanuƛin	-11040
▁reynoyrakin	-11041
▁rešonazałäy	-11042
▁riqanixaysi	-11043
▁riqiraniƛäy	-11044
▁risrersiƛin	-11045
▁riħanayxosi	-11046
▁riħurxozoni	-11047
▁roƛiquraɣor	-11048
▁roɣanƛintow	-11049
▁rutiraniƛäy	-11050
▁saɣyatyabin	-11051
▁sisxolisini	-11052
▁sisxolizoni	-11053
▁tamadaqorno	-11054
▁tambiħyoƛäy	-11055
▁tamiħyorƛin	-11056
▁taqʕaɣorgon	-11057
▁tatanaxorno	-11058
▁xabaryayxno	-11059
▁yexoriłxosi	-11060
▁yexuriyäƛin	-11061
▁yiłzaqayƛin	-11062
▁yukayruntow	-11063
▁äsiruxorgon	-11064
▁äƛiruxortow	-11065
▁Ħaƛuxozoxay	-11066
▁Ħurženyaɣor	-11067
▁ħamimyołxor	-11068
▁ħaƛuxanuƛin	-11069
▁ħukmatyozał	-11070
▁ħukmatyołer	-11071
▁ħumukulizaƛ	-11072
▁Łoxäƛirugon	-11073
▁łinasnotown	-11074
▁łiyranixƛin	-11075
▁łʕebozałäyn	-11076
▁Žabulawägon	-11077
▁žamaʕattown	-11078
▁žedudäɣorno	-11079
▁ɣoɣoriłnosi	-11080
▁ɣutanyołxor	-11081
▁ɣutkaɣorgon	-11082
▁ɣwʕadidäɣor	-11083
▁ɣʕanazacewa	-11084
▁ɣʕurušyozaƛ	-11085
▁ɣʕutkaɣorno	-11086
▁ʕAliqiličer	-11087
▁ʕAliqiličes	-11088
▁ʕAliqiličzo	-11089
▁ʕIsaqilično	-11090
▁ʕOloqanawni	-11091
▁ʕUmarqiličä	-11092
▁ʕUneyzatƛin	-11093
▁ʕaƛazaɣorno	-11094
▁ʕoloqzałxor	-11095
▁Alimaħamaqor	-11096
▁Alimaħamaƛin	-11097
▁Aħmaddäɣorno	-11098
▁Hemełaqułtow	-11099
▁Hudäyzikogon	-11100
▁Kwaxatowngon	-11101
▁Yegirxanuƛin	-11102
▁Zamanałäygon	-11103
▁bayrxanusiłi	-11104
▁bazaryaɣorno	-11105
▁begirxanuƛin	-11106
▁bertenyołkin	-11107
▁biqiranixƛin	-11108
▁biħanayxozoz	-11109
▁bišerxosiƛin	-11110
▁bišodyołäysi	-11111
▁bukarxanuƛin	-11112
▁däzodäɣorƛin	-11113
▁guluzałäygon	-11114
▁habihandäɣor	-11115
▁hemełatowgon	-11116
▁maduhalzaxar	-11117
▁mekoynosigon	-11118
▁nesiqayzoniq	-11119
▁qʕašixanuƛin	-11120
▁qʕaƛanayxosi	-11121
▁raħiranixgon	-11122
▁raʕalłixorno	-11123
▁regiranixƛin	-11124
▁regirxanuƛin	-11125
▁rukayxanuƛax	-11126
▁rutirnosiƛin	-11127
▁sasaqozoxgon	-11128
▁saʕatyacegon	-11129
▁urɣelyozałer	-11130
▁wasimoxorƛin	-11131
▁xexoyzadäɣor	-11132
▁xexzadäɣorno	-11133
▁zamanałäygon	-11134
▁zigaryayxƛin	-11135
▁ħukmatyołxor	-11136
▁łinaqazaykin	-11137
▁łʕonosinigon	-11138
▁šaharyaɣorno	-11139
▁žedudäɣorgon	-11140
▁ɣarabašzaqor	-11141
▁ʕAliqiličqor	-11142
▁ʕAliqiličtow	-11143
▁ʕArabuzanqor	-11144
▁ʕArabuzanƛin	-11145
▁ʕAwdunasireł	-11146
▁ʕIsaqiličqor	-11147
▁ʕUneyzatełno	-11148
▁Baxumesedagon	-11149
▁Baxumesedoƛin	-11150
▁Raładyołxorno	-11151
▁Yexursiƛingon	-11152
▁bazarganzaqay	-11153
▁bertenyołerno	-11154
▁betixozołäysi	-11155
▁biħnayxosiƛin	-11156
▁eniwdäɣortown	-11157
▁esnazadäɣorno	-11158
▁halmaɣłiqorno	-11159
▁indowrizaxosi	-11160
▁kidbedäɣorgon	-11161
▁madaxozoniqor	-11162
▁maduhalłiqozo	-11163
▁maduhalłiqtow	-11164
▁mažgityaɣorno	-11165
▁mesedyosnigon	-11166
▁raʕalłixorgon	-11167
▁uyraxäƛirugon	-11168
▁wazirzaqorgon	-11169
▁yegirxanuzoce	-11170
▁yiqiranƛingon	-11171
▁zamanałäzagon	-11172
▁ħurmatyoxaysi	-11173
▁šiqʕonyayxƛin	-11174
▁žamaʕatyołxor	-11175
▁ʕAwdunasirƛin	-11176
▁ʕUmarqiličƛin	-11177
▁ʕUneyzatdäɣor	-11178
▁ʕabdalbitowwa	-11179
▁bertenyołxorno	-11180
▁boqełxanuzoxor	-11181
▁rukayxanuwaƛin	-11182
▁bazarganzadetow	-11183
..”	-11184
aäƛ	-11185
epƛ	-11186
eža	-11187
ici	-11188
iɣa	-11189
oħo	-11190
oħr	-11191
roš	-11192
uča	-11193
yra	-11194
łän	-11195
ahli	-11196
amiħ	-11197
angi	-11198
arih	-11199
egä	-11200
ežu	-11201
▁Gu	-11202
arłä	-11203
asug	-11204
awla	-11205
axäƛ	-11206
ayyä	-11207
aħmu	-11208
aħna	-11209
ałgo	-11210
aƛäł	-11211
cura	-11212
czar	-11213
dagi	-11214
dany	-11215
duxƛ	-11216
däza	-11217
edeʕ	-11218
enän	-11219
ezał	-11220
ežet	-11221
ežuq	-11222
ežur	-11223
ežuł	-11224
garu	-11225
hanƛ	-11226
icir	-11227
ihun	-11228
illa	-11229
ilmu	-11230
ipaw	-11231
irän	-11232
iräł	-11233
isix	-11234
isiƛ	-11235
ixra	-11236
iƛbo	-11237
iɣar	-11238
iɣru	-11239
kala	-11240
krus	-11241
kude	-11242
lahi	-11243
lahä	-11244
limo	-11245
lisä	-11246
lkas	-11247
lkał	-11248
mart	-11249
marƛ	-11250
nays	-11251
nayƛ	-11252
nocu	-11253
noxa	-11254
noyx	-11255
noyä	-11256
obiw	-11257
obiy	-11258
omra	-11259
orän	-11260
osug	-11261
oħay	-11262
oħon	-11263
ožar	-11264
oƛƛi	-11265
pyan	-11266
qzar	-11267
qʕäł	-11268
ryoz	-11269
siyä	-11270
star	-11271
swan	-11272
tawn	-11273
tuza	-11274
ungi	-11275
unti	-11276
uxän	-11277
uzax	-11278
učin	-11279
učis	-11280
užah	-11281
uɣay	-11282
uɣuł	-11283
uɣuƛ	-11284
wadm	-11285
wanb	-11286
wʕac	-11287
xayt	-11288
xonč	-11289
ynod	-11290
ynon	-11291
yran	-11292
zatä	-11293
äcru	-11294
äcza	-11295
äyrc	-11296
čini	-11297
ħawn	-11298
ħran	-11299
ešy	-11300
git	-11301
itä	-11302
mma	-11303
qʕä	-11304
upi	-11305
xzi	-11306
čzi	-11307
žzi	-11308
adma	-11309
amma	-11310
ačit	-11311
ačqʕ	-11312
aɣma	-11313
ečma	-11314
ešer	-11315
ešno	-11316
ešoƛ	-11317
oƛäx	-11318
qʕaq	-11319
qʕay	-11320
qʕek	-11321
qʕeł	-11322
rali	-11323
uczi	-11324
upis	-11325
upiƛ	-11326
urma	-11327
äxno	-11328
äxru	-11329
äxur	-11330
äxza	-11331
ħrus	-11332
ħyor	-11333
łnon	-11334
łuya	-11335
žide	-11336
ƛisi	-11337
ƛnon	-11338
ƛozo	-11339
ʕali	-11340
ʕalä	-11341
ʕayä	-11342
ʕałz	-11343
ʕeƛo	-11344
ʕora	-11345
ʕura	-11346
ʕuyz	-11347
▁Aħu	-11348
▁Beh	-11349
▁Beɣ	-11350
▁Buž	-11351
▁Imx	-11352
▁Ixd	-11353
▁Ozy	-11354
▁Reɣ	-11355
▁Sap	-11356
▁Täƛ	-11357
▁Waʕ	-11358
▁Wer	-11359
▁Wiz	-11360
▁acm	-11361
▁acx	-11362
▁ask	-11363
▁ass	-11364
▁geg	-11365
▁iqʕ	-11366
▁kiʕ	-11367
▁muž	-11368
▁muʕ	-11369
▁uyr	-11370
▁zew	-11371
▁ʕIs	-11372
▁ʕIy	-11373
aderz	-11374
agali	-11375
ahary	-11376
aibaw	-11377
akmos	-11378
alayk	-11379
alays	-11380
alayz	-11381
alayƛ	-11382
alyor	-11383
amade	-11384
anbeg	-11385
ankan	-11386
ansan	-11387
anyor	-11388
anzaq	-11389
aqoza	-11390
arayz	-11391
arayä	-11392
arcel	-11393
aryam	-11394
aryoz	-11395
atyor	-11396
atyoz	-11397
awnoƛ	-11398
awłun	-11399
lƛ	-11400
ʕU	-11401
How	-11402
Miƛ	-11403
Raq	-11404
acł	-11405
aki	-11406
asg	-11407
aħq	-11408
exu	-11409
exł	-11410
iga	-11411
loq	-11412
req	-11413
sen	-11414
uyä	-11415
xas	-11416
xiq	-11417
čus	-11418
šid	-11419
ʕul	-11420
▁Ba	-11421
acir	-11422
alzo	-11423
amez	-11424
amuš	-11425
aħez	-11426
ekuy	-11427
ekuł	-11428
enir	-11429
eniz	-11430
enya	-11431
enyo	-11432
eruy	-11433
exun	-11434
exza	-11435
ezon	-11436
ezur	-11437
ełis	-11438
girč	-11439
igar	-11440
igol	-11441
inda	-11442
ityo	-11443
ixac	-11444
noda	-11445
odac	-11446
oqac	-11447
uyar	-11448
uyaw	-11449
uysi	-11450
ħada	-11451
Šebi	-11452
ɣors	-11453
ɣoru	-11454
▁Buy	-11455
▁yog	-11456
▁yuy	-11457
▁ħež	-11458
▁Žig	-11459
▁žig	-11460
adurä	-11461
ayzno	-11462
azbar	-11463
azirł	-11464
aħarč	-11465
ałäza	-11466
ašałi	-11467
ašuni	-11468
ažaib	-11469
aʕałi	-11470
aʕban	-11471
aʕbał	-11472
barya	-11473
betax	-11474
bikor	-11475
biłun	-11476
boqan	-11477
cingo	-11478
cirun	-11479
curxo	-11480
dagon	-11481
dinno	-11482
duxno	-11483
däzay	-11484
eboza	-11485
eceny	-11486
ediwt	-11487
edmoq	-11488
eduyä	-11489
ekwan	-11490
enƛin	-11491
erbaš	-11492
esubi	-11493
esura	-11494
exzaq	-11495
eykum	-11496
eymoł	-11497
eynoy	-11498
eyzat	-11499
Al	-11500
kƛ	-11501
qn	-11502
xn	-11503
Mam	-11504
Mus	-11505
Ram	-11506
aci	-11507
ami	-11508
amq	-11509
aqg	-11510
aqz	-11511
emq	-11512
emr	-11513
emu	-11514
huk	-11515
iqe	-11516
iqä	-11517
iqł	-11518
ixn	-11519
kam	-11520
lam	-11521
qen	-11522
sip	-11523
uld	-11524
čam	-11525
čur	-11526
ħam	-11527
ħiq	-11528
ħod	-11529
▁Xo	-11530
acno	-11531
alqo	-11532
amaw	-11533
ameł	-11534
amin	-11535
amoł	-11536
amoƛ	-11537
amäy	-11538
arur	-11539
asar	-11540
azon	-11541
cxir	-11542
ebex	-11543
emno	-11544
ečoł	-11545
ełim	-11546
ibos	-11547
inay	-11548
iqes	-11549
iziq	-11550
kind	-11551
marł	-11552
oniq	-11553
oqiq	-11554
oraw	-11555
oxer	-11556
oƛiq	-11557
ulaɣ	-11558
ulun	-11559
ulur	-11560
uniƛ	-11561
ärus	-11562
▁Dox	-11563
▁Qud	-11564
▁Sal	-11565
▁Tib	-11566
▁tar	-11567
amayn	-11568
ečker	-11569
ełinč	-11570
ešiza	-11571
eženä	-11572
eʕizi	-11573
gixwa	-11574
gonda	-11575
gärun	-11576
hanes	-11577
hanno	-11578
ibawz	-11579
idobi	-11580
idoza	-11581
inčey	-11582
iqosi	-11583
iquza	-11584
irłun	-11585
itown	-11586
ixoza	-11587
izirä	-11588
iħyor	-11589
išdäy	-11590
iƛbon	-11591
lahqo	-11592
lahzo	-11593
limor	-11594
lizaq	-11595
loqan	-11596
mares	-11597
mareł	-11598
mataw	-11599
Am	-11600
kx	-11601
nk	-11602
xi	-11603
Qiƛ	-11604
Rac	-11605
Raz	-11606
ahä	-11607
ass	-11608
ati	-11609
awg	-11610
azu	-11611
daz	-11612
imƛ	-11613
iny	-11614
iqa	-11615
iqq	-11616
iƛx	-11617
iƛä	-11618
kab	-11619
kaz	-11620
ked	-11621
mab	-11622
maz	-11623
onä	-11624
sał	-11625
suk	-11626
taz	-11627
wał	-11628
čiƛ	-11629
Ħaž	-11630
łaz	-11631
žib	-11632
ƛaq	-11633
ɣaz	-11634
▁Bʕ	-11635
▁Xe	-11636
aban	-11637
abas	-11638
abir	-11639
aces	-11640
alaz	-11641
aliƛ	-11642
apek	-11643
asaz	-11644
azor	-11645
azoł	-11646
azoƛ	-11647
ezen	-11648
ešun	-11649
irab	-11650
iruc	-11651
iruy	-11652
ixwa	-11653
kayn	-11654
oniƛ	-11655
umuk	-11656
urab	-11657
urur	-11658
šiza	-11659
▁Baħ	-11660
▁Bey	-11661
▁Yeɣ	-11662
▁yaz	-11663
▁Žab	-11664
▁Žoy	-11665
▁ɣʕi	-11666
anosi	-11667
azayn	-11668
gełno	-11669
irubi	-11670
iyayx	-11671
moqay	-11672
mosni	-11673
mozaƛ	-11674
mukus	-11675
naqay	-11676
nazaq	-11677
nociƛ	-11678
nocun	-11679
noxay	-11680
noxor	-11681
noxuq	-11682
noynč	-11683
nočas	-11684
näyƛa	-11685
oboyƛ	-11686
ocasi	-11687
ohomł	-11688
onayƛ	-11689
onoča	-11690
onoču	-11691
oqnon	-11692
oqozo	-11693
oqƛin	-11694
osiyä	-11695
osyar	-11696
oyxno	-11697
očori	-11698
oƛƛos	-11699
Mu	-11700
Oh	-11701
Rä	-11702
Ya	-11703
qt	-11704
sx	-11705
▁a	-11706
ame	-11707
amä	-11708
axy	-11709
diƛ	-11710
edä	-11711
ełä	-11712
gox	-11713
isä	-11714
kox	-11715
leł	-11716
lud	-11717
oxn	-11718
oxr	-11719
oxä	-11720
oyz	-11721
tox	-11722
udb	-11723
yaɣ	-11724
čzo	-11725
łac	-11726
šir	-11727
žig	-11728
žox	-11729
žud	-11730
ƛox	-11731
ɣar	-11732
ʕab	-11733
▁Iš	-11734
▁ul	-11735
▁čo	-11736
Sosi	-11737
acez	-11738
adiƛ	-11739
arid	-11740
aƛoz	-11741
aƛoł	-11742
bosi	-11743
dqor	-11744
edaz	-11745
inox	-11746
mqor	-11747
onyo	-11748
oxan	-11749
oxix	-11750
oxäy	-11751
ozaƛ	-11752
ołix	-11753
qqor	-11754
udal	-11755
uday	-11756
udir	-11757
udno	-11758
uliƛ	-11759
uxno	-11760
zasi	-11761
čqor	-11762
łqor	-11763
ʕoyn	-11764
▁Sod	-11765
▁elu	-11766
▁čuč	-11767
▁łeb	-11768
▁žiƛ	-11769
akany	-11770
alamä	-11771
anayx	-11772
aqaza	-11773
irqor	-11774
niqor	-11775
owqor	-11776
oxƛin	-11777
oyqor	-11778
oƛƛoz	-11779
patno	-11780
paʕat	-11781
qʕayx	-11782
ranno	-11783
rezax	-11784
rizaz	-11785
rołäy	-11786
sanes	-11787
sanzo	-11788
saqor	-11789
simoƛ	-11790
siran	-11791
sägon	-11792
säɣor	-11793
tanix	-11794
towli	-11795
tyabi	-11796
ugyoq	-11797
uhalä	-11798
uhalł	-11799
nʕ	-11800
ua	-11801
čm	-11802
ħz	-11803
žo	-11804
Dow	-11805
axa	-11806
axb	-11807
axw	-11808
ayk	-11809
bił	-11810
cal	-11811
ina	-11812
laz	-11813
lya	-11814
maq	-11815
mil	-11816
orx	-11817
oyq	-11818
oɣr	-11819
sax	-11820
wer	-11821
yam	-11822
ƛac	-11823
Baza	-11824
aceƛ	-11825
alim	-11826
asya	-11827
axaɣ	-11828
axxo	-11829
aħya	-11830
ałaz	-11831
aƛus	-11832
aɣde	-11833
aɣno	-11834
aɣya	-11835
baza	-11836
ebič	-11837
edya	-11838
egir	-11839
elez	-11840
iroy	-11841
irqo	-11842
ixza	-11843
naza	-11844
onot	-11845
oreł	-11846
orid	-11847
oyza	-11848
udox	-11849
wqor	-11850
xaza	-11851
yaza	-11852
äqor	-11853
činč	-11854
ʕaza	-11855
▁Her	-11856
▁Rał	-11857
▁daʕ	-11858
▁dik	-11859
▁esä	-11860
▁had	-11861
▁hax	-11862
▁miy	-11863
acʕal	-11864
anyoł	-11865
arinč	-11866
ayxoz	-11867
aħaza	-11868
aƛaza	-11869
bikin	-11870
idaza	-11871
ildis	-11872
qnosi	-11873
siqor	-11874
sxosi	-11875
talno	-11876
uhubi	-11877
ukzar	-11878
ulabi	-11879
ulmun	-11880
umaky	-11881
umruł	-11882
untar	-11883
untow	-11884
upäsi	-11885
uqbet	-11886
uqgon	-11887
usnaq	-11888
utanł	-11889
uzabi	-11890
uzqor	-11891
uħmat	-11892
ułgon	-11893
ułtow	-11894
ułƛin	-11895
ušimo	-11896
ušiwt	-11897
uƛert	-11898
wanno	-11899
Ač	-11900
Ik	-11901
Yo	-11902
šw	-11903
šz	-11904
amx	-11905
boy	-11906
caz	-11907
luk	-11908
oko	-11909
oyb	-11910
oyr	-11911
ros	-11912
saz	-11913
siq	-11914
tłi	-11915
ukm	-11916
ukł	-11917
čok	-11918
šok	-11919
šor	-11920
žuł	-11921
ƛuk	-11922
ƛxo	-11923
ʕer	-11924
▁Bo	-11925
▁ga	-11926
▁gw	-11927
▁oy	-11928
▁su	-11929
▁ät	-11930
aluk	-11931
anuw	-11932
arat	-11933
arun	-11934
aƛoy	-11935
cäsi	-11936
ezna	-11937
gäsi	-11938
iɣor	-11939
mäsi	-11940
nanu	-11941
noyn	-11942
ołiz	-11943
qäsi	-11944
säsi	-11945
täsi	-11946
uxay	-11947
xƛax	-11948
ynoy	-11949
zoxo	-11950
äsiw	-11951
äsiƛ	-11952
ƛosi	-11953
▁Raɣ	-11954
▁Sas	-11955
▁dan	-11956
▁gal	-11957
▁idä	-11958
▁yuq	-11959
▁ħoy	-11960
▁žoy	-11961
adäsi	-11962
alamq	-11963
anusi	-11964
aryan	-11965
gorno	-11966
izäsi	-11967
odäsi	-11968
osyoƛ	-11969
oxgon	-11970
oxäru	-11971
oħran	-11972
rnosi	-11973
soƛin	-11974
ukayn	-11975
unäsi	-11976
uräsi	-11977
utäsi	-11978
wataw	-11979
wačul	-11980
wedin	-11981
wʕaɣʕ	-11982
xaniƛ	-11983
xolis	-11984
yames	-11985
yatno	-11986
ynoda	-11987
ynoyn	-11988
yozaq	-11989
zataw	-11990
zates	-11991
zatno	-11992
zaxay	-11993
zirxo	-11994
zuzaƛ	-11995
zäɣor	-11996
äcinč	-11997
äciza	-11998
äcrus	-11999
Cu	-12000
ti	-12001
wx	-12002
yt	-12003
šx	-12004
žg	-12005
Gul	-12006
Mek	-12007
abd	-12008
ann	-12009
awƛ	-12010
cek	-12011
cru	-12012
ekk	-12013
eko	-12014
eme	-12015
goy	-12016
irä	-12017
liƛ	-12018
nek	-12019
noy	-12020
owł	-12021
qaɣ	-12022
ruš	-12023
ryo	-12024
udo	-12025
wru	-12026
xru	-12027
xya	-12028
yoħ	-12029
Ħay	-12030
šim	-12031
Žek	-12032
ƛru	-12033
ʕek	-12034
ʕru	-12035
ʕuz	-12036
▁Nu	-12037
▁so	-12038
▁ħe	-12039
▁ħi	-12040
▁ħu	-12041
Babi	-12042
abiw	-12043
abiy	-12044
adab	-12045
adek	-12046
akik	-12047
amim	-12048
amxo	-12049
anyo	-12050
aɣru	-12051
babi	-12052
eler	-12053
eneł	-12054
girƛ	-12055
iƛur	-12056
qäru	-12057
ugum	-12058
utyo	-12059
uɣor	-12060
wgon	-12061
äzar	-12062
ɣäsi	-12063
▁Bis	-12064
▁Nas	-12065
▁Neƛ	-12066
▁Zam	-12067
▁dic	-12068
▁ozq	-12069
▁sad	-12070
▁san	-12071
▁zen	-12072
▁ħar	-12073
▁ħay	-12074
▁ħin	-12075
▁šiq	-12076
▁Žał	-12077
▁ʕen	-12078
anuce	-12079
daħez	-12080
daħno	-12081
eyqor	-12082
inabi	-12083
urabi	-12084
yagon	-12085
ynƛax	-12086
äczar	-12087
ädgon	-12088
äkiru	-12089
äxinč	-12090
äxrun	-12091
äyzoƛ	-12092
čizay	-12093
čruni	-12094
łaniƛ	-12095
łimor	-12096
łisno	-12097
łixor	-12098
šelno	-12099
Ta	-12100
br	-12101
qi	-12102
rħ	-12103
te	-12104
yz	-12105
čä	-12106
žz	-12107
ƛr	-12108
Nas	-12109
ask	-12110
bez	-12111
edł	-12112
gut	-12113
hut	-12114
son	-12115
tas	-12116
uqb	-12117
xut	-12118
yey	-12119
čas	-12120
čel	-12121
Ħas	-12122
ħun	-12123
łsi	-12124
Žas	-12125
žas	-12126
ʕut	-12127
▁Eɣ	-12128
▁ke	-12129
Ižin	-12130
abru	-12131
asad	-12132
asal	-12133
asey	-12134
asoq	-12135
asoł	-12136
awes	-12137
aħas	-12138
aɣiq	-12139
exeƛ	-12140
ełał	-12141
izyo	-12142
odyo	-12143
oged	-12144
osik	-12145
oƛas	-12146
ukan	-12147
ulon	-12148
unyo	-12149
utaw	-12150
utał	-12151
utni	-12152
zzaq	-12153
▁say	-12154
aqinč	-12155
asgon	-12156
astow	-12157
aydan	-12158
birno	-12159
cirno	-12160
degon	-12161
iqtow	-12162
irnok	-12163
iɣʕon	-12164
mirno	-12165
qirno	-12166
rušaw	-12167
täɣor	-12168
yoƛin	-12169
zanix	-12170
zizaƛ	-12171
čirno	-12172
ħirno	-12173
łirno	-12174
šerxo	-12175
širno	-12176
šnayx	-12177
šurno	-12178
žanix	-12179
žirno	-12180
žizin	-12181
žmarł	-12182
žmarƛ	-12183
ƛanix	-12184
ƛerce	-12185
ƛinan	-12186
ƛinäy	-12187
ƛirno	-12188
ɣanix	-12189
ɣaniƛ	-12190
ɣenin	-12191
ɣenän	-12192
ɣnosi	-12193
ɣorsi	-12194
ɣułxo	-12195
ɣweni	-12196
ʕader	-12197
ʕadin	-12198
ʕaliƛ	-12199
ue	-12200
Qem	-12201
Rec	-12202
amt	-12203
anƛ	-12204
ałt	-12205
bir	-12206
duk	-12207
end	-12208
ene	-12209
ečo	-12210
eži	-12211
iqb	-12212
kał	-12213
kon	-12214
oqx	-12215
orq	-12216
oži	-12217
tax	-12218
tyo	-12219
uži	-12220
yał	-12221
ħoł	-12222
łik	-12223
žił	-12224
ɣiz	-12225
▁Ač	-12226
▁Ro	-12227
Bayn	-12228
Debi	-12229
abaš	-12230
adid	-12231
alał	-12232
awza	-12233
ayaw	-12234
ałix	-12235
ałni	-12236
ałza	-12237
caza	-12238
ebał	-12239
edał	-12240
eduq	-12241
edus	-12242
eduy	-12243
eduz	-12244
ežus	-12245
inži	-12246
obon	-12247
orał	-12248
oƛaƛ	-12249
sayn	-12250
ulan	-12251
usaq	-12252
zayn	-12253
ziru	-12254
šayn	-12255
žiza	-12256
ƛäsi	-12257
ɣorz	-12258
ʕaɣu	-12259
▁bež	-12260
▁dah	-12261
▁eži	-12262
▁iži	-12263
▁maž	-12264
▁nas	-12265
▁wer	-12266
▁yey	-12267
▁yeš	-12268
▁łäħ	-12269
▁žam	-12270
adqor	-12271
alayn	-12272
aqayn	-12273
aynäy	-12274
exäsi	-12275
kaɣor	-12276
očyaƛ	-12277
wačni	-12278
wruni	-12279
yakin	-12280
širur	-12281
ʕalno	-12282
ʕalär	-12283
ʕaniƛ	-12284
ʕałer	-12285
ʕašiƛ	-12286
ʕaƛux	-12287
ʕeƛoq	-12288
ʕołun	-12289
ʕoƛas	-12290
ʕoƛał	-12291
ʕoƛaƛ	-12292
ʕoƛir	-12293
▁Aħoz	-12294
▁Ence	-12295
▁Eɣen	-12296
▁Kwax	-12297
▁Ozza	-12298
▁Sayɣ	-12299
hr	-12300
km	-12301
ky	-12302
lz	-12303
lž	-12304
Šo	-12305
ʕo	-12306
Eni	-12307
Maħ	-12308
Waz	-12309
aqe	-12310
asm	-12311
asu	-12312
aħa	-12313
aħm	-12314
aħo	-12315
aħu	-12316
aħł	-12317
ałr	-12318
bru	-12319
ced	-12320
dxo	-12321
gił	-12322
lxo	-12323
maħ	-12324
niq	-12325
oxo	-12326
rak	-12327
row	-12328
uxo	-12329
ułk	-12330
xno	-12331
xok	-12332
xos	-12333
łni	-12334
Šeƛ	-12335
ƛni	-12336
ʕaħ	-12337
ʕni	-12338
▁Bi	-12339
▁ƛi	-12340
▁ƛä	-12341
amaq	-12342
anxo	-12343
ayxo	-12344
azad	-12345
aħeł	-12346
aħor	-12347
aħoy	-12348
aʕid	-12349
exan	-12350
eƛir	-12351
eƛxo	-12352
ideƛ	-12353
oqeł	-12354
orxo	-12355
owxo	-12356
udul	-12357
uxix	-12358
▁bor	-12359
▁elb	-12360
▁Šib	-12361
▁šin	-12362
▁ƛir	-12363
adinq	-12364
alabi	-12365
asiya	-12366
aysin	-12367
baraw	-12368
idayn	-12369
irabi	-12370
nigon	-12371
odyox	-12372
owžin	-12373
siyoł	-12374
ukrun	-12375
ynosi	-12376
čiyaw	-12377
šiƛin	-12378
ɣatno	-12379
ɣorił	-12380
▁Taxƛ	-12381
▁Wayč	-12382
▁ador	-12383
▁anun	-12384
▁aqug	-12385
▁asaz	-12386
▁aɣiq	-12387
▁aɣʕw	-12388
▁bałg	-12389
▁bešn	-12390
▁biži	-12391
▁bogm	-12392
▁boww	-12393
▁dawl	-12394
▁doxt	-12395
▁elaz	-12396
▁elud	-12397
▁eray	-12398
▁eƛił	-12399
ne	-12400
pe	-12401
äg	-12402
čz	-12403
łn	-12404
Ceƛ	-12405
Daɣ	-12406
Deb	-12407
Neƛ	-12408
Raɣ	-12409
Reƛ	-12410
abs	-12411
ane	-12412
aħl	-12413
ažo	-12414
aɣa	-12415
aɣb	-12416
aɣd	-12417
aɣł	-12418
baɣ	-12419
beƛ	-12420
dag	-12421
dał	-12422
daɣ	-12423
doƛ	-12424
exb	-12425
eƛa	-12426
eƛo	-12427
eƛx	-12428
eƛä	-12429
god	-12430
kay	-12431
ork	-12432
saɣ	-12433
tni	-12434
waɣ	-12435
xaɣ	-12436
zaɣ	-12437
▁bo	-12438
▁du	-12439
Qaza	-12440
axir	-12441
ayde	-12442
azaz	-12443
aƛaɣ	-12444
aɣer	-12445
aɣes	-12446
aɣin	-12447
aɣza	-12448
durä	-12449
ebaq	-12450
ebeł	-12451
ebeƛ	-12452
ebno	-12453
ełaz	-12454
eƛan	-12455
idaɣ	-12456
iraɣ	-12457
moyn	-12458
muku	-12459
owac	-12460
očiƛ	-12461
snäy	-12462
uses	-12463
▁bey	-12464
▁cud	-12465
▁eqä	-12466
▁hoh	-12467
▁kaɣ	-12468
▁naɣ	-12469
▁yar	-12470
▁šeb	-12471
▁ɣed	-12472
abrun	-12473
abtow	-12474
amƛin	-12475
andur	-12476
aruni	-12477
ałgon	-12478
ebiey	-12479
ekoyn	-12480
iroyn	-12481
irude	-12482
oqäsi	-12483
taɣor	-12484
čanix	-12485
ħotow	-12486
ženił	-12487
▁gegm	-12488
▁hawš	-12489
▁hilm	-12490
▁igox	-12491
▁inži	-12492
▁iqin	-12493
▁iqär	-12494
▁iħur	-12495
▁kidw	-12496
▁kwax	-12497
▁lagi	-12498
▁maxš	-12499
Rʕ	-12500
do	-12501
kä	-12502
yg	-12503
łʕ	-12504
ʕA	-12505
Kut	-12506
Užä	-12507
aky	-12508
aƛa	-12509
aƛi	-12510
aɣw	-12511
baƛ	-12512
dno	-12513
dod	-12514
gaƛ	-12515
odi	-12516
odo	-12517
odä	-12518
qiƛ	-12519
saƛ	-12520
säq	-12521
taƛ	-12522
uħo	-12523
yod	-12524
zad	-12525
čaƛ	-12526
ħan	-12527
ħox	-12528
Šid	-12529
žaƛ	-12530
ƛaƛ	-12531
ɣix	-12532
ʕac	-12533
▁wa	-12534
adaƛ	-12535
adaɣ	-12536
aƛar	-12537
aƛno	-12538
aƛun	-12539
aʕał	-12540
ciza	-12541
ediz	-12542
eyqo	-12543
ełar	-12544
ełaƛ	-12545
irod	-12546
izoƛ	-12547
odan	-12548
odes	-12549
odoƛ	-12550
odäy	-12551
oxaz	-12552
qgon	-12553
uħar	-12554
äyru	-12555
ħtow	-12556
ženy	-12557
ƛgon	-12558
▁Ass	-12559
▁Nuk	-12560
▁Waz	-12561
▁mam	-12562
▁sod	-12563
▁šey	-12564
▁Žuk	-12565
▁žak	-12566
anuza	-12567
aqoni	-12568
dalbi	-12569
ganix	-12570
girac	-12571
ingon	-12572
ixgon	-12573
lahes	-12574
nogon	-12575
rukin	-12576
sianu	-12577
ungon	-12578
xoräł	-12579
▁betu	-12580
▁iził	-12581
▁maza	-12582
▁mežu	-12583
▁minn	-12584
▁must	-12585
▁mʕal	-12586
▁narč	-12587
▁nazo	-12588
▁nedu	-12589
▁pečm	-12590
▁rawn	-12591
▁resu	-12592
▁rexu	-12593
▁rešn	-12594
▁reži	-12595
▁roqn	-12596
▁roƛn	-12597
▁roɣr	-12598
▁sald	-12599
Kw	-12600
Se	-12601
dg	-12602
hq	-12603
ih	-12604
wn	-12605
čr	-12606
Qud	-12607
Tam	-12608
Wey	-12609
Yed	-12610
Yey	-12611
aey	-12612
azb	-12613
bey	-12614
ebu	-12615
eyb	-12616
eye	-12617
eym	-12618
ine	-12619
ley	-12620
mez	-12621
ołx	-12622
saħ	-12623
tey	-12624
ułƛ	-12625
waz	-12626
wey	-12627
xed	-12628
xuk	-12629
šer	-12630
šiq	-12631
žiq	-12632
ƛor	-12633
ʕat	-12634
▁Si	-12635
▁Tä	-12636
adax	-12637
aley	-12638
arey	-12639
biey	-12640
dgon	-12641
ediy	-12642
eyza	-12643
gond	-12644
igon	-12645
ixos	-12646
izon	-12647
očin	-12648
sgon	-12649
sinä	-12650
uden	-12651
ukad	-12652
ułer	-12653
▁Haw	-12654
▁Ned	-12655
▁diy	-12656
▁dox	-12657
▁duʕ	-12658
▁rey	-12659
▁suƛ	-12660
awgon	-12661
aɣłun	-12662
bigon	-12663
ergon	-12664
ełgon	-12665
iwgon	-12666
iwqor	-12667
obora	-12668
odinč	-12669
sigon	-12670
towey	-12671
ukanä	-12672
urxoz	-12673
xoran	-12674
ziƛin	-12675
▁pikr	-12676
▁sidd	-12677
▁side	-12678
▁užib	-12679
▁xanb	-12680
▁xand	-12681
▁xane	-12682
▁xanq	-12683
▁xanz	-12684
▁xanł	-12685
▁xiri	-12686
▁yaħn	-12687
▁yałz	-12688
▁yiyx	-12689
▁yows	-12690
▁yoƛä	-12691
▁äsir	-12692
▁čanm	-12693
▁ħukm	-12694
▁Łʕor	-12695
▁šemr	-12696
▁šeyx	-12697
▁Žaqʕ	-12698
▁žaza	-12699
dq	-12700
dł	-12701
nɣ	-12702
rk	-12703
ss	-12704
če	-12705
ƛł	-12706
ɣb	-12707
Biƛ	-12708
Bud	-12709
Ciq	-12710
Rok	-12711
Taw	-12712
Zey	-12713
acʕ	-12714
alk	-12715
awa	-12716
awd	-12717
awh	-12718
awo	-12719
awr	-12720
awu	-12721
awx	-12722
awł	-12723
awš	-12724
axo	-12725
baw	-12726
bun	-12727
caƛ	-12728
ceg	-12729
cey	-12730
coł	-12731
idi	-12732
maw	-12733
oyƛ	-12734
oła	-12735
ołi	-12736
ołƛ	-12737
ruƛ	-12738
soł	-12739
xoł	-12740
čoł	-12741
čyo	-12742
ħaw	-12743
ħir	-12744
ħis	-12745
Šeb	-12746
žar	-12747
ƛoł	-12748
ʕoł	-12749
▁Ho	-12750
▁he	-12751
▁us	-12752
▁Ša	-12753
▁ɣw	-12754
Nesi	-12755
aɣbi	-12756
biya	-12757
dayn	-12758
dinä	-12759
emas	-12760
eyes	-12761
idaw	-12762
iroł	-12763
odal	-12764
olaq	-12765
orat	-12766
ołal	-12767
ołer	-12768
ołsi	-12769
uraɣ	-12770
uron	-12771
ułir	-12772
wrun	-12773
žinč	-12774
▁roł	-12775
▁xiy	-12776
▁Ħum	-12777
amzał	-12778
awƛin	-12779
aɣʕiƛ	-12780
esedy	-12781
idtow	-12782
ruzał	-12783
saxor	-12784
širun	-12785
▁užid	-12786
▁ɣʕut	-12787
▁ɣʕuɣ	-12788
▁ʕAwd	-12789
▁ʕaza	-12790
▁ʕuqł	-12791
abaniƛ	-12792
abihan	-12793
abužah	-12794
adaqor	-12795
adurer	-12796
agalin	-12797
agalun	-12798
agazin	-12799
Aɣ	-12800
Ka	-12801
Ra	-12802
So	-12803
lq	-12804
se	-12805
yi	-12806
šu	-12807
Hal	-12808
Xal	-12809
acx	-12810
ale	-12811
alu	-12812
alł	-12813
alƛ	-12814
ate	-12815
axr	-12816
aƛʕ	-12817
bas	-12818
ciz	-12819
daƛ	-12820
hal	-12821
ikr	-12822
lad	-12823
lal	-12824
liq	-12825
mal	-12826
oro	-12827
sal	-12828
zag	-12829
zap	-12830
zod	-12831
Ħal	-12832
Łaz	-12833
ɣuƛ	-12834
▁ge	-12835
▁ɣa	-12836
agan	-12837
alad	-12838
albi	-12839
aħix	-12840
aɣix	-12841
btow	-12842
etow	-12843
idat	-12844
ntow	-12845
owal	-12846
ołir	-12847
qtow	-12848
sanä	-12849
towe	-12850
ttow	-12851
umox	-12852
urac	-12853
ural	-12854
usad	-12855
usez	-12856
ułen	-12857
xgon	-12858
xtow	-12859
ytow	-12860
łtow	-12861
▁dal	-12862
▁oqč	-12863
▁ʕAw	-12864
adtow	-12865
aqtow	-12866
arawn	-12867
atyoł	-12868
celin	-12869
edtow	-12870
ełtow	-12871
inqor	-12872
ityoz	-12873
ixtow	-12874
maɣbi	-12875
nixor	-12876
oƛixn	-12877
ukani	-12878
uytow	-12879
uʕbin	-12880
ʕirun	-12881
▁yayä	-12882
▁zoww	-12883
▁ɣʕur	-12884
agäƛin	-12885
ahalno	-12886
aharya	-12887
akičur	-12888
alamał	-12889
alarno	-12890
alazan	-12891
alaƛin	-12892
amanał	-12893
amasno	-12894
amazan	-12895
amaƛin	-12896
amaʕat	-12897
amirno	-12898
amołno	-12899
ba	-12900
pä	-12901
Ħa	-12902
ħq	-12903
šä	-12904
Žä	-12905
Kus	-12906
Raž	-12907
Wiz	-12908
Yiz	-12909
alt	-12910
baz	-12911
esa	-12912
esm	-12913
ełƛ	-12914
eƛn	-12915
hiz	-12916
inƛ	-12917
irq	-12918
iyo	-12919
izy	-12920
izä	-12921
ony	-12922
oɣƛ	-12923
qiz	-12924
ruc	-12925
tes	-12926
wiz	-12927
xaz	-12928
yxo	-12929
čiz	-12930
čox	-12931
Ħoy	-12932
ħes	-12933
žan	-12934
žał	-12935
ɣal	-12936
ɣes	-12937
▁Bu	-12938
▁Ri	-12939
▁yo	-12940
▁ši	-12941
▁šu	-12942
▁šä	-12943
▁ʕo	-12944
Habi	-12945
adiz	-12946
akiƛ	-12947
alag	-12948
amas	-12949
ayac	-12950
däsi	-12951
ebun	-12952
ekay	-12953
emeł	-12954
esin	-12955
esiƛ	-12956
ełiz	-12957
ginč	-12958
ines	-12959
iqus	-12960
izor	-12961
izäy	-12962
ičus	-12963
ower	-12964
oyiƛ	-12965
rnok	-12966
siya	-12967
unes	-12968
uyoƛ	-12969
▁Mes	-12970
▁Rad	-12971
▁zud	-12972
▁šad	-12973
▁ƛaƛ	-12974
▁ʕay	-12975
antow	-12976
axaza	-12977
ayxow	-12978
azace	-12979
išäsi	-12980
ustow	-12981
utkoł	-12982
zirno	-12983
▁Qaza	-12984
▁biqä	-12985
amalig	-12986
amusaw	-12987
amäɣor	-12988
anaʕał	-12989
anerno	-12990
aniłxo	-12991
anuƛin	-12992
aparno	-12993
aqilič	-12994
aqʕyoł	-12995
aramaw	-12996
aramał	-12997
aranin	-12998
aranix	-12999
Eš	-13000
Ig	-13001
Ok	-13002
Os	-13003
Ru	-13004
cs	-13005
wl	-13006
zg	-13007
Ħo	-13008
ɣƛ	-13009
Kin	-13010
abr	-13011
aɣi	-13012
emo	-13013
erx	-13014
gur	-13015
ibo	-13016
ind	-13017
kno	-13018
kud	-13019
mir	-13020
mru	-13021
mäy	-13022
nno	-13023
nok	-13024
onƛ	-13025
rux	-13026
sic	-13027
sir	-13028
siw	-13029
siƛ	-13030
tno	-13031
tya	-13032
xbi	-13033
xoy	-13034
ysi	-13035
zno	-13036
zun	-13037
čno	-13038
ħar	-13039
ħin	-13040
ħno	-13041
ƛno	-13042
ɣaw	-13043
▁Xa	-13044
▁ce	-13045
▁nʕ	-13046
▁še	-13047
▁ɣu	-13048
abih	-13049
abił	-13050
adam	-13051
aliz	-13052
alun	-13053
anzo	-13054
arud	-13055
ažin	-13056
esuł	-13057
eƛoq	-13058
idiw	-13059
inas	-13060
iƛax	-13061
manƛ	-13062
osiy	-13063
oxis	-13064
ozał	-13065
tali	-13066
udał	-13067
uqła	-13068
šƛin	-13069
▁Maʕ	-13070
▁esu	-13071
▁ħik	-13072
▁łuk	-13073
▁Šap	-13074
aƛiru	-13075
aɣinč	-13076
dirno	-13077
ebint	-13078
eƛinč	-13079
manaƛ	-13080
maɣer	-13081
mildi	-13082
odyos	-13083
turun	-13084
▁debe	-13085
arihun	-13086
ariyaw	-13087
ariłäy	-13088
artayn	-13089
arusno	-13090
aruzas	-13091
asaqay	-13092
asiłno	-13093
attown	-13094
atyabi	-13095
axataw	-13096
axruni	-13097
axumes	-13098
ayatzo	-13099
Ad	-13100
Xo	-13101
by	-13102
bł	-13103
cł	-13104
dr	-13105
dt	-13106
dz	-13107
gc	-13108
hl	-13109
hm	-13110
kg	-13111
lʕ	-13112
py	-13113
qł	-13114
tr	-13115
zm	-13116
Ħi	-13117
ħn	-13118
Łʕ	-13119
Ša	-13120
šl	-13121
ƛč	-13122
ʕr	-13123
Bay	-13124
Yaq	-13125
alm	-13126
amƛ	-13127
asa	-13128
ayb	-13129
aƛä	-13130
dar	-13131
eli	-13132
ged	-13133
mer	-13134
obo	-13135
ona	-13136
ore	-13137
tut	-13138
ukr	-13139
ury	-13140
xin	-13141
yes	-13142
čin	-13143
čor	-13144
Žoy	-13145
ɣru	-13146
ɣun	-13147
▁eł	-13148
▁ku	-13149
▁sa	-13150
ahno	-13151
amar	-13152
aqäy	-13153
azaɣ	-13154
aħir	-13155
ebez	-13156
ekoq	-13157
emed	-13158
eyez	-13159
ibaq	-13160
iqza	-13161
irul	-13162
kinł	-13163
omxo	-13164
once	-13165
ozäy	-13166
tƛin	-13167
ukłi	-13168
usaw	-13169
ħƛin	-13170
ɣorä	-13171
▁Bor	-13172
▁ger	-13173
▁šul	-13174
aryoƛ	-13175
atyos	-13176
aħqor	-13177
guƛin	-13178
iwkin	-13179
ħurxo	-13180
ʕaƛun	-13181
ʕuneł	-13182
▁axor	-13183
▁ayxo	-13184
▁ižan	-13185
▁nełq	-13186
adurzo	-13187
anbegä	-13188
asiƛin	-13189
ayibno	-13190
ayngon	-13191
aysƛin	-13192
ayägon	-13193
azabno	-13194
azadäy	-13195
azagon	-13196
azanno	-13197
azaqxo	-13198
azaqza	-13199
As	-13200
Et	-13201
Eč	-13202
In	-13203
Nu	-13204
Oš	-13205
Uy	-13206
We	-13207
Wi	-13208
Wʕ	-13209
bs	-13210
gw	-13211
hn	-13212
lb	-13213
mt	-13214
mz	-13215
sz	-13216
wc	-13217
wz	-13218
xg	-13219
čn	-13220
łk	-13221
Šu	-13222
žƛ	-13223
ƛt	-13224
ʕy	-13225
Nes	-13226
abu	-13227
akm	-13228
axu	-13229
aʕy	-13230
ciƛ	-13231
daq	-13232
eƛe	-13233
inä	-13234
irc	-13235
koq	-13236
neł	-13237
niy	-13238
ołk	-13239
unn	-13240
wal	-13241
waħ	-13242
xan	-13243
xiƛ	-13244
yal	-13245
čan	-13246
łed	-13247
Žar	-13248
ƛäy	-13249
anax	-13250
aqey	-13251
ayoƛ	-13252
aʕiz	-13253
edas	-13254
ekas	-13255
isoł	-13256
lgon	-13257
odir	-13258
towg	-13259
udod	-13260
uräy	-13261
zgon	-13262
▁Bad	-13263
▁Bäx	-13264
▁Meš	-13265
▁Nec	-13266
▁bʕe	-13267
▁ned	-13268
▁roš	-13269
▁xaz	-13270
adyos	-13271
azary	-13272
ezura	-13273
kinza	-13274
onaza	-13275
oqgon	-13276
očyox	-13277
zaƛin	-13278
▁bišw	-13279
▁buqb	-13280
▁yaqʕ	-13281
▁yiłq	-13282
aqʕaza	-13283
artayä	-13284
azaħno	-13285
azirbi	-13286
azirza	-13287
aħamar	-13288
aħamas	-13289
aħataw	-13290
aħirno	-13291
aħirxo	-13292
aħnayx	-13293
ałäzay	-13294
ažarin	-13295
aƛanix	-13296
aƛirno	-13297
aƛurno	-13298
aʕanan	-13299
Bä	-13300
Ix	-13301
Iħ	-13302
Mo	-13303
Ne	-13304
Oč	-13305
Oƛ	-13306
Re	-13307
Ti	-13308
bo	-13309
cz	-13310
dl	-13311
kb	-13312
ld	-13313
le	-13314
lm	-13315
nw	-13316
rm	-13317
rq	-13318
xs	-13319
xy	-13320
zw	-13321
zł	-13322
ħł	-13323
šƛ	-13324
ɣz	-13325
Boy	-13326
Buk	-13327
Esi	-13328
ard	-13329
awz	-13330
aɣä	-13331
bor	-13332
ekz	-13333
ezn	-13334
gor	-13335
iƛu	-13336
mex	-13337
oqw	-13338
oqč	-13339
org	-13340
qez	-13341
sič	-13342
xix	-13343
zax	-13344
ziq	-13345
čeł	-13346
žix	-13347
ʕod	-13348
▁mä	-13349
▁zo	-13350
adbi	-13351
adya	-13352
ahzo	-13353
anab	-13354
anaq	-13355
aner	-13356
ayno	-13357
ebig	-13358
eqay	-13359
exya	-13360
exłi	-13361
imes	-13362
iqaɣ	-13363
iqez	-13364
ixxo	-13365
odił	-13366
ogce	-13367
onär	-13368
stow	-13369
udax	-13370
utur	-13371
žäsi	-13372
ƛnin	-13373
▁Raž	-13374
▁ʕel	-13375
anaza	-13376
attow	-13377
ayzay	-13378
elawä	-13379
enqor	-13380
irnon	-13381
matyo	-13382
ruxor	-13383
zoxay	-13384
šxanu	-13385
▁Išam	-13386
▁bert	-13387
▁ceył	-13388
▁qʕal	-13389
anałäy	-13390
anixay	-13391
aʕataw	-13392
aʕatyo	-13393
baryan	-13394
baryoz	-13395
baryoł	-13396
calini	-13397
cisƛin	-13398
dinqor	-13399
Ac	-13400
Aq	-13401
Aw	-13402
Bu	-13403
Da	-13404
Do	-13405
Ha	-13406
Ił	-13407
Ke	-13408
bd	-13409
ie	-13410
mä	-13411
ns	-13412
nx	-13413
nž	-13414
rz	-13415
sm	-13416
ws	-13417
wu	-13418
ym	-13419
yɣ	-13420
zb	-13421
zq	-13422
zt	-13423
äč	-13424
čt	-13425
čƛ	-13426
Łi	-13427
łt	-13428
łł	-13429
ɣq	-13430
ʕƛ	-13431
Her	-13432
Hor	-13433
Yoƛ	-13434
asy	-13435
atu	-13436
ayw	-13437
boq	-13438
dix	-13439
eqä	-13440
giq	-13441
had	-13442
hoq	-13443
ing	-13444
ire	-13445
kor	-13446
koł	-13447
noa	-13448
oqb	-13449
sia	-13450
sig	-13451
tal	-13452
uxä	-13453
yak	-13454
šyo	-13455
ɣud	-13456
▁ra	-13457
agax	-13458
amed	-13459
arer	-13460
arƛa	-13461
aƛäy	-13462
ecix	-13463
emec	-13464
esan	-13465
esur	-13466
iqeł	-13467
oqaq	-13468
ores	-13469
osuk	-13470
oƛer	-13471
uras	-13472
urey	-13473
wann	-13474
xayx	-13475
yqor	-13476
▁cuƛ	-13477
▁dab	-13478
▁elz	-13479
abiya	-13480
eƛƛin	-13481
ołäyn	-13482
taraw	-13483
tolow	-13484
šerno	-13485
ʕnosi	-13486
▁bexu	-13487
anawni	-13488
axosin	-13489
azires	-13490
dinłiƛ	-13491
duräza	-13492
ebigon	-13493
ebikin	-13494
ebitow	-13495
ecetow	-13496
ecirno	-13497
edanił	-13498
edonno	-13499
Ar	-13500
Eɣ	-13501
Hu	-13502
Iz	-13503
Iž	-13504
Un	-13505
dw	-13506
gm	-13507
gt	-13508
hu	-13509
hä	-13510
oa	-13511
po	-13512
rh	-13513
wo	-13514
xr	-13515
yb	-13516
äɣ	-13517
Ħu	-13518
ħy	-13519
ħƛ	-13520
łs	-13521
šm	-13522
šq	-13523
št	-13524
ƛu	-13525
ɣy	-13526
ɣä	-13527
ʕm	-13528
Bar	-13529
ady	-13530
alg	-13531
ałx	-13532
ažd	-13533
csi	-13534
haw	-13535
inz	-13536
iqi	-13537
iƛc	-13538
kas	-13539
mix	-13540
niz	-13541
ody	-13542
owe	-13543
oył	-13544
qes	-13545
qeł	-13546
qno	-13547
ułe	-13548
xur	-13549
žay	-13550
žur	-13551
Yayn	-13552
aceł	-13553
arus	-13554
asoƛ	-13555
azac	-13556
ažan	-13557
cing	-13558
edaw	-13559
ener	-13560
epaw	-13561
ełza	-13562
ixin	-13563
izox	-13564
laza	-13565
oqix	-13566
oxir	-13567
raza	-13568
tinč	-13569
uɣud	-13570
weni	-13571
xinč	-13572
ätow	-13573
šäsi	-13574
Žeda	-13575
ƛino	-13576
ʕäsi	-13577
▁Mir	-13578
▁Šeb	-13579
anabi	-13580
aqino	-13581
arani	-13582
azara	-13583
aħozo	-13584
ixaza	-13585
nazaƛ	-13586
snosi	-13587
uxƛin	-13588
eduqor	-13589
edäɣor	-13590
elawär	-13591
emuƛin	-13592
enešno	-13593
enyabi	-13594
eqerno	-13595
erxosi	-13596
esitow	-13597
esuzaƛ	-13598
etałer	-13599
Ce	-13600
Iy	-13601
Ze	-13602
gy	-13603
he	-13604
ho	-13605
mm	-13606
mr	-13607
qb	-13608
rc	-13609
ui	-13610
wq	-13611
wä	-13612
wƛ	-13613
yk	-13614
ze	-13615
äa	-13616
łx	-13617
ʕi	-13618
Nar	-13619
Sod	-13620
aƛu	-13621
bič	-13622
cis	-13623
eyd	-13624
ezu	-13625
kiz	-13626
pun	-13627
ter	-13628
tol	-13629
ukk	-13630
ulm	-13631
uzq	-13632
ułx	-13633
wez	-13634
xił	-13635
yaq	-13636
Ħaƛ	-13637
ħur	-13638
Łax	-13639
Šom	-13640
šad	-13641
šin	-13642
žun	-13643
žäy	-13644
ʕor	-13645
▁Hu	-13646
▁čʕ	-13647
adad	-13648
araħ	-13649
awul	-13650
axeƛ	-13651
aynk	-13652
aƛiƛ	-13653
eray	-13654
eƛez	-13655
eƛäy	-13656
isni	-13657
iƛun	-13658
odis	-13659
smaʕ	-13660
unoł	-13661
ƛtow	-13662
▁But	-13663
▁Raz	-13664
▁Yay	-13665
▁Yaɣ	-13666
▁ked	-13667
▁oqä	-13668
▁ɣar	-13669
aqʕiz	-13670
elawi	-13671
okoru	-13672
sinän	-13673
tirno	-13674
uxƛax	-13675
yazaƛ	-13676
łuyax	-13677
žinäy	-13678
ɣirno	-13679
ʕoƛun	-13680
▁Baza	-13681
▁mažg	-13682
▁yizu	-13683
adägon	-13684
awadin	-13685
cingon	-13686
exorił	-13687
eziyaw	-13688
ečuƛer	-13689
ełanix	-13690
ełäzay	-13691
ešerxo	-13692
ešoƛin	-13693
ešyabi	-13694
ežigon	-13695
eƛanix	-13696
eƛirno	-13697
eƛnosi	-13698
eƛägon	-13699
Bi	-13700
Bo	-13701
Es	-13702
On	-13703
Oq	-13704
Qi	-13705
Yi	-13706
hz	-13707
kw	-13708
lo	-13709
ng	-13710
oʕ	-13711
pa	-13712
qk	-13713
rn	-13714
wr	-13715
wž	-13716
yy	-13717
łƛ	-13718
še	-13719
žd	-13720
žr	-13721
Baħ	-13722
Hay	-13723
Qac	-13724
Wel	-13725
aby	-13726
anb	-13727
aqä	-13728
aħe	-13729
ałz	-13730
dir	-13731
eza	-13732
ikƛ	-13733
kiq	-13734
kiƛ	-13735
low	-13736
lur	-13737
mał	-13738
nya	-13739
orb	-13740
oxa	-13741
xza	-13742
zza	-13743
äyd	-13744
łar	-13745
šon	-13746
ƛuł	-13747
▁Sa	-13748
▁ey	-13749
▁žu	-13750
Užin	-13751
ales	-13752
ares	-13753
ariy	-13754
aryo	-13755
aɣiƛ	-13756
aɣʕo	-13757
ebiƛ	-13758
enin	-13759
esni	-13760
exor	-13761
ełay	-13762
hrun	-13763
iden	-13764
ires	-13765
itow	-13766
oyos	-13767
udza	-13768
yrno	-13769
äxun	-13770
äysi	-13771
▁aqu	-13772
▁diw	-13773
▁yiy	-13774
ahawc	-13775
awadä	-13776
ayxan	-13777
edƛin	-13778
etown	-13779
idaƛa	-13780
iqʕon	-13781
manno	-13782
matno	-13783
ukuli	-13784
uluza	-13785
uqäsi	-13786
ynƛin	-13787
žaɣor	-13788
ʕoƛin	-13789
▁rʕał	-13790
▁äƛir	-13791
aqʕäsi	-13792
aɣʕäsi	-13793
ganbin	-13794
ginanu	-13795
ginosi	-13796
girnon	-13797
girzaƛ	-13798
gonƛin	-13799
Ak	-13800
An	-13801
Ba	-13802
Ro	-13803
Tu	-13804
Yu	-13805
bt	-13806
bä	-13807
dƛ	-13808
gn	-13809
gz	-13810
gä	-13811
ht	-13812
ki	-13813
mn	-13814
mƛ	-13815
nu	-13816
qq	-13817
qx	-13818
qä	-13819
rž	-13820
sn	-13821
wg	-13822
xä	-13823
xł	-13824
xƛ	-13825
ył	-13826
äħ	-13827
šn	-13828
ƛb	-13829
ɣn	-13830
Bah	-13831
Kid	-13832
Sid	-13833
aqu	-13834
are	-13835
ašu	-13836
ceƛ	-13837
ečm	-13838
ełi	-13839
ger	-13840
loz	-13841
nay	-13842
orƛ	-13843
owä	-13844
owž	-13845
ugu	-13846
unz	-13847
xeƛ	-13848
yab	-13849
yač	-13850
zur	-13851
ħer	-13852
Šud	-13853
ɣno	-13854
ʕan	-13855
ʕno	-13856
▁He	-13857
▁li	-13858
▁uq	-13859
amza	-13860
asaɣ	-13861
aƛir	-13862
eƛer	-13863
iroƛ	-13864
onos	-13865
oqos	-13866
ołin	-13867
siru	-13868
uduk	-13869
ułsi	-13870
xada	-13871
žibi	-13872
ʕuyä	-13873
▁Say	-13874
▁hed	-13875
▁miš	-13876
▁ʕed	-13877
agalu	-13878
ayäsi	-13879
aɣaza	-13880
aɣrun	-13881
ikrun	-13882
ilqor	-13883
iroza	-13884
noqor	-13885
žizar	-13886
▁Waħħ	-13887
▁axuk	-13888
▁baza	-13889
amanaƛ	-13890
aƛuƛin	-13891
gäruni	-13892
gärułi	-13893
gärƛin	-13894
hander	-13895
ikataw	-13896
ikinäy	-13897
ilazaƛ	-13898
iličes	-13899
Ay	-13900
Aħ	-13901
Be	-13902
Ež	-13903
Gu	-13904
Qu	-13905
ga	-13906
lg	-13907
my	-13908
qs	-13909
qƛ	-13910
rd	-13911
rp	-13912
ty	-13913
tä	-13914
wh	-13915
wy	-13916
zn	-13917
łr	-13918
ƛx	-13919
ɣo	-13920
ʕO	-13921
Biz	-13922
Roƛ	-13923
Xiz	-13924
arg	-13925
aty	-13926
ayi	-13927
cza	-13928
edi	-13929
ert	-13930
gum	-13931
idz	-13932
ins	-13933
irħ	-13934
lab	-13935
liz	-13936
mad	-13937
nad	-13938
ont	-13939
owz	-13940
oɣn	-13941
qxo	-13942
ruy	-13943
ruł	-13944
tik	-13945
tur	-13946
urn	-13947
usi	-13948
čes	-13949
čuƛ	-13950
Łas	-13951
žoƛ	-13952
▁ma	-13953
▁Žu	-13954
atzo	-13955
ayza	-13956
aɣez	-13957
ecir	-13958
edax	-13959
ežun	-13960
gyoƛ	-13961
ogxo	-13962
orbi	-13963
oxar	-13964
sinč	-13965
udbi	-13966
umes	-13967
unno	-13968
ułxo	-13969
wrno	-13970
▁izm	-13971
▁ɣan	-13972
adinč	-13973
alayä	-13974
ałayn	-13975
eqkin	-13976
iqʕoy	-13977
ogmoƛ	-13978
očyoƛ	-13979
oƛaza	-13980
šoƛin	-13981
žiqor	-13982
ɣorno	-13983
▁zurm	-13984
iličzo	-13985
inarno	-13986
inigon	-13987
iqaɣor	-13988
iqʕono	-13989
iqʕoyn	-13990
iraniƛ	-13991
irurno	-13992
iruƛin	-13993
iryabi	-13994
isiran	-13995
itaɣor	-13996
itägon	-13997
itäɣor	-13998
ixatow	-13999
Až	-14000
Bʕ	-14001
Ci	-14002
Qa	-14003
ae	-14004
cq	-14005
db	-14006
dn	-14007
mi	-14008
nz	-14009
qr	-14010
rƛ	-14011
rʕ	-14012
yc	-14013
ħt	-14014
łz	-14015
ƛä	-14016
ɣs	-14017
ʕE	-14018
ʕw	-14019
ʕx	-14020
Rad	-14021
Seb	-14022
Zir	-14023
all	-14024
anx	-14025
awä	-14026
aɣu	-14027
aʕn	-14028
est	-14029
eła	-14030
gal	-14031
idƛ	-14032
ikm	-14033
imd	-14034
iwƛ	-14035
ler	-14036
lez	-14037
läy	-14038
mon	-14039
oqł	-14040
pur	-14041
qir	-14042
tix	-14043
yaz	-14044
Ħus	-14045
Žin	-14046
ɣir	-14047
▁Uy	-14048
▁mʕ	-14049
▁yʕ	-14050
aqru	-14051
azas	-14052
aƛor	-14053
ciru	-14054
idur	-14055
išir	-14056
moyä	-14057
oƛxo	-14058
ranč	-14059
rtow	-14060
sian	-14061
sixo	-14062
unix	-14063
uqir	-14064
usar	-14065
šoni	-14066
▁Tax	-14067
▁tab	-14068
▁yit	-14069
▁ɣer	-14070
abuld	-14071
adaxo	-14072
admoƛ	-14073
alkin	-14074
allah	-14075
anuru	-14076
aƛäsi	-14077
exłiƛ	-14078
äxuru	-14079
▁dowd	-14080
▁qaza	-14081
▁teqr	-14082
alamäz	-14083
esunäy	-14084
ełatow	-14085
idakin	-14086
ilayat	-14087
ixnosi	-14088
izaxno	-14089
izikin	-14090
izirno	-14091
izirxo	-14092
iħirno	-14093
iłiroł	-14094
iłiroƛ	-14095
iłäsin	-14096
išatno	-14097
išatyo	-14098
iširsi	-14099
Iš	-14100
Za	-14101
ai	-14102
ct	-14103
ll	-14104
nƛ	-14105
rɣ	-14106
su	-14107
wi	-14108
xd	-14109
yd	-14110
äž	-14111
čʕ	-14112
ħr	-14113
ło	-14114
ɣi	-14115
ʕl	-14116
Ber	-14117
Qar	-14118
Riƛ	-14119
Rod	-14120
Sir	-14121
Tab	-14122
Uži	-14123
Xan	-14124
aqo	-14125
aɣe	-14126
aɣy	-14127
aɣƛ	-14128
cno	-14129
coƛ	-14130
eqk	-14131
esu	-14132
gaz	-14133
gaħ	-14134
gaɣ	-14135
idt	-14136
inn	-14137
int	-14138
kik	-14139
lix	-14140
mno	-14141
oqa	-14142
owd	-14143
oči	-14144
oƛn	-14145
put	-14146
sez	-14147
sod	-14148
teł	-14149
unƛ	-14150
urt	-14151
uty	-14152
wsi	-14153
zid	-14154
ħos	-14155
šur	-14156
žal	-14157
ƛsi	-14158
ʕay	-14159
▁Xi	-14160
▁no	-14161
aheł	-14162
alab	-14163
anbi	-14164
aħod	-14165
aɣeł	-14166
aɣʕu	-14167
eman	-14168
eƛił	-14169
irił	-14170
išod	-14171
olay	-14172
oƛun	-14173
ukmu	-14174
ulad	-14175
unir	-14176
wqay	-14177
▁gog	-14178
▁rih	-14179
ebiya	-14180
ecinč	-14181
eseda	-14182
igara	-14183
rułäy	-14184
tenno	-14185
utkay	-14186
uzanä	-14187
yaƛin	-14188
amaqor	-14189
asiłac	-14190
iƛirno	-14191
kinzar	-14192
laygon	-14193
laytow	-14194
lizoni	-14195
manbin	-14196
marqor	-14197
matyoł	-14198
maʕilz	-14199
Di	-14200
He	-14201
Im	-14202
Ič	-14203
Xe	-14204
Ye	-14205
Zi	-14206
ee	-14207
iž	-14208
ku	-14209
nn	-14210
rs	-14211
rx	-14212
rč	-14213
sg	-14214
tt	-14215
wk	-14216
wš	-14217
xš	-14218
ču	-14219
čy	-14220
ħč	-14221
ʕs	-14222
amm	-14223
amu	-14224
arx	-14225
ayr	-14226
erł	-14227
gul	-14228
ido	-14229
idq	-14230
inw	-14231
noq	-14232
oqƛ	-14233
oƛä	-14234
qza	-14235
saʕ	-14236
tiy	-14237
tor	-14238
uli	-14239
way	-14240
zow	-14241
äyz	-14242
čun	-14243
ħeł	-14244
ħäy	-14245
Łay	-14246
łza	-14247
ƛak	-14248
▁Tu	-14249
▁un	-14250
▁šo	-14251
Wʕał	-14252
aneł	-14253
asgi	-14254
eden	-14255
ekar	-14256
ełiq	-14257
ikix	-14258
inut	-14259
ičes	-14260
iƛir	-14261
nqor	-14262
oqxo	-14263
oyod	-14264
oɣxo	-14265
talq	-14266
wayn	-14267
weyn	-14268
yayn	-14269
čiru	-14270
črun	-14271
ƛinł	-14272
▁buh	-14273
▁kez	-14274
aqgon	-14275
duräz	-14276
ixäsi	-14277
sirno	-14278
unqor	-14279
uƛƛin	-14280
yoqay	-14281
łnosi	-14282
Šebin	-14283
ʕaɣor	-14284
▁eqer	-14285
▁yiži	-14286
ixorno	-14287
mildis	-14288
moqosi	-14289
naynäy	-14290
nocubi	-14291
notown	-14292
nsanzo	-14293
oboyƛa	-14294
odanix	-14295
odinäy	-14296
odoƛin	-14297
ogaƛäz	-14298
ogolar	-14299
Az	-14300
De	-14301
Tä	-14302
bn	-14303
cn	-14304
cu	-14305
dm	-14306
qe	-14307
tz	-14308
xb	-14309
xx	-14310
zu	-14311
ħa	-14312
ħä	-14313
łg	-14314
Še	-14315
šd	-14316
šr	-14317
ƛg	-14318
ƛʕ	-14319
ɣʕ	-14320
ʕe	-14321
Bax	-14322
Ruk	-14323
Say	-14324
atä	-14325
aƛo	-14326
beł	-14327
imz	-14328
ink	-14329
lza	-14330
med	-14331
nab	-14332
odx	-14333
onw	-14334
ołä	-14335
qin	-14336
rod	-14337
roq	-14338
sey	-14339
sit	-14340
six	-14341
xał	-14342
ziz	-14343
ħya	-14344
šow	-14345
šza	-14346
▁de	-14347
▁xo	-14348
amad	-14349
anes	-14350
anur	-14351
aqaɣ	-14352
aqiz	-14353
ačel	-14354
duxä	-14355
ecis	-14356
edes	-14357
ekiz	-14358
emur	-14359
exar	-14360
eƛiƛ	-14361
inał	-14362
iruł	-14363
mbin	-14364
oysi	-14365
qira	-14366
uriƛ	-14367
utir	-14368
zäsi	-14369
äƛno	-14370
žizi	-14371
ƛƛin	-14372
ʕmat	-14373
▁Yuy	-14374
▁kan	-14375
▁sim	-14376
▁łäx	-14377
artow	-14378
axbin	-14379
elyoł	-14380
idqor	-14381
oqinč	-14382
oxaza	-14383
uraza	-14384
ʕizaƛ	-14385
▁nełł	-14386
▁räsi	-14387
adirun	-14388
eduƛin	-14389
eranix	-14390
izaqor	-14391
ohomaw	-14392
oloqan	-14393
onočas	-14394
onočaƛ	-14395
onočun	-14396
onyayx	-14397
oqanix	-14398
oqnoan	-14399
El	-14400
Ga	-14401
Sa	-14402
Wa	-14403
Xa	-14404
Zo	-14405
ca	-14406
lt	-14407
lx	-14408
lä	-14409
nł	-14410
oš	-14411
pi	-14412
pu	-14413
rg	-14414
ry	-14415
so	-14416
we	-14417
yu	-14418
ča	-14419
ħe	-14420
ħħ	-14421
łd	-14422
Ži	-14423
Žo	-14424
ʕä	-14425
Goƛ	-14426
Raħ	-14427
Rał	-14428
Sab	-14429
Yoq	-14430
agä	-14431
amz	-14432
ang	-14433
awi	-14434
ayg	-14435
aɣz	-14436
bix	-14437
dad	-14438
eyk	-14439
eƛƛ	-14440
hil	-14441
kad	-14442
miq	-14443
nał	-14444
onc	-14445
ors	-14446
qoz	-14447
sru	-14448
tan	-14449
urx	-14450
yac	-14451
äde	-14452
łal	-14453
šix	-14454
▁xu	-14455
▁ła	-14456
abiƛ	-14457
acin	-14458
ager	-14459
amiz	-14460
arxo	-14461
awak	-14462
awno	-14463
aƛaƛ	-14464
ezun	-14465
osit	-14466
otno	-14467
oƛon	-14468
tiru	-14469
urin	-14470
urya	-14471
yäsi	-14472
äsno	-14473
ɣori	-14474
▁mic	-14475
anyos	-14476
ariłi	-14477
aħtow	-14478
ilƛin	-14479
iqqay	-14480
sanix	-14481
siƛax	-14482
zaqno	-14483
▁Elud	-14484
▁Eluq	-14485
▁Sasi	-14486
▁akro	-14487
▁biyr	-14488
adines	-14489
ayxana	-14490
elabin	-14491
esedun	-14492
odäƛin	-14493
oqoƛin	-14494
orawni	-14495
orolad	-14496
orłäyn	-14497
oržizi	-14498
owanix	-14499
Dä	-14500
aä	-14501
cm	-14502
kn	-14503
kr	-14504
lł	-14505
mq	-14506
ms	-14507
nq	-14508
nt	-14509
ny	-14510
pƛ	-14511
wł	-14512
ys	-14513
Že	-14514
žm	-14515
ʕn	-14516
ʕz	-14517
aku	-14518
aqa	-14519
aqt	-14520
awl	-14521
axi	-14522
aħz	-14523
big	-14524
bod	-14525
cur	-14526
dbi	-14527
eny	-14528
enł	-14529
erc	-14530
kix	-14531
kyo	-14532
kza	-14533
ows	-14534
qil	-14535
rce	-14536
rza	-14537
sed	-14538
sni	-14539
urħ	-14540
wza	-14541
yäy	-14542
zac	-14543
čni	-14544
ħuł	-14545
Łiƛ	-14546
Žał	-14547
ɣin	-14548
▁ed	-14549
▁ir	-14550
▁ru	-14551
▁yx	-14552
▁ʕu	-14553
akru	-14554
alaw	-14555
alig	-14556
alla	-14557
anat	-14558
awan	-14559
axoł	-14560
aħoz	-14561
aħoł	-14562
ebaƛ	-14563
edaq	-14564
edud	-14565
eqno	-14566
iyad	-14567
niya	-14568
oqʕu	-14569
suru	-14570
tina	-14571
udiƛ	-14572
äsir	-14573
Žaza	-14574
▁cod	-14575
▁hen	-14576
▁man	-14577
▁sal	-14578
▁zan	-14579
▁ʕum	-14580
exbin	-14581
ganza	-14582
inyoƛ	-14583
oygon	-14584
oƛxor	-14585
xaysi	-14586
žitłi	-14587
▁igoz	-14588
ebiƛin	-14589
etaxor	-14590
ownosi	-14591
owqosi	-14592
owsƛin	-14593
oxanix	-14594
oxaɣor	-14595
oxinäy	-14596
oxturä	-14597
oxärno	-14598
oyiƛer	-14599
kz	-14600
nd	-14601
xt	-14602
Ši	-14603
ʕb	-14604
Dan	-14605
Gan	-14606
Mur	-14607
Zam	-14608
any	-14609
axs	-14610
aył	-14611
ačq	-14612
aži	-14613
aʕi	-14614
ban	-14615
bih	-14616
can	-14617
cun	-14618
iqu	-14619
isk	-14620
kur	-14621
kxo	-14622
lan	-14623
oqi	-14624
oƛx	-14625
pan	-14626
qʕł	-14627
rex	-14628
zaħ	-14629
zni	-14630
čul	-14631
ħix	-14632
łir	-14633
žru	-14634
ɣan	-14635
ʕeb	-14636
▁ƛu	-14637
abaw	-14638
anał	-14639
eboz	-14640
edar	-14641
eqes	-14642
erya	-14643
eƛis	-14644
eƛsi	-14645
ibno	-14646
imab	-14647
iruz	-14648
nƛin	-14649
osix	-14650
otya	-14651
oyiq	-14652
ozix	-14653
qayn	-14654
qƛin	-14655
rgon	-14656
ulud	-14657
unad	-14658
uram	-14659
äzno	-14660
ƛing	-14661
ƛinä	-14662
▁Bah	-14663
▁bus	-14664
▁kum	-14665
▁ozy	-14666
▁reł	-14667
▁łer	-14668
▁žir	-14669
▁ɣʕu	-14670
adƛin	-14671
anuwa	-14672
aqʕor	-14673
azaqä	-14674
azarg	-14675
aɣmar	-14676
dinay	-14677
ekizi	-14678
ešƛin	-14679
niƛin	-14680
oyzaƛ	-14681
uqʕek	-14682
ženid	-14683
ʕalay	-14684
ʕaƛus	-14685
ʕirič	-14686
adaqay	-14687
axaɣor	-14688
aƛaɣor	-14689
iragon	-14690
oynanu	-14691
oyäɣor	-14692
ozagon	-14693
ozatow	-14694
ozogon	-14695
ozoqor	-14696
ozosno	-14697
očyabi	-14698
ołirxo	-14699
Ma	-14700
eɣ	-14701
kk	-14702
to	-14703
tł	-14704
wt	-14705
yr	-14706
ƛƛ	-14707
Cek	-14708
Mar	-14709
Qeb	-14710
Yez	-14711
ant	-14712
bno	-14713
dis	-14714
dza	-14715
ełx	-14716
gno	-14717
hno	-14718
irx	-14719
irč	-14720
ixw	-14721
iys	-14722
lex	-14723
oqo	-14724
orł	-14725
pin	-14726
qaz	-14727
ray	-14728
tis	-14729
zor	-14730
čar	-14731
Ħon	-14732
Łox	-14733
łaq	-14734
Žab	-14735
Žan	-14736
žaɣ	-14737
ƛoƛ	-14738
ʕum	-14739
ʕza	-14740
▁xi	-14741
Yaqʕ	-14742
akun	-14743
aran	-14744
arin	-14745
ecer	-14746
inan	-14747
inaƛ	-14748
kiru	-14749
race	-14750
sanƛ	-14751
szaƛ	-14752
udun	-14753
ugir	-14754
uhru	-14755
unäy	-14756
xork	-14757
xäsi	-14758
žanä	-14759
ƛint	-14760
ƛiru	-14761
ɣbin	-14762
▁dun	-14763
▁ezw	-14764
▁lam	-14765
▁ror	-14766
▁Łax	-14767
axäsi	-14768
bitow	-14769
enłäy	-14770
eybin	-14771
ešyos	-14772
imkin	-14773
iqozo	-14774
ruƛin	-14775
wanin	-14776
yäƛin	-14777
ƛäzay	-14778
ɣurxo	-14779
ʕotow	-14780
▁akam	-14781
▁iħad	-14782
▁iħix	-14783
▁ħoʕƛ	-14784
aħirun	-14785
ederno	-14786
matyor	-14787
matyox	-14788
ołizin	-14789
ołäzay	-14790
ožaraw	-14791
oƛaxay	-14792
oƛiłin	-14793
oƛäyrc	-14794
oƛƛosi	-14795
oɣanix	-14796
oɣxanu	-14797
oʕɣqay	-14798
qiličä	-14799
bu	-14800
ri	-14801
tc	-14802
Mad	-14803
Nay	-14804
Tax	-14805
Xed	-14806
Zow	-14807
add	-14808
aly	-14809
alž	-14810
anɣ	-14811
arm	-14812
ayt	-14813
ayy	-14814
aħi	-14815
bie	-14816
caw	-14817
cxo	-14818
eca	-14819
edo	-14820
eku	-14821
imq	-14822
ird	-14823
ixx	-14824
koƛ	-14825
ner	-14826
niw	-14827
now	-14828
nyo	-14829
owr	-14830
owƛ	-14831
pek	-14832
say	-14833
soƛ	-14834
una	-14835
une	-14836
uxƛ	-14837
wes	-14838
ħal	-14839
šak	-14840
šat	-14841
žes	-14842
ƛay	-14843
ɣay	-14844
ʕeł	-14845
▁nu	-14846
▁nä	-14847
▁zu	-14848
ahow	-14849
alza	-14850
araq	-14851
ayär	-14852
eran	-14853
exuƛ	-14854
iqan	-14855
irbi	-14856
ixay	-14857
išin	-14858
noci	-14859
oqal	-14860
oɣwa	-14861
tayn	-14862
ukay	-14863
wƛin	-14864
zinč	-14865
äzur	-14866
ħaza	-14867
ƛaza	-14868
ƛubi	-14869
▁Yig	-14870
▁kič	-14871
▁rał	-14872
▁łaħ	-14873
arada	-14874
aynan	-14875
ałtow	-14876
girxo	-14877
ixzaƛ	-14878
iziri	-14879
oħaza	-14880
ušyoƛ	-14881
užmar	-14882
xuƛin	-14883
▁Dice	-14884
▁ečul	-14885
▁gurħ	-14886
▁teƛx	-14887
amadaq	-14888
anitow	-14889
arnosi	-14890
aładno	-14891
girnäy	-14892
oƛałäy	-14893
qiruni	-14894
qorgon	-14895
qułtow	-14896
ranƛin	-14897
rnoƛin	-14898
ssiƛin	-14899
Hi	-14900
Is	-14901
dx	-14902
ia	-14903
mc	-14904
ɣł	-14905
Baq	-14906
Mir	-14907
Mow	-14908
Roq	-14909
anm	-14910
arb	-14911
ałg	-14912
ałä	-14913
aƛn	-14914
dun	-14915
har	-14916
hir	-14917
irn	-14918
iro	-14919
irł	-14920
kan	-14921
mxo	-14922
nib	-14923
nir	-14924
owo	-14925
pik	-14926
rud	-14927
sas	-14928
sun	-14929
tar	-14930
unä	-14931
ułä	-14932
yza	-14933
zir	-14934
äłi	-14935
äži	-14936
čir	-14937
Łin	-14938
łan	-14939
žid	-14940
žir	-14941
ƛos	-14942
ƛur	-14943
ɣsi	-14944
▁äy	-14945
▁žo	-14946
▁ƛo	-14947
adal	-14948
amaz	-14949
azni	-14950
aħiq	-14951
aħon	-14952
ašał	-14953
aƛan	-14954
dabi	-14955
eqez	-14956
idaq	-14957
inoƛ	-14958
osun	-14959
oyxo	-14960
ruza	-14961
sisi	-14962
ucik	-14963
unan	-14964
urgo	-14965
uroƛ	-14966
zqor	-14967
ʕayn	-14968
▁bab	-14969
▁mes	-14970
▁mow	-14971
▁nes	-14972
▁sur	-14973
canix	-14974
erƛin	-14975
gurno	-14976
noxut	-14977
osisi	-14978
otown	-14979
ołxor	-14980
utkoz	-14981
xirno	-14982
▁maʕd	-14983
▁neƛł	-14984
ecxosi	-14985
edaƛin	-14986
enigon	-14987
gixƛin	-14988
ičabin	-14989
sxoƛin	-14990
tintow	-14991
tiruni	-14992
tyabin	-14993
ualyor	-14994
udeƛin	-14995
uhaler	-14996
uhales	-14997
uhalza	-14998
uhalzo	-14999
Eƛ	-15000
Oz	-15001
be	-15002
mp	-15003
sy	-15004
xz	-15005
čq	-15006
ħi	-15007
žb	-15008
Boƛ	-15009
Dox	-15010
Hun	-15011
Oza	-15012
Qun	-15013
Teł	-15014
Tun	-15015
acq	-15016
adl	-15017
arä	-15018
deł	-15019
eba	-15020
ekw	-15021
erg	-15022
eyg	-15023
igo	-15024
lno	-15025
mza	-15026
qun	-15027
sza	-15028
ung	-15029
unq	-15030
wbi	-15031
yyä	-15032
zab	-15033
zaw	-15034
ħaɣ	-15035
ħon	-15036
łał	-15037
łen	-15038
šxo	-15039
Žed	-15040
žik	-15041
ƛun	-15042
ʕuł	-15043
▁Ež	-15044
▁qi	-15045
▁ło	-15046
anun	-15047
aqaz	-15048
awbi	-15049
aƛuł	-15050
cinč	-15051
cinł	-15052
edno	-15053
erun	-15054
erza	-15055
gabi	-15056
hand	-15057
inax	-15058
inza	-15059
iriz	-15060
ixan	-15061
išił	-15062
orza	-15063
osiw	-15064
owza	-15065
owži	-15066
oƛir	-15067
unin	-15068
zaxo	-15069
čƛin	-15070
▁Ruk	-15071
▁enł	-15072
▁xis	-15073
▁ład	-15074
▁ʕAb	-15075
esedä	-15076
irbin	-15077
larno	-15078
odxor	-15079
urgon	-15080
ƛoƛin	-15081
ƛxosi	-15082
ʕorno	-15083
▁akäł	-15084
▁eniy	-15085
▁isał	-15086
amawni	-15087
ayanix	-15088
ayruni	-15089
iqaysi	-15090
ozołäy	-15091
uhuzaƛ	-15092
ukarza	-15093
ukulis	-15094
ukuliƛ	-15095
ukusno	-15096
ulader	-15097
ulamed	-15098
ulanaw	-15099
Me	-15100
Xi	-15101
ha	-15102
ke	-15103
mł	-15104
qg	-15105
qw	-15106
ye	-15107
äw	-15108
ħu	-15109
Bad	-15110
Qur	-15111
Sal	-15112
Wer	-15113
ahq	-15114
bed	-15115
cet	-15116
edm	-15117
edt	-15118
eyq	-15119
hed	-15120
ilm	-15121
inx	-15122
ixo	-15123
iɣʕ	-15124
kun	-15125
mur	-15126
nsi	-15127
oqä	-15128
owl	-15129
piƛ	-15130
sad	-15131
seł	-15132
siħ	-15133
sur	-15134
sxo	-15135
urb	-15136
uro	-15137
urq	-15138
urä	-15139
usr	-15140
wed	-15141
yad	-15142
zaʕ	-15143
šiz	-15144
Žun	-15145
ƛoq	-15146
ɣur	-15147
ʕed	-15148
▁ki	-15149
▁ko	-15150
▁kä	-15151
▁ni	-15152
▁ɣe	-15153
aciz	-15154
alik	-15155
aynč	-15156
aħes	-15157
ełin	-15158
gäru	-15159
ikno	-15160
inor	-15161
išan	-15162
udeł	-15163
ulus	-15164
urow	-15165
urza	-15166
šace	-15167
▁Bax	-15168
▁Qar	-15169
▁Sad	-15170
▁kir	-15171
▁mah	-15172
▁ɣir	-15173
adaza	-15174
asada	-15175
aħƛin	-15176
aɣyos	-15177
edłiƛ	-15178
eztow	-15179
ilaza	-15180
karaw	-15181
qanix	-15182
uckin	-15183
urman	-15184
ƛtown	-15185
ʕɣqay	-15186
▁qʕaħ	-15187
▁yołƛ	-15188
adazar	-15189
adirur	-15190
ołinäy	-15191
qorƛin	-15192
umołäy	-15193
umäɣor	-15194
unyalq	-15195
unyalƛ	-15196
uqłäsi	-15197
uqʕäsi	-15198
uranir	-15199
Ez	-15200
Om	-15201
cä	-15202
dy	-15203
sk	-15204
čw	-15205
ħl	-15206
Ło	-15207
Łä	-15208
ɣm	-15209
Riq	-15210
Yał	-15211
adu	-15212
anł	-15213
ark	-15214
arq	-15215
arz	-15216
arč	-15217
arł	-15218
arɣ	-15219
ału	-15220
aɣr	-15221
ebo	-15222
gar	-15223
hor	-15224
inu	-15225
ixy	-15226
lar	-15227
nar	-15228
nog	-15229
oqn	-15230
owa	-15231
ozł	-15232
puƛ	-15233
qan	-15234
qoq	-15235
sar	-15236
ulu	-15237
urz	-15238
äyn	-15239
äyt	-15240
Ħur	-15241
Łar	-15242
šay	-15243
ƛar	-15244
ʕad	-15245
ʕar	-15246
▁Ma	-15247
▁Um	-15248
▁hu	-15249
▁xa	-15250
▁xe	-15251
▁xw	-15252
▁Žä	-15253
▁ʕe	-15254
acek	-15255
anar	-15256
anez	-15257
aray	-15258
aybi	-15259
ažoƛ	-15260
ekod	-15261
ekwa	-15262
irar	-15263
layn	-15264
oqin	-15265
oqsi	-15266
uler	-15267
yƛin	-15268
▁Big	-15269
▁bih	-15270
▁reʕ	-15271
▁ħad	-15272
▁ƛeɣ	-15273
aqosi	-15274
arʕim	-15275
celid	-15276
eqzaƛ	-15277
maɣes	-15278
unƛax	-15279
wanix	-15280
▁Qʕab	-15281
▁baħn	-15282
▁butn	-15283
▁ičir	-15284
azirod	-15285
girnok	-15286
idarno	-15287
ikoƛin	-15288
ulizaƛ	-15289
urazaƛ	-15290
urimoƛ	-15291
urušyo	-15292
uryabi	-15293
[...]
