<unk>	0
<s>	0
</s>	0
in	-0
no	-1
▁b	-2
si	-3
▁y	-4
▁e	-5
▁r	-6
an	-7
ƛin	-8
or	-9
ay	-10
▁n	-11
ow	-12
ir	-13
▁ne	-14
▁m	-15
▁d	-16
▁ž	-17
un	-18
za	-19
ed	-20
▁k	-21
ur	-22
▁i	-23
▁x	-24
ar	-25
▁bi	-26
oq	-27
▁yi	-28
er	-29
▁q	-30
id	-31
ix	-32
bi	-33
▁t	-34
▁h	-35
on	-36
aq	-37
▁z	-38
eł	-39
ad	-40
oƛ	-41
äy	-42
es	-43
▁ʕ	-44
iz	-45
▁eƛin	-46
▁š	-47
al	-48
▁zow	-49
tow	-50
▁ɣ	-51
▁u	-52
▁si	-53
aw	-54
oł	-55
ey	-56
▁ł	-57
▁ri	-58
gon	-59
▁neł	-60
aƛ	-61
od	-62
aɣ	-63
eb	-64
▁c	-65
eƛ	-66
ni	-67
▁ƛ	-68
▁zown	-69
aħ	-70
xo	-71
oqno	-72
▁esi	-73
ał	-74
▁ža	-75
ži	-76
▁be	-77
▁mi	-78
▁kid	-79
edu	-80
ayn	-81
as	-82
ut	-83
irno	-84
yo	-85
▁nesi	-86
▁N	-87
abi	-88
ek	-89
▁di	-90
ru	-91
▁ħ	-92
▁yoł	-93
▁s	-94
äsi	-95
▁xan	-96
anu	-97
▁g	-98
▁el	-99
uk	-100
rno	-101
ok	-102
oy	-103
ya	-104
▁ik	-105
▁es	-106
▁H	-107
aza	-108
ax	-109
qor	-110
ox	-111
osi	-112
sä	-113
ud	-114
eda	-115
▁E	-116
▁re	-117
iƛ	-118
▁dä	-119
nosi	-120
iru	-121
▁X	-122
▁me	-123
▁ɣʕ	-124
ab	-125
▁bik	-126
▁Ž	-127
▁B	-128
▁žek	-129
az	-130
▁sis	-131
▁sid	-132
iq	-133
▁uži	-134
anix	-135
inč	-136
em	-137
am	-138
▁S	-139
ul	-140
ac	-141
ez	-142
uł	-143
ex	-144
▁deb	-145
ebi	-146
en	-147
žin	-148
▁xiz	-149
ɣor	-150
us	-151
is	-152
zaƛ	-153
ik	-154
oƛin	-155
ec	-156
eni	-157
▁bay	-158
run	-159
▁Neł	-160
oz	-161
▁id	-162
▁kidb	-163
▁žedu	-164
▁esirno	-165
odin	-166
▁č	-167
at	-168
xor	-169
uƛ	-170
urno	-171
▁teƛ	-172
aɣor	-173
girno	-174
▁oqno	-175
▁za	-176
ebin	-177
ida	-178
▁El	-179
▁teł	-180
▁yeda	-181
il	-182
▁yiz	-183
▁šebin	-184
▁Y	-185
im	-186
oɣ	-187
▁babi	-188
ił	-189
▁yisi	-190
▁ä	-191
▁anu	-192
iw	-193
▁nesä	-194
až	-195
edur	-196
▁p	-197
▁neła	-198
▁ay	-199
▁ič	-200
▁yał	-201
▁boqno	-202
▁ye	-203
▁yił	-204
▁bar	-205
▁gul	-206
▁D	-207
▁M	-208
▁eni	-209
ak	-210
ʕa	-211
sno	-212
▁Xiz	-213
▁idu	-214
▁how	-215
erno	-216
ono	-217
▁yołƛin	-218
ʕu	-219
▁teƛno	-220
▁Xizyo	-221
eq	-222
▁esiw	-223
▁yedu	-224
▁šebi	-225
▁deber	-226
▁łi	-227
▁xec	-228
ƛax	-229
▁maħ	-230
uq	-231
kin	-232
aʕ	-233
et	-234
▁nex	-235
oräy	-236
▁ber	-237
▁ɣud	-238
esun	-239
anƛin	-240
▁A	-241
iƛin	-242
▁esin	-243
▁I	-244
▁ʕaƛ	-245
um	-246
▁K	-247
▁łʕ	-248
oɣno	-249
▁rok	-250
xosi	-251
▁sida	-252
▁R	-253
adä	-254
adaq	-255
bin	-256
▁eƛ	-257
ol	-258
orno	-259
ah	-260
utk	-261
▁yik	-262
iri	-263
▁quł	-264
▁sadaq	-265
žä	-266
▁bič	-267
▁hem	-268
ag	-269
tin	-270
▁esn	-271
▁hun	-272
gir	-273
runi	-274
▁babiw	-275
▁dey	-276
▁äƛ	-277
▁där	-278
▁bʕ	-279
▁elo	-280
▁ɣʕutk	-281
ce	-282
cin	-283
izi	-284
arno	-285
▁bex	-286
▁reƛ	-287
▁rod	-288
oc	-289
▁oq	-290
▁bodin	-291
▁How	-292
man	-293
▁Ža	-294
azar	-295
▁mež	-296
▁w	-297
▁beł	-298
▁Sida	-299
yn	-300
▁Z	-301
oyä	-302
▁roq	-303
▁bayn	-304
os	-305
▁Q	-306
zin	-307
▁eniw	-308
▁xanä	-309
▁Hem	-310
▁ƛex	-311
▁boq	-312
▁but	-313
▁Neła	-314
▁yisä	-315
▁iduɣor	-316
▁biš	-317
▁zaw	-318
▁xecin	-319
▁äƛiru	-320
▁-	-321
yos	-322
▁łʕono	-323
’,	-324
▁T	-325
daħ	-326
iza	-327
äƛin	-328
ʕano	-329
aƛin	-330
▁Elo	-331
▁xab	-332
▁yałru	-333
oyn	-334
▁až	-335
zo	-336
asi	-337
asaq	-338
▁adä	-339
▁neƛ	-340
yoł	-341
ženi	-342
▁ħal	-343
▁yiła	-344
ɣeni	-345
ira	-346
▁oz	-347
▁qʕ	-348
oƛix	-349
▁xal	-350
▁maħor	-351
gu	-352
ič	-353
▁Ne	-354
aš	-355
de	-356
aqʕ	-357
izaƛ	-358
▁xizor	-359
esed	-360
▁bok	-361
ayx	-362
łin	-363
łi	-364
anä	-365
▁ayn	-366
▁bit	-367
▁meč	-368
▁łin	-369
▁nełas	-370
▁xizay	-371
▁xed	-372
▁aždaħ	-373
▁zaman	-374
ten	-375
▁aħ	-376
▁ruk	-377
▁kurno	-378
om	-379
own	-380
▁rä	-381
▁ʕA	-382
▁bod	-383
▁užä	-384
▁xabar	-385
uš	-386
”.	-387
▁yič	-388
▁Ħ	-389
äɣor	-390
▁šeƛ	-391
inosi	-392
▁hemedur	-393
iy	-394
uz	-395
ani	-396
▁ɣʕan	-397
▁nesiq	-398
▁rodin	-399
war	-400
ʕim	-401
▁mesed	-402
▁yizi	-403
▁ičin	-404
▁berten	-405
der	-406
yoƛ	-407
▁bä	-408
▁žeda	-409
uƛin	-410
▁beč	-411
▁mad	-412
▁yay	-413
el	-414
▁rac	-415
▁debi	-416
▁hunix	-417
azi	-418
oni	-419
▁užin	-420
▁bazar	-421
▁egirno	-422
oč	-423
näy	-424
irun	-425
▁buk	-426
▁nesir	-427
▁yisir	-428
▁babiya	-429
▁Ł	-430
eze	-431
adin	-432
asin	-433
▁ciq	-434
▁žan	-435
▁bełiq	-436
▁xalq	-437
▁nesis	-438
▁ƛexun	-439
ib	-440
awni	-441
▁bes	-442
▁Nesi	-443
▁ɣudi	-444
▁roqno	-445
▁l	-446
and	-447
sin	-448
ʕun	-449
▁aɣ	-450
▁bʕeƛ	-451
cx	-452
qo	-453
ux	-454
äz	-455
▁U	-456
▁iħ	-457
▁cey	-458
▁raq	-459
▁ray	-460
▁rut	-461
▁xex	-462
▁micx	-463
oƛixno	-464
▁esiya	-465
▁xanes	-466
▁begirno	-467
eč	-468
wa	-469
▁C	-470
maʕ	-471
▁ix	-472
▁zey	-473
▁Žedu	-474
▁kidbä	-475
▁resun	-476
▁bercin	-477
▁hemedurtow	-478
▁Howži	-479
qay	-480
▁ig	-481
▁däz	-482
▁teq	-483
▁kidno	-484
▁xizyo	-485
uc	-486
łe	-487
že	-488
▁sasaq	-489
▁yoqno	-490
▁O	-491
ažb	-492
▁Yi	-493
ałäy	-494
oder	-495
otow	-496
▁goƛ	-497
▁žaw	-498
aygon	-499
▁Ražb	-500
▁gulu	-501
▁zows	-502
▁žoyä	-503
▁adäza	-504
▁bižin	-505
▁aynosi	-506
▁Ražbadin	-507
ač	-508
▁ez	-509
orol	-510
▁kur	-511
▁roƛ	-512
▁ħaƛ	-513
▁žawab	-514
▁baru	-515
ot	-516
▁ƛʕ	-517
inäy	-518
xanu	-519
▁Hemeł	-520
▁esnabi	-521
iš	-522
▁eq	-523
▁ex	-524
oxno	-525
▁baq	-526
▁hud	-527
▁rik	-528
▁riy	-529
▁roɣno	-530
abin	-531
▁Hud	-532
▁riq	-533
▁łiy	-534
▁rigu	-535
▁šida	-536
▁eɣeni	-537
▁eč	-538
▁biq	-539
▁kec	-540
▁erno	-541
▁izin	-542
▁risno	-543
▁soder	-544
▁yołäsi	-545
▁Š	-546
gin	-547
uru	-548
▁Is	-549
▁aq	-550
▁boyn	-551
▁razi	-552
▁bitor	-553
▁eženi	-554
▁guluƛ	-555
▁tełxor	-556
▁baynosi	-557
▁yegirno	-558
▁Mi	-559
▁ak	-560
ukar	-561
▁boc	-562
▁hal	-563
▁moƛ	-564
▁reč	-565
siƛin	-566
▁besun	-567
▁boɣno	-568
▁nasin	-569
▁nełaz	-570
gan	-571
▁bic	-572
▁yex	-573
maʕil	-574
▁dand	-575
▁utin	-576
▁xanez	-577
▁micxir	-578
▁Ismaʕil	-579
ob	-580
uh	-581
är	-582
maɣ	-583
ʕid	-584
▁uk	-585
atow	-586
širu	-587
▁did	-588
▁eli	-589
▁ħon	-590
ixosi	-591
▁bisno	-592
▁mečoƛ	-593
▁retin	-594
▁zawru	-595
▁zownanu	-596
▁en	-597
oxin	-598
▁Xan	-599
▁baš	-600
▁boƛ	-601
▁har	-602
ixƛin	-603
▁ixiw	-604
▁halmaɣ	-605
▁mesedyos	-606
uno	-607
łiƛ	-608
▁iz	-609
aład	-610
▁bet	-611
▁ric	-612
▁ičäsi	-613
▁esnaza	-614
▁zawruni	-615
▁Al	-616
▁dow	-617
aqʕuł	-618
däɣor	-619
unosi	-620
▁Hemedur	-621
▁nesiqor	-622
▁Xizyogon	-623
uħ	-624
dur	-625
yoq	-626
▁Nes	-627
▁boy	-628
▁keze	-629
og	-630
▁Di	-631
▁łä	-632
alam	-633
▁qac	-634
▁žed	-635
▁ʕoƛ	-636
ʕanon	-637
▁Nesä	-638
▁ƛʕeb	-639
▁howži	-640
▁nukar	-641
▁yegir	-642
▁łʕonon	-643
▁esirnosi	-644
irb	-645
azay	-646
▁baħ	-647
xoƛin	-648
▁anusi	-649
▁nesiz	-650
▁bercinaw	-651
exo	-652
yox	-653
zay	-654
łäy	-655
▁et	-656
araw	-657
oxor	-658
uraw	-659
▁Kid	-660
▁Sis	-661
▁Taw	-662
▁buq	-663
▁kik	-664
▁idur	-665
▁bizin	-666
▁eniya	-667
▁yižin	-668
▁eqerno	-669
▁bazargan	-670
ace	-671
ada	-672
žen	-673
ełno	-674
iłno	-675
▁ret	-676
▁yuk	-677
▁yut	-678
warid	-679
▁howl	-680
▁roda	-681
▁raład	-682
▁sidaɣ	-683
▁ʕuraw	-684
aɣʕ	-685
zas	-686
▁gu	-687
▁ʕU	-688
oloq	-689
ʕida	-690
▁qʕa	-691
▁rič	-692
▁Nełƛ	-693
▁yołi	-694
▁ƛirb	-695
▁xediw	-696
▁ʕoloq	-697
ig	-698
uni	-699
▁Sid	-700
▁yoq	-701
▁čan	-702
▁rayn	-703
▁xexo	-704
▁ɣudƛ	-705
▁butin	-706
▁debez	-707
▁gulun	-708
▁anuƛin	-709
▁ɣʕanaza	-710
da	-711
uy	-712
zi	-713
▁bez	-714
▁haq	-715
▁saɣ	-716
▁yow	-717
▁eƛix	-718
▁nece	-719
▁bexur	-720
▁bečed	-721
▁nexno	-722
anixƛin	-723
▁Hemełƛ	-724
it	-725
ali	-726
adur	-727
▁žaq	-728
▁ozur	-729
▁sosi	-730
▁ɣuno	-731
▁Sasaq	-732
▁debeq	-733
▁nełaq	-734
▁dandir	-735
eš	-736
äx	-737
ayz	-738
▁an	-739
▁im	-740
▁ro	-741
inaw	-742
▁ʕaq	-743
▁qʕaƛ	-744
▁yizä	-745
▁zira	-746
▁ziru	-747
▁caƛin	-748
▁siskin	-749
▁resunäy	-750
qʕ	-751
up	-752
▁ac	-753
agal	-754
asno	-755
ʕuya	-756
▁Užä	-757
▁din	-758
▁rex	-759
▁rät	-760
ortow	-761
▁Babi	-762
▁Elay	-763
▁Zown	-764
▁elay	-765
▁meža	-766
ma	-767
▁G	-768
ora	-769
ozo	-770
yoz	-771
▁ur	-772
▁däq	-773
▁tup	-774
▁Žan	-775
▁ʕom	-776
▁Yisä	-777
▁egir	-778
▁bičin	-779
▁raqru	-780
▁xexbi	-781
▁yičin	-782
▁neširu	-783
▁ʕaƛaɣor	-784
?”	-785
ilq	-786
ino	-787
isd	-788
oxt	-789
▁ci	-790
aman	-791
oboy	-792
ukul	-793
▁hib	-794
▁hor	-795
▁mix	-796
iruni	-797
▁Bilq	-798
▁Xanä	-799
▁adäz	-800
▁yayn	-801
▁ɣʕaɣ	-802
izaɣor	-803
umukul	-804
▁Nedur	-805
▁barun	-806
▁nełar	-807
▁teqno	-808
ama	-809
ini	-810
iqʕ	-811
äza	-812
ʕał	-813
▁ok	-814
▁yä	-815
ader	-816
alay	-817
aniƛ	-818
sƛin	-819
umak	-820
usen	-821
▁koƛ	-822
▁rig	-823
▁roy	-824
warił	-825
▁best	-826
▁esun	-827
▁bikor	-828
▁kumak	-829
▁nełaƛ	-830
▁Ħusen	-831
▁ɣʕutku	-832
mar	-833
non	-834
oƛƛ	-835
wan	-836
▁bu	-837
irir	-838
yabi	-839
▁raƛ	-840
oxtur	-841
▁Kidb	-842
▁elur	-843
▁esir	-844
▁rižin	-845
▁yizir	-846
▁harizi	-847
▁Zownƛax	-848
li	-849
moƛ	-850
yor	-851
▁Łʕ	-852
ilič	-853
▁bac	-854
▁boɣ	-855
▁min	-856
▁ʕiy	-857
adiru	-858
qorno	-859
▁meži	-860
▁Šebi	-861
▁baħar	-862
▁besur	-863
▁magal	-864
▁žedur	-865
▁yaqʕuł	-866
▁ciqaɣor	-867
▁ɣʕanabi	-868
la	-869
äł	-870
’.	-871
▁W	-872
lah	-873
uny	-874
ynč	-875
ʕoƛ	-876
▁oc	-877
ahaw	-878
iräy	-879
uruš	-880
▁biħ	-881
▁maʕ	-882
▁mec	-883
▁res	-884
▁urɣ	-885
▁ɣun	-886
▁ɣʕw	-887
unyal	-888
yabin	-889
▁beže	-890
▁dice	-891
aynosi	-892
runtow	-893
▁Zaman	-894
▁dunyal	-895
▁rutirno	-896
▁ħumukul	-897
▁äƛirugon	-898
yä	-899
”,	-900
oza	-901
uqʕ	-902
wax	-903
▁ži	-904
▁dib	-905
▁gur	-906
▁his	-907
▁hič	-908
▁roc	-909
▁bara	-910
▁bayr	-911
▁ezun	-912
▁howt	-913
▁nexƛ	-914
▁zeyä	-915
▁Tawad	-916
▁bełiƛ	-917
▁diƛin	-918
▁eniwn	-919
▁nesił	-920
▁yisiq	-921
waxatow	-922
▁bukayn	-923
▁yałzay	-924
▁regirno	-925
▁šebinon	-926
▁bertenno	-927
▁bertenyoł	-928
mu	-929
usa	-930
▁is	-931
▁mu	-932
▁łe	-933
azir	-934
eruc	-935
izin	-936
▁Beł	-937
▁baɣ	-938
▁bis	-939
▁biž	-940
▁ela	-941
▁puƛ	-942
▁req	-943
▁ris	-944
▁yok	-945
ayzik	-946
ozoni	-947
▁biłe	-948
▁howž	-949
▁ižin	-950
▁wʕał	-951
orolay	-952
▁kecno	-953
▁nełał	-954
▁tełer	-955
▁yesun	-956
▁žedus	-957
▁bašiqʕ	-958
▁doxtur	-959
▁sideni	-960
▁butirno	-961
▁zamanał	-962
esi	-963
ura	-964
uza	-965
zar	-966
žet	-967
▁ax	-968
awaƛ	-969
onoč	-970
orey	-971
äzay	-972
▁gug	-973
▁meš	-974
▁moč	-975
▁pik	-976
▁qoq	-977
▁yiq	-978
▁šet	-979
▁šud	-980
▁ɣam	-981
▁ʕAl	-982
ʕidar	-983
▁Idur	-984
▁Yedu	-985
▁onoč	-986
▁Žeda	-987
▁ʕaƛa	-988
▁Nesis	-989
▁dahaw	-990
▁hudun	-991
▁žeduq	-992
▁kidbez	-993
iɣ	-994
wʕ	-995
äƛ	-996
mat	-997
zaq	-998
äru	-999
▁Aħ	-1000
▁at	-1001
▁in	-1002
▁iq	-1003
▁iš	-1004
uhal	-1005
ženä	-1006
▁miƛ	-1007
▁par	-1008
▁yez	-1009
▁žuk	-1010
▁Howl	-1011
▁Yisi	-1012
▁aħoz	-1013
▁sidä	-1014
iqilič	-1015
▁didiw	-1016
▁gurow	-1017
▁mežur	-1018
▁ozuri	-1019
▁regir	-1020
▁kidbes	-1021
▁ɣʕutka	-1022
▁bełiqan	-1023
▁eƛinosi	-1024
▁Hudayzik	-1025
▁ʕAliqilič	-1026
lu	-1027
onč	-1028
zat	-1029
zał	-1030
▁ya	-1031
▁ħo	-1032
akan	-1033
eneš	-1034
igoƛ	-1035
irxo	-1036
▁Deb	-1037
▁Hun	-1038
▁Yił	-1039
▁lil	-1040
▁nay	-1041
▁roɣ	-1042
▁uqʕ	-1043
▁yaq	-1044
isƛin	-1045
▁Yeda	-1046
▁biša	-1047
▁boda	-1048
▁mixƛ	-1049
▁roži	-1050
▁yown	-1051
amalay	-1052
▁boxin	-1053
▁hemeł	-1054
▁heneš	-1055
▁kinaw	-1056
▁yutin	-1057
xanuƛin	-1058
▁aždaħä	-1059
▁ečruni	-1060
▁rukayn	-1061
▁rätiru	-1062
▁maduhal	-1063
▁yaynosi	-1064
▁yałrułi	-1065
▁yisiqor	-1066
ła	-1067
rab	-1068
▁ił	-1069
edan	-1070
emot	-1071
town	-1072
uzaƛ	-1073
ušin	-1074
▁biz	-1075
▁hok	-1076
▁iłe	-1077
▁mač	-1078
▁row	-1079
▁yiž	-1080
▁łäs	-1081
▁ƛäx	-1082
▁ʕAƛ	-1083
aħama	-1084
rabuz	-1085
xosin	-1086
▁ceyä	-1087
▁ħalt	-1088
ahadur	-1089
▁dibir	-1090
▁hoboy	-1091
▁roƛik	-1092
▁yałza	-1093
▁oƛixno	-1094
▁qʕaƛin	-1095
▁yołƛax	-1096
▁ɣʕaɣʕu	-1097
▁ɣʕuruš	-1098
▁zownƛax	-1099
▁ʕArabuz	-1100
’-	-1101
han	-1102
ran	-1103
unč	-1104
łun	-1105
▁al	-1106
▁er	-1107
▁ʕO	-1108
axay	-1109
aɣat	-1110
ediw	-1111
ixor	-1112
umru	-1113
▁Eni	-1114
▁bäs	-1115
▁caƛ	-1116
▁eƛa	-1117
▁mus	-1118
▁riħ	-1119
▁ħur	-1120
ixanu	-1121
uqʕno	-1122
uruni	-1123
▁Alim	-1124
▁bayx	-1125
▁odin	-1126
▁oqxo	-1127
▁ħonƛ	-1128
äsiƛin	-1129
▁Allah	-1130
▁Babiw	-1131
▁Eženi	-1132
▁bišwa	-1133
▁didur	-1134
▁hawaƛ	-1135
▁nexxo	-1136
▁xexoy	-1137
▁łʕora	-1138
▁ɣʕway	-1139
▁ʕumru	-1140
▁nełqor	-1141
▁wʕałer	-1142
▁Xizaɣor	-1143
▁boƛixno	-1144
▁dunyalƛ	-1145
▁äƛiruxor	-1146
ƛa	-1147
diw	-1148
xay	-1149
ʕal	-1150
▁Es	-1151
▁ox	-1152
▁äk	-1153
aquł	-1154
išat	-1155
ogaƛ	-1156
▁Teł	-1157
▁bix	-1158
▁dar	-1159
▁tun	-1160
inƛin	-1161
▁bigu	-1162
▁hudu	-1163
▁maqʕ	-1164
▁qʕaš	-1165
▁rocu	-1166
▁Bełiq	-1167
▁bayru	-1168
▁begir	-1169
▁däqor	-1170
▁hunar	-1171
▁reqen	-1172
▁tełäy	-1173
▁wazir	-1174
▁yisis	-1175
▁žeduz	-1176
▁ɣamas	-1177
▁babiwz	-1178
▁kidbed	-1179
▁urɣizi	-1180
▁horoƛin	-1181
▁kidbabi	-1182
▁yałruni	-1183
▁howlotow	-1184
▁raładyoł	-1185
go	-1186
na	-1187
ub	-1188
uɣ	-1189
än	-1190
ade	-1191
aʕb	-1192
iya	-1193
ney	-1194
was	-1195
yan	-1196
yno	-1197
ʕaƛ	-1198
▁am	-1199
▁ut	-1200
▁łu	-1201
azaq	-1202
iran	-1203
irur	-1204
izaz	-1205
ägon	-1206
▁big	-1207
▁däƛ	-1208
▁gan	-1209
▁moł	-1210
▁rek	-1211
▁Ħon	-1212
uyxor	-1213
yaɣor	-1214
▁Sosi	-1215
▁Zira	-1216
▁aluk	-1217
▁boyx	-1218
▁elor	-1219
▁koyä	-1220
▁moči	-1221
▁wasi	-1222
▁xwas	-1223
▁ƛuza	-1224
ayxƛin	-1225
neyzat	-1226
▁Nełaƛ	-1227
▁ayzaƛ	-1228
▁bexun	-1229
▁bicin	-1230
▁bičix	-1231
▁rečuƛ	-1232
▁xaner	-1233
▁yedan	-1234
▁yizin	-1235
▁yoɣno	-1236
▁zirun	-1237
▁žaqor	-1238
▁anuƛax	-1239
▁bayrno	-1240
▁idurno	-1241
▁bečedaw	-1242
▁mamalay	-1243
▁maħorno	-1244
▁maʕišat	-1245
▁sasaqor	-1246
▁łinałäy	-1247
▁iduɣorno	-1248
▁neƛanƛin	-1249
▁retinƛin	-1250
▁ʕUneyzat	-1251
▁Zamanałäy	-1252
▁bečedawni	-1253
ež	-1254
oħ	-1255
ra	-1256
ƛi	-1257
ara	-1258
art	-1259
ruk	-1260
ubi	-1261
ude	-1262
▁Ye	-1263
▁as	-1264
▁na	-1265
anaw	-1266
ceni	-1267
▁Beq	-1268
▁Zey	-1269
▁aɣi	-1270
▁cek	-1271
▁gon	-1272
▁muh	-1273
▁waħ	-1274
▁äsi	-1275
▁ħuk	-1276
▁ƛel	-1277
iɣruk	-1278
sinan	-1279
▁Yiła	-1280
▁daʕb	-1281
▁elus	-1282
▁tupi	-1283
▁Kidbä	-1284
▁baqru	-1285
▁esiws	-1286
▁gogaƛ	-1287
▁kaɣat	-1288
▁moƛał	-1289
▁nediw	-1290
▁nedur	-1291
▁pikru	-1292
▁rukar	-1293
▁teƛxo	-1294
▁yisno	-1295
▁yiłar	-1296
▁zownč	-1297
▁ʕomoy	-1298
▁Neširu	-1299
▁kidbeq	-1300
▁ƛexasi	-1301
▁riqirno	-1302
▁xabarno	-1303
▁yoƛixno	-1304
▁zowsƛin	-1305
▁łiynosi	-1306
▁Sasaqosi	-1307
▁bašiqʕoy	-1308
▁zownanuƛax	-1309
oh	-1310
či	-1311
ayä	-1312
obi	-1313
axor	-1314
eyno	-1315
iyaw	-1316
uruč	-1317
▁Did	-1318
▁biy	-1319
▁buž	-1320
▁ele	-1321
▁eƛo	-1322
▁gam	-1323
▁lag	-1324
▁mur	-1325
▁net	-1326
▁pos	-1327
▁reš	-1328
▁saħ	-1329
▁ħaž	-1330
▁ħoš	-1331
▁łox	-1332
▁ʕab	-1333
azoni	-1334
yoxor	-1335
▁Elor	-1336
▁Kusa	-1337
▁bʕoƛ	-1338
▁däde	-1339
▁eloš	-1340
▁igor	-1341
▁oxin	-1342
▁riyn	-1343
▁riłe	-1344
▁Beqes	-1345
▁Eɣeni	-1346
▁Hudun	-1347
▁Hunix	-1348
▁Nełas	-1349
▁boƛik	-1350
▁esiwn	-1351
▁howža	-1352
▁mežus	-1353
▁nazay	-1354
▁nesiƛ	-1355
▁oqzaƛ	-1356
▁qalam	-1357
▁riguƛ	-1358
▁yukay	-1359
▁äsiru	-1360
▁ħadur	-1361
▁ƛirba	-1362
▁ʕUmar	-1363
▁ʕaƛar	-1364
▁ʕaƛos	-1365
▁ʕoƛno	-1366
▁babiwn	-1367
▁bišwan	-1368
▁neƛƛin	-1369
▁xanqor	-1370
▁xwasar	-1371
▁Elaygon	-1372
▁rodanix	-1373
▁ɣʕutkun	-1374
▁micxirno	-1375
▁Ražbadinä	-1376
du	-1377
ałi	-1378
bik	-1379
łiq	-1380
ʕuƛ	-1381
▁Ok	-1382
▁ah	-1383
▁iy	-1384
▁oč	-1385
▁äs	-1386
eqor	-1387
erxo	-1388
isdä	-1389
ogon	-1390
ukin	-1391
urxo	-1392
xozo	-1393
▁Xed	-1394
▁Xex	-1395
▁Yiz	-1396
▁bec	-1397
▁däx	-1398
▁hil	-1399
▁mek	-1400
▁mis	-1401
▁nuc	-1402
▁puħ	-1403
▁riƛ	-1404
▁roč	-1405
▁yod	-1406
▁Ħas	-1407
▁ɣur	-1408
aytow	-1409
maʕat	-1410
ubazi	-1411
žigon	-1412
▁Boƛƛ	-1413
▁biča	-1414
▁egin	-1415
▁eyno	-1416
▁haqa	-1417
▁ixin	-1418
▁mada	-1419
▁qʕab	-1420
▁čant	-1421
alawni	-1422
aniƛäy	-1423
omceni	-1424
wariłi	-1425
▁ciqqo	-1426
▁däder	-1427
▁hibon	-1428
▁miƛin	-1429
▁rukay	-1430
▁xanqo	-1431
▁xanzo	-1432
▁yiłas	-1433
▁ħalał	-1434
▁Łʕono	-1435
▁Žigoƛ	-1436
▁žaƛin	-1437
▁Babiya	-1438
▁Tawadä	-1439
▁kidber	-1440
▁nełqay	-1441
▁oqnosi	-1442
▁xabary	-1443
▁xander	-1444
▁yeženi	-1445
▁yeɣeni	-1446
▁Sidaquł	-1447
▁bexurno	-1448
▁žamaʕat	-1449
▁Ismaʕilä	-1450
▁babiwqor	-1451
▁bełiqanä	-1452
▁kidbeqor	-1453
▁kwaxatow	-1454
▁Alimaħama	-1455
iħ	-1456
ug	-1457
agu	-1458
ala	-1459
bar	-1460
dux	-1461
ori	-1462
san	-1463
▁Až	-1464
▁už	-1465
agaħ	-1466
aqor	-1467
ataw	-1468
odor	-1469
ohor	-1470
oran	-1471
uƛƛi	-1472
xoli	-1473
▁Dey	-1474
▁Esn	-1475
▁Maħ	-1476
▁Uži	-1477
▁bat	-1478
▁beɣ	-1479
▁ent	-1480
▁her	-1481
▁naz	-1482
▁rad	-1483
▁riž	-1484
▁räs	-1485
▁tat	-1486
▁yac	-1487
▁yet	-1488
▁yiħ	-1489
▁Łox	-1490
▁žax	-1491
▁ɣwʕ	-1492
alini	-1493
ayran	-1494
derno	-1495
irdux	-1496
noƛin	-1497
oƛƛin	-1498
ʕidan	-1499
▁Qart	-1500
▁ader	-1501
▁amma	-1502
▁horo	-1503
▁icin	-1504
▁qaca	-1505
▁riyx	-1506
▁Aždaħ	-1507
▁bezun	-1508
▁bežet	-1509
▁bukar	-1510
▁eniwq	-1511
▁esiwq	-1512
▁imyoq	-1513
▁murad	-1514
▁oqinč	-1515
▁regin	-1516
▁ričin	-1517
▁xizaz	-1518
▁ħaƛun	-1519
▁łinaƛ	-1520
▁žigon	-1521
▁ɣudes	-1522
waridno	-1523
▁bičäsi	-1524
▁boqzaƛ	-1525
▁lilyox	-1526
▁miskin	-1527
▁qʕaƛan	-1528
▁xexłiƛ	-1529
▁łiyrno	-1530
▁aždaħes	-1531
▁boqnosi	-1532
▁moƛaxay	-1533
▁zownƛin	-1534
▁łinasno	-1535
▁ħumukuli	-1536
ap	-1537
ays	-1538
imo	-1539
▁Oƛ	-1540
▁ad	-1541
▁aš	-1542
▁äč	-1543
ahar	-1544
anłi	-1545
axru	-1546
azin	-1547
edin	-1548
esno	-1549
uret	-1550
▁Bik	-1551
▁Däz	-1552
▁Gul	-1553
▁kar	-1554
▁muš	-1555
▁qem	-1556
▁riz	-1557
▁rił	-1558
▁sab	-1559
▁yic	-1560
▁yoƛ	-1561
▁zig	-1562
▁ʕad	-1563
▁ʕan	-1564
aɣʕin	-1565
ixozo	-1566
izoni	-1567
yołäy	-1568
zaqor	-1569
äyƛin	-1570
äłrun	-1571
▁Esin	-1572
▁Yizi	-1573
▁bown	-1574
▁boƛƛ	-1575
▁eluq	-1576
▁enda	-1577
▁exun	-1578
▁habi	-1579
▁huni	-1580
▁reže	-1581
▁ukay	-1582
▁zeyn	-1583
▁łiyn	-1584
alamno	-1585
irigon	-1586
xanusi	-1587
▁Xanes	-1588
▁bužzi	-1589
▁debex	-1590
▁gamiƛ	-1591
▁reƛno	-1592
▁yexun	-1593
▁yisił	-1594
▁čuret	-1595
▁šudaƛ	-1596
▁šušin	-1597
ahadurä	-1598
urnokin	-1599
▁adäzar	-1600
▁badiru	-1601
▁bikori	-1602
▁dowqor	-1603
▁esanix	-1604
▁kidbeƛ	-1605
▁neƛnäy	-1606
▁rayrno	-1607
▁roqinč	-1608
▁ʕomoyä	-1609
▁dicegon	-1610
▁retinäy	-1611
▁Kwaxatow	-1612
▁kumakyor	-1613
▁naysinan	-1614
▁raładyoz	-1615
▁rodanƛin	-1616
▁yizirabi	-1617
▁łinałäyn	-1618
▁zamanałäy	-1619
äk	-1620
agi	-1621
däy	-1622
ece	-1623
ere	-1624
ibi	-1625
ima	-1626
kar	-1627
noc	-1628
orž	-1629
zox	-1630
ƛer	-1631
▁Be	-1632
▁Ox	-1633
▁Oz	-1634
▁az	-1635
▁iž	-1636
▁od	-1637
asił	-1638
aħin	-1639
ałer	-1640
aʕal	-1641
ganä	-1642
gtow	-1643
ibaw	-1644
isno	-1645
nayx	-1646
qinč	-1647
ubin	-1648
uqor	-1649
uran	-1650
urec	-1651
ułäy	-1652
weze	-1653
zoni	-1654
ʕuna	-1655
▁Aħm	-1656
▁Bac	-1657
▁Baq	-1658
▁Ber	-1659
▁Din	-1660
▁Goq	-1661
▁bad	-1662
▁bah	-1663
▁bäk	-1664
▁cax	-1665
▁esa	-1666
▁eže	-1667
▁hut	-1668
▁ker	-1669
▁lel	-1670
▁nar	-1671
▁noc	-1672
▁riš	-1673
▁tam	-1674
▁yaħ	-1675
▁ziy	-1676
▁žas	-1677
▁ʕAt	-1678
roƛin	-1679
yosno	-1680
ʕaƛin	-1681
ʕunan	-1682
▁Eniw	-1683
▁aħin	-1684
▁bark	-1685
▁bʕał	-1686
▁esix	-1687
▁hibo	-1688
▁imad	-1689
▁iħuz	-1690
▁rown	-1691
▁royn	-1692
▁łeno	-1693
▁ʕeze	-1694
adanix	-1695
oxirno	-1696
xosini	-1697
▁Hoboy	-1698
▁ayrno	-1699
▁biqir	-1700
▁biynč	-1701
▁biħan	-1702
▁bodix	-1703
▁däqay	-1704
▁howlo	-1705
▁iduza	-1706
▁kanłi	-1707
▁nesix	-1708
▁parax	-1709
▁qacis	-1710
▁rutin	-1711
▁ukayn	-1712
▁čanya	-1713
▁babiwq	-1714
▁gugyoƛ	-1715
▁heresi	-1716
▁iqirno	-1717
▁magalu	-1718
▁radiru	-1719
▁riyrno	-1720
▁tungin	-1721
▁užiqor	-1722
▁xediwn	-1723
▁xexoyn	-1724
▁yegira	-1725
▁esnabin	-1726
▁magalun	-1727
▁nesider	-1728
▁royxosi	-1729
▁sisxoli	-1730
▁xizaɣor	-1731
▁ħaƛanix	-1732
▁ɣʕaɣʕun	-1733
▁Howlotow	-1734
▁bezunosi	-1735
▁ɣʕutkaɣor	-1736
▁ʕArabuzan	-1737
▁maduhalłiq	-1738
▁resunäyƛin	-1739
▁bertenyołxor	-1740
gi	-1741
awn	-1742
mes	-1743
noƛ	-1744
uri	-1745
yar	-1746
łer	-1747
ʕuy	-1748
▁Ik	-1749
▁aw	-1750
aliħ	-1751
atno	-1752
ebed	-1753
imoƛ	-1754
iqor	-1755
iłer	-1756
iłäy	-1757
ogun	-1758
ułno	-1759
ułun	-1760
ƛinč	-1761
▁Cey	-1762
▁Där	-1763
▁Kus	-1764
▁bow	-1765
▁bäč	-1766
▁cuc	-1767
▁daw	-1768
▁ezu	-1769
▁iča	-1770
▁kut	-1771
▁max	-1772
▁meɣ	-1773
▁muk	-1774
▁neš	-1775
▁qun	-1776
▁quq	-1777
▁raħ	-1778
▁täƛ	-1779
▁yes	-1780
▁zok	-1781
▁čar	-1782
▁ħiš	-1783
▁ħiƛ	-1784
▁žar	-1785
▁ʕez	-1786
aʕalł	-1787
irƛin	-1788
orola	-1789
▁ahli	-1790
▁aɣʕu	-1791
▁baɣm	-1792
▁borž	-1793
▁gama	-1794
▁iyos	-1795
▁iħun	-1796
▁nexa	-1797
▁nełƛ	-1798
▁pand	-1799
▁raqʕ	-1800
▁sist	-1801
▁yiłe	-1802
▁ƛʕor	-1803
▁Bazar	-1804
▁Deber	-1805
▁ayäsi	-1806
▁bečeł	-1807
▁bižix	-1808
▁boqxo	-1809
▁bukay	-1810
▁daʕba	-1811
▁esinč	-1812
▁eženä	-1813
▁hokom	-1814
▁mešok	-1815
▁taliħ	-1816
▁tupin	-1817
▁xalič	-1818
▁Ħasan	-1819
▁ħukmu	-1820
▁Łʕora	-1821
▁łinar	-1822
▁šahar	-1823
▁Žedus	-1824
▁žedaƛ	-1825
▁žedun	-1826
▁žeduł	-1827
▁ɣunoq	-1828
▁ɣunoƛ	-1829
▁ʕazar	-1830
däɣorno	-1831
irizoni	-1832
▁besuro	-1833
▁bexayn	-1834
▁boqłin	-1835
▁gulubi	-1836
▁hemesi	-1837
▁nexäsi	-1838
▁raʕalł	-1839
▁roqłin	-1840
▁sisgon	-1841
▁sistow	-1842
▁yukayn	-1843
▁ħayran	-1844
▁ħuržen	-1845
▁łʕoran	-1846
▁ƛirbał	-1847
▁bełiquz	-1848
▁biqirno	-1849
▁eniwqor	-1850
▁esnazar	-1851
▁habihan	-1852
▁paraxat	-1853
▁reqenno	-1854
▁rodoƛin	-1855
▁roqxosi	-1856
▁roqäƛin	-1857
▁tełäzay	-1858
▁yexurno	-1859
▁yołäƛin	-1860
▁zowerno	-1861
▁ʕoloqan	-1862
▁halmaɣłi	-1863
▁sasaqosi	-1864
▁xizyogon	-1865
▁bukaynosi	-1866
▁Hemedurtow	-1867
ic	-1868
qu	-1869
uč	-1870
äc	-1871
ayɣ	-1872
era	-1873
isi	-1874
mos	-1875
nin	-1876
nox	-1877
rxo	-1878
udi	-1879
umi	-1880
yat	-1881
zaz	-1882
▁ec	-1883
▁hi	-1884
▁iƛ	-1885
▁uy	-1886
▁äx	-1887
azaƛ	-1888
aʕat	-1889
elaw	-1890
eneč	-1891
hizi	-1892
imor	-1893
irič	-1894
ixno	-1895
iłin	-1896
oqan	-1897
oqor	-1898
ołäy	-1899
rinč	-1900
uhun	-1901
usno	-1902
uƛer	-1903
▁Dib	-1904
▁Mež	-1905
▁Oƛƛ	-1906
▁anƛ	-1907
▁ayx	-1908
▁aħo	-1909
▁aɣʕ	-1910
▁baƛ	-1911
▁bäq	-1912
▁däł	-1913
▁iyn	-1914
▁kam	-1915
▁koč	-1916
▁oqƛ	-1917
▁tax	-1918
▁xot	-1919
▁zam	-1920
▁ħam	-1921
▁łeɣ	-1922
▁łoħ	-1923
▁łäy	-1924
▁šil	-1925
▁ʕil	-1926
ayƛin	-1927
cegon	-1928
wäƛin	-1929
zames	-1930
załer	-1931
äruni	-1932
ʕimno	-1933
▁Hudu	-1934
▁acno	-1935
▁ayru	-1936
▁baha	-1937
▁bʕuƛ	-1938
▁dowƛ	-1939
▁eluz	-1940
▁gond	-1941
▁isno	-1942
▁ičix	-1943
▁iħuł	-1944
▁muši	-1945
▁oɣno	-1946
▁pard	-1947
▁taqʕ	-1948
▁teƛa	-1949
▁were	-1950
▁yowa	-1951
ayxanu	-1952
▁Eniya	-1953
▁Nełaq	-1954
▁Xanez	-1955
▁bašla	-1956
▁betin	-1957
▁bišad	-1958
▁dandi	-1959
▁debeƛ	-1960
▁esiwr	-1961
▁esiwz	-1962
▁haraƛ	-1963
▁howda	-1964
▁iguni	-1965
▁insan	-1966
▁ičinč	-1967
▁kurxo	-1968
▁mołin	-1969
▁nagaħ	-1970
▁netin	-1971
▁qazaq	-1972
▁qʕaƛu	-1973
▁riynč	-1974
▁rožin	-1975
▁ruhun	-1976
▁sider	-1977
▁taraw	-1978
▁xecix	-1979
▁yezun	-1980
▁yisiz	-1981
▁yizis	-1982
▁yodin	-1983
▁ħalaq	-1984
▁ħonno	-1985
▁ɣudin	-1986
▁ʕaƛoz	-1987
arnokin	-1988
▁Hemeła	-1989
▁Sosisi	-1990
▁baħarč	-1991
▁boqinč	-1992
▁igorno	-1993
▁izirno	-1994
▁kidbeł	-1995
▁neside	-1996
▁xedyox	-1997
▁yičäsi	-1998
▁čuqʕno	-1999
▁Ħusenä	-2000
▁ħurmat	-2001
▁žaqʕuł	-2002
▁ʕoƛnon	-2003
▁barułun	-2004
▁bodanix	-2005
▁boyxosi	-2006
▁doxturä	-2007
▁esinosi	-2008
▁hemediw	-2009
▁madaxor	-2010
▁roƛixno	-2011
▁sosigon	-2012
▁šebiƛin	-2013
▁žeduqor	-2014
▁ɣamasya	-2015
▁ʕeziyaw	-2016
▁lilyoxor	-2017
▁ɣʕanabin	-2018
▁ɣʕanazas	-2019
▁Hudayziko	-2020
▁bašiqʕoyn	-2021
▁ɣʕutkoxor	-2022
▁bazaryaɣor	-2023
▁ʕArabuzanä	-2024
.”	-2025
äq	-2026
ƛo	-2027
adi	-2028
ana	-2029
ari	-2030
dan	-2031
erb	-2032
eyn	-2033
gär	-2034
ide	-2035
iƛb	-2036
moq	-2037
niƛ	-2038
oru	-2039
oyx	-2040
rus	-2041
uci	-2042
wad	-2043
ʕin	-2044
▁Ac	-2045
▁Ad	-2046
▁Qʕ	-2047
▁ač	-2048
▁ał	-2049
▁kw	-2050
▁oɣ	-2051
▁ɣo	-2052
agin	-2053
apar	-2054
aqay	-2055
arum	-2056
aħam	-2057
edon	-2058
edun	-2059
ikin	-2060
irin	-2061
iyor	-2062
izaq	-2063
iłxo	-2064
qosi	-2065
ukno	-2066
ures	-2067
urun	-2068
utow	-2069
łäsi	-2070
łäyn	-2071
ʕimƛ	-2072
▁Biš	-2073
▁Boc	-2074
▁Ele	-2075
▁Hič	-2076
▁Idu	-2077
▁Neš	-2078
▁Wal	-2079
▁beq	-2080
▁beƛ	-2081
▁biƛ	-2082
▁cin	-2083
▁heq	-2084
▁iħu	-2085
▁kes	-2086
▁keč	-2087
▁laɣ	-2088
▁paš	-2089
▁pur	-2090
▁rix	-2091
▁ser	-2092
▁tuš	-2093
▁wal	-2094
▁yäk	-2095
▁yäs	-2096
▁zer	-2097
▁łib	-2098
▁łäł	-2099
▁šuš	-2100
▁žaz	-2101
▁ƛoħ	-2102
▁ʕOm	-2103
danix	-2104
erhan	-2105
inanu	-2106
yarno	-2107
załäy	-2108
ʕirno	-2109
▁Bara	-2110
▁Musa	-2111
▁buci	-2112
▁buqʕ	-2113
▁buyn	-2114
▁daru	-2115
▁etix	-2116
▁exur	-2117
▁eƛis	-2118
▁iday	-2119
▁iłno	-2120
▁išno	-2121
▁mežä	-2122
▁nʕoƛ	-2123
▁roqä	-2124
▁rowa	-2125
▁sayɣ	-2126
▁tatu	-2127
▁užiq	-2128
▁yałi	-2129
▁yeže	-2130
▁yiča	-2131
▁yoƛƛ	-2132
▁ziya	-2133
▁Šida	-2134
▁žiƛb	-2135
▁ɣʕul	-2136
aharno	-2137
ariłno	-2138
▁Boƛƛo	-2139
▁Dibir	-2140
▁Didur	-2141
▁Maħor	-2142
▁Mesed	-2143
▁Nełaz	-2144
▁Sidaɣ	-2145
▁Xedya	-2146
▁ayƛin	-2147
▁aħozä	-2148
▁baruq	-2149
▁bayan	-2150
▁bišan	-2151
▁boynč	-2152
▁hunin	-2153
▁inkar	-2154
▁madaħ	-2155
▁musno	-2156
▁nucos	-2157
▁oqäsi	-2158
▁qaciz	-2159
▁rayza	-2160
▁razin	-2161
▁roƛƛo	-2162
▁sidaƛ	-2163
▁sidqo	-2164
▁tamaš	-2165
▁teƛsi	-2166
▁urɣel	-2167
▁yiziq	-2168
▁yiłaq	-2169
▁šinaw	-2170
▁žigoƛ	-2171
▁žukłi	-2172
▁ƛʕeba	-2173
▁ɣoɣor	-2174
▁ʕilmu	-2175
wariłiƛ	-2176
yoqorno	-2177
▁Berten	-2178
▁Esnaza	-2179
▁Sisgon	-2180
▁Xexłiƛ	-2181
▁bayƛin	-2182
▁biqinč	-2183
▁boqäsi	-2184
▁esunäy	-2185
▁exurno	-2186
▁hokomƛ	-2187
▁kidƛin	-2188
▁onočaƛ	-2189
▁pandur	-2190
▁pašman	-2191
▁qʕirič	-2192
▁rodäsi	-2193
▁roqace	-2194
▁tušman	-2195
▁xanłin	-2196
▁xanłun	-2197
▁xecinč	-2198
▁xedyos	-2199
▁xizayn	-2200
▁yayrno	-2201
▁žedude	-2202
▁ƛuzabi	-2203
▁ƛäxuru	-2204
▁ƛʕoreł	-2205
ixanuƛin	-2206
▁Zamanaƛ	-2207
▁bayrinč	-2208
▁bayxƛin	-2209
▁bełiqus	-2210
▁bičirno	-2211
▁bodoƛin	-2212
▁elaygon	-2213
▁iħułxor	-2214
▁mesedno	-2215
▁nesiqay	-2216
▁rexurno	-2217
▁salamno	-2218
▁yukarno	-2219
▁zamanno	-2220
▁šebinno	-2221
▁ʕoloqbi	-2222
▁Bełiqanä	-2223
▁bitazoni	-2224
▁boqnoanu	-2225
▁deberƛin	-2226
▁howžatow	-2227
▁nexxoƛin	-2228
▁roqnoƛin	-2229
▁sasaqtow	-2230
▁tełxorno	-2231
▁zowwäƛin	-2232
▁šebintow	-2233
▁ƛirbałix	-2234
▁ɣʕurušno	-2235
▁bazarganä	-2236
▁ʕUneyzatä	-2237
▁ʕiyayxƛin	-2238
▁bazarganbi	-2239
▁bazarganza	-2240
▁bercinawni	-2241
▁bexursiƛin	-2242
▁ʕAliqiličä	-2243
▁bertenyołer	-2244
▁ħurženyabin	-2245
▁Hudayzikotow	-2246
ro	-2247
sa	-2248
ayƛ	-2249
ažg	-2250
dal	-2251
din	-2252
ečk	-2253
ili	-2254
muk	-2255
oda	-2256
oqʕ	-2257
uɣw	-2258
xar	-2259
yaƛ	-2260
čey	-2261
šel	-2262
ʕir	-2263
▁En	-2264
▁Re	-2265
▁or	-2266
abul	-2267
akin	-2268
alan	-2269
amal	-2270
anin	-2271
anir	-2272
araɣ	-2273
arik	-2274
ekin	-2275
ešon	-2276
ider	-2277
irsi	-2278
izay	-2279
osin	-2280
unzi	-2281
utin	-2282
ärno	-2283
▁Bar	-2284
▁Mad	-2285
▁Moƛ	-2286
▁Roƛ	-2287
▁Waħ	-2288
▁bak	-2289
▁bog	-2290
▁bät	-2291
▁cir	-2292
▁eso	-2293
▁hob	-2294
▁muč	-2295
▁oqa	-2296
▁osi	-2297
▁oyn	-2298
▁ozƛ	-2299
▁pul	-2300
▁put	-2301
▁rez	-2302
▁ruł	-2303
▁ruɣ	-2304
▁räč	-2305
▁siħ	-2306
▁uyn	-2307
▁ħil	-2308
▁Łin	-2309
▁łac	-2310
▁łem	-2311
▁łet	-2312
▁łoč	-2313
▁žež	-2314
▁ƛen	-2315
▁ʕOƛ	-2316
arƛin	-2317
ažgit	-2318
inƛax	-2319
nokin	-2320
orgon	-2321
osini	-2322
ranix	-2323
usƛin	-2324
waƛin	-2325
xorno	-2326
yoqor	-2327
ʕułno	-2328
▁Ceyä	-2329
▁Elus	-2330
▁Umuk	-2331
▁Yizä	-2332
▁Zeyä	-2333
▁bezu	-2334
▁boqa	-2335
▁bʕaƛ	-2336
▁ence	-2337
▁esiy	-2338
▁ečru	-2339
▁hečk	-2340
▁hoko	-2341
▁mecr	-2342
▁meča	-2343
▁neti	-2344
▁neƛa	-2345
▁ogun	-2346
▁orez	-2347
▁posu	-2348
▁puħo	-2349
▁pʕaƛ	-2350
▁qema	-2351
▁qʕiƛ	-2352
▁rešt	-2353
▁rʕoƛ	-2354
▁sidƛ	-2355
▁užir	-2356
▁ħaƛa	-2357
▁łera	-2358
▁łiyr	-2359
▁łoħr	-2360
▁Žoyä	-2361
▁ƛeli	-2362
▁ɣutk	-2363
▁ʕant	-2364
araɣno	-2365
imoxor	-2366
iranix	-2367
näyƛin	-2368
▁Nasin	-2369
▁Nesir	-2370
▁Nesiƛ	-2371
▁Raład	-2372
▁Suƛƛi	-2373
▁Telaw	-2374
▁Zeyes	-2375
▁anunč	-2376
▁anuru	-2377
▁ayrun	-2378
▁azbar	-2379
▁bišno	-2380
▁boqsi	-2381
▁boƛix	-2382
▁boƛäx	-2383
▁cuƛer	-2384
▁diwan	-2385
▁dowde	-2386
▁howła	-2387
▁imadu	-2388
▁kedon	-2389
▁koyär	-2390
▁madax	-2391
▁mečoł	-2392
▁mežuq	-2393
▁mušin	-2394
▁nazon	-2395
▁nełde	-2396
▁onoču	-2397
▁qoqoƛ	-2398
▁rexun	-2399
▁rizin	-2400
▁rodan	-2401
▁sapar	-2402
▁sasił	-2403
▁suƛƛi	-2404
▁teqxo	-2405
▁užibi	-2406
▁xanłi	-2407
▁yexur	-2408
▁yiził	-2409
▁čaran	-2410
▁ħalik	-2411
▁ħažat	-2412
▁ħošin	-2413
▁šibaw	-2414
▁Žeduł	-2415
▁žeduƛ	-2416
▁ɣurox	-2417
▁ɣuruš	-2418
▁ʕAƛoz	-2419
▁ʕaƛay	-2420
▁ʕaƛox	-2421
orolayä	-2422
▁Allahä	-2423
▁Aħmadä	-2424
▁Maħama	-2425
▁Qartay	-2426
▁Yaqʕuł	-2427
▁akiłno	-2428
▁bayrun	-2429
▁bayzaƛ	-2430
▁behizi	-2431
▁bexada	-2432
▁bełiqa	-2433
▁bičinč	-2434
▁buyxor	-2435
▁kikxor	-2436
▁maxšel	-2437
▁mažgit	-2438
▁nukarä	-2439
▁pikrun	-2440
▁riynox	-2441
▁ruqʕno	-2442
▁räyƛin	-2443
▁wallah	-2444
▁yayƛin	-2445
▁čʕaƛin	-2446
▁ʕiyayn	-2447
▁ʕiyayx	-2448
▁Yisägon	-2449
▁aždaħno	-2450
▁baħarči	-2451
▁besunäy	-2452
▁bikorin	-2453
▁bitaɣor	-2454
▁boqxosi	-2455
▁esiwqor	-2456
▁kuroƛin	-2457
▁neširur	-2458
▁nukarza	-2459
▁rayxosi	-2460
▁rizirno	-2461
▁teqerno	-2462
▁teqnosi	-2463
▁teƛanix	-2464
▁yaraɣno	-2465
▁yukayru	-2466
▁zowäƛin	-2467
▁šebitow	-2468
▁ʕoloqza	-2469
▁ʕoƛiran	-2470
▁Bazargan	-2471
▁barkalan	-2472
▁esiranix	-2473
▁ičäsiƛin	-2474
▁mamalayƛ	-2475
▁netintow	-2476
▁yałrułin	-2477
▁ƛäxuruni	-2478
▁Bertenyoł	-2479
▁eniwdäɣor	-2480
▁eynodanix	-2481
▁neširuxay	-2482
▁rukaynosi	-2483
▁xabaryayn	-2484
▁xabaryayx	-2485
▁yukaynosi	-2486
▁ħumukulis	-2487
▁ʕaƛaɣorno	-2488
▁didurnokin	-2489
▁kidbedäɣor	-2490
▁ħumukulibin	-2491
iʕ	-2492
yx	-2493
äd	-2494
ɣe	-2495
alq	-2496
aru	-2497
ice	-2498
igu	-2499
ila	-2500
iyä	-2501
iči	-2502
laƛ	-2503
lus	-2504
mun	-2505
naq	-2506
oli	-2507
oyo	-2508
raw	-2509
ual	-2510
ula	-2511
žis	-2512
ɣen	-2513
ɣet	-2514
ʕeƛ	-2515
▁As	-2516
▁Id	-2517
▁aƛ	-2518
▁eš	-2519
▁yu	-2520
▁Ži	-2521
akno	-2522
ambi	-2523
amus	-2524
anon	-2525
arab	-2526
aram	-2527
awus	-2528
aysi	-2529
azax	-2530
azał	-2531
bʕoƛ	-2532
danƛ	-2533
eley	-2534
eres	-2535
hanä	-2536
ibin	-2537
ikay	-2538
ilaw	-2539
imat	-2540
isdi	-2541
mʕal	-2542
ogol	-2543
olun	-2544
onił	-2545
orił	-2546
orok	-2547
ołun	-2548
utan	-2549
uħam	-2550
äsin	-2551
äƛru	-2552
łinč	-2553
žmar	-2554
ʕizi	-2555
▁Bes	-2556
▁Haq	-2557
▁Kut	-2558
▁Mus	-2559
▁Qac	-2560
▁ana	-2561
▁axw	-2562
▁aħn	-2563
▁bił	-2564
▁cim	-2565
▁daq	-2566
▁ged	-2567
▁hiƛ	-2568
▁hoq	-2569
▁igo	-2570
▁kaw	-2571
▁kaƛ	-2572
▁kok	-2573
▁maq	-2574
▁mar	-2575
▁mas	-2576
▁obi	-2577
▁pak	-2578
▁pun	-2579
▁rag	-2580
▁ras	-2581
▁rec	-2582
▁rit	-2583
▁ruħ	-2584
▁räk	-2585
▁tus	-2586
▁xux	-2587
▁yaw	-2588
▁yaƛ	-2589
▁yis	-2590
▁yoɣ	-2591
▁zah	-2592
▁ħak	-2593
▁ħir	-2594
▁ħob	-2595
▁łäƛ	-2596
▁šiš	-2597
▁šuƛ	-2598
▁ʕOl	-2599
▁ʕag	-2600
▁ʕuq	-2601
alyos	-2602
eynod	-2603
inayn	-2604
iƛƛin	-2605
moxor	-2606
orkin	-2607
orƛin	-2608
qaɣor	-2609
ugani	-2610
uxanu	-2611
zagon	-2612
zaqay	-2613
ärułi	-2614
ärƛin	-2615
ʕalim	-2616
ʕimak	-2617
▁Adäz	-2618
▁Aħya	-2619
▁Bayn	-2620
▁Bʕeƛ	-2621
▁Howt	-2622
▁Howž	-2623
▁Rigu	-2624
▁Sidä	-2625
▁azir	-2626
▁ačqʕ	-2627
▁aħya	-2628
▁ałni	-2629
▁baya	-2630
▁bečn	-2631
▁bełi	-2632
▁beɣe	-2633
▁boƛi	-2634
▁boɣa	-2635
▁esan	-2636
▁eƛno	-2637
▁gugu	-2638
▁haqu	-2639
▁izmu	-2640
▁keca	-2641
▁kuro	-2642
▁kwat	-2643
▁maħi	-2644
▁muži	-2645
▁nasi	-2646
▁osiw	-2647
▁oƛix	-2648
▁rayr	-2649
▁rayx	-2650
▁riƛu	-2651
▁sual	-2652
▁ukru	-2653
▁užiƛ	-2654
▁yaɣʕ	-2655
▁ziys	-2656
▁łiya	-2657
▁šiqʕ	-2658
▁žuka	-2659
▁ƛisi	-2660
▁ɣedu	-2661
abanaw	-2662
adäɣor	-2663
ayxosi	-2664
aɣʕƛin	-2665
ernosi	-2666
idaɣor	-2667
iraɣor	-2668
iyäƛin	-2669
moƛxor	-2670
orolaz	-2671
uħaraw	-2672
▁Bełiƛ	-2673
▁Debez	-2674
▁Howła	-2675
▁Muħam	-2676
▁Xediw	-2677
▁Yisiz	-2678
▁acmoq	-2679
▁bexor	-2680
▁bełis	-2681
▁bigza	-2682
▁biqin	-2683
▁butni	-2684
▁caƛix	-2685
▁cedin	-2686
▁cucik	-2687
▁debeł	-2688
▁därno	-2689
▁elzox	-2690
▁geres	-2691
▁gondu	-2692
▁gugin	-2693
▁gulus	-2694
▁hison	-2695
▁hisos	-2696
▁igtow	-2697
▁istow	-2698
▁kočor	-2699
▁maqʕi	-2700
▁maʕna	-2701
▁mogol	-2702
▁močin	-2703
▁nesän	-2704
▁ozzaq	-2705
▁ozƛäy	-2706
▁qacan	-2707
▁qaciƛ	-2708
▁raƛin	-2709
▁režet	-2710
▁rigut	-2711
▁riħin	-2712
▁roxin	-2713
▁serun	-2714
▁taxeƛ	-2715
▁tungi	-2716
▁ukrun	-2717
▁uqʕno	-2718
▁xande	-2719
▁xexza	-2720
▁yisiƛ	-2721
▁yoxin	-2722
▁zowno	-2723
▁äčiza	-2724
▁ħaƛin	-2725
▁ħilla	-2726
▁łaħin	-2727
▁łenon	-2728
▁łeɣin	-2729
▁łinaq	-2730
▁łinax	-2731
▁Žeduq	-2732
▁žader	-2733
▁žedar	-2734
▁ƛexus	-2735
▁ʕOmoy	-2736
▁ʕUraw	-2737
iranƛin	-2738
ʕunesno	-2739
▁Dibirä	-2740
▁Iduɣor	-2741
▁Kidbez	-2742
▁Oƛƛozo	-2743
▁Tawadi	-2744
▁Yeženi	-2745
▁adäzay	-2746
▁anaƛin	-2747
▁barubi	-2748
▁baybik	-2749
▁bečełi	-2750
▁bodäsi	-2751
▁boqnäy	-2752
▁bukayx	-2753
▁dawlaƛ	-2754
▁däqƛin	-2755
▁esinäy	-2756
▁esoƛin	-2757
▁gondun	-2758
▁gugyoq	-2759
▁hemece	-2760
▁hemeła	-2761
▁hemełƛ	-2762
▁ixinno	-2763
▁kecäsi	-2764
▁mekoyx	-2765
▁nełade	-2766
▁nełder	-2767
▁oxirno	-2768
▁pakmos	-2769
▁qoqoƛu	-2770
▁qunyox	-2771
▁qułtow	-2772
▁retäsi	-2773
▁roqzaƛ	-2774
▁roqäsi	-2775
▁rukayx	-2776
▁saɣyat	-2777
▁sidqor	-2778
▁sosisi	-2779
▁tusnaq	-2780
▁ukarno	-2781
▁utirno	-2782
▁xediya	-2783
▁xedyor	-2784
▁xexbin	-2785
▁xexzas	-2786
▁yaɣʕin	-2787
▁yeženä	-2788
▁yołali	-2789
▁äsuƛin	-2790
▁äƛirun	-2791
▁łočyaƛ	-2792
▁łäyrun	-2793
▁ƛʕebaƛ	-2794
▁ʕabdal	-2795
▁ʕazara	-2796
Bahadurä	-2797
ixosiƛin	-2798
▁baħaray	-2799
▁besuroz	-2800
▁bežigon	-2801
▁bizirno	-2802
▁biłetow	-2803
▁boxirno	-2804
▁bukaynč	-2805
▁bäsuƛin	-2806
▁bʕałayn	-2807
▁deberno	-2808
▁dibirno	-2809
▁egirƛin	-2810
▁esnazaq	-2811
▁eƛixosi	-2812
▁huduƛin	-2813
▁kidbaza	-2814
▁maharno	-2815
▁nukarbi	-2816
▁ozzałer	-2817
▁pardagi	-2818
▁pulanaw	-2819
▁qoqoƛix	-2820
▁režigon	-2821
▁riguƛin	-2822
▁tełerno	-2823
▁uqʕełno	-2824
▁zamanaƛ	-2825
▁zigolun	-2826
▁äsuruni	-2827
▁äƛiruni	-2828
▁čanyabi	-2829
▁łiboqan	-2830
▁ɣamasno	-2831
▁ɣʕutkox	-2832
▁ɣʕutkoł	-2833
▁Alimaħam	-2834
▁baħarayn	-2835
▁bercingo	-2836
▁besurobi	-2837
▁bizinosi	-2838
▁bodinosi	-2839
▁boržizin	-2840
▁kidbeder	-2841
▁kidberno	-2842
▁nesistow	-2843
▁nexanƛin	-2844
▁rodixƛin	-2845
▁saparyox	-2846
▁xandäɣor	-2847
▁xizaygon	-2848
▁yezunosi	-2849
▁egiranƛin	-2850
▁esnazaqor	-2851
▁maʕišatno	-2852
▁regirnosi	-2853
▁ħalikataw	-2854
▁ɣʕurušyoƛ	-2855
▁ʕoloqanaw	-2856
▁Didurnokin	-2857
▁raładyołäy	-2858
▁raʕalłixor	-2859
▁zamanałäza	-2860
▁łinasnotow	-2861
▁aħinyoqorno	-2862
▁bazarganbin	-2863
▁micxiryosno	-2864
eg	-2865
ew	-2866
nč	-2867
op	-2868
re	-2869
st	-2870
uʕ	-2871
xa	-2872
äs	-2873
łä	-2874
aba	-2875
alä	-2876
aqi	-2877
bet	-2878
hun	-2879
idä	-2880
ild	-2881
iłi	-2882
iƛa	-2883
kum	-2884
lun	-2885
moł	-2886
ode	-2887
oqu	-2888
rik	-2889
unt	-2890
urƛ	-2891
usä	-2892
wač	-2893
xoƛ	-2894
yay	-2895
yik	-2896
zan	-2897
zix	-2898
łaƛ	-2899
šno	-2900
žiƛ	-2901
ʕaš	-2902
ʕaɣ	-2903
ʕlu	-2904
▁Am	-2905
▁Aɣ	-2906
▁Ig	-2907
▁Ix	-2908
▁Ič	-2909
▁Me	-2910
▁Už	-2911
▁ar	-2912
▁ot	-2913
▁oƛ	-2914
▁rʕ	-2915
▁te	-2916
▁ħa	-2917
▁ƛa	-2918
▁ʕI	-2919
acet	-2920
alno	-2921
anaʕ	-2922
araƛ	-2923
awnä	-2924
axum	-2925
azan	-2926
ažar	-2927
edix	-2928
enek	-2929
enno	-2930
ersi	-2931
ełsi	-2932
iqay	-2933
iqno	-2934
iqoy	-2935
irus	-2936
irza	-2937
iyan	-2938
iƛer	-2939
mild	-2940
nkin	-2941
olow	-2942
räsi	-2943
rƛin	-2944
ucin	-2945
uder	-2946
ugon	-2947
uqno	-2948
urqʕ	-2949
äynč	-2950
äłru	-2951
ħmat	-2952
ʕuri	-2953
ʕutk	-2954
▁Ayn	-2955
▁Bay	-2956
▁Buq	-2957
▁Ciq	-2958
▁Esi	-2959
▁Hor	-2960
▁Mek	-2961
▁Nay	-2962
▁Rič	-2963
▁Way	-2964
▁Yoƛ	-2965
▁ahl	-2966
▁akä	-2967
▁aqʕ	-2968
▁ays	-2969
▁ayƛ	-2970
▁aɣä	-2971
▁box	-2972
▁bäz	-2973
▁ced	-2974
▁dur	-2975
▁ečr	-2976
▁kod	-2977
▁käc	-2978
▁mat	-2979
▁nak	-2980
▁ocä	-2981
▁own	-2982
▁peč	-2983
▁qid	-2984
▁rak	-2985
▁raɣ	-2986
▁ruz	-2987
▁räq	-2988
▁sik	-2989
▁täq	-2990
▁ust	-2991
▁wey	-2992
▁xäc	-2993
▁yeč	-2994
▁yox	-2995
▁ħol	-2996
▁ħoʕ	-2997
▁ħul	-2998
▁Łäs	-2999
▁łas	-3000
▁šom	-3001
▁Žek	-3002
▁žaƛ	-3003
▁žop	-3004
▁ƛis	-3005
alłiƛ	-3006
axayn	-3007
axrun	-3008
aymoƛ	-3009
ikays	-3010
iräsi	-3011
ixyoł	-3012
noanu	-3013
oqʕoy	-3014
oxinč	-3015
oxłin	-3016
udani	-3017
urinč	-3018
urnäy	-3019
urtow	-3020
uɣwey	-3021
xaɣor	-3022
xoƛax	-3023
zoxor	-3024
äygon	-3025
äytow	-3026
äłinč	-3027
ʕiłno	-3028
ʕuyza	-3029
▁Aluk	-3030
▁Best	-3031
▁Debi	-3032
▁Goqi	-3033
▁Izin	-3034
▁Okun	-3035
▁Qʕaš	-3036
▁Qʕiš	-3037
▁Xalq	-3038
▁Ziru	-3039
▁akik	-3040
▁akił	-3041
▁amru	-3042
▁ašun	-3043
▁ašuƛ	-3044
▁aɣbi	-3045
▁aɣin	-3046
▁bodo	-3047
▁ceyn	-3048
▁ciqa	-3049
▁elar	-3050
▁elin	-3051
▁eliz	-3052
▁eluƛ	-3053
▁ežen	-3054
▁ganƛ	-3055
▁igin	-3056
▁iynč	-3057
▁iħux	-3058
▁kosi	-3059
▁maħl	-3060
▁moƛa	-3061
▁muhu	-3062
▁nuci	-3063
▁qʕay	-3064
▁qʕiš	-3065
▁radi	-3066
▁risa	-3067
▁riso	-3068
▁riya	-3069
▁rodo	-3070
▁royx	-3071
▁räči	-3072
▁urgu	-3073
▁užis	-3074
▁xeca	-3075
▁yiza	-3076
▁yižo	-3077
▁yowx	-3078
▁yołä	-3079
▁yuyn	-3080
▁ħala	-3081
▁ħalk	-3082
▁ħobo	-3083
▁ħoyä	-3084
▁žade	-3085
▁ɣuro	-3086
▁ɣʕay	-3087
acekin	-3088
anaƛin	-3089
aniqor	-3090
anyabi	-3091
ebedes	-3092
erbaqi	-3093
ełxosi	-3094
idäɣor	-3095
irerno	-3096
irirno	-3097
odoraw	-3098
oxnosi	-3099
uläɣor	-3100
yołxor	-3101
ʕanoqu	-3102
ʕidayn	-3103
ʕimaku	-3104
▁Aħmad	-3105
▁Baxum	-3106
▁Bežet	-3107
▁Bisno	-3108
▁Elayn	-3109
▁Elozo	-3110
▁Eženä	-3111
▁Goqix	-3112
▁Hawaƛ	-3113
▁Igtow	-3114
▁Mirza	-3115
▁Nagaħ	-3116
▁Nediw	-3117
▁Nesiq	-3118
▁Nesiz	-3119
▁Nełar	-3120
▁Sadaq	-3121
▁Sasił	-3122
▁Walla	-3123
▁Xaner	-3124
▁aɣzas	-3125
▁barus	-3126
▁baynč	-3127
▁begin	-3128
▁bexux	-3129
▁butix	-3130
▁ceyes	-3131
▁dalay	-3132
▁dawla	-3133
▁elayn	-3134
▁exura	-3135
▁eƛäsi	-3136
▁heqno	-3137
▁hisno	-3138
▁izäsi	-3139
▁lamus	-3140
▁maħin	-3141
▁mešin	-3142
▁mitow	-3143
▁muhum	-3144
▁naɣor	-3145
▁neƛan	-3146
▁neƛsi	-3147
▁näƛru	-3148
▁onoča	-3149
▁puħor	-3150
▁qʕaba	-3151
▁qʕiči	-3152
▁raynč	-3153
▁rekan	-3154
▁resux	-3155
▁reyno	-3156
▁rezun	-3157
▁reƛił	-3158
▁ricin	-3159
▁riqir	-3160
▁riłen	-3161
▁roƛix	-3162
▁sabaw	-3163
▁salam	-3164
▁sanaʕ	-3165
▁xedya	-3166
▁yayru	-3167
▁yetin	-3168
▁yetix	-3169
▁yicin	-3170
▁zirur	-3171
▁äƛiza	-3172
▁čanta	-3173
▁ħošos	-3174
▁łukin	-3175
▁Žedur	-3176
▁žaqay	-3177
▁žedas	-3178
▁ɣudbi	-3179
▁ɣutan	-3180
▁ʕAƛos	-3181
▁ʕagar	-3182
▁ʕaƛno	-3183
▁ʕaƛoł	-3184
▁ʕenek	-3185
Bahadur	-3186
aniƛäyn	-3187
axrudin	-3188
ixanusi	-3189
orolayn	-3190
ʕunader	-3191
▁Aždaħä	-3192
▁Babiwn	-3193
▁Doxtur	-3194
▁Elaɣor	-3195
▁Esnabi	-3196
▁Howžin	-3197
▁Idurno	-3198
▁Tełxor	-3199
▁akixor	-3200
▁babiws	-3201
▁baqinč	-3202
▁bayäru	-3203
▁bexura	-3204
▁beɣeni	-3205
▁bigtow	-3206
▁butnoƛ	-3207
▁bäsuru	-3208
▁dibirä	-3209
▁dowder	-3210
▁därƛin	-3211
▁eliƛin	-3212
▁elułäy	-3213
▁eniyan	-3214
▁esiwde	-3215
▁eynoda	-3216
▁ezuzaƛ	-3217
▁eƛizaƛ	-3218
▁gulude	-3219
▁guluza	-3220
▁kesubi	-3221
▁kokoru	-3222
▁maqʕiƛ	-3223
▁mužmar	-3224
▁neƛinč	-3225
▁oqäƛin	-3226
▁puräza	-3227
▁raqƛin	-3228
▁rayäru	-3229
▁retinč	-3230
▁riqinč	-3231
▁ričäsi	-3232
▁roqnäy	-3233
▁ruzman	-3234
▁räsuru	-3235
▁sayɣat	-3236
▁sidade	-3237
▁simild	-3238
▁tamaša	-3239
▁teƛinč	-3240
▁užibin	-3241
▁užiƛin	-3242
▁xedyoq	-3243
▁xexoyä	-3244
▁yacʕal	-3245
▁yigtow	-3246
▁yizide	-3247
▁yoqinč	-3248
▁yoqƛin	-3249
▁yuqʕno	-3250
▁zaħmat	-3251
▁zowali	-3252
▁zowrno	-3253
▁äsirus	-3254
▁ħišäsi	-3255
▁ħukmat	-3256
▁Łʕonon	-3257
▁łiyzaƛ	-3258
▁šebigo	-3259
▁šilabi	-3260
▁žopono	-3261
▁ɣwʕadi	-3262
▁ɣʕwayn	-3263
▁ɣʕways	-3264
▁ʕabasi	-3265
▁ʕiyada	-3266
▁ʕomoyn	-3267
bahadurä	-3268
wʕaɣʕƛin	-3269
▁Allahqo	-3270
▁Dicegon	-3271
▁Hunixor	-3272
▁Mamalay	-3273
▁Muħamad	-3274
▁Nełagon	-3275
▁Qartayä	-3276
▁Salamno	-3277
▁Tawadiƛ	-3278
▁aɣʕuxor	-3279
▁babiwde	-3280
▁badiƛin	-3281
▁barubin	-3282
▁baruqor	-3283
▁bayxosi	-3284
▁bazarya	-3285
▁bexarno	-3286
▁bisnosi	-3287
▁bizizaq	-3288
▁bičiƛin	-3289
▁bišerno	-3290
▁boržizi	-3291
▁bukarno	-3292
▁durimoƛ	-3293
▁egirinč	-3294
▁esanƛin	-3295
▁esnazas	-3296
▁exunosi	-3297
▁ezunosi	-3298
▁halmaɣä	-3299
▁henešno	-3300
▁hunixor	-3301
▁kedonno	-3302
▁keroqor	-3303
▁kuranix	-3304
▁kurnosi	-3305
▁madaħor	-3306
▁muʕalim	-3307
▁necetow	-3308
▁netikin	-3309
▁neƛxosi	-3310
▁raynosi	-3311
▁raładno	-3312
▁riyxanu	-3313
▁roƛxosi	-3314
▁rukarno	-3315
▁sosikin	-3316
▁wallahi	-3317
▁yeduƛin	-3318
▁yesuzaƛ	-3319
▁yexorił	-3320
▁yutizaƛ	-3321
▁Ħumukul	-3322
▁šidaƛin	-3323
▁šiqʕono	-3324
▁ɣoɣorik	-3325
▁ɣunoqay	-3326
▁ɣʕutkoz	-3327
▁ʕabasin	-3328
eynodaniƛ	-3329
ixyołiƛin	-3330
▁Naysinan	-3331
▁adäzarno	-3332
▁bodanƛin	-3333
▁bäqiruni	-3334
▁dahawtow	-3335
▁debertow	-3336
▁halmaɣbi	-3337
▁kidbabin	-3338
▁kidbełäy	-3339
▁kumakyoƛ	-3340
▁mečołxor	-3341
▁meɣyoqor	-3342
▁miskinaw	-3343
▁narnokin	-3344
▁nesiqayn	-3345
▁ozurabin	-3346
▁raʕalłix	-3347
▁regirinč	-3348
▁roqsiƛin	-3349
▁sidaɣaza	-3350
▁waħazoni	-3351
▁xabaryoƛ	-3352
▁xexoybin	-3353
▁yołalini	-3354
▁yukayrun	-3355
▁łarnokin	-3356
▁šaharyar	-3357
▁šebinabi	-3358
▁ɣʕanazar	-3359
▁ʕenekizi	-3360
▁ʕomoybin	-3361
▁Howlaytow	-3362
▁Ismaʕiles	-3363
▁bercinawt	-3364
▁besurozaƛ	-3365
▁bexuranix	-3366
▁didiwnkin	-3367
▁halmaɣbin	-3368
▁halmaɣłin	-3369
▁hemełatow	-3370
▁howlortow	-3371
▁micxiryos	-3372
▁miskinłiƛ	-3373
▁nesiqorno	-3374
▁qʕaƛanada	-3375
▁sasiłnosi	-3376
▁sidenigon	-3377
▁yaqʕułgon	-3378
▁yegirxanu	-3379
▁ħumukulin	-3380
▁łʕonontow	-3381
▁Ražbadinno	-3382
▁babiwderno	-3383
▁mesedyosno	-3384
▁yegiranƛin	-3385
▁Ražbadinqor	-3386
..	-3387
ci	-3388
lk	-3389
mo	-3390
ož	-3391
Ža	-3392
?”,	-3393
?”.	-3394
anq	-3395
arƛ	-3396
aža	-3397
beg	-3398
ede	-3399
eyx	-3400
gix	-3401
hay	-3402
icu	-3403
inq	-3404
iwt	-3405
iħo	-3406
išq	-3407
mor	-3408
mox	-3409
nan	-3410
orä	-3411
quł	-3412
saq	-3413
taħ	-3414
uda	-3415
ump	-3416
umä	-3417
uƛi	-3418
xot	-3419
zak	-3420
zoq	-3421
zoƛ	-3422
äyr	-3423
ħor	-3424
šaw	-3425
ʕog	-3426
ʕub	-3427
ʕur	-3428
ʕwa	-3429
▁Ak	-3430
▁An	-3431
▁Aq	-3432
▁Az	-3433
▁Dä	-3434
▁Ex	-3435
▁Eč	-3436
▁Eƛ	-3437
▁Ha	-3438
▁Oč	-3439
▁Uk	-3440
▁mo	-3441
▁pu	-3442
▁Łi	-3443
acen	-3444
adał	-3445
aguy	-3446
alah	-3447
anan	-3448
arbi	-3449
ayat	-3450
ayib	-3451
azab	-3452
azaħ	-3453
aħar	-3454
ałin	-3455
ałno	-3456
ašiƛ	-3457
begä	-3458
ecen	-3459
ekzo	-3460
exno	-3461
ečed	-3462
gani	-3463
giru	-3464
ibli	-3465
idaƛ	-3466
idox	-3467
imoq	-3468
imos	-3469
iszi	-3470
izad	-3471
izax	-3472
izir	-3473
ičur	-3474
iłir	-3475
iƛäy	-3476
mƛin	-3477
nayn	-3478
noni	-3479
nsan	-3480
osno	-3481
oxxo	-3482
ozas	-3483
ozis	-3484
ozox	-3485
ołno	-3486
oƛƛo	-3487
sini	-3488
udes	-3489
ulam	-3490
ulaʕ	-3491
uqin	-3492
urox	-3493
ursi	-3494
ušyo	-3495
xoza	-3496
yayx	-3497
yode	-3498
ärun	-3499
äsit	-3500
ħizi	-3501
ʕoni	-3502
▁Bet	-3503
▁Cim	-3504
▁Ela	-3505
▁Eli	-3506
▁Hay	-3507
▁Miƛ	-3508
▁Naz	-3509
▁Rok	-3510
▁Sir	-3511
▁Tun	-3512
▁Zow	-3513
▁aki	-3514
▁azb	-3515
▁aħi	-3516
▁aħy	-3517
▁ažo	-3518
▁bał	-3519
▁beg	-3520
▁beš	-3521
▁bäx	-3522
▁deq	-3523
▁gel	-3524
▁gib	-3525
▁haw	-3526
▁hoz	-3527
▁isi	-3528
▁iyo	-3529
▁iyx	-3530
▁iči	-3531
▁iħä	-3532
▁kob	-3533
▁kot	-3534
▁kuc	-3535
▁kuč	-3536
▁may	-3537
▁meq	-3538
▁muɣ	-3539
▁naʕ	-3540
▁näx	-3541
▁oxi	-3542
▁pay	-3543
▁ros	-3544
▁rož	-3545
▁ruy	-3546
▁räš	-3547
▁räƛ	-3548
▁sip	-3549
▁suħ	-3550
▁ulk	-3551
▁unt	-3552
▁yec	-3553
▁yeg	-3554
▁yät	-3555
▁yäč	-3556
▁zeb	-3557
▁zur	-3558
▁äru	-3559
▁äsu	-3560
▁łaq	-3561
▁łek	-3562
▁łuq	-3563
▁Šet	-3564
▁šem	-3565
▁Žed	-3566
▁Žin	-3567
▁Žäd	-3568
▁žin	-3569
▁ʕar	-3570
▁ʕuƛ	-3571
atyoƛ	-3572
cetow	-3573
erłin	-3574
eyƛin	-3575
hayaw	-3576
isdis	-3577
iwtow	-3578
ixƛax	-3579
iłinč	-3580
iłiri	-3581
lałäy	-3582
maɣor	-3583
oxäsi	-3584
salam	-3585
taħiq	-3586
ukyoƛ	-3587
urƛin	-3588
uxosi	-3589
wadma	-3590
ynanu	-3591
yołer	-3592
yxosi	-3593
zaɣor	-3594
äƛiru	-3595
łiƛin	-3596
ʕanix	-3597
ʕaraw	-3598
ʕiday	-3599
ʕimbi	-3600
ʕimes	-3601
ʕiłxo	-3602
ʕunän	-3603
▁Acno	-3604
▁Amma	-3605
▁Dand	-3606
▁Habi	-3607
▁Horo	-3608
▁Išno	-3609
▁Meža	-3610
▁Meži	-3611
▁Nece	-3612
▁Roda	-3613
▁adäy	-3614
▁akin	-3615
▁akäz	-3616
▁aqno	-3617
▁araq	-3618
▁asno	-3619
▁aħna	-3620
▁ažom	-3621
▁aƛin	-3622
▁baba	-3623
▁bays	-3624
▁baɣʕ	-3625
▁beqa	-3626
▁boɣƛ	-3627
▁bäsu	-3628
▁cudi	-3629
▁egär	-3630
▁eluł	-3631
▁ensi	-3632
▁enła	-3633
▁eqro	-3634
▁ersi	-3635
▁esus	-3636
▁exuƛ	-3637
▁ezur	-3638
▁eƛuk	-3639
▁gula	-3640
▁hunä	-3641
▁idun	-3642
▁iswa	-3643
▁iyon	-3644
▁iziƛ	-3645
▁iħäy	-3646
▁ižix	-3647
▁kero	-3648
▁kesu	-3649
▁kikƛ	-3650
▁kodi	-3651
▁kura	-3652
▁kwar	-3653
▁laga	-3654
▁marɣ	-3655
▁maxs	-3656
▁meɣu	-3657
▁miyä	-3658
▁mump	-3659
▁nełd	-3660
▁obiy	-3661
▁oqsi	-3662
▁ozno	-3663
▁ozäy	-3664
▁qart	-3665
▁qoqƛ	-3666
▁quqa	-3667
▁qʕod	-3668
▁raɣʕ	-3669
▁roqa	-3670
▁roys	-3671
▁roƛa	-3672
▁roɣa	-3673
▁räti	-3674
▁rʕaƛ	-3675
▁taxƛ	-3676
▁teƛƛ	-3677
▁užix	-3678
▁užił	-3679
▁užän	-3680
▁waħo	-3681
▁xiza	-3682
▁yagi	-3683
▁yayr	-3684
▁yezu	-3685
▁yeɣe	-3686
▁yoqa	-3687
▁yäsu	-3688
▁zowä	-3689
▁Ħonƛ	-3690
▁ħinq	-3691
▁łemu	-3692
▁łiyä	-3693
▁łʕeb	-3694
▁łʕor	-3695
▁žežu	-3696
▁žirb	-3697
▁ɣanq	-3698
▁ʕaža	-3699
▁ʕede	-3700
▁ʕišq	-3701
abulaw	-3702
aguyaw	-3703
akanno	-3704
arabaš	-3705
arawni	-3706
axorno	-3707
aɣorno	-3708
ebedzo	-3709
erhanä	-3710
ełnosi	-3711
ełxanu	-3712
ešonad	-3713
iblisä	-3714
imabin	-3715
imatno	-3716
irduxä	-3717
irnosi	-3718
iräzay	-3719
kumƛin	-3720
oderno	-3721
orolaq	-3722
towgon	-3723
xozoni	-3724
žisƛin	-3725
ʕimbin	-3726
ʕiryoł	-3727
ʕuyzix	-3728
▁Azbar	-3729
▁Baħar	-3730
▁Bečed	-3731
▁Dahaw	-3732
▁Eniwn	-3733
▁Guluƛ	-3734
▁Howlo	-3735
▁Howža	-3736
▁Kaɣat	-3737
▁Kutak	-3738
▁Madax	-3739
▁Magal	-3740
▁Nazay	-3741
▁Nesän	-3742
▁Nełde	-3743
▁Qacis	-3744
▁Xexbi	-3745
▁Xizay	-3746
▁Xizor	-3747
▁Yisis	-3748
▁Yisił	-3749
▁Yisän	-3750
▁Yizir	-3751
▁Zownč	-3752
▁akäza	-3753
▁askar	-3754
▁axway	-3755
▁aynäy	-3756
▁ašunä	-3757
▁aɣʕuz	-3758
▁aɣʕwa	-3759
▁badin	-3760
▁balah	-3761
▁barur	-3762
▁baruz	-3763
▁baruƛ	-3764
▁bayza	-3765
▁bašan	-3766
▁bašił	-3767
▁bažar	-3768
▁baƛin	-3769
▁besux	-3770
▁betix	-3771
▁bexar	-3772
▁beyno	-3773
▁bissi	-3774
▁bišom	-3775
▁bodan	-3776
▁boƛƛo	-3777
▁bucin	-3778
▁buqin	-3779
▁bäsno	-3780
▁caxno	-3781
▁ceyez	-3782
▁ciqes	-3783
▁ciqez	-3784
▁darsi	-3785
▁daruy	-3786
▁däzno	-3787
▁elude	-3788
▁endur	-3789
▁eniws	-3790
▁eräsi	-3791
▁esira	-3792
▁exasi	-3793
▁eƛace	-3794
▁ganbi	-3795
▁ganin	-3796
▁gugir	-3797
▁haqar	-3798
▁igoza	-3799
▁iłäsi	-3800
▁kawum	-3801
▁kikin	-3802
▁kodin	-3803
▁kosix	-3804
▁kursi	-3805
▁lagiq	-3806
▁laɣes	-3807
▁mamal	-3808
▁mecno	-3809
▁mežiz	-3810
▁mežiƛ	-3811
▁mežuƛ	-3812
▁mučar	-3813
▁nagon	-3814
▁nexan	-3815
▁nexsi	-3816
▁nełan	-3817
▁neƛno	-3818
▁nociƛ	-3819
▁odäsi	-3820
▁oqłin	-3821
▁oqƛin	-3822
▁orezn	-3823
▁ozzar	-3824
▁ozzat	-3825
▁qeman	-3826
▁quqix	-3827
▁qułno	-3828
▁qʕayz	-3829
▁rayru	-3830
▁resus	-3831
▁rexor	-3832
▁reƛis	-3833
▁reɣet	-3834
▁rigza	-3835
▁rišin	-3836
▁roqxo	-3837
▁roƛno	-3838
▁roɣxo	-3839
▁rutir	-3840
▁sabru	-3841
▁saħno	-3842
▁tatan	-3843
▁tupiƛ	-3844
▁xanno	-3845
▁xiszi	-3846
▁xuxix	-3847
▁yaqru	-3848
▁yaħna	-3849
▁yegär	-3850
▁yiħun	-3851
▁yoqxo	-3852
▁yukar	-3853
▁yuqin	-3854
▁zahru	-3855
▁ziruz	-3856
▁äčiru	-3857
▁ħaram	-3858
▁ħažin	-3859
▁Łinaƛ	-3860
▁łiłir	-3861
▁łäxor	-3862
▁Šibaw	-3863
▁šakno	-3864
▁Žedun	-3865
▁žedaq	-3866
▁žedał	-3867
▁ƛaƛin	-3868
▁ƛexux	-3869
▁ƛisin	-3870
▁ƛoħon	-3871
▁ƛʕori	-3872
▁ɣeduƛ	-3873
▁ɣirno	-3874
▁ɣunno	-3875
▁ɣʕays	-3876
▁ʕAƛar	-3877
▁ʕalay	-3878
▁ʕansa	-3879
▁ʕayib	-3880
▁ʕazab	-3881
▁ʕaƛor	-3882
aranƛin	-3883
aħiruni	-3884
erbašiƛ	-3885
irduxno	-3886
oräytow	-3887
ursiƛin	-3888
wariłin	-3889
xanaƛin	-3890
xosiƛin	-3891
yaɣorno	-3892
▁Bełiqa	-3893
▁Buqbet	-3894
▁Howlay	-3895
▁Nediwt	-3896
▁Siskin	-3897
▁Umukus	-3898
▁Xander	-3899
▁Xedyos	-3900
▁Yeženä	-3901
▁aynƛin	-3902
▁aysƛin	-3903
▁ayäƛin	-3904
▁azirod	-3905
▁aħnayx	-3906
▁aħozis	-3907
▁aħoziz	-3908
▁aħołun	-3909
▁babiwƛ	-3910
▁bayrsi	-3911
▁baɣmar	-3912
▁beženi	-3913
▁bicäsi	-3914
▁bikorä	-3915
▁bisäsi	-3916
▁bodinč	-3917
▁bogmor	-3918
▁boƛƛik	-3919
▁buqʕno	-3920
▁bužzin	-3921
▁bäsunč	-3922
▁bʕulam	-3923
▁cirabi	-3924
▁daʕban	-3925
▁deqƛin	-3926
▁däztow	-3927
▁elazay	-3928
▁eleley	-3929
▁elogon	-3930
▁elorno	-3931
▁elotow	-3932
▁eženis	-3933
▁eƛäƛin	-3934
▁hisona	-3935
▁idutow	-3936
▁istowl	-3937
▁izizaƛ	-3938
▁ičanix	-3939
▁ičirno	-3940
▁ičiƛin	-3941
▁iħubin	-3942
▁kidbän	-3943
▁kikxar	-3944
▁kikxay	-3945
▁kočori	-3946
▁kuräsi	-3947
▁maqʕir	-3948
▁masala	-3949
▁muhubi	-3950
▁mučari	-3951
▁nedurä	-3952
▁netiey	-3953
▁nexłin	-3954
▁nełłäy	-3955
▁oqanix	-3956
▁qalamä	-3957
▁qʕaban	-3958
▁qʕaƛun	-3959
▁qʕiƛci	-3960
▁qʕiƛur	-3961
▁rayrxo	-3962
▁rayzaƛ	-3963
▁raɣʕin	-3964
▁riqira	-3965
▁riłäsi	-3966
▁royłin	-3967
▁räqinč	-3968
▁rätinč	-3969
▁saɣłin	-3970
▁saɣłiƛ	-3971
▁sidadä	-3972
▁sisini	-3973
▁suħmat	-3974
▁tełäyn	-3975
▁ukaynč	-3976
▁utizaƛ	-3977
▁wazirä	-3978
▁xecäsi	-3979
▁xedyoz	-3980
▁yayrun	-3981
▁yałrun	-3982
▁yexasi	-3983
▁yexura	-3984
▁yižinč	-3985
▁yowäsi	-3986
▁yuyxor	-3987
▁zeybin	-3988
▁zigara	-3989
▁äxuƛin	-3990
▁Ħasanä	-3991
▁Ħayran	-3992
▁Łʕoran	-3993
▁łiyace	-3994
▁łäłxor	-3995
▁šudabi	-3996
▁žanaza	-3997
▁žukani	-3998
▁ʕaƛasi	-3999
▁ʕaƛoza	-4000
▁ʕoƛira	-4001
odorawni	-4002
urqʕotow	-4003
äłrungon	-4004
▁Allahes	-4005
▁Bełiqan	-4006
▁Doxturä	-4007
▁Nesiqor	-4008
▁Neširur	-4009
▁Rigutow	-4010
▁Sasaqor	-4011
▁Tabanaw	-4012
▁Tawadir	-4013
▁Tawadis	-4014
▁Tełerno	-4015
▁Tiblisä	-4016
▁Yedugon	-4017
▁Zowsƛin	-4018
▁azbarno	-4019
▁aħyabin	-4020
▁aždaħzo	-4021
▁babiyan	-4022
▁bahadur	-4023
▁baydanƛ	-4024
▁baħaraw	-4025
▁baħnayx	-4026
▁besuron	-4027
▁bexuran	-4028
▁bexurxo	-4029
▁bihayaw	-4030
▁biynosi	-4031
▁bišanix	-4032
▁bižoƛin	-4033
▁biƛurox	-4034
▁bodinäy	-4035
▁boqanix	-4036
▁boynosi	-4037
▁boyxƛin	-4038
▁boɣoƛin	-4039
▁bäqiƛin	-4040
▁bäčiƛin	-4041
▁bʕaƛoyn	-4042
▁cirabin	-4043
▁egirnäy	-4044
▁eniwqay	-4045
▁eqroƛin	-4046
▁eƛisƛin	-4047
▁eƛiłiri	-4048
▁eƛnoqor	-4049
▁gamušyo	-4050
▁guluzaƛ	-4051
▁gurħizi	-4052
▁harizin	-4053
▁hunarno	-4054
▁iduzasi	-4055
▁imyoqor	-4056
▁insanzo	-4057
▁ičinosi	-4058
▁ižixƛin	-4059
▁kecnosi	-4060
▁kočorał	-4061
▁madazax	-4062
▁naʕanan	-4063
▁nesiłno	-4064
▁nełaqor	-4065
▁oqsiƛin	-4066
▁ozurabi	-4067
▁qʕabani	-4068
▁radiƛin	-4069
▁raganix	-4070
▁raqʕäsi	-4071
▁resuzaƛ	-4072
▁rešambi	-4073
▁riqäƛin	-4074
▁riynoxu	-4075
▁riłetow	-4076
▁rodinäy	-4077
▁roxirno	-4078
▁roɣnosi	-4079
▁rułirno	-4080
▁räsuƛin	-4081
▁räčiƛin	-4082
▁sadaqor	-4083
▁sidaɣor	-4084
▁sideniƛ	-4085
▁teƛxosi	-4086
▁täƛruni	-4087
▁ukayzaƛ	-4088
▁wasiyat	-4089
▁xaličan	-4090
▁xecäƛin	-4091
▁xizorno	-4092
▁yayxƛin	-4093
▁yezanix	-4094
▁yičirno	-4095
▁yičiƛin	-4096
▁yižanix	-4097
▁yowanix	-4098
▁ħolimoƛ	-4099
▁łinarey	-4100
▁łinarno	-4101
▁łʕonoqu	-4102
▁Šebitow	-4103
▁Žabulaw	-4104
▁žeduqay	-4105
▁žeduƛin	-4106
▁žiƛbosi	-4107
▁ƛirbałi	-4108
▁ƛäxuƛin	-4109
▁ɣarabaš	-4110
▁ɣunoqor	-4111
▁ɣʕutkos	-4112
▁ɣʕutkoƛ	-4113
▁ʕOloqan	-4114
▁ʕaƛarno	-4115
▁ʕomoybi	-4116
▁Eɣenigon	-4117
▁Hoboygon	-4118
▁Ismaʕila	-4119
▁Mesedyos	-4120
▁Qʕašizaƛ	-4121
▁Sasaqtow	-4122
▁aqruntow	-4123
▁babiwder	-4124
▁bazaryay	-4125
▁baɣmoxor	-4126
▁begirinč	-4127
▁begirƛin	-4128
▁bercinłä	-4129
▁betinƛin	-4130
▁bexunosi	-4131
▁bičixosi	-4132
▁biħanayn	-4133
▁bišadyos	-4134
▁bišadyoƛ	-4135
▁bukayrun	-4136
▁bukayzaƛ	-4137
▁buqʕełno	-4138
▁butinosi	-4139
▁ciqqotow	-4140
▁dahawgon	-4141
▁egiranix	-4142
▁halmaɣza	-4143
▁hoboyƛin	-4144
▁magalabi	-4145
▁mamalayä	-4146
▁moƛaxayn	-4147
▁mumpaʕat	-4148
▁mustaħiq	-4149
▁nesisgon	-4150
▁nełasgon	-4151
▁nełdäɣor	-4152
▁neƛxoƛin	-4153
▁nukarbin	-4154
▁oqäsiƛin	-4155
▁qunyoxor	-4156
▁qʕaširno	-4157
▁regirƛin	-4158
▁retinanu	-4159
▁roqxoƛin	-4160
▁sayɣatno	-4161
▁suƛƛitow	-4162
▁ukayxanu	-4163
▁wazirbin	-4164
▁waħozoni	-4165
▁wʕałzoni	-4166
▁xabarkin	-4167
▁xanderno	-4168
▁xexoyabi	-4169
▁yałruxor	-4170
▁yegirinč	-4171
▁yiħinosi	-4172
▁yiłzaqay	-4173
▁yižixosi	-4174
▁yowanƛin	-4175
▁yutinosi	-4176
▁čantaɣor	-4177
▁ħonqaɣor	-4178
▁łaqnokin	-4179
▁ƛexunƛin	-4180
▁ɣʕanazaq	-4181
▁ʕoloqbin	-4182
▁Baxumesed	-4183
▁Bazarganä	-4184
▁Bečedawni	-4185
▁Nesiqorno	-4186
▁Neširaɣor	-4187
▁aynosigon	-4188
▁bayaniqor	-4189
▁bayruntow	-4190
▁bercinłiƛ	-4191
▁bukarnosi	-4192
▁butirnosi	-4193
▁ciqaɣorno	-4194
▁esixosini	-4195
▁hemesitow	-4196
▁howlaytow	-4197
▁marɣalyos	-4198
▁micxiryoƛ	-4199
▁mogolarno	-4200
▁nesidäɣor	-4201
▁qalamäɣor	-4202
▁qʕaƛanayx	-4203
▁rodaniƛäy	-4204
▁rukaranix	-4205
▁rukarerno	-4206
▁rukaysƛin	-4207
▁tełxorkin	-4208
▁täqruntow	-4209
▁wasimoxor	-4210
▁xaličabin	-4211
▁ħurmatyox	-4212
▁žamaʕatyo	-4213
▁Hudayzikon	-4214
▁Ražbadinzo	-4215
▁babiwdäɣor	-4216
▁bazaryarno	-4217
▁bičixozoni	-4218
▁kidbederno	-4219
▁lilyoxaɣor	-4220
▁madaxosini	-4221
▁neširuxayt	-4222
▁raładyołer	-4223
▁reqenyołäy	-4224
▁roqxanuƛin	-4225
▁wazirzaqor	-4226
▁yegirxoƛin	-4227
▁yeynodaniƛ	-4228
▁łinasnokin	-4229
▁bazarganzar	-4230
▁kumakyorgon	-4231
▁nesidäɣorno	-4232
▁ʕalaykumƛin	-4233
▁Hudayzikogon	-4234
▁bexuranixƛin	-4235
ep	-4236
mʕ	-4237
uw	-4238
už	-4239
wd	-4240
ät	-4241
äš	-4242
ħo	-4243
łu	-4244
ɣw	-4245
ank	-4246
anz	-4247
awt	-4248
azo	-4249
bul	-4250
cel	-4251
cen	-4252
dax	-4253
den	-4254
des	-4255
dow	-4256
eyä	-4257
ezi	-4258
goł	-4259
gza	-4260
iki	-4261
ixt	-4262
law	-4263
may	-4264
noč	-4265
olž	-4266
omo	-4267
ort	-4268
oys	-4269
ozä	-4270
oƛa	-4271
rac	-4272
ral	-4273
rax	-4274
rer	-4275
rin	-4276
rur	-4277
ulh	-4278
uma	-4279
uħi	-4280
ułi	-4281
uɣʕ	-4282
xol	-4283
xoz	-4284
yas	-4285
yaw	-4286
yax	-4287
zon	-4288
zäy	-4289
łno	-4290
žit	-4291
žär	-4292
ƛix	-4293
ɣuł	-4294
ʕač	-4295
ʕes	-4296
ʕiw	-4297
ʕon	-4298
ʕot	-4299
čo	-4300
uła	-4301
▁Ar	-4302
▁Ax	-4303
▁Ay	-4304
▁Ez	-4305
▁Hi	-4306
▁Iq	-4307
▁Iz	-4308
▁Iħ	-4309
▁Ił	-4310
▁Mu	-4311
▁Na	-4312
▁Os	-4313
▁eg	-4314
▁ek	-4315
▁ha	-4316
▁ic	-4317
▁os	-4318
▁ow	-4319
▁we	-4320
▁äz	-4321
▁ša	-4322
▁ƛe	-4323
abaɣ	-4324
adaw	-4325
agun	-4326
amiƛ	-4327
aniq	-4328
anił	-4329
araš	-4330
arsi	-4331
arya	-4332
asiw	-4333
axar	-4334
axno	-4335
aziq	-4336
aħłi	-4337
aƛix	-4338
dizi	-4339
dowr	-4340
ebey	-4341
ebix	-4342
ecno	-4343
egon	-4344
ekan	-4345
eliz	-4346
etin	-4347
ełxo	-4348
idoƛ	-4349
idzo	-4350
ikru	-4351
ilim	-4352
ilya	-4353
imix	-4354
imon	-4355
inor	-4356
iqur	-4357
iray	-4358
irač	-4359
ired	-4360
irer	-4361
ireł	-4362
iris	-4363
irłi	-4364
iwan	-4365
iwsi	-4366
izan	-4367
izar	-4368
izas	-4369
labi	-4370
obin	-4371
odek	-4372
omce	-4373
oqay	-4374
oreƛ	-4375
ozaq	-4376
ozon	-4377
ozya	-4378
oƛik	-4379
oƛis	-4380
oƛno	-4381
qiru	-4382
quno	-4383
rebi	-4384
udin	-4385
udäy	-4386
ulza	-4387
umin	-4388
unon	-4389
uqay	-4390
urbi	-4391
uros	-4392
uxor	-4393
uyał	-4394
uzas	-4395
uzay	-4396
ułin	-4397
wdun	-4398
xort	-4399
exoy	-4400
eyxä	-4401
nada	-4402
yołi	-4403
ziri	-4404
ʕimł	-4405
▁Bec	-4406
▁Bit	-4407
▁Dow	-4408
▁Däq	-4409
▁Goƛ	-4410
▁His	-4411
▁Keč	-4412
▁Kur	-4413
▁Mam	-4414
▁Meč	-4415
▁Nar	-4416
▁Ram	-4417
▁Raq	-4418
▁Reč	-4419
▁Ruy	-4420
▁Yex	-4421
▁Yik	-4422
▁alž	-4423
▁ann	-4424
▁aħa	-4425
▁bud	-4426
▁buɣ	-4427
▁bäc	-4428
▁cug	-4429
▁daƛ	-4430
▁ezä	-4431
▁eƛi	-4432
▁gag	-4433
▁gir	-4434
▁gič	-4435
▁gut	-4436
▁guz	-4437
▁guš	-4438
▁hik	-4439
▁hiɣ	-4440
▁hoh	-4441
▁hul	-4442
▁igu	-4443
▁ist	-4444
▁isƛ	-4445
▁iya	-4446
▁kak	-4447
▁kos	-4448
▁koy	-4449
▁käk	-4450
▁mag	-4451
▁mak	-4452
▁mał	-4453
▁met	-4454
▁nig	-4455
▁niʕ	-4456
▁oƛƛ	-4457
▁qal	-4458
▁qiƛ	-4459
▁qot	-4460
▁rax	-4461
▁reg	-4462
▁räx	-4463
▁sas	-4464
▁sir	-4465
▁wac	-4466
▁war	-4467
▁wil	-4468
▁xar	-4469
▁yad	-4470
▁yuƛ	-4471
▁yäz	-4472
▁zap	-4473
▁zek	-4474
▁zir	-4475
▁zul	-4476
▁äči	-4477
▁čer	-4478
▁čuč	-4479
▁Ħal	-4480
▁ħaħ	-4481
▁ħim	-4482
▁ħit	-4483
▁ħos	-4484
▁Łas	-4485
▁łaƛ	-4486
▁łic	-4487
▁łäz	-4488
▁šak	-4489
▁šeš	-4490
▁šäš	-4491
▁Žam	-4492
▁Žaq	-4493
▁Žar	-4494
▁Žaz	-4495
▁žad	-4496
▁žim	-4497
▁žäd	-4498
▁ƛeš	-4499
▁ata	-4500
▁ero	-4501
▁ɣal	-4502
▁ɣuɣ	-4503
▁ʕal	-4504
▁ʕam	-4505
▁ʕon	-4506
amałi	-4507
amxor	-4508
anayn	-4509
anibi	-4510
anzil	-4511
arbin	-4512
asini	-4513
asƛin	-4514
axtow	-4515
ayrno	-4516
ayxno	-4517
ayzał	-4518
ayzaƛ	-4519
ayłin	-4520
ačaɣʕ	-4521
ałxor	-4522
ałäyn	-4523
aɣorä	-4524
aɣʕir	-4525
butin	-4526
cekin	-4527
detow	-4528
ertow	-4529
estow	-4530
eytow	-4531
ełzaƛ	-4532
gotow	-4533
iqoyn	-4534
irinč	-4535
irisi	-4536
irułi	-4537
iryoz	-4538
isdin	-4539
isƛax	-4540
ixana	-4541
iłace	-4542
iłäsi	-4543
karno	-4544
kinwa	-4545
mʕalä	-4546
nonan	-4547
oqosi	-4548
oqtow	-4549
oxnon	-4550
oƛäyr	-4551
qilič	-4552
qoƛin	-4553
rerno	-4554
rošaw	-4555
towwa	-4556
ugabi	-4557
ulaʕi	-4558
unanu	-4559
unƛin	-4560
ułäsi	-4561
wariʕ	-4562
warno	-4563
wʕadi	-4564
xazay	-4565
xokin	-4566
yazay	-4567
yoxno	-4568
yozaz	-4569
yozał	-4570
zarno	-4571
zatow	-4572
ärinč	-4573
äzoni	-4574
ħorno	-4575
łanix	-4576
łäzay	-4577
šinaw	-4578
ƛinno	-4579
ɣaɣor	-4580
ʕimde	-4581
ʕimzo	-4582
ʕiƛin	-4583
ʕuƛin	-4584
▁Alay	-4585
▁Elaz	-4586
▁Elur	-4587
▁Gulu	-4588
▁Ixiw	-4589
▁Mada	-4590
▁Onoč	-4591
▁Ozur	-4592
▁Qura	-4593
▁Razi	-4594
▁Suƛi	-4595
▁Užin	-4596
▁aceł	-4597
▁akix	-4598
▁aqiw	-4599
▁Okä	-4600
arumä	-4601
ikayä	-4602
iyawt	-4603
omƛer	-4604
uħima	-4605
yałer	-4606
▁Were	-4607
▁Yałi	-4608
▁aqru	-4609
▁aqza	-4610
▁aqʕu	-4611
▁asoł	-4612
▁aynč	-4613
▁ayra	-4614
▁aħon	-4615
▁ažoƛ	-4616
▁aɣiw	-4617
▁beza	-4618
▁biqa	-4619
▁biyn	-4620
▁bišƛ	-4621
▁bižo	-4622
▁boqƛ	-4623
▁bowa	-4624
▁bowƛ	-4625
▁boys	-4626
▁boyƛ	-4627
▁boɣo	-4628
▁buta	-4629
▁caƛo	-4630
▁ceyz	-4631
▁ciqo	-4632
▁ciyo	-4633
▁elon	-4634
▁esis	-4635
▁exwa	-4636
▁ečuy	-4637
▁eƛan	-4638
▁eɣen	-4639
▁gani	-4640
▁guru	-4641
▁hari	-4642
▁igun	-4643
▁iman	-4644
▁isin	-4645
▁izix	-4646
▁iħay	-4647
▁iħuƛ	-4648
▁iłet	-4649
▁karu	-4650
▁kidä	-4651
▁kiki	-4652
▁kusa	-4653
▁mark	-4654
▁moƛu	-4655
▁naib	-4656
▁naza	-4657
▁nexä	-4658
▁noci	-4659
▁nocu	-4660
▁obiw	-4661
▁ozqo	-4662
▁oƛäx	-4663
▁part	-4664
▁qala	-4665
▁qʕil	-4666
▁ragi	-4667
▁reku	-4668
▁risä	-4669
▁riyr	-4670
▁riys	-4671
▁riyä	-4672
▁roqx	-4673
▁rowx	-4674
▁roɣo	-4675
▁ruqʕ	-4676
▁räsu	-4677
▁rʕał	-4678
▁ukar	-4679
▁uyno	-4680
▁užiz	-4681
▁xanƛ	-4682
▁yayx	-4683
▁yayƛ	-4684
▁yexa	-4685
▁yiłä	-4686
▁yoqƛ	-4687
▁yoyn	-4688
▁yoƛi	-4689
▁yuqʕ	-4690
▁zebu	-4691
▁zeyƛ	-4692
▁ziyƛ	-4693
▁zowa	-4694
▁äƛin	-4695
▁čara	-4696
▁čuqʕ	-4697
▁ħažƛ	-4698
▁ħaƛu	-4699
reza	-4700
▁kic	-4701
▁äxu	-4702
Maħam	-4703
aymos	-4704
imatä	-4705
mołäy	-4706
yxƛin	-4707
▁Enda	-4708
▁Hari	-4709
▁ruɣu	-4710
▁zeru	-4711
▁ħoši	-4712
▁ħuli	-4713
▁łaci	-4714
▁šuša	-4715
▁ƛelƛ	-4716
▁ɣuna	-4717
▁ɣʕuč	-4718
aceƛin	-4719
alałäy	-4720
anibin	-4721
anixno	-4722
aniłer	-4723
aniłno	-4724
aqaɣor	-4725
atawni	-4726
ayziko	-4727
azaɣor	-4728
aƛinno	-4729
aʕidaƛ	-4730
edanix	-4731
ediłin	-4732
ilično	-4733
imater	-4734
imoqor	-4735
iniƛäy	-4736
irduxƛ	-4737
iriɣor	-4738
iruxor	-4739
izarno	-4740
ičurič	-4741
iħotow	-4742
iłnosi	-4743
noƛƛin	-4744
ohores	-4745
oqʕoyn	-4746
orolas	-4747
oxxosi	-4748
oynosi	-4749
ozaxor	-4750
udäɣor	-4751
uqorno	-4752
urnosi	-4753
uwataw	-4754
uɣweyn	-4755
äsianu	-4756
łanƛin	-4757
ʕaɣʕun	-4758
ʕwaƛin	-4759
▁Adäza	-4760
▁Aħozä	-4761
▁Barur	-4762
▁Bizin	-4763
▁Boɣno	-4764
▁Debeq	-4765
▁Däzoq	-4766
▁Esinč	-4767
▁Esiya	-4768
▁Gamiƛ	-4769
▁Gogaƛ	-4770
▁Gulun	-4771
▁Howda	-4772
▁Howsi	-4773
▁Hunin	-4774
▁Kidir	-4775
▁Kusaƛ	-4776
▁Mežus	-4777
▁Musaq	-4778
▁Nazon	-4779
▁Netin	-4780
▁Nexno	-4781
▁Nełan	-4782
▁Nełał	-4783
▁Nukar	-4784
▁Ozuri	-4785
▁Ozzaq	-4786
▁Qazaq	-4787
▁Ričas	-4788
▁Sebix	-4789
▁Soder	-4790
▁Tełer	-4791
▁Xanno	-4792
▁Xanzo	-4793
▁Yegir	-4794
▁Yisiq	-4795
▁Yizis	-4796
▁Yiłar	-4797
▁adiru	-4798
▁adoru	-4799
ewn	-4800
aymo	-4801
ʕuba	-4802
▁Anu	-4803
▁bož	-4804
▁ełu	-4805
▁nuʕ	-4806
urułi	-4807
▁Užir	-4808
▁Yoƛo	-4809
▁bolž	-4810
▁gibu	-4811
▁kuła	-4812
▁räqi	-4813
▁zewn	-4814
▁äynč	-4815
iqoybi	-4816
salamu	-4817
ʕugani	-4818
▁Bayru	-4819
▁Boƛik	-4820
▁Diwan	-4821
▁Insan	-4822
▁Marya	-4823
▁Tungi	-4824
▁akbar	-4825
▁anuza	-4826
▁aqrun	-4827
▁aqƛin	-4828
▁atinč	-4829
▁ayrxo	-4830
▁aħozi	-4831
▁aħyan	-4832
▁aɣʕur	-4833
▁baran	-4834
▁baħna	-4835
▁baɣma	-4836
▁beciz	-4837
▁beciƛ	-4838
▁beqes	-4839
▁besač	-4840
▁beɣet	-4841
▁bicix	-4842
▁bitay	-4843
▁bitaz	-4844
▁bitin	-4845
▁bitir	-4846
▁bixno	-4847
▁bizix	-4848
▁biłet	-4849
▁bižan	-4850
▁biƛno	-4851
▁bodač	-4852
▁bogun	-4853
▁boƛƛi	-4854
▁buqno	-4855
▁bʕeƛä	-4856
▁caƛiƛ	-4857
▁ceyde	-4858
▁ciqeł	-4859
▁cucix	-4860
▁dabaɣ	-4861
▁daqäy	-4862
▁debin	-4863
▁dikin	-4864
▁elosi	-4865
▁eloša	-4866
▁endiw	-4867
▁eniwr	-4868
▁enłaƛ	-4869
▁esiwł	-4870
▁esiyn	-4871
▁ezunč	-4872
▁ezura	-4873
▁ečrut	-4874
▁ečula	-4875
▁ešayn	-4876
▁eƛnoq	-4877
▁gagal	-4878
▁gaman	-4879
▁ganzo	-4880
▁geler	-4881
▁godek	-4882
▁gonda	-4883
▁gugya	-4884
▁guluč	-4885
▁halag	-4886
▁haqan	-4887
▁hilno	-4888
▁hohom	-4889
▁hozur	-4890
▁hudul	-4891
▁idusi	-4892
▁inžit	-4893
▁iqäru	-4894
▁isäsi	-4895
▁izinč	-4896
▁izmun	-4897
▁iłeni	-4898
▁išinč	-4899
▁kakno	-4900
▁kamin	-4901
▁karun	-4902
▁kecan	-4903
▁kecsi	-4904
▁kikiw	-4905
▁kikix	-4906
▁kikno	-4907
▁kikxo	-4908
▁kuczi	-4909
▁kušin	-4910
▁maday	-4911
▁mahar	-4912
▁maħiq	-4913
▁mečar	-4914
▁mečwa	-4915
▁mežan	-4916
▁mežar	-4917
▁mežin	-4918
▁mežuł	-4919
▁migon	-4920
▁minut	-4921
▁muqno	-4922
▁nazoƛ	-4923
▁netey	-4924
▁ninor	-4925
▁nocun	-4926
▁näxno	-4927
▁oqnäy	-4928
▁ozyoł	-4929
▁ozłer	-4930
▁payda	-4931
▁posun	-4932
▁qaraw	-4933
▁qaħłi	-4934
▁qidoq	-4935
▁qizan	-4936
▁qʕays	-4937
▁qʕaƛo	-4938
▁radin	-4939
▁ragin	-4940
▁resno	-4941
▁rešon	-4942
▁reɣuł	-4943
▁riqin	-4944
▁rixra	-4945
▁ričix	-4946
▁riħun	-4947
▁riƛix	-4948
▁roqsi	-4949
▁roƛäk	-4950
▁roɣwa	-4951
▁rutix	-4952
▁räsru	-4953
▁räynč	-4954
▁sasiw	-4955
▁sidde	-4956
▁sikno	-4957
▁sipat	-4958
▁tatun	-4959
▁tełsi	-4960
▁tełäz	-4961
▁täƛno	-4962
▁täƛru	-4963
▁ulkał	-4964
▁uqʕeł	-4965
▁uynon	-4966
▁uyrax	-4967
▁uyxor	-4968
▁wizir	-4969
▁xaneł	-4970
▁xanxo	-4971
▁yaziq	-4972
▁yedun	-4973
▁yexux	-4974
▁yečiw	-4975
▁yiqin	-4976
▁yisix	-4977
▁yisän	-4978
▁yiynč	-4979
▁yizar	-4980
▁yiziz	-4981
▁yiziƛ	-4982
▁yičix	-4983
▁yiłaƛ	-4984
▁yižix	-4985
▁yižiƛ	-4986
▁yołin	-4987
▁yoƛƛo	-4988
▁yoɣsi	-4989
▁zaral	-4990
▁zawza	-4991
▁zeyän	-4992
▁zikru	-4993
▁ziran	-4994
▁ziruƛ	-4995
▁zowan	-4996
▁zozis	-4997
▁zurma	-4998
▁äqinč	-4999
▁čučzi	-5000
▁ħažan	-5001
▁ħiroq	-5002
▁ħišin	-5003
▁ħoʕni	-5004
▁ħulin	-5005
▁łiboƛ	-5006
▁łinał	-5007
▁łäħor	-5008
▁Šebey	-5009
▁Šebin	-5010
▁šadał	-5011
▁šeyxä	-5012
▁šišin	-5013
▁šudax	-5014
▁Žagon	-5015
▁Žeduƛ	-5016
▁Žigon	-5017
▁žagon	-5018
▁žarno	-5019
▁žedaz	-5020
▁žubin	-5021
▁ƛeles	-5022
▁ƛelin	-5023
▁ƛexeƛ	-5024
▁ƛexuƛ	-5025
▁ƛoħay	-5026
▁ɣired	-5027
▁ɣudeł	-5028
▁ɣunoz	-5029
▁ɣunoł	-5030
▁ɣuron	-5031
▁ɣwʕad	-5032
▁ɣʕayz	-5033
▁ɣʕuɣʕ	-5034
▁ɣʕwač	-5035
▁ʕAƛox	-5036
▁ʕIsaq	-5037
▁ʕOloq	-5038
▁ʕOƛno	-5039
▁ʕadal	-5040
▁ʕadlu	-5041
▁ʕalam	-5042
▁ʕarab	-5043
▁ʕuqła	-5044
ariyawt	-5045
aymoxor	-5046
aɣorgon	-5047
aɣʕirno	-5048
erhanes	-5049
erhanno	-5050
erxotow	-5051
ełsiƛin	-5052
ešonayx	-5053
irsiƛin	-5054
iruntow	-5055
irxoƛin	-5056
isdiqor	-5057
izaxozo	-5058
iłnoanu	-5059
orolays	-5060
oräygon	-5061
oxranix	-5062
oƛinosi	-5063
urnotow	-5064
wariʕel	-5065
wdunasi	-5066
xosianu	-5067
yayxƛin	-5068
yoqaysi	-5069
zadäɣor	-5070
ärnoƛin	-5071
ɣenägon	-5072
ʕaƛiłno	-5073
▁Babiws	-5074
▁Badiru	-5075
▁Baħarč	-5076
▁Behizi	-5077
▁Bercin	-5078
▁Bełiqu	-5079
▁Bikorä	-5080
▁Buyxor	-5081
▁Dandir	-5082
▁Eleley	-5083
▁Elogon	-5084
▁Ečruni	-5085
▁Hemece	-5086
▁Howžäy	-5087
▁Hudayƛ	-5088
▁Igorno	-5089
▁Kurzak	-5090
▁Mamali	-5091
▁Nełquł	-5092
▁Oƛixno	-5093
▁Qʕaƛin	-5094
▁Qʕišod	-5095
▁Reɣeni	-5096
▁Ruyxor	-5097
▁Siryos	-5098
▁Xediya	-5099
▁Yaɣʕin	-5100
▁Yeɣeni	-5101
▁Yigtow	-5102
▁aderno	-5103
▁asaɣor	-5104
▁axarno	-5105
▁axaɣor	-5106
▁ačqʕaq	-5107
▁babiwr	-5108
▁babiwł	-5109
▁badinč	-5110
▁baqƛin	-5111
▁bayace	-5112
▁bayrxo	-5113
▁bayäsi	-5114
▁bałgoł	-5115
▁begira	-5116
▁besunč	-5117
▁betäsi	-5118
▁bexaru	-5119
▁bexasi	-5120
▁bexora	-5121
▁bexwad	-5122
▁bełiqu	-5123
▁biqira	-5124
▁bixzin	-5125
▁biyran	-5126
▁biyrno	-5127
▁boyzaƛ	-5128
▁boyłin	-5129
▁butnin	-5130
▁butäsi	-5131
▁bäqinč	-5132
▁bätuza	-5133
▁bäzinč	-5134
▁bäčiru	-5135
▁bʕałay	-5136
▁bʕałno	-5137
▁bʕeliz	-5138
▁ceyder	-5139
▁ciqqay	-5140
▁deyƛin	-5141
▁dicego	-5142
▁elaƛin	-5143
▁elaɣor	-5144
▁eqersi	-5145
▁eranix	-5146
▁ernosi	-5147
▁eroƛin	-5148
▁esirsi	-5149
▁esiyan	-5150
▁esurno	-5151
▁exuran	-5152
▁ezäɣor	-5153
▁eženił	-5154
▁eƛakin	-5155
▁gedmoq	-5156
▁gušiwt	-5157
▁heqäsi	-5158
▁hoboda	-5159
▁hoboyä	-5160
▁howžär	-5161
▁hunarä	-5162
▁iduzan	-5163
▁imadał	-5164
▁indowr	-5165
▁iqirxo	-5166
▁iynanu	-5167
▁ičizaƛ	-5168
▁išrinč	-5169
▁karuni	-5170
▁karƛin	-5171
▁kidgon	-5172
▁kikibi	-5173
▁kobora	-5174
▁kurinč	-5175
▁kurnäy	-5176
▁laɣłun	-5177
▁manzil	-5178
▁maxsar	-5179
▁maʕdin	-5180
▁mecrex	-5181
▁mecreƛ	-5182
▁mekoyn	-5183
▁mešibi	-5184
▁mešori	-5185
▁močibi	-5186
▁nexnäy	-5187
▁nełdäy	-5188
▁nełxor	-5189
▁niʕmat	-5190
▁nʕoƛał	-5191
▁odoƛin	-5192
▁onočas	-5193
▁onočun	-5194
▁oqxosi	-5195
▁ozyode	-5196
▁pečmox	-5197
▁posurƛ	-5198
▁qartay	-5199
▁qoqƛer	-5200
▁qʕašiƛ	-5201
▁raqinč	-5202
▁raqʕza	-5203
▁rayäsi	-5204
▁rayƛin	-5205
▁regirƛ	-5206
▁resunč	-5207
▁rexasi	-5208
▁rexayx	-5209
▁rexura	-5210
▁reɣeni	-5211
▁reʕizi	-5212
▁riqäsi	-5213
▁rixäsi	-5214
▁ričinč	-5215
▁rižinč	-5216
▁rocasi	-5217
▁roynäy	-5218
▁rukada	-5219
▁rutira	-5220
▁ruyxor	-5221
▁rägiru	-5222
▁räƛiru	-5223
▁rʕołun	-5224
▁sisxol	-5225
▁siħrus	-5226
▁taqʕor	-5227
▁teqzaƛ	-5228
▁teqäsi	-5229
▁tełgon	-5230
▁teƛnäy	-5231
▁teƛƛin	-5232
▁tupäsi	-5233
▁urgubi	-5234
▁užiłun	-5235
▁užiłäy	-5236
▁užiƛer	-5237
▁xaliča	-5238
▁xanłiƛ	-5239
▁xarcel	-5240
▁xediwq	-5241
▁xediwƛ	-5242
▁xexzar	-5243
▁xäciza	-5244
▁yaqinč	-5245
▁yaqrun	-5246
▁yayace	-5247
▁yaynäy	-5248
▁yayzay	-5249
▁yiziri	-5250
▁yiłqor	-5251
▁yoqäsi	-5252
▁yoqłin	-5253
▁yäqinč	-5254
▁yäqiru	-5255
▁zowzaƛ	-5256
▁äxuzay	-5257
▁äčizar	-5258
▁äčiƛin	-5259
▁čantan	-5260
▁čantaƛ	-5261
▁čanyan	-5262
▁čanyas	-5263
▁čardaħ	-5264
▁ħamori	-5265
▁ħažałi	-5266
▁ħonbin	-5267
▁ħonzaq	-5268
▁ħukmun	-5269
▁Łaymoƛ	-5270
▁łaymoƛ	-5271
▁łiyrsi	-5272
▁łoħros	-5273
▁šibawz	-5274
▁Žedude	-5275
▁žedzox	-5276
▁ƛirbaq	-5277
▁ƛirbas	-5278
▁ɣwʕadä	-5279
▁ɣʕilya	-5280
▁ɣʕwayr	-5281
▁ʕadlun	-5282
▁ʕagarł	-5283
▁ʕažaib	-5284
▁ʕomoyƛ	-5285
▁ʕumruł	-5286
axrudinä	-5287
bulayƛin	-5288
odorawnä	-5289
uxanuƛin	-5290
uɣweymoł	-5291
zoxortow	-5292
äƛirugon	-5293
ʕanontow	-5294
ʕanoquno	-5295
ʕimłerno	-5296
ʕiłxotow	-5297
▁Allahzo	-5298
▁Aždaħes	-5299
▁Encegon	-5300
▁Habihan	-5301
▁Harihun	-5302
▁Huläɣor	-5303
▁Kidbaza	-5304
▁Maharno	-5305
▁Moƛaxay	-5306
▁Nesirno	-5307
▁Nełaqno	-5308
▁Qartayn	-5309
▁Sisxoli	-5310
▁Suƛitow	-5311
▁Tawadiz	-5312
▁Tełäzay	-5313
▁Yedagon	-5314
▁Yisiqor	-5315
▁Zamanał	-5316
▁Zirulaw	-5317
▁akrošaw	-5318
▁aqugani	-5319
▁aqʕuros	-5320
▁atinosi	-5321
▁ayroƛin	-5322
▁ayärƛin	-5323
▁azbarya	-5324
▁aziroyn	-5325
▁aħinyoƛ	-5326
▁badirun	-5327
▁barkala	-5328
▁barusno	-5329
▁baruzaq	-5330
▁baruzno	-5331
▁baynƛax	-5332
▁bayrnäy	-5333
▁baysƛin	-5334
▁baħnayn	-5335
▁bašiqor	-5336
▁bažarin	-5337
▁baɣruni	-5338
▁becider	-5339
▁bexasin	-5340
▁beynoyn	-5341
▁bečełiƛ	-5342
▁bikorbi	-5343
▁bikoris	-5344
▁bikorzo	-5345
▁biqinäy	-5346
▁bisanix	-5347
▁biyrƛin	-5348
▁bičinäy	-5349
▁biħanay	-5350
▁biħinäy	-5351
▁biħurno	-5352
▁bišxosi	-5353
▁bodäƛin	-5354
▁boynanu	-5355
▁boysƛin	-5356
▁boyxozo	-5357
▁boƛäxza	-5358
▁boɣanix	-5359
▁butirxo	-5360
▁caƛoƛin	-5361
▁cedäƛin	-5362
▁dowqosi	-5363
▁däqorno	-5364
▁elusƛin	-5365
▁encetow	-5366
▁enduräz	-5367
▁eniwrno	-5368
▁esirzaƛ	-5369
▁esiwƛin	-5370
▁esixosi	-5371
▁esixoza	-5372
▁esnazał	-5373
▁etixƛin	-5374
▁exarƛin	-5375
▁exuräsi	-5376
▁exuxosi	-5377
▁eƛixƛax	-5378
▁guluzaz	-5379
▁guluzał	-5380
▁gulułäy	-5381
▁hardizi	-5382
▁hiboreƛ	-5383
▁hiƛirno	-5384
▁howziri	-5385
▁hunizax	-5386
▁imxaɣor	-5387
▁insanes	-5388
▁istolow	-5389
▁istowli	-5390
▁izinosi	-5391
▁izirƛin	-5392
▁iziłinč	-5393
▁ižanƛin	-5394
▁kecerno	-5395
▁kidbede	-5396
▁kičurič	-5397
▁kočorin	-5398
▁kurxosi	-5399
▁madaxay	-5400
▁madazaħ	-5401
▁magazin	-5402
▁maydanƛ	-5403
▁maħiłäy	-5404
▁mežiƛin	-5405
▁mežuqor	-5406
▁mežułäy	-5407
▁minaraƛ	-5408
▁mołoƛin	-5409
▁mužmarƛ	-5410
▁nazosno	-5411
▁nesiqno	-5412
▁nełaqno	-5413
▁nełarno	-5414
▁nełasno	-5415
▁neƛanix	-5416
▁oqnoanu	-5417
▁oqnoƛin	-5418
▁oqxoƛin	-5419
▁oxirƛin	-5420
▁ozzataw	-5421
▁posurxo	-5422
▁putceni	-5423
▁puħorno	-5424
▁qalamäy	-5425
▁qazaqxo	-5426
▁raqruyä	-5427
▁rayxƛin	-5428
▁raɣʕäsi	-5429
▁recurxo	-5430
▁rekuyał	-5431
▁retizaƛ	-5432
▁retäƛin	-5433
▁rečiwsi	-5434
▁rečuƛäy	-5435
▁reƛiłer	-5436
▁riqinäy	-5437
▁risanix	-5438
▁ritirer	-5439
▁riynoxa	-5440
▁riyrinč	-5441
▁riyxosi	-5442
▁rizirxo	-5443
▁riħoƛin	-5444
▁riħurno	-5445
▁rižanix	-5446
▁rižirno	-5447
▁roqnosi	-5448
▁rowanix	-5449
▁rukaynč	-5450
▁rukayru	-5451
▁räšruni	-5452
▁sadaqay	-5453
▁sadaqno	-5454
▁sidagon	-5455
▁sidaquł	-5456
▁simildi	-5457
▁sualyor	-5458
▁tabanaw	-5459
▁tamašan	-5460
▁taxeƛno	-5461
▁teƛnosi	-5462
▁ukayrun	-5463
▁uqʕäłru	-5464
▁uqʕłäsi	-5465
▁utinosi	-5466
▁užinosi	-5467
▁wasimoƛ	-5468
▁wilayat	-5469
▁xanesno	-5470
▁xecinäy	-5471
▁yayxanu	-5472
▁yayxosi	-5473
▁yaħnayx	-5474
▁yedaƛin	-5475
▁yegirxo	-5476
▁yežigon	-5477
▁yiqirno	-5478
▁yisider	-5479
▁yiziqor	-5480
▁yizirno	-5481
▁yiziƛin	-5482
▁yičizaƛ	-5483
▁yiłaqor	-5484
▁yižirno	-5485
▁yodanix	-5486
▁yoqxosi	-5487
▁yowsƛin	-5488
▁yowxozo	-5489
▁yowäƛin	-5490
▁yoxirno	-5491
▁yołiƛin	-5492
▁yukaynč	-5493
▁yutirxo	-5494
▁zirusno	-5495
▁ziruƛin	-5496
▁zowanix	-5497
▁ħadurłi	-5498
▁ħalarno	-5499
▁ħalaxor	-5500
▁ħamorok	-5501
▁ħaƛuƛin	-5502
▁Łinasno	-5503
▁łemuƛin	-5504
▁łiłiroƛ	-5505
▁šebigon	-5506
▁šilazaƛ	-5507
▁šiširno	-5508
▁Žamaʕat	-5509
▁Žeduqor	-5510
▁žedaqor	-5511
▁žedudäy	-5512
▁žedułäy	-5513
▁žirbabi	-5514
▁žiƛboyä	-5515
▁ƛirbabi	-5516
▁ƛisirno	-5517
▁ƛuzazas	-5518
▁ɣudegon	-5519
▁ɣurušno	-5520
▁ɣutaneł	-5521
▁ɣwʕader	-5522
▁ɣwʕadin	-5523
▁ɣʕutkar	-5524
▁ʕOƛiran	-5525
▁ʕazabno	-5526
▁ʕaƛoxor	-5527
▁ʕuqłäsi	-5528
aguyawtow	-5529
oniłxosin	-5530
wariłiłer	-5531
wariłiłäy	-5532
▁Dahawgon	-5533
▁Kidbezno	-5534
▁Oƛƛozoni	-5535
▁Raładyoz	-5536
▁Raładyoł	-5537
▁anuƛinno	-5538
▁ayruntow	-5539
▁ayruxort	-5540
▁aħoziqor	-5541
▁aɣʕwarno	-5542
▁bayanƛin	-5543
▁bayrułer	-5544
▁baħarawn	-5545
▁baɣnoƛin	-5546
▁baɣʕiłno	-5547
▁bexorani	-5548
▁bexurinč	-5549
▁bexuxƛin	-5550
▁bełiqubi	-5551
▁biqinanu	-5552
▁biqinosi	-5553
▁biqirnäy	-5554
▁bitorgon	-5555
▁bičanƛin	-5556
▁bičinosi	-5557
▁bičixozo	-5558
▁biħanada	-5559
▁bišadyoł	-5560
▁bižisƛin	-5561
▁bodixosi	-5562
▁bodixƛin	-5563
▁boqxoƛin	-5564
▁boƛixnäy	-5565
▁boɣanƛin	-5566
▁boɣsiƛin	-5567
▁bäčiruni	-5568
▁caƛinosi	-5569
▁cedisƛin	-5570
▁cimyarno	-5571
▁cuciłace	-5572
▁dandirno	-5573
▁dandixno	-5574
▁debeqƛin	-5575
▁debeztow	-5576
▁dibirder	-5577
▁dibirqor	-5578
▁didiwtow	-5579
▁dowdäɣor	-5580
▁doxturbi	-5581
▁dunyalqo	-5582
▁egirnosi	-5583
▁esirxosi	-5584
▁esiyagon	-5585
▁halmaɣer	-5586
▁hawšinaw	-5587
▁hemełtow	-5588
▁hunixoza	-5589
▁iduzaɣor	-5590
▁ixinabin	-5591
▁karamałi	-5592
▁kidbeqay	-5593
▁kidbeƛer	-5594
▁kuranƛin	-5595
▁käczaɣor	-5596
▁lilyoxar	-5597
▁maduhalä	-5598
▁mamalayn	-5599
▁maħortow	-5600
▁mekoyxno	-5601
▁mužmareł	-5602
▁nesirgon	-5603
▁nesirtow	-5604
▁nesiłgon	-5605
▁nesiłtow	-5606
▁nexsiƛin	-5607
▁nełaqgon	-5608
▁nełastow	-5609
▁nełqorno	-5610
▁nukarzaƛ	-5611
▁pandurno	-5612
▁pardagin	-5613
▁pikruxor	-5614
▁pʕaƛirno	-5615
▁qʕašizaƛ	-5616
▁qʕišoder	-5617
▁radiruni	-5618
▁rayräƛin	-5619
▁raładyoƛ	-5620
▁resunanu	-5621
▁resunosi	-5622
▁retixosi	-5623
▁retixƛin	-5624
▁riqisƛin	-5625
▁risanƛin	-5626
▁risnoanu	-5627
▁ričixosi	-5628
▁rižinosi	-5629
▁riƛixƛin	-5630
▁rodinosi	-5631
▁rodinƛin	-5632
▁roqoƛƛin	-5633
▁ročyoxno	-5634
▁rukarinč	-5635
▁rukaynoƛ	-5636
▁rukayzaƛ	-5637
▁rutirƛin	-5638
▁sadaqƛin	-5639
▁sasaqaza	-5640
▁sidxokin	-5641
▁simildis	-5642
▁taqʕorno	-5643
▁teƛnoanu	-5644
▁täƛnoƛin	-5645
▁užizaqor	-5646
▁xedyoqor	-5647
▁xedyoxay	-5648
▁xizazgon	-5649
▁xwasarno	-5650
▁yaqnoƛin	-5651
▁yaqʕułer	-5652
▁yayräƛin	-5653
▁yaziqłiƛ	-5654
▁yałzatow	-5655
▁yegirłin	-5656
▁yiqixana	-5657
▁yisirƛin	-5658
▁yičanƛin	-5659
▁yičiräsi	-5660
▁yodanƛin	-5661
▁yodixosi	-5662
▁yoqsiƛin	-5663
▁yołƛinno	-5664
▁yätiruni	-5665
▁zawnoƛin	-5666
▁zawrułin	-5667
▁zaħmataw	-5668
▁äsiruxor	-5669
▁čanyazaƛ	-5670
▁Ħusenqor	-5671
▁Ħusenƛin	-5672
▁ħalkaraw	-5673
▁ħurmatno	-5674
▁šebinƛin	-5675
▁ƛexunosi	-5676
▁ƛirbałin	-5677
▁ɣunoqayn	-5678
▁ɣʕanazaz	-5679
▁ʕOmoyqor	-5680
▁ʕalamałi	-5681
▁ʕantawni	-5682
▁ʕantawnä	-5683
▁ʕiyayrno	-5684
▁ʕoloqzas	-5685
ʕuyzaɣaɣor	-5686
▁Aždaħägon	-5687
▁Hemełaquł	-5688
▁Ismaʕilzo	-5689
▁Neširutow	-5690
▁Ražbadinƛ	-5691
▁Telawäɣor	-5692
▁aħnayxosi	-5693
▁baqruntow	-5694
▁barudäɣor	-5695
▁baruqorno	-5696
▁baħarčiłi	-5697
▁begiranix	-5698
▁bełiqanbi	-5699
▁bełiqanes	-5700
▁bełiqanza	-5701
▁bičiƛinno	-5702
▁biħadanix	-5703
▁bolžalyos	-5704
▁daruyabin	-5705
▁diwanbegä	-5706
▁esiwqorno	-5707
▁exursiƛin	-5708
▁girimabin	-5709
▁habihanes	-5710
▁habihanno	-5711
▁harimoxor	-5712
▁hemecetow	-5713
▁hudayziko	-5714
▁maduhales	-5715
▁maqʕäytow	-5716
▁masalałäy	-5717
▁muhumabin	-5718
▁muʕalimno	-5719
▁nełdergon	-5720
▁neširaɣor	-5721
▁neƛnäyƛin	-5722
▁obiydäɣor	-5723
▁pašmanłiƛ	-5724
▁qarawulza	-5725
▁qʕaƛanayn	-5726
▁qʕiƛurabi	-5727
▁rasadanix	-5728
▁rečuƛerno	-5729
▁riqiranix	-5730
▁riyxanusi	-5731
▁rukarnosi	-5732
▁rukayxanu	-5733
▁rukayxƛin	-5734
▁sanaʕałin	-5735
▁sasaqorno	-5736
▁sasaqozox	-5737
▁tataniłxo	-5738
▁xabaryabi	-5739
▁xizaɣorsi	-5740
▁xizaɣorzo	-5741
▁yawnoƛƛin	-5742
▁yičäsiƛin	-5743
▁Ħumukuliƛ	-5744
▁ħumukuliƛ	-5745
▁łiboqande	-5746
▁łiyranƛin	-5747
▁žaqʕułgon	-5748
▁ƛexasiƛin	-5749
▁ɣunoxorno	-5750
▁ʕAwdunasi	-5751
▁ʕedeʕaraw	-5752
▁Azbaryoxor	-5753
▁Bazarganbi	-5754
▁Didurnotow	-5755
▁Ražbadiner	-5756
▁Ražbadines	-5757
▁Ražbadinqo	-5758
▁Ražbadinxo	-5759
▁barkatawni	-5760
▁baynosigon	-5761
▁bazarganzo	-5762
▁baɣmaɣorno	-5763
▁bezanixƛin	-5764
▁biqiranƛin	-5765
▁boqxanuƛin	-5766
▁boyxosiƛin	-5767
▁gamušyozaq	-5768
▁guluzaxozo	-5769
▁kaɣatyabin	-5770
▁kidbazaqor	-5771
▁madaxozoni	-5772
▁mesedyosni	-5773
▁meɣyoqorno	-5774
▁riqirsiƛin	-5775
▁riyxanuƛin	-5776
▁ričiranƛin	-5777
▁rowanixƛin	-5778
▁saɣyatyabi	-5779
▁teƛxanaƛin	-5780
▁ukayruntow	-5781
▁xabaryabin	-5782
▁yexursiƛin	-5783
▁yiqiranƛin	-5784
▁yičaniƛäyn	-5785
▁yodanixƛin	-5786
▁yowanixƛin	-5787
▁ƛirbadäɣor	-5788
▁ʕUmarqilič	-5789
▁ʕUneyzatno	-5790
▁ʕoloqzaqor	-5791
▁Baxumesedun	-5792
▁Tawadidäɣor	-5793
▁azirodoƛƛin	-5794
▁bukayruntow	-5795
▁esiranixƛin	-5796
▁esnazadäɣor	-5797
▁kumakyorƛin	-5798
▁mažgityaɣor	-5799
▁raładyołxor	-5800
▁ričixosiƛin	-5801
▁sasaqosigon	-5802
▁sidadäzagon	-5803
▁ħurmatyoxay	-5804
▁ɣʕutkoxorno	-5805
▁ʕArabuzande	-5806
▁ʕArabuzanno	-5807
▁ʕoloqanawni	-5808
▁aderzoxortow	-5809
▁biqixyołiƛin	-5810
▁riqixyołiƛin	-5811
▁rukaranixƛin	-5812
▁yexoriłxosin	-5813
▁maduhalłiqozoni	-5814
Ez	-5815
Mi	-5816
di	-5817
ip	-5818
mx	-5819
nä	-5820
oš	-5821
oʕ	-5822
wä	-5823
yr	-5824
zä	-5825
ča	-5826
ło	-5827
ša	-5828
šk	-5829
šn	-5830
šq	-5831
ɣu	-5832
ʕo	-5833
Eze	-5834
Xed	-5835
alʕ	-5836
amt	-5837
ano	-5838
anč	-5839
anƛ	-5840
ard	-5841
ayd	-5842
ayr	-5843
ayt	-5844
bac	-5845
baš	-5846
biš	-5847
bok	-5848
ele	-5849
eno	-5850
ery	-5851
erƛ	-5852
eys	-5853
ečo	-5854
ežƛ	-5855
gił	-5856
har	-5857
igo	-5858
irħ	-5859
irƛ	-5860
iyo	-5861
izo	-5862
lan	-5863
lar	-5864
las	-5865
mad	-5866
mač	-5867
min	-5868
mus	-5869
nos	-5870
noł	-5871
oka	-5872
omi	-5873
orp	-5874
orƛ	-5875
owl	-5876
owt	-5877
oxo	-5878
oya	-5879
oʕɣ	-5880
qan	-5881
qno	-5882
qʕu	-5883
rsi	-5884
tan	-5885
umo	-5886
ung	-5887
urq	-5888
xon	-5889
xow	-5890
yoc	-5891
zey	-5892
zno	-5893
äyz	-5894
łaq	-5895
łix	-5896
šan	-5897
šun	-5898
ɣru	-5899
aqa	-5900
biħ	-5901
bon	-5902
idu	-5903
ixa	-5904
qon	-5905
tix	-5906
ʕan	-5907
ʕno	-5908
ʕoq	-5909
ʕor	-5910
ʕus	-5911
ʕxo	-5912
▁At	-5913
▁Oq	-5914
▁ba	-5915
▁eɣ	-5916
▁go	-5917
▁hu	-5918
▁le	-5919
▁mä	-5920
▁qu	-5921
▁tä	-5922
▁xä	-5923
▁yx	-5924
▁äš	-5925
▁äɣ	-5926
▁ɣw	-5927
...”	-5928
abru	-5929
abuž	-5930
adam	-5931
aday	-5932
alaš	-5933
alin	-5934
alum	-5935
anar	-5936
anno	-5937
anya	-5938
anza	-5939
aqʕƛ	-5940
araʕ	-5941
arza	-5942
atel	-5943
awar	-5944
axza	-5945
ayƛa	-5946
aħuz	-5947
ałay	-5948
aƛäz	-5949
aɣaw	-5950
aʕam	-5951
aʕba	-5952
cewa	-5953
eker	-5954
ener	-5955
esin	-5956
eƛin	-5957
eƛno	-5958
ibaƛ	-5959
iday	-5960
idno	-5961
idoq	-5962
imoz	-5963
inin	-5964
inon	-5965
ipaw	-5966
iqeq	-5967
iraw	-5968
irik	-5969
iräz	-5970
iwzä	-5971
ixoƛ	-5972
ičin	-5973
iħod	-5974
išno	-5975
iɣaƛ	-5976
iɣuƛ	-5977
mabi	-5978
ngon	-5979
odix	-5980
omes	-5981
omet	-5982
oqun	-5983
oqur	-5984
oraq	-5985
orin	-5986
oris	-5987
orsi	-5988
orun	-5989
ossi	-5990
oxoƛ	-5991
oyaw	-5992
oyon	-5993
oyxo	-5994
oyäy	-5995
ozay	-5996
oład	-5997
ruce	-5998
ruza	-5999
Neł	-6000
aƛu	-6001
eyƛ	-6002
goƛ	-6003
oƛo	-6004
reł	-6005
yaq	-6006
äyd	-6007
čqʕ	-6008
▁Oh	-6009
adar	-6010
adbi	-6011
adno	-6012
aqan	-6013
ałxo	-6014
gonä	-6015
idäy	-6016
iqun	-6017
ires	-6018
oƛer	-6019
oƛäy	-6020
uciƛ	-6021
ukya	-6022
ulis	-6023
umiƛ	-6024
unoq	-6025
uqƛa	-6026
urad	-6027
ureł	-6028
urqo	-6029
urum	-6030
urur	-6031
utur	-6032
wasi	-6033
xayn	-6034
xaza	-6035
xƛin	-6036
yayn	-6037
zaza	-6038
zuru	-6039
äasi	-6040
ärur	-6041
äsič	-6042
łace	-6043
łiri	-6044
šäsi	-6045
ʕalu	-6046
ʕaru	-6047
▁Ars	-6048
▁Aħa	-6049
▁Bex	-6050
▁But	-6051
▁Buž	-6052
▁Hal	-6053
▁Hut	-6054
▁Mix	-6055
▁New	-6056
▁Nex	-6057
▁Nuʕ	-6058
▁Oka	-6059
▁Oku	-6060
▁Ošk	-6061
▁Riq	-6062
▁Yoq	-6063
▁awä	-6064
▁axä	-6065
▁ayr	-6066
▁ayä	-6067
▁ban	-6068
▁baž	-6069
▁beh	-6070
▁bäš	-6071
▁cez	-6072
▁coł	-6073
▁duʕ	-6074
▁esw	-6075
▁eza	-6076
▁had	-6077
▁hed	-6078
▁hek	-6079
▁isä	-6080
▁iza	-6081
▁liɣ	-6082
▁miš	-6083
▁mox	-6084
▁nan	-6085
▁naƛ	-6086
▁nec	-6087
▁oda	-6088
▁oxä	-6089
▁oɣo	-6090
▁qul	-6091
▁qʕu	-6092
▁reł	-6093
▁ror	-6094
▁rox	-6095
▁räy	-6096
▁sal	-6097
▁sod	-6098
▁sur	-6099
abs	-6100
aht	-6101
iey	-6102
kal	-6103
taw	-6104
ugu	-6105
▁Et	-6106
awnč	-6107
okin	-6108
towl	-6109
ʕlun	-6110
▁raw	-6111
▁taw	-6112
▁tuk	-6113
▁xaw	-6114
▁xir	-6115
▁yaɣ	-6116
▁yig	-6117
▁yit	-6118
▁yoy	-6119
▁yäž	-6120
▁zaʕ	-6121
▁äƛi	-6122
▁čaƛ	-6123
▁ħad	-6124
▁ħoy	-6125
▁Łaz	-6126
▁łer	-6127
▁šar	-6128
▁šid	-6129
▁šow	-6130
▁šuk	-6131
▁Žas	-6132
▁Žuk	-6133
▁ɣer	-6134
▁ɣez	-6135
▁ɣom	-6136
▁ɣoq	-6137
▁ʕAb	-6138
▁ʕAn	-6139
▁ʕUm	-6140
▁ʕaš	-6141
▁ʕel	-6142
Xedyo	-6143
abuld	-6144
adamu	-6145
adtow	-6146
adƛin	-6147
alyoƛ	-6148
apyan	-6149
arder	-6150
argon	-6151
arizi	-6152
awnin	-6153
awusä	-6154
axaza	-6155
axinč	-6156
axrud	-6157
azanä	-6158
azayn	-6159
aɣʕič	-6160
danzo	-6161
daxor	-6162
degon	-6163
edtow	-6164
ekkin	-6165
eresi	-6166
erzaƛ	-6167
eseda	-6168
ezoni	-6169
idƛin	-6170
imäza	-6171
inkin	-6172
intow	-6173
iqoyä	-6174
iruce	-6175
iräyn	-6176
irħan	-6177
irłin	-6178
isdiƛ	-6179
iłäyn	-6180
iłƛin	-6181
iƛinä	-6182
lałay	-6183
manaw	-6184
maɣza	-6185
nixno	-6186
notow	-6187
noxut	-6188
oqgon	-6189
orani	-6190
oride	-6191
owtow	-6192
owƛin	-6193
oxono	-6194
oyƛin	-6195
oƛäsi	-6196
ruƛin	-6197
sinän	-6198
sitow	-6199
muƛ	-6200
ʕaž	-6201
▁ca	-6202
aqey	-6203
aħid	-6204
iney	-6205
odäy	-6206
oniq	-6207
ozoƛ	-6208
ołer	-6209
ugan	-6210
äzan	-6211
▁Hoq	-6212
▁Raħ	-6213
▁Zek	-6214
▁eɣw	-6215
▁rih	-6216
▁ruq	-6217
▁łan	-6218
▁łar	-6219
▁łeb	-6220
▁łeł	-6221
▁ƛaƛ	-6222
▁ɣod	-6223
▁ɣut	-6224
eygon	-6225
nitow	-6226
nogon	-6227
ugyoq	-6228
ukyoł	-6229
uqayn	-6230
urqʕo	-6231
utyos	-6232
xozoz	-6233
yazno	-6234
yogon	-6235
yoqay	-6236
yozaƛ	-6237
zaqno	-6238
äłƛin	-6239
łäzan	-6240
ʕanot	-6241
ʕažun	-6242
ʕogce	-6243
ʕurxo	-6244
ʕuyan	-6245
▁Ačqʕ	-6246
▁Beže	-6247
▁Elex	-6248
▁Elin	-6249
▁Ezun	-6250
▁Eƛni	-6251
▁Ganƛ	-6252
▁Gula	-6253
▁Isno	-6254
▁Iħuƛ	-6255
▁Nełq	-6256
▁Qaca	-6257
▁Qudi	-6258
▁Ukru	-6259
▁Xanƛ	-6260
▁Yayn	-6261
▁abuž	-6262
▁awar	-6263
▁ayno	-6264
▁ayza	-6265
▁ałux	-6266
▁aɣez	-6267
▁aɣeł	-6268
▁baqʕ	-6269
▁barä	-6270
▁baył	-6271
▁beɣa	-6272
▁bäqi	-6273
▁bʕaɣ	-6274
▁duri	-6275
▁elaq	-6276
▁esur	-6277
▁ežin	-6278
▁ežis	-6279
▁hoka	-6280
▁hunƛ	-6281
▁igix	-6282
▁iyoq	-6283
▁iził	-6284
▁ižiƛ	-6285
▁kami	-6286
▁kawu	-6287
▁kici	-6288
▁kiri	-6289
▁land	-6290
▁maʕn	-6291
▁misi	-6292
▁musr	-6293
▁nayn	-6294
▁nełä	-6295
▁neƛł	-6296
▁ocär	-6297
▁odix	-6298
▁qoqä	-6299
asä	-6300
ała	-6301
mał	-6302
old	-6303
tut	-6304
uba	-6305
ulä	-6306
irut	-6307
rułi	-6308
utaw	-6309
wayn	-6310
yoza	-6311
▁Mow	-6312
▁Neƛ	-6313
▁Qeb	-6314
▁bas	-6315
▁zen	-6316
▁žał	-6317
ikmał	-6318
izayn	-6319
orabi	-6320
oƛała	-6321
oƛinč	-6322
rezaƛ	-6323
xotow	-6324
ʕazaƛ	-6325
▁Okus	-6326
▁aysi	-6327
▁bäti	-6328
▁esiƛ	-6329
▁qʕar	-6330
▁raɣä	-6331
▁riqa	-6332
▁riča	-6333
▁riša	-6334
▁royƛ	-6335
▁rožƛ	-6336
▁sera	-6337
▁unti	-6338
▁utik	-6339
▁xedy	-6340
▁yadi	-6341
▁yays	-6342
▁yesa	-6343
▁yešn	-6344
▁yiqa	-6345
▁yoys	-6346
▁yäłi	-6347
▁zank	-6348
▁Łeno	-6349
▁Łiƛa	-6350
▁łuey	-6351
▁šayx	-6352
▁Žaza	-6353
▁Žubi	-6354
▁ƛexa	-6355
▁ɣudä	-6356
aderno	-6357
adäƛin	-6358
aganix	-6359
alamez	-6360
alameł	-6361
alisno	-6362
amanča	-6363
amaƛin	-6364
aniƛin	-6365
arawgo	-6366
awuses	-6367
azaqor	-6368
azałäy	-6369
aziyaw	-6370
ałerno	-6371
ašunoq	-6372
aʕaley	-6373
aʕatno	-6374
ecnosi	-6375
edixoz	-6376
elyoza	-6377
emotya	-6378
eynoda	-6379
eƛirno	-6380
gintow	-6381
gärinč	-6382
idoxor	-6383
ilawni	-6384
ilimoł	-6385
inabin	-6386
irusno	-6387
iräƛin	-6388
ixatow	-6389
iyoħor	-6390
iħiłno	-6391
iħomes	-6392
iłerno	-6393
išatyo	-6394
mʕalay	-6395
mʕalin	-6396
nayłin	-6397
oqosin	-6398
oraxno	-6399
axš	-6400
axƛ	-6401
eka	-6402
olo	-6403
uky	-6404
žek	-6405
▁äq	-6406
ayru	-6407
onax	-6408
orek	-6409
oyoƛ	-6410
taza	-6411
yasi	-6412
ɣort	-6413
▁bax	-6414
▁dah	-6415
▁gaƛ	-6416
▁ħay	-6417
axƛäz	-6418
ukgon	-6419
ʕogxo	-6420
▁Ozno	-6421
▁aɣiq	-6422
▁bero	-6423
▁elas	-6424
▁elaƛ	-6425
▁eläy	-6426
▁etis	-6427
▁mowt	-6428
▁uyra	-6429
▁xand	-6430
▁łono	-6431
alamzo	-6432
awusno	-6433
axšizi	-6434
azaqar	-6435
azaƛin	-6436
bintow	-6437
oržizi	-6438
osigon	-6439
ositow	-6440
osiƛin	-6441
oxerno	-6442
oyoƛin	-6443
ozaqor	-6444
ozonis	-6445
ołatow	-6446
oʕɣqay	-6447
rnokin	-6448
rnoƛin	-6449
ubaraw	-6450
udegon	-6451
uderno	-6452
ulaɣor	-6453
umerno	-6454
umäɣor	-6455
unoqay	-6456
uqerno	-6457
uranir	-6458
utanno	-6459
uytown	-6460
ułäysi	-6461
ułäƛin	-6462
wadmoƛ	-6463
wʕadin	-6464
xorkin	-6465
zasƛin	-6466
äqruni	-6467
äsiƛax	-6468
łäsiwa	-6469
ʕanosi	-6470
ʕimkin	-6471
ʕimłer	-6472
ʕinosi	-6473
ʕułäsi	-6474
▁Bełis	-6475
▁Bišad	-6476
▁Bišan	-6477
▁Bukar	-6478
▁Bužzi	-6479
▁Bʕeƛo	-6480
▁Cimno	-6481
▁Cuƛer	-6482
▁Debex	-6483
▁Guluč	-6484
▁Ixdax	-6485
▁Kinaw	-6486
▁Kusas	-6487
▁Mekoq	-6488
▁Mežuz	-6489
▁Migon	-6490
▁Musaz	-6491
▁Nesan	-6492
▁Qacan	-6493
▁Režet	-6494
▁Reɣet	-6495
▁Risno	-6496
▁Rišno	-6497
▁Ruysi	-6498
▁Siden	-6499
imä	-6500
iƛu	-6501
oxƛ	-6502
reč	-6503
udƛ	-6504
šiƛ	-6505
ʕiƛ	-6506
ager	-6507
ariƛ	-6508
ayär	-6509
ałiƛ	-6510
etir	-6511
oqax	-6512
oxsi	-6513
ołiƛ	-6514
udan	-6515
udaƛ	-6516
wanɣ	-6517
žiru	-6518
▁Aɣi	-6519
▁Buk	-6520
▁Qem	-6521
▁eɣe	-6522
ankan	-6523
irubi	-6524
onosi	-6525
oyode	-6526
uhtan	-6527
unizi	-6528
urqor	-6529
zogon	-6530
▁Ešiƛ	-6531
▁Ižin	-6532
▁Qema	-6533
▁Riƛu	-6534
▁iyoł	-6535
▁meza	-6536
▁qʕal	-6537
▁raht	-6538
▁riłu	-6539
oxorno	-6540
uzaxar	-6541
xanuce	-6542
ɣanƛin	-6543
▁Metir	-6544
▁Tełäy	-6545
▁Xalum	-6546
▁Xande	-6547
▁Xexza	-6548
▁Yiłaƛ	-6549
▁aciru	-6550
▁acmox	-6551
▁adäsi	-6552
▁aqinč	-6553
▁asasi	-6554
▁axiru	-6555
▁babiƛ	-6556
▁bacin	-6557
▁baɣwʕ	-6558
▁beroz	-6559
▁bełin	-6560
▁bełiz	-6561
▁bežen	-6562
▁bežin	-6563
▁bigin	-6564
▁bisan	-6565
▁bixił	-6566
▁biłen	-6567
▁biłis	-6568
▁bišer	-6569
▁bišod	-6570
▁bižiƛ	-6571
▁bokon	-6572
▁boƛor	-6573
▁boɣsi	-6574
▁bäxur	-6575
▁bʕaɣʕ	-6576
▁caƛač	-6577
▁cigon	-6578
▁ciqor	-6579
▁daqay	-6580
▁daram	-6581
▁digon	-6582
▁dowqo	-6583
▁däzoƛ	-6584
▁egirƛ	-6585
▁erayä	-6586
▁esayn	-6587
▁gulur	-6588
▁gwanɣ	-6589
▁hiboq	-6590
▁hulon	-6591
▁huniƛ	-6592
▁iłnon	-6593
▁karno	-6594
▁kecač	-6595
▁keran	-6596
▁keroq	-6597
▁kesun	-6598
▁kidwa	-6599
amƛ	-6600
azä	-6601
aša	-6602
emä	-6603
uħƛ	-6604
ʕaz	-6605
▁Že	-6606
abar	-6607
abno	-6608
agix	-6609
bigu	-6610
dada	-6611
emiƛ	-6612
oxaz	-6613
usaq	-6614
▁Aɣä	-6615
▁Biƛ	-6616
▁Boy	-6617
▁Bud	-6618
▁ico	-6619
amaša	-6620
iqgon	-6621
ruxay	-6622
umqor	-6623
wanix	-6624
zoniƛ	-6625
ʕurqo	-6626
▁Guħƛ	-6627
▁adek	-6628
▁cemä	-6629
▁ičiƛ	-6630
▁qʕaħ	-6631
▁zeyq	-6632
eytown	-6633
iriłno	-6634
iħoxaz	-6635
ometra	-6636
oqaqay	-6637
oƛƛozo	-6638
ʕunzon	-6639
▁Xabar	-6640
▁aɣʕux	-6641
▁bičan	-6642
▁kobor	-6643
▁kosin	-6644
▁kusaq	-6645
▁landi	-6646
▁madał	-6647
▁mazaħ	-6648
▁mecqo	-6649
▁mekwa	-6650
▁mečox	-6651
▁mešor	-6652
▁mežay	-6653
▁misal	-6654
▁moƛaq	-6655
▁musoƛ	-6656
▁nełax	-6657
▁neƛač	-6658
▁ozyor	-6659
▁ozzas	-6660
▁ozzał	-6661
▁paraq	-6662
▁pulaw	-6663
▁quluq	-6664
▁qunno	-6665
▁qʕayn	-6666
▁qʕayä	-6667
▁qʕaƛa	-6668
▁rasgi	-6669
▁rayno	-6670
▁raħat	-6671
▁raɣin	-6672
▁recun	-6673
▁regis	-6674
▁regix	-6675
▁rekuł	-6676
▁rešak	-6677
▁ricis	-6678
▁rixoƛ	-6679
▁riħan	-6680
▁riƛin	-6681
▁rodix	-6682
▁rodił	-6683
▁rowan	-6684
▁roƛon	-6685
▁roɣsi	-6686
▁räsič	-6687
▁siden	-6688
▁sideł	-6689
▁sideƛ	-6690
▁sisno	-6691
▁sissi	-6692
▁taqʕo	-6693
▁tarbi	-6694
▁teqsi	-6695
▁teƛan	-6696
▁teƛxa	-6697
▁tupis	-6698
▁ukayy	-6699
enč	-6700
zis	-6701
ʕap	-6702
ezno	-6703
oqus	-6704
urez	-6705
uruq	-6706
usur	-6707
uħqo	-6708
ärza	-6709
▁Hob	-6710
▁buł	-6711
▁ozy	-6712
▁qeq	-6713
▁ħuł	-6714
▁šul	-6715
▁ƛäƛ	-6716
zinan	-6717
ʕerxo	-6718
ʕidat	-6719
▁Xexo	-6720
▁axoł	-6721
▁bayƛ	-6722
▁ises	-6723
▁qeqa	-6724
▁rʕoq	-6725
▁ɣira	-6726
aniƛax	-6727
ikogon	-6728
iqorno	-6729
izaxay	-6730
orolan	-6731
äƛruni	-6732
▁Akbar	-6733
▁Hobol	-6734
▁Izäsi	-6735
▁Kurno	-6736
▁bexad	-6737
▁bixiq	-6738
▁biħin	-6739
▁busur	-6740
▁režin	-6741
▁tutur	-6742
▁ukrus	-6743
▁urɣiz	-6744
▁xalno	-6745
▁xazin	-6746
▁xedyo	-6747
▁xirno	-6748
▁xiyan	-6749
▁xizok	-6750
▁xizäy	-6751
▁xuxin	-6752
▁yawno	-6753
▁yexar	-6754
▁yiqir	-6755
▁yitin	-6756
▁yizaq	-6757
▁yiħan	-6758
▁yiłen	-6759
▁yodix	-6760
▁yogun	-6761
▁yoqsi	-6762
▁yowan	-6763
▁yowač	-6764
▁yoynč	-6765
▁yoƛäk	-6766
▁yoƛƛi	-6767
▁zerun	-6768
▁zudäy	-6769
▁äruni	-6770
▁äyƛin	-6771
▁äziru	-6772
▁äzuno	-6773
▁ħalal	-6774
▁ħamay	-6775
▁ħaƛux	-6776
▁ħirar	-6777
▁ħošan	-6778
▁ħošis	-6779
▁ħurno	-6780
▁ħuħqo	-6781
▁łacqo	-6782
▁łinas	-6783
▁łiyän	-6784
▁łoħra	-6785
▁łäxay	-6786
▁šešoƛ	-6787
▁šidaƛ	-6788
▁šilaƛ	-6789
▁šomon	-6790
▁šudbi	-6791
▁Žedaq	-6792
▁Žoyän	-6793
▁žatow	-6794
▁žoyän	-6795
▁ɣalat	-6796
▁ɣuros	-6797
▁ɣways	-6798
▁ɣʕaɣʕ	-6799
dat	-6800
luƛ	-6801
uƛa	-6802
wat	-6803
ecač	-6804
ozoł	-6805
runä	-6806
udoz	-6807
uƛax	-6808
zoce	-6809
▁Esa	-6810
▁ede	-6811
▁kil	-6812
▁čok	-6813
arzay	-6814
datbi	-6815
ikxor	-6816
kodin	-6817
oqnäy	-6818
oxnäy	-6819
oƛxor	-6820
ulhut	-6821
ʕuƛas	-6822
▁Asaq	-6823
▁Dowƛ	-6824
▁exor	-6825
▁geni	-6826
▁idäy	-6827
▁igot	-6828
▁iłen	-6829
▁rodä	-6830
▁łoxt	-6831
▁łuƛa	-6832
ahalno	-6833
amaler	-6834
inoƛin	-6835
uħxaza	-6836
▁Kusar	-6837
▁Xecač	-6838
▁bayno	-6839
▁bayär	-6840
▁bʕaƛo	-6841
▁iħada	-6842
▁laɣbi	-6843
▁riris	-6844
▁rižun	-6845
▁royxo	-6846
▁räsno	-6847
▁ukruƛ	-6848
▁ziyan	-6849
▁ziyas	-6850
▁žedux	-6851
▁ʕAnsa	-6852
▁ʕoƛoz	-6853
adałxor	-6854
amusyoq	-6855
andäɣor	-6856
anyaɣor	-6857
aqʕułno	-6858
araʕyor	-6859
arbiłun	-6860
ardagin	-6861
asiruni	-6862
atyabin	-6863
aymozaƛ	-6864
ayzoniq	-6865
azaytow	-6866
aƛäytow	-6867
bitowwa	-6868
bišanix	-6869
cinoƛin	-6870
ezunosi	-6871
ełayzał	-6872
ełnoanu	-6873
ešonayƛ	-6874
ineyƛin	-6875
irxotow	-6876
iräytow	-6877
izazgon	-6878
iħodyos	-6879
iłsiƛin	-6880
iƛingon	-6881
nosigon	-6882
odinosi	-6883
omƛerce	-6884
ornotow	-6885
orolayq	-6886
oxturno	-6887
oxxoƛin	-6888
oƛixosi	-6889
rułiƛin	-6890
sinigon	-6891
uhalłiq	-6892
ukarƛin	-6893
ukyabin	-6894
ukyorno	-6895
uliłäsi	-6896
urqixor	-6897
urumsaq	-6898
uħarawn	-6899
ʕił	-6900
▁Ya	-6901
▁äc	-6902
▁ät	-6903
imar	-6904
imay	-6905
iłiƛ	-6906
iłsi	-6907
▁Eƛa	-6908
▁Hag	-6909
▁Yał	-6910
▁kiʕ	-6911
▁urq	-6912
egmus	-6913
iłzaƛ	-6914
laƛin	-6915
▁Elon	-6916
▁ayan	-6917
▁besw	-6918
▁diyä	-6919
▁etin	-6920
▁mect	-6921
▁neƛƛ	-6922
▁niga	-6923
▁šayt	-6924
▁šuda	-6925
▁ɣunä	-6926
ožatow	-6927
ʕuxosi	-6928
▁Debin	-6929
▁Digon	-6930
▁kiʕan	-6931
▁nesäq	-6932
▁oqnon	-6933
▁rigłi	-6934
▁roƛor	-6935
▁tełno	-6936
▁xecan	-6937
▁yizix	-6938
▁yiłał	-6939
▁zirus	-6940
▁ħiroƛ	-6941
▁ħobon	-6942
akanyar	-6943
owlotow	-6944
xosinin	-6945
xowaƛin	-6946
zoxosin	-6947
äxuruni	-6948
äłruƛin	-6949
ʕanogon	-6950
ʕidarno	-6951
ʕoniqor	-6952
ʕuyaniƛ	-6953
ʕuyasin	-6954
ʕułnowa	-6955
▁Akiłno	-6956
▁Aždaħa	-6957
▁Aždaħƛ	-6958
▁Baydan	-6959
▁Biƛira	-6960
▁Bukayx	-6961
▁Butnoƛ	-6962
▁Ciqqor	-6963
▁Elorno	-6964
▁Hudäyz	-6965
▁Izirno	-6966
▁Kidbes	-6967
▁Magalu	-6968
▁Nedurä	-6969
▁Nełdäy	-6970
▁Qʕašiƛ	-6971
▁Radiru	-6972
▁Riqixa	-6973
▁Sideni	-6974
▁Tełtow	-6975
▁Tungin	-6976
▁Yeduyä	-6977
▁Yiziri	-6978
▁adäzan	-6979
▁ahlimo	-6980
▁akizax	-6981
▁aqäƛin	-6982
▁aynƛax	-6983
▁ayxƛin	-6984
▁aħinno	-6985
▁aħirno	-6986
▁aħnayƛ	-6987
▁ašunin	-6988
▁ažoqay	-6989
▁aɣixor	-6990
▁batiru	-6991
▁batiza	-6992
▁baɣman	-6993
▁baɣmay	-6994
▁baɣmox	-6995
▁biguni	-6996
▁bikyos	-6997
▁biqirƛ	-6998
▁bitaza	-6999
iša	-7000
▁Aƛ	-7001
kinä	-7002
omon	-7003
uqan	-7004
▁Min	-7005
▁Ret	-7006
▁Yet	-7007
▁iža	-7008
▁yak	-7009
▁Ħaš	-7010
ałazi	-7011
noƛax	-7012
▁Okur	-7013
▁buħi	-7014
▁gali	-7015
▁nexł	-7016
▁piša	-7017
▁ritä	-7018
▁ʕEze	-7019
mʕalär	-7020
oräysi	-7021
unoxor	-7022
urerno	-7023
▁Beɣet	-7024
▁Miƛin	-7025
▁biziƛ	-7026
▁bičas	-7027
▁däzoq	-7028
▁guluq	-7029
▁mežił	-7030
▁qoqbi	-7031
▁reƛiƛ	-7032
▁xecis	-7033
▁ħalno	-7034
▁łiƛin	-7035
▁Šomon	-7036
▁žakin	-7037
▁žasno	-7038
▁ɣuden	-7039
▁ɣudir	-7040
▁ɣudiƛ	-7041
▁ɣudod	-7042
amaligo	-7043
ernoƛin	-7044
ewnoƛax	-7045
ranixno	-7046
uqanbin	-7047
uranƛin	-7048
▁Xizayn	-7049
▁Zeygon	-7050
▁ayruni	-7051
▁ašiłno	-7052
▁biyzaƛ	-7053
▁bizinč	-7054
▁bizira	-7055
▁bičira	-7056
▁boqace	-7057
▁boqali	-7058
▁bukada	-7059
▁bäčinč	-7060
▁bäčiza	-7061
▁bäžiru	-7062
▁caxinč	-7063
▁caxäsi	-7064
▁caƛiru	-7065
▁caƛiza	-7066
▁caƛäsi	-7067
▁ciqbin	-7068
▁ciqłer	-7069
▁daʕbał	-7070
▁deygon	-7071
▁dowqay	-7072
▁dowxor	-7073
▁dowƛer	-7074
▁egiran	-7075
▁egirsi	-7076
▁elozay	-7077
▁eloƛin	-7078
▁esirač	-7079
▁esizaƛ	-7080
▁esäƛin	-7081
▁etixoz	-7082
▁etizaq	-7083
▁exuƛin	-7084
▁ezunäy	-7085
▁ełuyax	-7086
▁ešurno	-7087
▁eženiq	-7088
▁eženir	-7089
▁eƛanix	-7090
▁eƛinäy	-7091
▁eƛiłin	-7092
▁eɣenin	-7093
▁eɣetow	-7094
▁ganbin	-7095
▁ganzaq	-7096
▁gugira	-7097
▁gugixt	-7098
▁guzqor	-7099
ago	-7100
umƛ	-7101
▁Iš	-7102
Nesi	-7103
adär	-7104
ično	-7105
umbi	-7106
umoƛ	-7107
warʕ	-7108
▁Dah	-7109
▁Rac	-7110
▁Raɣ	-7111
▁Ruq	-7112
▁Tup	-7113
▁hag	-7114
Nesir	-7115
adäza	-7116
nibin	-7117
noxay	-7118
▁Roƛƛ	-7119
▁aɣzo	-7120
▁boko	-7121
▁exux	-7122
▁eƛni	-7123
▁oɣan	-7124
▁xiri	-7125
aħinno	-7126
irxosi	-7127
iłxosi	-7128
salama	-7129
udagon	-7130
warʕel	-7131
▁Beqez	-7132
▁Išamt	-7133
▁Roɣno	-7134
▁Tupin	-7135
▁Yoɣno	-7136
▁acmoł	-7137
▁deyno	-7138
▁eniwł	-7139
▁madär	-7140
▁nično	-7141
▁žazas	-7142
oriłƛin	-7143
uxanuzo	-7144
▁Besura	-7145
▁Raɣäza	-7146
▁ayxosi	-7147
▁aždaħa	-7148
▁buqʕan	-7149
▁deytow	-7150
▁därtow	-7151
▁eƛoƛin	-7152
▁halizi	-7153
▁hedizi	-7154
▁hečker	-7155
▁howžäy	-7156
▁hunice	-7157
▁hunäsi	-7158
▁idäzay	-7159
▁igunir	-7160
▁insanƛ	-7161
▁iqirač	-7162
▁iyäƛin	-7163
▁iziłno	-7164
▁iłetow	-7165
▁išxosi	-7166
▁ižanir	-7167
▁kecnot	-7168
▁kidtow	-7169
▁kurali	-7170
▁liɣʕon	-7171
▁maħiza	-7172
▁mecrax	-7173
▁mekoda	-7174
▁mežzox	-7175
▁minnan	-7176
▁nartow	-7177
▁narčey	-7178
▁nediwt	-7179
▁nexinč	-7180
▁nexzaƛ	-7181
▁nexzey	-7182
▁nocubi	-7183
▁oynosi	-7184
▁ozuras	-7185
▁ozuriƛ	-7186
▁ozäɣor	-7187
▁oƛƛosi	-7188
▁paydax	-7189
▁pikruƛ	-7190
▁pʕaƛus	-7191
▁pʕaƛux	-7192
▁qidobi	-7193
▁qułgon	-7194
▁qułkin	-7195
▁qʕičin	-7196
▁qʕišon	-7197
▁radinč	-7198
▁regäru	-7199
▁Un	-7200
edos	-7201
oman	-7202
ozad	-7203
▁Meš	-7204
▁Qiƛ	-7205
▁Qun	-7206
▁Roc	-7207
amizi	-7208
aniza	-7209
aʕizi	-7210
imasi	-7211
zotow	-7212
▁Roƛo	-7213
▁ažoq	-7214
▁ažoz	-7215
▁ažru	-7216
▁bexa	-7217
▁qura	-7218
▁riža	-7219
▁utix	-7220
▁yiyn	-7221
cinƛin	-7222
edosni	-7223
ixaƛin	-7224
äziƛin	-7225
▁Eloza	-7226
▁Wazir	-7227
▁Yeɣen	-7228
▁Yizin	-7229
▁anuzo	-7230
▁becin	-7231
▁bexus	-7232
▁bixiz	-7233
▁bišin	-7234
▁bišxo	-7235
▁boqun	-7236
▁bʕula	-7237
▁cudin	-7238
▁darno	-7239
▁eloza	-7240
▁eniwz	-7241
▁mežas	-7242
▁mežaƛ	-7243
▁riłiq	-7244
▁roqʕu	-7245
▁tawak	-7246
▁ħonbi	-7247
▁šudno	-7248
▁žežun	-7249
azartow	-7250
izaxosi	-7251
▁Howłaƛ	-7252
▁Qunyox	-7253
▁Sisini	-7254
▁Yeɣenä	-7255
▁adabno	-7256
▁darƛin	-7257
▁hunäza	-7258
▁odoman	-7259
▁rečnoł	-7260
▁rešoni	-7261
▁rigzar	-7262
▁risrer	-7263
▁riyrxo	-7264
▁rišerƛ	-7265
▁rižäsi	-7266
▁rodinč	-7267
▁roqƛin	-7268
▁rosyoƛ	-7269
▁roxira	-7270
▁roynon	-7271
▁rožbin	-7272
▁roƛnin	-7273
▁roɣinč	-7274
▁ruqäsi	-7275
▁ruqʕsi	-7276
▁rätiza	-7277
▁rʕałay	-7278
▁sabrun	-7279
▁siryoz	-7280
▁tambiħ	-7281
▁tełtow	-7282
▁tungix	-7283
▁täqinč	-7284
▁utanix	-7285
▁užigon	-7286
▁užisno	-7287
▁užitow	-7288
▁waħaza	-7289
▁waħozo	-7290
▁waħƛin	-7291
▁xanbin	-7292
▁xanƛin	-7293
▁xiräsi	-7294
▁yadinč	-7295
▁yaqrus	-7296
▁yayrxo	-7297
▁yałzar	-7298
▁yexora	-7299
uša	-7300
äzo	-7301
ałäz	-7302
sanä	-7303
urzo	-7304
▁Exa	-7305
▁Ħak	-7306
▁Ħaž	-7307
▁Ħol	-7308
▁Ħur	-7309
▁Šew	-7310
▁šaš	-7311
Nełas	-7312
elmay	-7313
ilima	-7314
ilłin	-7315
▁Nasi	-7316
▁egix	-7317
▁kuša	-7318
▁xira	-7319
▁yiči	-7320
▁łina	-7321
irułin	-7322
odäɣor	-7323
▁Boƛƛi	-7324
▁Buciƛ	-7325
▁aħoyä	-7326
▁biłin	-7327
▁bokor	-7328
▁iduzo	-7329
▁ičira	-7330
▁neƛoƛ	-7331
▁qʕilo	-7332
▁saʕat	-7333
▁xecač	-7334
▁yiłde	-7335
▁yownč	-7336
▁ħažis	-7337
▁ħoyaƛ	-7338
▁łinan	-7339
edinosi	-7340
iroƛƛin	-7341
orolayz	-7342
▁Ceyqor	-7343
▁Kidiro	-7344
▁aħozir	-7345
▁buħima	-7346
▁egixwa	-7347
▁eniwde	-7348
▁howlor	-7349
▁insanä	-7350
▁nʕoƛas	-7351
▁reženi	-7352
▁riƛinč	-7353
▁rodasi	-7354
▁yexurƛ	-7355
▁yezura	-7356
▁yiguni	-7357
▁yiqinč	-7358
▁yisäsi	-7359
▁yizade	-7360
▁yičinč	-7361
▁yownäy	-7362
▁yoƛƛoz	-7363
▁yutäru	-7364
▁yxexoy	-7365
▁zawƛin	-7366
▁zigari	-7367
▁zowƛin	-7368
▁äqiƛin	-7369
▁äƛiruq	-7370
▁čantay	-7371
▁Ħaširu	-7372
▁Ħuržen	-7373
▁ħaywan	-7374
▁ħillan	-7375
▁ħoʕƛix	-7376
▁łelmay	-7377
▁łemuri	-7378
▁łoħran	-7379
▁łʕonot	-7380
▁łʕorän	-7381
▁šayxno	-7382
▁šebiey	-7383
▁šebint	-7384
▁šidqay	-7385
▁šomoƛa	-7386
▁žasgon	-7387
▁žukzar	-7388
▁ƛexunč	-7389
▁ƛexäsi	-7390
▁ƛʕebał	-7391
▁ƛʕebre	-7392
▁ɣalbac	-7393
▁ɣutkoƛ	-7394
▁ɣʕwayä	-7395
▁ʕAbdal	-7396
▁ʕAnsan	-7397
▁ʕIyayx	-7398
▁ʕOmoyn	-7399
očo	-7400
tuz	-7401
ayyä	-7402
elun	-7403
iyon	-7404
uzoq	-7405
ʕimä	-7406
▁boč	-7407
▁yoč	-7408
axyoƛ	-7409
elečo	-7410
luƛin	-7411
oƛočo	-7412
yoƛäy	-7413
ʕimez	-7414
ʕimoƛ	-7415
▁Ader	-7416
▁Diƛa	-7417
anigon	-7418
azader	-7419
aƛirun	-7420
iyorno	-7421
mʕaliƛ	-7422
odäsin	-7423
onibin	-7424
uƛinno	-7425
zaytow	-7426
▁Aqƛin	-7427
▁Yiłaz	-7428
▁Zirun	-7429
▁ciyon	-7430
▁guluz	-7431
▁mežuz	-7432
▁ozyoƛ	-7433
▁pelun	-7434
▁qotno	-7435
▁ragis	-7436
▁ričok	-7437
▁ruɣuƛ	-7438
▁räšru	-7439
▁ulkas	-7440
▁yayan	-7441
▁ziruq	-7442
▁ƛuƛin	-7443
elawzas	-7444
odorłiƛ	-7445
tutirno	-7446
▁Buħima	-7447
▁Ukayyä	-7448
▁Welečo	-7449
▁Xantuz	-7450
▁bazary	-7451
▁biƛira	-7452
▁debiya	-7453
▁dowdäy	-7454
▁eɣeniƛ	-7455
▁ičinäy	-7456
▁iłegon	-7457
▁käcrus	-7458
▁mesedä	-7459
▁neƛani	-7460
▁neƛčey	-7461
▁odäƛin	-7462
▁rocazo	-7463
▁xedyoƛ	-7464
▁yayzaƛ	-7465
▁ʕOƛira	-7466
▁ʕOƛnon	-7467
▁ʕansan	-7468
▁ʕantaw	-7469
▁ʕarzaƛ	-7470
▁ʕazart	-7471
▁ʕaƛnos	-7472
▁ʕoƛnot	-7473
adaqorno	-7474
aniqaysi	-7475
anƛintow	-7476
aqʕułenč	-7477
aqʕƛirxo	-7478
aramałäz	-7479
arašawni	-7480
axƛäzayn	-7481
betaxtow	-7482
ecenyayx	-7483
edixozos	-7484
ełxanuzo	-7485
idoxaɣor	-7486
inosigon	-7487
iqnotown	-7488
iquraɣor	-7489
ixozosno	-7490
oqaƛinno	-7491
oxäsigon	-7492
oƛäyrcen	-7493
towlizaƛ	-7494
ulaʕitow	-7495
uħarawni	-7496
waridƛin	-7497
warʕaraw	-7498
xanusiłi	-7499
iboƛ	-7500
igza	-7501
uxar	-7502
ʕunƛ	-7503
▁lam	-7504
▁łux	-7505
alaik	-7506
isdiz	-7507
iħono	-7508
razał	-7509
uxgon	-7510
ʕimqo	-7511
▁Bero	-7512
▁aceƛ	-7513
▁aɣes	-7514
▁aɣis	-7515
▁aɣił	-7516
▁biso	-7517
▁ceyq	-7518
▁ceyƛ	-7519
▁ciqł	-7520
▁iħan	-7521
▁iħiq	-7522
▁iħuq	-7523
▁rʕuƛ	-7524
▁zurm	-7525
▁äsin	-7526
▁Acxor	-7527
▁Bigza	-7528
▁Nesił	-7529
▁Nełäz	-7530
▁Rečuƛ	-7531
▁Walah	-7532
▁Yisiƛ	-7533
▁ayace	-7534
▁aɣʕun	-7535
▁bigut	-7536
▁bužin	-7537
▁ceyno	-7538
▁ceyqo	-7539
▁daqor	-7540
▁igozo	-7541
▁kuran	-7542
▁mežux	-7543
▁naħuz	-7544
▁rexar	-7545
▁roqux	-7546
▁walla	-7547
▁zahir	-7548
▁ħuruƛ	-7549
▁Łiboƛ	-7550
▁ɣodos	-7551
Maħamas	-7552
andaƛin	-7553
mxuxgon	-7554
ʕunerno	-7555
▁Babiwq	-7556
▁Babiwƛ	-7557
▁Neside	-7558
▁bašice	-7559
▁bʕeƛez	-7560
▁ceyqor	-7561
▁giħono	-7562
▁iħaɣor	-7563
▁malaik	-7564
▁nʕoƛaƛ	-7565
▁odinäy	-7566
▁raqrun	-7567
imyołxor	-7568
załäygon	-7569
äłruntow	-7570
ʕidasini	-7571
ʕogedtow	-7572
ʕutkaɣor	-7573
▁Bahadur	-7574
▁Beynoda	-7575
▁Bišanon	-7576
▁Boyxosi	-7577
▁Bukayxa	-7578
▁Bäziƛin	-7579
▁Deberno	-7580
▁Didurgo	-7581
▁Encetow	-7582
▁Eniwqno	-7583
▁Esanayn	-7584
▁Exunosi	-7585
▁Exurnäy	-7586
▁Goqiƛin	-7587
▁Guluzaƛ	-7588
▁Hisonax	-7589
▁Horoƛin	-7590
▁Howžiƛa	-7591
▁Hudunon	-7592
▁Hulaɣor	-7593
▁Kusaqor	-7594
▁Kusaxno	-7595
▁Kusaƛin	-7596
▁Maħazay	-7597
▁Mečołer	-7598
▁Nesider	-7599
beč	-7600
uwa	-7601
äwa	-7602
▁Cek	-7603
▁Ceƛ	-7604
▁Eže	-7605
▁Mač	-7606
▁Xot	-7607
▁ayär	-7608
▁ezux	-7609
▁igza	-7610
▁oqač	-7611
▁oqwa	-7612
▁oxix	-7613
▁raqä	-7614
▁raya	-7615
▁roƛo	-7616
▁teqa	-7617
▁yoxa	-7618
▁zeys	-7619
azaqay	-7620
▁Zozis	-7621
▁bezux	-7622
▁bixzi	-7623
▁elbon	-7624
▁hersi	-7625
▁igono	-7626
▁muɣno	-7627
▁raqza	-7628
▁rodač	-7629
▁užide	-7630
▁zeyes	-7631
▁zeyza	-7632
▁ħaƛis	-7633
▁ħaƛus	-7634
▁Žałäy	-7635
▁Žeduz	-7636
aqaygon	-7637
▁Nełqay	-7638
▁Telawä	-7639
▁baruwa	-7640
▁baruza	-7641
▁bezunč	-7642
▁elaqay	-7643
▁ezanix	-7644
▁hobolo	-7645
▁igaɣor	-7646
▁kurzaƛ	-7647
▁oƛixxo	-7648
▁rayrun	-7649
▁rexunč	-7650
▁rutinč	-7651
▁sabani	-7652
▁užiqay	-7653
▁yiłade	-7654
▁yiłqay	-7655
▁zeygon	-7656
ikayägon	-7657
▁Hemediw	-7658
▁Insanzo	-7659
▁Madaƛäz	-7660
▁Nełałäy	-7661
▁Oƛƛozon	-7662
▁Qazaqza	-7663
▁Rečuƛer	-7664
▁Sidakin	-7665
▁Sosigon	-7666
▁Suƛƛisi	-7667
▁Tawadin	-7668
▁Tawadix	-7669
▁Telawär	-7670
▁Xanerno	-7671
▁Xediyan	-7672
▁Yiziqor	-7673
▁Yiłagon	-7674
▁Yoƛƛozo	-7675
▁Ziragon	-7676
▁acxazay	-7677
▁adiruni	-7678
▁adäyzoƛ	-7679
▁ahlimos	-7680
▁akiłäza	-7681
▁asoqtow	-7682
▁asoƛxor	-7683
▁axwaɣor	-7684
▁aħyakin	-7685
▁aħyałer	-7686
▁aħyałäy	-7687
▁ašuƛäyd	-7688
▁aždaħer	-7689
▁aždaħez	-7690
▁aždaħeł	-7691
▁badirur	-7692
▁baruqay	-7693
▁barurno	-7694
▁baruzaƛ	-7695
▁bayanix	-7696
▁baynanu	-7697
▁baynƛin	-7698
▁bayruce	-7699
inot	-7700
ʕuru	-7701
▁Ist	-7702
▁ati	-7703
▁got	-7704
▁Šeƛ	-7705
urubi	-7706
ʕinäy	-7707
▁Waħa	-7708
▁akan	-7709
▁akiq	-7710
▁akiƛ	-7711
▁baša	-7712
▁riħo	-7713
▁ruħč	-7714
▁łiys	-7715
▁ƛiso	-7716
haryos	-7717
orabin	-7718
unigon	-7719
załxor	-7720
ʕimqon	-7721
▁Hudod	-7722
▁aqzay	-7723
▁aɣzaq	-7724
▁biqis	-7725
▁biqix	-7726
▁därƛa	-7727
▁laɣde	-7728
▁moƛan	-7729
▁riqar	-7730
▁yegin	-7731
▁łoxno	-7732
azaykin	-7733
ažarizi	-7734
ʕoƛirsi	-7735
▁boynäy	-7736
▁eɣeniq	-7737
▁guluyä	-7738
▁kecnäy	-7739
▁oqxanu	-7740
▁orezna	-7741
▁rigtow	-7742
▁riyäsi	-7743
▁ħurubi	-7744
▁łočyoƛ	-7745
▁ʕOmoyä	-7746
▁Asaqoza	-7747
▁Hemełaƛ	-7748
▁Idazayn	-7749
▁akiƛäza	-7750
▁aɣiqayn	-7751
▁baqruni	-7752
▁bayxanu	-7753
▁bašiqno	-7754
▁begärun	-7755
▁beqaɣor	-7756
▁besuros	-7757
▁bexaniƛ	-7758
▁bexurač	-7759
▁bexurna	-7760
▁bezuzaƛ	-7761
▁bečełin	-7762
▁bečnabi	-7763
▁bełiqun	-7764
▁bełiqur	-7765
▁bešnayx	-7766
▁bikores	-7767
▁biqäƛin	-7768
▁bisoƛin	-7769
▁bitazar	-7770
▁bitirno	-7771
▁bitirxo	-7772
▁bitorsi	-7773
▁bixiłer	-7774
▁biyxanu	-7775
▁bizirxo	-7776
▁bičanix	-7777
▁bičiłin	-7778
▁bokorno	-7779
▁boqxanu	-7780
▁bowsƛin	-7781
▁boxinäy	-7782
▁boxärno	-7783
▁boɣnayx	-7784
▁boɣnosi	-7785
▁bukaran	-7786
▁butanix	-7787
▁butizaƛ	-7788
▁butiƛin	-7789
▁bułirno	-7790
▁bäziƛin	-7791
▁caxruni	-7792
▁dadäɣor	-7793
▁debikin	-7794
▁debiƛin	-7795
▁dibirzo	-7796
▁dibirän	-7797
▁didiwƛa	-7798
▁didurƛa	-7799
odär	-7800
udär	-7801
unoz	-7802
▁bob	-7803
▁när	-7804
▁qoš	-7805
kinda	-7806
uħizi	-7807
ʕimär	-7808
ʕuriƛ	-7809
▁becä	-7810
▁dowz	-7811
▁enza	-7812
▁esär	-7813
▁izir	-7814
▁izis	-7815
▁yäži	-7816
▁yʕoƛ	-7817
azaxno	-7818
unosin	-7819
uratow	-7820
uħorno	-7821
ʕidasi	-7822
ʕidaza	-7823
▁Qʕaba	-7824
▁Xanłi	-7825
▁biqär	-7826
▁ciqär	-7827
▁dowzo	-7828
▁ixiwt	-7829
▁qalno	-7830
▁qemas	-7831
▁roqxa	-7832
▁ħonce	-7833
▁Xanqay	-7834
▁ašunoz	-7835
▁baɣinč	-7836
▁besura	-7837
▁boboru	-7838
▁izanix	-7839
▁yezunč	-7840
▁yiħixt	-7841
▁yäsƛin	-7842
▁zawruƛ	-7843
▁žatown	-7844
däɣorgon	-7845
orolaqor	-7846
▁Musader	-7847
▁akäzayn	-7848
▁bexursi	-7849
▁boƛƛäyr	-7850
▁dibirez	-7851
▁diwanno	-7852
▁dädäɣor	-7853
▁egärinč	-7854
▁egäruni	-7855
▁eluqƛin	-7856
▁elurtow	-7857
▁eniwder	-7858
▁eniwsno	-7859
▁eqäruni	-7860
▁ersiƛax	-7861
▁esinanu	-7862
▁esinƛax	-7863
▁esirinč	-7864
▁esirłin	-7865
▁esnazaz	-7866
▁esnazaƛ	-7867
▁esunosi	-7868
▁esurƛin	-7869
▁esäruni	-7870
▁exanƛin	-7871
▁exuntow	-7872
▁exunƛax	-7873
▁exuƛƛin	-7874
▁eynoynč	-7875
▁eƛinanu	-7876
▁eƛintow	-7877
▁eƛinłin	-7878
▁eƛixozo	-7879
▁gogaƛäz	-7880
▁gulubin	-7881
▁guluqor	-7882
▁guluƛay	-7883
▁guluƛno	-7884
▁guħxaza	-7885
▁halmaɣƛ	-7886
▁haqazay	-7887
▁haqoƛäy	-7888
▁harihun	-7889
▁heresin	-7890
▁hiboƛin	-7891
▁hoboyƛa	-7892
▁hokobin	-7893
▁hoqoƛno	-7894
▁hudukin	-7895
▁hudunon	-7896
▁hunixno	-7897
▁häqruni	-7898
▁igorkin	-7899
▁qep	-7900
▁Šap	-7901
riłno	-7902
ženir	-7903
▁Ceyn	-7904
▁Igza	-7905
▁baħa	-7906
▁nedu	-7907
▁yuti	-7908
▁Šapk	-7909
▁žedä	-7910
adaraw	-7911
azayzo	-7912
udoxor	-7913
▁Ditow	-7914
▁Kidno	-7915
▁Onoču	-7916
▁Užide	-7917
▁däłäy	-7918
▁esace	-7919
▁esäru	-7920
▁karač	-7921
▁kikoƛ	-7922
▁rawnč	-7923
▁reswa	-7924
▁retix	-7925
▁ukada	-7926
▁łelaw	-7927
▁łäsno	-7928
erxoƛin	-7929
ełnoƛin	-7930
waridaw	-7931
ʕunełno	-7932
▁Sistow	-7933
▁Tabuld	-7934
▁boƛƛäy	-7935
▁ceyłäy	-7936
▁howlay	-7937
▁qepƛix	-7938
▁rexayn	-7939
▁yegaru	-7940
▁yukada	-7941
▁zawzay	-7942
▁äsirur	-7943
▁ƛʕebaq	-7944
▁ƛʕebno	-7945
▁ʕarada	-7946
alamezni	-7947
▁Ečriłno	-7948
▁Yeženir	-7949
▁adäzgon	-7950
▁akiłace	-7951
▁baħirno	-7952
▁bižaraw	-7953
▁ciqłäza	-7954
▁esisƛin	-7955
▁etixosi	-7956
▁imadabi	-7957
▁inžitłi	-7958
▁iqinanu	-7959
▁ixiwtow	-7960
▁izixƛin	-7961
▁ičanƛin	-7962
▁ičinanu	-7963
▁ičixosi	-7964
▁iħäzoni	-7965
▁kamirno	-7966
▁kecanix	-7967
▁kecxosi	-7968
▁kikinäy	-7969
▁kikizaƛ	-7970
▁kikoƛin	-7971
▁kurerno	-7972
▁kuräƛin	-7973
▁lagiłäy	-7974
▁lamusno	-7975
▁lelabin	-7976
▁madaɣor	-7977
▁maħasin	-7978
▁mečołer	-7979
▁mežatow	-7980
▁mežaƛin	-7981
▁mežaɣor	-7982
▁mežikin	-7983
▁mežoxor	-7984
▁mežudäy	-7985
▁mežurno	-7986
▁mežärsi	-7987
▁micxirä	-7988
▁misikin	-7989
▁mogolar	-7990
▁mołirxo	-7991
▁moƛałäy	-7992
▁muhruza	-7993
▁muhubin	-7994
▁naibłin	-7995
▁neduräy	-7996
▁nesirsi	-7997
▁nesisno	-7998
▁nesizno	-7999
qʕin	-8000
uyey	-8001
▁Beš	-8002
▁gup	-8003
dinaw	-8004
▁Sidƛ	-8005
▁meka	-8006
yoztow	-8007
zaskin	-8008
ʕuyasi	-8009
▁Sidas	-8010
▁Sidaƛ	-8011
▁Sideƛ	-8012
▁bäšru	-8013
▁codix	-8014
▁erali	-8015
▁etali	-8016
▁iqʕin	-8017
▁oxira	-8018
▁rexur	-8019
▁ričär	-8020
▁roƛäx	-8021
▁sosit	-8022
▁yizas	-8023
▁yoqan	-8024
▁ziruł	-8025
girułin	-8026
roƛinno	-8027
ʕidakin	-8028
▁Ozyode	-8029
▁Sidqor	-8030
▁aħnada	-8031
▁bayrur	-8032
▁behila	-8033
▁bexurƛ	-8034
▁bižinč	-8035
▁debełi	-8036
▁imadun	-8037
▁nuʕbin	-8038
▁ozurin	-8039
▁qʕaƛis	-8040
▁qʕaƛix	-8041
▁rexada	-8042
▁risäru	-8043
▁xanzar	-8044
▁yoqnäy	-8045
▁yoqzaƛ	-8046
▁yowace	-8047
▁ƛirbar	-8048
▁Nełasno	-8049
▁Sasaqay	-8050
▁bexoräł	-8051
▁bezanix	-8052
▁bokobin	-8053
▁boƛƛozo	-8054
▁debezno	-8055
▁exurnäy	-8056
▁muhukin	-8057
▁nesizoq	-8058
▁nesiłäy	-8059
▁nesägon	-8060
▁nesätow	-8061
▁nesäƛin	-8062
▁nexełno	-8063
▁nexxosi	-8064
▁nexxozo	-8065
▁nełaqay	-8066
▁nełasgo	-8067
▁nełatow	-8068
▁nełałäy	-8069
▁nełdayn	-8070
▁neƛaniƛ	-8071
▁nukarer	-8072
▁nukarqo	-8073
▁odinƛin	-8074
▁oqanƛin	-8075
▁oqnoƛax	-8076
▁oreznin	-8077
▁oxisƛin	-8078
▁ozyołer	-8079
▁ozzałäy	-8080
▁qacisni	-8081
▁qalamär	-8082
▁qidozaq	-8083
▁qʕaysno	-8084
▁qʕayzno	-8085
▁qʕašdes	-8086
▁qʕaƛuma	-8087
▁radirur	-8088
▁ragäƛin	-8089
▁raqruce	-8090
▁raynanu	-8091
▁raynƛin	-8092
▁raysƛin	-8093
▁raziyaw	-8094
▁raħirxo	-8095
▁raładya	-8096
▁regirxo	-8097
▁rekarbi	-8098
▁resurno	-8099
esma	-8100
want	-8101
▁Siħ	-8102
asmar	-8103
ayrce	-8104
iräza	-8105
isini	-8106
oqozo	-8107
uräza	-8108
wanin	-8109
yozod	-8110
ʕałno	-8111
▁Biči	-8112
▁Rʕał	-8113
▁aman	-8114
▁hiba	-8115
▁rexw	-8116
ariłxo	-8117
duräza	-8118
iraniƛ	-8119
iłaniƛ	-8120
ortown	-8121
▁Daʕba	-8122
▁Maħix	-8123
▁Moƛaq	-8124
▁biħun	-8125
▁däqno	-8126
▁esunč	-8127
▁ezwan	-8128
▁habih	-8129
▁hibos	-8130
▁roysi	-8131
▁yaħno	-8132
▁zendi	-8133
▁ʕarza	-8134
ilawƛin	-8135
iresgon	-8136
isdiƛin	-8137
▁Bʕałno	-8138
▁adäzoƛ	-8139
▁amanat	-8140
▁baɣmaz	-8141
▁däqgon	-8142
▁däqkin	-8143
▁egiroƛ	-8144
▁iħixor	-8145
▁kecnon	-8146
▁kwanin	-8147
▁raxƛin	-8148
▁rigłin	-8149
▁royzaƛ	-8150
▁tełäza	-8151
▁yaqƛin	-8152
▁yesunč	-8153
▁ʕilmuƛ	-8154
išatyoce	-8155
orolader	-8156
▁Necetow	-8157
▁Riħoxaz	-8158
▁Rʕałayn	-8159
▁Siħirno	-8160
▁adäztow	-8161
▁bikorxo	-8162
▁egärƛin	-8163
▁esunanu	-8164
▁käkirus	-8165
▁nełader	-8166
▁rexarno	-8167
▁rexuzaƛ	-8168
▁reynoyr	-8169
▁rešnada	-8170
▁rešonin	-8171
▁reɣułxo	-8172
▁ricinäy	-8173
▁rigutow	-8174
▁riguƛay	-8175
▁riqanix	-8176
▁risxosi	-8177
▁risäƛin	-8178
▁riynosi	-8179
▁riyxƛin	-8180
▁ričirno	-8181
▁riłixor	-8182
▁rižinäy	-8183
▁riƛułno	-8184
▁rodinon	-8185
▁roqanix	-8186
▁roqxanu	-8187
▁roqxonč	-8188
▁roqʕuma	-8189
▁royxanu	-8190
▁royxozo	-8191
▁rukarxo	-8192
▁rutiran	-8193
▁ruɣutow	-8194
▁rätiƛin	-8195
▁sabaniƛ	-8196
▁sasaqay	-8197
▁sasiłno	-8198
▁saʕatya	-8199
äłza	-8200
▁Wey	-8201
▁sap	-8202
enyoc	-8203
▁Wʕał	-8204
▁biħn	-8205
▁mecu	-8206
ozałäy	-8207
ozaƛin	-8208
yorƛin	-8209
äłäƛin	-8210
▁Däzno	-8211
▁Ukrus	-8212
▁duʕan	-8213
▁esiro	-8214
▁esirä	-8215
▁išara	-8216
▁kučis	-8217
▁maħla	-8218
▁oɣʕno	-8219
▁resan	-8220
▁sossi	-8221
▁čanmo	-8222
▁šudał	-8223
▁ɣʕwak	-8224
enyocet	-8225
iličqor	-8226
ozałäyn	-8227
ʕaƛäłza	-8228
▁Kidber	-8229
▁akiqno	-8230
▁akäłru	-8231
▁babiyä	-8232
▁baqʕun	-8233
▁baruyä	-8234
▁bayran	-8235
▁bayrut	-8236
▁biħada	-8237
▁buhtan	-8238
▁däxtow	-8239
▁esiran	-8240
▁kwayär	-8241
▁riƛubi	-8242
▁xalmoƛ	-8243
▁yegäsi	-8244
▁yätiru	-8245
▁ziruyä	-8246
▁Šebiey	-8247
▁žarƛin	-8248
edaniłer	-8249
iħyorƛin	-8250
ʕunqorno	-8251
▁Umukusä	-8252
▁Yaynosi	-8253
▁bayrƛin	-8254
▁biħuƛin	-8255
▁elurƛin	-8256
▁gagalin	-8257
▁howloza	-8258
▁magalas	-8259
▁resatow	-8260
▁saparno	-8261
▁sidaɣar	-8262
▁sidenis	-8263
▁sipatno	-8264
▁siħirno	-8265
▁sodersi	-8266
▁tamanča	-8267
▁tarbiya	-8268
▁teqärur	-8269
▁teƛxozo	-8270
▁tuturłi	-8271
▁ukarƛin	-8272
▁untaraw	-8273
▁urɣelno	-8274
▁wazirbi	-8275
▁wazires	-8276
▁wʕałxor	-8277
▁xanägon	-8278
▁xecanix	-8279
▁xecaniƛ	-8280
▁xecirno	-8281
▁xediyan	-8282
▁xexbiya	-8283
▁xexoybi	-8284
▁xexoyza	-8285
▁xizoxno	-8286
▁yadiƛin	-8287
▁yayngon	-8288
▁yayrinč	-8289
▁yayruni	-8290
▁yaysƛax	-8291
▁yayäƛin	-8292
▁yałiƛin	-8293
▁yedakin	-8294
▁yegiran	-8295
▁yexunäy	-8296
▁yexuran	-8297
▁yexursi	-8298
▁yisiqay	-8299
iɣu	-8300
esiƛ	-8301
oxäƛ	-8302
wʕar	-8303
▁isw	-8304
▁Łäƛ	-8305
däzay	-8306
nesiƛ	-8307
▁Iħäy	-8308
▁axar	-8309
▁isxo	-8310
▁išxo	-8311
▁meši	-8312
▁risƛ	-8313
▁yiqi	-8314
▁ʕAlä	-8315
arizin	-8316
irersi	-8317
ohorza	-8318
▁axaza	-8319
▁axbin	-8320
▁bisxo	-8321
▁gugix	-8322
▁iswan	-8323
▁risxo	-8324
▁zeruy	-8325
▁žazar	-8326
▁ƛelez	-8327
arumƛin	-8328
ayxnoyä	-8329
wʕariłi	-8330
▁Mekoyx	-8331
▁Užizar	-8332
▁barude	-8333
▁bisinč	-8334
▁biszaƛ	-8335
▁ciqzaq	-8336
▁exunäy	-8337
▁gondaƛ	-8338
▁guzqay	-8339
▁howžan	-8340
▁moƛałt	-8341
▁onočar	-8342
▁qoqxor	-8343
▁risnäy	-8344
▁riszaƛ	-8345
▁risäsi	-8346
▁utiran	-8347
▁yayäru	-8348
▁yiqäsi	-8349
▁šudbin	-8350
▁žukanä	-8351
oxäƛirun	-8352
uzaqorno	-8353
▁Ozzałer	-8354
▁bisxosi	-8355
▁bižanix	-8356
▁bižirno	-8357
▁iswaqor	-8358
▁ižinanu	-8359
▁lamusaw	-8360
▁mežizoƛ	-8361
▁reynoyx	-8362
▁risoƛin	-8363
▁ukrułäy	-8364
▁yiqizaƛ	-8365
▁yisägon	-8366
▁yisäƛin	-8367
▁yitirłi	-8368
▁yiyxƛin	-8369
▁yizałäy	-8370
▁yizider	-8371
▁yizidäy	-8372
▁yizigon	-8373
▁yizixno	-8374
▁yizizaƛ	-8375
▁yiziƛer	-8376
▁yizuqor	-8377
▁yizärun	-8378
▁yizäƛin	-8379
▁yičinäy	-8380
▁yičäƛin	-8381
▁yiħinäy	-8382
▁yiħurxo	-8383
▁yiłader	-8384
▁yiłagon	-8385
▁yiłanix	-8386
▁yiłasno	-8387
▁yiłetow	-8388
▁yodoƛin	-8389
▁yoqacen	-8390
▁yoqäƛin	-8391
▁yownƛax	-8392
▁yowxanu	-8393
▁yutanix	-8394
▁yutirno	-8395
▁yäsuƛin	-8396
▁yäzurun	-8397
▁zawrułi	-8398
▁zigaraƛ	-8399
ärus	-8400
▁išƛ	-8401
▁Aħos	-8402
▁Esiƛ	-8403
▁Ozat	-8404
▁Yiłƛ	-8405
▁beqä	-8406
▁iqir	-8407
▁oqła	-8408
▁oƛƛo	-8409
▁uqʕo	-8410
ʕiryoƛ	-8411
▁Debeł	-8412
▁Debeƛ	-8413
▁Haraƛ	-8414
▁Täƛru	-8415
▁Yedan	-8416
▁Yisir	-8417
▁butna	-8418
▁hokon	-8419
▁iqinč	-8420
▁iqira	-8421
▁iłeda	-8422
▁iłewa	-8423
▁iłira	-8424
▁oxirƛ	-8425
▁rišxo	-8426
▁uqʕek	-8427
▁ħosno	-8428
▁ħoyos	-8429
akanyoł	-8430
edanayx	-8431
▁Yoqzaƛ	-8432
▁aħozix	-8433
▁beynod	-8434
▁ererno	-8435
▁esuzaƛ	-8436
▁iqizaƛ	-8437
▁izirxo	-8438
▁ičirxo	-8439
▁išanix	-8440
▁małiru	-8441
▁regira	-8442
▁yaqino	-8443
▁žukkin	-8444
▁ɣudzał	-8445
▁ʕAƛaza	-8446
▁atiruni	-8447
▁atixosi	-8448
▁bowäƛin	-8449
▁iłetown	-8450
▁oɣanƛin	-8451
▁regiroƛ	-8452
▁ričirxo	-8453
▁roɣełno	-8454
▁roɣoƛin	-8455
▁rutirxo	-8456
▁yaqruni	-8457
▁yoxärus	-8458
▁zirurno	-8459
▁äruntow	-8460
▁äƛinƛin	-8461
▁äƛiruce	-8462
▁čantasi	-8463
▁čardaħä	-8464
▁čuqerno	-8465
▁čuqʕäsi	-8466
▁Ħalarno	-8467
▁Ħasaner	-8468
▁Ħasanno	-8469
▁Ħažataw	-8470
▁Ħuseneł	-8471
▁Ħusenno	-8472
▁ħaduraw	-8473
▁ħalałno	-8474
▁ħalaƛin	-8475
▁ħaltown	-8476
▁ħažataw	-8477
▁ħaƛanir	-8478
▁ħaƛaƛin	-8479
▁ħaƛirxo	-8480
▁ħaƛoƛin	-8481
▁ħaƛunäy	-8482
▁ħaƛurno	-8483
▁ħaƛurun	-8484
▁ħaƛurxo	-8485
▁ħoʕoƛin	-8486
▁Łʕonoqu	-8487
▁ładäɣor	-8488
▁łenokin	-8489
▁łerakin	-8490
▁łeɣaniƛ	-8491
▁łeɣirno	-8492
▁łeɣirsi	-8493
▁łinaqor	-8494
▁łinałno	-8495
▁łiynƛax	-8496
▁łiysƛin	-8497
▁łiyxosi	-8498
▁łiyxƛin	-8499
oxƛa	-8500
äyƛa	-8501
▁era	-8502
xayzo	-8503
łunno	-8504
ʕaliz	-8505
▁Esan	-8506
▁Meɣu	-8507
▁caƛi	-8508
▁erxo	-8509
▁rowo	-8510
▁rowä	-8511
ʕuruni	-8512
▁Okude	-8513
▁ašuni	-8514
▁darun	-8515
▁qʕašo	-8516
▁ʕAƛor	-8517
▁Babiwr	-8518
▁Babiwł	-8519
▁Hudunč	-8520
▁akäzno	-8521
▁bexunč	-8522
▁bogmoƛ	-8523
▁bäsinč	-8524
▁kamäsi	-8525
▁mʕaliz	-8526
▁nʕoƛun	-8527
▁oxiƛin	-8528
▁qʕašin	-8529
▁rizäsi	-8530
▁riħada	-8531
▁riħunč	-8532
▁łiyran	-8533
▁Šebiƛa	-8534
▁šebiƛa	-8535
▁ƛäxunč	-8536
▁ɣʕwayƛ	-8537
▁Qʕišdäy	-8538
▁biguƛin	-8539
▁dibires	-8540
▁dibirqo	-8541
▁didurey	-8542
▁ersiƛin	-8543
▁ixdaxor	-8544
▁ixinabi	-8545
▁mužikin	-8546
▁qʕašder	-8547
▁rownosi	-8548
▁rowsƛin	-8549
▁yižoƛin	-8550
▁yowxƛin	-8551
▁čanyaza	-8552
▁łäyzaza	-8553
▁łäħorno	-8554
▁łäłäzay	-8555
▁Šebigon	-8556
▁šebinwa	-8557
▁šebičey	-8558
▁šešerxo	-8559
▁šilazan	-8560
▁šiširsi	-8561
▁šudaxor	-8562
▁šuliyaw	-8563
▁šäšiƛin	-8564
▁Žedaxay	-8565
▁Žeduder	-8566
▁Žedułäy	-8567
▁žadaɣor	-8568
▁žadäɣor	-8569
▁žanazał	-8570
▁žawabno	-8571
▁žazaqor	-8572
▁žedagon	-8573
▁žedurno	-8574
▁žežuqay	-8575
▁žežułäy	-8576
▁žukaniq	-8577
▁ƛexuzaƛ	-8578
▁ɣudełno	-8579
▁ɣunoxor	-8580
▁ɣuɣaymo	-8581
▁ɣʕutkay	-8582
▁ɣʕutkoq	-8583
▁ɣʕwadbi	-8584
▁ɣʕwaybi	-8585
▁ʕAƛoxar	-8586
▁ʕAƛoxor	-8587
▁ʕAƛtown	-8588
▁ʕUmares	-8589
▁ʕabdalƛ	-8590
▁ʕadadaw	-8591
▁ʕadalaw	-8592
▁ʕadalno	-8593
▁ʕadanłi	-8594
▁ʕagaraw	-8595
▁ʕagarłä	-8596
▁ʕalazan	-8597
▁ʕaƛatow	-8598
alamäzoni	-8599
uban	-8600
▁uti	-8601
ekayä	-8602
▁Uyno	-8603
▁Yeza	-8604
▁Zeyn	-8605
▁bäči	-8606
▁moła	-8607
▁naey	-8608
▁ocät	-8609
▁reka	-8610
▁utiƛ	-8611
▁yisa	-8612
▁čʕaƛ	-8613
▁Łiya	-8614
alägon	-8615
anizaz	-8616
iranił	-8617
ołäysi	-8618
▁Ceyez	-8619
▁Yeyno	-8620
▁Zirur	-8621
▁biguƛ	-8622
▁koyän	-8623
▁lagan	-8624
▁lagax	-8625
▁roƛƛi	-8626
▁teqra	-8627
▁waħaz	-8628
▁łiyra	-8629
▁ługon	-8630
▁ƛelza	-8631
mołäzay	-8632
xozołäy	-8633
▁Sidade	-8634
▁Sosiƛa	-8635
▁Yuyxor	-8636
▁asatow	-8637
▁berobi	-8638
▁bokobi	-8639
▁bukara	-8640
▁gander	-8641
▁guluči	-8642
▁moƛałä	-8643
▁zulmun	-8644
▁ƛelzas	-8645
▁ʕomoyq	-8646
ozołäysi	-8647
▁Aħyaƛin	-8648
▁Roƛxosi	-8649
▁aɣʕuroƛ	-8650
▁baqruce	-8651
▁baqrułi	-8652
▁bigełno	-8653
▁bukayxa	-8654
▁eɣwedin	-8655
▁ganiƛin	-8656
▁mołinäy	-8657
▁mołäƛin	-8658
▁muhuzaƛ	-8659
▁rečuƛer	-8660
▁ƛuzabin	-8661
▁ƛuzazaq	-8662
▁ɣʕulabi	-8663
▁ʕayibno	-8664
aniłnotow	-8665
ariłnoanu	-8666
ayxosiƛin	-8667
aɣʕiryabi	-8668
ecenyozaz	-8669
edanixƛin	-8670
erhanesno	-8671
ełxanaƛin	-8672
ikmałiłer	-8673
iranixgon	-8674
onyayxƛin	-8675
wariʕelno	-8676
äsianuƛin	-8677
žmarłäzay	-8678
ʕunaäƛiru	-8679
▁Adäztown	-8680
▁Ayruntow	-8681
▁Babiwqay	-8682
▁Babiwrno	-8683
▁Baħarayä	-8684
▁Bažarizi	-8685
▁Bercingo	-8686
▁Bełiquza	-8687
▁Bitazoni	-8688
▁Boƛƛogon	-8689
▁Bäxuruni	-8690
▁Cimyarno	-8691
▁Diwanyoƛ	-8692
▁Eludegon	-8693
▁Eniyagon	-8694
▁Habihanä	-8695
▁Halmaɣza	-8696
▁Hemełtow	-8697
▁Howžigoƛ	-8698
▁Hudaygon	-8699
uga	-8700
ugar	-8701
erxot	-8702
saqor	-8703
ʕorut	-8704
▁Asoq	-8705
▁Okuz	-8706
▁beca	-8707
▁iyyä	-8708
▁muri	-8709
▁yoda	-8710
bikori	-8711
icazał	-8712
łiqtow	-8713
▁Xexłi	-8714
▁becän	-8715
▁beɣen	-8716
▁ixina	-8717
▁lagis	-8718
▁lagiƛ	-8719
▁muroƛ	-8720
▁netäy	-8721
▁nucoł	-8722
▁nucoƛ	-8723
▁pečma	-8724
▁puħon	-8725
▁riyxa	-8726
▁ročno	-8727
alawniƛ	-8728
apekkin	-8729
ebedłiƛ	-8730
▁Okuƛin	-8731
▁axukin	-8732
▁becono	-8733
▁exurxo	-8734
▁eynoyn	-8735
▁igorsi	-8736
▁iynosi	-8737
▁iyxanu	-8738
▁iyxosi	-8739
▁mekwan	-8740
▁qʕabir	-8741
ʕurqotow	-8742
▁Elorgon	-8743
▁Kusagon	-8744
▁akamxor	-8745
▁becurno	-8746
▁biynanu	-8747
▁biħurxo	-8748
▁boqacet	-8749
▁esixozo	-8750
▁kecxozo	-8751
▁posukin	-8752
▁qalamez	-8753
▁qalamxo	-8754
▁qalamzo	-8755
▁risxozo	-8756
▁riħurxo	-8757
▁ročyabi	-8758
▁yaganix	-8759
▁ħažoƛin	-8760
▁ʕUmarqo	-8761
axrudinno	-8762
▁Boƛƛäɣor	-8763
▁Hunixozo	-8764
▁Ismaʕilƛ	-8765
▁Kaɣatyoƛ	-8766
▁Kidbägon	-8767
▁Moƛaxayn	-8768
▁Nediwtow	-8769
▁Nedurgon	-8770
▁Nesiqosi	-8771
▁Nesisgon	-8772
▁Netintow	-8773
▁Nexanƛin	-8774
▁Nełasgon	-8775
▁Nełqazay	-8776
▁Qʕišodes	-8777
▁Ramazanä	-8778
▁Ričiƛƛin	-8779
▁Rukarƛin	-8780
▁Sasaqaza	-8781
▁Sasaqgon	-8782
▁Sasiłace	-8783
▁Sasiłzaƛ	-8784
▁Sebixasi	-8785
▁Suƛƛitow	-8786
▁Umukusno	-8787
▁Wallaƛin	-8788
▁Xexzaqno	-8789
▁Xizazgon	-8790
▁Yaqʕułno	-8791
▁Yaqʕułäy	-8792
▁Yaqʕułƛa	-8793
▁Yałzatow	-8794
▁Yisisgon	-8795
▁Yiziqgon	-8796
▁Yoƛosini	-8797
▁Yoƛozoni	-8798
▁adäzagon	-8799
▁žäk	-8800
xozox	-8801
łacen	-8802
▁Adäy	-8803
▁Deyn	-8804
▁Užiq	-8805
▁yoƛa	-8806
imarsi	-8807
▁Elzox	-8808
▁bogno	-8809
▁mušno	-8810
▁ruqʕo	-8811
▁yetas	-8812
▁yoƛor	-8813
▁zigar	-8814
▁äčinč	-8815
▁žaxno	-8816
irduxän	-8817
odorłin	-8818
xozoxay	-8819
yołäysi	-8820
▁Akiƛer	-8821
▁Guluza	-8822
▁Maħaza	-8823
▁Raɣʕin	-8824
▁bownäy	-8825
▁mušimo	-8826
▁nełƛer	-8827
▁qemayä	-8828
▁ukarač	-8829
▁ukayyä	-8830
▁ukayza	-8831
▁yicäsi	-8832
▁yäziru	-8833
▁łinaƛa	-8834
▁łoxnon	-8835
▁ɣudest	-8836
▁ʕAdada	-8837
▁ʕadada	-8838
ohoresno	-8839
▁Esnazaq	-8840
▁beɣurxo	-8841
▁ceyesno	-8842
▁eluqgon	-8843
▁esiwqno	-8844
▁icingon	-8845
▁inkarno	-8846
▁iqärƛin	-8847
▁ičixozo	-8848
▁minutno	-8849
▁muradno	-8850
▁nazorno	-8851
▁nesidäy	-8852
▁nešurur	-8853
▁radirun	-8854
▁yisiłno	-8855
▁yiħoƛin	-8856
▁ħaƛunay	-8857
▁ɣunoƛer	-8858
▁Bahadurä	-8859
▁assalamu	-8860
▁ayäsiƛin	-8861
▁azbaryan	-8862
▁azirodoƛ	-8863
▁aħinoƛno	-8864
▁aħozizar	-8865
▁aždaħqay	-8866
▁aždaħqor	-8867
▁aždaħtow	-8868
▁babiwgon	-8869
▁babiwqno	-8870
▁babiwzno	-8871
▁badiruce	-8872
▁badiruni	-8873
▁bahadurä	-8874
▁batiruni	-8875
▁bayoƛƛin	-8876
▁bayrnosi	-8877
▁bayrxosi	-8878
▁bayäruni	-8879
▁baħarawx	-8880
▁baħarayz	-8881
▁baħarayƛ	-8882
▁baħarčiq	-8883
▁baħarčis	-8884
▁baħarčix	-8885
▁bašiłgon	-8886
▁becunosi	-8887
▁begirnon	-8888
▁begirnäy	-8889
▁begirzaƛ	-8890
▁bercinłi	-8891
▁besanƛin	-8892
▁besunanu	-8893
▁besuxƛax	-8894
▁betixosi	-8895
▁betunosi	-8896
▁bexuräsi	-8897
▁bečedawn	-8898
▁bečedawt	-8899
▁azu	-8900
aryar	-8901
ilawn	-8902
rułer	-8903
ʕaɣʕu	-8904
▁Bišƛ	-8905
▁bowx	-8906
▁nesa	-8907
▁odan	-8908
ilisno	-8909
nantow	-8910
▁Goqiq	-8911
▁Haqan	-8912
▁Kusan	-8913
▁Kusaq	-8914
▁däłer	-8915
▁lelno	-8916
▁narce	-8917
▁narey	-8918
▁narƛa	-8919
▁quqan	-8920
▁raħmu	-8921
▁raħno	-8922
▁rišan	-8923
▁yesus	-8924
▁yesux	-8925
▁ziyar	-8926
▁ħalic	-8927
▁ʕezen	-8928
odorawn	-8929
▁Därgon	-8930
▁bätiru	-8931
▁bäxuru	-8932
▁eluqor	-8933
▁quqäsi	-8934
▁raqʕru	-8935
▁raħira	-8936
▁yaħmoƛ	-8937
▁yäčiru	-8938
▁čarman	-8939
▁ħalica	-8940
orolagon	-8941
▁Begirno	-8942
▁Dibirän	-8943
▁Eniwrno	-8944
▁Haqoƛer	-8945
▁Hoboyƛa	-8946
▁Retinäy	-8947
▁ažomzas	-8948
▁aɣʕuxay	-8949
▁bełisno	-8950
▁bowanix	-8951
▁bäturun	-8952
▁caxxosi	-8953
▁ciqqosi	-8954
▁hokomeł	-8955
▁hokomxo	-8956
▁icisƛin	-8957
▁izirinč	-8958
▁lagiqor	-8959
▁mučaris	-8960
▁quqirxo	-8961
▁raħataw	-8962
▁reƛiłäy	-8963
▁rišanix	-8964
▁yayrƛin	-8965
▁ƛʕorłäy	-8966
▁Debertow	-8967
▁Sidadäza	-8968
▁bazaryar	-8969
▁baɣmaɣor	-8970
▁bečnaqay	-8971
▁bečnazaƛ	-8972
▁beɣusƛin	-8973
▁biqirinč	-8974
▁biqiräsi	-8975
▁biqiƛƛin	-8976
▁bissiƛin	-8977
▁bisxoƛin	-8978
▁bitirnäy	-8979
▁biyranix	-8980
▁bizanƛin	-8981
▁bizixƛax	-8982
▁bičärƛin	-8983
▁biħanayx	-8984
▁biħanayƛ	-8985
▁biħisƛin	-8986
▁biħusƛin	-8987
▁biłetown	-8988
▁bišroƛin	-8989
▁bižanƛin	-8990
▁biƛixosi	-8991
▁bodalini	-8992
▁boqanƛin	-8993
▁boqoƛƛin	-8994
▁boqsiƛax	-8995
▁boqsiƛin	-8996
▁boqxoƛax	-8997
▁boƛäxrun	-8998
▁boƛƛäɣor	-8999
Deyn	-9000
▁Ric	-9001
▁oɣƛ	-9002
ayɣat	-9003
isiyä	-9004
zazno	-9005
łimor	-9006
▁ayxa	-9007
▁ačit	-9008
▁yoyx	-9009
ilimay	-9010
imołäy	-9011
▁Iqira	-9012
▁Kecno	-9013
▁Maʕat	-9014
▁Mežur	-9015
▁Qʕayä	-9016
▁alžan	-9017
▁aɣzaz	-9018
▁bagin	-9019
▁kwayä	-9020
▁oɣłin	-9021
▁uyran	-9022
▁yagin	-9023
▁äxuru	-9024
aparyox	-9025
imorkin	-9026
irisini	-9027
yozałer	-9028
▁Qʕirič	-9029
▁Sayɣat	-9030
▁ayrinč	-9031
▁ayxana	-9032
▁bahana	-9033
▁däłtow	-9034
▁gondaz	-9035
▁iyrinč	-9036
▁iħuxay	-9037
▁iħułer	-9038
▁oɣoƛin	-9039
▁qazaqä	-9040
▁užizaz	-9041
▁ħamayn	-9042
▁łiyrxo	-9043
▁Žädgon	-9044
irħanzan	-9045
łimorƛin	-9046
ʕutkoxor	-9047
▁Dibirno	-9048
▁betinäy	-9049
▁biyrinč	-9050
▁božaraw	-9051
▁bʕałäyn	-9052
▁ešunanu	-9053
▁hisołäy	-9054
▁qazaqza	-9055
▁taqʕaza	-9056
▁yiqiłin	-9057
▁yodinäy	-9058
▁Ħasanes	-9059
▁ħamarno	-9060
▁ɣoɣoräk	-9061
▁Doxturza	-9062
▁Eɣenägon	-9063
▁Saparyox	-9064
▁baħarčir	-9065
▁bexaruni	-9066
▁bowwäƛin	-9067
▁budumqor	-9068
▁bukarera	-9069
▁bukaruni	-9070
▁bukarƛin	-9071
▁bukayłin	-9072
▁butirƛin	-9073
▁butniƛin	-9074
▁bäxuruni	-9075
▁bʕulamed	-9076
▁caxnoƛin	-9077
▁caƛinanu	-9078
▁caƛinƛin	-9079
▁caƛiruni	-9080
▁caƛixƛin	-9081
▁ciqaɣort	-9082
▁ciqełxor	-9083
▁ciqqorno	-9084
▁cucixace	-9085
▁dabaɣyos	-9086
▁daqorƛin	-9087
▁darsimoƛ	-9088
▁daruyabi	-9089
▁daʕbałer	-9090
▁daʕbaƛin	-9091
▁debeqkin	-9092
▁debinƛin	-9093
▁didiwgon	-9094
▁didiwkin	-9095
▁didurtow	-9096
▁dowderno	-9097
▁dowzoniƛ	-9098
▁doxturqo	-9099
zaxar	-9100
ʕakin	-9101
ʕiyor	-9102
▁Biša	-9103
▁Moƛa	-9104
▁Reže	-9105
▁ayro	-9106
▁irsi	-9107
▁šušo	-9108
▁ƛoħo	-9109
azaxar	-9110
inosin	-9111
osures	-9112
udanin	-9113
▁Barun	-9114
▁Barus	-9115
▁Baruƛ	-9116
▁Bišno	-9117
▁Madaħ	-9118
▁Mekos	-9119
▁Moƛał	-9120
▁Roƛik	-9121
▁Roƛno	-9122
▁Yedun	-9123
▁aħyaƛ	-9124
▁nʕoƛu	-9125
▁pureł	-9126
▁qurun	-9127
▁žiƛbo	-9128
▁ɣedun	-9129
▁ʕamal	-9130
irułäyn	-9131
isdider	-9132
umzałäy	-9133
▁Telawi	-9134
▁Wallah	-9135
▁aƛirun	-9136
▁beɣula	-9137
▁exuroƛ	-9138
▁iħuxor	-9139
▁purqay	-9140
▁tatuwa	-9141
▁utizaq	-9142
▁yäsuru	-9143
▁žiƛbon	-9144
▁ɣoɣoru	-9145
▁ɣʕuler	-9146
alamqosi	-9147
oƛixosin	-9148
ʕalimkin	-9149
▁Barusno	-9150
▁Esnazał	-9151
▁Neširun	-9152
▁Ozzałäy	-9153
▁Režigon	-9154
▁ažombin	-9155
▁bisanir	-9156
▁egirčey	-9157
▁heqnosi	-9158
▁moƛutow	-9159
▁mučarin	-9160
▁posures	-9161
▁resobin	-9162
▁rixerno	-9163
▁rodanił	-9164
▁sabanin	-9165
▁seranix	-9166
▁seroƛin	-9167
▁xizaynč	-9168
▁šušanix	-9169
▁šušoƛin	-9170
▁žedaqay	-9171
▁ƛäxurun	-9172
▁Didurgon	-9173
▁awarager	-9174
▁aħozider	-9175
▁doxturän	-9176
▁dunyales	-9177
▁dädertow	-9178
▁däderƛin	-9179
▁egirerno	-9180
▁egirxosi	-9181
▁elozagon	-9182
▁endurtow	-9183
▁eniwqayn	-9184
▁esaniqno	-9185
▁esirerno	-9186
▁esiräƛin	-9187
▁esnazade	-9188
▁exoriłno	-9189
▁ezurerno	-9190
▁gondaɣor	-9191
▁guginosi	-9192
▁gugirzaƛ	-9193
▁gugisƛin	-9194
▁gugixƛin	-9195
▁gwanɣizi	-9196
▁halmaɣes	-9197
▁hemedurt	-9198
▁henešyos	-9199
gula	-9200
uriyä	-9201
▁Aɣin	-9202
▁Beɣe	-9203
▁Miyä	-9204
▁ižis	-9205
▁osiy	-9206
aramäz	-9207
azanno	-9208
ikayär	-9209
ilawbi	-9210
umiqay	-9211
urambi	-9212
xorzoq	-9213
žisƛax	-9214
▁Daɣaw	-9215
▁Roƛxo	-9216
▁bežis	-9217
▁putce	-9218
▁rułir	-9219
▁ruɣuł	-9220
▁siħru	-9221
▁yuyoƛ	-9222
▁łaces	-9223
▁łacez	-9224
▁łacir	-9225
▁Šudaƛ	-9226
imatƛin	-9227
▁Heresi	-9228
▁cuƛert	-9229
▁mecreq	-9230
▁orezni	-9231
▁oynƛax	-9232
▁pʕaƛun	-9233
▁rułira	-9234
▁yexaru	-9235
▁łoħron	-9236
▁ʕantłi	-9237
qaranƛin	-9238
▁Raładno	-9239
▁bišomra	-9240
▁bogurno	-9241
▁boƛixsi	-9242
▁boƛäxru	-9243
▁egärułi	-9244
▁esiyqor	-9245
▁esnałin	-9246
▁mečołno	-9247
▁netitow	-9248
▁ruɣubin	-9249
▁xirerxo	-9250
▁yisiden	-9251
▁ʕiyaynč	-9252
▁Kidbazał	-9253
▁anuwaƛin	-9254
▁ayaniqor	-9255
▁azbaryoz	-9256
▁azbaryoł	-9257
▁bexusƛin	-9258
▁habihanä	-9259
▁haqarƛin	-9260
▁henešƛin	-9261
▁hersiqan	-9262
▁hohomłix	-9263
▁howdagon	-9264
▁howzałäy	-9265
▁howžiƛin	-9266
▁hudaygon	-9267
▁hunaryos	-9268
▁hunaryoƛ	-9269
▁hunixtow	-9270
▁hunärƛin	-9271
▁iduzasin	-9272
▁istowlix	-9273
▁iyxanusi	-9274
▁iħuxorno	-9275
▁iłäsiƛin	-9276
▁išanixno	-9277
▁kamiruni	-9278
▁kapekkin	-9279
▁kidbazaq	-9280
▁kidbazar	-9281
▁kidbazaƛ	-9282
▁kidbeden	-9283
▁kidbeqno	-9284
▁kidbezno	-9285
▁kidbeƛäy	-9286
▁kidbägon	-9287
▁kidbätow	-9288
▁kidnogon	-9289
▁kikxaɣor	-9290
▁kinawtow	-9291
▁kurnoanu	-9292
▁kursiƛin	-9293
▁kurxoƛin	-9294
▁käkirułi	-9295
▁madargon	-9296
▁madaxosi	-9297
▁madaxtow	-9298
▁mamalays	-9299
ulhun	-9300
▁hiƛu	-9301
▁imxa	-9302
▁rask	-9303
alʕizi	-9304
▁Dandi	-9305
▁Musał	-9306
▁budal	-9307
▁eƛiłi	-9308
▁hiƛun	-9309
▁maqiz	-9310
▁oƛixa	-9311
▁xuxiƛ	-9312
▁yaɣʕo	-9313
▁yoɣxo	-9314
▁ƛisix	-9315
▁ƛisiƛ	-9316
oniłinč	-9317
oniłƛin	-9318
uxanusi	-9319
ʕimakun	-9320
ʕonigon	-9321
▁Haqayn	-9322
▁Igaɣor	-9323
▁aħnays	-9324
▁eɣenän	-9325
▁hisonä	-9326
▁izäsin	-9327
▁kawubi	-9328
▁rasada	-9329
▁recura	-9330
▁xizaza	-9331
▁yaɣʕiƛ	-9332
▁yisinč	-9333
▁yoɣäsi	-9334
▁zahrun	-9335
▁šidaƛa	-9336
ačaɣʕƛin	-9337
oniłxosi	-9338
uganitow	-9339
▁askarno	-9340
▁axwarno	-9341
▁ačqʕayx	-9342
▁bayäsin	-9343
▁bečnayn	-9344
▁beɣetow	-9345
▁esärułi	-9346
▁geresni	-9347
▁hisonär	-9348
▁mogolxo	-9349
▁mäħorno	-9350
▁oƛixzaƛ	-9351
▁rayrace	-9352
▁rodäsin	-9353
▁xexzade	-9354
▁yawruni	-9355
▁yisoƛin	-9356
▁yoɣełno	-9357
▁ƛisiran	-9358
▁ʕOmoyza	-9359
moƛxorgon	-9360
▁Bʕeƛägon	-9361
▁Muħamadä	-9362
▁acmoqosi	-9363
▁boqnäyƛa	-9364
▁cedinƛax	-9365
▁eqernosi	-9366
▁kidbazas	-9367
▁mamalaył	-9368
▁maqʕixno	-9369
▁maxšelno	-9370
▁maydanzo	-9371
▁maħorƛin	-9372
▁maʕdinaw	-9373
▁maʕnatow	-9374
▁mesedyoz	-9375
▁mesedyoƛ	-9376
▁mesedƛin	-9377
▁mešinƛin	-9378
▁mežurƛin	-9379
▁mežustow	-9380
▁mežusƛin	-9381
▁močitown	-9382
▁mołixosi	-9383
▁mołixozo	-9384
▁moƛałtow	-9385
▁muradƛin	-9386
▁musrabin	-9387
▁muʕalimä	-9388
▁nasintow	-9389
▁naysinän	-9390
▁nesirƛin	-9391
▁nesisƛin	-9392
▁nesiztow	-9393
▁netayrce	-9394
▁nexnogon	-9395
▁nełasƛin	-9396
▁nełałgon	-9397
▁nełałtow	-9398
▁nełdaɣor	-9399
bʕaɣ	-9400
▁oƛi	-9401
bʕaɣu	-9402
olowä	-9403
šnoyx	-9404
▁Buħi	-9405
▁Esiw	-9406
▁Užiz	-9407
▁ariƛ	-9408
▁ruyä	-9409
▁wele	-9410
agiqay	-9411
oquqno	-9412
ułersi	-9413
ʕutkun	-9414
▁Aɣzas	-9415
▁Ciqez	-9416
▁Etali	-9417
▁Ričiƛ	-9418
▁Ziruq	-9419
▁Ziyan	-9420
▁aqʕun	-9421
▁aqʕza	-9422
▁boxix	-9423
▁iħurƛ	-9424
▁kosiƛ	-9425
▁nucin	-9426
▁raɣiƛ	-9427
▁raɣru	-9428
▁čolow	-9429
▁ħolaq	-9430
▁łasey	-9431
▁žaƛer	-9432
naynƛin	-9433
oxäygon	-9434
ʕonägon	-9435
ʕuyazix	-9436
▁Aħugon	-9437
▁Ciqqay	-9438
▁bažari	-9439
▁eqräsi	-9440
▁eženiz	-9441
▁howłaƛ	-9442
▁kodyox	-9443
▁käczar	-9444
▁maħlay	-9445
▁mežusä	-9446
▁močiƛa	-9447
▁täqrun	-9448
▁xäcinč	-9449
▁yizace	-9450
▁ahlimor	-9451
▁bašiqay	-9452
▁bešnoyx	-9453
▁boxäƛin	-9454
▁ečriłno	-9455
▁kawumox	-9456
▁moƛugon	-9457
▁oƛosini	-9458
▁partalq	-9459
▁riyräsi	-9460
▁roqacet	-9461
▁räqiƛin	-9462
▁waranin	-9463
▁xäciƛin	-9464
▁ħoyäɣor	-9465
urqʕotown	-9466
ʕutkazoni	-9467
▁Aħmadqor	-9468
▁Aħmadƛin	-9469
▁Mirzaƛin	-9470
▁Nesiztow	-9471
▁akiłäsin	-9472
▁beginanu	-9473
▁besuroqu	-9474
▁caxnoanu	-9475
▁iħuxaɣor	-9476
▁maħlarno	-9477
▁nexxoƛax	-9478
▁nełdegon	-9479
▁nełzaqay	-9480
▁neƛsiƛin	-9481
▁neƛxoƛax	-9482
▁neƛłikin	-9483
▁nigaɣʕič	-9484
▁nucosgon	-9485
▁nukarqor	-9486
▁nukarzaq	-9487
▁nukarzar	-9488
▁nukarzaz	-9489
▁nukarłun	-9490
▁nʕoƛugon	-9491
▁oqnäyƛin	-9492
▁oreznabi	-9493
▁oynäyƛin	-9494
▁ozurazaq	-9495
▁ozurazaƛ	-9496
▁oƛixnosi	-9497
▁pakmosni	-9498
▁pandurya	-9499
...	-9500
▁Anƛ	-9501
izirä	-9502
ʕuban	-9503
ʕurin	-9504
▁Däde	-9505
▁kuča	-9506
▁suƛi	-9507
ičurin	-9508
oliƛäy	-9509
omexno	-9510
ulaʕin	-9511
wadmay	-9512
▁Däxor	-9513
▁Eƛnin	-9514
▁Roƛƛo	-9515
▁Yoƛƛo	-9516
▁bałgo	-9517
▁gibaq	-9518
▁hawan	-9519
▁hozuƛ	-9520
▁kučin	-9521
▁rožes	-9522
▁zebun	-9523
▁šemno	-9524
▁Žedaƛ	-9525
imoqgon	-9526
▁Exaniƛ	-9527
▁Siryoz	-9528
▁Wizirä	-9529
▁beginč	-9530
▁begäsi	-9531
▁bisxot	-9532
▁eqärun	-9533
▁esursi	-9534
▁gelmač	-9535
▁igoxxo	-9536
▁iyxƛin	-9537
▁kurzak	-9538
▁muɣbin	-9539
▁nełquł	-9540
▁näxinč	-9541
▁xanzoq	-9542
▁xanzoƛ	-9543
▁yecasi	-9544
▁yegäru	-9545
▁yetixa	-9546
▁yäčinč	-9547
ʕaniƛäyn	-9548
▁Däderno	-9549
▁Nazołno	-9550
▁nazołno	-9551
▁resułin	-9552
▁roƛixxo	-9553
▁ruzmanƛ	-9554
▁yecurno	-9555
▁yiłałno	-9556
▁yoysƛin	-9557
▁yäčizay	-9558
▁äsinƛin	-9559
▁ʕagarłi	-9560
▁ʕamołno	-9561
▁ʕaƛosno	-9562
▁ʕaƛołer	-9563
Bahadurer	-9564
Bahadurzo	-9565
warʕelyoƛ	-9566
▁Bišadyoƛ	-9567
▁Mamalayä	-9568
▁Ozatawni	-9569
▁maxsarno	-9570
▁pašmanno	-9571
▁pečmaɣor	-9572
▁pikrukin	-9573
▁pikruzał	-9574
▁purłäzan	-9575
▁putcegon	-9576
▁qacisgon	-9577
▁qazaqzas	-9578
▁qizanyor	-9579
▁qizanyos	-9580
▁qoqoƛinč	-9581
▁qʕabanin	-9582
▁qʕabaniƛ	-9583
▁qʕaƛoƛin	-9584
▁radinƛin	-9585
▁raqʕanix	-9586
▁raqʕyabi	-9587
▁rayrerno	-9588
▁rayrxosi	-9589
▁raħiräsi	-9590
▁raładyos	-9591
▁raɣʕoƛin	-9592
▁regirnäy	-9593
▁regärinč	-9594
▁rekarbin	-9595
▁reqenyoł	-9596
▁retisƛax	-9597
▁retixanu	-9598
▁rexałxor	-9599
epaw	-9600
▁Rät	-9601
mʕali	-9602
▁Waħħo	-9603
▁adäyt	-9604
▁haxar	-9605
▁kepaw	-9606
▁waħħo	-9607
aqaɣort	-9608
asmaɣor	-9609
▁ažomzo	-9610
▁elułsi	-9611
▁eqärza	-9612
▁nełdär	-9613
▁rexora	-9614
▁łʕorat	-9615
▁žirbał	-9616
▁Magalun	-9617
▁Qacisni	-9618
▁Roƛiqur	-9619
▁Rätiƛin	-9620
▁balahno	-9621
▁baɣmart	-9622
▁bexarur	-9623
▁beynoyx	-9624
▁daruyar	-9625
▁eniwsni	-9626
▁kawumoz	-9627
▁oreznar	-9628
▁qartayä	-9629
▁qʕodaza	-9630
▁soderno	-9631
▁yiynanu	-9632
▁yiyxosi	-9633
▁ħaramaw	-9634
▁łiłiroł	-9635
▁ɣwʕadan	-9636
▁ʕaƛozał	-9637
ʕunzontow	-9638
▁Azbaryoz	-9639
▁Umukusez	-9640
▁Xedyosni	-9641
▁Yizirabi	-9642
▁aħoderno	-9643
▁badinƛin	-9644
▁bažarizi	-9645
▁baɣʕizaƛ	-9646
▁eludeƛin	-9647
▁exasiƛin	-9648
▁ezuranix	-9649
▁igozatow	-9650
▁istowliƛ	-9651
▁kwaraħin	-9652
▁mamalayz	-9653
▁mešorłäy	-9654
▁qoqƛäƛin	-9655
▁rayrułäy	-9656
▁raħatyoƛ	-9657
▁rexorani	-9658
▁rexunƛin	-9659
▁rexurnäy	-9660
▁rezunosi	-9661
▁rezurinč	-9662
▁rečuƛgon	-9663
▁rečuƛxor	-9664
▁ricanƛin	-9665
▁rigintow	-9666
▁rigzaxay	-9667
▁riqanƛin	-9668
▁riqarzäy	-9669
▁riqinanu	-9670
▁riqinosi	-9671
▁riqixosi	-9672
▁riqixƛin	-9673
▁riynoxuq	-9674
▁riyranix	-9675
▁rizärinč	-9676
▁ričanƛin	-9677
▁ričiƛƛin	-9678
▁riħinosi	-9679
▁riłiqosi	-9680
▁rišerłin	-9681
▁rižanƛin	-9682
▁rižixosi	-9683
▁rižixƛin	-9684
▁riƛixoza	-9685
▁riƛixozo	-9686
▁rodisƛin	-9687
▁rodixanu	-9688
▁rodixosi	-9689
▁roqanƛin	-9690
▁roqnoanu	-9691
▁roqnoƛax	-9692
▁roƛixace	-9693
▁roƛixnäy	-9694
▁roƛxoƛin	-9695
▁roɣnoanu	-9696
▁roɣrerno	-9697
▁roɣxosin	-9698
▁rukaräsi	-9699
ulhu	-9700
uyax	-9701
▁Eɣw	-9702
▁owa	-9703
▁owo	-9704
▁oys	-9705
reran	-9706
łaraš	-9707
▁Araq	-9708
▁buɣa	-9709
▁hiɣa	-9710
▁iyač	-9711
▁kosa	-9712
▁oqčo	-9713
▁räxu	-9714
▁zulm	-9715
▁Ħalt	-9716
▁ħimu	-9717
anizas	-9718
▁Iłira	-9719
▁Iłnon	-9720
▁Nagon	-9721
▁Raqru	-9722
▁Wayčo	-9723
▁Xexoy	-9724
▁Yigza	-9725
▁asazo	-9726
▁buɣaz	-9727
▁hiɣar	-9728
▁hulin	-9729
▁koyiq	-9730
▁ozzäy	-9731
▁sirya	-9732
▁weeni	-9733
▁yigza	-9734
▁ħaħno	-9735
▁ħaħxo	-9736
▁ħimun	-9737
▁žiman	-9738
▁žimäy	-9739
▁ƛešun	-9740
▁ʕamoƛ	-9741
irełinč	-9742
uramxor	-9743
łarašaw	-9744
▁Ezuzaƛ	-9745
▁Eɣweni	-9746
▁Iqiran	-9747
▁Maryam	-9748
▁Osaxor	-9749
▁alžanä	-9750
▁atagon	-9751
▁bäciru	-9752
▁bäciza	-9753
▁cugumä	-9754
▁gagali	-9755
▁izirač	-9756
▁kosyar	-9757
▁wacłin	-9758
▁wacʕal	-9759
▁zirude	-9760
▁čerayx	-9761
▁Becawni	-9762
▁Bitaɣor	-9763
▁Dowqosi	-9764
▁Mežuqay	-9765
▁Qʕišdes	-9766
▁annabin	-9767
▁bešnada	-9768
▁edeʕizi	-9769
▁gagirun	-9770
▁iħanayn	-9771
▁kerozaq	-9772
▁koyiƛer	-9773
▁naynkin	-9774
▁osugani	-9775
▁raxiƛin	-9776
▁rečuxor	-9777
▁rizirłi	-9778
▁siħiray	-9779
▁ħaƛułin	-9780
▁šemrebi	-9781
▁žaderno	-9782
▁ƛešoƛin	-9783
▁Becurinč	-9784
▁Osaxorno	-9785
▁Xexoyzas	-9786
▁dahawcen	-9787
▁osaxorno	-9788
▁oƛƛosini	-9789
▁rukayxow	-9790
▁rukayzay	-9791
▁rukayƛin	-9792
▁rutirzaƛ	-9793
▁rutäruni	-9794
▁rułirƛin	-9795
▁räqiruni	-9796
▁räxuruni	-9797
▁sabawłun	-9798
▁sadaqgon	-9799
alašin	-9800
ateles	-9801
mołäyn	-9802
odreza	-9803
▁Reƛno	-9804
▁gogan	-9805
▁nuʕłi	-9806
▁obiwn	-9807
▁obiws	-9808
▁äƛino	-9809
inayzaƛ	-9810
ʕäsianu	-9811
▁Adäzar	-9812
▁Harizi	-9813
▁Nukarä	-9814
▁Onočas	-9815
▁aqʕuyä	-9816
▁imanno	-9817
▁qʕilon	-9818
▁yuqʕek	-9819
▁Łaxtow	-9820
▁Łoxnon	-9821
azaɣorno	-9822
▁Asoqtow	-9823
▁Baħarčä	-9824
▁Nukarza	-9825
▁bałgołi	-9826
▁encekin	-9827
▁hohomaw	-9828
▁hudulaw	-9829
▁lalašin	-9830
▁mezarno	-9831
▁oƛäxrun	-9832
▁ɣʕwačni	-9833
▁ʕOloqza	-9834
Maħamaƛin	-9835
oynosigon	-9836
▁Assalamu	-9837
▁Bayzatow	-9838
▁Maryames	-9839
▁Ozurabin	-9840
▁Ozurazaq	-9841
▁Qazaqzar	-9842
▁Sebixaza	-9843
▁boyrerno	-9844
▁ciqqoƛin	-9845
▁cucixäsi	-9846
▁gulučini	-9847
▁kamirinč	-9848
▁kuckinwa	-9849
▁partalno	-9850
▁qʕodreza	-9851
▁roqxaƛin	-9852
▁räsruxor	-9853
▁räsrułäy	-9854
▁salamƛin	-9855
▁sanaʕałi	-9856
▁sasaqasi	-9857
▁sasaqort	-9858
▁sasiłzaƛ	-9859
▁sasugani	-9860
▁saɣyatno	-9861
▁sidadäza	-9862
▁sidderno	-9863
▁sodertow	-9864
▁soderƛin	-9865
▁suħmatno	-9866
▁taliħawn	-9867
▁taliħƛin	-9868
▁tamašałi	-9869
▁teqroƛin	-9870
▁teqsiƛin	-9871
▁tełäygon	-9872
▁tełäzgon	-9873
▁teƛnogon	-9874
▁teƛsiƛax	-9875
▁teƛsiƛin	-9876
▁tupingon	-9877
▁ukaranix	-9878
▁ukaynosi	-9879
▁ukaysƛin	-9880
▁ulkałkin	-9881
▁uqʕłanix	-9882
▁ustarbin	-9883
▁utiranix	-9884
▁užintown	-9885
▁užitowwa	-9886
▁wazirłun	-9887
▁wizirłäy	-9888
▁wʕałerno	-9889
▁xabaryoł	-9890
▁xaličabi	-9891
▁xandärno	-9892
▁xanesgon	-9893
▁xannonan	-9894
▁xanqorno	-9895
▁xanłunno	-9896
▁xarcelid	-9897
▁xecingon	-9898
▁xecinosi	-9899
orpa	-9900
bašid	-9901
eryon	-9902
madun	-9903
▁Hoka	-9904
▁itix	-9905
▁lidu	-9906
▁meys	-9907
▁xomi	-9908
▁Ħaƛu	-9909
▁ħežƛ	-9910
▁Žung	-9911
▁ʕIšq	-9912
▁ʕorƛ	-9913
agoyaw	-9914
oqadno	-9915
ɣrušaw	-9916
▁Aħyaq	-9917
▁Eloša	-9918
▁Sabru	-9919
▁Yišan	-9920
▁aɣʕnä	-9921
▁oqxon	-9922
▁rowwä	-9923
▁roład	-9924
▁rošun	-9925
▁uqʕło	-9926
▁yaƛʕo	-9927
▁äšinč	-9928
▁čorpa	-9929
▁Ħibaƛ	-9930
▁Ħoyäy	-9931
alʕizin	-9932
imozgon	-9933
▁Maħlar	-9934
▁butnos	-9935
▁eladay	-9936
▁emadun	-9937
▁eɣurno	-9938
▁howłaq	-9939
▁huinaw	-9940
▁ičiqeq	-9941
▁tungił	-9942
▁ašuƛayd	-9943
▁bahanar	-9944
▁boƛaxza	-9945
▁kokorun	-9946
▁maqʕizo	-9947
▁mekoyxo	-9948
▁qʕaƛumo	-9949
▁siħiraw	-9950
▁yäsruce	-9951
▁äɣurułi	-9952
▁čanaqan	-9953
▁žanawar	-9954
▁Habihanƛ	-9955
▁Oqnäyƛin	-9956
▁dandixoƛ	-9957
▁gedmoqay	-9958
▁kičuriču	-9959
▁manzilno	-9960
▁maʕdinay	-9961
▁mecrexor	-9962
▁ričinčey	-9963
▁xarcelin	-9964
▁xecinƛax	-9965
▁xecinƛin	-9966
▁xecixanu	-9967
▁xecixosi	-9968
▁xecixƛin	-9969
▁xediwqor	-9970
▁xedyoqay	-9971
▁xedyozas	-9972
▁xexbikin	-9973
▁xexbiƛin	-9974
▁xexzaqor	-9975
▁xizaytow	-9976
▁xizayƛin	-9977
▁yacʕalno	-9978
▁yacʕalqo	-9979
▁yaqʕułno	-9980
▁yaqʕułäy	-9981
▁yawnoƛin	-9982
▁yayoƛƛin	-9983
▁yayäruni	-9984
▁yałzarno	-9985
▁yaɣʕirun	-9986
▁yaɣʕoƛin	-9987
▁yecinosi	-9988
▁yegirnäy	-9989
▁yegirzaƛ	-9990
▁yegirƛin	-9991
▁yegärinč	-9992
▁yegärƛin	-9993
▁yesunosi	-9994
▁yesuxanu	-9995
▁yetinƛin	-9996
▁yetixosi	-9997
▁yetixozo	-9998
▁yetixƛin	-9999
▁cugu	-10000
▁habs	-10001
▁Žuka	-10002
▁Elexa	-10003
▁Murad	-10004
▁moxon	-10005
▁xawoc	-10006
▁łonon	-10007
▁ɣomał	-10008
▁ʕašiq	-10009
▁ʕelmu	-10010
giħiłno	-10011
oldenno	-10012
udezoni	-10013
▁Eluqƛa	-10014
▁Gugyoq	-10015
▁Newoza	-10016
▁axorek	-10017
▁basada	-10018
▁imxayn	-10019
▁isałxo	-10020
▁naƛƛin	-10021
▁qʕuqʕu	-10022
▁rihmos	-10023
▁yaɣrus	-10024
▁yišäsi	-10025
▁šukrun	-10026
▁ʕabasä	-10027
esedagon	-10028
▁Arsener	-10029
▁Boržizi	-10030
▁Kecnosi	-10031
▁Qalameł	-10032
▁Qebozya	-10033
▁Waʕaley	-10034
▁bexwayn	-10035
▁bittaza	-10036
▁bätirut	-10037
▁caxoƛin	-10038
▁cołizin	-10039
▁dahełxo	-10040
▁eswałno	-10041
▁ešadƛin	-10042
▁hadambi	-10043
▁hokožek	-10044
▁kwarkal	-10045
▁mišayat	-10046
▁nexwasi	-10047
▁rawruni	-10048
▁rorqosi	-10049
▁saʕatno	-10050
▁yowłiri	-10051
▁zaʕipaw	-10052
▁äƛizayn	-10053
▁Łinaqey	-10054
▁ƛaƛaƛix	-10055
▁ʕUmarno	-10056
▁Bikoride	-10057
▁Ixinabin	-10058
▁Oƛixatow	-10059
▁Raħäruni	-10060
▁bašiłäyn	-10061
▁bičirłin	-10062
▁bʕaɣizaƛ	-10063
▁cezyazno	-10064
▁därsitow	-10065
▁esuranix	-10066
▁etalisno	-10067
▁habsaʕat	-10068
▁karnoƛin	-10069
▁kwaraħid	-10070
▁lagiłƛin	-10071
▁makruƛin	-10072
▁pardagix	-10073
▁qʕišodäy	-10074
▁rixintow	-10075
▁roƛnoxut	-10076
▁suratyoƛ	-10077
▁weeƛirno	-10078
▁xedyoder	-10079
▁yexorani	-10080
▁yexurinč	-10081
▁yexusƛin	-10082
▁yicalini	-10083
▁yiqinanu	-10084
▁yiqixozo	-10085
▁yiqärułi	-10086
▁yisiłtow	-10087
▁yisiłäyn	-10088
▁yizanƛin	-10089
▁yizinosi	-10090
▁yiziräsi	-10091
▁yizzoxor	-10092
▁yičinosi	-10093
▁yičixƛin	-10094
▁yičäruni	-10095
▁yiłdetow	-10096
▁yiłetown	-10097
▁yižisƛin	-10098
▁yižixƛin	-10099
oxsiƛax	-10100
ruxaysi	-10101
ʕuyazis	-10102
▁Budumä	-10103
▁Kikxor	-10104
▁Roqnäy	-10105
▁Tamaša	-10106
▁Xexoyä	-10107
▁bankan	-10108
▁bitoxƛ	-10109
▁ečrunä	-10110
▁gegmus	-10111
▁icozaƛ	-10112
▁oʕɣqay	-10113
▁rikinä	-10114
▁rodiłä	-10115
▁sidenä	-10116
▁tukamƛ	-10117
▁xazina	-10118
owlotown	-10119
ʕiłxoƛin	-10120
▁Kidbazä	-10121
▁Ungotow	-10122
▁Xaluman	-10123
▁ałnoxay	-10124
▁buytown	-10125
▁daramno	-10126
▁gutanno	-10127
▁humerno	-10128
▁kiʕangi	-10129
▁mezałin	-10130
▁näƛruni	-10131
▁qʕalmoƛ	-10132
▁rełimay	-10133
▁urqizin	-10134
▁xiriyaw	-10135
▁äciruni	-10136
▁Ħolimoƛ	-10137
▁Łʕonosi	-10138
▁Žamaler	-10139
emiƛxorno	-10140
odäɣorƛin	-10141
▁Assalama	-10142
▁Dahowtow	-10143
▁Doxturno	-10144
▁Gulučini	-10145
▁Yezunosi	-10146
▁Zewnoƛax	-10147
▁baynosin	-10148
▁biłäsiwa	-10149
▁bäzirubi	-10150
▁etinaƛin	-10151
▁huniƛxor	-10152
▁ičixozoł	-10153
▁kasiruni	-10154
▁nexłäƛin	-10155
▁oqaniƛax	-10156
▁ozyortow	-10157
▁rišwanix	-10158
▁räsnoƛin	-10159
▁saldatbi	-10160
▁xiyantaw	-10161
▁xäcinƛin	-10162
▁yiħanada	-10163
▁yoqnoƛax	-10164
▁yoqxosin	-10165
▁yoƛozoni	-10166
▁yoƛƛosin	-10167
▁yukarinč	-10168
▁yukarčey	-10169
▁yuqʕełno	-10170
▁yutanƛin	-10171
▁yäžiruni	-10172
▁zamzames	-10173
▁zeroqozo	-10174
▁zirurƛin	-10175
▁zownoƛax	-10176
▁zurmasno	-10177
▁ätizarno	-10178
▁čamaligo	-10179
▁čanyabin	-10180
▁čanyazas	-10181
▁čaƛʕanix	-10182
▁čerayzaƛ	-10183
▁čuqʕnosi	-10184
▁Ħasanƛin	-10185
▁Ħusenłäy	-10186
▁ħaladtow	-10187
▁ħalarƛin	-10188
▁ħaliłäsi	-10189
▁ħalkiłiƛ	-10190
▁ħayranno	-10191
▁ħaƛanƛin	-10192
▁ħaƛnixno	-10193
▁ħaƛurinč	-10194
▁ħaƛurnäy	-10195
▁ħaƛuxosi	-10196
▁ħišixosi	-10197
▁ħišiłzaƛ	-10198
▁ħurženya	-10199
Yaqʕułenč	-10200
ʕanazader	-10201
▁Enduräza	-10202
▁Imxuxgon	-10203
▁Wʕałzoni	-10204
▁aqonibin	-10205
▁bitirxot	-10206
▁nedugani	-10207
▁pikrazał	-10208
▁pʕoƛirsi	-10209
▁xanzarsi	-10210
▁yižisƛax	-10211
▁zaɣrušaw	-10212
▁ägirułin	-10213
▁čʕaƛanix	-10214
▁łaciraqa	-10215
▁łanałäyn	-10216
▁łełanƛin	-10217
▁łinasƛin	-10218
▁łiyärułi	-10219
▁łoħrodär	-10220
▁łoħrołäy	-10221
▁łärnokin	-10222
▁łäyrułer	-10223
▁łʕorłäyn	-10224
▁Šebintow	-10225
▁šaharyoz	-10226
▁šarʕimoƛ	-10227
▁šaširuni	-10228
▁šemqaɣor	-10229
▁šomoƛała	-10230
▁šušisƛin	-10231
▁šäširuni	-10232
▁Žaqʕułno	-10233
▁Žazasƛin	-10234
▁Žedułtow	-10235
▁Žungutaw	-10236
▁žaqʕułno	-10237
▁žawabtow	-10238
▁žawabyor	-10239
▁žedałtow	-10240
▁žeduqƛin	-10241
▁žedurgon	-10242
▁žigonƛin	-10243
▁ƛexyabin	-10244
▁ƛeɣanƛin	-10245
▁ƛirbaqor	-10246
▁ƛäxurubi	-10247
▁ƛäxurułi	-10248
▁ƛʕebaxay	-10249
▁ƛʕebrebi	-10250
▁ƛʕorłäyn	-10251
▁ɣarabašä	-10252
▁ɣeryabin	-10253
▁ɣunoqosi	-10254
▁ɣutkabin	-10255
▁ɣutkazay	-10256
▁ɣutkozas	-10257
▁ɣutkutow	-10258
▁ɣʕanazaƛ	-10259
▁ɣʕulader	-10260
▁ɣʕunoqay	-10261
▁ɣʕutkubi	-10262
▁ɣʕuɣʕura	-10263
▁ɣʕwaygon	-10264
▁ʕOloqzas	-10265
▁ʕOmoybin	-10266
▁ʕOmoyzaƛ	-10267
▁ʕUmarqor	-10268
▁ʕadadawa	-10269
▁ʕagarłän	-10270
▁ʕalaxyoƛ	-10271
▁ʕansaqor	-10272
▁ʕažaibaw	-10273
▁ʕažaibno	-10274
▁ʕaƛaysin	-10275
▁ʕaƛoxaza	-10276
▁ʕedeʕizi	-10277
▁ʕiyaynäy	-10278
▁ʕoloqzaq	-10279
▁ʕomoyzaƛ	-10280
▁ʕuqłanix	-10281
▁ʕurawtow	-10282
▁ʕurqixor	-10283
Bahadurqor	-10284
Bahadurƛin	-10285
axrudinqor	-10286
axrudinƛin	-10287
ixanuzogon	-10288
ursiƛingon	-10289
uɣweymołäy	-10290
wariʕelyoł	-10291
yozałxorno	-10292
ʕuyasinibi	-10293
ʕuyzadäzay	-10294
▁Allahätow	-10295
▁Aħmadägon	-10296
▁Babiyagon	-10297
▁Baydanyay	-10298
▁Bexuratow	-10299
▁Bełiqanza	-10300
▁Bełiqubin	-10301
▁Bʕeƛoqgon	-10302
▁Diwanbegä	-10303
▁Eniwqorno	-10304
▁Esnazagon	-10305
▁Howlaygon	-10306
▁Howžigonä	-10307
▁Ismaʕiler	-10308
▁Ismaʕileł	-10309
▁Ismaʕilqo	-10310
▁Ismaʕilxo	-10311
▁Kidbazade	-10312
▁Kidbezgon	-10313
▁Madaxaɣor	-10314
▁Magalabin	-10315
▁Maħamaƛin	-10316
▁Mekodäsin	-10317
▁Metirozya	-10318
▁Muħamadno	-10319
▁Nesiderno	-10320
▁Nełaqorno	-10321
▁Nełqułtow	-10322
▁Neširugon	-10323
▁Neširuxay	-10324
▁Neširuzoƛ	-10325
▁Oƛƛozogon	-10326
▁Qartayder	-10327
▁Qʕišodgon	-10328
▁Ramazanno	-10329
▁Sasaqozox	-10330
▁Sasiłacen	-10331
▁Sasiłnosi	-10332
▁Sidenägon	-10333
▁Siskintow	-10334
▁Tawadider	-10335
▁Tawadiqor	-10336
▁Tawadisno	-10337
▁Tawadiƛin	-10338
▁Taxƛäzayn	-10339
▁Telawärno	-10340
▁Umukusƛin	-10341
▁Xizaɣorsi	-10342
▁Yaqʕułtow	-10343
▁Yegiranir	-10344
▁Yeženigon	-10345
▁aderzotow	-10346
▁adirułäyn	-10347
▁adäzaytow	-10348
▁ahlimoqor	-10349
▁akiłxoƛin	-10350
▁annazaqar	-10351
▁anuzaytow	-10352
▁ayxanaƛin	-10353
▁aħyałerno	-10354
▁aždaħäƛin	-10355
▁babiyagon	-10356
▁badinoƛin	-10357
▁baqrułäyn	-10358
▁baraxšizi	-10359
▁barułäysi	-10360
▁batizarno	-10361
▁bayranƛin	-10362
▁bayrxoƛax	-10363
▁bayxanusi	-10364
▁bayäsiƛin	-10365
▁bazarganƛ	-10366
▁baħnaynäy	-10367
▁baħnayłin	-10368
▁bašiqʕoyz	-10369
▁baɣwʕacet	-10370
▁begirerno	-10371
▁bercinawn	-10372
▁bercinawƛ	-10373
▁bercinłin	-10374
▁bertenƛin	-10375
▁besurobin	-10376
▁besuroqur	-10377
▁beswanƛin	-10378
▁bexaruzas	-10379
▁bexaynƛin	-10380
▁bexuranis	-10381
▁bexurnosi	-10382
▁bexurxosi	-10383
▁beynodäsi	-10384
▁bečełiƛin	-10385
▁bełiqaner	-10386
▁bełiqanez	-10387
▁bełiqanzo	-10388
▁bełiqanän	-10389
▁beɣenigon	-10390
▁bikoriqor	-10391
▁bitaɣorno	-10392
▁bitirerno	-10393
▁biyrančey	-10394
▁bizirerno	-10395
▁bičäsiƛin	-10396
▁biħurnosi	-10397
▁bišwannan	-10398
▁bižirerno	-10399
▁bodaniƛäy	-10400
▁bodäsiƛin	-10401
▁boqaniƛin	-10402
▁boqełxanu	-10403
▁boqxosini	-10404
▁boqäsiƛin	-10405
▁božarawni	-10406
▁boƛixnosi	-10407
▁boƛixxosi	-10408
▁boɣaniłer	-10409
▁boɣxanusi	-10410
▁boɣäsiƛax	-10411
▁bukaranix	-10412
▁bukarerno	-10413
▁bukayxana	-10414
▁bukayxanä	-10415
▁butiranił	-10416
▁bäcinoƛin	-10417
▁bäxurusno	-10418
▁bʕałayƛin	-10419
▁bʕaɣʕizaƛ	-10420
▁cugumäɣor	-10421
▁daruyarsi	-10422
▁debertown	-10423
▁diduräyƛa	-10424
▁dowderƛin	-10425
▁doxturqor	-10426
▁doxturłin	-10427
▁dunyaltow	-10428
▁esiranƛin	-10429
▁esirnoƛin	-10430
▁esiwdetow	-10431
▁esnazaden	-10432
▁esnazałäy	-10433
▁esuxanuzo	-10434
▁esärnoƛin	-10435
▁eynoyxosi	-10436
▁eƛixozoni	-10437
▁gagalazał	-10438
▁guludetow	-10439
▁guluqorno	-10440
▁gulučinin	-10441
▁haganiłno	-10442
▁halmaɣzar	-10443
▁halmaɣłun	-10444
▁henešyabi	-10445
▁hobołatow	-10446
▁howlotown	-10447
▁howožatow	-10448
▁hudukinda	-10449
▁hunizaxno	-10450
▁iduɣorƛin	-10451
▁imyoqorno	-10452
▁istolowäy	-10453
▁izirnoanu	-10454
▁iziräłinč	-10455
▁ičanixgon	-10456
▁iłetowgon	-10457
▁išanixƛin	-10458
▁išxanuƛin	-10459
▁kakičurin	-10460
▁kamiräƛin	-10461
▁kecäsiƛin	-10462
▁keroqazay	-10463
▁kidbäntow	-10464
▁kikxortow	-10465
▁kilometra	-10466
▁kičuričus	-10467
▁kuracekin	-10468
▁kuräsiƛin	-10469
▁lilyoxtow	-10470
▁madazaħno	-10471
▁madaħarno	-10472
▁madaħazay	-10473
▁maduhaler	-10474
▁maduhalqo	-10475
▁maduhalzo	-10476
▁magalabin	-10477
▁magalazaƛ	-10478
▁magazinno	-10479
▁maqʕizoni	-10480
▁maxsaryoƛ	-10481
▁maxšelyoƛ	-10482
▁mazaħarno	-10483
▁maħazayzo	-10484
▁maħlaytow	-10485
▁małiruxor	-10486
▁mažgityoz	-10487
▁maʕdinłiƛ	-10488
▁mežiƛäzay	-10489
▁mežzoxƛin	-10490
▁minutałer	-10491
▁miskinzar	-10492
▁muhumozas	-10493
▁muhumołäy	-10494
▁mučariłäy	-10495
▁nesicetow	-10496
▁nesiderno	-10497
▁nesirsini	-10498
▁nexnäyƛin	-10499
▁nexäsiƛin	-10500
▁neładerno	-10501
▁neširutow	-10502
▁neƛsiyołi	-10503
▁nukaresno	-10504
▁oqxosiƛin	-10505
▁oreznixor	-10506
▁ozzatawni	-10507
▁oƛixnoanu	-10508
▁oƛixxoƛin	-10509
▁oƛäxnoƛin	-10510
▁paqʕƛirxo	-10511
▁paraxataw	-10512
▁puräzagon	-10513
▁pʕaƛunosi	-10514
▁qaciqorno	-10515
▁qoqoƛiłin	-10516
▁qʕaradamu	-10517
▁qʕaydegon	-10518
▁qʕašanƛin	-10519
▁qʕašinosi	-10520
▁qʕaƛixanu	-10521
▁raqʕuxosi	-10522
▁raqʕyołäy	-10523
▁regiracet	-10524
▁regiranix	-10525
▁regirxosi	-10526
▁reqenyabi	-10527
▁retäsiƛin	-10528
▁rexadanix	-10529
▁rexoriłno	-10530
▁rexuräsit	-10531
▁reɣułatow	-10532
▁risnäyƛin	-10533
▁risxanusi	-10534
▁ritirerač	-10535
▁riyranƛin	-10536
▁riyxanuzo	-10537
▁riħadanix	-10538
▁riƛubigon	-10539
▁rodacekin	-10540
▁roqaniƛäy	-10541
▁roqnäyƛin	-10542
▁roqxanusi	-10543
▁roxirnosi	-10544
▁royxanusi	-10545
▁rukadäƛin	-10546
▁rukayxana	-10547
▁rukayxosi	-10548
▁rutirnosi	-10549
▁rätiruxor	-10550
▁rätiyäƛin	-10551
▁rätizaɣor	-10552
▁räƛiyäƛin	-10553
▁rʕałayzał	-10554
▁rʕełayzał	-10555
▁sadaqorno	-10556
▁sadaqosin	-10557
▁sanaʕataw	-10558
▁sasaqorsi	-10559
▁saɣyatyos	-10560
▁sidaɣazar	-10561
▁sisinigon	-10562
▁sodxorzoq	-10563
▁taqʕorgon	-10564
▁tełxortow	-10565
▁teƛxosini	-10566
▁teƛxozoni	-10567
▁tušmanbin	-10568
▁ukayyäƛin	-10569
▁untarawni	-10570
▁uqʕełanix	-10571
▁urɣizikin	-10572
▁užizasƛin	-10573
▁waranibin	-10574
▁wilayatzo	-10575
▁wʕałertow	-10576
▁xabaryada	-10577
▁xanłungon	-10578
▁xecirerno	-10579
▁xedyosgon	-10580
▁xexoynƛin	-10581
▁xizazagon	-10582
▁xizazarno	-10583
▁yacʕaltow	-10584
▁yaqʕułƛin	-10585
▁yayrnoƛin	-10586
▁yayruntow	-10587
▁yayäsiƛin	-10588
▁yałzatown	-10589
▁yałzaytow	-10590
▁yaɣʕinƛin	-10591
▁yegiranir	-10592
▁yešnayƛin	-10593
▁yeženiqor	-10594
▁yeɣenigon	-10595
▁yeɣenägon	-10596
▁yiqirnosi	-10597
▁yisełxosi	-10598
▁yisiqorno	-10599
▁yiziranix	-10600
▁yičirxosi	-10601
▁yiħułäƛin	-10602
▁yodäłäƛin	-10603
▁yoqäsiƛin	-10604
▁yoqƛingon	-10605
▁yoxiraniƛ	-10606
▁yołäsiƛin	-10607
▁yoƛƛosini	-10608
▁yoƛƛozoni	-10609
▁yukarnosi	-10610
▁yukaynanu	-10611
▁yukayruni	-10612
▁yukaysƛin	-10613
▁yutiranix	-10614
▁yutirnosi	-10615
▁yäsruntow	-10616
▁zeruyałer	-10617
▁zownäyƛin	-10618
▁zulmuqayn	-10619
▁Ħumukulin	-10620
▁ħalalawni	-10621
▁ħaramawni	-10622
▁ħaƛaniłer	-10623
▁ħaƛunosin	-10624
▁ħirozaqor	-10625
▁ħišiłnosi	-10626
▁ħukmatyoz	-10627
▁ħurmatyor	-10628
▁Łarašawni	-10629
▁łiyrxoƛin	-10630
▁Šebitowey	-10631
▁šaharyasi	-10632
▁šebinabin	-10633
▁šebinonwa	-10634
▁šebitowey	-10635
▁šomoraxno	-10636
▁šudaxaɣor	-10637
▁Žabulawes	-10638
▁Žamaʕatyo	-10639
▁Žedudäɣor	-10640
▁žamaʕatno	-10641
▁žanazaxor	-10642
▁žawharyos	-10643
▁žedaqorno	-10644
▁žedudetow	-10645
▁žeduqorno	-10646
▁žiƛbosiyä	-10647
▁ƛexunƛint	-10648
▁ƛoħazaɣor	-10649
▁ƛʕebrezał	-10650
▁ɣamasyayn	-10651
▁ɣuɣudoxor	-10652
▁ɣʕanabiwa	-10653
▁ɣʕanabiyä	-10654
▁ɣʕurušƛin	-10655
▁ɣʕutkarno	-10656
▁ɣʕutkazay	-10657
▁ɣʕutkoxay	-10658
▁ɣʕutkozas	-10659
▁ɣʕutkubin	-10660
▁ɣʕutkutow	-10661
▁ɣʕwačulis	-10662
▁ʕaƛoxarno	-10663
▁ʕaƛoxaɣor	-10664
▁ʕaƛozałno	-10665
▁ʕaƛozałäy	-10666
▁ʕiyayxanu	-10667
▁ʕiyayxtow	-10668
▁ʕoƛnontow	-10669
ełxanuwaƛin	-10670
irełxanuƛin	-10671
odrezaxazay	-10672
uranircetow	-10673
wariłiłerno	-10674
▁Alimaħamar	-10675
▁Alimaħamas	-10676
▁Amirħanzan	-10677
▁Asaqozagon	-10678
▁Ačqʕaynosi	-10679
▁Bazarganza	-10680
▁Baħarčiƛin	-10681
▁Bercinawni	-10682
▁Bełiqanqor	-10683
▁Bešerxotow	-10684
▁Buqbetaxar	-10685
▁Buqbetaxor	-10686
▁Buqbetałer	-10687
▁Cimyoqaysi	-10688
▁Hobolaytow	-10689
▁Ismaʕilgon	-10690
▁Ismaʕilqor	-10691
▁Ismaʕilzoq	-10692
▁Ismaʕilƛin	-10693
▁Istowlizaƛ	-10694
▁Kidiraygon	-10695
▁Madaxosini	-10696
▁Maduhalłiq	-10697
▁Mesedyosno	-10698
▁Mesedyołäy	-10699
▁Mešizaxozo	-10700
▁Muħamadqor	-10701
▁Muħamadƛin	-10702
▁Muʕalimkin	-10703
▁Neƛxanuƛin	-10704
▁Raładyazay	-10705
▁Ražbadinan	-10706
▁Recenyozaz	-10707
▁Tabuldiƛin	-10708
▁Tiblisäɣor	-10709
▁Wazirzagon	-10710
▁Waʕaleykum	-10711
▁Xediwqorno	-10712
▁Xizaɣorgon	-10713
▁Yexoriłƛin	-10714
▁Yeynoyxosi	-10715
▁Zamanałäza	-10716
▁abužahalno	-10717
▁acmołnonan	-10718
▁axorekasin	-10719
▁ayaniqaysi	-10720
▁azbaryoxor	-10721
▁ačqʕaynosi	-10722
▁aħyaxorkin	-10723
▁aždaħesƛin	-10724
▁aɣzaqozoni	-10725
▁babiwqorno	-10726
▁bahadurzas	-10727
▁barułungon	-10728
▁baynosiƛin	-10729
▁bayrnäyƛin	-10730
▁bayłxanuce	-10731
▁bazarganes	-10732
▁bazarganno	-10733
▁bazarganqo	-10734
▁baħarayłno	-10735
▁baħarčiyaw	-10736
▁bałgołibin	-10737
▁baɣnoƛinno	-10738
▁becursiƛin	-10739
▁begiranƛin	-10740
▁begirnoanu	-10741
▁begirnoƛin	-10742
▁besunäyƛin	-10743
▁betixanusi	-10744
▁betixozoni	-10745
▁bečedawnin	-10746
▁bečnazaxar	-10747
▁bełiqanzas	-10748
▁bešerxotow	-10749
▁bicixozoni	-10750
▁biqirxoƛin	-10751
▁biyxozołäy	-10752
▁bizirsiƛin	-10753
▁bičanixƛin	-10754
▁biłaniƛäyn	-10755
▁bišadyołno	-10756
▁bišanixƛin	-10757
▁bižanixƛin	-10758
▁bodanixƛin	-10759
▁bodinäyƛin	-10760
▁boyxanuƛin	-10761
▁boƛäxzaɣor	-10762
▁boɣanixƛin	-10763
▁boɣnoyxƛin	-10764
▁bukaranƛin	-10765
▁busurmanaw	-10766
▁butanixƛin	-10767
▁bäsrułiƛin	-10768
▁bäturuntow	-10769
▁bätuzaɣort	-10770
▁caxxosianu	-10771
▁cimyoqaysi	-10772
▁dabaɣyołäy	-10773
▁didiwnokin	-10774
▁eqersiyołi	-10775
▁esanadanix	-10776
▁etixozoder	-10777
▁etixozonis	-10778
▁etixozosno	-10779
▁ečriłsiƛin	-10780
▁eženidäɣor	-10781
▁eƛinosigon	-10782
▁gamušyozas	-10783
▁gugiranƛin	-10784
▁guluzaxosi	-10785
▁guluzaxoza	-10786
▁habihander	-10787
▁hemediwtow	-10788
▁hilmołäzay	-10789
▁hudulzaqor	-10790
▁indowrizaz	-10791
▁istowlizaq	-10792
▁ixinoxorno	-10793
▁iziłxanusi	-10794
▁ičiqeqełno	-10795
▁ičixosiƛin	-10796
▁iħanadanix	-10797
▁kawumoqosi	-10798
▁kedonyozaz	-10799
▁kiciresgon	-10800
▁kidbazadäy	-10801
▁koboraxaza	-10802
▁lamusyoqay	-10803
▁liɣʕonyayx	-10804
▁madaxortow	-10805
▁madazartow	-10806
▁madaƛäytow	-10807
▁maħorƛinno	-10808
▁mažgitägon	-10809
▁mažgitäɣor	-10810
▁mecrexorno	-10811
▁mešizaxozo	-10812
▁mežzoxosin	-10813
▁miskinawni	-10814
▁muhruzaxor	-10815
▁muradyołäy	-10816
▁nazosnotow	-10817
▁nesiqkinda	-10818
▁nesiqosini	-10819
▁nexxanuƛin	-10820
▁nexxowaƛin	-10821
▁nełaznitow	-10822
▁nełdäɣorno	-10823
▁neširutown	-10824
▁neƛxanuƛin	-10825
▁niʕmatyabi	-10826
▁nukarertow	-10827
▁nukarzasno	-10828
▁oqełxanuzo	-10829
▁panduryabi	-10830
▁putcenigon	-10831
▁qalamqaɣor	-10832
▁qalamxaɣor	-10833
▁qazaqzazno	-10834
▁qoqoƛixanu	-10835
▁qoqoƛixƛin	-10836
▁qunyoxaɣor	-10837
▁qunyoxorno	-10838
▁qʕaħłiqtow	-10839
▁qʕašacekin	-10840
▁qʕašaceƛin	-10841
▁qʕaširanix	-10842
▁qʕaƛanayru	-10843
▁qʕiƛurazaƛ	-10844
▁rayärnoƛin	-10845
▁raładyołno	-10846
▁raładyołsi	-10847
▁raɣʕäsitow	-10848
▁recenyocet	-10849
▁regirnokin	-10850
▁regirnoƛin	-10851
▁regirxoƛin	-10852
▁retixanusi	-10853
▁rexurnoanu	-10854
▁rexuxanusi	-10855
▁rexwadanix	-10856
▁reynodanix	-10857
▁reynodaniƛ	-10858
▁reynoynanu	-10859
▁rečuƛertow	-10860
▁ritirerzaƛ	-10861
▁ritäruntow	-10862
▁riyraniƛäy	-10863
▁rodanixgon	-10864
▁roqxosiƛin	-10865
▁roładyołer	-10866
▁roƛixnoƛin	-10867
▁roƛixsiƛin	-10868
▁rukadałxor	-10869
▁rukaranƛin	-10870
▁rutiranƛin	-10871
▁rutixanusi	-10872
▁rätiruntow	-10873
▁sabawyabin	-10874
▁saɣatyabin	-10875
▁sidernoƛin	-10876
▁tawakalyoƛ	-10877
▁teqnosigon	-10878
▁teƛanixƛin	-10879
▁teƛxanuƛin	-10880
▁ukayxanusi	-10881
▁ukayxanuwa	-10882
▁uqʕełnoƛin	-10883
▁wasiyatyoƛ	-10884
▁wilayatyoł	-10885
▁wizirłunno	-10886
▁xabaryołäy	-10887
▁xexoycekin	-10888
▁yayxanuƛax	-10889
▁yayxanuƛin	-10890
▁yaħnaynƛin	-10891
▁yałrułiƛin	-10892
▁yegirnoƛax	-10893
▁yegirsiƛin	-10894
▁yexoriłinč	-10895
▁yexurnoanu	-10896
▁yisanixƛin	-10897
▁yizärnoƛin	-10898
▁yičixozoni	-10899
▁yodiroƛƛin	-10900
▁yoxanixƛin	-10901
▁yoƛƛozoqor	-10902
▁zawrunigon	-10903
▁zawrunitow	-10904
▁zawrułiƛin	-10905
▁ziruznogon	-10906
▁ziyaratyoƛ	-10907
▁zowanirƛin	-10908
▁äƛirunigon	-10909
▁äƛiruxorno	-10910
▁čanaqanłiƛ	-10911
▁čardaħäɣor	-10912
▁čuqernoanu	-10913
▁Ħumukuliƛa	-10914
▁ħalalgotow	-10915
▁ħalikatawt	-10916
▁ħaƛuxosini	-10917
▁ħikmałiłer	-10918
▁ħonzaqaɣor	-10919
▁ħurženyabi	-10920
▁Łinasnokin	-10921
▁Łinasnotow	-10922
▁łebelawzas	-10923
▁łeɣirsiƛax	-10924
▁łinaqnokin	-10925
▁łinarnotow	-10926
▁łiyxosianu	-10927
▁łoħroderno	-10928
▁šaharyarno	-10929
▁šaharyaɣor	-10930
▁šušuliłäsi	-10931
▁Žabulawder	-10932
▁Žamaʕatyor	-10933
▁žadäɣorƛin	-10934
▁žamaʕattow	-10935
▁žamaʕatyor	-10936
▁žamaʕatyos	-10937
▁žamaʕatyoƛ	-10938
▁žedzoxaɣor	-10939
▁žiƛboyäƛin	-10940
▁ƛexandaƛin	-10941
▁ɣutanłäzay	-10942
▁ɣʕanabiłun	-10943
▁ɣʕanazader	-10944
▁ɣʕanazagon	-10945
▁ɣʕanazaqor	-10946
▁ɣʕanazaƛer	-10947
▁ɣʕuɣʕuruni	-10948
▁ʕUneyzates	-10949
▁ʕadalawniƛ	-10950
▁ʕagarłisno	-10951
▁ʕalazanyoz	-10952
▁ʕaƛaɣorƛin	-10953
▁Alimaħamade	-10954
▁Bazarganbin	-10955
▁Bazarganzar	-10956
▁Bertenyołer	-10957
▁Bertenyołäy	-10958
▁Dahawtowgon	-10959
▁Habihanägon	-10960
▁Ismaʕilesno	-10961
▁Mamalayägon	-10962
▁Mesedyoztow	-10963
▁Musaqilično	-10964
▁Mužmarłäzay	-10965
▁Nuʕłimorƛin	-10966
▁Oƛƛozonägon	-10967
▁Raładyołäza	-10968
▁Ražbadinłäy	-10969
▁Ražbadinƛin	-10970
▁Sasaqosigon	-10971
▁Xizaɣorsini	-10972
▁Zamanałäzay	-10973
▁ačqʕayxnoyä	-10974
▁barudäɣorno	-10975
▁baruzadäɣor	-10976
▁bazarganqay	-10977
▁bazarganzan	-10978
▁bazarganzał	-10979
▁bazaryayƛin	-10980
▁baħarčiƛinä	-10981
▁begiracekin	-10982
▁bertenyołäy	-10983
▁besuxanuƛin	-10984
▁bexurełxosi	-10985
▁bexwadanƛin	-10986
▁bełiquzaxar	-10987
▁biqiraniƛäy	-10988
▁bičintowgon	-10989
▁bičixosiƛin	-10990
▁biħanadanix	-10991
▁biħanayxozo	-10992
▁boƛixaceƛin	-10993
▁budalazaqor	-10994
▁buqbetaxtow	-10995
▁bʕulamzałer	-10996
▁bʕulamzałäy	-10997
▁dunyalkinwa	-10998
▁dunyalqoƛin	-10999
▁egirxanuƛin	-11000
▁eniwdäɣorno	-11001
▁exuranixƛin	-11002
▁eynodanixno	-11003
▁gedmoqaygon	-11004
▁gulunnantow	-11005
▁habihanerno	-11006
▁halmaɣdäɣor	-11007
▁halmaɣzaqay	-11008
▁halmaɣzasno	-11009
▁halmaɣłiqor	-11010
▁hemedurtown	-11011
▁hersiqanqor	-11012
▁iqiranixƛin	-11013
▁istolowäɣor	-11014
▁karačelyoza	-11015
▁kidbeqorƛin	-11016
▁kumakyoƛaza	-11017
▁lagiqnotown	-11018
▁lilyoxaytow	-11019
▁madaxosinin	-11020
▁madazaxaɣor	-11021
▁maħizaqorno	-11022
▁maħišatyoce	-11023
▁maħlazaytow	-11024
▁maʕišatäƛin	-11025
▁mesedyosgon	-11026
▁micxirnoƛin	-11027
▁micxiryosni	-11028
▁miskinawnin	-11029
▁mumpaʕatƛin	-11030
▁nełdäɣorƛin	-11031
▁niʕmatyabin	-11032
▁nukarzaskin	-11033
▁oqxanuwaƛin	-11034
▁qalamäɣorno	-11035
▁qʕaƛanayłin	-11036
▁raładyołäza	-11037
▁regirxanusi	-11038
▁retixanuƛin	-11039
▁reynoyrakin	-11040
▁rešonazałäy	-11041
▁riqanixaysi	-11042
▁riqiraniƛäy	-11043
▁risrersiƛin	-11044
▁riħanayxosi	-11045
▁riħurxozoni	-11046
▁roƛiquraɣor	-11047
▁roɣanƛintow	-11048
▁rutiraniƛäy	-11049
▁saɣyatyabin	-11050
▁sisxolisini	-11051
▁sisxolizoni	-11052
▁tamadaqorno	-11053
▁tambiħyoƛäy	-11054
▁tamiħyorƛin	-11055
▁taqʕaɣorgon	-11056
▁tatanaxorno	-11057
▁xabaryayxno	-11058
▁yexoriłxosi	-11059
▁yexuriyäƛin	-11060
▁yiłzaqayƛin	-11061
▁yukayruntow	-11062
▁äsiruxorgon	-11063
▁äƛiruxortow	-11064
▁Ħaƛuxozoxay	-11065
▁Ħurženyaɣor	-11066
▁ħamimyołxor	-11067
▁ħaƛuxanuƛin	-11068
▁ħukmatyozał	-11069
▁ħukmatyołer	-11070
▁ħumukulizaƛ	-11071
▁Łoxäƛirugon	-11072
▁łinasnotown	-11073
▁łiyranixƛin	-11074
▁łʕebozałäyn	-11075
▁Žabulawägon	-11076
▁žamaʕattown	-11077
▁žedudäɣorno	-11078
▁ɣoɣoriłnosi	-11079
▁ɣutanyołxor	-11080
▁ɣutkaɣorgon	-11081
▁ɣwʕadidäɣor	-11082
▁ɣʕanazacewa	-11083
▁ɣʕurušyozaƛ	-11084
▁ɣʕutkaɣorno	-11085
▁ʕAliqiličer	-11086
▁ʕAliqiličes	-11087
▁ʕAliqiličzo	-11088
▁ʕIsaqilično	-11089
▁ʕOloqanawni	-11090
▁ʕUmarqiličä	-11091
▁ʕUneyzatƛin	-11092
▁ʕaƛazaɣorno	-11093
▁ʕoloqzałxor	-11094
▁Alimaħamaqor	-11095
▁Alimaħamaƛin	-11096
▁Aħmaddäɣorno	-11097
▁Hemełaqułtow	-11098
▁Hudäyzikogon	-11099
▁Kwaxatowngon	-11100
▁Yegirxanuƛin	-11101
▁Zamanałäygon	-11102
▁bayrxanusiłi	-11103
▁bazaryaɣorno	-11104
▁begirxanuƛin	-11105
▁bertenyołkin	-11106
▁biqiranixƛin	-11107
▁biħanayxozoz	-11108
▁bišerxosiƛin	-11109
▁bišodyołäysi	-11110
▁bukarxanuƛin	-11111
▁däzodäɣorƛin	-11112
▁guluzałäygon	-11113
▁habihandäɣor	-11114
▁hemełatowgon	-11115
▁maduhalzaxar	-11116
▁mekoynosigon	-11117
▁nesiqayzoniq	-11118
▁qʕašixanuƛin	-11119
▁qʕaƛanayxosi	-11120
▁raħiranixgon	-11121
▁raʕalłixorno	-11122
▁regiranixƛin	-11123
▁regirxanuƛin	-11124
▁rukayxanuƛax	-11125
▁rutirnosiƛin	-11126
▁sasaqozoxgon	-11127
▁saʕatyacegon	-11128
▁urɣelyozałer	-11129
▁wasimoxorƛin	-11130
▁xexoyzadäɣor	-11131
▁xexzadäɣorno	-11132
▁zamanałäygon	-11133
▁zigaryayxƛin	-11134
▁ħukmatyołxor	-11135
▁łinaqazaykin	-11136
▁łʕonosinigon	-11137
▁šaharyaɣorno	-11138
▁žedudäɣorgon	-11139
▁ɣarabašzaqor	-11140
▁ʕAliqiličqor	-11141
▁ʕAliqiličtow	-11142
▁ʕArabuzanqor	-11143
▁ʕArabuzanƛin	-11144
▁ʕAwdunasireł	-11145
▁ʕIsaqiličqor	-11146
▁ʕUneyzatełno	-11147
▁Baxumesedagon	-11148
▁Baxumesedoƛin	-11149
▁Raładyołxorno	-11150
▁Yexursiƛingon	-11151
▁bazarganzaqay	-11152
▁bertenyołerno	-11153
▁betixozołäysi	-11154
▁biħnayxosiƛin	-11155
▁eniwdäɣortown	-11156
▁esnazadäɣorno	-11157
▁halmaɣłiqorno	-11158
▁indowrizaxosi	-11159
▁kidbedäɣorgon	-11160
▁madaxozoniqor	-11161
▁maduhalłiqozo	-11162
▁maduhalłiqtow	-11163
▁mažgityaɣorno	-11164
▁mesedyosnigon	-11165
▁raʕalłixorgon	-11166
▁uyraxäƛirugon	-11167
▁wazirzaqorgon	-11168
▁yegirxanuzoce	-11169
▁yiqiranƛingon	-11170
▁zamanałäzagon	-11171
▁ħurmatyoxaysi	-11172
▁šiqʕonyayxƛin	-11173
▁žamaʕatyołxor	-11174
▁ʕAwdunasirƛin	-11175
▁ʕUmarqiličƛin	-11176
▁ʕUneyzatdäɣor	-11177
▁ʕabdalbitowwa	-11178
▁bertenyołxorno	-11179
▁boqełxanuzoxor	-11180
▁rukayxanuwaƛin	-11181
▁bazarganzadetow	-11182
Ak	-11183
As	-11184
At	-11185
Ax	-11186
Az	-11187
Až	-11188
Be	-11189
Bi	-11190
Ce	-11191
Da	-11192
De	-11193
Di	-11194
Do	-11195
Es	-11196
Eč	-11197
He	-11198
Ho	-11199
El	-11200
Ež	-11201
Gu	-11202
Id	-11203
Is	-11204
Iy	-11205
Iħ	-11206
Ka	-11207
Ku	-11208
Ma	-11209
Me	-11210
Mu	-11211
Ne	-11212
Nu	-11213
Ok	-11214
Om	-11215
Oq	-11216
Os	-11217
Oč	-11218
Oƛ	-11219
Qu	-11220
Ru	-11221
Sa	-11222
Si	-11223
So	-11224
Te	-11225
Ti	-11226
Uk	-11227
Už	-11228
Xa	-11229
Xi	-11230
Xo	-11231
Ya	-11232
Ye	-11233
Yi	-11234
Yo	-11235
Yu	-11236
Zi	-11237
Zo	-11238
ae	-11239
ba	-11240
be	-11241
bn	-11242
bo	-11243
br	-11244
bt	-11245
bu	-11246
bä	-11247
bʕ	-11248
ca	-11249
ck	-11250
cn	-11251
cu	-11252
cä	-11253
db	-11254
dd	-11255
dn	-11256
do	-11257
dq	-11258
dt	-11259
dx	-11260
dy	-11261
dz	-11262
dä	-11263
dł	-11264
eɣ	-11265
gm	-11266
gx	-11267
gä	-11268
gł	-11269
ha	-11270
he	-11271
hi	-11272
hl	-11273
hm	-11274
ho	-11275
hq	-11276
hr	-11277
hu	-11278
hä	-11279
ia	-11280
ih	-11281
iž	-11282
ka	-11283
kb	-11284
ke	-11285
ki	-11286
km	-11287
kn	-11288
kr	-11289
ku	-11290
kw	-11291
ky	-11292
kz	-11293
lh	-11294
ln	-11295
lo	-11296
lq	-11297
lx	-11298
lz	-11299
Bä	-11300
Hu	-11301
Ki	-11302
Ra	-11303
Rʕ	-11304
Wʕ	-11305
ga	-11306
kx	-11307
le	-11308
lž	-11309
me	-11310
mi	-11311
mr	-11312
mt	-11313
mł	-11314
nd	-11315
ne	-11316
ng	-11317
nm	-11318
nn	-11319
nq	-11320
nu	-11321
nł	-11322
nƛ	-11323
nɣ	-11324
pa	-11325
pi	-11326
pu	-11327
qa	-11328
qe	-11329
qg	-11330
qi	-11331
qn	-11332
qq	-11333
qr	-11334
qs	-11335
qw	-11336
qx	-11337
qä	-11338
qł	-11339
rc	-11340
rd	-11341
rg	-11342
ri	-11343
rk	-11344
rn	-11345
rp	-11346
rt	-11347
ry	-11348
rä	-11349
rč	-11350
rž	-11351
rƛ	-11352
rɣ	-11353
sd	-11354
se	-11355
sg	-11356
sk	-11357
sm	-11358
sn	-11359
so	-11360
su	-11361
sw	-11362
sƛ	-11363
ta	-11364
tb	-11365
tc	-11366
td	-11367
te	-11368
ti	-11369
tk	-11370
tn	-11371
to	-11372
tu	-11373
tz	-11374
tƛ	-11375
ue	-11376
wb	-11377
wc	-11378
wk	-11379
wl	-11380
wn	-11381
wq	-11382
wr	-11383
ws	-11384
wt	-11385
wu	-11386
ww	-11387
wy	-11388
wz	-11389
wš	-11390
wž	-11391
xb	-11392
xe	-11393
xi	-11394
xn	-11395
xt	-11396
xu	-11397
xw	-11398
xx	-11399
Al	-11400
Ay	-11401
Ba	-11402
Eš	-11403
Eɣ	-11404
Ił	-11405
Iž	-11406
Kw	-11407
Ta	-11408
Tä	-11409
Za	-11410
bl	-11411
dƛ	-11412
lb	-11413
lt	-11414
lä	-11415
mc	-11416
mm	-11417
ny	-11418
nz	-11419
pk	-11420
qk	-11421
qz	-11422
rb	-11423
sx	-11424
tr	-11425
tä	-11426
tł	-11427
we	-11428
wx	-11429
xy	-11430
xz	-11431
xä	-11432
xł	-11433
xƛ	-11434
yb	-11435
yc	-11436
yd	-11437
ye	-11438
yg	-11439
yi	-11440
yk	-11441
ys	-11442
yu	-11443
yw	-11444
yz	-11445
yƛ	-11446
yʕ	-11447
zb	-11448
ze	-11449
zg	-11450
zm	-11451
zq	-11452
zu	-11453
zy	-11454
zƛ	-11455
äg	-11456
äw	-11457
äč	-11458
äħ	-11459
äɣ	-11460
če	-11461
čk	-11462
čm	-11463
čn	-11464
čq	-11465
čr	-11466
čz	-11467
čä	-11468
čƛ	-11469
Ħi	-11470
Ħu	-11471
ħa	-11472
ħe	-11473
ħi	-11474
ħl	-11475
ħn	-11476
ħr	-11477
ħt	-11478
ħu	-11479
ħä	-11480
ħħ	-11481
ħƛ	-11482
Ła	-11483
Łi	-11484
Ło	-11485
łg	-11486
łk	-11487
łq	-11488
łr	-11489
łx	-11490
łz	-11491
łł	-11492
łƛ	-11493
łʕ	-11494
Ša	-11495
Še	-11496
Ši	-11497
Šu	-11498
šd	-11499
Bo	-11500
Dä	-11501
En	-11502
Hi	-11503
Ix	-11504
Na	-11505
Qa	-11506
Um	-11507
Xe	-11508
ko	-11509
kł	-11510
lm	-11511
ly	-11512
mn	-11513
my	-11514
nb	-11515
nk	-11516
nt	-11517
pƛ	-11518
rh	-11519
rm	-11520
rx	-11521
sy	-11522
ty	-11523
ču	-11524
ħy	-11525
Łʕ	-11526
łn	-11527
še	-11528
ši	-11529
šl	-11530
šm	-11531
št	-11532
šu	-11533
šw	-11534
šz	-11535
šƛ	-11536
Že	-11537
Ži	-11538
Žo	-11539
Žu	-11540
Žä	-11541
ža	-11542
žb	-11543
žd	-11544
žg	-11545
žo	-11546
žr	-11547
žu	-11548
žz	-11549
ƛe	-11550
ƛg	-11551
ƛn	-11552
ƛr	-11553
ƛs	-11554
ƛu	-11555
ƛx	-11556
ƛč	-11557
ƛƛ	-11558
ƛʕ	-11559
ɣa	-11560
ɣi	-11561
ɣn	-11562
ɣo	-11563
ɣq	-11564
ɣr	-11565
ɣz	-11566
ɣä	-11567
ɣł	-11568
ɣƛ	-11569
ɣʕ	-11570
ʕA	-11571
ʕU	-11572
ʕb	-11573
ʕe	-11574
ʕi	-11575
ʕl	-11576
ʕn	-11577
ʕr	-11578
ʕw	-11579
ʕx	-11580
ʕy	-11581
ʕä	-11582
ʕł	-11583
ʕɣ	-11584
▁a	-11585
▁o	-11586
Bor	-11587
But	-11588
Daɣ	-11589
Din	-11590
Gam	-11591
Goq	-11592
Har	-11593
Haw	-11594
How	-11595
Hut	-11596
Min	-11597
Nar	-11598
Oza	-11599
Ad	-11600
Ar	-11601
Aw	-11602
Aħ	-11603
Aƛ	-11604
Bu	-11605
Go	-11606
Ik	-11607
Oz	-11608
Ri	-11609
Un	-11610
Ur	-11611
Ze	-11612
co	-11613
cq	-11614
cr	-11615
eh	-11616
ge	-11617
gt	-11618
gy	-11619
gz	-11620
hn	-11621
ie	-11622
ll	-11623
lł	-11624
lƛ	-11625
mz	-11626
po	-11627
pä	-11628
qb	-11629
qt	-11630
qč	-11631
qƛ	-11632
rq	-11633
ss	-11634
wł	-11635
xr	-11636
yt	-11637
zz	-11638
čw	-11639
Ħa	-11640
Ħo	-11641
ħm	-11642
ħč	-11643
łd	-11644
ƛä	-11645
Baħ	-11646
Rac	-11647
Rał	-11648
Raɣ	-11649
Riƛ	-11650
Sab	-11651
Say	-11652
Sod	-11653
Tun	-11654
Wer	-11655
Yał	-11656
Yed	-11657
Yoq	-11658
Zey	-11659
Zow	-11660
aby	-11661
aci	-11662
aik	-11663
akr	-11664
alł	-11665
ami	-11666
amx	-11667
amä	-11668
ang	-11669
anm	-11670
anx	-11671
aqe	-11672
aqu	-11673
ark	-11674
ask	-11675
awc	-11676
awr	-11677
awz	-11678
axb	-11679
ayk	-11680
ayo	-11681
ayq	-11682
ayy	-11683
aył	-11684
azu	-11685
aħa	-11686
aħo	-11687
aħq	-11688
aħz	-11689
aħä	-11690
aħł	-11691
ałk	-11692
aƛa	-11693
aƛʕ	-11694
aɣb	-11695
aɣi	-11696
aɣł	-11697
aʕd	-11698
aʕi	-11699
Ac	-11700
Am	-11701
Bʕ	-11702
Et	-11703
Ha	-11704
Ig	-11705
Iz	-11706
Ič	-11707
Ox	-11708
Qe	-11709
Qʕ	-11710
Ro	-11711
Su	-11712
Wa	-11713
by	-11714
cm	-11715
dw	-11716
kä	-11717
mƛ	-11718
nc	-11719
oa	-11720
rs	-11721
rz	-11722
wg	-11723
wƛ	-11724
yɣ	-11725
zn	-11726
čy	-11727
ħz	-11728
Łä	-11729
łt	-11730
šo	-11731
šy	-11732
šä	-11733
ɣb	-11734
ɣm	-11735
ɣy	-11736
Kin	-11737
Mad	-11738
Mar	-11739
awl	-11740
aƛi	-11741
aɣä	-11742
bed	-11743
ber	-11744
beł	-11745
bie	-11746
bič	-11747
bno	-11748
bol	-11749
bor	-11750
boy	-11751
ced	-11752
cer	-11753
cid	-11754
cis	-11755
ciz	-11756
cno	-11757
coł	-11758
cur	-11759
cza	-11760
dag	-11761
daq	-11762
deł	-11763
dix	-11764
dno	-11765
dod	-11766
dza	-11767
eba	-11768
ebe	-11769
ebo	-11770
ebu	-11771
edi	-11772
edo	-11773
edz	-11774
eeƛ	-11775
egä	-11776
emo	-11777
epƛ	-11778
erc	-11779
ert	-11780
erx	-11781
erł	-11782
esg	-11783
esä	-11784
ezu	-11785
ełd	-11786
ełq	-11787
eƛo	-11788
git	-11789
gox	-11790
gun	-11791
had	-11792
hed	-11793
heł	-11794
hir	-11795
hut	-11796
ibu	-11797
ido	-11798
idt	-11799
Aq	-11800
Ga	-11801
Iš	-11802
Mo	-11803
Re	-11804
Tu	-11805
bd	-11806
cz	-11807
dg	-11808
dm	-11809
hz	-11810
kƛ	-11811
mb	-11812
mp	-11813
mq	-11814
mä	-11815
ns	-11816
nx	-11817
nʕ	-11818
pe	-11819
rħ	-11820
rʕ	-11821
sz	-11822
ua	-11823
xd	-11824
xs	-11825
xš	-11826
yč	-11827
ył	-11828
zt	-11829
zł	-11830
čʕ	-11831
žm	-11832
ƛc	-11833
ɣs	-11834
ɣx	-11835
ʕƛ	-11836
Dow	-11837
Mus	-11838
Ono	-11839
Zek	-11840
awd	-11841
awh	-11842
awš	-11843
ayč	-11844
ban	-11845
bru	-11846
dun	-11847
gno	-11848
idw	-11849
idƛ	-11850
imb	-11851
imy	-11852
imƛ	-11853
ina	-11854
ind	-11855
ine	-11856
ink	-11857
ins	-11858
int	-11859
inu	-11860
inw	-11861
inx	-11862
iny	-11863
inä	-11864
inł	-11865
inž	-11866
iqe	-11867
irq	-11868
irx	-11869
iwz	-11870
ixo	-11871
ixr	-11872
iyƛ	-11873
iƛc	-11874
iƛx	-11875
kiz	-11876
koq	-11877
kyo	-11878
kza	-11879
lab	-11880
lix	-11881
liƛ	-11882
lor	-11883
lxo	-11884
lya	-11885
lza	-11886
läy	-11887
mal	-11888
maq	-11889
maw	-11890
maħ	-11891
mbi	-11892
mce	-11893
med	-11894
met	-11895
mow	-11896
mur	-11897
mäy	-11898
nar	-11899
An	-11900
Ač	-11901
Aɣ	-11902
Ci	-11903
Cu	-11904
Ex	-11905
Eƛ	-11906
Im	-11907
In	-11908
Iq	-11909
Ke	-11910
Oh	-11911
Ol	-11912
On	-11913
Oš	-11914
dl	-11915
eʕ	-11916
ld	-11917
lg	-11918
mk	-11919
pʕ	-11920
rł	-11921
wo	-11922
xg	-11923
ym	-11924
yq	-11925
ħł	-11926
łs	-11927
Šo	-11928
šr	-11929
žƛ	-11930
ƛb	-11931
ʕO	-11932
ʕz	-11933
ale	-11934
aqg	-11935
gaz	-11936
hru	-11937
inn	-11938
isz	-11939
kay	-11940
nay	-11941
nał	-11942
nek	-11943
nib	-11944
niq	-11945
niz	-11946
nog	-11947
now	-11948
nyo	-11949
oca	-11950
ocu	-11951
odx	-11952
omł	-11953
omƛ	-11954
onc	-11955
ond	-11956
onq	-11957
ont	-11958
oqb	-11959
oqe	-11960
oqg	-11961
oqi	-11962
oqt	-11963
oqä	-11964
orb	-11965
orq	-11966
orx	-11967
orz	-11968
osa	-11969
owa	-11970
owd	-11971
owo	-11972
owr	-11973
owx	-11974
owz	-11975
owä	-11976
owƛ	-11977
oyi	-11978
ozy	-11979
ozz	-11980
oči	-11981
oła	-11982
ołƛ	-11983
oƛu	-11984
paw	-11985
qaɣ	-11986
qix	-11987
qiƛ	-11988
qoz	-11989
qun	-11990
qʕo	-11991
rak	-11992
raq	-11993
rił	-11994
rud	-11995
rut	-11996
ruy	-11997
ruł	-11998
rza	-11999
Qi	-12000
Rä	-12001
Se	-12002
Uy	-12003
We	-12004
Wi	-12005
ai	-12006
aä	-12007
bs	-12008
cs	-12009
ct	-12010
dr	-12011
gc	-12012
gn	-12013
gw	-12014
ht	-12015
kg	-12016
kk	-12017
md	-12018
nw	-12019
nž	-12020
py	-12021
sr	-12022
tt	-12023
ui	-12024
wi	-12025
yy	-12026
zw	-12027
äž	-12028
ħq	-12029
ħx	-12030
šx	-12031
ɣd	-12032
ʕd	-12033
ʕs	-12034
Hun	-12035
Mix	-12036
ass	-12037
aɣw	-12038
cal	-12039
gis	-12040
gur	-12041
irn	-12042
kur	-12043
niy	-12044
oqƛ	-12045
sar	-12046
sed	-12047
sey	-12048
sid	-12049
sim	-12050
siq	-12051
sir	-12052
sit	-12053
siy	-12054
siħ	-12055
soƛ	-12056
suk	-12057
sur	-12058
sza	-12059
tay	-12060
tał	-12061
taƛ	-12062
tes	-12063
tir	-12064
tno	-12065
tłi	-12066
udu	-12067
uey	-12068
uin	-12069
uku	-12070
ukł	-12071
ulu	-12072
unn	-12073
unä	-12074
unƛ	-12075
uqł	-12076
urm	-12077
uro	-12078
ury	-12079
urł	-12080
urž	-12081
usi	-12082
usn	-12083
usy	-12084
uta	-12085
uty	-12086
uyn	-12087
uzq	-12088
uħm	-12089
uħč	-12090
ušo	-12091
wed	-12092
wno	-12093
wsi	-12094
xał	-12095
xbi	-12096
xeƛ	-12097
xir	-12098
xiw	-12099
Ab	-12100
bł	-12101
cł	-12102
cʕ	-12103
ee	-12104
lʕ	-12105
ms	-12106
wh	-12107
äa	-12108
čt	-12109
Łe	-12110
ƛt	-12111
ƛł	-12112
ʕE	-12113
ʕI	-12114
ʕm	-12115
boł	-12116
ebr	-12117
edä	-12118
ero	-12119
esw	-12120
eył	-12121
giq	-12122
ing	-12123
inz	-12124
inƛ	-12125
kno	-12126
kxo	-12127
lin	-12128
mno	-12129
niw	-12130
nno	-12131
nok	-12132
noq	-12133
ody	-12134
ołi	-12135
pin	-12136
qer	-12137
qin	-12138
udb	-12139
ukm	-12140
wał	-12141
xed	-12142
xin	-12143
xno	-12144
xok	-12145
xwa	-12146
xza	-12147
xzi	-12148
yab	-12149
yač	-12150
yał	-12151
yaɣ	-12152
ysi	-12153
yxo	-12154
yza	-12155
zac	-12156
zam	-12157
zax	-12158
zer	-12159
zza	-12160
äde	-12161
čin	-12162
čir	-12163
čiw	-12164
čix	-12165
čił	-12166
čno	-12167
čor	-12168
čyo	-12169
čzo	-12170
Ħak	-12171
Ħas	-12172
Ħay	-12173
Ħon	-12174
Ħur	-12175
ħay	-12176
ħin	-12177
ħiz	-12178
ħoz	-12179
ħoł	-12180
ħuq	-12181
ħux	-12182
Łar	-12183
Łax	-12184
Łin	-12185
Łox	-12186
łan	-12187
łay	-12188
łaz	-12189
łir	-12190
łni	-12191
Šeƛ	-12192
šar	-12193
šay	-12194
šer	-12195
šid	-12196
šin	-12197
šis	-12198
šon	-12199
Esi	-12200
alƛ	-12201
ant	-12202
arc	-12203
asm	-12204
ałt	-12205
aƛä	-12206
bir	-12207
biƛ	-12208
cir	-12209
csi	-12210
eku	-12211
hno	-12212
koƛ	-12213
lis	-12214
lno	-12215
meł	-12216
mza	-12217
nid	-12218
noa	-12219
nod	-12220
not	-12221
noy	-12222
noz	-12223
nsi	-12224
par	-12225
qsi	-12226
ser	-12227
sia	-12228
sic	-12229
sig	-12230
sik	-12231
sip	-12232
sis	-12233
siw	-12234
six	-12235
siz	-12236
sič	-12237
sił	-12238
siƛ	-12239
ssi	-12240
tax	-12241
ukk	-12242
uti	-12243
waɣ	-12244
xsi	-12245
čun	-12246
ħno	-12247
łsi	-12248
šza	-12249
Žab	-12250
Žaq	-12251
Žed	-12252
Žin	-12253
Žun	-12254
žar	-12255
žay	-12256
žoq	-12257
žru	-12258
žun	-12259
žur	-12260
žuł	-12261
žzi	-12262
ƛan	-12263
ƛik	-12264
ƛno	-12265
ƛoq	-12266
ƛox	-12267
ƛoƛ	-12268
ƛsi	-12269
ƛuk	-12270
ƛun	-12271
ƛur	-12272
ƛäy	-12273
ɣaw	-12274
ɣaƛ	-12275
ɣed	-12276
ɣer	-12277
ɣeł	-12278
ɣin	-12279
ɣix	-12280
ɣiz	-12281
ɣno	-12282
ɣsi	-12283
ɣun	-12284
ʕad	-12285
ʕar	-12286
ʕeb	-12287
ʕer	-12288
ʕeł	-12289
ʕil	-12290
ʕič	-12291
ʕni	-12292
ʕsi	-12293
ʕum	-12294
ʕäy	-12295
▁Bä	-12296
▁Da	-12297
▁Gu	-12298
▁Ke	-12299
Cek	-12300
Dan	-12301
Gan	-12302
Mow	-12303
Qur	-12304
Uži	-12305
Wey	-12306
Xan	-12307
acq	-12308
anb	-12309
ane	-12310
ann	-12311
ans	-12312
any	-12313
anł	-12314
anɣ	-12315
awł	-12316
ayw	-12317
can	-12318
daƛ	-12319
emr	-12320
eƛn	-12321
iqa	-12322
ixƛ	-12323
kan	-12324
loq	-12325
owg	-12326
pan	-12327
ron	-12328
tni	-12329
uqb	-12330
urn	-12331
urt	-12332
xan	-12333
xiz	-12334
yoħ	-12335
zaʕ	-12336
čan	-12337
ħan	-12338
šiw	-12339
Žan	-12340
žan	-12341
ɣan	-12342
▁Ru	-12343
▁Rä	-12344
▁Te	-12345
▁Tu	-12346
▁Xa	-12347
▁Yu	-12348
▁Ze	-12349
▁bo	-12350
▁de	-12351
▁do	-12352
▁du	-12353
▁ed	-12354
▁em	-12355
▁ey	-12356
▁eł	-12357
▁ež	-12358
▁ga	-12359
▁hä	-12360
▁it	-12361
▁ka	-12362
▁ke	-12363
▁ko	-12364
▁kä	-12365
▁ni	-12366
▁no	-12367
▁nä	-12368
▁oy	-12369
▁qa	-12370
▁qe	-12371
▁qo	-12372
▁ra	-12373
▁ru	-12374
▁su	-12375
▁us	-12376
▁xe	-12377
▁xu	-12378
▁yo	-12379
▁yʕ	-12380
▁zu	-12381
▁ħe	-12382
▁Łä	-12383
▁ła	-12384
▁žo	-12385
▁žu	-12386
▁ƛi	-12387
▁ƛo	-12388
▁ɣa	-12389
▁ʕE	-12390
▁ʕe	-12391
Habi	-12392
Ziru	-12393
aban	-12394
abiy	-12395
aciƛ	-12396
adad	-12397
adan	-12398
adaħ	-12399
Bay	-12400
Did	-12401
Goƛ	-12402
Hoq	-12403
Hor	-12404
Nay	-12405
Qar	-12406
Seb	-12407
abu	-12408
adm	-12409
aya	-12410
ayb	-12411
ayg	-12412
ači	-12413
bos	-12414
cix	-12415
day	-12416
dor	-12417
erh	-12418
gor	-12419
hor	-12420
ixx	-12421
kor	-12422
lay	-12423
ore	-12424
org	-12425
ork	-12426
oro	-12427
ors	-12428
orł	-12429
ołä	-12430
pun	-12431
ray	-12432
roł	-12433
tor	-12434
unq	-12435
way	-12436
xas	-12437
xiƛ	-12438
ybi	-12439
zor	-12440
zun	-12441
Łay	-12442
Šid	-12443
šor	-12444
šur	-12445
žud	-12446
ƛay	-12447
ƛor	-12448
ɣes	-12449
▁pe	-12450
adaɣ	-12451
adid	-12452
adyo	-12453
agan	-12454
ahal	-12455
ahno	-12456
akiƛ	-12457
alad	-12458
alal	-12459
alik	-12460
aliz	-12461
aliƛ	-12462
alyo	-12463
amar	-12464
amaz	-12465
amed	-12466
amin	-12467
amir	-12468
amuš	-12469
amzo	-12470
anat	-12471
anis	-12472
anun	-12473
anur	-12474
anxo	-12475
anyo	-12476
anzo	-12477
aqil	-12478
aqin	-12479
aqoz	-12480
aqʕu	-12481
araħ	-12482
arer	-12483
ariz	-12484
arur	-12485
aruł	-12486
aruƛ	-12487
aryo	-12488
asaɣ	-12489
asim	-12490
asir	-12491
asoq	-12492
asoł	-12493
atun	-12494
atya	-12495
atyo	-12496
atzo	-12497
awbi	-12498
awes	-12499
Hay	-12500
Way	-12501
Yay	-12502
Zir	-12503
adu	-12504
ayi	-12505
aym	-12506
azb	-12507
bod	-12508
dir	-12509
eko	-12510
erz	-12511
exb	-12512
how	-12513
irz	-12514
irä	-12515
ixn	-12516
iłx	-12517
low	-12518
ner	-12519
owe	-12520
owq	-12521
ows	-12522
oww	-12523
owł	-12524
owž	-12525
oyr	-12526
pay	-12527
pur	-12528
qir	-12529
ros	-12530
row	-12531
say	-12532
tur	-12533
zir	-12534
zow	-12535
čru	-12536
šir	-12537
šix	-12538
šow	-12539
ƛir	-12540
ɣay	-12541
ʕay	-12542
▁Ti	-12543
▁nu	-12544
▁nʕ	-12545
▁pa	-12546
▁ta	-12547
anay	-12548
anbi	-12549
aqʕi	-12550
awya	-12551
axaɣ	-12552
ayan	-12553
ayno	-12554
aynč	-12555
aynƛ	-12556
ayoƛ	-12557
ayxo	-12558
azac	-12559
aħez	-12560
aħmu	-12561
aħoł	-12562
ašił	-12563
ažał	-12564
aƛaƛ	-12565
aƛir	-12566
aƛno	-12567
aƛoz	-12568
aƛoł	-12569
aƛun	-12570
aɣin	-12571
aɣno	-12572
aɣłi	-12573
aʕał	-12574
aʕid	-12575
aʕin	-12576
babi	-12577
baza	-12578
biey	-12579
caza	-12580
cinč	-12581
cono	-12582
cubi	-12583
cxor	-12584
dabi	-12585
daħa	-12586
duxƛ	-12587
däsi	-12588
dƛin	-12589
ebaq	-12590
ebax	-12591
ebex	-12592
ebik	-12593
ebno	-12594
eboz	-12595
ecix	-12596
edaz	-12597
edał	-12598
eden	-12599
Kaɣ	-12600
Mir	-12601
Qun	-12602
Rad	-12603
Sir	-12604
alz	-12605
awa	-12606
bun	-12607
cun	-12608
dbi	-12609
diz	-12610
dox	-12611
irc	-12612
ird	-12613
ire	-12614
iro	-12615
iry	-12616
irč	-12617
irł	-12618
iwq	-12619
kir	-12620
kun	-12621
liz	-12622
mir	-12623
nir	-12624
oqn	-12625
sun	-12626
tun	-12627
una	-12628
une	-12629
unz	-12630
urg	-12631
xun	-12632
yak	-12633
zaw	-12634
čaɣ	-12635
ħar	-12636
ħaħ	-12637
ħir	-12638
ħun	-12639
ħya	-12640
łza	-12641
žir	-12642
žix	-12643
ƛru	-12644
ɣir	-12645
ʕak	-12646
ʕed	-12647
▁da	-12648
▁ir	-12649
▁ma	-12650
▁mʕ	-12651
▁un	-12652
▁že	-12653
▁žä	-12654
acek	-12655
ecan	-12656
edaƛ	-12657
edes	-12658
edeʕ	-12659
edis	-12660
eduq	-12661
edux	-12662
edya	-12663
ekas	-12664
ekos	-12665
elab	-12666
eles	-12667
elno	-12668
emay	-12669
emed	-12670
emno	-12671
enin	-12672
eniq	-12673
eniƛ	-12674
eqxo	-12675
eroz	-12676
erun	-12677
erza	-12678
etax	-12679
exun	-12680
exus	-12681
eyza	-12682
eziy	-12683
ezon	-12684
ełan	-12685
ełaq	-12686
ełay	-12687
ełiƛ	-12688
ełza	-12689
ešun	-12690
ežur	-12691
ežus	-12692
eƛer	-12693
eƛsi	-12694
eƛxo	-12695
ganƛ	-12696
girč	-12697
girł	-12698
gono	-12699
Deb	-12700
Eni	-12701
Ned	-12702
Qal	-12703
Qud	-12704
axs	-12705
deƛ	-12706
did	-12707
edm	-12708
edt	-12709
edy	-12710
edł	-12711
eza	-12712
ełg	-12713
ged	-12714
ger	-12715
gxo	-12716
ked	-12717
lbi	-12718
lur	-12719
nbi	-12720
nza	-12721
oqa	-12722
oyƛ	-12723
qza	-12724
tar	-12725
urx	-12726
urɣ	-12727
wru	-12728
wza	-12729
xeł	-12730
yam	-12731
zab	-12732
zad	-12733
zag	-12734
zah	-12735
zap	-12736
zaħ	-12737
zaɣ	-12738
zoz	-12739
zur	-12740
čed	-12741
Ħoy	-12742
ħur	-12743
ħuł	-12744
łed	-12745
ɣza	-12746
ʕza	-12747
▁ki	-12748
▁ku	-12749
Isno	-12750
arxo	-12751
axuk	-12752
ayac	-12753
ayza	-12754
edas	-12755
edno	-12756
gyoƛ	-12757
gäru	-12758
gäsi	-12759
ibno	-12760
idak	-12761
idan	-12762
ideƛ	-12763
idir	-12764
idiw	-12765
idur	-12766
igol	-12767
ikor	-12768
ilaz	-12769
ilmu	-12770
imab	-12771
iman	-12772
inan	-12773
inaq	-12774
inar	-12775
inas	-12776
inay	-12777
iner	-12778
inno	-12779
inut	-12780
inza	-12781
inzo	-12782
inži	-12783
iqes	-12784
iquz	-12785
iraq	-12786
iraɣ	-12787
irce	-12788
iroy	-12789
iroz	-12790
iroƛ	-12791
iryo	-12792
itow	-12793
ixan	-12794
ixay	-12795
ixin	-12796
ixos	-12797
ixsi	-12798
ixxo	-12799
Bar	-12800
Kur	-12801
Mur	-12802
Nas	-12803
Sal	-12804
arb	-12805
are	-12806
ary	-12807
arä	-12808
arč	-12809
arɣ	-12810
axi	-12811
dar	-12812
ekw	-12813
enł	-12814
gar	-12815
ixw	-12816
ixä	-12817
ler	-12818
qur	-12819
rce	-12820
rux	-12821
sad	-12822
sał	-12823
urb	-12824
ure	-12825
urz	-12826
urä	-12827
urħ	-12828
xur	-12829
zid	-12830
čar	-12831
čur	-12832
Ħaž	-12833
ħäy	-12834
łar	-12835
žiz	-12836
ƛar	-12837
ɣur	-12838
ʕaħ	-12839
▁tu	-12840
▁xa	-12841
▁xi	-12842
▁xo	-12843
▁xw	-12844
Yedu	-12845
ahes	-12846
anax	-12847
aqno	-12848
aran	-12849
aray	-12850
arun	-12851
aħya	-12852
edar	-12853
eder	-12854
ediz	-12855
eqeł	-12856
ešno	-12857
iqil	-12858
iqus	-12859
irez	-12860
ixza	-12861
izok	-12862
izor	-12863
izoƛ	-12864
izyo	-12865
izäy	-12866
ičer	-12867
iłan	-12868
iłaƛ	-12869
išon	-12870
kala	-12871
kayn	-12872
kbar	-12873
kgon	-12874
krus	-12875
lahä	-12876
lgon	-12877
lƛin	-12878
mayn	-12879
maɣä	-12880
nabi	-12881
naza	-12882
ndur	-12883
noan	-12884
nocu	-12885
nƛax	-12886
nƛin	-12887
oboł	-12888
ocaz	-12889
odac	-12890
odal	-12891
odan	-12892
odes	-12893
odir	-12894
odoƛ	-12895
ogce	-12896
ogno	-12897
olaz	-12898
omor	-12899
Ber	-12900
Roq	-12901
arg	-12902
arm	-12903
arq	-12904
arx	-12905
arz	-12906
arł	-12907
arʕ	-12908
bas	-12909
baw	-12910
bez	-12911
boq	-12912
caw	-12913
doq	-12914
eru	-12915
gal	-12916
gum	-12917
her	-12918
hoq	-12919
imk	-12920
lam	-12921
oqo	-12922
oqw	-12923
oqx	-12924
oqč	-12925
oqł	-12926
qar	-12927
qoq	-12928
roq	-12929
soq	-12930
ułƛ	-12931
xer	-12932
xiq	-12933
zod	-12934
čer	-12935
čoƛ	-12936
Žar	-12937
žił	-12938
ƛon	-12939
ɣar	-12940
ɣoq	-12941
▁qi	-12942
▁zo	-12943
Debi	-12944
amaw	-12945
aner	-12946
arin	-12947
ałił	-12948
ažoq	-12949
aɣzo	-12950
ebał	-12951
ebiƛ	-12952
emur	-12953
eran	-12954
głin	-12955
irar	-12956
iroq	-12957
ixer	-12958
onad	-12959
onbi	-12960
onno	-12961
oqaz	-12962
oqbi	-12963
oqin	-12964
oqix	-12965
oqsi	-12966
oqza	-12967
oqʕu	-12968
orab	-12969
orbi	-12970
oreł	-12971
orid	-12972
orza	-12973
osax	-12974
osiw	-12975
otno	-12976
owan	-12977
ower	-12978
owno	-12979
owsi	-12980
owza	-12981
owži	-12982
oxaɣ	-12983
oxer	-12984
oxis	-12985
oxix	-12986
oybi	-12987
oysi	-12988
oyza	-12989
ozir	-12990
ozno	-12991
ozuƛ	-12992
očiƛ	-12993
oħay	-12994
ołix	-12995
ołsi	-12996
ožar	-12997
ožin	-12998
oƛaƛ	-12999
Haq	-13000
Her	-13001
Kid	-13002
Sid	-13003
Waʕ	-13004
Yex	-13005
aħƛ	-13006
bes	-13007
bit	-13008
biw	-13009
bix	-13010
biy	-13011
erg	-13012
idb	-13013
idg	-13014
idi	-13015
idq	-13016
idz	-13017
iwk	-13018
ixg	-13019
ixy	-13020
ker	-13021
kix	-13022
lid	-13023
lyo	-13024
mer	-13025
mix	-13026
nad	-13027
nix	-13028
sas	-13029
ter	-13030
wer	-13031
xix	-13032
xuk	-13033
äži	-13034
čes	-13035
ħer	-13036
ħid	-13037
ħix	-13038
Žoy	-13039
žid	-13040
ʕix	-13041
▁Hu	-13042
arid	-13043
asal	-13044
asey	-13045
aybi	-13046
dalƛ	-13047
ebeł	-13048
ekoq	-13049
eray	-13050
eroq	-13051
exux	-13052
idar	-13053
irbi	-13054
ičiƛ	-13055
moyä	-13056
näyƛ	-13057
očin	-13058
ołin	-13059
oƛan	-13060
oƛiq	-13061
oƛił	-13062
oƛor	-13063
oƛos	-13064
oɣxo	-13065
qayn	-13066
qgon	-13067
qtow	-13068
qƛin	-13069
qʕay	-13070
qʕek	-13071
race	-13072
riza	-13073
rtow	-13074
ryoz	-13075
sgon	-13076
sian	-13077
side	-13078
sisi	-13079
sixo	-13080
siyä	-13081
siza	-13082
skin	-13083
srun	-13084
stow	-13085
szaƛ	-13086
tasi	-13087
tawn	-13088
tayn	-13089
tinč	-13090
towe	-13091
täsi	-13092
tƛin	-13093
udax	-13094
udbi	-13095
udiƛ	-13096
ugir	-13097
uhru	-13098
ukad	-13099
Baq	-13100
Biz	-13101
Yaɣ	-13102
aey	-13103
all	-13104
aqo	-13105
aqr	-13106
aqt	-13107
aži	-13108
baq	-13109
baƛ	-13110
big	-13111
bih	-13112
bił	-13113
eca	-13114
ełä	-13115
gaɣ	-13116
kon	-13117
lon	-13118
mon	-13119
ona	-13120
onb	-13121
onw	-13122
ony	-13123
onä	-13124
onƛ	-13125
pik	-13126
put	-13127
qił	-13128
saʕ	-13129
son	-13130
tbi	-13131
ušy	-13132
waz	-13133
wbi	-13134
yod	-13135
yon	-13136
ħon	-13137
ƛiy	-13138
ɣbi	-13139
ʕaq	-13140
ʕuz	-13141
▁he	-13142
▁ho	-13143
▁čo	-13144
▁šä	-13145
adix	-13146
albi	-13147
arax	-13148
arłä	-13149
aħxo	-13150
ezun	-13151
idaq	-13152
igon	-13153
iriz	-13154
iɣor	-13155
onay	-13156
onin	-13157
onza	-13158
oqoz	-13159
oqxo	-13160
oxir	-13161
oƛaq	-13162
ukan	-13163
ukay	-13164
ukmu	-13165
ukłi	-13166
ulił	-13167
umes	-13168
umoł	-13169
umza	-13170
unan	-13171
unar	-13172
unay	-13173
uner	-13174
uneł	-13175
unin	-13176
unir	-13177
unix	-13178
unno	-13179
unoł	-13180
unyo	-13181
uqʕo	-13182
ural	-13183
urač	-13184
urer	-13185
urey	-13186
urin	-13187
uriy	-13188
uron	-13189
uroq	-13190
urow	-13191
uroz	-13192
uruł	-13193
urza	-13194
uräy	-13195
uräz	-13196
usez	-13197
utał	-13198
utir	-13199
Beł	-13200
Kik	-13201
Raq	-13202
Teł	-13203
Yaq	-13204
ady	-13205
aqz	-13206
aqä	-13207
axu	-13208
bad	-13209
bał	-13210
beƛ	-13211
caƛ	-13212
ceł	-13213
daɣ	-13214
eym	-13215
eła	-13216
ełi	-13217
ełt	-13218
ełx	-13219
ełƛ	-13220
geł	-13221
giƛ	-13222
isk	-13223
kił	-13224
laq	-13225
leł	-13226
luk	-13227
neł	-13228
paq	-13229
qeł	-13230
seł	-13231
teł	-13232
waq	-13233
xux	-13234
čeł	-13235
ħad	-13236
ħeł	-13237
ład	-13238
łeł	-13239
šod	-13240
ƛaq	-13241
ʕut	-13242
▁ze	-13243
▁zi	-13244
▁ło	-13245
acin	-13246
adir	-13247
alax	-13248
anaq	-13249
anes	-13250
aneł	-13251
aqar	-13252
aqon	-13253
aqza	-13254
araq	-13255
areł	-13256
arƛa	-13257
axir	-13258
aħeł	-13259
aɣar	-13260
aɣer	-13261
aʕiš	-13262
edaq	-13263
ekod	-13264
ełar	-13265
ełer	-13266
ełin	-13267
nqor	-13268
oqaq	-13269
oqeł	-13270
urat	-13271
utka	-13272
utku	-13273
utni	-13274
uxix	-13275
uyoƛ	-13276
uzan	-13277
uzno	-13278
učin	-13279
uħim	-13280
ułen	-13281
uƛas	-13282
uƛay	-13283
uƛno	-13284
wqay	-13285
wrun	-13286
wtow	-13287
wƛin	-13288
xayx	-13289
xrun	-13290
xzin	-13291
xäsi	-13292
ygon	-13293
ynon	-13294
ynoy	-13295
yqor	-13296
yrno	-13297
ytow	-13298
yäsi	-13299
Bad	-13300
Boƛ	-13301
Moƛ	-13302
Roƛ	-13303
Sad	-13304
Yoƛ	-13305
add	-13306
adl	-13307
adq	-13308
adt	-13309
awx	-13310
aƛo	-13311
aɣe	-13312
boƛ	-13313
coƛ	-13314
dad	-13315
doƛ	-13316
huk	-13317
kad	-13318
lad	-13319
oyz	-13320
oƛi	-13321
oƛn	-13322
oƛx	-13323
oƛä	-13324
xad	-13325
yad	-13326
äyg	-13327
äyn	-13328
äyt	-13329
čiq	-13330
Ħaš	-13331
ħom	-13332
šad	-13333
šoƛ	-13334
žoƛ	-13335
žäy	-13336
ƛos	-13337
▁Uy	-13338
▁äy	-13339
▁Žu	-13340
▁ɣe	-13341
ador	-13342
adun	-13343
anad	-13344
anuc	-13345
aqoƛ	-13346
aqʕo	-13347
arad	-13348
axin	-13349
aynk	-13350
aħno	-13351
aɣeł	-13352
bosi	-13353
eber	-13354
ebez	-13355
ełäy	-13356
idad	-13357
ilxo	-13358
imäy	-13359
inaƛ	-13360
inoƛ	-13361
onyo	-13362
oqad	-13363
oqoƛ	-13364
oƛir	-13365
oƛon	-13366
oƛun	-13367
ucik	-13368
unad	-13369
unäy	-13370
uroƛ	-13371
uɣuł	-13372
yƛin	-13373
zabi	-13374
zanä	-13375
zasi	-13376
zatä	-13377
zaxo	-13378
zinč	-13379
äsno	-13380
ätow	-13381
äxor	-13382
äxru	-13383
äxun	-13384
äyru	-13385
äzur	-13386
čiru	-13387
čtow	-13388
čƛin	-13389
ħaza	-13390
ħono	-13391
ħƛin	-13392
łgon	-13393
łira	-13394
łnon	-13395
łtow	-13396
łzaƛ	-13397
łƛin	-13398
Šida	-13399
Bes	-13400
Mes	-13401
Nes	-13402
Raħ	-13403
Xal	-13404
Xiz	-13405
axr	-13406
ces	-13407
dał	-13408
esa	-13409
esm	-13410
esn	-13411
eso	-13412
est	-13413
esu	-13414
hes	-13415
izy	-13416
iča	-13417
kod	-13418
les	-13419
qes	-13420
ryo	-13421
ses	-13422
täy	-13423
wes	-13424
xaɣ	-13425
xäy	-13426
yes	-13427
yäy	-13428
äyƛ	-13429
čas	-13430
ħes	-13431
žes	-13432
ɣxo	-13433
ʕod	-13434
▁čʕ	-13435
▁ʕa	-13436
▁ʕi	-13437
▁ʕo	-13438
▁ʕu	-13439
adäy	-13440
amaʕ	-13441
anał	-13442
aqäy	-13443
ares	-13444
aris	-13445
azad	-13446
aħat	-13447
ašuƛ	-13448
ažan	-13449
aƛor	-13450
aɣbi	-13451
aɣez	-13452
daħz	-13453
enis	-13454
esan	-13455
esur	-13456
ines	-13457
ores	-13458
owäy	-13459
uduk	-13460
ulur	-13461
umuk	-13462
unes	-13463
xork	-13464
äsir	-13465
äsiƛ	-13466
äysi	-13467
äyza	-13468
šiza	-13469
šrun	-13470
šƛin	-13471
ždaħ	-13472
žibi	-13473
žizi	-13474
ƛgon	-13475
ƛing	-13476
ƛino	-13477
ƛint	-13478
ƛinä	-13479
ƛinł	-13480
ƛinƛ	-13481
ƛozo	-13482
ƛtow	-13483
ƛƛin	-13484
ɣori	-13485
ɣors	-13486
ɣoru	-13487
ɣqay	-13488
ʕadä	-13489
ʕayn	-13490
ʕayä	-13491
ʕaza	-13492
ʕbin	-13493
ʕiri	-13494
ʕono	-13495
ʕura	-13496
ʕäsi	-13497
ʕƛin	-13498
▁Aħy	-13499
Neƛ	-13500
Wal	-13501
Wiz	-13502
Yiz	-13503
akb	-13504
alk	-13505
alm	-13506
alt	-13507
alu	-13508
aly	-13509
hal	-13510
hiz	-13511
izä	-13512
miq	-13513
miz	-13514
qiz	-13515
sal	-13516
wal	-13517
wiz	-13518
yal	-13519
ziz	-13520
čiz	-13521
ħal	-13522
łal	-13523
łiz	-13524
šac	-13525
šiz	-13526
žal	-13527
žaɣ	-13528
ƛiz	-13529
ɣal	-13530
ʕiz	-13531
ʕug	-13532
▁Ač	-13533
▁ul	-13534
▁še	-13535
▁ši	-13536
▁šo	-13537
▁šu	-13538
adiz	-13539
alaq	-13540
alar	-13541
ales	-13542
alun	-13543
aqiz	-13544
arim	-13545
arłi	-13546
ayde	-13547
azon	-13548
aħer	-13549
aħir	-13550
edus	-13551
ełiz	-13552
eƛäy	-13553
garu	-13554
izon	-13555
maɣł	-13556
okor	-13557
orxo	-13558
owal	-13559
qkin	-13560
ulan	-13561
ulay	-13562
uniz	-13563
zgon	-13564
ƛäsi	-13565
▁Bey	-13566
▁Bil	-13567
▁Bis	-13568
▁Bič	-13569
▁Bor	-13570
▁Buħ	-13571
▁Cuƛ	-13572
▁Dan	-13573
▁Gog	-13574
▁Hok	-13575
▁Muħ	-13576
▁Nec	-13577
▁Ned	-13578
▁Net	-13579
▁Nuk	-13580
▁Qʕa	-13581
▁Raz	-13582
▁Reƛ	-13583
▁Sad	-13584
▁Sas	-13585
▁Say	-13586
▁Sod	-13587
▁Xal	-13588
▁Yed	-13589
▁Yig	-13590
▁acm	-13591
▁aqz	-13592
▁ask	-13593
▁bag	-13594
▁bal	-13595
▁bih	-13596
▁bor	-13597
▁cod	-13598
▁dad	-13599
Dey	-13600
Hal	-13601
Qeb	-13602
Roɣ	-13603
Taw	-13604
alb	-13605
ald	-13606
alg	-13607
alž	-13608
awg	-13609
awu	-13610
ačq	-13611
dxo	-13612
exu	-13613
goy	-13614
gut	-13615
haw	-13616
lal	-13617
ley	-13618
mas	-13619
oɣn	-13620
ruc	-13621
soł	-13622
tal	-13623
taɣ	-13624
Ħal	-13625
łik	-13626
žib	-13627
ƛxo	-13628
ɣaz	-13629
▁uq	-13630
▁ɣu	-13631
Bayn	-13632
adal	-13633
alaw	-13634
aler	-13635
alza	-13636
awad	-13637
awno	-13638
ayaw	-13639
btow	-13640
cinł	-13641
edaw	-13642
etow	-13643
iqoz	-13644
iruq	-13645
manł	-13646
ntow	-13647
olay	-13648
oqal	-13649
oxan	-13650
oyno	-13651
towg	-13652
toww	-13653
ttow	-13654
xtow	-13655
yace	-13656
ztow	-13657
ħtow	-13658
łrun	-13659
▁Baž	-13660
▁dal	-13661
▁dan	-13662
▁dic	-13663
▁dun	-13664
▁däd	-13665
▁elb	-13666
▁enc	-13667
▁ger	-13668
▁hax	-13669
▁idä	-13670
▁ind	-13671
▁iži	-13672
▁kan	-13673
▁kaɣ	-13674
▁ked	-13675
▁kez	-13676
▁kin	-13677
▁kir	-13678
▁kuł	-13679
▁lan	-13680
▁mal	-13681
▁man	-13682
▁mes	-13683
▁mow	-13684
▁muq	-13685
▁muʕ	-13686
▁naħ	-13687
▁naɣ	-13688
▁ned	-13689
▁nes	-13690
▁nin	-13691
▁nuk	-13692
▁oqä	-13693
▁oqł	-13694
▁ozq	-13695
▁qar	-13696
▁qaħ	-13697
▁qiz	-13698
▁qur	-13699
Bey	-13700
Buk	-13701
Cey	-13702
Diƛ	-13703
Rok	-13704
Yey	-13705
awi	-13706
awo	-13707
awy	-13708
awä	-13709
awƛ	-13710
axy	-13711
aɣƛ	-13712
bey	-13713
cey	-13714
eyb	-13715
eyd	-13716
eye	-13717
eyg	-13718
eyk	-13719
eyq	-13720
eyz	-13721
goz	-13722
kat	-13723
koł	-13724
odr	-13725
osy	-13726
ołk	-13727
oło	-13728
ołx	-13729
saw	-13730
sez	-13731
tey	-13732
ułe	-13733
wey	-13734
xoł	-13735
yey	-13736
zoł	-13737
čel	-13738
čis	-13739
čoł	-13740
ħaw	-13741
Žał	-13742
ƛoł	-13743
ʕoł	-13744
aley	-13745
amał	-13746
amäz	-13747
arey	-13748
asya	-13749
awan	-13750
awza	-13751
eyes	-13752
gaɣʕ	-13753
idaw	-13754
inda	-13755
iroł	-13756
izox	-13757
oraw	-13758
oyän	-13759
ołal	-13760
ołir	-13761
ołiz	-13762
usan	-13763
ułxo	-13764
wann	-13765
▁bey	-13766
▁dik	-13767
▁mey	-13768
▁rał	-13769
▁rey	-13770
▁rir	-13771
▁roł	-13772
▁räg	-13773
▁sad	-13774
▁san	-13775
▁say	-13776
▁sim	-13777
▁suƛ	-13778
▁tal	-13779
▁taq	-13780
▁tar	-13781
▁tut	-13782
▁waz	-13783
▁yar	-13784
▁yaz	-13785
▁yed	-13786
▁yey	-13787
▁yeš	-13788
▁yiy	-13789
▁yiš	-13790
▁zan	-13791
▁zaħ	-13792
▁zaɣ	-13793
▁zoz	-13794
▁zud	-13795
▁čur	-13796
▁ħin	-13797
▁ħum	-13798
▁Łar	-13799
Rod	-13800
asa	-13801
atu	-13802
axa	-13803
aħi	-13804
aƛn	-13805
aɣm	-13806
eqk	-13807
gaƛ	-13808
imł	-13809
lał	-13810
odi	-13811
odo	-13812
odä	-13813
pul	-13814
saƛ	-13815
sod	-13816
sxo	-13817
čaƛ	-13818
Ħaƛ	-13819
ħaƛ	-13820
šyo	-13821
žaƛ	-13822
ƛaƛ	-13823
ʕat	-13824
adaƛ	-13825
agon	-13826
anaƛ	-13827
asar	-13828
aƛan	-13829
aƛar	-13830
aƛay	-13831
aƛaɣ	-13832
aƛer	-13833
aƛur	-13834
aƛäy	-13835
aɣił	-13836
dgon	-13837
enir	-13838
ełaƛ	-13839
eƛir	-13840
gond	-13841
irud	-13842
mbin	-13843
oxar	-13844
qʕäł	-13845
rgon	-13846
udeł	-13847
uliy	-13848
uɣud	-13849
wgon	-13850
xgon	-13851
ɣyoq	-13852
▁Bad	-13853
▁Yay	-13854
▁Łay	-13855
▁ład	-13856
▁łay	-13857
▁łił	-13858
▁łuk	-13859
▁łäħ	-13860
▁šad	-13861
▁šay	-13862
▁šey	-13863
▁šin	-13864
▁šiq	-13865
▁Žał	-13866
▁Žoy	-13867
▁žir	-13868
▁ƛir	-13869
▁ɣan	-13870
▁ɣar	-13871
▁ɣed	-13872
▁ɣir	-13873
▁ɣʕi	-13874
▁ɣʕu	-13875
▁ʕAw	-13876
▁ʕEz	-13877
▁ʕIš	-13878
▁ʕay	-13879
▁ʕaž	-13880
▁ʕed	-13881
▁ʕen	-13882
▁ʕor	-13883
▁ʕur	-13884
abani	-13885
abasi	-13886
abiwa	-13887
aciru	-13888
acʕal	-13889
adabi	-13890
adaxo	-13891
adyoł	-13892
ahawc	-13893
akany	-13894
alabi	-13895
alamä	-13896
alkin	-13897
allah	-13898
almaɣ	-13899
Bax	-13900
Ceƛ	-13901
Reƛ	-13902
Zoz	-13903
ame	-13904
aħl	-13905
aħn	-13906
ałz	-13907
aɣa	-13908
aɣd	-13909
aɣr	-13910
aɣu	-13911
aɣy	-13912
aɣz	-13913
baɣ	-13914
ceƛ	-13915
cod	-13916
elƛ	-13917
eƛa	-13918
eƛe	-13919
eƛi	-13920
eƛx	-13921
eƛä	-13922
eƛƛ	-13923
god	-13924
hil	-13925
kaɣ	-13926
laɣ	-13927
nis	-13928
nił	-13929
oyb	-13930
reƛ	-13931
rod	-13932
saɣ	-13933
sni	-13934
swa	-13935
zni	-13936
čni	-13937
ħaɣ	-13938
ħod	-13939
ħqo	-13940
Šeb	-13941
ƛni	-13942
ɣaɣ	-13943
▁ce	-13944
▁cu	-13945
Ižin	-13946
aqaɣ	-13947
ałni	-13948
aɣes	-13949
aɣix	-13950
aɣza	-13951
daħä	-13952
ebaƛ	-13953
ebeƛ	-13954
ebun	-13955
edił	-13956
eduƛ	-13957
ekwa	-13958
esni	-13959
exan	-13960
eƛan	-13961
eƛoq	-13962
idaɣ	-13963
irod	-13964
irqo	-13965
noxa	-13966
uram	-13967
uraɣ	-13968
šayn	-13969
žide	-13970
▁Elu	-13971
▁Łiƛ	-13972
▁šeb	-13973
altow	-13974
amadä	-13975
amali	-13976
amƛin	-13977
anabi	-13978
anbeg	-13979
andir	-13980
anqor	-13981
antow	-13982
anuru	-13983
anyoł	-13984
anyoƛ	-13985
anłiƛ	-13986
aqasi	-13987
aqgon	-13988
aqino	-13989
aqtow	-13990
aqƛin	-13991
aqʕir	-13992
aqʕur	-13993
arani	-13994
ardaħ	-13995
arinč	-13996
arkin	-13997
artow	-13998
aryoƛ	-13999
Hok	-14000
Maħ	-14001
Ris	-14002
Waz	-14003
Waħ	-14004
Yik	-14005
axo	-14006
aħe	-14007
aħm	-14008
aħu	-14009
aħx	-14010
aħy	-14011
aħħ	-14012
ałr	-14013
ałä	-14014
cxo	-14015
ekz	-14016
gaħ	-14017
ikƛ	-14018
mxo	-14019
pat	-14020
qxo	-14021
req	-14022
saħ	-14023
uht	-14024
uka	-14025
utä	-14026
uxo	-14027
waħ	-14028
xos	-14029
xoy	-14030
xxo	-14031
łxo	-14032
Šib	-14033
šim	-14034
šxo	-14035
Žuk	-14036
▁Ro	-14037
▁ƛu	-14038
▁ƛä	-14039
agoy	-14040
alał	-14041
atix	-14042
awoc	-14043
ayzo	-14044
aħes	-14045
aħix	-14046
aħod	-14047
aħon	-14048
aħor	-14049
ałix	-14050
ałza	-14051
ecsi	-14052
erya	-14053
ečma	-14054
idas	-14055
ikix	-14056
imoł	-14057
inał	-14058
inxo	-14059
ičan	-14060
išin	-14061
iƛun	-14062
kind	-14063
orax	-14064
orał	-14065
owxo	-14066
oƛał	-14067
oƛxo	-14068
xono	-14069
čqor	-14070
Žaza	-14071
▁Ixd	-14072
▁ozz	-14073
▁łaħ	-14074
astow	-14075
atinč	-14076
atiru	-14077
attow	-14078
atƛin	-14079
awgon	-14080
awniƛ	-14081
awtow	-14082
awƛin	-14083
axbin	-14084
axäsi	-14085
aydan	-14086
aynan	-14087
ayzay	-14088
azace	-14089
azade	-14090
azarg	-14091
azart	-14092
aħaza	-14093
aħoyä	-14094
aħozo	-14095
aħtow	-14096
aħƛin	-14097
ałgon	-14098
ałäza	-14099
Sas	-14100
acm	-14101
asy	-14102
ałg	-14103
ału	-14104
ałx	-14105
bab	-14106
cos	-14107
eži	-14108
imd	-14109
kał	-14110
kox	-14111
loz	-14112
oži	-14113
sax	-14114
tas	-14115
uži	-14116
zil	-14117
čab	-14118
łas	-14119
łał	-14120
Šom	-14121
šał	-14122
žał	-14123
žig	-14124
žik	-14125
žiq	-14126
Yayn	-14127
abił	-14128
andi	-14129
asan	-14130
ałir	-14131
dayn	-14132
edax	-14133
edud	-14134
eduy	-14135
eduz	-14136
eduł	-14137
erak	-14138
ełas	-14139
ełał	-14140
idat	-14141
imes	-14142
inos	-14143
layn	-14144
lqor	-14145
sayn	-14146
wqor	-14147
zayn	-14148
łeni	-14149
Žedu	-14150
žiza	-14151
ɣäsi	-14152
ʕalä	-14153
▁Beh	-14154
▁bež	-14155
▁dab	-14156
▁eqä	-14157
▁eži	-14158
▁mic	-14159
▁miy	-14160
▁mum	-14161
▁nas	-14162
▁žak	-14163
▁žam	-14164
▁žiƛ	-14165
alayn	-14166
aqayn	-14167
arayn	-14168
axiru	-14169
aynäy	-14170
ałayn	-14171
ałtow	-14172
aždaħ	-14173
aƛiru	-14174
aƛäsi	-14175
aƛƛin	-14176
aɣinč	-14177
aɣman	-14178
aɣort	-14179
aɣłin	-14180
aʕban	-14181
barno	-14182
barya	-14183
bigon	-14184
bitow	-14185
biƛin	-14186
canix	-14187
celin	-14188
cinaw	-14189
cinłi	-14190
cirno	-14191
cirun	-14192
ciƛin	-14193
cnosi	-14194
curxo	-14195
dagin	-14196
daħes	-14197
daħeł	-14198
daħno	-14199
Kut	-14200
Mek	-14201
asg	-14202
asu	-14203
but	-14204
cek	-14205
ekk	-14206
ičä	-14207
kas	-14208
mex	-14209
pek	-14210
rya	-14211
sru	-14212
tyo	-14213
utc	-14214
utn	-14215
xut	-14216
yaz	-14217
Łas	-14218
Žas	-14219
Žek	-14220
žas	-14221
ƛas	-14222
▁Nu	-14223
▁ħu	-14224
Babi	-14225
Qaza	-14226
abih	-14227
abiw	-14228
abiƛ	-14229
acez	-14230
adek	-14231
alas	-14232
asad	-14233
asoƛ	-14234
atin	-14235
awum	-14236
axeƛ	-14237
aħas	-14238
ałru	-14239
ašid	-14240
aɣyo	-14241
cäsi	-14242
edyo	-14243
ekiz	-14244
elza	-14245
exuƛ	-14246
gabi	-14247
hanƛ	-14248
iboq	-14249
maɣƛ	-14250
odyo	-14251
oqac	-14252
orut	-14253
očno	-14254
oƛas	-14255
säsi	-14256
uras	-14257
utix	-14258
utno	-14259
utyo	-14260
ušiw	-14261
xasi	-14262
äqor	-14263
čabi	-14264
ɣbin	-14265
▁Nas	-14266
▁hen	-14267
▁kum	-14268
▁xis	-14269
ansan	-14270
anyos	-14271
asgon	-14272
badin	-14273
birno	-14274
daɣor	-14275
dinay	-14276
dirno	-14277
duräz	-14278
duxno	-14279
duɣor	-14280
ecasi	-14281
ediya	-14282
edmoq	-14283
edƛin	-14284
ekwan	-14285
elyoł	-14286
enłäy	-14287
enƛin	-14288
eqzaƛ	-14289
eqƛin	-14290
ercin	-14291
ergon	-14292
erten	-14293
erƛin	-14294
esgon	-14295
esunč	-14296
esura	-14297
esƛin	-14298
exbin	-14299
Ruk	-14300
cru	-14301
duk	-14302
iba	-14303
kru	-14304
mru	-14305
ruš	-14306
ruƛ	-14307
ukr	-14308
xru	-14309
ħru	-14310
łru	-14311
šru	-14312
ʕek	-14313
ʕru	-14314
▁He	-14315
▁ab	-14316
▁ge	-14317
▁gi	-14318
▁gw	-14319
▁sa	-14320
▁so	-14321
▁ħi	-14322
adiƛ	-14323
ahzo	-14324
aluk	-14325
anuw	-14326
anuz	-14327
anuƛ	-14328
apek	-14329
aqru	-14330
aɣru	-14331
ekar	-14332
ekay	-14333
ilis	-14334
išan	-14335
mäsi	-14336
nanu	-14337
päsi	-14338
qäsi	-14339
siru	-14340
ukza	-14341
uʕan	-14342
wrno	-14343
zäsi	-14344
äsiw	-14345
čäsi	-14346
łuya	-14347
žäsi	-14348
▁Qal	-14349
▁Raž	-14350
▁bab	-14351
▁diw	-14352
▁diy	-14353
▁elu	-14354
▁elz	-14355
▁gal	-14356
▁god	-14357
▁yag	-14358
▁ħar	-14359
▁ʕIs	-14360
Kurno	-14361
abiya	-14362
adäsi	-14363
anusi	-14364
anuza	-14365
aräsi	-14366
ayäsi	-14367
enyoł	-14368
eybin	-14369
eyqor	-14370
ezgon	-14371
eztow	-14372
ezura	-14373
ečker	-14374
ełgon	-14375
ełinč	-14376
ełtow	-14377
ešiza	-14378
eƛƛin	-14379
eɣeni	-14380
ganix	-14381
ganno	-14382
gaɣor	-14383
gireł	-14384
giroƛ	-14385
girxo	-14386
gorno	-14387
guƛin	-14388
gärun	-14389
hanno	-14390
ibawz	-14391
idadä	-14392
idayn	-14393
idaza	-14394
idgon	-14395
idqor	-14396
idtow	-14397
igara	-14398
ilaza	-14399
Boy	-14400
cqo	-14401
gya	-14402
moy	-14403
nya	-14404
oko	-14405
oyq	-14406
oył	-14407
qoy	-14408
tya	-14409
usr	-14410
uya	-14411
xya	-14412
yac	-14413
zya	-14414
čok	-14415
šok	-14416
ʕoy	-14417
▁Ho	-14418
▁Zi	-14419
Baza	-14420
adax	-14421
adya	-14422
alär	-14423
ande	-14424
azas	-14425
azaz	-14426
azaɣ	-14427
aħoy	-14428
ažat	-14429
ažin	-14430
aƛoy	-14431
aɣya	-14432
biya	-14433
ekoy	-14434
eqno	-14435
ełis	-14436
inax	-14437
iƛax	-14438
kinł	-14439
laza	-14440
niya	-14441
noyx	-14442
okon	-14443
oyaƛ	-14444
oyod	-14445
oƛax	-14446
raza	-14447
rnok	-14448
siya	-14449
urya	-14450
yaza	-14451
ƛaza	-14452
▁Har	-14453
▁Haw	-14454
▁Her	-14455
▁esu	-14456
▁esä	-14457
▁xom	-14458
▁žoy	-14459
Debin	-14460
abtow	-14461
adaza	-14462
alaza	-14463
anaza	-14464
aqaza	-14465
aƛaza	-14466
aɣaza	-14467
eqkin	-14468
idasi	-14469
ildis	-14470
ilgon	-14471
ilƛin	-14472
inabi	-14473
ingon	-14474
iqanä	-14475
iqbin	-14476
iqosi	-14477
iqqay	-14478
iqtow	-14479
iqʕon	-14480
irabi	-14481
irbał	-14482
irnok	-14483
irnon	-14484
irnoƛ	-14485
iroyn	-14486
iryos	-14487
iryoƛ	-14488
irłun	-14489
irłäy	-14490
isgon	-14491
istow	-14492
ityoz	-14493
iwkin	-14494
ixaza	-14495
ixgon	-14496
ixoza	-14497
ixtow	-14498
ixzaƛ	-14499
Dox	-14500
Tax	-14501
axw	-14502
axä	-14503
ašl	-14504
gax	-14505
ibl	-14506
isä	-14507
iła	-14508
oxa	-14509
oxi	-14510
oxn	-14511
oxr	-14512
oxä	-14513
oxł	-14514
sän	-14515
säq	-14516
säɣ	-14517
tox	-14518
uyä	-14519
čox	-14520
ħos	-14521
ħox	-14522
łän	-14523
žox	-14524
▁Ħi	-14525
▁Žä	-14526
Sosi	-14527
akix	-14528
akił	-14529
alab	-14530
axoł	-14531
axxo	-14532
aƛox	-14533
diwt	-14534
dqor	-14535
emeł	-14536
ezur	-14537
inox	-14538
ičab	-14539
mqor	-14540
obod	-14541
olim	-14542
omoƛ	-14543
osik	-14544
osit	-14545
osix	-14546
osiy	-14547
osiƛ	-14548
oxay	-14549
oxon	-14550
oxäy	-14551
oyiq	-14552
qqor	-14553
säru	-14554
udun	-14555
zqor	-14556
łqor	-14557
ƛosi	-14558
▁Hul	-14559
▁dox	-14560
adqor	-14561
aqosi	-14562
arqor	-14563
axƛin	-14564
aħqor	-14565
aɣyos	-14566
inqor	-14567
iqayn	-14568
irqor	-14569
ixäsi	-14570
iyada	-14571
iyayn	-14572
iyayx	-14573
iziri	-14574
izäsi	-14575
ičƛin	-14576
iłgon	-14577
iłäza	-14578
iƛbon	-14579
kinaw	-14580
kinza	-14581
kuƛin	-14582
lahes	-14583
larno	-14584
laɣor	-14585
lizaq	-14586
lotow	-14587
manaƛ	-14588
manno	-14589
mares	-14590
mareł	-14591
marqo	-14592
matyo	-14593
mildi	-14594
mirno	-14595
mozaƛ	-14596
nigon	-14597
niqor	-14598
nixor	-14599
Biƛ	-14600
Bud	-14601
Miƛ	-14602
Qiƛ	-14603
Raž	-14604
ciƛ	-14605
diƛ	-14606
ecä	-14607
exł	-14608
gol	-14609
iƛä	-14610
kiƛ	-14611
kud	-14612
lud	-14613
miƛ	-14614
ocä	-14615
piƛ	-14616
tiƛ	-14617
udo	-14618
udä	-14619
ziƛ	-14620
čiƛ	-14621
Łiƛ	-14622
Šud	-14623
žuq	-14624
ɣud	-14625
▁Eš	-14626
▁Ež	-14627
▁Eɣ	-14628
Yeda	-14629
agax	-14630
arud	-14631
ayda	-14632
aƛiƛ	-14633
aɣiƛ	-14634
aʕan	-14635
edak	-14636
edzo	-14637
eƛiƛ	-14638
iniƛ	-14639
irim	-14640
iƛir	-14641
iƛur	-14642
nowa	-14643
oniƛ	-14644
oyiƛ	-14645
oynč	-14646
oyos	-14647
ozos	-14648
udal	-14649
uday	-14650
udał	-14651
udir	-14652
udno	-14653
udod	-14654
udox	-14655
udza	-14656
uliƛ	-14657
uniƛ	-14658
uriƛ	-14659
uruƛ	-14660
łeda	-14661
Žeda	-14662
▁Gan	-14663
▁Qur	-14664
▁Ris	-14665
▁cud	-14666
▁rež	-14667
▁reɣ	-14668
▁reʕ	-14669
▁saʕ	-14670
adyos	-14671
aqʕiƛ	-14672
erbaš	-14673
ideni	-14674
niƛin	-14675
nociƛ	-14676
noqor	-14677
noxor	-14678
noxuq	-14679
nočas	-14680
obora	-14681
oboyä	-14682
ocasi	-14683
odaza	-14684
odgon	-14685
odinč	-14686
odyos	-14687
odäsi	-14688
olayn	-14689
omoyn	-14690
onayx	-14691
onaza	-14692
onoču	-14693
ontow	-14694
onƛin	-14695
oqinč	-14696
oqnon	-14697
oqnoƛ	-14698
oqäsi	-14699
Tab	-14700
abd	-14701
abr	-14702
ažd	-14703
ikr	-14704
ilz	-14705
imu	-14706
iqi	-14707
iɣa	-14708
kab	-14709
kaz	-14710
mab	-14711
nab	-14712
qis	-14713
uħx	-14714
ħam	-14715
ħiq	-14716
žoz	-14717
ʕab	-14718
▁Xe	-14719
▁Xi	-14720
▁Xo	-14721
abas	-14722
abaw	-14723
abir	-14724
adab	-14725
adis	-14726
anab	-14727
awab	-14728
ciru	-14729
inab	-14730
iqaɣ	-14731
irab	-14732
irac	-14733
iruc	-14734
irul	-14735
irux	-14736
iruy	-14737
iruz	-14738
iruł	-14739
iruƛ	-14740
kiru	-14741
qzaƛ	-14742
tiru	-14743
uluƛ	-14744
urab	-14745
uxin	-14746
uyaw	-14747
ziru	-14748
ƛiru	-14749
▁Xab	-14750
▁hab	-14751
▁tab	-14752
▁Žab	-14753
▁Žig	-14754
▁Žun	-14755
anosi	-14756
ałiru	-14757
daƛin	-14758
exłiƛ	-14759
ilqor	-14760
iskin	-14761
mukus	-14762
oqłin	-14763
oqƛin	-14764
osisi	-14765
owace	-14766
owder	-14767
owqor	-14768
owäsi	-14769
oxaza	-14770
oxgon	-14771
oxƛin	-14772
oybin	-14773
oygon	-14774
oyqor	-14775
oziza	-14776
očori	-14777
očyaƛ	-14778
ołäyn	-14779
ołƛin	-14780
oƛaza	-14781
oƛixa	-14782
oƛƛos	-14783
oƛƛoz	-14784
oɣnoy	-14785
oɣłin	-14786
parno	-14787
patno	-14788
qanix	-14789
qinäy	-14790
qiran	-14791
qirno	-14792
qizaƛ	-14793
qnosi	-14794
raniƛ	-14795
rnosi	-14796
ruxor	-14797
rułin	-14798
rxanu	-14799
Ciq	-14800
Raz	-14801
Riq	-14802
baz	-14803
caz	-14804
cän	-14805
daz	-14806
iqb	-14807
iqo	-14808
iqq	-14809
iqu	-14810
iqä	-14811
iqł	-14812
kiq	-14813
laz	-14814
liq	-14815
maz	-14816
oħo	-14817
qaz	-14818
saz	-14819
taz	-14820
xaz	-14821
ziq	-14822
Łaz	-14823
šiq	-14824
ʕuq	-14825
▁Ba	-14826
▁Bi	-14827
▁Bo	-14828
▁Bu	-14829
▁Bʕ	-14830
alaz	-14831
aqaz	-14832
asaz	-14833
azni	-14834
azor	-14835
azoł	-14836
azoƛ	-14837
aħaz	-14838
aħiq	-14839
ałaz	-14840
aɣiq	-14841
aɣiw	-14842
ełaz	-14843
ełiq	-14844
iqan	-14845
iqeł	-14846
iqix	-14847
iqza	-14848
iziq	-14849
noci	-14850
onot	-14851
oqiq	-14852
owzo	-14853
ʕoƛu	-14854
▁Bax	-14855
▁Baħ	-14856
▁Biz	-14857
▁Boƛ	-14858
▁raz	-14859
▁xaz	-14860
▁zik	-14861
▁ʕol	-14862
aqrun	-14863
aqʕäy	-14864
aryam	-14865
awzas	-14866
exoyn	-14867
imkin	-14868
iqqor	-14869
rxosi	-14870
räƛin	-14871
sanes	-14872
sanix	-14873
saʕat	-14874
sener	-14875
sianu	-14876
sigon	-14877
siqor	-14878
sirno	-14879
sirun	-14880
siyoł	-14881
snosi	-14882
sxanu	-14883
sägon	-14884
sätow	-14885
säƛin	-14886
säɣor	-14887
tazar	-14888
taɣor	-14889
tenyo	-14890
tirno	-14891
tirun	-14892
towey	-14893
turno	-14894
uckin	-14895
udabi	-14896
udbin	-14897
uhalł	-14898
ukadä	-14899
Cuƛ	-14900
Mam	-14901
Qem	-14902
Ram	-14903
Tam	-14904
Zam	-14905
ahq	-14906
amm	-14907
amq	-14908
amu	-14909
amz	-14910
ema	-14911
eme	-14912
emq	-14913
emu	-14914
imq	-14915
kam	-14916
uli	-14917
čam	-14918
Ħum	-14919
šam	-14920
ʕam	-14921
▁Sa	-14922
▁Si	-14923
▁Su	-14924
alat	-14925
alim	-14926
amad	-14927
amaq	-14928
amas	-14929
amay	-14930
ameł	-14931
amiz	-14932
amno	-14933
amor	-14934
amoł	-14935
amoƛ	-14936
amru	-14937
amxo	-14938
amza	-14939
amäy	-14940
eman	-14941
emas	-14942
ginč	-14943
gubi	-14944
imez	-14945
iräł	-14946
ixra	-14947
iłił	-14948
kayx	-14949
sinč	-14950
ukam	-14951
ulin	-14952
ulud	-14953
ulun	-14954
xinč	-14955
činč	-14956
šinč	-14957
žinč	-14958
ɣinč	-14959
ʕyoł	-14960
▁Rad	-14961
▁Sab	-14962
▁Sal	-14963
▁Seb	-14964
▁cem	-14965
▁mam	-14966
▁nag	-14967
adinč	-14968
amayn	-14969
amäsi	-14970
anayx	-14971
aqinč	-14972
aruni	-14973
edurt	-14974
inčey	-14975
lizaƛ	-14976
tanix	-14977
ukani	-14978
ukayn	-14979
ukkin	-14980
ukmat	-14981
ulabi	-14982
ungon	-14983
unqor	-14984
untow	-14985
unäsi	-14986
unƛax	-14987
upäsi	-14988
uqbet	-14989
uqgon	-14990
uqƛin	-14991
urabi	-14992
uraza	-14993
urgon	-14994
urnok	-14995
urzas	-14996
urzaƛ	-14997
uräsi	-14998
urłin	-14999
Gul	-15000
Qac	-15001
Qʕa	-15002
Yez	-15003
aca	-15004
acx	-15005
acł	-15006
acʕ	-15007
ezn	-15008
gul	-15009
lez	-15010
mez	-15011
qez	-15012
uld	-15013
ulm	-15014
ułx	-15015
wac	-15016
wez	-15017
äłi	-15018
čul	-15019
łac	-15020
łet	-15021
šul	-15022
ƛac	-15023
ɣul	-15024
ʕac	-15025
ʕul	-15026
ʕuł	-15027
acan	-15028
aces	-15029
aceł	-15030
aceƛ	-15031
acir	-15032
aciz	-15033
acno	-15034
agiq	-15035
amez	-15036
anez	-15037
awul	-15038
enyo	-15039
exor	-15040
eyez	-15041
ezni	-15042
ezya	-15043
eƛez	-15044
icir	-15045
ilzo	-15046
iqez	-15047
isxo	-15048
ixac	-15049
iyad	-15050
mart	-15051
orez	-15052
owac	-15053
udez	-15054
udul	-15055
ulad	-15056
ulaw	-15057
ulaɣ	-15058
uler	-15059
ulon	-15060
uluł	-15061
urac	-15062
usaƛ	-15063
ułer	-15064
ułsi	-15065
wsno	-15066
▁Kin	-15067
▁Meɣ	-15068
▁wer	-15069
ałkin	-15070
daħzo	-15071
edude	-15072
ekizi	-15073
merno	-15074
uhubi	-15075
usnaq	-15076
utinč	-15077
utkar	-15078
utkaz	-15079
utkoz	-15080
utkoł	-15081
utkun	-15082
utnoƛ	-15083
utäsi	-15084
uxƛax	-15085
uzaza	-15086
uzqay	-15087
uzqor	-15088
uħmat	-15089
ułgon	-15090
ułtow	-15091
ušiwt	-15092
ušman	-15093
ušƛin	-15094
uƛgon	-15095
uƛxor	-15096
uƛƛin	-15097
wasar	-15098
wataw	-15099
Kus	-15100
aib	-15101
atz	-15102
end	-15103
ene	-15104
eny	-15105
enä	-15106
exa	-15107
lex	-15108
qen	-15109
rex	-15110
sen	-15111
ułk	-15112
ułä	-15113
Ħus	-15114
łen	-15115
žus	-15116
ƛuł	-15117
Užin	-15118
abaš	-15119
asug	-15120
aħił	-15121
aƛuł	-15122
ebig	-15123
ebič	-15124
ekuł	-15125
eneł	-15126
enid	-15127
eniz	-15128
enya	-15129
enän	-15130
esuł	-15131
exar	-15132
exbi	-15133
exeƛ	-15134
exur	-15135
exya	-15136
exza	-15137
exłi	-15138
ezen	-15139
iden	-15140
iles	-15141
imno	-15142
iłar	-15143
lisä	-15144
ozał	-15145
oɣor	-15146
qʕno	-15147
uden	-15148
ułir	-15149
užin	-15150
uɣor	-15151
zace	-15152
Šebi	-15153
ɣorz	-15154
ɣorä	-15155
ʕayx	-15156
▁Elz	-15157
▁Mir	-15158
▁Mur	-15159
▁Zam	-15160
▁pan	-15161
▁raʕ	-15162
abrun	-15163
asala	-15164
ebiey	-15165
ebiya	-15166
edyoł	-15167
enqor	-15168
exäsi	-15169
owžin	-15170
očyox	-15171
towli	-15172
utkoƛ	-15173
ułƛin	-15174
waɣor	-15175
wedin	-15176
wruni	-15177
wʕadä	-15178
xaysi	-15179
xaƛin	-15180
xirno	-15181
xoräł	-15182
xurno	-15183
yagon	-15184
yakin	-15185
yatno	-15186
yazaƛ	-15187
yaƛin	-15188
ynoda	-15189
ynosi	-15190
ynƛax	-15191
ynƛin	-15192
yorno	-15193
yozaq	-15194
yoƛin	-15195
zabin	-15196
zanix	-15197
zaxay	-15198
zaƛin	-15199
cik	-15200
deʕ	-15201
dis	-15202
głi	-15203
ika	-15204
ikm	-15205
iko	-15206
ikx	-15207
iso	-15208
isƛ	-15209
kik	-15210
kus	-15211
pis	-15212
tik	-15213
tis	-15214
ust	-15215
xus	-15216
zik	-15217
čus	-15218
ħis	-15219
ħus	-15220
łis	-15221
ƛis	-15222
ɣus	-15223
ɣuƛ	-15224
acis	-15225
ahqo	-15226
alis	-15227
ariy	-15228
arus	-15229
ašaw	-15230
ašiq	-15231
aƛis	-15232
aƛus	-15233
aɣis	-15234
ecir	-15235
esus	-15236
ezaƛ	-15237
ełäz	-15238
eƛis	-15239
ikno	-15240
ikon	-15241
ikoƛ	-15242
ikxo	-15243
irba	-15244
isin	-15245
isni	-15246
ison	-15247
isoł	-15248
izik	-15249
izis	-15250
odis	-15251
onis	-15252
ozaƛ	-15253
qrun	-15254
rzaƛ	-15255
ukus	-15256
ulus	-15257
urus	-15258
usad	-15259
usar	-15260
usas	-15261
usaw	-15262
usax	-15263
usaz	-15264
usał	-15265
uses	-15266
usoƛ	-15267
xzaƛ	-15268
yzaƛ	-15269
▁bus	-15270
▁kus	-15271
▁ħik	-15272
arzaƛ	-15273
elzas	-15274
irzaƛ	-15275
oqzaƛ	-15276
owxor	-15277
oyzaƛ	-15278
qotow	-15279
tirłi	-15280
ustow	-15281
utkay	-15282
zirno	-15283
zizaƛ	-15284
ziƛin	-15285
äciza	-15286
ärgon	-15287
äsian	-15288
äsiru	-15289
äxrun	-15290
äyrun	-15291
äztow	-15292
čanix	-15293
čirno	-15294
čiyaw	-15295
čizay	-15296
čizaƛ	-15297
čiƛin	-15298
čruni	-15299
Kec	-15300
Rec	-15301
ecn	-15302
koz	-15303
moz	-15304
ozi	-15305
ozq	-15306
ozu	-15307
ozł	-15308
ozƛ	-15309
xuƛ	-15310
ƛoz	-15311
akru	-15312
aħoz	-15313
ciza	-15314
ecaw	-15315
ecer	-15316
ecin	-15317
ecis	-15318
ecur	-15319
ecxo	-15320
eeni	-15321
emec	-15322
enił	-15323
girn	-15324
hrun	-15325
imzo	-15326
ixoz	-15327
krun	-15328
olar	-15329
omoy	-15330
onoq	-15331
ozid	-15332
ozix	-15333
oziz	-15334
ozod	-15335
ozoq	-15336
ozur	-15337
ozza	-15338
ozäy	-15339
oƛoz	-15340
oɣan	-15341
rłin	-15342
urič	-15343
weni	-15344
xayt	-15345
yrun	-15346
äzar	-15347
črun	-15348
šizi	-15349
ƛrun	-15350
▁Xec	-15351
▁rah	-15352
▁čor	-15353
agalu	-15354
alaył	-15355
anuwa	-15356
awrun	-15357
ayrun	-15358
ałrun	-15359
aɣrun	-15360
boƛin	-15361
curno	-15362
ecinč	-15363
ecäsi	-15364
exoyä	-15365
ikrun	-15366
oqbin	-15367
ozgon	-15368
rułäy	-15369
soƛin	-15370
ukrun	-15371
wʕaɣʕ	-15372
čäƛin	-15373
ħarno	-15374
ħaɣor	-15375
ħirno	-15376
ħotow	-15377
ħoƛin	-15378
ħurno	-15379
łegon	-15380
łetow	-15381
łiqor	-15382
łirno	-15383
łixor	-15384
łnosi	-15385
Šebin	-15386
šanix	-15387
šelno	-15388
širno	-15389
šoder	-15390
šoƛin	-15391
šruni	-15392
šurno	-15393
šxosi	-15394
žanix	-15395
žaɣor	-15396
ženid	-15397
ženiq	-15398
ženił	-15399
ata	-15400
ate	-15401
ati	-15402
aty	-15403
atä	-15404
guƛ	-15405
puƛ	-15406
uƛƛ	-15407
čuƛ	-15408
ħuƛ	-15409
łim	-15410
šat	-15411
šuƛ	-15412
žat	-15413
žuƛ	-15414
ɣat	-15415
ʕiš	-15416
ʕux	-15417
▁ču	-15418
arat	-15419
atan	-15420
atbi	-15421
ater	-15422
atir	-15423
axat	-15424
elez	-15425
ikat	-15426
ilyo	-15427
manƛ	-15428
orat	-15429
siłi	-15430
umiq	-15431
utko	-15432
uƛäy	-15433
xora	-15434
xori	-15435
xorz	-15436
xorä	-15437
yxor	-15438
zira	-15439
łxor	-15440
ƛxor	-15441
▁Suƛ	-15442
▁cuƛ	-15443
▁čam	-15444
▁łuƛ	-15445
▁Šeb	-15446
durno	-15447
ełxor	-15448
gurno	-15449
imyoq	-15450
iwgon	-15451
iƛxor	-15452
kaɣor	-15453
odxor	-15454
oqxor	-15455
ołxor	-15456
[...]
