<unk>	0
<s>	0
</s>	0
▁t	-0
▁a	-1
he	-2
in	-3
re	-4
▁the	-5
▁w	-6
▁.	-7
▁o	-8
▁s	-9
er	-10
nd	-11
ou	-12
at	-13
▁,	-14
▁c	-15
on	-16
is	-17
▁b	-18
▁f	-19
it	-20
▁to	-21
or	-22
▁m	-23
an	-24
▁p	-25
ing	-26
ed	-27
en	-28
▁I	-29
▁h	-30
es	-31
ll	-32
▁and	-33
▁d	-34
ar	-35
▁in	-36
▁n	-37
▁th	-38
as	-39
▁of	-40
le	-41
ic	-42
om	-43
▁y	-44
al	-45
ve	-46
▁g	-47
▁T	-48
▁l	-49
▁you	-50
▁re	-51
ion	-52
▁be	-53
us	-54
▁e	-55
ot	-56
▁A	-57
ent	-58
▁is	-59
▁ha	-60
ay	-61
ut	-62
▁S	-63
ow	-64
▁on	-65
▁for	-66
et	-67
ly	-68
▁that	-69
ac	-70
id	-71
▁'	-72
ld	-73
--	-74
▁it	-75
im	-76
ver	-77
▁he	-78
ro	-79
▁C	-80
ur	-81
▁we	-82
▁P	-83
ig	-84
st	-85
ill	-86
▁M	-87
▁-	-88
ad	-89
ce	-90
ke	-91
▁The	-92
ir	-93
am	-94
▁an	-95
ct	-96
ith	-97
▁have	-98
▁st	-99
▁was	-100
▁W	-101
▁B	-102
all	-103
▁with	-104
▁wh	-105
▁do	-106
il	-107
oo	-108
ould	-109
▁as	-110
se	-111
▁not	-112
▁H	-113
00	-114
ation	-115
ra	-116
if	-117
ter	-118
▁me	-119
▁are	-120
▁"	-121
▁u	-122
▁at	-123
▁D	-124
▁1	-125
▁ne	-126
▁this	-127
▁N	-128
ge	-129
▁E	-130
▁or	-131
▁will	-132
▁?	-133
▁)	-134
ch	-135
her	-136
▁F	-137
ri	-138
ate	-139
▁(	-140
▁de	-141
▁se	-142
▁they	-143
op	-144
igh	-145
ome	-146
▁2	-147
ment	-148
ul	-149
ant	-150
▁G	-151
▁con	-152
ers	-153
▁my	-154
▁L	-155
th	-156
ust	-157
ist	-158
est	-159
▁pro	-160
----	-161
ble	-162
▁r	-163
▁ex	-164
▁!	-165
▁le	-166
▁k	-167
ore	-168
▁:	-169
▁R	-170
ess	-171
pp	-172
rom	-173
qu	-174
ice	-175
▁your	-176
▁al	-177
▁su	-178
▁li	-179
ol	-180
nt	-181
▁J	-182
▁Th	-183
el	-184
▁wor	-185
▁sh	-186
▁can	-187
▁from	-188
▁j	-189
▁com	-190
▁O	-191
ight	-192
ain	-193
▁go	-194
▁so	-195
pe	-196
..	-197
▁would	-198
▁but	-199
ood	-200
one	-201
res	-202
very	-203
ard	-204
ie	-205
ally	-206
▁ab	-207
out	-208
ort	-209
gh	-210
▁pl	-211
um	-212
▁by	-213
ks	-214
ive	-215
os	-216
▁out	-217
▁all	-218
▁ch	-219
▁us	-220
un	-221
te	-222
__	-223
art	-224
▁any	-225
▁v	-226
ity	-227
ack	-228
▁has	-229
ake	-230
▁tr	-231
and	-232
▁up	-233
▁Y	-234
▁kn	-235
▁whe	-236
ime	-237
▁if	-238
ff	-239
▁get	-240
red	-241
▁like	-242
king	-243
▁there	-244
ase	-245
rou	-246
▁had	-247
ast	-248
▁know	-249
▁U	-250
▁some	-251
ber	-252
ost	-253
reat	-254
ich	-255
▁one	-256
▁about	-257
ear	-258
ther	-259
ame	-260
ind	-261
▁K	-262
pt	-263
ud	-264
age	-265
ies	-266
ace	-267
▁time	-268
▁It	-269
▁am	-270
so	-271
▁his	-272
em	-273
ions	-274
==	-275
ect	-276
▁them	-277
ap	-278
end	-279
ond	-280
ail	-281
ine	-282
ab	-283
▁ad	-284
iv	-285
▁We	-286
▁just	-287
ide	-288
▁off	-289
ong	-290
▁ag	-291
▁qu	-292
▁who	-293
ans	-294
act	-295
▁what	-296
com	-297
▁were	-298
▁their	-299
--------	-300
▁fe	-301
able	-302
ak	-303
▁sa	-304
od	-305
ays	-306
oc	-307
ure	-308
▁...	-309
▁our	-310
▁been	-311
▁want	-312
▁which	-313
ry	-314
our	-315
ite	-316
▁him	-317
per	-318
ven	-319
▁when	-320
!!	-321
ial	-322
▁year	-323
▁en	-324
are	-325
erv	-326
▁very	-327
ep	-328
▁other	-329
▁sp	-330
▁pr	-331
▁man	-332
ia	-333
▁He	-334
▁call	-335
▁comp	-336
▁0	-337
▁200	-338
ous	-339
lease	-340
ough	-341
ue	-342
▁3	-343
▁more	-344
▁pe	-345
▁need	-346
ign	-347
ush	-348
ount	-349
▁could	-350
▁In	-351
▁no	-352
ated	-353
▁work	-354
▁did	-355
▁also	-356
▁If	-357
▁$	-358
▁res	-359
▁back	-360
▁over	-361
ick	-362
▁good	-363
mer	-364
▁They	-365
ip	-366
fter	-367
ree	-368
ag	-369
▁she	-370
▁Than	-371
▁only	-372
ob	-373
ink	-374
▁app	-375
▁Ch	-376
▁cl	-377
ence	-378
▁i	-379
▁ac	-380
▁un	-381
▁dis	-382
▁cont	-383
/2	-384
ary	-385
▁hel	-386
**	-387
▁new	-388
ile	-389
ance	-390
ron	-391
ress	-392
____	-393
hed	-394
use	-395
ople	-396
▁help	-397
▁loo	-398
▁pre	-399
ose	-400
▁bec	-401
▁than	-402
iz	-403
▁V	-404
▁int	-405
ove	-406
▁You	-407
int	-408
fe	-409
oll	-410
▁see	-411
▁people	-412
▁Al	-413
ru	-414
▁5	-415
▁rep	-416
cl	-417
hing	-418
▁per	-419
▁said	-420
▁should	-421
itt	-422
▁her	-423
wn	-424
ire	-425
▁im	-426
▁Bush	-427
▁how	-428
▁even	-429
▁serv	-430
▁4	-431
ang	-432
▁ar	-433
ause	-434
▁let	-435
ked	-436
▁may	-437
day	-438
▁@	-439
ving	-440
▁act	-441
▁after	-442
▁This	-443
▁/	-444
ord	-445
▁too	-446
nder	-447
▁te	-448
▁way	-449
ian	-450
▁7	-451
ade	-452
own	-453
▁gu	-454
▁now	-455
ass	-456
▁Wh	-457
000	-458
fore	-459
▁going	-460
▁place	-461
▁part	-462
orm	-463
▁take	-464
ren	-465
ical	-466
▁great	-467
▁Thanks	-468
▁wee	-469
▁every	-470
▁ro	-471
▁att	-472
▁rec	-473
▁bl	-474
▁into	-475
▁then	-476
av	-477
round	-478
▁think	-479
▁well	-480
▁again	-481
ck	-482
ub	-483
iew	-484
uch	-485
▁ke	-486
ater	-487
▁car	-488
▁che	-489
ull	-490
ult	-491
▁St	-492
▁US	-493
▁spe	-494
▁because	-495
ark	-496
▁sc	-497
irst	-498
air	-499
====	-500
pl	-501
▁@@	-502
▁En	-503
▁say	-504
ft	-505
urn	-506
▁tw	-507
tt	-508
▁bel	-509
▁day	-510
riend	-511
ach	-512
ave	-513
ince	-514
ings	-515
ident	-516
ne	-517
▁po	-518
▁make	-519
▁before	-520
▁6	-521
ious	-522
▁add	-523
▁under	-524
▁â	-525
umber	-526
ran	-527
▁An	-528
▁--	-529
ound	-530
ments	-531
other	-532
vel	-533
cess	-534
▁reg	-535
▁much	-536
og	-537
ful	-538
ons	-539
ER	-540
li	-541
ved	-542
ily	-543
▁inte	-544
▁Please	-545
ah	-546
pect	-547
ition	-548
oy	-549
ish	-550
ating	-551
aw	-552
raq	-553
▁inf	-554
▁Iraq	-555
ec	-556
▁does	-557
▁food	-558
iss	-559
▁As	-560
▁Sh	-561
▁tra	-562
▁service	-563
ib	-564
we	-565
xt	-566
sel	-567
▁Is	-568
view	-569
▁own	-570
▁pos	-571
▁really	-572
----------------	-573
tern	-574
▁friend	-575
ting	-576
▁war	-577
▁first	-578
ens	-579
ise	-580
▁Do	-581
mail	-582
ning	-583
▁And	-584
▁try	-585
▁many	-586
▁bus	-587
▁being	-588
▁My	-589
▁fl	-590
rough	-591
▁made	-592
ations	-593
ax	-594
ew	-595
lic	-596
ple	-597
lect	-598
▁got	-599
▁mon	-600
▁two	-601
▁most	-602
▁years	-603
▁11	-604
ward	-605
▁ter	-606
▁use	-607
▁here	-608
▁long	-609
▁10	-610
▁ca	-611
▁put	-612
ci	-613
ory	-614
▁its	-615
▁rem	-616
▁these	-617
▁find	-618
▁quest	-619
und	-620
▁des	-621
istan	-622
▁Amer	-623
▁never	-624
▁right	-625
hen	-626
ually	-627
▁same	-628
ors	-629
thing	-630
▁give	-631
▁There	-632
▁Americ	-633
gg	-634
ces	-635
▁PM	-636
ange	-637
comm	-638
▁inv	-639
omet	-640
▁How	-641
▁still	-642
ath	-643
rent	-644
ady	-645
oth	-646
▁aw	-647
▁ph	-648
blem	-649
▁dif	-650
▁fin	-651
▁down	-652
▁sm	-653
erson	-654
▁last	-655
▁problem	-656
get	-657
ope	-658
ever	-659
▁vis	-660
▁conf	-661
▁sign	-662
▁please	-663
▁Q	-664
any	-665
rest	-666
iness	-667
ational	-668
▁though	-669
du	-670
▁ass	-671
▁requ	-672
ife	-673
▁co	-674
▁cle	-675
▁lot	-676
▁exper	-677
▁month	-678
▁19	-679
▁But	-680
▁sur	-681
ict	-682
▁Re	-683
▁bu	-684
▁imp	-685
▁disc	-686
▁sure	-687
▁around	-688
▁bet	-689
▁fam	-690
▁min	-691
▁hand	-692
▁point	-693
▁start	-694
ON	-695
der	-696
ris	-697
▁somet	-698
commend	-699
als	-700
ert	-701
ates	-702
▁cou	-703
▁ear	-704
▁cons	-705
▁through	-706
ina	-707
ower	-708
▁Ind	-709
▁ent	-710
▁feel	-711
▁price	-712
▁&	-713
ible	-714
▁Enron	-715
ix	-716
clud	-717
ices	-718
aking	-719
▁told	-720
▁world	-721
30	-722
aff	-723
alk	-724
imes	-725
ience	-726
▁comm	-727
▁meet	-728
▁>	-729
vers	-730
▁ret	-731
▁What	-732
▁high	-733
▁keep	-734
▁next	-735
▁person	-736
▁another	-737
▁recommend	-738
****	-739
ject	-740
▁dec	-741
▁week	-742
▁called	-743
man	-744
uss	-745
▁TH	-746
cial	-747
ited	-748
▁Can	-749
▁sec	-750
▁tri	-751
▁list	-752
________	-753
EN	-754
ool	-755
ual	-756
▁De	-757
▁So	-758
cept	-759
▁end	-760
▁iss	-761
feren	-762
ittle	-763
ollow	-764
▁come	-765
▁<	-766
ific	-767
mber	-768
▁few	-769
▁home	-770
▁those	-771
ss	-772
▁pol	-773
ility	-774
▁resp	-775
▁count	-776
▁20	-777
▁el	-778
▁ref	-779
▁rel	-780
▁review	-781
oh	-782
ys	-783
▁AM	-784
▁!!!	-785
▁Per	-786
▁She	-787
▁set	-788
▁happ	-789
▁used	-790
▁follow	-791
TM	-792
▁8	-793
▁;	-794
ener	-795
self	-796
ways	-797
▁ins	-798
▁days	-799
▁deal	-800
▁belie	-801
▁since	-802
▁trans	-803
▁little	-804
cy	-805
med	-806
old	-807
row	-808
▁op	-809
▁wr	-810
ased	-811
roup	-812
▁def	-813
ached	-814
▁supp	-815
▁where	-816
▁report	-817
▁business	-818
ves	-819
▁Am	-820
▁ra	-821
vern	-822
▁look	-823
▁night	-824
ank	-825
▁15	-826
ason	-827
here	-828
land	-829
▁acc	-830
▁inc	-831
▁sub	-832
▁Iran	-833
▁plan	-834
▁room	-835
▁show	-836
▁number	-837
AS	-838
gy	-839
ell	-840
▁br	-841
ouse	-842
▁Com	-843
▁name	-844
▁prov	-845
▁includ	-846
ash	-847
ild	-848
yst	-849
oney	-850
▁New	-851
▁ext	-852
ities	-853
▁both	-854
▁care	-855
ues	-856
/200	-857
ional	-858
▁lead	-859
▁always	-860
▁interest	-861
3-	-862
▁ev	-863
arge	-864
▁Mar	-865
▁exp	-866
/1	-867
IN	-868
▁Le	-869
ustom	-870
▁rece	-871
▁while	-872
▁change	-873
ait	-874
ner	-875
ents	-876
▁cur	-877
▁det	-878
▁ind	-879
▁met	-880
ready	-881
▁inst	-882
▁terr	-883
pr	-884
▁ve	-885
ters	-886
ular	-887
▁inform	-888
▁already	-889
▁something	-890
ute	-891
▁cor	-892
▁That	-893
▁When	-894
▁things	-895
▁NO	-896
akes	-897
ween	-898
▁job	-899
▁pay	-900
▁between	-901
gr	-902
arg	-903
min	-904
,000	-905
ative	-906
▁money	-907
ference	-908
▁custom	-909
az	-910
be	-911
bs	-912
mb	-913
▁May	-914
/2001	-915
▁rest	-916
▁send	-917
▁took	-918
▁went	-919
▁appro	-920
▁family	-921
▁office	-922
========	-923
▁9	-924
amp	-925
ern	-926
ied	-927
▁No	-928
▁bo	-929
▁loc	-930
stand	-931
uring	-932
▁done	-933
▁real	-934
▁inter	-935
▁treat	-936
resident	-937
▁looking	-938
▁experience	-939
ph	-940
ced	-941
cell	-942
part	-943
▁cat	-944
▁anyone	-945
cc	-946
up	-947
ook	-948
▁IS	-949
▁Ph	-950
ines	-951
▁Joh	-952
▁eff	-953
/2000	-954
▁else	-955
▁such	-956
▁tell	-957
▁found	-958
▁might	-959
▁staff	-960
reement	-961
▁company	-962
▁questions	-963
ex	-964
rem	-965
ably	-966
ract	-967
▁John	-968
▁form	-969
▁love	-970
▁nice	-971
▁post	-972
▁doing	-973
▁elect	-974
▁order	-975
▁water	-976
▁Se	-977
▁dra	-978
velop	-979
▁read	-980
▁return	-981
▁discuss	-982
ara	-983
les	-984
▁Ex	-985
▁sl	-986
ards	-987
▁For	-988
▁far	-989
▁hot	-990
▁mil	-991
ather	-992
▁came	-993
▁conc	-994
▁poss	-995
ention	-996
▁China	-997
▁state	-998
ike	-999
rid	-1000
▁71	-1001
▁mo	-1002
▁Pak	-1003
▁old	-1004
▁run	-1005
▁able	-1006
▁away	-1007
▁hard	-1008
▁open	-1009
▁thing	-1010
▁Pakistan	-1011
ems	-1012
▁!!	-1013
▁On	-1014
▁cr	-1015
▁adv	-1016
▁hor	-1017
▁leg	-1018
▁each	-1019
▁left	-1020
▁life	-1021
▁mess	-1022
▁group	-1023
▁visit	-1024
con	-1025
ient	-1026
ures	-1027
▁str	-1028
▁mark	-1029
▁wait	-1030
▁email	-1031
▁gener	-1032
OU	-1033
▁Be	-1034
▁Je	-1035
▁Un	-1036
▁Con	-1037
▁cap	-1038
▁cost	-1039
▁expl	-1040
▁head	-1041
▁play	-1042
▁test	-1043
▁govern	-1044
TE	-1045
ale	-1046
ars	-1047
▁12	-1048
▁Not	-1049
▁mod	-1050
▁asked	-1051
▁chang	-1052
▁clean	-1053
▁offic	-1054
▁getting	-1055
▁meeting	-1056
mm	-1057
duct	-1058
▁Pro	-1059
▁ans	-1060
▁big	-1061
▁giv	-1062
▁unt	-1063
▁atte	-1064
▁power	-1065
▁small	-1066
▁having	-1067
▁request	-1068
▁understand	-1069
aur	-1070
ger	-1071
led	-1072
ody	-1073
▁av	-1074
cent	-1075
ered	-1076
less	-1077
▁bad	-1078
▁bit	-1079
▁opt	-1080
irect	-1081
▁cert	-1082
▁full	-1083
▁hope	-1084
▁today	-1085
▁Number	-1086
▁American	-1087
ty	-1088
:00	-1089
irl	-1090
▁At	-1091
ared	-1092
ruct	-1093
▁All	-1094
▁dog	-1095
▁dri	-1096
▁sim	-1097
ately	-1098
▁against	-1099
▁someone	-1100
▁anything	-1101
hip	-1102
ney	-1103
▁Ar	-1104
▁Dr	-1105
▁gl	-1106
ense	-1107
ived	-1108
▁buy	-1109
▁fun	-1110
▁oil	-1111
itary	-1112
ublic	-1113
▁pass	-1114
▁perf	-1115
▁says	-1116
▁train	-1117
cellent	-1118
▁expect	-1119
▁reason	-1120
▁forward	-1121
▁nothing	-1122
▁working	-1123
ork	-1124
orn	-1125
ric	-1126
▁..	-1127
▁Af	-1128
▁nt	-1129
port	-1130
▁fil	-1131
ferent	-1132
illion	-1133
▁times	-1134
▁enough	-1135
▁actually	-1136
▁different	-1137
▁lo	-1138
▁bir	-1139
▁pur	-1140
▁fact	-1141
▁hear	-1142
ection	-1143
▁least	-1144
▁trying	-1145
▁information	-1146
AL	-1147
irm	-1148
ism	-1149
uck	-1150
▁Or	-1151
osed	-1152
▁Car	-1153
▁ser	-1154
ality	-1155
▁Frid	-1156
▁answ	-1157
▁prob	-1158
▁during	-1159
▁partic	-1160
▁believe	-1161
▁develop	-1162
joy	-1163
tty	-1164
!!!!	-1165
ross	-1166
▁Jan	-1167
▁aff	-1168
▁par	-1169
chool	-1170
onder	-1171
ution	-1172
▁coll	-1173
▁must	-1174
▁stand	-1175
▁until	-1176
▁comple	-1177
▁terror	-1178
ef	-1179
ug	-1180
ww	-1181
▁Z	-1182
:30	-1183
ada	-1184
ize	-1185
▁Cl	-1186
gram	-1187
▁Let	-1188
arent	-1189
ently	-1190
▁free	-1191
▁fund	-1192
▁line	-1193
▁live	-1194
▁oper	-1195
▁sent	-1196
▁soon	-1197
▁three	-1198
▁Friday	-1199
▁months	-1200
▁country	-1201
io	-1202
ged	-1203
iet	-1204
▁Qa	-1205
▁Tr	-1206
▁gr	-1207
▁ob	-1208
ists	-1209
reme	-1210
▁mor	-1211
▁sal	-1212
▁sit	-1213
▁Also	-1214
▁less	-1215
▁prof	-1216
▁later	-1217
▁wanted	-1218
els	-1219
gan	-1220
ock	-1221
ott	-1222
▁et	-1223
fort	-1224
ider	-1225
olog	-1226
orge	-1227
▁eas	-1228
▁kind	-1229
▁stay	-1230
▁syst	-1231
ission	-1232
▁enjoy	-1233
ai	-1234
eda	-1235
ude	-1236
uly	-1237
uth	-1238
▁Ge	-1239
alth	-1240
ided	-1241
istr	-1242
ness	-1243
▁Any	-1244
▁eat	-1245
▁pri	-1246
resent	-1247
▁Qaeda	-1248
▁Thank	-1249
▁intern	-1250
▁pretty	-1251
▁address	-1252
▁process	-1253
▁without	-1254
▁attached	-1255
▁probably	-1256
/0	-1257
AT	-1258
IS	-1259
ING	-1260
RON	-1261
aul	-1262
cle	-1263
ned	-1264
ote	-1265
▁<<	-1266
▁>>	-1267
▁Ag	-1268
▁EN	-1269
▁es	-1270
▁la	-1271
▁wo	-1272
ants	-1273
ghan	-1274
ised	-1275
side	-1276
▁law	-1277
▁med	-1278
▁val	-1279
▁yes	-1280
ggest	-1281
▁Jeff	-1282
▁feed	-1283
▁girl	-1284
▁main	-1285
▁plac	-1286
▁stud	-1287
ically	-1288
▁check	-1289
▁close	-1290
▁Afghan	-1291
▁Amount	-1292
▁George	-1293
▁market	-1294
▁possible	-1295
▁question	-1296
▁President	-1297
hes	-1298
rab	-1299
▁sk	-1300
atch	-1301
atur	-1302
used	-1303
▁bre	-1304
▁cop	-1305
▁etc	-1306
▁ide	-1307
▁pet	-1308
▁....	-1309
▁2005	-1310
▁once	-1311
▁spec	-1312
▁stop	-1313
▁India	-1314
▁letter	-1315
▁program	-1316
▁suggest	-1317
▁military	-1318
93	-1319
ES	-1320
bit	-1321
tle	-1322
ton	-1323
ergy	-1324
ital	-1325
ront	-1326
▁Par	-1327
aster	-1328
▁cent	-1329
▁date	-1330
▁mean	-1331
▁below	-1332
▁horse	-1333
▁quick	-1334
▁direct	-1335
▁wonder	-1336
▁friends	-1337
▁contract	-1338
▁friendly	-1339
▁received	-1340
▁*	-1341
ins	-1342
arch	-1343
ency	-1344
orth	-1345
outh	-1346
▁THE	-1347
▁art	-1348
▁bas	-1349
ither	-1350
▁Paul	-1351
▁mind	-1352
▁talk	-1353
▁word	-1354
▁draft	-1355
▁issue	-1356
▁space	-1357
▁However	-1358
▁contact	-1359
▁message	-1360
▁thought	-1361
osp	-1362
oun	-1363
umb	-1364
▁01	-1365
▁16	-1366
unch	-1367
▁Apr	-1368
▁NOT	-1369
illed	-1370
inite	-1371
onday	-1372
urity	-1373
where	-1374
▁713-	-1375
▁area	-1376
▁exam	-1377
▁init	-1378
▁town	-1379
▁trad	-1380
▁warm	-1381
▁avail	-1382
▁house	-1383
▁leave	-1384
centage	-1385
▁contin	-1386
▁certain	-1387
▁current	-1388
▁government	-1389
AN	-1390
ik	-1391
alf	-1392
app	-1393
enn	-1394
ior	-1395
rib	-1396
▁Ad	-1397
▁dr	-1398
▁sn	-1399
ager	-1400
▁Att	-1401
▁due	-1402
▁why	-1403
▁yet	-1404
ature	-1405
ember	-1406
redit	-1407
▁case	-1408
▁After	-1409
▁means	-1410
▁needs	-1411
▁Monday	-1412
▁couple	-1413
▁result	-1414
▁second	-1415
OR	-1416
ms	-1417
aim	-1418
ese	-1419
idd	-1420
par	-1421
ten	-1422
urs	-1423
ired	-1424
ries	-1425
▁Sep	-1426
▁opp	-1427
ision	-1428
▁Comm	-1429
▁Mark	-1430
▁near	-1431
▁turn	-1432
▁weap	-1433
inking	-1434
▁April	-1435
▁polit	-1436
▁whole	-1437
▁restaur	-1438
▁support	-1439
▁agreement	-1440
▁excellent	-1441
▁Percentage	-1442
IC	-1443
eb	-1444
ts	-1445
ery	-1446
▁Mr	-1447
▁To	-1448
▁ty	-1449
....	-1450
ized	-1451
line	-1452
obal	-1453
oint	-1454
reet	-1455
utes	-1456
▁Che	-1457
▁Ste	-1458
▁beh	-1459
▁fix	-1460
▁pie	-1461
▁pop	-1462
▁2004	-1463
▁Sara	-1464
▁camp	-1465
▁cond	-1466
▁ever	-1467
▁fine	-1468
▁move	-1469
gether	-1470
tember	-1471
▁Great	-1472
▁phone	-1473
▁quite	-1474
▁store	-1475
▁using	-1476
▁entire	-1477
▁highly	-1478
▁places	-1479
▁taking	-1480
▁product	-1481
▁profess	-1482
▁National	-1483
▁official	-1484
▁problems	-1485
▁together	-1486
▁September	-1487
▁following	-1488
:3	-1489
aj	-1490
ov	-1491
err	-1492
oon	-1493
rew	-1494
way	-1495
▁AN	-1496
ases	-1497
avor	-1498
ined	-1499
most	-1500
pend	-1501
pped	-1502
▁Reg	-1503
▁mus	-1504
▁July	-1505
▁anim	-1506
▁cour	-1507
▁hair	-1508
▁miss	-1509
▁past	-1510
ording	-1511
▁along	-1512
▁clear	-1513
▁tried	-1514
▁making	-1515
▁school	-1516
▁system	-1517
********	-1518
▁concern	-1519
▁helpful	-1520
▁project	-1521
▁customer	-1522
au	-1523
ee	-1524
iod	-1525
▁03	-1526
▁Gu	-1527
▁Pl	-1528
ened	-1529
▁Dav	-1530
▁cir	-1531
▁gas	-1532
▁hum	-1533
▁kid	-1534
▁mar	-1535
ained	-1536
▁Just	-1537
▁hold	-1538
▁death	-1539
▁press	-1540
▁sever	-1541
ability	-1542
▁answer	-1543
▁public	-1544
▁minutes	-1545
▁morning	-1546
▁comments	-1547
▁everything	-1548
________________	-1549
6-	-1550
VE	-1551
co	-1552
doc	-1553
ctor	-1554
ling	-1555
ston	-1556
▁Cal	-1557
▁air	-1558
▁ask	-1559
▁beg	-1560
▁occ	-1561
▁ple	-1562
▁rev	-1563
▁top	-1564
▁2000	-1565
▁2003	-1566
▁deli	-1567
▁gave	-1568
▁pick	-1569
▁prom	-1570
cially	-1571
▁import	-1572
▁mention	-1573
▁outside	-1574
▁several	-1575
▁remember	-1576
EC	-1577
ama	-1578
ann	-1579
ats	-1580
aut	-1581
ili	-1582
rol	-1583
▁04	-1584
▁Bl	-1585
▁By	-1586
▁em	-1587
ages	-1588
oice	-1589
rist	-1590
ured	-1591
▁Are	-1592
▁Kar	-1593
▁NAS	-1594
▁Oct	-1595
▁est	-1596
▁tal	-1597
ished	-1598
▁2001	-1599
▁Here	-1600
▁memb	-1601
▁above	-1602
▁large	-1603
▁issues	-1604
▁likely	-1605
▁within	-1606
▁available	-1607
▁Afghanistan	-1608
89	-1609
LY	-1610
fer	-1611
ics	-1612
lam	-1613
por	-1614
▁30	-1615
▁Go	-1616
▁Sp	-1617
▁Su	-1618
ames	-1619
aper	-1620
eral	-1621
erry	-1622
rael	-1623
▁bab	-1624
▁din	-1625
▁Mike	-1626
▁NASA	-1627
▁fore	-1628
ensive	-1629
▁fight	-1630
▁happy	-1631
▁peace	-1632
▁Israel	-1633
▁charge	-1634
▁design	-1635
▁either	-1636
▁health	-1637
▁threat	-1638
▁members	-1639
▁respons	-1640
▁consider	-1641
▁everyone	-1642
▁important	-1643
//	-1644
:5	-1645
://	-1646
ead	-1647
mor	-1648
oss	-1649
ttp	-1650
ule	-1651
▁25	-1652
▁Br	-1653
▁Co	-1654
ator	-1655
ecut	-1656
ighb	-1657
kend	-1658
▁Yes	-1659
▁abs	-1660
▁bud	-1661
▁cru	-1662
▁Then	-1663
▁Will	-1664
▁guys	-1665
▁http	-1666
▁lear	-1667
▁mail	-1668
though	-1669
urther	-1670
▁activ	-1671
▁earli	-1672
▁front	-1673
▁short	-1674
▁almost	-1675
▁others	-1676
pecially	-1677
▁extreme	-1678
▁however	-1679
▁perfect	-1680
5-	-1681
gu	-1682
TMs	-1683
VER	-1684
aps	-1685
ier	-1686
ium	-1687
nam	-1688
rax	-1689
▁:)	-1690
▁Ed	-1691
▁Fl	-1692
▁ON	-1693
▁Sc	-1694
▁ed	-1695
ains	-1696
aken	-1697
ives	-1698
onse	-1699
orry	-1700
ully	-1701
▁100	-1702
▁Now	-1703
▁YOU	-1704
▁ago	-1705
▁cut	-1706
▁gra	-1707
▁pat	-1708
▁tax	-1709
ified	-1710
vious	-1711
▁Good	-1712
▁Serv	-1713
▁Your	-1714
▁coun	-1715
▁door	-1716
▁easy	-1717
▁rate	-1718
▁tour	-1719
▁walk	-1720
▁Iraqi	-1721
▁based	-1722
▁bring	-1723
▁claim	-1724
▁light	-1725
▁offer	-1726
▁weeks	-1727
initely	-1728
ministr	-1729
ulation	-1730
▁become	-1731
▁neighb	-1732
▁regard	-1733
▁leaders	-1734
▁special	-1735
▁weekend	-1736
▁whether	-1737
▁complete	-1738
▁including	-1739
▁professional	-1740
:1	-1741
AR	-1742
LE	-1743
OC	-1744
to	-1745
une	-1746
▁Me	-1747
aign	-1748
angu	-1749
room	-1750
▁199	-1751
▁Our	-1752
▁del	-1753
▁dem	-1754
▁mat	-1755
▁sat	-1756
▁spo	-1757
▁sum	-1758
ENRON	-1759
conom	-1760
itten	-1761
▁cage	-1762
▁four	-1763
ouston	-1764
▁given	-1765
▁hotel	-1766
▁metal	-1767
▁wrong	-1768
▁attend	-1769
▁coming	-1770
▁credit	-1771
▁strong	-1772
▁earlier	-1773
▁provide	-1774
▁security	-1775
▁Americans	-1776
▁especially	-1777
IA	-1778
cu	-1779
ng	-1780
icy	-1781
uel	-1782
▁Pr	-1783
▁One	-1784
▁Tal	-1785
▁Tex	-1786
▁ris	-1787
▁vet	-1788
▁win	-1789
imate	-1790
iting	-1791
thrax	-1792
▁With	-1793
▁dist	-1794
▁fall	-1795
▁hist	-1796
▁shop	-1797
uation	-1798
▁appre	-1799
▁birth	-1800
▁early	-1801
▁incre	-1802
▁langu	-1803
▁worth	-1804
▁accept	-1805
▁detail	-1806
▁needed	-1807
▁Houston	-1808
▁quality	-1809
▁campaign	-1810
▁language	-1811
▁interested	-1812
▁restaurant	-1813
1.	-1814
20	-1815
ify	-1816
pos	-1817
ret	-1818
son	-1819
uff	-1820
ajor	-1821
ones	-1822
ploy	-1823
▁Col	-1824
▁col	-1825
▁equ	-1826
▁guy	-1827
▁hon	-1828
▁mur	-1829
▁ord	-1830
▁tot	-1831
ental	-1832
iding	-1833
ivers	-1834
uthor	-1835
▁Arab	-1836
▁Rich	-1837
▁copy	-1838
▁news	-1839
▁seem	-1840
▁tank	-1841
▁Carol	-1842
▁Chris	-1843
▁David	-1844
▁Every	-1845
▁Islam	-1846
▁Texas	-1847
▁black	-1848
▁corre	-1849
▁creat	-1850
▁purch	-1851
▁sched	-1852
▁works	-1853
ination	-1854
▁access	-1855
▁commun	-1856
▁effect	-1857
▁invest	-1858
▁period	-1859
▁prices	-1860
▁anthrax	-1861
▁require	-1862
▁position	-1863
================	-1864
:4	-1865
IT	-1866
chn	-1867
fic	-1868
iri	-1869
mpt	-1870
ots	-1871
rap	-1872
ulf	-1873
uro	-1874
▁14	-1875
▁Mc	-1876
▁ok	-1877
ging	-1878
ians	-1879
ides	-1880
lish	-1881
ober	-1882
▁Kay	-1883
▁Wor	-1884
antly	-1885
bsite	-1886
fully	-1887
▁June	-1888
▁docu	-1889
▁half	-1890
▁prep	-1891
▁sour	-1892
▁upon	-1893
ursday	-1894
▁Trans	-1895
▁begin	-1896
▁trust	-1897
▁young	-1898
agement	-1899
▁econom	-1900
▁parent	-1901
▁thanks	-1902
▁travel	-1903
▁changes	-1904
▁further	-1905
▁million	-1906
▁services	-1907
▁extremely	-1908
ED	-1909
uc	-1910
ump	-1911
▁09	-1912
▁13	-1913
▁50	-1914
▁??	-1915
▁EB	-1916
▁Qu	-1917
▁pm	-1918
acks	-1919
medi	-1920
▁AND	-1921
▁Fax	-1922
▁Sec	-1923
▁bro	-1924
▁key	-1925
▁sol	-1926
▁suc	-1927
anger	-1928
azing	-1929
ondon	-1930
▁Euro	-1931
▁Have	-1932
▁Well	-1933
▁late	-1934
▁ones	-1935
▁pict	-1936
▁poor	-1937
▁seen	-1938
▁trip	-1939
atural	-1940
illing	-1941
▁These	-1942
▁build	-1943
▁final	-1944
▁level	-1945
▁major	-1946
▁organ	-1947
▁seems	-1948
▁taken	-1949
terpart	-1950
▁living	-1951
▁points	-1952
▁proper	-1953
▁options	-1954
▁started	-1955
▁response	-1956
▁yourself	-1957
▁elections	-1958
▁political	-1959
85	-1960
OL	-1961
OM	-1962
PM	-1963
ST	-1964
oe	-1965
aid	-1966
ald	-1967
elt	-1968
ral	-1969
rop	-1970
ume	-1971
val	-1972
▁GO	-1973
▁Gl	-1974
▁NE	-1975
iban	-1976
iced	-1977
nect	-1978
reed	-1979
reen	-1980
ster	-1981
▁Har	-1982
▁Sen	-1983
▁bar	-1984
▁bom	-1985
▁egg	-1986
▁fig	-1987
▁non	-1988
ially	-1989
rible	-1990
▁dead	-1991
▁file	-1992
▁kids	-1993
▁orig	-1994
▁port	-1995
▁prot	-1996
ficult	-1997
idence	-1998
morrow	-1999
selves	-2000
▁March	-2001
▁invol	-2002
▁known	-2003
▁legal	-2004
▁paper	-2005
▁shall	-2006
▁sound	-2007
itional	-2008
▁Canada	-2009
▁amount	-2010
▁attack	-2011
▁doctor	-2012
▁energy	-2013
▁worked	-2014
terparty	-2015
▁Regards	-2016
▁Taliban	-2017
▁appreci	-2018
▁attempt	-2019
▁instead	-2020
▁natural	-2021
▁Attached	-2022
▁Thursday	-2023
▁specific	-2024
▁tomorrow	-2025
▁Agreement	-2026
▁difficult	-2027
▁definitely	-2028
▁particular	-2029
ministration	-2030
71	-2031
af	-2032
by	-2033
my	-2034
ERE	-2035
ets	-2036
raf	-2037
yle	-2038
▁.?	-2039
▁17	-2040
▁Ab	-2041
▁Hi	-2042
▁IT	-2043
▁hu	-2044
▁sw	-2045
icle	-2046
inal	-2047
▁CIA	-2048
▁Mic	-2049
▁Sun	-2050
▁War	-2051
▁ben	-2052
▁hur	-2053
enron	-2054
itive	-2055
▁From	-2056
▁Viet	-2057
▁baby	-2058
▁conv	-2059
▁dest	-2060
▁doll	-2061
▁lots	-2062
▁team	-2063
action	-2064
▁favor	-2065
▁makes	-2066
▁techn	-2067
▁Indian	-2068
▁author	-2069
▁budget	-2070
▁course	-2071
▁intend	-2072
▁necess	-2073
▁Vietnam	-2074
▁comfort	-2075
▁confirm	-2076
▁serious	-2077
▁particip	-2078
▁recently	-2079
▁interview	-2080
33	-2081
RE	-2082
ls	-2083
uj	-2084
ze	-2085
▁x	-2086
ENT	-2087
add	-2088
iqu	-2089
kes	-2090
ode	-2091
ply	-2092
tee	-2093
▁05	-2094
▁AS	-2095
▁Ne	-2096
▁Sy	-2097
apan	-2098
awah	-2099
just	-2100
noon	-2101
read	-2102
ream	-2103
ried	-2104
▁Del	-2105
▁Pat	-2106
▁Pet	-2107
▁sus	-2108
iring	-2109
olute	-2110
ooked	-2111
ought	-2112
wards	-2113
▁body	-2114
▁idea	-2115
▁lack	-2116
▁norm	-2117
▁pain	-2118
▁rese	-2119
▁side	-2120
▁site	-2121
▁step	-2122
▁vers	-2123
estern	-2124
▁Vince	-2125
▁Zawah	-2126
▁board	-2127
▁comes	-2128
▁deter	-2129
▁finan	-2130
▁local	-2131
▁often	-2132
▁owner	-2133
▁watch	-2134
ibility	-2135
▁Europe	-2136
▁except	-2137
▁former	-2138
partment	-2139
▁correct	-2140
▁example	-2141
▁initial	-2142
▁parents	-2143
▁present	-2144
▁respond	-2145
▁weapons	-2146
▁Zawahiri	-2147
▁mentioned	-2148
▁wonderful	-2149
2.	-2150
37	-2151
:0	-2152
bo	-2153
...	-2154
ift	-2155
ley	-2156
oot	-2157
▁Ba	-2158
▁LO	-2159
▁jo	-2160
atic	-2161
ding	-2162
haps	-2163
inks	-2164
oted	-2165
resh	-2166
soci	-2167
uter	-2168
work	-2169
▁Rep	-2170
arraf	-2171
gress	-2172
ortun	-2173
ugust	-2174
▁Comp	-2175
▁Coun	-2176
▁Mush	-2177
▁Some	-2178
▁arri	-2179
▁chec	-2180
▁eggs	-2181
▁face	-2182
▁kept	-2183
▁view	-2184
▁wind	-2185
ederal	-2186
igence	-2187
▁Japan	-2188
▁blood	-2189
▁estab	-2190
▁exact	-2191
▁guess	-2192
▁piece	-2193
▁ready	-2194
▁London	-2195
▁dinner	-2196
▁effort	-2197
▁immedi	-2198
▁inside	-2199
▁intell	-2200
▁saying	-2201
▁account	-2202
▁amazing	-2203
▁animals	-2204
▁control	-2205
▁quickly	-2206
▁subject	-2207
▁willing	-2208
▁Musharraf	-2209
▁confident	-2210
▁countries	-2211
▁customers	-2212
▁officials	-2213
▁international	-2214
80	-2215
81	-2216
99	-2217
:2	-2218
AP	-2219
ym	-2220
ety	-2221
gal	-2222
ien	-2223
igr	-2224
ows	-2225
ray	-2226
▁''	-2227
▁21	-2228
▁OK	-2229
▁Pe	-2230
▁WH	-2231
▁bi	-2232
▁ur	-2233
ades	-2234
body	-2235
ceed	-2236
hern	-2237
ison	-2238
rain	-2239
uary	-2240
▁Bar	-2241
▁Ham	-2242
▁Wed	-2243
▁eng	-2244
▁mom	-2245
▁red	-2246
▁six	-2247
▁ste	-2248
ights	-2249
ister	-2250
itted	-2251
ittee	-2252
ouble	-2253
▁Even	-2254
▁Gulf	-2255
▁Syri	-2256
▁bird	-2257
▁book	-2258
▁desc	-2259
▁felt	-2260
▁game	-2261
▁pull	-2262
▁rele	-2263
▁ship	-2264
▁wife	-2265
itions	-2266
terday	-2267
▁Calif	-2268
▁First	-2269
▁Paris	-2270
▁charg	-2271
▁event	-2272
▁heard	-2273
▁learn	-2274
▁looks	-2275
▁lunch	-2276
▁relig	-2277
▁spend	-2278
ization	-2279
▁assist	-2280
▁global	-2281
▁region	-2282
▁signed	-2283
▁simply	-2284
▁territ	-2285
▁America	-2286
▁Service	-2287
▁reports	-2288
▁continue	-2289
▁reported	-2290
▁signific	-2291
▁according	-2292
▁afternoon	-2293
▁president	-2294
▁regarding	-2295
▁administration	-2296
64	-2297
AM	-2298
ca	-2299
wh	-2300
arm	-2301
got	-2302
inc	-2303
ird	-2304
nes	-2305
ped	-2306
ury	-2307
▁Ke	-2308
853-	-2309
enty	-2310
iron	-2311
oura	-2312
raph	-2313
▁Acc	-2314
▁App	-2315
▁Bal	-2316
▁Eng	-2317
▁men	-2318
▁mid	-2319
▁pot	-2320
▁rab	-2321
▁rul	-2322
▁saw	-2323
▁tas	-2324
▁tem	-2325
▁wal	-2326
asing	-2327
ators	-2328
lling	-2329
ondad	-2330
▁born	-2331
▁fail	-2332
▁gone	-2333
▁hosp	-2334
▁link	-2335
▁luck	-2336
▁note	-2337
▁paid	-2338
▁prop	-2339
▁repl	-2340
▁risk	-2341
aining	-2342
imited	-2343
▁agree	-2344
▁allow	-2345
▁benef	-2346
▁cheap	-2347
▁const	-2348
▁cover	-2349
▁fixed	-2350
▁human	-2351
▁maybe	-2352
▁spent	-2353
▁value	-2354
▁wants	-2355
tlement	-2356
▁August	-2357
▁Christ	-2358
▁across	-2359
▁adjust	-2360
▁behind	-2361
▁better	-2362
▁honest	-2363
▁itself	-2364
▁policy	-2365
▁record	-2366
▁unless	-2367
▁include	-2368
▁manager	-2369
▁treated	-2370
▁website	-2371
▁Californ	-2372
▁thinking	-2373
▁currently	-2374
▁yesterday	-2375
72	-2376
CH	-2377
LL	-2378
OW	-2379
TH	-2380
yl	-2381
▁X	-2382
acy	-2383
ted	-2384
ued	-2385
ung	-2386
www	-2387
▁Ok	-2388
▁ST	-2389
▁fa	-2390
ched	-2391
omin	-2392
▁ENA	-2393
▁Gas	-2394
▁Off	-2395
▁Pal	-2396
▁Rob	-2397
▁Sam	-2398
▁bal	-2399
▁env	-2400
▁fac	-2401
▁fax	-2402
▁fit	-2403
▁foc	-2404
▁lit	-2405
▁upd	-2406
icing	-2407
unday	-2408
uture	-2409
▁Bill	-2410
▁Cent	-2411
▁Cont	-2412
▁Hope	-2413
▁York	-2414
▁anal	-2415
▁cats	-2416
▁fair	-2417
▁hour	-2418
▁pack	-2419
▁rude	-2420
▁sing	-2421
▁sort	-2422
▁term	-2423
▁type	-2424
ressed	-2425
rought	-2426
▁North	-2427
▁Phone	-2428
▁Since	-2429
▁basis	-2430
▁chick	-2431
▁ident	-2432
▁moved	-2433
▁print	-2434
▁speak	-2435
▁takes	-2436
▁thank	-2437
▁Sunday	-2438
▁disapp	-2439
▁longer	-2440
▁member	-2441
▁option	-2442
▁rabbit	-2443
▁recent	-2444
▁select	-2445
lication	-2446
▁Richard	-2447
▁finally	-2448
▁history	-2449
▁playing	-2450
▁respect	-2451
▁reviews	-2452
▁usually	-2453
▁opportun	-2454
▁attention	-2455
▁situation	-2456
▁management	-2457
▁reasonable	-2458
BS	-2459
OD	-2460
693	-2461
ION	-2462
avy	-2463
isf	-2464
oad	-2465
ony	-2466
oor	-2467
zai	-2468
▁DO	-2469
▁Kh	-2470
▁Sa	-2471
▁ld	-2472
anic	-2473
gypt	-2474
ires	-2475
ivid	-2476
uled	-2477
wise	-2478
▁Cor	-2479
▁Dis	-2480
▁Feb	-2481
▁Inc	-2482
▁Man	-2483
▁San	-2484
▁Shi	-2485
▁Sus	-2486
▁Was	-2487
▁ann	-2488
▁bed	-2489
▁box	-2490
▁mis	-2491
astic	-2492
autif	-2493
esome	-2494
eting	-2495
icide	-2496
▁11/2	-2497
▁Aust	-2498
▁Over	-2499
▁cult	-2500
▁desk	-2501
▁dogs	-2502
▁emer	-2503
▁heat	-2504
▁info	-2505
▁larg	-2506
▁menu	-2507
▁suff	-2508
▁surp	-2509
argill	-2510
▁Egypt	-2511
▁South	-2512
▁alone	-2513
▁apply	-2514
▁chair	-2515
▁media	-2516
▁pleas	-2517
▁pract	-2518
▁prior	-2519
▁sales	-2520
▁separ	-2521
▁subst	-2522
▁super	-2523
ecutive	-2524
▁Karzai	-2525
▁Should	-2526
▁action	-2527
▁afford	-2528
▁chance	-2529
▁danger	-2530
▁forces	-2531
▁future	-2532
▁leader	-2533
▁matter	-2534
▁moving	-2535
▁notice	-2536
▁reserv	-2537
▁summer	-2538
▁January	-2539
▁brought	-2540
▁decided	-2541
▁ordered	-2542
▁running	-2543
▁713-853-	-2544
▁absolute	-2545
▁delivery	-2546
▁instruct	-2547
▁planning	-2548
▁research	-2549
▁necessary	-2550
▁transport	-2551
▁California	-2552
▁activities	-2553
▁conference	-2554
▁difference	-2555
70	-2556
84	-2557
AY	-2558
go	-2559
ta	-2560
za	-2561
DOC	-2562
era	-2563
ges	-2564
iam	-2565
ops	-2566
▁02	-2567
▁RE	-2568
▁vs	-2569
aine	-2570
ales	-2571
augh	-2572
band	-2573
comp	-2574
ners	-2575
ouch	-2576
yond	-2577
▁Bob	-2578
▁Cur	-2579
▁Fin	-2580
▁Ken	-2581
▁age	-2582
▁net	-2583
▁sle	-2584
▁tar	-2585
▁wel	-2586
allen	-2587
ances	-2588
gency	-2589
iving	-2590
▁2002	-2591
▁Date	-2592
▁Fran	-2593
▁Mich	-2594
▁bear	-2595
▁bill	-2596
▁city	-2597
▁conn	-2598
▁held	-2599
▁host	-2600
▁infl	-2601
▁numb	-2602
▁safe	-2603
itting	-2604
mitted	-2605
▁Group	-2606
▁Miche	-2607
▁among	-2608
▁break	-2609
▁class	-2610
▁cross	-2611
▁drive	-2612
▁fresh	-2613
▁insur	-2614
▁minim	-2615
▁sense	-2616
▁snake	-2617
▁stuff	-2618
▁total	-2619
▁depend	-2620
▁island	-2621
▁simple	-2622
▁street	-2623
iversity	-2624
▁Cargill	-2625
▁billion	-2626
▁dollars	-2627
▁general	-2628
▁trading	-2629
▁version	-2630
▁surround	-2631
▁certainly	-2632
▁expensive	-2633
▁treatment	-2634
▁themselves	-2635
▁comfortable	-2636
▁Counterparty	-2637
hi	-2638
ECT	-2639
TTE	-2640
ael	-2641
att	-2642
ida	-2643
its	-2644
net	-2645
olf	-2646
ont	-2647
▁08	-2648
▁18	-2649
▁22	-2650
▁41	-2651
▁NY	-2652
▁PR	-2653
▁TO	-2654
▁Tw	-2655
...@	-2656
aily	-2657
alls	-2658
ders	-2659
form	-2660
head	-2661
ield	-2662
rees	-2663
uate	-2664
ysis	-2665
▁713	-2666
▁Dan	-2667
▁EPM	-2668
▁His	-2669
▁Med	-2670
▁See	-2671
▁cal	-2672
▁dat	-2673
▁dro	-2674
▁fem	-2675
▁fly	-2676
▁fre	-2677
▁mag	-2678
▁mot	-2679
▁smo	-2680
▁vac	-2681
▁var	-2682
aving	-2683
ering	-2684
iddle	-2685
ories	-2686
orses	-2687
rench	-2688
riage	-2689
usion	-2690
▁!!!!	-2691
▁Anal	-2692
▁LTTE	-2693
▁West	-2694
▁bomb	-2695
▁cash	-2696
▁deep	-2697
▁educ	-2698
▁fear	-2699
▁fish	-2700
▁goes	-2701
▁grow	-2702
▁huge	-2703
▁nail	-2704
▁phot	-2705
▁pres	-2706
▁repe	-2707
▁save	-2708
▁sold	-2709
▁text	-2710
atever	-2711
ential	-2712
▁Email	-2713
▁aware	-2714
▁cause	-2715
▁child	-2716
▁dress	-2717
▁exist	-2718
▁force	-2719
▁grand	-2720
▁hands	-2721
▁indic	-2722
▁sorry	-2723
autiful	-2724
hington	-2725
viously	-2726
▁French	-2727
▁altern	-2728
▁cruise	-2729
▁indust	-2730
▁nation	-2731
▁rather	-2732
▁search	-2733
▁seeing	-2734
▁single	-2735
ointment	-2736
▁Michael	-2737
▁changed	-2738
▁clearly	-2739
▁reflect	-2740
▁station	-2741
▁success	-2742
▁suicide	-2743
▁surpris	-2744
▁written	-2745
▁Although	-2746
▁document	-2747
▁happened	-2748
▁included	-2749
▁involved	-2750
▁sometimes	-2751
▁Commission	-2752
▁additional	-2753
▁connection	-2754
▁application	-2755
▁immediately	-2756
▁interesting	-2757
▁significant	-2758
▁intelligence	-2759
12	-2760
of	-2761
sh	-2762
989	-2763
ana	-2764
pri	-2765
raz	-2766
▁07	-2767
▁38	-2768
▁Bo	-2769
▁CA	-2770
▁Gr	-2771
▁Us	-2772
▁vi	-2773
aman	-2774
come	-2775
ills	-2776
oman	-2777
opez	-2778
rely	-2779
rupt	-2780
urch	-2781
vent	-2782
▁Ben	-2783
▁Get	-2784
▁Gre	-2785
▁Kim	-2786
▁Net	-2787
▁Set	-2788
▁Tra	-2789
▁aud	-2790
▁civ	-2791
▁hig	-2792
▁pub	-2793
▁son	-2794
▁swe	-2795
addam	-2796
adian	-2797
ction	-2798
ledge	-2799
osing	-2800
rency	-2801
▁Cour	-2802
▁Game	-2803
▁Ital	-2804
▁Many	-2805
▁dark	-2806
▁decl	-2807
▁exec	-2808
▁firm	-2809
▁flow	-2810
▁foot	-2811
▁priv	-2812
▁road	-2813
▁slow	-2814
▁soci	-2815
▁true	-2816
iation	-2817
lished	-2818
nesday	-2819
usband	-2820
▁Clair	-2821
▁Other	-2822
▁Satur	-2823
▁Their	-2824
▁Where	-2825
▁World	-2826
▁compl	-2827
▁earth	-2828
▁extra	-2829
▁items	-2830
▁knows	-2831
▁liked	-2832
▁parts	-2833
▁party	-2834
▁produ	-2835
▁range	-2836
▁rates	-2837
▁recon	-2838
▁stren	-2839
▁twice	-2840
connect	-2841
▁Energy	-2842
▁Global	-2843
▁Govern	-2844
▁Intern	-2845
▁advice	-2846
▁ground	-2847
▁groups	-2848
▁happen	-2849
▁horses	-2850
▁myself	-2851
▁normal	-2852
▁prefer	-2853
▁rights	-2854
▁source	-2855
▁spread	-2856
ironment	-2857
▁comment	-2858
▁details	-2859
▁evening	-2860
▁numbers	-2861
▁perhaps	-2862
▁putting	-2863
▁talking	-2864
▁waiting	-2865
▁Saturday	-2866
▁approved	-2867
▁computer	-2868
▁increase	-2869
▁investig	-2870
▁location	-2871
▁properly	-2872
▁provided	-2873
▁starting	-2874
▁supposed	-2875
▁Wednesday	-2876
▁beautiful	-2877
▁territory	-2878
▁terrorist	-2879
▁completely	-2880
▁confidential	-2881
****************	-2882
11	-2883
14	-2884
36	-2885
50	-2886
AC	-2887
CP	-2888
IG	-2889
UT	-2890
aq	-2891
uy	-2892
/01	-2893
/11	-2894
arr	-2895
cel	-2896
gle	-2897
ief	-2898
ilk	-2899
ipp	-2900
irt	-2901
reg	-2902
rug	-2903
▁24	-2904
▁26	-2905
▁Fe	-2906
▁Im	-2907
▁OF	-2908
▁fr	-2909
aden	-2910
amed	-2911
cher	-2912
cles	-2913
erve	-2914
ests	-2915
iver	-2916
oose	-2917
ored	-2918
tend	-2919
▁ISO	-2920
▁Jim	-2921
▁Pos	-2922
▁Rec	-2923
▁Res	-2924
▁boy	-2925
▁dam	-2926
▁deg	-2927
▁emb	-2928
▁enc	-2929
▁exc	-2930
▁fan	-2931
▁hit	-2932
▁lay	-2933
▁mer	-2934
▁pan	-2935
▁rad	-2936
▁ran	-2937
▁ton	-2938
▁typ	-2939
ected	-2940
iance	-2941
ology	-2942
ounds	-2943
rison	-2944
▁Does	-2945
▁File	-2946
▁Flor	-2947
▁Mary	-2948
▁Russ	-2949
▁Sept	-2950
▁Year	-2951
▁band	-2952
▁fast	-2953
▁gall	-2954
▁jump	-2955
▁knew	-2956
▁land	-2957
▁lost	-2958
▁mass	-2959
▁opin	-2960
▁page	-2961
▁star	-2962
▁visa	-2963
8/2000	-2964
isions	-2965
porate	-2966
▁Court	-2967
▁Gener	-2968
▁Guard	-2969
▁House	-2970
▁Lopez	-2971
▁Marie	-2972
▁Quest	-2973
▁Steve	-2974
▁Syria	-2975
▁colle	-2976
▁delic	-2977
▁domin	-2978
▁faith	-2979
▁fully	-2980
▁music	-2981
▁plans	-2982
▁refer	-2983
▁stock	-2984
▁white	-2985
ilities	-2986
mission	-2987
osphere	-2988
▁Palest	-2989
▁Saddam	-2990
▁arrest	-2991
▁buying	-2992
▁choice	-2993
▁common	-2994
▁eating	-2995
▁employ	-2996
▁figure	-2997
▁killed	-2998
▁listen	-2999
▁looked	-3000
▁murder	-3001
▁nearly	-3002
▁plenty	-3003
▁posted	-3004
▁satisf	-3005
▁social	-3006
▁streng	-3007
▁weapon	-3008
!!!!!!!!	-3009
▁Another	-3010
▁October	-3011
▁Western	-3012
▁article	-3013
▁awesome	-3014
▁challen	-3015
▁defense	-3016
▁exactly	-3017
▁husband	-3018
▁species	-3019
▁although	-3020
▁appropri	-3021
▁communic	-3022
▁intended	-3023
▁personal	-3024
▁pictures	-3025
▁progress	-3026
▁training	-3027
▁Executive	-3028
▁Pakistani	-3029
▁religious	-3030
▁Washington	-3031
10	-3032
8-	-3033
AD	-3034
BI	-3035
CO	-3036
ET	-3037
RI	-3038
ek	-3039
ih	-3040
me	-3041
.00	-3042
ari	-3043
cul	-3044
ene	-3045
for	-3046
lle	-3047
ocr	-3048
oid	-3049
rip	-3050
roy	-3051
ugh	-3052
war	-3053
▁80	-3054
▁AR	-3055
▁El	-3056
▁La	-3057
▁ME	-3058
▁SU	-3059
▁Sw	-3060
646-	-3061
gery	-3062
hood	-3063
irit	-3064
ises	-3065
izza	-3066
lied	-3067
ming	-3068
raid	-3069
ript	-3070
udge	-3071
umer	-3072
unct	-3073
▁FBI	-3074
▁Hot	-3075
▁Moh	-3076
▁OBS	-3077
▁Sal	-3078
▁Sri	-3079
▁Sub	-3080
▁Ter	-3081
▁Two	-3082
▁Who	-3083
▁atm	-3084
▁cre	-3085
▁dad	-3086
▁ele	-3087
▁ign	-3088
▁led	-3089
▁web	-3090
arant	-3091
asons	-3092
ented	-3093
epend	-3094
ising	-3095
istic	-3096
▁Call	-3097
▁Lank	-3098
▁Nove	-3099
▁Once	-3100
▁Tues	-3101
▁argu	-3102
▁arms	-3103
▁bare	-3104
▁char	-3105
▁drug	-3106
▁five	-3107
▁guid	-3108
▁kill	-3109
▁meat	-3110
▁reli	-3111
▁size	-3112
▁spot	-3113
fortun	-3114
ighter	-3115
verage	-3116
▁Delhi	-3117
▁ENRON	-3118
▁Sorry	-3119
▁State	-3120
▁While	-3121
▁Would	-3122
▁added	-3123
▁ahead	-3124
▁carol	-3125
▁focus	-3126
▁imple	-3127
▁lines	-3128
▁mount	-3129
▁names	-3130
▁quote	-3131
▁sleep	-3132
▁style	-3133
▁third	-3134
▁touch	-3135
ception	-3136
▁Posada	-3137
▁bought	-3138
▁events	-3139
▁father	-3140
▁minute	-3141
▁online	-3142
▁proced	-3143
▁remain	-3144
▁repair	-3145
▁served	-3146
▁target	-3147
▁toward	-3148
▁turned	-3149
ological	-3150
▁Florida	-3151
▁General	-3152
▁actions	-3153
▁answers	-3154
▁attacks	-3155
▁capital	-3156
▁command	-3157
▁convers	-3158
▁driving	-3159
▁enjoyed	-3160
▁federal	-3161
▁individ	-3162
▁leaving	-3163
▁perform	-3164
▁popular	-3165
▁refused	-3166
▁regular	-3167
▁sending	-3168
▁showing	-3169
▁visited	-3170
▁warming	-3171
▁Michelle	-3172
▁November	-3173
▁anywhere	-3174
▁decision	-3175
▁fighting	-3176
▁hospital	-3177
▁industry	-3178
▁national	-3179
▁products	-3180
▁returned	-3181
▁separate	-3182
▁substant	-3183
▁vacation	-3184
▁Excellent	-3185
▁condition	-3186
▁dangerous	-3187
▁emergency	-3188
▁explained	-3189
▁financial	-3190
▁implement	-3191
▁knowledge	-3192
▁represent	-3193
▁requested	-3194
▁scheduled	-3195
▁somewhere	-3196
▁appointment	-3197
▁environment	-3198
.2	-3199
60	-3200
AA	-3201
DA	-3202
EL	-3203
ME	-3204
bt	-3205
lf	-3206
lt	-3207
Web	-3208
ena	-3209
eth	-3210
ken	-3211
off	-3212
oga	-3213
▁06	-3214
▁CH	-3215
▁II	-3216
▁Of	-3217
▁ey	-3218
▁nu	-3219
3393	-3220
3989	-3221
back	-3222
icks	-3223
iers	-3224
ilot	-3225
ites	-3226
ping	-3227
sequ	-3228
sure	-3229
vere	-3230
▁???	-3231
▁Act	-3232
▁Dec	-3233
▁Des	-3234
▁Did	-3235
▁Don	-3236
▁EOL	-3237
▁Ear	-3238
▁God	-3239
▁Spe	-3240
▁Tor	-3241
▁WAS	-3242
▁alt	-3243
▁aut	-3244
▁bur	-3245
▁cab	-3246
▁dev	-3247
▁dry	-3248
▁hol	-3249
▁hop	-3250
▁inn	-3251
▁lab	-3252
▁sea	-3253
▁sun	-3254
agine	-3255
ammed	-3256
arily	-3257
aring	-3258
clair	-3259
clear	-3260
ellow	-3261
erate	-3262
inese	-3263
iture	-3264
ordin	-3265
oring	-3266
rated	-3267
ribut	-3268
▁3889	-3269
▁OBSF	-3270
▁Take	-3271
▁bath	-3272
▁bott	-3273
▁busy	-3274
▁card	-3275
▁coff	-3276
▁coup	-3277
▁crit	-3278
▁furn	-3279
▁grad	-3280
▁hang	-3281
▁jobs	-3282
▁meas	-3283
▁mine	-3284
▁mult	-3285
▁phys	-3286
▁ride	-3287
▁rout	-3288
▁sell	-3289
▁tast	-3290
▁unit	-3291
▁whom	-3292
▁wish	-3293
atives	-3294
ective	-3295
friend	-3296
ground	-3297
icient	-3298
ograph	-3299
▁Laden	-3300
▁Maybe	-3301
▁Peter	-3302
▁Susan	-3303
▁behav	-3304
▁carry	-3305
▁color	-3306
▁daily	-3307
▁famil	-3308
▁leash	-3309
▁model	-3310
▁pizza	-3311
▁relax	-3312
▁rooms	-3313
▁rules	-3314
▁spoke	-3315
▁story	-3316
▁table	-3317
▁waste	-3318
▁worry	-3319
ression	-3320
▁Cheney	-3321
▁associ	-3322
▁dating	-3323
▁execut	-3324
▁flight	-3325
▁giving	-3326
▁handle	-3327
▁helped	-3328
▁moment	-3329
▁owners	-3330
▁pieces	-3331
▁reconc	-3332
▁slight	-3333
▁stated	-3334
▁states	-3335
646-3393	-3336
antastic	-3337
▁Iranian	-3338
▁Islamic	-3339
▁Tuesday	-3340
▁balance	-3341
▁describ	-3342
▁foreign	-3343
▁hearing	-3344
▁keeping	-3345
▁offered	-3346
▁opinion	-3347
▁parking	-3348
▁pleased	-3349
▁prevent	-3350
▁reading	-3351
▁receive	-3352
▁results	-3353
▁surgery	-3354
▁suspect	-3355
▁trouble	-3356
▁Palestin	-3357
▁bathroom	-3358
▁economic	-3359
▁evidence	-3360
▁experien	-3361
▁internet	-3362
▁prepared	-3363
▁purchase	-3364
▁released	-3365
▁transact	-3366
▁transfer	-3367
▁whatever	-3368
▁beginning	-3369
▁effective	-3370
▁reference	-3371
▁statement	-3372
▁absolutely	-3373
▁atmosphere	-3374
▁department	-3375
▁operations	-3376
▁opportunity	-3377
▁713-646-3393	-3378
▁713-853-3989	-3379
▁International	-3380
44	-3381
45	-3382
94	-3383
LS	-3384
SE	-3385
ey	-3386
▁z	-3387
ane	-3388
cis	-3389
ham	-3390
imb	-3391
ipl	-3392
mit	-3393
oom	-3394
▁Ah	-3395
▁FY	-3396
▁PO	-3397
▁SH	-3398
▁Sm	-3399
▁TV	-3400
▁Yo	-3401
▁af	-3402
▁ri	-3403
▁wa	-3404
airs	-3405
alab	-3406
aser	-3407
atus	-3408
chie	-3409
fast	-3410
hens	-3411
ique	-3412
olly	-3413
over	-3414
raft	-3415
usse	-3416
▁Ant	-3417
▁COM	-3418
▁Def	-3419
▁GCP	-3420
▁Joe	-3421
▁Pay	-3422
▁ant	-3423
▁cam	-3424
▁div	-3425
▁ham	-3426
▁inj	-3427
▁lat	-3428
▁lol	-3429
▁pip	-3430
▁via	-3431
▁wed	-3432
ackle	-3433
anies	-3434
apers	-3435
cious	-3436
irmed	-3437
izing	-3438
leans	-3439
mical	-3440
olves	-3441
pring	-3442
ruary	-3443
ulous	-3444
▁Both	-3445
▁Dave	-3446
▁East	-3447
▁Fort	-3448
▁High	-3449
▁Home	-3450
▁Like	-3451
▁Lind	-3452
▁Mont	-3453
▁Port	-3454
▁Prov	-3455
▁Sand	-3456
▁Shar	-3457
▁THIS	-3458
▁Very	-3459
▁alle	-3460
▁bord	-3461
▁cand	-3462
▁cool	-3463
▁data	-3464
▁fing	-3465
▁hurt	-3466
▁legs	-3467
▁male	-3468
▁meal	-3469
▁mech	-3470
▁prem	-3471
▁redu	-3472
▁roll	-3473
▁sand	-3474
▁self	-3475
▁sick	-3476
▁soft	-3477
▁tick	-3478
5/2001	-3479
coming	-3480
elines	-3481
ishing	-3482
oating	-3483
overed	-3484
ricity	-3485
▁.....	-3486
▁Kerry	-3487
▁Legal	-3488
▁Scott	-3489
▁achie	-3490
▁adult	-3491
▁civil	-3492
▁deals	-3493
▁gives	-3494
▁heart	-3495
▁helps	-3496
▁mater	-3497
▁named	-3498
▁negot	-3499
▁occas	-3500
▁occur	-3501
▁salon	-3502
▁sheet	-3503
▁track	-3504
▁voice	-3505
▁woman	-3506
amental	-3507
olution	-3508
ruction	-3509
▁Anyway	-3510
▁Master	-3511
▁School	-3512
▁afraid	-3513
▁agreed	-3514
▁animal	-3515
▁attach	-3516
▁beyond	-3517
▁career	-3518
▁coffee	-3519
▁decide	-3520
▁easily	-3521
▁engine	-3522
▁mostly	-3523
▁showed	-3524
▁strate	-3525
▁theory	-3526
ependent	-3527
▁Chinese	-3528
▁Orleans	-3529
▁Section	-3530
▁William	-3531
▁guarant	-3532
▁himself	-3533
▁limited	-3534
▁nuclear	-3535
▁patient	-3536
▁reasons	-3537
▁related	-3538
▁replace	-3539
▁trained	-3540
▁Canadian	-3541
▁Egyptian	-3542
▁Mohammed	-3543
▁Republic	-3544
▁accepted	-3545
▁believed	-3546
▁building	-3547
▁certific	-3548
▁changing	-3549
▁determin	-3550
▁expected	-3551
▁families	-3552
▁favorite	-3553
▁finished	-3554
▁marriage	-3555
▁physical	-3556
▁practice	-3557
▁According	-3558
▁Committee	-3559
▁concerned	-3560
▁establish	-3561
▁neighbour	-3562
fortunately	-3563
▁University	-3564
▁appreciate	-3565
▁population	-3566
▁appreciated	-3567
▁fundamental	-3568
▁instructions	-3569
-2	-3570
22	-3571
75	-3572
83	-3573
DP	-3574
EE	-3575
LO	-3576
PI	-3577
RR	-3578
UN	-3579
UR	-3580
da	-3581
ps	-3582
sc	-3583
▁=	-3584
!!!	-3585
/30	-3586
AVE	-3587
ICE	-3588
aks	-3589
cut	-3590
gue	-3591
ino	-3592
lan	-3593
ole	-3594
unk	-3595
unt	-3596
uty	-3597
▁1.	-3598
▁23	-3599
▁27	-3600
▁40	-3601
▁60	-3602
▁CO	-3603
▁Ca	-3604
▁EC	-3605
▁IN	-3606
▁Oh	-3607
▁TW	-3608
▁UV	-3609
▁ce	-3610
▁hi	-3611
ache	-3612
aint	-3613
anim	-3614
anta	-3615
ault	-3616
cape	-3617
cing	-3618
ctic	-3619
ffic	-3620
ibly	-3621
ihad	-3622
ille	-3623
lies	-3624
olks	-3625
oved	-3626
path	-3627
rand	-3628
stit	-3629
ural	-3630
ying	-3631
▁800	-3632
▁Add	-3633
▁Air	-3634
▁Bin	-3635
▁Fuj	-3636
▁Hey	-3637
▁Min	-3638
▁Mom	-3639
▁Rem	-3640
▁Sup	-3641
▁Tom	-3642
▁bag	-3643
▁ban	-3644
▁fal	-3645
▁nor	-3646
▁rat	-3647
▁tit	-3648
▁vol	-3649
ATION	-3650
anism	-3651
arian	-3652
atory	-3653
eared	-3654
force	-3655
ibald	-3656
ients	-3657
inter	-3658
range	-3659
▁Beat	-3660
▁Braz	-3661
▁City	-3662
▁More	-3663
▁Part	-3664
▁Plan	-3665
▁acqu	-3666
▁army	-3667
▁bank	-3668
▁base	-3669
▁best	-3670
▁capt	-3671
▁dele	-3672
▁died	-3673
▁glad	-3674
▁kitt	-3675
▁laws	-3676
▁liqu	-3677
▁none	-3678
▁pers	-3679
▁plus	-3680
▁suit	-3681
▁teac	-3682
▁vict	-3683
▁viol	-3684
9/2000	-3685
▁Count	-3686
▁Gregg	-3687
▁Lanka	-3688
▁NEVER	-3689
▁Never	-3690
▁Rober	-3691
▁White	-3692
▁began	-3693
▁calls	-3694
▁cases	-3695
▁chess	-3696
▁costs	-3697
▁dates	-3698
▁folks	-3699
▁frequ	-3700
▁greet	-3701
▁ideas	-3702
▁initi	-3703
▁lists	-3704
▁lived	-3705
▁maint	-3706
▁reach	-3707
▁recip	-3708
▁shows	-3709
▁steps	-3710
▁words	-3711
▁Columb	-3712
▁Samuel	-3713
▁Senate	-3714
▁active	-3715
▁anyway	-3716
▁appear	-3717
▁assass	-3718
▁assign	-3719
▁became	-3720
▁booked	-3721
▁candid	-3722
▁circle	-3723
▁contro	-3724
▁female	-3725
▁filled	-3726
▁forget	-3727
▁middle	-3728
▁modern	-3729
▁object	-3730
▁passed	-3731
▁raised	-3732
▁remind	-3733
▁weight	-3734
▁winter	-3735
........	-3736
ackleton	-3737
ferences	-3738
▁Francis	-3739
▁Supreme	-3740
▁ability	-3741
▁benefit	-3742
▁calling	-3743
▁charged	-3744
▁chicken	-3745
▁conflic	-3746
▁counter	-3747
▁deliver	-3748
▁destroy	-3749
▁encoura	-3750
▁finding	-3751
▁minimum	-3752
▁parties	-3753
▁pricing	-3754
▁society	-3755
▁stopped	-3756
▁weather	-3757
▁wedding	-3758
▁Currency	-3759
▁February	-3760
▁birthday	-3761
▁drinking	-3762
▁governor	-3763
▁informed	-3764
▁neighbor	-3765
▁original	-3766
▁pressure	-3767
▁reliable	-3768
▁schedule	-3769
▁solution	-3770
▁standard	-3771
▁companies	-3772
▁contracts	-3773
▁described	-3774
▁discussed	-3775
▁insurance	-3776
▁relations	-3777
▁Shackleton	-3778
▁personally	-3779
▁statements	-3780
▁certificate	-3781
▁development	-3782
▁recommended	-3783
▁requirements	-3784
▁transactions	-3785
-0	-3786
.9	-3787
19	-3788
74	-3789
IL	-3790
IR	-3791
On	-3792
TA	-3793
aa	-3794
bl	-3795
dd	-3796
de	-3797
fa	-3798
gn	-3799
ha	-3800
sy	-3801
tm	-3802
/26	-3803
/99	-3804
TMâ	-3805
UST	-3806
ago	-3807
cer	-3808
eal	-3809
een	-3810
eng	-3811
het	-3812
ico	-3813
ilt	-3814
isc	-3815
ker	-3816
kin	-3817
lex	-3818
mar	-3819
mas	-3820
rad	-3821
rit	-3822
sex	-3823
uct	-3824
udi	-3825
unn	-3826
yan	-3827
▁31	-3828
▁34	-3829
▁42	-3830
▁Ac	-3831
▁Ay	-3832
▁EX	-3833
▁TR	-3834
▁ut	-3835
anie	-3836
ford	-3837
ideo	-3838
iety	-3839
imin	-3840
indy	-3841
load	-3842
onda	-3843
ownt	-3844
rief	-3845
ring	-3846
rodu	-3847
wood	-3848
▁Bro	-3849
▁Dep	-3850
▁GDP	-3851
▁Her	-3852
▁Kat	-3853
▁Lay	-3854
▁Lou	-3855
▁McC	-3856
▁Mex	-3857
▁Mor	-3858
▁Mos	-3859
▁Pre	-3860
▁STE	-3861
▁Sat	-3862
▁Sea	-3863
▁Try	-3864
▁VER	-3865
▁Why	-3866
▁arm	-3867
▁fat	-3868
▁gar	-3869
▁log	-3870
▁low	-3871
▁pen	-3872
▁rid	-3873
▁sym	-3874
▁tow	-3875
▁unp	-3876
▁ver	-3877
alley	-3878
eline	-3879
iplom	-3880
light	-3881
orney	-3882
owing	-3883
rance	-3884
ushed	-3885
▁202.	-3886
▁Bagh	-3887
▁Brit	-3888
▁Cons	-3889
▁Dece	-3890
▁Hell	-3891
▁ISDA	-3892
▁Last	-3893
▁Leon	-3894
▁Look	-3895
▁Mann	-3896
▁Mart	-3897
▁Most	-3898
▁Phil	-3899
▁Stan	-3900
▁code	-3901
▁cold	-3902
▁comb	-3903
▁crew	-3904
▁film	-3905
▁gets	-3906
▁gift	-3907
▁hung	-3908
▁join	-3909
▁lawy	-3910
▁loss	-3911
▁mach	-3912
▁mist	-3913
▁pair	-3914
▁pool	-3915
▁prim	-3916
▁push	-3917
▁song	-3918
▁wall	-3919
▁wine	-3920
▁wood	-3921
Webber	-3922
iction	-3923
ointed	-3924
reland	-3925
▁Ahmed	-3926
▁Cindy	-3927
▁Inter	-3928
▁Jones	-3929
▁Linda	-3930
▁Paine	-3931
▁Right	-3932
▁THERE	-3933
▁Worth	-3934
▁alloc	-3935
▁assum	-3936
▁breat	-3937
▁click	-3938
▁filed	-3939
▁floor	-3940
▁holid	-3941
▁mouth	-3942
▁north	-3943
▁occup	-3944
▁signs	-3945
▁south	-3946
▁sweet	-3947
▁taste	-3948
▁throw	-3949
▁truck	-3950
▁wheel	-3951
alition	-3952
mercial	-3953
ructure	-3954
▁Brazil	-3955
▁asking	-3956
▁assume	-3957
▁bigger	-3958
▁camera	-3959
▁choose	-3960
▁compet	-3961
▁copies	-3962
▁demand	-3963
▁higher	-3964
▁launch	-3965
▁negoti	-3966
▁parake	-3967
▁paying	-3968
▁plants	-3969
▁quoted	-3970
▁recall	-3971
▁severe	-3972
▁snakes	-3973
▁spirit	-3974
▁spokes	-3975
▁strain	-3976
▁window	-3977
,000,000	-3978
▁Analyst	-3979
▁Austral	-3980
▁Beatles	-3981
▁English	-3982
▁EnronOn	-3983
▁Fortier	-3984
▁Italian	-3985
▁Johnson	-3986
▁Questar	-3987
▁alleged	-3988
▁allowed	-3989
▁climate	-3990
▁consist	-3991
▁execute	-3992
▁explain	-3993
▁feeling	-3994
▁healthy	-3995
▁helping	-3996
▁holding	-3997
▁largest	-3998
▁missing	-3999
▁opening	-4000
▁picture	-4001
▁portion	-4002
▁proceed	-4003
▁promise	-4004
▁realize	-4005
▁sitting	-4006
▁sympath	-4007
▁telling	-4008
▁traffic	-4009
ification	-4010
▁Columbia	-4011
▁December	-4012
▁activity	-4013
▁analysis	-4014
▁approval	-4015
▁behavior	-4016
▁checking	-4017
▁designed	-4018
▁directly	-4019
▁material	-4020
▁repeated	-4021
▁soldiers	-4022
▁strategy	-4023
▁watching	-4024
▁corporate	-4025
▁delicious	-4026
▁documents	-4027
▁education	-4028
▁potential	-4029
▁seriously	-4030
▁standards	-4031
▁Everything	-4032
▁Settlement	-4033
▁discussion	-4034
▁settlement	-4035
▁PaineWebber	-4036
▁responsible	-4037
▁suggestions	-4038
▁interconnect	-4039
▁organization	-4040
▁transportation	-4041
16	-4042
34	-4043
61	-4044
79	-4045
CE	-4046
DE	-4047
ID	-4048
KE	-4049
UC	-4050
hy	-4051
ko	-4052
na	-4053
ni	-4054
sp	-4055
---	-4056
/10	-4057
/16	-4058
81-	-4059
BLE	-4060
XLS	-4061
awi	-4062
awn	-4063
ban	-4064
dad	-4065
eed	-4066
ero	-4067
hod	-4068
htm	-4069
iff	-4070
ikh	-4071
imp	-4072
now	-4073
oos	-4074
org	-4075
ppy	-4076
▁**	-4077
▁28	-4078
▁70	-4079
▁75	-4080
▁Hu	-4081
▁LA	-4082
▁LL	-4083
▁PS	-4084
▁Rh	-4085
▁UN	-4086
▁ap	-4087
▁pu	-4088
▁sy	-4089
aced	-4090
aged	-4091
ancy	-4092
ario	-4093
ches	-4094
faat	-4095
fare	-4096
ican	-4097
ilar	-4098
iple	-4099
itiz	-4100
more	-4101
ocks	-4102
onto	-4103
ples	-4104
then	-4105
what	-4106
▁196	-4107
▁300	-4108
▁Abd	-4109
▁Ass	-4110
▁Cap	-4111
▁Cra	-4112
▁Deb	-4113
▁Dev	-4114
▁Ess	-4115
▁FOR	-4116
▁Mur	-4117
▁Pol	-4118
▁Put	-4119
▁Tod	-4120
▁Tur	-4121
▁Vis	-4122
▁Wal	-4123
▁boo	-4124
▁dou	-4125
▁err	-4126
▁ess	-4127
▁fab	-4128
▁gen	-4129
▁gun	-4130
▁imm	-4131
▁lie	-4132
▁sen	-4133
▁sil	-4134
▁sou	-4135
▁und	-4136
▁veh	-4137
▁wat	-4138
ading	-4139
airah	-4140
house	-4141
iliar	-4142
ipped	-4143
orter	-4144
oting	-4145
ranch	-4146
rical	-4147
using	-4148
while	-4149
▁01/1	-4150
▁5:00	-4151
▁7:30	-4152
▁9/11	-4153
▁Arch	-4154
▁Bang	-4155
▁Cong	-4156
▁Corp	-4157
▁Dunn	-4158
▁Food	-4159
▁GOOD	-4160
▁Inst	-4161
▁King	-4162
▁Love	-4163
▁Silk	-4164
▁VERY	-4165
▁ball	-4166
▁bite	-4167
▁blog	-4168
▁cake	-4169
▁cast	-4170
▁cell	-4171
▁clot	-4172
▁fell	-4173
▁fire	-4174
▁grab	-4175
▁hell	-4176
▁migr	-4177
▁pets	-4178
▁pink	-4179
▁sens	-4180
▁shot	-4181
▁surv	-4182
▁tire	-4183
▁tool	-4184
▁trot	-4185
▁vent	-4186
▁ways	-4187
▁wide	-4188
2/2001	-4189
ivered	-4190
reedom	-4191
undred	-4192
▁Could	-4193
▁James	-4194
▁Spain	-4195
▁Sunni	-4196
▁Table	-4197
▁blank	-4198
▁brain	-4199
▁breed	-4200
▁brief	-4201
▁cabin	-4202
▁coast	-4203
▁crime	-4204
▁dance	-4205
▁dated	-4206
▁daugh	-4207
▁ended	-4208
▁girls	-4209
▁impro	-4210
▁influ	-4211
▁laser	-4212
▁loves	-4213
▁lower	-4214
▁notch	-4215
▁pilot	-4216
▁reply	-4217
▁rough	-4218
▁trade	-4219
▁trave	-4220
animals	-4221
itation	-4222
orthern	-4223
owntown	-4224
▁Arctic	-4225
▁Associ	-4226
▁Credit	-4227
▁Direct	-4228
▁Office	-4229
▁Sharon	-4230
▁Sufaat	-4231
▁Winter	-4232
▁adults	-4233
▁advise	-4234
▁barely	-4235
▁caused	-4236
▁client	-4237
▁diplom	-4238
▁driver	-4239
▁earned	-4240
▁ensure	-4241
▁escape	-4242
▁expert	-4243
▁histor	-4244
▁hotels	-4245
▁incred	-4246
▁issued	-4247
▁kitten	-4248
▁listed	-4249
▁method	-4250
▁missed	-4251
▁mother	-4252
▁nature	-4253
▁origin	-4254
▁riding	-4255
▁screen	-4256
▁season	-4257
▁seemed	-4258
▁shower	-4259
▁skills	-4260
▁temper	-4261
▁unable	-4262
▁waited	-4263
▁walked	-4264
▁weekly	-4265
/30/2001	-4266
standing	-4267
▁Baghdad	-4268
▁England	-4269
▁Finally	-4270
▁Product	-4271
▁advance	-4272
▁central	-4273
▁cleaned	-4274
▁closely	-4275
▁college	-4276
▁conclud	-4277
▁decades	-4278
▁efforts	-4279
▁follows	-4280
▁funding	-4281
▁inspect	-4282
▁letters	-4283
▁located	-4284
▁meaning	-4285
▁noticed	-4286
▁percent	-4287
▁planned	-4288
▁remains	-4289
▁student	-4290
▁systems	-4291
▁variety	-4292
▁workers	-4293
▁writing	-4294
▁Congress	-4295
▁Everyone	-4296
▁Fujairah	-4297
▁Services	-4298
▁apparent	-4299
▁believes	-4300
▁concerns	-4301
▁disaster	-4302
▁familiar	-4303
▁followed	-4304
▁handling	-4305
▁pipeline	-4306
▁pleasant	-4307
▁positive	-4308
▁terrible	-4309
▁whenever	-4310
▁Archibald	-4311
▁apartment	-4312
▁community	-4313
▁confirmed	-4314
▁delivered	-4315
▁furniture	-4316
▁impressed	-4317
▁obviously	-4318
▁purchased	-4319
▁recipient	-4320
▁responses	-4321
▁spokesman	-4322
▁surprised	-4323
▁terrorism	-4324
▁biological	-4325
▁determined	-4326
▁generators	-4327
▁guidelines	-4328
▁strengthen	-4329
▁electricity	-4330
▁participate	-4331
▁restaurants	-4332
▁transaction	-4333
▁conversation	-4334
▁expectations	-4335
▁relationship	-4336
▁Unfortunately	-4337
,5	-4338
02	-4339
04	-4340
65	-4341
86	-4342
DT	-4343
EO	-4344
II	-4345
LD	-4346
ds	-4347
ev	-4348
la	-4349
ma	-4350
ya	-4351
/17	-4352
ESS	-4353
INE	-4354
ONE	-4355
TMt	-4356
ali	-4357
aos	-4358
ape	-4359
cks	-4360
ded	-4361
gie	-4362
ici	-4363
ils	-4364
ini	-4365
key	-4366
ler	-4367
lit	-4368
lor	-4369
mes	-4370
mir	-4371
new	-4372
och	-4373
ona	-4374
oud	-4375
que	-4376
ram	-4377
sey	-4378
ugg	-4379
van	-4380
vin	-4381
vis	-4382
▁AT	-4383
▁BR	-4384
▁Bu	-4385
▁IF	-4386
▁IP	-4387
▁MY	-4388
▁PG	-4389
▁Te	-4390
▁UK	-4391
▁na	-4392
▁nâ	-4393
DEVE	-4394
LOPM	-4395
ahoo	-4396
aval	-4397
ball	-4398
cast	-4399
cers	-4400
hest	-4401
iger	-4402
irty	-4403
ival	-4404
ivet	-4405
leum	-4406
like	-4407
orea	-4408
quar	-4409
rong	-4410
time	-4411
ught	-4412
umes	-4413
upid	-4414
ware	-4415
wick	-4416
▁---	-4417
▁BUT	-4418
▁Bel	-4419
▁Big	-4420
▁DIS	-4421
▁Day	-4422
▁Equ	-4423
▁FYI	-4424
▁Fer	-4425
▁Gar	-4426
▁Ger	-4427
▁Hat	-4428
▁Int	-4429
▁LLC	-4430
▁Met	-4431
▁Nov	-4432
▁ONE	-4433
▁Sao	-4434
▁USA	-4435
▁bow	-4436
▁bra	-4437
▁coo	-4438
▁cra	-4439
▁den	-4440
▁dep	-4441
▁fee	-4442
▁har	-4443
▁lic	-4444
▁lif	-4445
▁mem	-4446
▁mov	-4447
▁mut	-4448
▁obs	-4449
▁obt	-4450
▁rac	-4451
▁tro	-4452
▁vom	-4453
▁www	-4454
abama	-4455
acity	-4456
aging	-4457
alabi	-4458
ender	-4459
icago	-4460
idden	-4461
inson	-4462
lined	-4463
oogle	-4464
oples	-4465
pping	-4466
stone	-4467
wered	-4468
▁03/0	-4469
▁ASAP	-4470
▁Asia	-4471
▁Dear	-4472
▁HAVE	-4473
▁Jose	-4474
▁Kash	-4475
▁Khan	-4476
▁Make	-4477
▁News	-4478
▁Nook	-4479
▁Penn	-4480
▁REAL	-4481
▁Tana	-4482
▁Wild	-4483
▁Wood	-4484
▁Zeal	-4485
▁desp	-4486
▁dies	-4487
▁duty	-4488
▁fuel	-4489
▁hide	-4490
▁hiss	-4491
▁laun	-4492
▁lies	-4493
▁moon	-4494
▁neck	-4495
▁path	-4496
▁puts	-4497
▁rang	-4498
▁rays	-4499
▁rent	-4500
▁sake	-4501
▁seek	-4502
▁sess	-4503
▁sett	-4504
▁shut	-4505
▁stri	-4506
▁task	-4507
▁vote	-4508
▁warr	-4509
▁west	-4510
▁wild	-4511
▁wolf	-4512
assion	-4513
astern	-4514
ertain	-4515
idered	-4516
phanie	-4517
ployed	-4518
priced	-4519
roleum	-4520
▁Color	-4521
▁Essie	-4522
▁Green	-4523
▁Husse	-4524
▁Jason	-4525
▁Jihad	-4526
▁Paulo	-4527
▁Saudi	-4528
▁Works	-4529
▁apart	-4530
▁argue	-4531
▁audit	-4532
▁award	-4533
▁basic	-4534
▁blind	-4535
▁depos	-4536
▁enter	-4537
▁equal	-4538
▁equip	-4539
▁false	-4540
▁feels	-4541
▁forms	-4542
▁funct	-4543
▁heads	-4544
▁heavy	-4545
▁image	-4546
▁liber	-4547
▁loved	-4548
▁mouse	-4549
▁numer	-4550
▁owned	-4551
▁panel	-4552
▁recru	-4553
▁round	-4554
▁sandw	-4555
▁serve	-4556
▁ships	-4557
▁sides	-4558
▁speed	-4559
▁spray	-4560
▁stuck	-4561
▁tight	-4562
▁trail	-4563
▁trial	-4564
▁truth	-4565
▁usual	-4566
▁video	-4567
▁whose	-4568
▁wrote	-4569
LOPMENT	-4570
aration	-4571
artment	-4572
hensive	-4573
idation	-4574
imately	-4575
issance	-4576
ription	-4577
▁County	-4578
▁Disney	-4579
▁Parent	-4580
▁Robert	-4581
▁Second	-4582
▁Senior	-4583
▁Shiite	-4584
▁Spring	-4585
▁Street	-4586
▁actual	-4587
▁affect	-4588
▁announ	-4589
▁babies	-4590
▁biting	-4591
▁border	-4592
▁bottom	-4593
▁cancel	-4594
▁claims	-4595
▁corner	-4596
▁create	-4597
▁curves	-4598
▁damage	-4599
▁decade	-4600
▁democr	-4601
▁dining	-4602
▁double	-4603
▁elimin	-4604
▁extend	-4605
▁failed	-4606
▁fairly	-4607
▁finish	-4608
▁formal	-4609
▁larger	-4610
▁loving	-4611
▁manual	-4612
▁muscle	-4613
▁prepar	-4614
▁regime	-4615
▁secure	-4616
▁sounds	-4617
▁stream	-4618
▁stupid	-4619
▁troops	-4620
▁unique	-4621
▁update	-4622
▁values	-4623
entially	-4624
iliation	-4625
▁Alabama	-4626
▁Chalabi	-4627
▁Chicago	-4628
▁Federal	-4629
▁Kashmir	-4630
▁Subject	-4631
▁Toronto	-4632
▁Zealand	-4633
▁achieve	-4634
▁approve	-4635
▁arrived	-4636
▁century	-4637
▁charges	-4638
▁checked	-4639
▁created	-4640
▁culture	-4641
▁dealers	-4642
▁decline	-4643
▁depends	-4644
▁economy	-4645
▁elected	-4646
▁excited	-4647
▁feeding	-4648
▁forever	-4649
▁freedom	-4650
▁growing	-4651
▁happens	-4652
▁install	-4653
▁kittens	-4654
▁measure	-4655
▁medical	-4656
▁murders	-4657
▁offices	-4658
▁overall	-4659
▁payment	-4660
▁premium	-4661
▁prepare	-4662
▁protect	-4663
▁release	-4664
▁removed	-4665
▁revised	-4666
▁similar	-4667
▁smaller	-4668
▁stories	-4669
▁targets	-4670
▁teacher	-4671
▁tonight	-4672
▁towards	-4673
▁Harrison	-4674
▁Japanese	-4675
▁Security	-4676
▁accident	-4677
▁addition	-4678
▁assigned	-4679
▁chickens	-4680
▁compared	-4681
▁entirely	-4682
▁horrible	-4683
▁officers	-4684
▁previous	-4685
▁proposed	-4686
▁regional	-4687
▁requests	-4688
▁required	-4689
▁reserves	-4690
▁standing	-4691
▁students	-4692
▁supplies	-4693
▁Australia	-4694
▁Francisco	-4695
▁Stephanie	-4696
▁addresses	-4697
▁breakfast	-4698
▁candidate	-4699
▁committee	-4700
▁efficient	-4701
▁fantastic	-4702
▁operating	-4703
▁paperwork	-4704
▁perfectly	-4705
▁positions	-4706
▁reception	-4707
▁structure	-4708
▁therefore	-4709
▁wondering	-4710
DEVELOPMENT	-4711
▁Conference	-4712
▁Government	-4713
▁confidence	-4714
▁considered	-4715
▁constantly	-4716
▁eventually	-4717
▁individual	-4718
▁occupation	-4719
▁EnronOnline	-4720
▁alternative	-4721
▁established	-4722
▁surrounding	-4723
▁developments	-4724
▁disappointed	-4725
▁particularly	-4726
▁presentation	-4727
▁communication	-4728
▁documentation	-4729
▁reconciliation	-4730
▁responsibility	-4731
.5	-4732
2-	-4733
77	-4734
90	-4735
BA	-4736
IM	-4737
PC	-4738
PR	-4739
TC	-4740
gl	-4741
ny	-4742
pd	-4743
yn	-4744
/03	-4745
:32	-4746
:35	-4747
ERS	-4748
IGH	-4749
ITH	-4750
OOD	-4751
WAY	-4752
___	-4753
aib	-4754
amb	-4755
bed	-4756
bel	-4757
cil	-4758
gel	-4759
gon	-4760
hib	-4761
how	-4762
ipt	-4763
itc	-4764
nis	-4765
oly	-4766
pic	-4767
pid	-4768
rey	-4769
roc	-4770
uce	-4771
ulb	-4772
xls	-4773
▁29	-4774
▁?!	-4775
▁EE	-4776
▁Er	-4777
▁HR	-4778
▁Li	-4779
▁Os	-4780
▁SJ	-4781
▁WA	-4782
▁di	-4783
▁id	-4784
▁ir	-4785
▁tv	-4786
,500	-4787
6-1.	-4788
abor	-4789
afia	-4790
ague	-4791
alid	-4792
arat	-4793
asse	-4794
ateg	-4795
aven	-4796
bean	-4797
bing	-4798
face	-4799
fess	-4800
fety	-4801
fill	-4802
icop	-4803
iled	-4804
itch	-4805
iven	-4806
lden	-4807
odge	-4808
orms	-4809
orne	-4810
pose	-4811
rina	-4812
risk	-4813
roud	-4814
rous	-4815
warf	-4816
west	-4817
▁500	-4818
▁Atl	-4819
▁Bec	-4820
▁Bus	-4821
▁Exp	-4822
▁Far	-4823
▁Fre	-4824
▁Has	-4825
▁Hor	-4826
▁Its	-4827
▁Job	-4828
▁Lee	-4829
▁Lor	-4830
▁Mid	-4831
▁Nob	-4832
▁Non	-4833
▁Red	-4834
▁Rev	-4835
▁SER	-4836
▁Sim	-4837
▁Sit	-4838
▁Sue	-4839
▁Tam	-4840
▁Ted	-4841
▁Tit	-4842
▁ast	-4843
▁bat	-4844
▁fle	-4845
▁god	-4846
▁ing	-4847
▁jud	-4848
▁lob	-4849
▁mel	-4850
▁mic	-4851
▁neg	-4852
▁obl	-4853
▁sam	-4854
▁sch	-4855
▁squ	-4856
aurie	-4857
chant	-4858
chers	-4859
ended	-4860
ennon	-4861
iling	-4862
ilipp	-4863
iller	-4864
itude	-4865
ocked	-4866
orial	-4867
oston	-4868
osure	-4869
posal	-4870
prise	-4871
ropri	-4872
spect	-4873
tered	-4874
▁10/2	-4875
▁1000	-4876
▁1972	-4877
▁1999	-4878
▁281-	-4879
▁Ames	-4880
▁Blue	-4881
▁Camp	-4882
▁Char	-4883
▁Conf	-4884
▁Decl	-4885
▁EVER	-4886
▁FOOD	-4887
▁Fall	-4888
▁Keep	-4889
▁Kind	-4890
▁Kyle	-4891
▁LOVE	-4892
▁Nick	-4893
▁Note	-4894
▁Rice	-4895
▁Rick	-4896
▁STEP	-4897
▁THAT	-4898
▁Time	-4899
▁WITH	-4900
▁beat	-4901
▁blow	-4902
▁blue	-4903
▁boat	-4904
▁cale	-4905
▁caps	-4906
▁chef	-4907
▁circ	-4908
▁crap	-4909
▁cris	-4910
▁dism	-4911
▁drop	-4912
▁enem	-4913
▁eval	-4914
▁flat	-4915
▁gain	-4916
▁hous	-4917
▁inqu	-4918
▁invo	-4919
▁item	-4920
▁jour	-4921
▁nest	-4922
▁okay	-4923
▁plot	-4924
▁qual	-4925
▁rule	-4926
▁scam	-4927
▁stra	-4928
▁stru	-4929
▁summ	-4930
▁toes	-4931
▁vast	-4932
▁vend	-4933
▁virt	-4934
ending	-4935
errill	-4936
erring	-4937
hedule	-4938
ifying	-4939
imated	-4940
ration	-4941
retary	-4942
ulated	-4943
upunct	-4944
▁Aafia	-4945
▁Alber	-4946
▁Earth	-4947
▁Front	-4948
▁Gerry	-4949
▁Hello	-4950
▁Judge	-4951
▁Kevin	-4952
▁Korea	-4953
▁Leban	-4954
▁Louis	-4955
▁Molly	-4956
▁Under	-4957
▁Union	-4958
▁agent	-4959
▁avoid	-4960
▁broad	-4961
▁chief	-4962
▁citiz	-4963
▁defin	-4964
▁doubt	-4965
▁field	-4966
▁files	-4967
▁forth	-4968
▁grant	-4969
▁green	-4970
▁incor	-4971
▁inner	-4972
▁kinds	-4973
▁likes	-4974
▁links	-4975
▁liter	-4976
▁lucky	-4977
▁minor	-4978
▁newly	-4979
▁noise	-4980
▁princ	-4981
▁proud	-4982
▁quiet	-4983
▁salad	-4984
▁seven	-4985
▁sites	-4986
▁surge	-4987
▁truly	-4988
▁write	-4989
clusion	-4990
iculous	-4991
istrict	-4992
undreds	-4993
▁Before	-4994
▁Blount	-4995
▁Bondad	-4996
▁Center	-4997
▁France	-4998
▁Island	-4999
▁Khalid	-5000
▁Lennon	-5001
▁Mexico	-5002
▁Orders	-5003
▁Rhonda	-5004
▁Rights	-5005
▁Russia	-5006
▁Sheikh	-5007
▁Tablet	-5008
▁United	-5009
▁Yellow	-5010
▁agency	-5011
▁aspect	-5012
▁blocks	-5013
▁caught	-5014
▁church	-5015
▁cities	-5016
▁closed	-5017
▁cooked	-5018
▁dealer	-5019
▁delete	-5020
▁embarr	-5021
▁entity	-5022
▁expand	-5023
▁filter	-5024
▁format	-5025
▁funded	-5026
▁gender	-5027
▁golden	-5028
▁guests	-5029
▁impact	-5030
▁lesson	-5031
▁lovely	-5032
▁manner	-5033
▁opened	-5034
▁orders	-5035
▁police	-5036
▁prompt	-5037
▁resume	-5038
▁safety	-5039
▁series	-5040
▁smooth	-5041
▁status	-5042
▁stayed	-5043
▁suffer	-5044
▁talked	-5045
▁visits	-5046
▁wolves	-5047
/01/2001	-5048
▁Andaman	-5049
▁Because	-5050
▁British	-5051
▁Company	-5052
▁Constit	-5053
▁Develop	-5054
▁Ferrous	-5055
▁Hatfill	-5056
▁Hussein	-5057
▁Ireland	-5058
▁Katrina	-5059
▁Overall	-5060
▁Payment	-5061
▁Philipp	-5062
▁Warwick	-5063
▁airport	-5064
▁analyst	-5065
▁applied	-5066
▁brother	-5067
▁circles	-5068
▁complex	-5069
▁coordin	-5070
▁dealing	-5071
▁degrees	-5072
▁dropped	-5073
▁flowers	-5074
▁helicop	-5075
▁holiday	-5076
▁imagine	-5077
▁killing	-5078
▁machine	-5079
▁package	-5080
▁passing	-5081
▁plaster	-5082
▁privile	-5083
▁purpose	-5084
▁rabbits	-5085
▁serving	-5086
▁settled	-5087
▁studies	-5088
▁totally	-5089
▁tourist	-5090
▁updated	-5091
▁warrant	-5092
▁Director	-5093
▁Floating	-5094
▁Governor	-5095
▁Robinson	-5096
▁Schedule	-5097
▁admitted	-5098
▁argument	-5099
▁conflict	-5100
▁contacts	-5101
▁creating	-5102
▁elements	-5103
▁estimate	-5104
▁executed	-5105
▁graduate	-5106
▁hearings	-5107
▁includes	-5108
▁internal	-5109
▁mailings	-5110
▁mechanic	-5111
▁morality	-5112
▁presence	-5113
▁projects	-5114
▁relative	-5115
▁shopping	-5116
▁slightly	-5117
▁somewhat	-5118
▁straight	-5119
▁addressed	-5120
▁allocated	-5121
▁authority	-5122
▁basically	-5123
▁continued	-5124
▁inflation	-5125
▁intercept	-5126
▁otherwise	-5127
▁petroleum	-5128
▁procedure	-5129
▁stability	-5130
▁11/28/2000	-5131
▁Department	-5132
▁Republican	-5133
▁affordable	-5134
▁assistance	-5135
▁background	-5136
▁commercial	-5137
▁compassion	-5138
▁conditions	-5139
▁dealership	-5140
▁developing	-5141
▁directions	-5142
▁girlfriend	-5143
▁interviews	-5144
▁reportedly	-5145
▁technology	-5146
▁terrorists	-5147
▁travelling	-5148
▁Declaration	-5149
▁Yellowstone	-5150
▁appropriate	-5151
▁experiences	-5152
▁liquidation	-5153
▁Transmission	-5154
▁counterparty	-5155
▁assassination	-5156
.3	-5157
35	-5158
73	-5159
IB	-5160
MS	-5161
OS	-5162
SL	-5163
SM	-5164
TS	-5165
UL	-5166
YN	-5167
ii	-5168
ki	-5169
rd	-5170
uf	-5171
uk	-5172
/00	-5173
400	-5174
:45	-5175
:50	-5176
:58	-5177
AST	-5178
ERC	-5179
ORE	-5180
ano	-5181
ask	-5182
awa	-5183
bon	-5184
eah	-5185
guy	-5186
hel	-5187
lem	-5188
mat	-5189
met	-5190
nda	-5191
pir	-5192
sec	-5193
ste	-5194
uke	-5195
umn	-5196
una	-5197
wan	-5198
▁36	-5199
▁55	-5200
▁64	-5201
▁65	-5202
▁:(	-5203
▁BE	-5204
▁CP	-5205
▁DC	-5206
▁Em	-5207
▁Ft	-5208
▁GM	-5209
▁MO	-5210
▁PA	-5211
▁SC	-5212
▁SO	-5213
▁Ty	-5214
▁ju	-5215
▁py	-5216
LINE	-5217
OULD	-5218
ahar	-5219
ails	-5220
aked	-5221
appy	-5222
ares	-5223
asov	-5224
avig	-5225
ayed	-5226
care	-5227
edic	-5228
eing	-5229
ends	-5230
enos	-5231
eron	-5232
gent	-5233
heet	-5234
iagn	-5235
icip	-5236
iles	-5237
illy	-5238
ints	-5239
ixed	-5240
lled	-5241
llis	-5242
mine	-5243
mmmm	-5244
oned	-5245
plic	-5246
reak	-5247
rier	-5248
sych	-5249
ujah	-5250
uses	-5251
ushi	-5252
word	-5253
▁415	-5254
▁ALL	-5255
▁ANY	-5256
▁Bas	-5257
▁Bow	-5258
▁Cle	-5259
▁Dem	-5260
▁Dub	-5261
▁Ent	-5262
▁Est	-5263
▁Fam	-5264
▁Hol	-5265
▁Hub	-5266
▁Imm	-5267
▁Jud	-5268
▁Law	-5269
▁Lim	-5270
▁Loo	-5271
▁NYC	-5272
▁Out	-5273
▁Pow	-5274
▁RAP	-5275
▁Ram	-5276
▁Rel	-5277
▁Ruy	-5278
▁Sin	-5279
▁UVB	-5280
▁Web	-5281
▁Whe	-5282
▁Wil	-5283
▁aid	-5284
▁aim	-5285
▁deb	-5286
▁die	-5287
▁fav	-5288
▁fif	-5289
▁hen	-5290
▁hes	-5291
▁ice	-5292
▁lim	-5293
▁mad	-5294
▁pig	-5295
▁rom	-5296
▁rum	-5297
▁scr	-5298
▁sex	-5299
▁ten	-5300
▁tim	-5301
▁ult	-5302
▁ups	-5303
▁wet	-5304
aling	-5305
anced	-5306
anish	-5307
arded	-5308
aries	-5309
asion	-5310
comes	-5311
craft	-5312
eless	-5313
ences	-5314
ening	-5315
eries	-5316
guyen	-5317
icles	-5318
inary	-5319
ommer	-5320
onald	-5321
ordan	-5322
ously	-5323
overy	-5324
pired	-5325
ufact	-5326
umers	-5327
undry	-5328
zales	-5329
▁1980	-5330
▁5000	-5331
▁Anne	-5332
▁Ball	-5333
▁Bank	-5334
▁Base	-5335
▁Cafe	-5336
▁Cell	-5337
▁Coll	-5338
▁Deal	-5339
▁Dent	-5340
▁Duke	-5341
▁Feel	-5342
▁Iron	-5343
▁Jack	-5344
▁Kath	-5345
▁Nice	-5346
▁OVER	-5347
▁PERE	-5348
▁Pers	-5349
▁Pict	-5350
▁Plus	-5351
▁Rude	-5352
▁Sent	-5353
▁Sing	-5354
▁Stay	-5355
▁THEY	-5356
▁Vice	-5357
▁Walk	-5358
▁Work	-5359
▁YOUR	-5360
▁airl	-5361
▁anti	-5362
▁bowl	-5363
▁bull	-5364
▁calm	-5365
▁crow	-5366
▁cuts	-5367
▁dish	-5368
▁draw	-5369
▁edit	-5370
▁fool	-5371
▁goal	-5372
▁hall	-5373
▁hate	-5374
▁king	-5375
▁lapt	-5376
▁load	-5377
▁mama	-5378
▁mile	-5379
▁nine	-5380
▁offs	-5381
▁park	-5382
▁pled	-5383
▁poll	-5384
▁pred	-5385
▁race	-5386
▁rich	-5387
▁role	-5388
▁sale	-5389
▁sump	-5390
▁tent	-5391
▁wave	-5392
▁yell	-5393
▁yoga	-5394
ATIONS	-5395
Bondad	-5396
artney	-5397
ashion	-5398
itchen	-5399
orable	-5400
orters	-5401
ounded	-5402
ources	-5403
utions	-5404
▁Again	-5405
▁Allow	-5406
▁Anton	-5407
▁Board	-5408
▁Coast	-5409
▁Dasov	-5410
▁Elect	-5411
▁Hotel	-5412
▁Karim	-5413
▁Metro	-5414
▁Price	-5415
▁River	-5416
▁Staff	-5417
▁Terry	-5418
▁Thane	-5419
▁Today	-5420
▁Which	-5421
▁absor	-5422
▁accur	-5423
▁appet	-5424
▁barre	-5425
▁bears	-5426
▁bombs	-5427
▁cages	-5428
▁categ	-5429
▁crate	-5430
▁enemy	-5431
▁flood	-5432
▁games	-5433
▁gross	-5434
▁hurry	-5435
▁judge	-5436
▁loose	-5437
▁magic	-5438
▁match	-5439
▁memor	-5440
▁miles	-5441
▁outer	-5442
▁prove	-5443
▁psych	-5444
▁puppy	-5445
▁score	-5446
▁screw	-5447
▁shops	-5448
▁slice	-5449
▁smart	-5450
▁split	-5451
▁spons	-5452
▁stars	-5453
▁storm	-5454
▁surve	-5455
▁taxes	-5456
▁terms	-5457
▁veget	-5458
▁views	-5459
istered	-5460
itement	-5461
ossible	-5462
ributed	-5463
roduced	-5464
tenance	-5465
western	-5466
▁Austin	-5467
▁Boston	-5468
▁Change	-5469
▁Doctor	-5470
▁Family	-5471
▁Immigr	-5472
▁Iraqis	-5473
▁Jordan	-5474
▁Martin	-5475
▁Nguyen	-5476
▁People	-5477
▁Sitara	-5478
▁Syrian	-5479
▁Wilson	-5480
▁Wonder	-5481
▁adding	-5482
▁agents	-5483
▁apolog	-5484
▁approx	-5485
▁arrive	-5486
▁backed	-5487
▁belong	-5488
▁broken	-5489
▁caring	-5490
▁center	-5491
▁cheese	-5492
▁christ	-5493
▁commit	-5494
▁conven	-5495
▁cooper	-5496
▁crimes	-5497
▁degree	-5498
▁dollar	-5499
▁emails	-5500
▁extrad	-5501
▁extrem	-5502
▁finger	-5503
▁forgot	-5504
▁gallon	-5505
▁hospit	-5506
▁humans	-5507
▁litter	-5508
▁mailto	-5509
▁mainly	-5510
▁manage	-5511
▁overse	-5512
▁papers	-5513
▁phones	-5514
▁picked	-5515
▁pulled	-5516
▁pushed	-5517
▁scared	-5518
▁server	-5519
▁spring	-5520
▁stands	-5521
▁suspic	-5522
▁warned	-5523
▁wealth	-5524
/25/2001	-5525
atically	-5526
culation	-5527
errillas	-5528
izations	-5529
mination	-5530
▁.......	-5531
▁Alberta	-5532
▁Atlanta	-5533
▁Edwards	-5534
▁Peoples	-5535
▁Perhaps	-5536
▁Russian	-5537
▁Sanders	-5538
▁Special	-5539
▁Website	-5540
▁appears	-5541
▁arrange	-5542
▁attract	-5543
▁blanket	-5544
▁compens	-5545
▁contain	-5546
▁counsel	-5547
▁expense	-5548
▁experts	-5549
▁hamster	-5550
▁handled	-5551
▁invoice	-5552
▁involve	-5553
▁islands	-5554
▁married	-5555
▁matters	-5556
▁mission	-5557
▁mistake	-5558
▁monthly	-5559
▁muscles	-5560
▁network	-5561
▁officer	-5562
▁operate	-5563
▁printed	-5564
▁private	-5565
▁produce	-5566
▁reality	-5567
▁receipt	-5568
▁regards	-5569
▁relaxed	-5570
▁routine	-5571
▁seeking	-5572
▁session	-5573
▁signing	-5574
▁sources	-5575
▁tickets	-5576
▁traders	-5577
▁vehicle	-5578
▁vendors	-5579
▁venture	-5580
▁walking	-5581
ciousness	-5582
forcement	-5583
formation	-5584
ibilities	-5585
rehensive	-5586
▁Actually	-5587
▁Alliance	-5588
▁Analysis	-5589
▁Business	-5590
▁Dasovich	-5591
▁Northern	-5592
▁accounts	-5593
▁approach	-5594
▁bankrupt	-5595
▁capacity	-5596
▁carrying	-5597
▁chemical	-5598
▁cleaning	-5599
▁cultural	-5600
▁daughter	-5601
▁director	-5602
▁election	-5603
▁manufact	-5604
▁messages	-5605
▁movement	-5606
▁numerous	-5607
▁occurred	-5608
▁parakeet	-5609
▁partners	-5610
▁pleasure	-5611
▁politics	-5612
▁programs	-5613
▁promised	-5614
▁reporter	-5615
▁satanism	-5616
▁somebody	-5617
▁spending	-5618
▁violence	-5619
▁Estimated	-5620
▁McCartney	-5621
▁Otherwise	-5622
▁completed	-5623
▁correctly	-5624
▁elsewhere	-5625
▁embarrass	-5626
▁encourage	-5627
▁equipment	-5628
▁everybody	-5629
▁exception	-5630
▁happiness	-5631
▁influence	-5632
▁occasions	-5633
▁operation	-5634
▁producers	-5635
▁published	-5636
▁returning	-5637
▁selection	-5638
▁spiritual	-5639
▁traveling	-5640
▁04/30/2001	-5641
▁11/29/2000	-5642
▁apparently	-5643
▁capability	-5644
▁commission	-5645
▁difficulty	-5646
▁inspection	-5647
▁investment	-5648
▁invitation	-5649
▁neighbours	-5650
▁privileged	-5651
▁production	-5652
▁protection	-5653
▁repeatedly	-5654
▁successful	-5655
▁suggestion	-5656
▁!!!!!!!!!!!	-5657
▁Development	-5658
▁Independent	-5659
▁Palestinian	-5660
▁Transaction	-5661
▁challenging	-5662
▁considering	-5663
▁helicopters	-5664
▁maintenance	-5665
▁outstanding	-5666
▁requirement	-5667
▁temperature	-5668
▁Palestinians	-5669
▁Transwestern	-5670
▁considerable	-5671
▁neighborhood	-5672
▁specifically	-5673
▁investigation	-5674
▁opportunities	-5675
▁understanding	-5676
-8	-5677
.1	-5678
.4	-5679
29	-5680
3.	-5681
31	-5682
67	-5683
78	-5684
??	-5685
AU	-5686
AZ	-5687
HA	-5688
NA	-5689
NE	-5690
SI	-5691
_0	-5692
fl	-5693
gs	-5694
pg	-5695
sa	-5696
uw	-5697
-1.	-5698
456	-5699
637	-5700
712	-5701
8-7	-5702
:14	-5703
:15	-5704
:20	-5705
:48	-5706
:56	-5707
===	-5708
ANT	-5709
ASE	-5710
ILL	-5711
ITE	-5712
KED	-5713
WYN	-5714
asc	-5715
ato	-5716
bie	-5717
eau	-5718
equ	-5719
gin	-5720
ias	-5721
ica	-5722
ips	-5723
iro	-5724
isl	-5725
ito	-5726
ius	-5727
lin	-5728
lly	-5729
ola	-5730
oph	-5731
oui	-5732
phy	-5733
rim	-5734
rog	-5735
str	-5736
tta	-5737
uan	-5738
ube	-5739
udd	-5740
ugs	-5741
uit	-5742
ura	-5743
wor	-5744
xic	-5745
ymm	-5746
zen	-5747
▁1,	-5748
▁45	-5749
▁46	-5750
▁67	-5751
▁AL	-5752
▁Aw	-5753
▁BC	-5754
▁BO	-5755
▁CD	-5756
▁DF	-5757
▁FR	-5758
▁Hy	-5759
▁LI	-5760
▁Lt	-5761
▁Ma	-5762
▁Ms	-5763
▁Ob	-5764
▁PL	-5765
▁SP	-5766
▁VC	-5767
▁Wy	-5768
▁dh	-5769
▁ek	-5770
▁ga	-5771
▁je	-5772
▁oh	-5773
▁ru	-5774
▁ta	-5775
20-2	-5776
HAEL	-5777
alal	-5778
alsa	-5779
anna	-5780
anny	-5781
aran	-5782
arks	-5783
burn	-5784
cies	-5785
cise	-5786
cons	-5787
dden	-5788
elph	-5789
enny	-5790
etch	-5791
ette	-5792
hold	-5793
iami	-5794
iana	-5795
ikes	-5796
illa	-5797
ilty	-5798
inea	-5799
inue	-5800
ivan	-5801
ixel	-5802
know	-5803
life	-5804
mark	-5805
mond	-5806
obyl	-5807
ocol	-5808
omas	-5809
ores	-5810
outs	-5811
parn	-5812
pond	-5813
pper	-5814
ques	-5815
rell	-5816
rian	-5817
ribe	-5818
rick	-5819
roat	-5820
udan	-5821
vant	-5822
vert	-5823
whel	-5824
▁120	-5825
▁Arm	-5826
▁Aut	-5827
▁BTA	-5828
▁Bab	-5829
▁Bay	-5830
▁Bil	-5831
▁CEO	-5832
▁Cop	-5833
▁Dar	-5834
▁ECS	-5835
▁EPC	-5836
▁GRE	-5837
▁Got	-5838
▁KSM	-5839
▁LOC	-5840
▁Lib	-5841
▁Loc	-5842
▁MEH	-5843
▁Mer	-5844
▁Mil	-5845
▁Mod	-5846
▁PLE	-5847
▁Pew	-5848
▁Pho	-5849
▁Rah	-5850
▁SHE	-5851
▁Sha	-5852
▁Sir	-5853
▁Tai	-5854
▁Tax	-5855
▁Too	-5856
▁UPI	-5857
▁Vir	-5858
▁Wow	-5859
▁amm	-5860
▁ble	-5861
▁coz	-5862
▁eth	-5863
▁hey	-5864
▁hom	-5865
▁jer	-5866
▁mos	-5867
▁nar	-5868
▁nic	-5869
▁rub	-5870
▁unl	-5871
▁wan	-5872
-----	-5873
THING	-5874
_0712	-5875
ables	-5876
aibos	-5877
ament	-5878
aught	-5879
board	-5880
clays	-5881
compl	-5882
entle	-5883
geles	-5884
hered	-5885
icine	-5886
imony	-5887
ingly	-5888
inski	-5889
inton	-5890
isted	-5891
itate	-5892
ively	-5893
ivity	-5894
izers	-5895
obile	-5896
oming	-5897
oussa	-5898
poses	-5899
power	-5900
ption	-5901
right	-5902
sheet	-5903
ulate	-5904
ullah	-5905
usual	-5906
venue	-5907
ville	-5908
ymmet	-5909
▁03/1	-5910
▁1991	-5911
▁1995	-5912
▁1:00	-5913
▁6:30	-5914
▁7:00	-5915
▁8:00	-5916
▁8:30	-5917
▁ARCH	-5918
▁Agel	-5919
▁Army	-5920
▁Brad	-5921
▁COMM	-5922
▁Care	-5923
▁Club	-5924
▁Dale	-5925
▁Down	-5926
▁Each	-5927
▁FERC	-5928
▁Fore	-5929
▁Gold	-5930
▁Gray	-5931
▁HERE	-5932
▁Jana	-5933
▁Jane	-5934
▁Kand	-5935
▁Miss	-5936
▁NOTE	-5937
▁ONLY	-5938
▁Pass	-5939
▁Pric	-5940
▁Prot	-5941
▁Read	-5942
▁Rena	-5943
▁Rest	-5944
▁Rock	-5945
▁Rome	-5946
▁Ryan	-5947
▁SERV	-5948
▁Same	-5949
▁Sinh	-5950
▁Supp	-5951
▁Syst	-5952
▁WHEN	-5953
▁acts	-5954
▁bulb	-5955
▁burn	-5956
▁cars	-5957
▁club	-5958
▁debt	-5959
▁dial	-5960
▁dise	-5961
▁dust	-5962
▁eyes	-5963
▁fill	-5964
▁fold	-5965
▁grip	-5966
▁guns	-5967
▁harm	-5968
▁mate	-5969
▁noon	-5970
▁onto	-5971
▁pock	-5972
▁pump	-5973
▁pure	-5974
▁purs	-5975
▁rare	-5976
▁resc	-5977
▁rock	-5978
▁rush	-5979
▁shed	-5980
▁shel	-5981
▁sink	-5982
▁soil	-5983
▁stab	-5984
▁tact	-5985
▁tele	-5986
▁thus	-5987
▁unex	-5988
agraph	-5989
airman	-5990
atures	-5991
commod	-5992
compaq	-5993
earing	-5994
erning	-5995
igious	-5996
lation	-5997
manent	-5998
orough	-5999
ounder	-6000
person	-6001
rapels	-6002
ressor	-6003
roduct	-6004
rongss	-6005
ulting	-6006
urance	-6007
▁Aires	-6008
▁Appro	-6009
▁Asian	-6010
▁Ayman	-6011
▁Baath	-6012
▁Being	-6013
▁Bobby	-6014
▁Check	-6015
▁Chern	-6016
▁Craig	-6017
▁DISCO	-6018
▁Danny	-6019
▁Davis	-6020
▁EVERY	-6021
▁Elena	-6022
▁Forum	-6023
▁Grand	-6024
▁Harry	-6025
▁Liber	-6026
▁Miami	-6027
▁Micro	-6028
▁Party	-6029
▁Paula	-6030
▁Power	-6031
▁Prime	-6032
▁Short	-6033
▁Smith	-6034
▁Somet	-6035
▁Sudan	-6036
▁Super	-6037
▁Times	-6038
▁Trust	-6039
▁advis	-6040
▁annoy	-6041
▁armed	-6042
▁aside	-6043
▁banks	-6044
▁beach	-6045
▁birds	-6046
▁broke	-6047
▁cards	-6048
▁cheek	-6049
▁crude	-6050
▁cruel	-6051
▁decor	-6052
▁demon	-6053
▁dirty	-6054
▁discl	-6055
▁doors	-6056
▁drink	-6057
▁dwarf	-6058
▁eager	-6059
▁eaten	-6060
▁error	-6061
▁frust	-6062
▁funds	-6063
▁goals	-6064
▁hopes	-6065
▁indef	-6066
▁joint	-6067
▁knife	-6068
▁laugh	-6069
▁mixed	-6070
▁modem	-6071
▁oblig	-6072
▁oppos	-6073
▁phase	-6074
▁plain	-6075
▁plant	-6076
▁plays	-6077
▁polar	-6078
▁posed	-6079
▁poses	-6080
▁proof	-6081
▁react	-6082
▁reass	-6083
▁reput	-6084
▁route	-6085
▁smell	-6086
▁spawn	-6087
▁study	-6088
▁tests	-6089
▁threw	-6090
▁tires	-6091
▁title	-6092
▁tours	-6093
▁towed	-6094
▁trash	-6095
▁trick	-6096
▁types	-6097
▁valid	-6098
▁veter	-6099
▁withd	-6100
anation	-6101
esaibos	-6102
ighting	-6103
ivision	-6104
ountain	-6105
outhern	-6106
pective	-6107
respond	-6108
ulating	-6109
ullivan	-6110
▁!!!!!!	-6111
▁Access	-6112
▁Accord	-6113
▁Allawi	-6114
▁Arabia	-6115
▁Argent	-6116
▁Beyond	-6117
▁Buenos	-6118
▁Compaq	-6119
▁Friend	-6120
▁German	-6121
▁Google	-6122
▁Middle	-6123
▁Moussa	-6124
▁Nobody	-6125
▁PLEASE	-6126
▁Period	-6127
▁Philip	-6128
▁Powell	-6129
▁Rahman	-6130
▁Sussex	-6131
▁Taiwan	-6132
▁Thomas	-6133
▁affair	-6134
▁belief	-6135
▁calcul	-6136
▁calend	-6137
▁charac	-6138
▁circul	-6139
▁compar	-6140
▁crisis	-6141
▁critic	-6142
▁decent	-6143
▁detect	-6144
▁drinks	-6145
▁exceed	-6146
▁flavor	-6147
▁forced	-6148
▁freeze	-6149
▁gather	-6150
▁gotten	-6151
▁guilty	-6152
▁headed	-6153
▁hungry	-6154
▁images	-6155
▁income	-6156
▁ingred	-6157
▁insert	-6158
▁integr	-6159
▁latest	-6160
▁levels	-6161
▁losing	-6162
▁medium	-6163
▁memory	-6164
▁mental	-6165
▁models	-6166
▁movies	-6167
▁narrow	-6168
▁oppose	-6169
▁photos	-6170
▁placed	-6171
▁played	-6172
▁rarely	-6173
▁rating	-6174
▁reduce	-6175
▁refers	-6176
▁refund	-6177
▁regret	-6178
▁ripped	-6179
▁scream	-6180
▁secret	-6181
▁senior	-6182
▁sought	-6183
▁thinks	-6184
▁timely	-6185
▁useful	-6186
▁valley	-6187
▁victim	-6188
/10/2000	-6189
/17/2000	-6190
ICATIONS	-6191
ferenced	-6192
ionality	-6193
parnasse	-6194
ribution	-6195
▁!!!!!!!	-6196
▁200,000	-6197
▁202.456	-6198
▁Antonio	-6199
▁Average	-6200
▁Central	-6201
▁Control	-6202
▁Foreign	-6203
▁GOODWYN	-6204
▁Imagine	-6205
▁Meiring	-6206
▁Persian	-6207
▁Pricing	-6208
▁Profess	-6209
▁RAPHAEL	-6210
▁Shiites	-6211
▁Spanish	-6212
▁Titanic	-6213
▁accompl	-6214
▁accused	-6215
▁anybody	-6216
▁anytime	-6217
▁assured	-6218
▁asymmet	-6219
▁bombing	-6220
▁capable	-6221
▁carried	-6222
▁closing	-6223
▁concent	-6224
▁concept	-6225
▁conduct	-6226
▁connect	-6227
▁consequ	-6228
▁content	-6229
▁cruises	-6230
▁default	-6231
▁deposit	-6232
▁despite	-6233
▁dismiss	-6234
▁explore	-6235
▁females	-6236
▁fighter	-6237
▁figures	-6238
▁greatly	-6239
▁greeted	-6240
▁heading	-6241
▁highest	-6242
▁impress	-6243
▁invited	-6244
▁lawyers	-6245
▁massive	-6246
▁missile	-6247
▁nations	-6248
▁periods	-6249
▁posting	-6250
▁propose	-6251
▁radical	-6252
▁reached	-6253
▁registr	-6254
▁science	-6255
▁selling	-6256
▁signoff	-6257
▁sinking	-6258
▁skilled	-6259
▁subsequ	-6260
▁succeed	-6261
▁summary	-6262
▁surface	-6263
▁univers	-6264
▁unusual	-6265
▁victory	-6266
▁windows	-6267
▁worried	-6268
▁Chairman	-6269
▁Comments	-6270
▁Continue	-6271
▁Fallujah	-6272
▁Kandahar	-6273
▁Lebanese	-6274
▁Minister	-6275
▁Portland	-6276
▁Province	-6277
▁Recently	-6278
▁Richmond	-6279
▁accommod	-6280
▁acupunct	-6281
▁alliance	-6282
▁answered	-6283
▁attempts	-6284
▁attended	-6285
▁attorney	-6286
▁benefits	-6287
▁bombings	-6288
▁captured	-6289
▁circular	-6290
▁citizens	-6291
▁confused	-6292
▁creative	-6293
▁detailed	-6294
▁discount	-6295
▁discoura	-6296
▁download	-6297
▁ekrapels	-6298
▁employed	-6299
▁enrongss	-6300
▁existing	-6301
▁exposure	-6302
▁facility	-6303
▁frequent	-6304
▁hundreds	-6305
▁identity	-6306
▁imprison	-6307
▁incident	-6308
▁invasion	-6309
▁majority	-6310
▁minister	-6311
▁moderate	-6312
▁multiple	-6313
▁negative	-6314
▁normally	-6315
▁overwhel	-6316
▁possibly	-6317
▁powerful	-6318
▁printing	-6319
▁provides	-6320
▁realized	-6321
▁referred	-6322
▁reflects	-6323
▁revision	-6324
▁shoulder	-6325
▁software	-6326
▁sometime	-6327
▁strength	-6328
▁surprise	-6329
▁visitors	-6330
▁Administr	-6331
▁Chernobyl	-6332
▁Coalition	-6333
▁Moussaoui	-6334
▁Parenteau	-6335
▁Secretary	-6336
▁Sometimes	-6337
▁announced	-6338
▁associate	-6339
▁carefully	-6340
▁complaint	-6341
▁concluded	-6342
▁contacted	-6343
▁destroyed	-6344
▁determine	-6345
▁execution	-6346
▁immediate	-6347
▁initially	-6348
▁interests	-6349
▁literally	-6350
▁materials	-6351
▁mountains	-6352
▁neighbors	-6353
▁ourselves	-6354
▁permanent	-6355
▁providing	-6356
▁receiving	-6357
▁satisfied	-6358
▁suspected	-6359
▁technical	-6360
▁unlimited	-6361
▁03/15/2001	-6362
▁Christians	-6363
▁Specialist	-6364
▁Vietnamese	-6365
▁associated	-6366
▁attachment	-6367
▁challenges	-6368
▁collection	-6369
▁collective	-6370
▁compressor	-6371
▁concerning	-6372
▁discovered	-6373
▁generation	-6374
▁incitement	-6375
▁increasing	-6376
▁leadership	-6377
▁negotiated	-6378
▁originally	-6379
▁overpriced	-6380
▁procedures	-6381
▁registered	-6382
▁supporting	-6383
▁surrounded	-6384
▁Immigration	-6385
▁Philippines	-6386
▁Renaissance	-6387
▁accordingly	-6388
▁authorities	-6389
▁competitive	-6390
▁enforcement	-6391
▁explanation	-6392
▁independent	-6393
▁involvement	-6394
▁possibility	-6395
▁transmitted	-6396
▁Constitution	-6397
▁Consciousness	-6398
▁organizations	-6399
▁implementation	-6400
▁representative	-6401
▁confidentiality	-6402
-5	-6403
05	-6404
41	-6405
62	-6406
82	-6407
88	-6408
91	-6409
98	-6410
GG	-6411
GH	-6412
HC	-6413
HI	-6414
MP	-6415
OB	-6416
OK	-6417
RS	-6418
US	-6419
VN	-6420
dy	-6421
lo	-6422
rs	-6423
sw	-6424
ua	-6425
yi	-6426
▁_	-6427
.37	-6428
307	-6429
710	-6430
:07	-6431
:34	-6432
:37	-6433
:39	-6434
ALD	-6435
AME	-6436
ATE	-6437
ELP	-6438
ICK	-6439
IST	-6440
PER	-6441
aha	-6442
apt	-6443
asa	-6444
asy	-6445
azu	-6446
bar	-6447
box	-6448
bur	-6449
cal	-6450
cia	-6451
ech	-6452
eer	-6453
ees	-6454
ema	-6455
exp	-6456
ggy	-6457
gom	-6458
gus	-6459
hik	-6460
hus	-6461
ids	-6462
iel	-6463
iev	-6464
iot	-6465
ipe	-6466
isk	-6467
ixt	-6468
kly	-6469
lio	-6470
nal	-6471
nia	-6472
oat	-6473
obe	-6474
ogn	-6475
orp	-6476
osm	-6477
oul	-6478
pen	-6479
put	-6480
rah	-6481
rav	-6482
rep	-6483
ria	-6484
rie	-6485
ros	-6486
see	-6487
sen	-6488
ses	-6489
▁!?	-6490
▁32	-6491
▁33	-6492
▁35	-6493
▁47	-6494
▁83	-6495
▁90	-6496
▁94	-6497
▁AD	-6498
▁BB	-6499
▁DE	-6500
▁ER	-6501
▁GA	-6502
▁GR	-6503
▁HE	-6504
▁HO	-6505
▁MA	-6506
▁MM	-6507
▁NT	-6508
▁NW	-6509
▁OR	-6510
▁PH	-6511
▁SS	-6512
▁Sk	-6513
▁Ta	-6514
▁UC	-6515
▁WE	-6516
▁cc	-6517
▁du	-6518
▁ec	-6519
▁fo	-6520
▁ho	-6521
▁hy	-6522
6-84	-6523
WAYS	-6524
abio	-6525
abul	-6526
acob	-6527
agon	-6528
alty	-6529
asis	-6530
auts	-6531
axim	-6532
bali	-6533
bern	-6534
blog	-6535
cend	-6536
cker	-6537
clus	-6538
coal	-6539
code	-6540
enez	-6541
eter	-6542
feld	-6543
hent	-6544
html	-6545
idth	-6546
inct	-6547
iner	-6548
ingu	-6549
ippi	-6550
iqui	-6551
izes	-6552
lord	-6553
mann	-6554
mans	-6555
mare	-6556
mbly	-6557
mbol	-6558
oard	-6559
onic	-6560
oore	-6561
oper	-6562
otes	-6563
otte	-6564
oyal	-6565
peak	-6566
rast	-6567
rend	-6568
rete	-6569
rett	-6570
rive	-6571
ship	-6572
tery	-6573
ties	-6574
uals	-6575
uban	-6576
udit	-6577
uing	-6578
well	-6579
wide	-6580
zing	-6581
▁***	-6582
▁ARE	-6583
▁Abs	-6584
▁Ara	-6585
▁Bad	-6586
▁Bes	-6587
▁Buy	-6588
▁CON	-6589
▁Cli	-6590
▁DSL	-6591
▁Due	-6592
▁EBS	-6593
▁EEI	-6594
▁Fri	-6595
▁GOD	-6596
▁Had	-6597
▁ISI	-6598
▁Igu	-6599
▁Inf	-6600
▁Jen	-6601
▁Jew	-6602
▁Kur	-6603
▁Kuw	-6604
▁LOI	-6605
▁LOT	-6606
▁MHC	-6607
▁Mal	-6608
▁McG	-6609
▁Mon	-6610
▁Nam	-6611
▁PDT	-6612
▁Pac	-6613
▁Phy	-6614
▁ROW	-6615
▁Rod	-6616
▁Ros	-6617
▁Str	-6618
▁USS	-6619
▁UVA	-6620
▁Val	-6621
▁Way	-6622
▁YES	-6623
▁agg	-6624
▁alc	-6625
▁bak	-6626
▁der	-6627
▁dig	-6628
▁dom	-6629
▁gay	-6630
▁goo	-6631
▁gym	-6632
▁kil	-6633
▁lap	-6634
▁los	-6635
▁lun	-6636
▁pal	-6637
▁pun	-6638
▁rud	-6639
▁sem	-6640
▁shr	-6641
▁sky	-6642
▁vir	-6643
63736	-6644
IBALD	-6645
Jones	-6646
acked	-6647
anmar	-6648
antic	-6649
bered	-6650
cient	-6651
enger	-6652
ength	-6653
erald	-6654
erals	-6655
erick	-6656
erves	-6657
field	-6658
hikii	-6659
icker	-6660
ifies	-6661
inder	-6662
inity	-6663
iscal	-6664
keley	-6665
lades	-6666
lying	-6667
mesan	-6668
ndham	-6669
odies	-6670
odity	-6671
olars	-6672
ollah	-6673
orton	-6674
ource	-6675
ovate	-6676
reeze	-6677
ronic	-6678
under	-6679
uries	-6680
urric	-6681
verty	-6682
worms	-6683
▁04:1	-6684
▁1561	-6685
▁1968	-6686
▁1970	-6687
▁1971	-6688
▁1997	-6689
▁2006	-6690
▁2010	-6691
▁2012	-6692
▁2:00	-6693
▁2:30	-6694
▁345-	-6695
▁6:00	-6696
▁713/	-6697
▁AMAZ	-6698
▁ARVN	-6699
▁Agra	-6700
▁Alex	-6701
▁Back	-6702
▁Barb	-6703
▁Fish	-6704
▁Fuel	-6705
▁HELP	-6706
▁HIGH	-6707
▁Half	-6708
▁Hall	-6709
▁Hind	-6710
▁Hosp	-6711
▁Jama	-6712
▁Jean	-6713
▁MORE	-6714
▁Mans	-6715
▁Mean	-6716
▁Much	-6717
▁Need	-6718
▁Next	-6719
▁Only	-6720
▁Oper	-6721
▁Para	-6722
▁Prop	-6723
▁Risk	-6724
▁Roll	-6725
▁Ruth	-6726
▁STAR	-6727
▁Sher	-6728
▁Sidd	-6729
▁Sign	-6730
▁Star	-6731
▁Talk	-6732
▁Tenn	-6733
▁WHAT	-6734
▁Yeah	-6735
▁auto	-6736
▁boys	-6737
▁brid	-6738
▁bust	-6739
▁chap	-6740
▁chew	-6741
▁cock	-6742
▁core	-6743
▁cozy	-6744
▁crop	-6745
▁curb	-6746
▁cure	-6747
▁defe	-6748
▁dirt	-6749
▁disp	-6750
▁empt	-6751
▁evil	-6752
▁fake	-6753
▁fees	-6754
▁gang	-6755
▁gene	-6756
▁heel	-6757
▁hire	-6758
▁hole	-6759
▁hook	-6760
▁horr	-6761
▁hunt	-6762
▁intr	-6763
▁intu	-6764
▁iron	-6765
▁isol	-6766
▁mart	-6767
▁milk	-6768
▁mill	-6769
▁mold	-6770
▁navy	-6771
▁neat	-6772
▁pray	-6773
▁pros	-6774
▁quar	-6775
▁rept	-6776
▁rise	-6777
▁roof	-6778
▁seal	-6779
▁seat	-6780
▁shoe	-6781
▁silk	-6782
▁sole	-6783
▁tame	-6784
▁taxi	-6785
▁temp	-6786
▁tens	-6787
▁thru	-6788
▁tile	-6789
▁tons	-6790
▁unem	-6791
▁unif	-6792
▁wang	-6793
▁warn	-6794
▁wise	-6795
adelph	-6796
aduate	-6797
ansion	-6798
believ	-6799
compet	-6800
ctions	-6801
gomery	-6802
hentic	-6803
ibbean	-6804
icking	-6805
idding	-6806
imburs	-6807
inated	-6808
ipping	-6809
itness	-6810
leases	-6811
ported	-6812
render	-6813
sembly	-6814
stream	-6815
tering	-6816
venues	-6817
▁01/26	-6818
▁11:30	-6819
▁Abdul	-6820
▁Afric	-6821
▁Alito	-6822
▁Audit	-6823
▁Bangs	-6824
▁Break	-6825
▁Brown	-6826
▁Colin	-6827
▁Devil	-6828
▁Dubai	-6829
▁Fabio	-6830
▁Force	-6831
▁Frank	-6832
▁GREAT	-6833
▁Hamas	-6834
▁Hodge	-6835
▁Italy	-6836
▁Kabul	-6837
▁Leigh	-6838
▁Lorie	-6839
▁Mavig	-6840
▁Mayko	-6841
▁Midas	-6842
▁Moore	-6843
▁Osama	-6844
▁PEREZ	-6845
▁Patty	-6846
▁Rache	-6847
▁Trave	-6848
▁Venez	-6849
▁WASTE	-6850
▁Yahoo	-6851
▁accum	-6852
▁adapt	-6853
▁anger	-6854
▁arrog	-6855
▁awful	-6856
▁beers	-6857
▁blame	-6858
▁boast	-6859
▁books	-6860
▁brass	-6861
▁built	-6862
▁buses	-6863
▁cares	-6864
▁catch	-6865
▁cells	-6866
▁chiro	-6867
▁climb	-6868
▁court	-6869
▁delay	-6870
▁diagn	-6871
▁dried	-6872
▁drove	-6873
▁entry	-6874
▁faced	-6875
▁fault	-6876
▁faxed	-6877
▁fence	-6878
▁flows	-6879
▁gains	-6880
▁habit	-6881
▁ignor	-6882
▁innov	-6883
▁keeps	-6884
▁lobby	-6885
▁meant	-6886
▁monit	-6887
▁multi	-6888
▁nails	-6889
▁newsp	-6890
▁notes	-6891
▁overt	-6892
▁pages	-6893
▁paint	-6894
▁photo	-6895
▁plane	-6896
▁raise	-6897
▁rapid	-6898
▁reint	-6899
▁remem	-6900
▁renew	-6901
▁resol	-6902
▁salsa	-6903
▁saved	-6904
▁scary	-6905
▁shame	-6906
▁shape	-6907
▁shown	-6908
▁sight	-6909
▁skill	-6910
▁smugg	-6911
▁spots	-6912
▁steak	-6913
▁talks	-6914
▁tough	-6915
▁toxic	-6916
▁unity	-6917
▁urine	-6918
▁users	-6919
▁vital	-6920
▁voted	-6921
▁worms	-6922
-------	-6923
bitious	-6924
iciency	-6925
inction	-6926
ionally	-6927
isation	-6928
issippi	-6929
manship	-6930
ocratic	-6931
ologist	-6932
oration	-6933
ronauts	-6934
▁763736	-6935
▁ALWAYS	-6936
▁Agency	-6937
▁COMMUN	-6938
▁Centre	-6939
▁Church	-6940
▁Client	-6941
▁Custom	-6942
▁Denton	-6943
▁Design	-6944
▁During	-6945
▁Fusion	-6946
▁Harris	-6947
▁Highly	-6948
▁Iguazu	-6949
▁Intell	-6950
▁Janice	-6951
▁Joseph	-6952
▁Kuwait	-6953
▁Market	-6954
▁Moslem	-6955
▁Planet	-6956
▁Prices	-6957
▁Shanna	-6958
▁Silkie	-6959
▁Sounds	-6960
▁System	-6961
▁Travel	-6962
▁Unless	-6963
▁acknow	-6964
▁acting	-6965
▁advant	-6966
▁advert	-6967
▁allies	-6968
▁assess	-6969
▁assets	-6970
▁bondad	-6971
▁bother	-6972
▁bright	-6973
▁canada	-6974
▁carbon	-6975
▁centre	-6976
▁clause	-6977
▁colors	-6978
▁deeply	-6979
▁dental	-6980
▁depart	-6981
▁destin	-6982
▁dishes	-6983
▁enthus	-6984
▁exists	-6985
▁explos	-6986
▁fabric	-6987
▁facing	-6988
▁fellow	-6989
▁fiscal	-6990
▁formed	-6991
▁garage	-6992
▁height	-6993
▁hiding	-6994
▁ignore	-6995
▁immigr	-6996
▁injury	-6997
▁intent	-6998
▁invent	-6999
▁invite	-7000
▁joined	-7001
▁laptop	-7002
▁lawyer	-7003
▁legisl	-7004
▁lifebo	-7005
▁marked	-7006
▁mature	-7007
▁merely	-7008
▁motion	-7009
▁mutual	-7010
▁openly	-7011
▁planes	-7012
▁planet	-7013
▁player	-7014
▁pocket	-7015
▁poison	-7016
▁racial	-7017
▁reject	-7018
▁remove	-7019
▁repeat	-7020
▁rescue	-7021
▁resort	-7022
▁reward	-7023
▁saving	-7024
▁seized	-7025
▁sender	-7026
▁settle	-7027
▁silver	-7028
▁stable	-7029
▁strict	-7030
▁strike	-7031
▁studio	-7032
▁sudden	-7033
▁switch	-7034
▁symbol	-7035
▁tasted	-7036
▁taught	-7037
▁ticket	-7038
▁trader	-7039
▁unlike	-7040
▁volunt	-7041
▁warmth	-7042
▁waters	-7043
▁yellow	-7044
/26/2000	-7045
adelphia	-7046
aoshikii	-7047
chanting	-7048
poration	-7049
quarters	-7050
▁Climate	-7051
▁Current	-7052
▁Defence	-7053
▁Eastern	-7054
▁Finance	-7055
▁Forster	-7056
▁Further	-7057
▁Hambali	-7058
▁Hamster	-7059
▁Israeli	-7060
▁Manager	-7061
▁Medical	-7062
▁Myanmar	-7063
▁Nothing	-7064
▁Patrick	-7065
▁Percell	-7066
▁Picture	-7067
▁Program	-7068
▁SERVICE	-7069
▁Silkies	-7070
▁Sunburn	-7071
▁Usually	-7072
▁Whether	-7073
▁aggress	-7074
▁amounts	-7075
▁anyways	-7076
▁aspects	-7077
▁average	-7078
▁awarded	-7079
▁barrels	-7080
▁bearded	-7081
▁bedding	-7082
▁breathe	-7083
▁clothes	-7084
▁concert	-7085
▁conserv	-7086
▁corners	-7087
▁courses	-7088
▁covered	-7089
▁cutting	-7090
▁devoted	-7091
▁disrupt	-7092
▁dresses	-7093
▁effects	-7094
▁enovate	-7095
▁envelop	-7096
▁evident	-7097
▁exposed	-7098
▁failure	-7099
▁farrier	-7100
▁fashion	-7101
▁figured	-7102
▁finance	-7103
▁flowing	-7104
▁focused	-7105
▁grounds	-7106
▁haircut	-7107
▁hanging	-7108
▁honesty	-7109
▁hosting	-7110
▁housing	-7111
▁kitchen	-7112
▁leading	-7113
▁learned	-7114
▁lighter	-7115
▁markets	-7116
▁melting	-7117
▁obvious	-7118
▁opposed	-7119
▁pattern	-7120
▁pinkies	-7121
▁poverty	-7122
▁pretend	-7123
▁primary	-7124
▁records	-7125
▁reduced	-7126
▁setting	-7127
▁shortly	-7128
▁staying	-7129
▁surgeon	-7130
▁various	-7131
▁visible	-7132
▁wanting	-7133
▁welcome	-7134
abilities	-7135
consumers	-7136
▁Absolute	-7137
▁Appropri	-7138
▁Attorney	-7139
▁Barclays	-7140
▁Carolina	-7141
▁District	-7142
▁Division	-7143
▁Downtown	-7144
▁Friendly	-7145
▁Hospital	-7146
▁Instruct	-7147
▁Limerick	-7148
▁Marriage	-7149
▁Maviglio	-7150
▁Military	-7151
▁Parmesan	-7152
▁Question	-7153
▁Remember	-7154
▁Siddiqui	-7155
▁Sullivan	-7156
▁Venezuel	-7157
▁accurate	-7158
▁adjusted	-7159
▁appeared	-7160
▁arrested	-7161
▁arriving	-7162
▁assuming	-7163
▁becoming	-7164
▁boarding	-7165
▁breeding	-7166
▁bringing	-7167
▁calendar	-7168
▁charcoal	-7169
▁cheapest	-7170
▁clothing	-7171
▁confirms	-7172
▁contents	-7173
▁convince	-7174
▁currency	-7175
▁deployed	-7176
▁designer	-7177
▁deterior	-7178
▁division	-7179
▁dominate	-7180
▁downtown	-7181
▁enjoying	-7182
▁entering	-7183
▁examples	-7184
▁fabulous	-7185
▁football	-7186
▁forecast	-7187
▁generate	-7188
▁guidance	-7189
▁hesitate	-7190
▁honestly	-7191
▁ideation	-7192
▁incorpor	-7193
▁inspired	-7194
▁instance	-7195
▁learning	-7196
▁maintain	-7197
▁notified	-7198
▁overcome	-7199
▁overseas	-7200
▁passport	-7201
▁patience	-7202
▁publicly	-7203
▁redlined	-7204
▁reimburs	-7205
▁relevant	-7206
▁reminder	-7207
▁replaced	-7208
▁sandwich	-7209
▁scholars	-7210
▁strongly	-7211
▁studying	-7212
▁survived	-7213
▁sympathy	-7214
▁thorough	-7215
▁traveled	-7216
▁trillion	-7217
▁vomiting	-7218
▁weekends	-7219
ifications	-7220
▁ARCHIBALD	-7221
▁Argentina	-7222
▁Associate	-7223
▁Banglades	-7224
▁Caribbean	-7225
▁Fantastic	-7226
▁Louisiana	-7227
▁Marketing	-7228
▁Meanwhile	-7229
▁Religious	-7230
▁Sincerely	-7231
▁assistant	-7232
▁authentic	-7233
▁boyfriend	-7234
▁christmas	-7235
▁coalition	-7236
▁collected	-7237
▁continues	-7238
▁democracy	-7239
▁depending	-7240
▁developed	-7241
▁generally	-7242
▁happening	-7243
▁increased	-7244
▁locations	-7245
▁movements	-7246
▁organized	-7247
▁performed	-7248
▁presented	-7249
▁programme	-7250
▁qualified	-7251
▁requiring	-7252
▁resources	-7253
▁reviewing	-7254
▁revisions	-7255
▁searching	-7256
▁signature	-7257
▁suggested	-7258
▁surrender	-7259
▁typically	-7260
▁virtually	-7261
▁workforce	-7262
▁01/12/2001	-7263
▁01/26/2001	-7264
▁05/25/2001	-7265
▁07/17/2000	-7266
▁11/10/2000	-7267
▁Management	-7268
▁Montgomery	-7269
▁astronauts	-7270
▁comparison	-7271
▁consistent	-7272
▁controvers	-7273
▁convenient	-7274
▁conviction	-7275
▁correspond	-7276
▁electrical	-7277
▁employment	-7278
▁everywhere	-7279
▁expression	-7280
▁guaranteed	-7281
▁historical	-7282
▁impossible	-7283
▁impression	-7284
▁incredibly	-7285
▁photograph	-7286
▁previously	-7287
▁relatively	-7288
▁subsequent	-7289
▁suggesting	-7290
▁throughout	-7291
,000,000,000	-7292
▁...........	-7293
▁Merchanting	-7294
▁Mississippi	-7295
▁adjustments	-7296
▁coordinator	-7297
▁correlation	-7298
▁destruction	-7299
▁differences	-7300
▁disappeared	-7301
▁manufacture	-7302
▁necessarily	-7303
▁performance	-7304
▁personality	-7305
▁reservation	-7306
▁spreadsheet	-7307
▁underground	-7308
▁Philadelphia	-7309
▁Presidential	-7310
▁alternatives	-7311
▁asymmetrical	-7312
▁availability	-7313
▁consequences	-7314
▁construction	-7315
▁distribution	-7316
▁headquarters	-7317
▁notification	-7318
▁overwhelming	-7319
▁participants	-7320
▁receptionist	-7321
▁registration	-7322
▁Comprehensive	-7323
▁approximately	-7324
▁compassionate	-7325
▁conversations	-7326
▁establishment	-7327
▁neighbourhood	-7328
▁participation	-7329
▁significantly	-7330
▁substantially	-7331
▁Appropriations	-7332
▁COMMUNICATIONS	-7333
▁circularisation	-7334
-6	-7335
.0	-7336
.8	-7337
09	-7338
27	-7339
28	-7340
43	-7341
58	-7342
95	-7343
EM	-7344
EX	-7345
FF	-7346
FT	-7347
GE	-7348
GM	-7349
HH	-7350
KS	-7351
PE	-7352
SA	-7353
TR	-7354
ao	-7355
dr	-7356
ga	-7357
ij	-7358
ka	-7359
kh	-7360
rv	-7361
-01	-7362
-12	-7363
.71	-7364
/14	-7365
004	-7366
365	-7367
45-	-7368
654	-7369
94-	-7370
940	-7371
:02	-7372
:03	-7373
:25	-7374
:28	-7375
:51	-7376
:52	-7377
ACK	-7378
AND	-7379
DIT	-7380
ERN	-7381
GES	-7382
III	-7383
IME	-7384
ISE	-7385
ITY	-7386
NER	-7387
OUS	-7388
Pas	-7389
RRA	-7390
Ret	-7391
SHI	-7392
UCT	-7393
aol	-7394
arp	-7395
auf	-7396
bec	-7397
cho	-7398
den	-7399
dom	-7400
elp	-7401
gar	-7402
gic	-7403
gig	-7404
hak	-7405
hop	-7406
hyd	-7407
ios	-7408
itz	-7409
jpg	-7410
jud	-7411
kee	-7412
mel	-7413
mem	-7414
mmm	-7415
nan	-7416
nel	-7417
nic	-7418
nov	-7419
nut	-7420
oke	-7421
oop	-7422
oug	-7423
pan	-7424
pat	-7425
pdf	-7426
pec	-7427
pot	-7428
raw	-7429
rer	-7430
sor	-7431
syl	-7432
tie	-7433
tun	-7434
uja	-7435
uls	-7436
ums	-7437
usk	-7438
web	-7439
weg	-7440
wle	-7441
▁43	-7442
▁53	-7443
▁68	-7444
▁79	-7445
▁82	-7446
▁99	-7447
▁;)	-7448
▁AA	-7449
▁AP	-7450
▁AW	-7451
▁BA	-7452
▁BS	-7453
▁Bh	-7454
▁DB	-7455
▁Dy	-7456
▁Ev	-7457
▁FX	-7458
▁GU	-7459
▁GW	-7460
▁Ha	-7461
▁Jr	-7462
▁Lu	-7463
▁MK	-7464
▁NC	-7465
▁OP	-7466
▁RI	-7467
▁SW	-7468
▁Up	-7469
▁cm	-7470
▁cy	-7471
▁ep	-7472
▁ye	-7473
3098	-7474
6936	-7475
6939	-7476
9945	-7477
AAAA	-7478
EXAS	-7479
INAL	-7480
INGS	-7481
ITED	-7482
ORRI	-7483
Paso	-7484
REET	-7485
aaaa	-7486
abad	-7487
acee	-7488
achi	-7489
acle	-7490
adow	-7491
afar	-7492
affe	-7493
agan	-7494
alee	-7495
anco	-7496
apor	-7497
ardo	-7498
ardy	-7499
aste	-7500
aves	-7501
awed	-7502
azed	-7503
bard	-7504
bell	-7505
bine	-7506
drft	-7507
elia	-7508
enet	-7509
esus	-7510
evit	-7511
flow	-7512
gers	-7513
gest	-7514
gigi	-7515
gled	-7516
iant	-7517
icts	-7518
inic	-7519
iour	-7520
irth	-7521
iter	-7522
ixon	-7523
jack	-7524
kins	-7525
kman	-7526
lets	-7527
ller	-7528
many	-7529
mart	-7530
mike	-7531
nest	-7532
news	-7533
ntil	-7534
oche	-7535
odia	-7536
ogic	-7537
oles	-7538
ooni	-7539
oors	-7540
oral	-7541
oren	-7542
orts	-7543
oser	-7544
otic	-7545
otor	-7546
phic	-7547
pool	-7548
road	-7549
rons	-7550
ruit	-7551
soft	-7552
terf	-7553
thon	-7554
ucks	-7555
ules	-7556
ulpt	-7557
uman	-7558
ummy	-7559
unga	-7560
urol	-7561
uten	-7562
vard	-7563
wear	-7564
week	-7565
▁1-8	-7566
▁11/	-7567
▁250	-7568
▁700	-7569
▁750	-7570
▁Adv	-7571
▁Aff	-7572
▁Ash	-7573
▁BIG	-7574
▁Bit	-7575
▁Bos	-7576
▁CST	-7577
▁Cir	-7578
▁DEN	-7579
▁Den	-7580
▁Din	-7581
▁Doc	-7582
▁Dow	-7583
▁ECT	-7584
▁EES	-7585
▁EGM	-7586
▁ENE	-7587
▁Gen	-7588
▁Gon	-7589
▁Gov	-7590
▁HAS	-7591
▁HOW	-7592
▁Hoe	-7593
▁Hug	-7594
▁III	-7595
▁INS	-7596
▁Ide	-7597
▁Jal	-7598
▁Kam	-7599
▁Kum	-7600
▁LME	-7601
▁Lab	-7602
▁Liz	-7603
▁Lyn	-7604
▁MBA	-7605
▁Mac	-7606
▁Mad	-7607
▁McD	-7608
▁NEP	-7609
▁NEW	-7610
▁Nep	-7611
▁Nor	-7612
▁Ont	-7613
▁POA	-7614
▁PST	-7615
▁Pan	-7616
▁Pen	-7617
▁Pic	-7618
▁Pop	-7619
▁Qad	-7620
▁Qan	-7621
▁Que	-7622
▁Rad	-7623
▁Ret	-7624
▁Rog	-7625
▁SAP	-7626
▁Sac	-7627
▁Sah	-7628
▁Sch	-7629
▁Ser	-7630
▁Sol	-7631
▁Stu	-7632
▁TRY	-7633
▁Taj	-7634
▁Tay	-7635
▁Tel	-7636
▁Tem	-7637
▁Ten	-7638
▁Top	-7639
▁USD	-7640
▁VCU	-7641
▁Van	-7642
▁WHO	-7643
▁WTC	-7644
▁Wol	-7645
▁Zac	-7646
▁avo	-7647
▁biz	-7648
▁cho	-7649
▁cod	-7650
▁don	-7651
▁dys	-7652
▁elk	-7653
▁ens	-7654
▁eye	-7655
▁fli	-7656
▁fyi	-7657
▁gda	-7658
▁gir	-7659
▁gon	-7660
▁ill	-7661
▁jar	-7662
▁jaw	-7663
▁lbs	-7664
▁liq	-7665
▁nut	-7666
▁paw	-7667
▁pho	-7668
▁pil	-7669
▁reb	-7670
▁rob	-7671
▁sac	-7672
▁spr	-7673
▁thr	-7674
▁tin	-7675
▁tor	-7676
▁une	-7677
▁uns	-7678
▁van	-7679
▁vul	-7680
▁won	-7681
/2004	-7682
45-1.	-7683
GESSE	-7684
KEDNE	-7685
aches	-7686
adder	-7687
addle	-7688
adies	-7689
allas	-7690
andel	-7691
ander	-7692
anged	-7693
anics	-7694
aplan	-7695
arias	-7696
arius	-7697
ashed	-7698
attle	-7699
avily	-7700
cling	-7701
comed	-7702
ctors	-7703
derer	-7704
ellis	-7705
eness	-7706
ensed	-7707
ested	-7708
ester	-7709
etime	-7710
falls	-7711
gents	-7712
ginia	-7713
going	-7714
grade	-7715
hemat	-7716
ianne	-7717
iches	-7718
ician	-7719
icies	-7720
iders	-7721
idweb	-7722
ieved	-7723
ilton	-7724
imber	-7725
inent	-7726
ining	-7727
innis	-7728
ipple	-7729
lands	-7730
llers	-7731
named	-7732
negie	-7733
nival	-7734
ocent	-7735
ollis	-7736
opher	-7737
opold	-7738
orage	-7739
ordst	-7740
orthe	-7741
oster	-7742
oters	-7743
oured	-7744
owned	-7745
ponse	-7746
rease	-7747
ricia	-7748
sonic	-7749
stein	-7750
uated	-7751
uling	-7752
ullen	-7753
ument	-7754
unist	-7755
urred	-7756
uters	-7757
vania	-7758
wlett	-7759
works	-7760
yahoo	-7761
▁****	-7762
▁02:1	-7763
▁12/2	-7764
▁1691	-7765
▁1969	-7766
▁1973	-7767
▁1993	-7768
▁1998	-7769
▁2009	-7770
▁415.	-7771
▁5:30	-7772
▁9:30	-7773
▁Baba	-7774
▁Baff	-7775
▁Barn	-7776
▁Belg	-7777
▁CIAC	-7778
▁CRRA	-7779
▁Camb	-7780
▁Carl	-7781
▁Chan	-7782
▁Clay	-7783
▁Core	-7784
▁DEAL	-7785
▁Dean	-7786
▁Desc	-7787
▁Disp	-7788
▁Doug	-7789
▁EDIT	-7790
▁Earl	-7791
▁Eric	-7792
▁FROM	-7793
▁Find	-7794
▁Full	-7795
▁Furn	-7796
▁Gall	-7797
▁Give	-7798
▁Hino	-7799
▁JUST	-7800
▁Kauf	-7801
▁List	-7802
▁Long	-7803
▁Mail	-7804
▁Mama	-7805
▁Muja	-7806
▁Naha	-7807
▁Open	-7808
▁Pack	-7809
▁Park	-7810
▁Pike	-7811
▁Pion	-7812
▁Poor	-7813
▁Post	-7814
▁Road	-7815
▁Room	-7816
▁Save	-7817
▁Send	-7818
▁Shia	-7819
▁Shop	-7820
▁Skin	-7821
▁Sure	-7822
▁THEN	-7823
▁TIME	-7824
▁Taub	-7825
▁Thus	-7826
▁Turn	-7827
▁Type	-7828
▁Vict	-7829
▁WAIT	-7830
▁Wind	-7831
▁Word	-7832
▁Yale	-7833
▁____	-7834
▁arch	-7835
▁atro	-7836
▁bags	-7837
▁barn	-7838
▁bars	-7839
▁bike	-7840
▁bond	-7841
▁boss	-7842
▁bran	-7843
▁cens	-7844
▁clay	-7845
▁cook	-7846
▁cous	-7847
▁cred	-7848
▁crim	-7849
▁curt	-7850
▁cute	-7851
▁damn	-7852
▁dent	-7853
▁deny	-7854
▁dhin	-7855
▁dict	-7856
▁dine	-7857
▁dire	-7858
▁dram	-7859
▁dumb	-7860
▁east	-7861
▁elig	-7862
▁flaw	-7863
▁forb	-7864
▁forg	-7865
▁fulf	-7866
▁fuss	-7867
▁gear	-7868
▁gimp	-7869
▁haha	-7870
▁hars	-7871
▁hens	-7872
▁imag	-7873
▁inch	-7874
▁joke	-7875
▁keen	-7876
▁kick	-7877
▁laid	-7878
▁loan	-7879
▁lock	-7880
▁lope	-7881
▁loud	-7882
▁magn	-7883
▁melt	-7884
▁mild	-7885
▁misc	-7886
▁nerv	-7887
▁nmem	-7888
▁pays	-7889
▁pipe	-7890
▁plat	-7891
▁pose	-7892
▁prol	-7893
▁quiz	-7894
▁rail	-7895
▁rape	-7896
▁rear	-7897
▁rice	-7898
▁scen	-7899
▁sees	-7900
▁sets	-7901
▁skin	-7902
▁spac	-7903
▁succ	-7904
▁swap	-7905
▁tail	-7906
▁teen	-7907
▁tend	-7908
▁till	-7909
▁toll	-7910
▁toss	-7911
▁toys	-7912
▁trig	-7913
▁vets	-7914
▁wake	-7915
▁wash	-7916
▁weak	-7917
▁webs	-7918
▁wing	-7919
/16/99	-7920
0/2000	-7921
3/2000	-7922
4/2001	-7923
6-8420	-7924
8-7-01	-7925
9/2001	-7926
Retail	-7927
aching	-7928
actory	-7929
alabad	-7930
aments	-7931
antity	-7932
arding	-7933
ateral	-7934
athers	-7935
aximum	-7936
entive	-7937
hedeen	-7938
istani	-7939
itched	-7940
mother	-7941
orneys	-7942
pected	-7943
perate	-7944
porary	-7945
rating	-7946
reened	-7947
stairs	-7948
static	-7949
urolog	-7950
vision	-7951
▁10:00	-7952
▁10:30	-7953
▁11:00	-7954
▁3,500	-7955
▁?????	-7956
▁Abdel	-7957
▁Adnan	-7958
▁Aeron	-7959
▁Brian	-7960
▁Charl	-7961
▁Civet	-7962
▁Clean	-7963
▁Cuban	-7964
▁Daily	-7965
▁Ellis	-7966
▁Exper	-7967
▁Falls	-7968
▁Float	-7969
▁Given	-7970
▁Going	-7971
▁Groom	-7972
▁HORRI	-7973
▁Happy	-7974
▁Hindu	-7975
▁Incre	-7976
▁Jacob	-7977
▁Jafar	-7978
▁Jerry	-7979
▁Jesus	-7980
▁Kathy	-7981
▁Labor	-7982
▁Liver	-7983
▁Money	-7984
▁Nancy	-7985
▁Night	-7986
▁Nixon	-7987
▁Noble	-7988
▁Oasis	-7989
▁Order	-7990
▁PRICE	-7991
▁Pilot	-7992
▁Place	-7993
▁Recru	-7994
▁Robin	-7995
▁Roman	-7996
▁Santa	-7997
▁Satan	-7998
▁Seems	-7999
▁Shady	-8000
▁Space	-8001
▁Steak	-8002
▁Sushi	-8003
▁Swift	-8004
▁TEXAS	-8005
▁THING	-8006
▁Tamil	-8007
▁Trade	-8008
▁Until	-8009
▁Watch	-8010
▁aband	-8011
▁abund	-8012
▁adequ	-8013
▁admit	-8014
▁alarm	-8015
▁alert	-8016
▁amend	-8017
▁ammun	-8018
▁angle	-8019
▁backs	-8020
▁badly	-8021
▁blown	-8022
▁bread	-8023
▁brown	-8024
▁cargo	-8025
▁chain	-8026
▁chann	-8027
▁chaos	-8028
▁chest	-8029
▁chlor	-8030
▁chose	-8031
▁civet	-8032
▁clock	-8033
▁coinc	-8034
▁couch	-8035
▁craft	-8036
▁datab	-8037
▁dealt	-8038
▁dehyd	-8039
▁delta	-8040
▁dereg	-8041
▁divid	-8042
▁dozen	-8043
▁dream	-8044
▁drill	-8045
▁drugs	-8046
▁eight	-8047
▁emiss	-8048
▁empty	-8049
▁exhib	-8050
▁facts	-8051
▁fancy	-8052
▁fries	-8053
▁glass	-8054
▁globe	-8055
▁goods	-8056
▁grain	-8057
▁grate	-8058
▁groom	-8059
▁guard	-8060
▁guest	-8061
▁holds	-8062
▁juice	-8063
▁kinda	-8064
▁layer	-8065
▁lease	-8066
▁limit	-8067
▁males	-8068
▁marry	-8069
▁merit	-8070
▁messy	-8071
▁metro	-8072
▁milit	-8073
▁motor	-8074
▁naval	-8075
▁noted	-8076
▁optim	-8077
▁orbit	-8078
▁overc	-8079
▁parad	-8080
▁paste	-8081
▁perce	-8082
▁persu	-8083
▁postp	-8084
▁prime	-8085
▁regul	-8086
▁reins	-8087
▁river	-8088
▁sampl	-8089
▁seats	-8090
▁sharp	-8091
▁sheik	-8092
▁shoot	-8093
▁shots	-8094
▁smile	-8095
▁smoke	-8096
▁stage	-8097
▁stood	-8098
▁strip	-8099
▁suite	-8100
▁tells	-8101
▁tired	-8102
▁toler	-8103
▁tribe	-8104
▁turns	-8105
▁width	-8106
▁yours	-8107
▁youth	-8108
achment	-8109
comfort	-8110
company	-8111
ferring	-8112
illance	-8113
ishment	-8114
iveness	-8115
onsider	-8116
ounding	-8117
racting	-8118
resents	-8119
utenant	-8120
▁10,000	-8121
▁20,000	-8122
▁Almost	-8123
▁Andrew	-8124
▁Anyone	-8125
▁Assist	-8126
▁Author	-8127
▁Baloch	-8128
▁Baluch	-8129
▁Bowtie	-8130
▁Branch	-8131
▁Checks	-8132
▁Copies	-8133
▁DENISE	-8134
▁Dallas	-8135
▁Expect	-8136
▁Follow	-8137
▁Former	-8138
▁Garcia	-8139
▁Gerald	-8140
▁Gracee	-8141
▁Hidden	-8142
▁Hiller	-8143
▁Jewish	-8144
▁Justin	-8145
▁Laurie	-8146
▁Letter	-8147
▁Little	-8148
▁Malays	-8149
▁Manson	-8150
▁Norweg	-8151
▁Notice	-8152
▁ONLINE	-8153
▁Person	-8154
▁Peters	-8155
▁Policy	-8156
▁Pretty	-8157
▁Qadoos	-8158
▁REALLY	-8159
▁Really	-8160
▁Review	-8161
▁STREET	-8162
▁Salary	-8163
▁Sommer	-8164
▁Steven	-8165
▁Tamils	-8166
▁Taylor	-8167
▁Theory	-8168
▁Tollis	-8169
▁Travis	-8170
▁Turkey	-8171
▁Valley	-8172
▁Visual	-8173
▁Walker	-8174
▁aboard	-8175
▁abroad	-8176
▁agenda	-8177
▁aggrav	-8178
▁agrees	-8179
▁argued	-8180
▁breath	-8181
▁brings	-8182
▁broker	-8183
▁button	-8184
▁cancer	-8185
▁checks	-8186
▁closer	-8187
▁consum	-8188
▁debate	-8189
▁dragon	-8190
▁embass	-8191
▁enable	-8192
▁engage	-8193
▁ethnic	-8194
▁fallen	-8195
▁famous	-8196
▁faster	-8197
▁filing	-8198
▁flakes	-8199
▁flying	-8200
▁fright	-8201
▁gained	-8202
▁gentle	-8203
▁handed	-8204
▁hibern	-8205
▁hidden	-8206
▁hijack	-8207
▁implic	-8208
▁inevit	-8209
▁latter	-8210
▁laurie	-8211
▁length	-8212
▁lights	-8213
▁master	-8214
▁messed	-8215
▁nights	-8216
▁northe	-8217
▁notify	-8218
▁obtain	-8219
▁overch	-8220
▁palace	-8221
▁pilots	-8222
▁polite	-8223
▁poster	-8224
▁pounds	-8225
▁priced	-8226
▁priest	-8227
▁prison	-8228
▁prosec	-8229
▁provin	-8230
▁refuse	-8231
▁ruling	-8232
▁saddle	-8233
▁sample	-8234
▁scient	-8235
▁screws	-8236
▁sculpt	-8237
▁sights	-8238
▁silent	-8239
▁sister	-8240
▁slowly	-8241
▁speech	-8242
▁stages	-8243
▁stalls	-8244
▁stores	-8245
▁stress	-8246
▁struck	-8247
▁strugg	-8248
▁superb	-8249
▁tariff	-8250
▁thawed	-8251
▁timing	-8252
▁tradem	-8253
▁transl	-8254
▁treats	-8255
▁twenty	-8256
▁united	-8257
▁unsure	-8258
▁verify	-8259
▁vulner	-8260
▁warmer	-8261
▁yearly	-8262
/16/2001	-8263
69345-1.	-8264
69366-1.	-8265
aratunga	-8266
entional	-8267
formance	-8268
iologist	-8269
mikegigi	-8270
ordstrom	-8271
regation	-8272
sylvania	-8273
▁100,000	-8274
▁713-654	-8275
▁AMAZING	-8276
▁Amazing	-8277
▁Awesome	-8278
▁Balance	-8279
▁Barbara	-8280
▁Bending	-8281
▁Clinton	-8282
▁Hewlett	-8283
▁Hoecker	-8284
▁Hotline	-8285
▁Hubbard	-8286
▁Instead	-8287
▁Karachi	-8288
▁Kaufman	-8289
▁LAGESSE	-8290
▁Liberty	-8291
▁Meeting	-8292
▁Ontario	-8293
▁Pacific	-8294
▁Packard	-8295
▁Qanooni	-8296
▁Rosalee	-8297
▁Seattle	-8298
▁Senator	-8299
▁Sistani	-8300
▁Terrell	-8301
▁Turbine	-8302
▁Without	-8303
▁Wyndham	-8304
▁_______	-8305
▁anymore	-8306
▁artists	-8307
▁becomes	-8308
▁bedroom	-8309
▁biggest	-8310
▁billing	-8311
▁borders	-8312
▁causing	-8313
▁ceiling	-8314
▁chances	-8315
▁classes	-8316
▁collect	-8317
▁complic	-8318
▁complim	-8319
▁contrad	-8320
▁crossed	-8321
▁crucial	-8322
▁defined	-8323
▁delight	-8324
▁deserve	-8325
▁desired	-8326
▁doctors	-8327
▁drafted	-8328
▁earthqu	-8329
▁emailed	-8330
▁entered	-8331
▁essence	-8332
▁existed	-8333
▁falling	-8334
▁feature	-8335
▁filters	-8336
▁fingers	-8337
▁forming	-8338
▁founder	-8339
▁gallery	-8340
▁greater	-8341
▁herself	-8342
▁hopeful	-8343
▁hurting	-8344
▁improve	-8345
▁injured	-8346
▁instant	-8347
▁journal	-8348
▁justice	-8349
▁kilomet	-8350
▁knowing	-8351
▁largely	-8352
▁laundry	-8353
▁letting	-8354
▁managed	-8355
▁manners	-8356
▁migrant	-8357
▁minimal	-8358
▁nervous	-8359
▁ongoing	-8360
▁painful	-8361
▁plastic	-8362
▁players	-8363
▁pledged	-8364
▁precise	-8365
▁princip	-8366
▁pushing	-8367
▁quarter	-8368
▁raising	-8369
▁ranging	-8370
▁recover	-8371
▁recruit	-8372
▁resched	-8373
▁retired	-8374
▁returns	-8375
▁satisfy	-8376
▁seconds	-8377
▁section	-8378
▁shipped	-8379
▁somehow	-8380
▁sounded	-8381
▁stepped	-8382
▁storage	-8383
▁testing	-8384
▁typical	-8385
▁underst	-8386
▁utility	-8387
▁volumes	-8388
▁warning	-8389
▁watched	-8390
▁welfare	-8391
▁winning	-8392
▁wording	-8393
▁worries	-8394
itionally	-8395
omination	-8396
roduction	-8397
ructuring	-8398
▁09/16/99	-8399
▁202.456.	-8400
▁345-9945	-8401
▁646-8420	-8402
▁Anything	-8403
▁Balances	-8404
▁Cambodia	-8405
▁Carnegie	-8406
▁Contract	-8407
▁European	-8408
▁Gonzales	-8409
▁HORRIBLE	-8410
▁Horrible	-8411
▁Islamist	-8412
▁Kaminski	-8413
▁Leonardo	-8414
▁Marianne	-8415
▁McGinnis	-8416
▁Patricia	-8417
▁Proposal	-8418
▁Releases	-8419
▁Response	-8420
▁Terrible	-8421
▁Whatever	-8422
▁Zacarias	-8423
▁advanced	-8424
▁affected	-8425
▁balances	-8426
▁branches	-8427
▁category	-8428
▁chairman	-8429
▁claiming	-8430
▁concrete	-8431
▁consumer	-8432
▁coverage	-8433
▁criminal	-8434
▁critters	-8435
▁declined	-8436
▁demonstr	-8437
▁deserves	-8438
▁directed	-8439
▁disclose	-8440
▁diseases	-8441
▁distingu	-8442
▁drilling	-8443
▁entities	-8444
▁extended	-8445
▁factions	-8446
▁feathers	-8447
▁feedback	-8448
▁floating	-8449
▁function	-8450
▁homeland	-8451
▁identify	-8452
▁imposing	-8453
▁incompet	-8454
▁indicate	-8455
▁infinite	-8456
▁initiate	-8457
▁injuries	-8458
▁innocent	-8459
▁isolated	-8460
▁licensed	-8461
▁lifetime	-8462
▁lineatus	-8463
▁listened	-8464
▁measures	-8465
▁medicine	-8466
▁minerals	-8467
▁missiles	-8468
▁murderer	-8469
▁neurolog	-8470
▁nmemdrft	-8471
▁offering	-8472
▁overview	-8473
▁patients	-8474
▁peaceful	-8475
▁policies	-8476
▁proposal	-8477
▁purposes	-8478
▁reaction	-8479
▁receives	-8480
▁recorded	-8481
▁register	-8482
▁religion	-8483
▁remained	-8484
▁resident	-8485
▁resulted	-8486
▁rudeness	-8487
▁sentence	-8488
▁southern	-8489
▁speaking	-8490
▁talented	-8491
▁unbeliev	-8492
▁undermin	-8493
▁unlikely	-8494
▁veterans	-8495
▁visiting	-8496
▁warranty	-8497
▁websites	-8498
▁welcomed	-8499
ertainment	-8500
olutionary	-8501
▁Allowance	-8502
▁Breakfast	-8503
▁Christian	-8504
▁Christmas	-8505
▁Communist	-8506
▁Corporate	-8507
▁Hopefully	-8508
▁Islamabad	-8509
▁Jalalabad	-8510
▁Liverpool	-8511
▁Microsoft	-8512
▁Parisians	-8513
▁Regarding	-8514
▁Represent	-8515
▁Therefore	-8516
▁Venezuela	-8517
▁Wonderful	-8518
▁acknowled	-8519
▁acquiring	-8520
▁advantage	-8521
▁ambitious	-8522
▁answering	-8523
▁apologize	-8524
▁attempted	-8525
▁attorneys	-8526
▁circulate	-8527
▁civilized	-8528
▁commander	-8529
▁conscious	-8530
▁contained	-8531
▁contribut	-8532
▁decisions	-8533
▁defensive	-8534
▁diplomats	-8535
▁direction	-8536
▁disappear	-8537
▁dividends	-8538
▁eliminate	-8539
▁emissions	-8540
▁enjoyable	-8541
▁envelopes	-8542
▁expanding	-8543
▁expecting	-8544
▁expressed	-8545
▁extensive	-8546
▁extremist	-8547
▁favorable	-8548
▁forwarded	-8549
▁guarantee	-8550
▁highlight	-8551
▁honorable	-8552
▁hopefully	-8553
▁household	-8554
▁indicated	-8555
▁indicates	-8556
▁initiated	-8557
▁installed	-8558
▁integrity	-8559
▁intellect	-8560
▁intuitive	-8561
▁inventory	-8562
▁lifeboats	-8563
▁nightmare	-8564
▁offensive	-8565
▁offspring	-8566
▁operative	-8567
▁parakeets	-8568
▁primarily	-8569
▁principle	-8570
▁projected	-8571
▁protected	-8572
▁provision	-8573
▁regularly	-8574
▁remaining	-8575
▁reporting	-8576
▁responded	-8577
▁resulting	-8578
▁suspicion	-8579
▁testimony	-8580
▁universal	-8581
▁voicemail	-8582
▁welcoming	-8583
___________	-8584
▁Additional	-8585
▁Attachment	-8586
▁Experience	-8587
▁Ironically	-8588
▁Mujahedeen	-8589
▁Recruiting	-8590
▁accounting	-8591
▁ammunition	-8592
▁apartments	-8593
▁businesses	-8594
▁confirming	-8595
▁dehydrated	-8596
▁discomfort	-8597
▁encouraged	-8598
▁evaluation	-8599
▁explosives	-8600
▁extraordin	-8601
▁forwarding	-8602
▁frequently	-8603
▁guerrillas	-8604
▁imprisoned	-8605
▁incredible	-8606
▁initiative	-8607
▁instructor	-8608
▁insurgents	-8609
▁introduced	-8610
▁membership	-8611
▁objections	-8612
▁officially	-8613
▁perfection	-8614
▁permission	-8615
▁processing	-8616
▁purchasing	-8617
▁referenced	-8618
▁represents	-8619
▁reputation	-8620
▁ridiculous	-8621
▁sandwiches	-8622
▁spacecraft	-8623
▁specialist	-8624
▁unemployed	-8625
▁unexpected	-8626
____________	-8627
▁Baluchistan	-8628
▁Calculation	-8629
▁Christopher	-8630
▁Information	-8631
▁Kumaratunga	-8632
▁Performance	-8633
▁competition	-8634
▁complaining	-8635
▁conferences	-8636
▁cooperation	-8637
▁description	-8638
▁discouraged	-8639
▁discussions	-8640
▁distracting	-8641
▁distributed	-8642
▁essentially	-8643
▁experienced	-8644
▁grandmother	-8645
▁ingredients	-8646
▁interceptor	-8647
▁maintaining	-8648
▁preparation	-8649
▁replacement	-8650
▁scholarship	-8651
▁understands	-8652
▁FusionRetail	-8653
▁Instructions	-8654
▁Intelligence	-8655
▁Interconnect	-8656
▁Montparnasse	-8657
▁Pennsylvania	-8658
▁assassinated	-8659
▁capabilities	-8660
▁compensation	-8661
▁conventional	-8662
▁indefinitely	-8663
▁interviewers	-8664
▁manufacturer	-8665
▁surprisingly	-8666
▁surveillance	-8667
▁unbelievable	-8668
▁accessibility	-8669
▁consideration	-8670
▁entertainment	-8671
▁environmental	-8672
▁knowledgeable	-8673
▁possibilities	-8674
▁Administration	-8675
▁establishments	-8676
▁fundamentalist	-8677
▁recommendation	-8678
▁professionalism	-8679
▁recommendations	-8680
!?	-8681
-)	-8682
.7	-8683
/4	-8684
15	-8685
26	-8686
32	-8687
48	-8688
51	-8689
55	-8690
59	-8691
AW	-8692
BM	-8693
CC	-8694
Ch	-8695
DC	-8696
DG	-8697
EP	-8698
EV	-8699
17	-8700
GR	-8701
IO	-8702
MB	-8703
NU	-8704
OP	-8705
OY	-8706
PA	-8707
PY	-8708
QU	-8709
RC	-8710
SR	-8711
SW	-8712
ju	-8713
ky	-8714
lr	-8715
lu	-8716
mp	-8717
ox	-8718
py	-8719
tu	-8720
tw	-8721
ux	-8722
wr	-8723
xy	-8724
ye	-8725
zz	-8726
,00	-8727
-33	-8728
.99	-8729
/08	-8730
/18	-8731
00-	-8732
00.	-8733
119	-8734
172	-8735
200	-8736
3-2	-8737
301	-8738
53-	-8739
6-9	-8740
819	-8741
907	-8742
993	-8743
:11	-8744
:12	-8745
:16	-8746
:27	-8747
:42	-8748
:44	-8749
:46	-8750
:57	-8751
ALL	-8752
ARD	-8753
ATO	-8754
EST	-8755
FTL	-8756
IAL	-8757
IEN	-8758
Ind	-8759
MEX	-8760
NOW	-8761
OUP	-8762
OUR	-8763
OWN	-8764
PAN	-8765
POS	-8766
REE	-8767
TON	-8768
UTS	-8769
aco	-8770
ado	-8771
aky	-8772
ala	-8773
amo	-8774
asi	-8775
asp	-8776
aza	-8777
aze	-8778
cht	-8779
cot	-8780
cro	-8781
cus	-8782
dge	-8783
duc	-8784
edu	-8785
ege	-8786
emn	-8787
erb	-8788
esh	-8789
esy	-8790
ete	-8791
gam	-8792
gry	-8793
hab	-8794
hea	-8795
hee	-8796
iac	-8797
imm	-8798
iov	-8799
:05	-8800
ACT	-8801
COM	-8802
ORR	-8803
TLE	-8804
gov	-8805
iox	-8806
isp	-8807
izb	-8808
let	-8809
mad	-8810
map	-8811
may	-8812
mma	-8813
nie	-8814
oca	-8815
oes	-8816
oma	-8817
oof	-8818
ota	-8819
oxi	-8820
pes	-8821
rac	-8822
riv	-8823
run	-8824
sat	-8825
ser	-8826
sle	-8827
tah	-8828
the	-8829
thm	-8830
ups	-8831
urb	-8832
urt	-8833
uts	-8834
vez	-8835
wik	-8836
yah	-8837
yer	-8838
ysa	-8839
zed	-8840
▁(:	-8841
▁00	-8842
▁3,	-8843
▁3.	-8844
▁3/	-8845
▁37	-8846
▁44	-8847
▁49	-8848
▁5.	-8849
▁56	-8850
▁61	-8851
▁62	-8852
▁63	-8853
▁69	-8854
▁88	-8855
▁97	-8856
▁AB	-8857
▁Ap	-8858
▁BL	-8859
▁CR	-8860
▁Di	-8861
▁Es	-8862
▁FA	-8863
▁Ho	-8864
▁ID	-8865
▁Ir	-8866
▁Jo	-8867
▁LE	-8868
▁Mo	-8869
▁NJ	-8870
▁OM	-8871
▁OW	-8872
▁PJ	-8873
▁QU	-8874
▁RU	-8875
▁Rs	-8876
▁Ru	-8877
▁SE	-8878
▁SF	-8879
▁TA	-8880
▁UT	-8881
▁Ue	-8882
▁VI	-8883
▁Ve	-8884
▁WW	-8885
▁ai	-8886
▁bm	-8887
▁bn	-8888
▁eC	-8889
▁eS	-8890
▁eg	-8891
▁er	-8892
▁ft	-8893
▁hh	-8894
▁ic	-8895
▁lb	-8896
▁ly	-8897
▁mm	-8898
▁ul	-8899
:01	-8900
:24	-8901
zza	-8902
▁XF	-8903
▁vo	-8904
,008	-8905
.379	-8906
4419	-8907
5-37	-8908
5870	-8909
6-86	-8910
AUSE	-8911
EEEE	-8912
EVER	-8913
ICES	-8914
IONS	-8915
MENT	-8916
Mart	-8917
OUSE	-8918
THER	-8919
adas	-8920
ampa	-8921
anan	-8922
anda	-8923
andy	-8924
anks	-8925
ante	-8926
aped	-8927
apse	-8928
aret	-8929
arma	-8930
arry	-8931
asim	-8932
asqu	-8933
atue	-8934
aura	-8935
auty	-8936
avez	-8937
azar	-8938
azid	-8939
bley	-8940
born	-8941
cean	-8942
chil	-8943
cont	-8944
cony	-8945
core	-8946
ctac	-8947
ects	-8948
eday	-8949
eled	-8950
ella	-8951
enix	-8952
enut	-8953
epad	-8954
erie	-8955
etic	-8956
fect	-8957
gary	-8958
hill	-8959
hire	-8960
hops	-8961
icer	-8962
icit	-8963
iels	-8964
ieve	-8965
ifer	-8966
igan	-8967
igor	-8968
iley	-8969
ilit	-8970
illo	-8971
inat	-8972
inds	-8973
inte	-8974
into	-8975
iots	-8976
iser	-8977
itis	-8978
itty	-8979
ivil	-8980
leen	-8981
llen	-8982
made	-8983
math	-8984
mbtu	-8985
mist	-8986
napp	-8987
nday	-8988
nedy	-8989
nell	-8990
nger	-8991
obbl	-8992
ocon	-8993
ohol	-8994
olen	-8995
oliv	-8996
olla	-8997
ombo	-8998
onia	-8999
▁=)	-9000
9890	-9001
URSE	-9002
ibek	-9003
mits	-9004
okly	-9005
onus	-9006
onym	-9007
otal	-9008
oule	-9009
ours	-9010
oval	-9011
ovan	-9012
oyon	-9013
page	-9014
pass	-9015
pled	-9016
plus	-9017
rait	-9018
raud	-9019
razy	-9020
rect	-9021
reek	-9022
rial	-9023
rics	-9024
riot	-9025
roll	-9026
ruce	-9027
sels	-9028
send	-9029
take	-9030
teen	-9031
tuce	-9032
uket	-9033
umor	-9034
utan	-9035
utch	-9036
vest	-9037
vity	-9038
wart	-9039
▁1.5	-9040
▁1.8	-9041
▁150	-9042
▁20.	-9043
▁510	-9044
▁?!?	-9045
▁Abb	-9046
▁Ana	-9047
▁Ann	-9048
▁Art	-9049
▁Ave	-9050
▁BAD	-9051
▁BBQ	-9052
▁BEC	-9053
▁BNA	-9054
▁Ban	-9055
▁Bon	-9056
▁Box	-9057
▁Boy	-9058
▁Bud	-9059
▁Bur	-9060
▁CAN	-9061
▁CAR	-9062
▁Cay	-9063
▁Cho	-9064
▁Coo	-9065
▁Cru	-9066
▁DAY	-9067
▁Dad	-9068
▁Dam	-9069
▁Dat	-9070
▁Die	-9071
▁Dor	-9072
▁Dry	-9073
▁Dul	-9074
▁ETA	-9075
▁Eco	-9076
▁Ell	-9077
▁Emb	-9078
▁End	-9079
▁Ext	-9080
▁FIT	-9081
▁Fah	-9082
▁Fee	-9083
▁Fig	-9084
▁Fil	-9085
▁GOP	-9086
▁Gem	-9087
▁Gib	-9088
▁HAD	-9089
▁Haz	-9090
▁Hop	-9091
▁IMP	-9092
▁INT	-9093
▁IRS	-9094
▁Jer	-9095
▁Joy	-9096
▁Jul	-9097
▁LET	-9098
▁Lat	-9099
PRO	-9100
iya	-9101
8/00	-9102
ANCE	-9103
IGHT	-9104
frey	-9105
psey	-9106
spot	-9107
▁DPR	-9108
▁Lev	-9109
▁Lew	-9110
▁Lie	-9111
▁Lih	-9112
▁Los	-9113
▁MAR	-9114
▁MIL	-9115
▁Mag	-9116
▁Mat	-9117
▁Mel	-9118
▁Nic	-9119
▁OFF	-9120
▁OUT	-9121
▁Opp	-9122
▁PGE	-9123
▁PRC	-9124
▁Pot	-9125
▁Pur	-9126
▁Ran	-9127
▁Raw	-9128
▁Ray	-9129
▁SCI	-9130
▁SMS	-9131
▁SOL	-9132
▁SUV	-9133
▁Sad	-9134
▁Sav	-9135
▁Sic	-9136
▁Soc	-9137
▁Squ	-9138
▁Sur	-9139
▁TEN	-9140
▁TWO	-9141
▁Tar	-9142
▁Tho	-9143
▁Tre	-9144
▁Tub	-9145
▁USB	-9146
▁Uno	-9147
▁Var	-9148
▁WEE	-9149
▁WHY	-9150
▁WOR	-9151
▁WOW	-9152
▁bes	-9153
▁bin	-9154
▁bot	-9155
▁bru	-9156
▁btw	-9157
▁bug	-9158
▁cin	-9159
▁cry	-9160
▁dan	-9161
▁dil	-9162
▁dur	-9163
▁ego	-9164
▁fed	-9165
▁flu	-9166
▁fps	-9167
▁fro	-9168
▁fry	-9169
▁gro	-9170
▁hat	-9171
▁hav	-9172
▁hun	-9173
▁jam	-9174
▁map	-9175
▁mop	-9176
▁mun	-9177
▁odd	-9178
▁owe	-9179
▁phr	-9180
▁pra	-9181
▁pup	-9182
▁rhy	-9183
▁sad	-9184
▁san	-9185
▁sup	-9186
▁tap	-9187
▁tea	-9188
▁thy	-9189
▁tip	-9190
▁toe	-9191
▁tur	-9192
▁unc	-9193
▁unh	-9194
▁unw	-9195
▁ven	-9196
▁wow	-9197
▁yhe	-9198
-20-2	-9199
/31	-9200
▁Ltd	-9201
▁MMA	-9202
▁TNA	-9203
/1/01	-9204
33907	-9205
IDENT	-9206
actor	-9207
after	-9208
agers	-9209
agong	-9210
agues	-9211
aimed	-9212
alese	-9213
ansas	-9214
antan	-9215
anted	-9216
antra	-9217
antry	-9218
aping	-9219
apore	-9220
arden	-9221
arges	-9222
ashes	-9223
asive	-9224
astro	-9225
asual	-9226
atell	-9227
athan	-9228
attoo	-9229
burgh	-9230
corne	-9231
croft	-9232
earch	-9233
ebook	-9234
edded	-9235
edies	-9236
eding	-9237
elson	-9238
ennis	-9239
enses	-9240
enter	-9241
erina	-9242
error	-9243
essed	-9244
essee	-9245
estic	-9246
estiv	-9247
estry	-9248
funct	-9249
gment	-9250
heryl	-9251
ichol	-9252
icial	-9253
icism	-9254
icken	-9255
icted	-9256
igent	-9257
igged	-9258
imacy	-9259
immer	-9260
inate	-9261
inawa	-9262
index	-9263
istry	-9264
itals	-9265
ivery	-9266
jones	-9267
lines	-9268
minal	-9269
night	-9270
ograp	-9271
omach	-9272
oners	-9273
onest	-9274
ongle	-9275
opoly	-9276
order	-9277
osyst	-9278
otein	-9279
otion	-9280
otted	-9281
ounge	-9282
place	-9283
plete	-9284
ppers	-9285
rable	-9286
reaty	-9287
regon	-9288
retch	-9289
riers	-9290
ronym	-9291
scale	-9292
shall	-9293
shore	-9294
sters	-9295
storm	-9296
teous	-9297
urist	-9298
uster	-9299
PEZ	-9300
IOUS	-9301
PANY	-9302
aikh	-9303
▁IBM	-9304
▁MKM	-9305
▁SWG	-9306
bucks	-9307
itzer	-9308
melpe	-9309
oklyn	-9310
views	-9311
wford	-9312
▁----	-9313
▁01/2	-9314
▁01:0	-9315
▁02/2	-9316
▁03/2	-9317
▁1.00	-9318
▁11/0	-9319
▁1307	-9320
▁1560	-9321
▁1580	-9322
▁1584	-9323
▁1594	-9324
▁1774	-9325
▁2007	-9326
▁2008	-9327
▁3:00	-9328
▁425-	-9329
▁4:00	-9330
▁6.00	-9331
▁AWAY	-9332
▁Aero	-9333
▁Alan	-9334
▁Alto	-9335
▁Auto	-9336
▁BABA	-9337
▁Band	-9338
▁Bart	-9339
▁Bien	-9340
▁Bird	-9341
▁Bout	-9342
▁Brig	-9343
▁Buch	-9344
▁CAME	-9345
▁CDEC	-9346
▁CONF	-9347
▁CPUC	-9348
▁Cast	-9349
▁Come	-9350
▁Conn	-9351
▁Crim	-9352
▁Crit	-9353
▁Days	-9354
▁Doll	-9355
▁EXCE	-9356
▁Edit	-9357
▁Educ	-9358
▁Emer	-9359
▁Ever	-9360
▁Fern	-9361
▁Five	-9362
▁Fred	-9363
▁Fund	-9364
▁GMAT	-9365
▁Giov	-9366
▁Glen	-9367
▁HATE	-9368
▁Help	-9369
▁Hizb	-9370
▁Holy	-9371
▁Huge	-9372
▁Hull	-9373
▁Iris	-9374
▁Jeop	-9375
▁Juan	-9376
▁Jugg	-9377
▁KNOW	-9378
▁Kell	-9379
▁Kenn	-9380
▁Kent	-9381
▁Kill	-9382
▁Know	-9383
▁Kurd	-9384
▁LIKE	-9385
▁Lake	-9386
▁Laos	-9387
▁Lead	-9388
▁Link	-9389
▁Liqu	-9390
▁Live	-9391
▁Load	-9392
▁Lora	-9393
▁Lots	-9394
▁MUST	-9395
▁Mand	-9396
▁Mars	-9397
▁Meth	-9398
▁Mold	-9399
▁Moon	-9400
▁Moro	-9401
▁Must	-9402
▁NATO	-9403
▁NEED	-9404
▁NOOK	-9405
▁Nash	-9406
▁Navy	-9407
▁Neal	-9408
▁Neil	-9409
▁Noel	-9410
▁None	-9411
▁Nord	-9412
▁Okay	-9413
▁PUCT	-9414
▁Pent	-9415
▁Phet	-9416
▁Rent	-9417
▁Rose	-9418
▁Rule	-9419
▁Rums	-9420
▁SCAM	-9421
▁SPAR	-9422
▁STAY	-9423
▁SUCH	-9424
▁Spec	-9425
▁Stip	-9426
▁Stop	-9427
▁Swed	-9428
▁Taur	-9429
▁Test	-9430
▁Thai	-9431
▁Todd	-9432
▁Took	-9433
▁Tour	-9434
▁Trou	-9435
▁Upon	-9436
▁User	-9437
▁Utah	-9438
▁Visa	-9439
▁WANT	-9440
▁WELL	-9441
▁WILL	-9442
▁Went	-9443
▁Wine	-9444
▁Wire	-9445
▁Wolf	-9446
▁XIII	-9447
▁Yang	-9448
▁Yoga	-9449
▁Yoko	-9450
▁Zero	-9451
▁abst	-9452
▁aged	-9453
▁ally	-9454
▁amer	-9455
▁bald	-9456
▁beer	-9457
▁belt	-9458
▁boot	-9459
▁boun	-9460
▁bugs	-9461
▁butt	-9462
▁cafe	-9463
▁cart	-9464
▁clan	-9465
▁clar	-9466
▁cler	-9467
▁coal	-9468
▁cong	-9469
▁corn	-9470
▁crab	-9471
▁damp	-9472
▁deed	-9473
▁dile	-9474
▁diox	-9475
▁dope	-9476
▁drag	-9477
▁dual	-9478
▁duck	-9479
▁eats	-9480
▁encl	-9481
▁ends	-9482
▁evac	-9483
▁fans	-9484
▁feat	-9485
▁flew	-9486
▁flex	-9487
▁flop	-9488
▁fran	-9489
▁gaps	-9490
▁gate	-9491
▁golf	-9492
▁gown	-9493
▁gren	-9494
▁grew	-9495
▁grid	-9496
▁harb	-9497
▁hoax	-9498
▁hugs	-9499
▁ille	-9500
▁inse	-9501
▁isda	-9502
▁jack	-9503
▁jerk	-9504
▁jury	-9505
▁lady	-9506
▁lamp	-9507
▁leaf	-9508
▁leth	-9509
▁logo	-9510
▁lone	-9511
▁marg	-9512
▁memo	-9513
▁mere	-9514
▁mini	-9515
▁nano	-9516
▁nose	-9517
▁nutr	-9518
▁ours	-9519
▁outd	-9520
▁phen	-9521
▁pigs	-9522
▁pour	-9523
▁puff	-9524
▁rain	-9525
▁ramp	-9526
▁rank	-9527
▁rats	-9528
▁rein	-9529
▁rene	-9530
▁reve	-9531
▁ring	-9532
▁root	-9533
▁runs	-9534
▁sail	-9535
▁seed	-9536
▁situ	-9537
▁soda	-9538
▁sons	-9539
▁stif	-9540
▁styl	-9541
▁subs	-9542
▁suck	-9543
▁tall	-9544
▁ther	-9545
▁thie	-9546
▁tied	-9547
▁ties	-9548
▁tips	-9549
▁trem	-9550
▁unhe	-9551
▁unre	-9552
▁urge	-9553
▁uses	-9554
▁void	-9555
▁wary	-9556
▁wear	-9557
▁wrap	-9558
▁zinc	-9559
▁zone	-9560
▁zoom	-9561
------	-9562
/17/99	-9563
3-9890	-9564
7/2000	-9565
7/2001	-9566
London	-9567
PERIEN	-9568
abouts	-9569
andria	-9570
aneous	-9571
angers	-9572
arrhea	-9573
atable	-9574
atible	-9575
celona	-9576
change	-9577
cience	-9578
comend	-9579
encies	-9580
endale	-9581
endous	-9582
enting	-9583
ernaut	-9584
ervers	-9585
essert	-9586
essive	-9587
ething	-9588
giving	-9589
glenut	-9590
herent	-9591
hering	-9592
icians	-9593
iciary	-9594
icting	-9595
ilates	-9596
ilians	-9597
illage	-9598
imates	-9599
incing	-9600
indand	-9601
intage	-9602
irable	-9603
itised	-9604
killed	-9605
lamist	-9606
liness	-9607
marine	-9608
ocaust	-9609
omatic	-9610
onents	-9611
osters	-9612
pecorp	-9613
ptions	-9614
rained	-9615
regard	-9616
swbell	-9617
terfly	-9618
umping	-9619
ussell	-9620
verted	-9621
▁!!!!!	-9622
▁03:20	-9623
▁11:32	-9624
▁11:45	-9625
▁12:12	-9626
▁12:30	-9627
▁5,000	-9628
▁620-2	-9629
▁74419	-9630
▁Above	-9631
▁Abram	-9632
▁Alask	-9633
▁Alger	-9634
▁Amend	-9635
▁Anbar	-9636
▁Andre	-9637
▁Barno	-9638
▁Basic	-9639
▁Below	-9640
▁Blair	-9641
▁Boliv	-9642
▁Brand	-9643
▁Broad	-9644
▁CURSE	-9645
▁Chief	-9646
▁Chitt	-9647
▁Civil	-9648
▁Cross	-9649
▁Cures	-9650
▁Dance	-9651
▁Darla	-9652
▁Doyon	-9653
▁EEFTL	-9654
▁Enjoy	-9655
▁Entry	-9656
▁Ercot	-9657
▁Ernie	-9658
▁Exile	-9659
▁Favor	-9660
▁Finan	-9661
▁Freem	-9662
▁Gates	-9663
▁Grill	-9664
▁Halal	-9665
▁Haven	-9666
▁Heard	-9667
▁Holly	-9668
▁Honda	-9669
▁Hyatt	-9670
▁Index	-9671
▁Jared	-9672
▁Jeffs	-9673
▁Jolla	-9674
▁Krist	-9675
▁LOPEZ	-9676
▁Larry	-9677
▁Later	-9678
▁Laura	-9679
▁Leach	-9680
▁Local	-9681
▁Looks	-9682
▁Might	-9683
▁Mosul	-9684
▁NEPCO	-9685
▁NYMEX	-9686
▁Nails	-9687
▁Nasim	-9688
▁Naval	-9689
▁Needs	-9690
▁Parad	-9691
▁Phill	-9692
▁Plant	-9693
▁Point	-9694
▁Popup	-9695
▁Rolls	-9696
▁Royal	-9697
▁SUSHI	-9698
▁Sahaf	-9699
▁Sarat	-9700
▁Seoul	-9701
▁Smart	-9702
▁Stark	-9703
▁Start	-9704
▁Suite	-9705
▁THEIR	-9706
▁Think	-9707
▁Those	-9708
▁Tiger	-9709
▁Varan	-9710
▁WINGS	-9711
▁WOULD	-9712
▁Water	-9713
▁Wayne	-9714
▁Yazid	-9715
▁Zaman	-9716
▁abuse	-9717
▁acted	-9718
▁angry	-9719
▁aquar	-9720
▁arena	-9721
▁artic	-9722
▁aspir	-9723
▁asset	-9724
▁atroc	-9725
▁begun	-9726
▁belly	-9727
▁betta	-9728
▁bites	-9729
▁bland	-9730
▁bless	-9731
▁block	-9732
▁bonus	-9733
▁boxes	-9734
▁brand	-9735
▁brave	-9736
▁bucks	-9737
▁bunch	-9738
▁burst	-9739
▁cater	-9740
▁charm	-9741
▁chase	-9742
▁chefs	-9743
▁choos	-9744
▁cloth	-9745
▁conqu	-9746
▁crack	-9747
▁crazy	-9748
▁crowd	-9749
▁disch	-9750
▁disse	-9751
▁divor	-9752
▁dragg	-9753
▁drawn	-9754
▁envoy	-9755
▁faces	-9756
▁falls	-9757
▁farce	-9758
▁fever	-9759
▁fifty	-9760
▁firms	-9761
▁flash	-9762
▁forum	-9763
▁fruit	-9764
▁grown	-9765
▁guide	-9766
▁guild	-9767
▁halal	-9768
▁handy	-9769
▁harsh	-9770
▁haven	-9771
▁heels	-9772
▁hence	-9773
▁hints	-9774
▁homes	-9775
▁honor	-9776
▁hosts	-9777
▁hutch	-9778
▁incom	-9779
▁incub	-9780
▁inexp	-9781
▁jeans	-9782
▁jihad	-9783
▁kitty	-9784
▁knock	-9785
▁legit	-9786
▁logic	-9787
▁lunar	-9788
▁manif	-9789
▁manip	-9790
▁marty	-9791
▁meter	-9792
▁micro	-9793
▁mmbtu	-9794
▁moder	-9795
▁moral	-9796
▁motiv	-9797
▁movie	-9798
▁naked	-9799
▁nerve	-9800
▁overd	-9801
▁panic	-9802
▁pants	-9803
▁parli	-9804
▁penet	-9805
▁penny	-9806
▁pinky	-9807
▁pixel	-9808
▁ports	-9809
▁pregn	-9810
▁presc	-9811
▁pride	-9812
▁prize	-9813
▁rally	-9814
▁rated	-9815
▁resid	-9816
▁revol	-9817
▁risks	-9818
▁rolls	-9819
▁sauce	-9820
▁scent	-9821
▁scrap	-9822
▁share	-9823
▁sheds	-9824
▁shell	-9825
▁solve	-9826
▁sorts	-9827
▁souls	-9828
▁spice	-9829
▁spine	-9830
▁spite	-9831
▁spoon	-9832
▁spore	-9833
▁squee	-9834
▁stamp	-9835
▁stick	-9836
▁swing	-9837
▁tanks	-9838
▁texts	-9839
▁topic	-9840
▁traum	-9841
▁trees	-9842
▁trend	-9843
▁trips	-9844
▁tumor	-9845
▁unpro	-9846
▁untal	-9847
▁upper	-9848
▁upset	-9849
▁urged	-9850
▁vests	-9851
▁vomit	-9852
▁votes	-9853
▁weird	-9854
▁wobbl	-9855
aborate	-9856
angered	-9857
archers	-9858
athmann	-9859
cornell	-9860
ections	-9861
enerate	-9862
english	-9863
hension	-9864
hibited	-9865
inatown	-9866
iritual	-9867
justice	-9868
loading	-9869
mediate	-9870
meeting	-9871
ocolate	-9872
ologies	-9873
ommerce	-9874
otional	-9875
reating	-9876
repancy	-9877
reshold	-9878
ropical	-9879
stitute	-9880
utorial	-9881
version	-9882
▁......	-9883
▁16.379	-9884
▁295870	-9885
▁38,000	-9886
▁40,000	-9887
▁416-86	-9888
▁713-79	-9889
▁Africa	-9890
▁Alibek	-9891
▁Arabic	-9892
▁Baffin	-9893
▁Bailey	-9894
▁Bhutan	-9895
▁Biloxi	-9896
▁Bitmap	-9897
▁Bosnia	-9898
▁Calcul	-9899
▁Cheryl	-9900
▁Circle	-9901
▁Cullen	-9902
▁Debbie	-9903
▁Depend	-9904
▁Device	-9905
▁Dinner	-9906
▁Donald	-9907
▁Dorsey	-9908
▁Dykman	-9909
▁Econom	-9910
▁Edison	-9911
▁Either	-9912
▁ElPaso	-9913
▁Freese	-9914
▁Giving	-9915
▁Ground	-9916
▁Groups	-9917
▁Guinea	-9918
▁Health	-9919
▁Horton	-9920
▁Hughes	-9921
▁Hurric	-9922
▁Kindle	-9923
▁Lankan	-9924
▁Living	-9925
▁Lovely	-9926
▁Madrid	-9927
▁Miller	-9928
▁Modern	-9929
▁Mullah	-9930
▁Murphy	-9931
▁Nation	-9932
▁Nelson	-9933
▁Nether	-9934
▁Nichol	-9935
▁Oregon	-9936
▁Penman	-9937
▁Pervez	-9938
▁Philly	-9939
▁Phuket	-9940
▁Portug	-9941
▁Reason	-9942
▁Report	-9943
▁Robbie	-9944
▁Rogers	-9945
▁Ronald	-9946
▁SHOULD	-9947
▁Sancho	-9948
▁Schott	-9949
▁Shaikh	-9950
▁Sicily	-9951
▁Square	-9952
▁Strait	-9953
▁Terror	-9954
▁Though	-9955
▁Uecomm	-9956
▁Vestry	-9957
▁Within	-9958
▁Worker	-9959
▁absorb	-9960
▁advent	-9961
▁assert	-9962
▁attain	-9963
▁battle	-9964
▁becuse	-9965
▁behalf	-9966
▁bioche	-9967
▁boasts	-9968
▁bodies	-9969
▁bottle	-9970
▁brainw	-9971
▁branch	-9972
▁breaks	-9973
▁breast	-9974
▁budgie	-9975
▁campus	-9976
▁cinema	-9977
▁column	-9978
▁combat	-9979
▁concur	-9980
▁cousin	-9981
▁covers	-9982
▁crappy	-9983
▁cursor	-9984
▁defend	-9985
▁desire	-9986
▁dongle	-9987
▁drafts	-9988
▁driven	-9989
▁eSpeak	-9990
▁enchil	-9991
▁ending	-9992
▁enjoys	-9993
▁entree	-9994
▁equine	-9995
▁exclud	-9996
▁excuse	-9997
▁extent	-9998
▁factor	-9999
▁feared	-10000
▁festiv	-10001
▁fields	-10002
▁filmed	-10003
▁fixing	-10004
▁flowed	-10005
▁fourth	-10006
▁fungus	-10007
▁growth	-10008
▁guards	-10009
▁guinea	-10010
▁hassle	-10011
▁hissed	-10012
▁hoping	-10013
▁horror	-10014
▁humble	-10015
▁idiots	-10016
▁indeed	-10017
▁inoper	-10018
▁insult	-10019
▁joking	-10020
▁judges	-10021
▁kidney	-10022
▁labels	-10023
▁lacked	-10024
▁ladies	-10025
▁lasted	-10026
▁lyrics	-10027
▁manned	-10028
▁mantra	-10029
▁marvel	-10030
▁mobile	-10031
▁myster	-10032
▁native	-10033
▁nearby	-10034
▁neatly	-10035
▁nicest	-10036
▁packed	-10037
▁passes	-10038
▁pasted	-10039
▁patron	-10040
▁peeing	-10041
▁permit	-10042
▁phoned	-10043
▁pledge	-10044
▁prepay	-10045
▁pricey	-10046
▁profit	-10047
▁propos	-10048
▁proven	-10049
▁python	-10050
▁recogn	-10051
▁referr	-10052
▁relate	-10053
▁remote	-10054
▁retrie	-10055
▁rhythm	-10056
▁rulers	-10057
▁salary	-10058
▁sector	-10059
▁sensor	-10060
▁serves	-10061
▁sexual	-10062
▁shadow	-10063
▁shared	-10064
▁shares	-10065
▁simult	-10066
▁smells	-10067
▁solely	-10068
▁spayed	-10069
▁spikes	-10070
▁spoken	-10071
▁sports	-10072
▁square	-10073
▁stabil	-10074
▁starts	-10075
▁sticks	-10076
▁stolen	-10077
▁submit	-10078
▁subtle	-10079
▁sunday	-10080
▁supply	-10081
▁sussex	-10082
▁tested	-10083
▁therap	-10084
▁thirty	-10085
▁thread	-10086
▁thrive	-10087
▁throat	-10088
▁titles	-10089
▁treaty	-10090
▁tricks	-10091
▁tricky	-10092
▁uncomm	-10093
▁ventil	-10094
▁viable	-10095
▁visual	-10096
▁volume	-10097
▁waiter	-10098
▁walnut	-10099
▁wheels	-10100
▁winner	-10101
▁worker	-10102
▁wounds	-10103
▁writes	-10104
▁yelled	-10105
▁yheggy	-10106
-20-2000	-10107
/03/2001	-10108
/14/2000	-10109
antanamo	-10110
appropri	-10111
atellite	-10112
berkeley	-10113
blogspot	-10114
ctacular	-10115
ertainly	-10116
ffective	-10117
gonzales	-10118
graduate	-10119
itnesses	-10120
osystems	-10121
▁Account	-10122
▁Aerocom	-10123
▁Angeles	-10124
▁BECAUSE	-10125
▁BackWeb	-10126
▁Belgium	-10127
▁Besides	-10128
▁Bradley	-10129
▁Butcher	-10130
▁COMPANY	-10131
▁Calgary	-10132
▁College	-10133
▁Colombo	-10134
▁Comfort	-10135
▁Connect	-10136
▁Contact	-10137
▁Council	-10138
▁Country	-10139
▁Daniels	-10140
▁Delight	-10141
▁Enpower	-10142
▁Express	-10143
▁Germany	-10144
▁Giovann	-10145
▁Heather	-10146
▁Jamaica	-10147
▁Kennedy	-10148
▁Kenneth	-10149
▁Laundry	-10150
▁Leopold	-10151
▁Limited	-10152
▁Michele	-10153
▁Murillo	-10154
▁Neither	-10155
▁Network	-10156
▁Officer	-10157
▁Okinawa	-10158
▁Perfect	-10159
▁Phoenix	-10160
▁Phyllis	-10161
▁Present	-10162
▁Prophet	-10163
▁Rachels	-10164
▁Radison	-10165
▁Roberts	-10166
▁Russell	-10167
▁Sooners	-10168
▁Support	-10169
▁Switzer	-10170
▁Trading	-10171
▁Trustee	-10172
▁Unitary	-10173
▁Various	-10174
▁WalMart	-10175
▁Whipple	-10176
▁absence	-10177
▁acquire	-10178
▁acronym	-10179
▁adapted	-10180
▁advised	-10181
▁affairs	-10182
▁airline	-10183
▁alcohol	-10184
▁alright	-10185
▁angeles	-10186
▁anticip	-10187
▁applies	-10188
▁arrival	-10189
▁assault	-10190
▁atrophy	-10191
▁avoided	-10192
▁balcony	-10193
▁basking	-10194
▁beating	-10195
▁bladder	-10196
▁booking	-10197
▁bravery	-10198
▁cabinet	-10199
▁cancell	-10200
▁captain	-10201
▁capture	-10202
▁careful	-10203
▁cashout	-10204
▁chapter	-10205
▁charity	-10206
▁cheaper	-10207
▁choices	-10208
▁claimed	-10209
▁cleaner	-10210
▁clients	-10211
▁condemn	-10212
▁confisc	-10213
▁conspir	-10214
▁consult	-10215
▁copying	-10216
▁coupons	-10217
▁creates	-10218
▁crowded	-10219
▁customs	-10220
▁daycare	-10221
▁debtors	-10222
▁defeats	-10223
▁deleted	-10224
▁deliber	-10225
▁dentist	-10226
▁dioxide	-10227
▁dominos	-10228
▁dusting	-10229
▁element	-10230
▁enthusi	-10231
▁expired	-10232
▁explode	-10233
▁express	-10234
▁failing	-10235
▁fleeing	-10236
▁flights	-10237
▁funeral	-10238
▁generic	-10239
▁giraffe	-10240
▁grandma	-10241
▁granted	-10242
▁graphic	-10243
▁grinder	-10244
▁habitat	-10245
▁hardest	-10246
▁harness	-10247
▁healing	-10248
▁heavily	-10249
▁ignored	-10250
▁illegal	-10251
▁impacts	-10252
▁impenet	-10253
▁intends	-10254
▁intense	-10255
▁ireland	-10256
▁joining	-10257
▁journey	-10258
▁jumping	-10259
▁kidnapp	-10260
▁lasting	-10261
▁lemelpe	-10262
▁lessons	-10263
▁lettuce	-10264
▁liberal	-10265
▁license	-10266
▁longest	-10267
▁methods	-10268
▁monarch	-10269
▁monitor	-10270
▁mosques	-10271
▁musical	-10272
▁needing	-10273
▁notepad	-10274
▁onboard	-10275
▁origins	-10276
▁outcome	-10277
▁partial	-10278
▁partner	-10279
▁penalty	-10280
▁picking	-10281
▁pointed	-10282
▁predict	-10283
▁protein	-10284
▁pulling	-10285
▁pursuit	-10286
▁refunds	-10287
▁regrett	-10288
▁relying	-10289
▁remarks	-10290
▁removal	-10291
▁renewed	-10292
▁replied	-10293
▁reptile	-10294
▁reserve	-10295
▁retreat	-10296
▁rewards	-10297
▁roughly	-10298
▁schools	-10299
▁scratch	-10300
▁shelter	-10301
▁shocked	-10302
▁shuttle	-10303
▁skimmer	-10304
▁smoking	-10305
▁speaker	-10306
▁spotted	-10307
▁springs	-10308
▁stabbed	-10309
▁stomach	-10310
▁strange	-10311
▁streets	-10312
▁surplus	-10313
▁tactics	-10314
▁tasting	-10315
▁temples	-10316
▁tempura	-10317
▁tension	-10318
▁theater	-10319
▁thereby	-10320
▁threats	-10321
▁tighten	-10322
▁tracked	-10323
▁trapped	-10324
▁unhappy	-10325
▁uniform	-10326
▁updates	-10327
▁upgrade	-10328
▁upscale	-10329
▁useless	-10330
▁valuing	-10331
▁victims	-10332
▁violent	-10333
▁warfare	-10334
▁warlord	-10335
▁yelling	-10336
bitration	-10337
nordstrom	-10338
struction	-10339
▁620-294-	-10340
▁ANYTHING	-10341
▁Analysts	-10342
▁Anderson	-10343
▁Assembly	-10344
▁Brooklyn	-10345
▁Buchanan	-10346
▁Carnival	-10347
▁Colorado	-10348
▁Consider	-10349
▁Courtney	-10350
▁Crawford	-10351
▁Critical	-10352
▁Customer	-10353
▁Delivery	-10354
▁Dispatch	-10355
▁EXPERIEN	-10356
▁Equality	-10357
▁Everland	-10358
▁Favorite	-10359
▁Hamilton	-10360
▁Infinite	-10361
▁Internet	-10362
▁Israelis	-10363
▁Jeopardy	-10364
▁Kathleen	-10365
▁Lighting	-10366
▁Marshall	-10367
▁McDonald	-10368
▁Moldovan	-10369
▁Mountain	-10370
▁Newsweek	-10371
▁Password	-10372
▁Pentagon	-10373
▁Protocol	-10374
▁Rumsfeld	-10375
▁Saratoga	-10376
▁Shindand	-10377
▁Stanford	-10378
▁Varanasi	-10379
▁Virginia	-10380
▁Wildwood	-10381
▁Williams	-10382
▁acquired	-10383
▁adhering	-10384
▁adorable	-10385
▁agreeing	-10386
▁american	-10387
▁analysts	-10388
▁annoying	-10389
▁appetite	-10390
▁articles	-10391
▁artistic	-10392
▁attacked	-10393
▁attitude	-10394
▁bareback	-10395
▁beginner	-10396
▁belonged	-10397
▁billions	-10398
▁bleeding	-10399
▁bothered	-10400
▁breaking	-10401
▁circling	-10402
▁collapse	-10403
▁congress	-10404
▁constant	-10405
▁contrast	-10406
▁counters	-10407
▁critical	-10408
▁deadline	-10409
▁delicate	-10410
▁describe	-10411
▁diarrhea	-10412
▁district	-10413
▁dominant	-10414
▁dropping	-10415
▁effected	-10416
▁eligible	-10417
▁equipped	-10418
▁evaluate	-10419
▁everyday	-10420
▁expenses	-10421
▁explains	-10422
▁finances	-10423
▁flooding	-10424
▁grateful	-10425
▁holidays	-10426
▁humanity	-10427
▁improved	-10428
▁islamist	-10429
▁launched	-10430
▁launcher	-10431
▁lighting	-10432
▁likewise	-10433
▁machines	-10434
▁matching	-10435
▁meantime	-10436
▁merchant	-10437
▁modeling	-10438
▁modified	-10439
▁mountain	-10440
▁mounting	-10441
▁narrowed	-10442
▁northern	-10443
▁notebook	-10444
▁offended	-10445
▁operator	-10446
▁opposite	-10447
▁ordering	-10448
▁overflow	-10449
▁packages	-10450
▁passcode	-10451
▁platform	-10452
▁postpone	-10453
▁preorder	-10454
▁promoted	-10455
▁property	-10456
▁prospect	-10457
▁reaching	-10458
▁reassure	-10459
▁recieved	-10460
▁recovery	-10461
▁refusing	-10462
▁relating	-10463
▁republic	-10464
▁reserved	-10465
▁revenues	-10466
▁reviewed	-10467
▁reviewer	-10468
▁romantic	-10469
▁salesman	-10470
▁sampling	-10471
▁sections	-10472
▁smallest	-10473
▁smoothly	-10474
▁spawning	-10475
▁specials	-10476
▁spelling	-10477
▁sponsors	-10478
▁stranger	-10479
▁stressed	-10480
▁strictly	-10481
▁suddenly	-10482
▁suggests	-10483
▁suitable	-10484
▁superior	-10485
▁supplied	-10486
▁switched	-10487
▁tourists	-10488
▁transmit	-10489
▁traveler	-10490
▁treating	-10491
▁ultimate	-10492
▁upstairs	-10493
▁vehicles	-10494
▁versions	-10495
▁withdraw	-10496
▁wobblers	-10497
▁youngest	-10498
commercial	-10499
functional	-10500
ordination	-10501
▁Amendment	-10502
▁Assistant	-10503
▁Barcelona	-10504
▁Bienvenue	-10505
▁Certainly	-10506
▁Currently	-10507
▁Education	-10508
▁Everybody	-10509
▁Greendale	-10510
▁Hurricane	-10511
▁Kaoshikii	-10512
▁Liquidweb	-10513
▁Norwegian	-10514
▁Obviously	-10515
▁Paragraph	-10516
▁Professor	-10517
▁Recommend	-10518
▁Singapore	-10519
▁Southwest	-10520
▁Starbucks	-10521
▁Tennessee	-10522
▁Traveller	-10523
▁accepting	-10524
▁affecting	-10525
▁aftermath	-10526
▁allegedly	-10527
▁armaments	-10528
▁assisting	-10529
▁attending	-10530
▁attentive	-10531
▁behaviour	-10532
▁butterfly	-10533
▁character	-10534
▁civilians	-10535
▁committed	-10536
▁commodity	-10537
▁conflicts	-10538
▁container	-10539
▁daughters	-10540
▁delighted	-10541
▁demanding	-10542
▁dependent	-10543
▁diagnosed	-10544
▁dictators	-10545
▁discovery	-10546
▁dismissed	-10547
▁disregard	-10548
▁diversity	-10549
▁dominated	-10550
▁eCommerce	-10551
▁estimates	-10552
▁evolution	-10553
▁executing	-10554
▁executive	-10555
▁expansion	-10556
▁expertise	-10557
▁financing	-10558
▁functions	-10559
▁gathering	-10560
▁generated	-10561
▁healthier	-10562
▁hijackers	-10563
▁hospitals	-10564
▁improving	-10565
▁increases	-10566
▁injustice	-10567
▁insulting	-10568
▁inversion	-10569
▁invoicing	-10570
▁listening	-10571
▁marketing	-10572
▁mechanism	-10573
▁memorable	-10574
▁newspaper	-10575
▁northwest	-10576
▁obligated	-10577
▁observers	-10578
▁ownership	-10579
▁populated	-10580
▁precisely	-10581
▁preferred	-10582
▁preparing	-10583
▁proceeded	-10584
▁processes	-10585
▁providers	-10586
▁radiation	-10587
▁reccomend	-10588
▁recessive	-10589
▁recording	-10590
▁referring	-10591
▁rejection	-10592
▁releasing	-10593
▁religions	-10594
▁remainder	-10595
▁reporters	-10596
▁reviewers	-10597
▁smuggling	-10598
▁solutions	-10599
▁sponsored	-10600
▁strongest	-10601
▁submarine	-10602
▁submitted	-10603
▁succeeded	-10604
▁suffering	-10605
▁temporary	-10606
▁threshold	-10607
▁unloading	-10608
▁utilities	-10609
▁valuation	-10610
▁vegetable	-10611
▁weaponize	-10612
▁willingly	-10613
-----------	-10614
▁!!!!!!!!!!	-10615
▁01/19/2001	-10616
▁03/02/2001	-10617
▁03/08/2000	-10618
▁04/16/2001	-10619
▁06/01/2001	-10620
▁10/20/2000	-10621
▁10/23/2000	-10622
▁10/26/2000	-10623
▁416-865-37	-10624
▁Absolutely	-10625
▁Alexandria	-10626
▁Bangladesh	-10627
▁Chittagong	-10628
▁Democratic	-10629
▁EVERYTHING	-10630
▁Guantanamo	-10631
▁Guerrillas	-10632
▁Juggernaut	-10633
▁Laboratory	-10634
▁Personally	-10635
▁abundantly	-10636
▁acceptance	-10637
▁aggravated	-10638
▁aggressive	-10639
▁appearance	-10640
▁appetizers	-10641
▁assessment	-10642
▁bankruptcy	-10643
▁blacklined	-10644
▁candidates	-10645
▁characters	-10646
▁collateral	-10647
▁colleagues	-10648
▁compatible	-10649
▁compensate	-10650
▁complained	-10651
▁conclusion	-10652
▁consulting	-10653
▁contracted	-10654
▁contradict	-10655
▁convincing	-10656
▁counseling	-10657
▁deposition	-10658
▁designated	-10659
▁disability	-10660
▁downstream	-10661
▁ecosystems	-10662
▁efficiency	-10663
▁eliminated	-10664
▁enchiladas	-10665
▁engagement	-10666
▁explaining	-10667
▁extradited	-10668
▁extremists	-10669
▁foreigners	-10670
▁frustrated	-10671
▁functional	-10672
▁generating	-10673
▁identified	-10674
▁identifies	-10675
▁impressive	-10676
▁incomplete	-10677
▁indication	-10678
▁infections	-10679
▁inoperable	-10680
▁installing	-10681
▁insurgency	-10682
▁kilometres	-10683
▁maintained	-10684
▁meticulous	-10685
▁mysterious	-10686
▁obligation	-10687
▁parliament	-10688
▁pleasantly	-10689
▁prohibited	-10690
▁provisions	-10691
▁questioned	-10692
▁reconsider	-10693
▁recruiting	-10694
▁regulation	-10695
▁reimbursed	-10696
▁remembered	-10697
▁situations	-10698
▁sufficient	-10699
▁supporters	-10700
▁suspicious	-10701
▁technician	-10702
▁threatened	-10703
▁tremendous	-10704
▁ultimately	-10705
▁understood	-10706
▁university	-10707
▁untalented	-10708
▁vegetarian	-10709
▁worthwhile	-10710
▁Application	-10711
▁Corporation	-10712
▁Description	-10713
▁Electricity	-10714
▁Netherlands	-10715
▁Stipulation	-10716
▁Switzerland	-10717
▁___________	-10718
▁accessories	-10719
▁accumulated	-10720
▁acupuncture	-10721
▁attachments	-10722
▁communicate	-10723
▁communities	-10724
▁connections	-10725
▁consumption	-10726
▁controllers	-10727
▁countryside	-10728
▁destination	-10729
▁discrepancy	-10730
▁distinction	-10731
▁educational	-10732
▁efficiently	-10733
▁exploration	-10734
▁extradition	-10735
▁generations	-10736
▁governments	-10737
▁hospitality	-10738
▁imagination	-10739
▁implemented	-10740
▁importantly	-10741
▁individuals	-10742
▁inexpensive	-10743
▁informative	-10744
▁intercepted	-10745
▁interviewed	-10746
▁legislative	-10747
▁negotiating	-10748
▁nutritional	-10749
▁operational	-10750
▁optionality	-10751
▁perspective	-10752
▁politicians	-10753
▁proceedings	-10754
▁prosecution	-10755
▁publication	-10756
▁researchers	-10757
▁researching	-10758
▁spectacular	-10759
▁substantial	-10760
▁substantive	-10761
▁territorial	-10762
▁territories	-10763
▁transferred	-10764
▁transported	-10765
▁undermining	-10766
▁whereabouts	-10767
▁workmanship	-10768
▁Presentation	-10769
▁Professional	-10770
▁Thanksgiving	-10771
▁accidentally	-10772
▁articulating	-10773
▁congregation	-10774
▁conservative	-10775
▁consistently	-10776
▁deregulation	-10777
▁destinations	-10778
▁deteriorated	-10779
▁differential	-10780
▁difficulties	-10781
▁governmental	-10782
▁impenetrable	-10783
▁implementing	-10784
▁incorporates	-10785
▁increasingly	-10786
▁individually	-10787
▁intercompany	-10788
▁interference	-10789
▁neurological	-10790
▁northeastern	-10791
▁presidential	-10792
▁representing	-10793
▁satisfaction	-10794
▁satisfactory	-10795
▁successfully	-10796
▁sympathizers	-10797
▁technologies	-10798
▁transmission	-10799
▁accommodation	-10800
▁acupuncturist	-10801
▁authorization	-10802
▁contributions	-10803
▁controversial	-10804
▁extraordinary	-10805
▁functionality	-10806
▁impressionist	-10807
▁relationships	-10808
▁undergraduate	-10809
▁unfortunately	-10810
▁Administrative	-10811
▁Representative	-10812
▁correspondence	-10813
▁disappointment	-10814
▁professionally	-10815
▁reintroduction	-10816
▁substantiation	-10817
▁fundamentalists	-10818
01	-10819
1-	-10820
13	-10821
21	-10822
24	-10823
46	-10824
52	-10825
57	-10826
69	-10827
8.	-10828
9/	-10829
96	-10830
AG	-10831
AI	-10832
AK	-10833
BL	-10834
CA	-10835
DI	-10836
DR	-10837
DS	-10838
EA	-10839
EF	-10840
FI	-10841
GY	-10842
HN	-10843
In	-10844
Le	-10845
MM	-10846
ND	-10847
OF	-10848
OT	-10849
PL	-10850
RO	-10851
SS	-10852
St	-10853
TW	-10854
TY	-10855
UD	-10856
UE	-10857
Wh	-10858
YL	-10859
ZZ	-10860
cf	-10861
cr	-10862
ea	-10863
eu	-10864
fr	-10865
fy	-10866
gc	-10867
iF	-10868
iu	-10869
iy	-10870
kn	-10871
mn	-10872
oa	-10873
pa	-10874
po	-10875
tr	-10876
uz	-10877
vd	-10878
vy	-10879
zb	-10880
zh	-10881
zi	-10882
.2.	-10883
/15	-10884
/20	-10885
02.	-10886
140	-10887
143	-10888
183	-10889
20-	-10890
484	-10891
676	-10892
700	-10893
806	-10894
:22	-10895
ACE	-10896
AID	-10897
ALK	-10898
ANK	-10899
7.	-10900
YS	-10901
sj	-10902
514	-10903
6-5	-10904
922	-10905
BER	-10906
CIA	-10907
GCP	-10908
GTS	-10909
LIM	-10910
May	-10911
OLU	-10912
PLE	-10913
Sus	-10914
ULA	-10915
ULE	-10916
_28	-10917
abs	-10918
adi	-10919
aiz	-10920
ajp	-10921
akk	-10922
alp	-10923
ami	-10924
amy	-10925
ani	-10926
anu	-10927
apa	-10928
ati	-10929
awk	-10930
aya	-10931
azz	-10932
bag	-10933
bes	-10934
bor	-10935
bre	-10936
cad	-10937
chi	-10938
cic	-10939
cod	-10940
cts	-10941
dam	-10942
dog	-10943
eap	-10944
edo	-10945
eis	-10946
eks	-10947
enf	-10948
erc	-10949
erm	-10950
eur	-10951
gaw	-10952
gee	-10953
gim	-10954
gob	-10955
haz	-10956
heu	-10957
hew	-10958
iau	-10959
ila	-10960
imi	-10961
ioc	-10962
irk	-10963
iry	-10964
isd	-10965
isy	-10966
ita	-10967
jay	-10968
jum	-10969
kan	-10970
kim	-10971
lez	-10972
lim	-10973
lis	-10974
mon	-10975
mus	-10976
nex	-10977
oms	-10978
oso	-10979
oub	-10980
pez	-10981
poc	-10982
raS	-10983
rag	-10984
rif	-10985
rii	-10986
rot	-10987
san	-10988
sef	-10989
tim	-10990
tly	-10991
uis	-10992
ula	-10993
uld	-10994
url	-10995
usa	-10996
utj	-10997
was	-10998
xus	-10999
eos	-11000
fab	-11001
tef	-11002
tem	-11003
zes	-11004
▁!.	-11005
▁))	-11006
▁.!	-11007
▁2/	-11008
▁48	-11009
▁54	-11010
▁78	-11011
▁92	-11012
▁BP	-11013
▁BU	-11014
▁CF	-11015
▁Cr	-11016
▁DS	-11017
▁Dh	-11018
▁EI	-11019
▁EL	-11020
▁EU	-11021
▁Ep	-11022
▁FI	-11023
▁Fr	-11024
▁GE	-11025
▁GI	-11026
▁Gi	-11027
▁Hz	-11028
▁IC	-11029
▁IL	-11030
▁IV	-11031
▁Id	-11032
▁JI	-11033
▁JO	-11034
▁Ki	-11035
▁MI	-11036
▁MS	-11037
▁MU	-11038
▁NM	-11039
▁NV	-11040
▁NX	-11041
▁NZ	-11042
▁Og	-11043
▁Ol	-11044
▁Po	-11045
▁Pu	-11046
▁Py	-11047
▁RO	-11048
▁SM	-11049
▁SN	-11050
▁Sn	-11051
▁TG	-11052
▁TX	-11053
▁Tm	-11054
▁UH	-11055
▁UP	-11056
▁Ul	-11057
▁VP	-11058
▁Wo	-11059
▁YE	-11060
▁ba	-11061
▁cd	-11062
▁df	-11063
▁dy	-11064
▁fi	-11065
▁ie	-11066
▁kg	-11067
▁ll	-11068
▁pc	-11069
▁ts	-11070
▁uh	-11071
▁ya	-11072
-05-	-11073
.975	-11074
11/0	-11075
1696	-11076
202.	-11077
3744	-11078
435-	-11079
5-62	-11080
5-80	-11081
518-	-11082
6021	-11083
621.	-11084
6933	-11085
7/08	-11086
782.	-11087
7822	-11088
8317	-11089
9019	-11090
>===	-11091
ANSR	-11092
DGET	-11093
IMES	-11094
KERS	-11095
ONEY	-11096
OUGH	-11097
RILL	-11098
RRRR	-11099
aph	-11100
apl	-11101
Line	-11102
acam	-11103
acey	-11104
acie	-11105
acon	-11106
acos	-11107
adem	-11108
ader	-11109
agle	-11110
aker	-11111
aled	-11112
alue	-11113
amet	-11114
ansk	-11115
apel	-11116
aple	-11117
aren	-11118
arer	-11119
artm	-11120
artp	-11121
ashi	-11122
atel	-11123
atho	-11124
aved	-11125
bage	-11126
bers	-11127
bits	-11128
case	-11129
ceiv	-11130
earn	-11131
eath	-11132
eers	-11133
elta	-11134
emed	-11135
enas	-11136
endy	-11137
enni	-11138
enth	-11139
ento	-11140
eott	-11141
eper	-11142
eriv	-11143
esis	-11144
etin	-11145
etre	-11146
eves	-11147
fair	-11148
fere	-11149
fers	-11150
ffes	-11151
fire	-11152
fund	-11153
furn	-11154
gant	-11155
gies	-11156
hair	-11157
haka	-11158
heit	-11159
herd	-11160
hers	-11161
hran	-11162
iasm	-11163
icut	-11164
ifty	-11165
ilos	-11166
indi	-11167
inka	-11168
inum	-11169
issa	-11170
isse	-11171
itig	-11172
itol	-11173
izab	-11174
izon	-11175
kers	-11176
kind	-11177
lash	-11178
lder	-11179
ldom	-11180
lema	-11181
lict	-11182
loss	-11183
manG	-11184
mani	-11185
mers	-11186
mmas	-11187
mmor	-11188
mpus	-11189
ndom	-11190
obar	-11191
ogue	-11192
oler	-11193
omen	-11194
onge	-11195
oooo	-11196
opic	-11197
oppy	-11198
orad	-11199
608	-11200
COT	-11201
mak	-11202
nep	-11203
zak	-11204
▁0.	-11205
asia	-11206
edia	-11207
oram	-11208
oran	-11209
orch	-11210
orpe	-11211
orse	-11212
osen	-11213
ostr	-11214
oute	-11215
oyce	-11216
perc	-11217
pert	-11218
phen	-11219
phew	-11220
pite	-11221
plex	-11222
quis	-11223
rage	-11224
rate	-11225
resa	-11226
reve	-11227
rewd	-11228
rich	-11229
riel	-11230
rike	-11231
rior	-11232
rock	-11233
rown	-11234
rull	-11235
site	-11236
sole	-11237
stan	-11238
star	-11239
tail	-11240
tanu	-11241
text	-11242
uded	-11243
udes	-11244
ueck	-11245
uild	-11246
ulbs	-11247
ulif	-11248
umst	-11249
uous	-11250
usal	-11251
velt	-11252
veux	-11253
wolf	-11254
wter	-11255
zhou	-11256
▁101	-11257
▁104	-11258
▁113	-11259
▁130	-11260
▁270	-11261
▁380	-11262
▁4.7	-11263
▁6.1	-11264
▁600	-11265
▁665	-11266
▁804	-11267
▁:-)	-11268
▁ABS	-11269
▁ALS	-11270
▁Ali	-11271
▁Apl	-11272
▁Aqu	-11273
▁Ary	-11274
▁BUN	-11275
▁Ber	-11276
▁Bum	-11277
▁CHR	-11278
▁CHS	-11279
▁Cam	-11280
▁Cat	-11281
▁Chi	-11282
▁Cla	-11283
▁Cox	-11284
▁Cre	-11285
▁DIN	-11286
▁DeC	-11287
▁Det	-11288
▁Dri	-11289
▁Dud	-11290
▁ENJ	-11291
▁ENW	-11292
▁ESA	-11293
▁EXP	-11294
▁Egg	-11295
▁Env	-11296
▁Eur	-11297
▁FRE	-11298
▁FUC	-11299
:29	-11300
:33	-11301
ARW	-11302
jah	-11303
lag	-11304
ruk	-11305
▁51	-11306
▁72	-11307
▁Vi	-11308
_28_	-11309
hile	-11310
ipur	-11311
irer	-11312
ords	-11313
osex	-11314
robe	-11315
▁400	-11316
▁Ans	-11317
▁BAS	-11318
▁BOX	-11319
▁Fel	-11320
▁Few	-11321
▁Fis	-11322
▁Fly	-11323
▁Fra	-11324
▁GET	-11325
▁Gal	-11326
▁Gap	-11327
▁Haw	-11328
▁Hen	-11329
▁Hit	-11330
▁Hun	-11331
▁Inn	-11332
▁Ins	-11333
▁Jup	-11334
▁KEV	-11335
▁Kil	-11336
▁Kos	-11337
▁Kut	-11338
▁LAT	-11339
▁LIT	-11340
▁Lis	-11341
▁Log	-11342
▁Lot	-11343
▁Mab	-11344
▁Max	-11345
▁Mia	-11346
▁Mim	-11347
▁Mob	-11348
▁NOW	-11349
▁Nag	-11350
▁Nie	-11351
▁Oly	-11352
▁Own	-11353
▁PJM	-11354
▁PRO	-11355
▁Pam	-11356
▁Pin	-11357
▁Pis	-11358
▁Pom	-11359
▁Pra	-11360
▁Rab	-11361
▁Rib	-11362
▁Run	-11363
▁SEC	-11364
▁Sar	-11365
▁Say	-11366
▁Sel	-11367
▁Tet	-11368
▁Tik	-11369
▁Tob	-11370
▁Tol	-11371
▁Toy	-11372
▁Tro	-11373
▁Ugh	-11374
▁Use	-11375
▁Vet	-11376
▁Vol	-11377
▁WAY	-11378
▁Wax	-11379
▁Wen	-11380
▁Yea	-11381
▁Yet	-11382
▁adm	-11383
▁aer	-11384
▁ail	-11385
▁arr	-11386
▁asp	-11387
▁ate	-11388
▁bac	-11389
▁bea	-11390
▁bef	-11391
▁bid	-11392
▁bmc	-11393
▁bob	-11394
▁cow	-11395
▁cro	-11396
▁dth	-11397
▁era	-11398
▁fur	-11399
IAN	-11400
OCE	-11401
cky	-11402
▁66	-11403
▁73	-11404
awna	-11405
down	-11406
quez	-11407
rane	-11408
rene	-11409
risy	-11410
▁BEN	-11411
▁DEC	-11412
▁GMT	-11413
▁RER	-11414
▁SAL	-11415
▁Shr	-11416
▁Sto	-11417
▁USE	-11418
▁gam	-11419
▁gem	-11420
▁gig	-11421
▁gou	-11422
▁hay	-11423
▁hob	-11424
▁huh	-11425
▁joy	-11426
▁jun	-11427
▁jur	-11428
▁lam	-11429
▁lax	-11430
▁les	-11431
▁lou	-11432
▁max	-11433
▁mex	-11434
▁mir	-11435
▁nap	-11436
▁ner	-11437
▁ole	-11438
▁org	-11439
▁pac	-11440
▁ped	-11441
▁pin	-11442
▁pit	-11443
▁pod	-11444
▁pow	-11445
▁quo	-11446
▁ram	-11447
▁raw	-11448
▁ren	-11449
▁rib	-11450
▁rif	-11451
▁rot	-11452
▁sie	-11453
▁ski	-11454
▁som	-11455
▁sow	-11456
▁spa	-11457
▁sty	-11458
▁tag	-11459
▁teh	-11460
▁til	-11461
▁tol	-11462
▁umb	-11463
▁uni	-11464
▁ves	-11465
▁wis	-11466
▁wra	-11467
▁yam	-11468
▁yor	-11469
.713.	-11470
60-33	-11471
69377	-11472
<----	-11473
EDULE	-11474
ENNER	-11475
ERNOB	-11476
HOUSE	-11477
NMENT	-11478
OCEED	-11479
acher	-11480
acing	-11481
adays	-11482
adium	-11483
agged	-11484
aired	-11485
ajpay	-11486
akkai	-11487
alist	-11488
alkat	-11489
alled	-11490
amber	-11491
aming	-11492
andra	-11493
annon	-11494
ansol	-11495
antar	-11496
antif	-11497
anutj	-11498
arest	-11499
VEN	-11500
ahy	-11501
ANNE	-11502
aath	-11503
dict	-11504
ggie	-11505
ibur	-11506
ibus	-11507
mund	-11508
phot	-11509
weat	-11510
▁102	-11511
▁110	-11512
▁770	-11513
▁Ask	-11514
▁Bew	-11515
▁caf	-11516
arked	-11517
arten	-11518
ascus	-11519
asted	-11520
aters	-11521
atine	-11522
atter	-11523
aware	-11524
azine	-11525
bread	-11526
calfe	-11527
ccess	-11528
ceded	-11529
chtel	-11530
count	-11531
cover	-11532
cutta	-11533
eling	-11534
enail	-11535
endor	-11536
endra	-11537
ensus	-11538
eping	-11539
esses	-11540
front	-11541
garet	-11542
gered	-11543
gical	-11544
gmail	-11545
haust	-11546
heres	-11547
hetic	-11548
ibley	-11549
ieval	-11550
igner	-11551
imary	-11552
iment	-11553
inect	-11554
iques	-11555
isers	-11556
isode	-11557
istle	-11558
iston	-11559
isure	-11560
itime	-11561
ixote	-11562
jumah	-11563
ltraS	-11564
lygam	-11565
nepco	-11566
ocate	-11567
ocide	-11568
ocons	-11569
oneer	-11570
oning	-11571
onsin	-11572
ortic	-11573
osmic	-11574
ossum	-11575
ostic	-11576
othko	-11577
otive	-11578
otton	-11579
outhe	-11580
oving	-11581
oweap	-11582
peare	-11583
perse	-11584
phone	-11585
pland	-11586
pleas	-11587
quent	-11588
ranom	-11589
reced	-11590
renic	-11591
repid	-11592
rised	-11593
ritis	-11594
rokee	-11595
romat	-11596
roved	-11597
rying	-11598
rylic	-11599
221	-11600
ORD	-11601
642-	-11602
AVEL	-11603
alka	-11604
erto	-11605
etta	-11606
expn	-11607
oves	-11608
unix	-11609
▁253	-11610
▁AMI	-11611
▁Amy	-11612
▁Dee	-11613
▁MIS	-11614
▁MTM	-11615
▁Six	-11616
-1281	-11617
-642-	-11618
SWORD	-11619
affle	-11620
inals	-11621
older	-11622
stant	-11623
stown	-11624
throw	-11625
uable	-11626
umble	-11627
unity	-11628
ureen	-11629
ustry	-11630
uting	-11631
uttle	-11632
valam	-11633
valry	-11634
zalka	-11635
zzini	-11636
▁!!!?	-11637
▁04:4	-11638
▁1530	-11639
▁1600	-11640
▁1990	-11641
▁3143	-11642
▁315-	-11643
▁7484	-11644
▁8140	-11645
▁9221	-11646
▁Abby	-11647
▁Alph	-11648
▁Ange	-11649
▁Anim	-11650
▁Anna	-11651
▁Anth	-11652
▁Area	-11653
▁Arrv	-11654
▁Arth	-11655
▁Attn	-11656
▁Beth	-11657
▁Blog	-11658
▁Bond	-11659
▁Cage	-11660
▁Cash	-11661
▁Cass	-11662
▁Code	-11663
▁Coil	-11664
▁Conc	-11665
▁Cran	-11666
▁Crow	-11667
▁Derr	-11668
▁Done	-11669
▁Drew	-11670
▁Elli	-11671
▁Enqu	-11672
▁Expl	-11673
▁FANT	-11674
▁FIRE	-11675
▁FOUR	-11676
▁Fair	-11677
▁Fest	-11678
▁Fill	-11679
▁Fire	-11680
▁Four	-11681
▁Free	-11682
▁Gill	-11683
▁Gone	-11684
▁Hand	-11685
▁Hawi	-11686
▁Hezb	-11687
▁Hick	-11688
▁Hist	-11689
▁Hold	-11690
▁Horm	-11691
▁Hour	-11692
▁Indo	-11693
▁Ivan	-11694
▁Jaze	-11695
▁Jenn	-11696
▁Jint	-11697
▁LAUR	-11698
▁LIST	-11699
GIN	-11700
IND	-11701
azy	-11702
▁95	-11703
3119	-11704
9/00	-11705
azes	-11706
▁Boj	-11707
▁Naz	-11708
▁PAS	-11709
▁UTH	-11710
-0365	-11711
TONIO	-11712
acles	-11713
aitra	-11714
anied	-11715
armad	-11716
child	-11717
grace	-11718
iodef	-11719
itute	-11720
ivero	-11721
known	-11722
lando	-11723
terms	-11724
yster	-11725
▁4-12	-11726
▁Ayat	-11727
▁Cray	-11728
▁Fuji	-11729
▁Land	-11730
▁Liau	-11731
▁Life	-11732
▁Lone	-11733
▁Lore	-11734
▁Loss	-11735
▁Lost	-11736
▁Lucy	-11737
▁Lynn	-11738
▁MUCH	-11739
▁Mach	-11740
▁Mare	-11741
▁Mass	-11742
▁Mech	-11743
▁Mell	-11744
▁Mess	-11745
▁Mind	-11746
▁Momm	-11747
▁Nail	-11748
▁Name	-11749
▁Napa	-11750
▁Nile	-11751
▁Nope	-11752
▁OPEN	-11753
▁Page	-11754
▁Pash	-11755
▁Perv	-11756
▁PetS	-11757
▁Phot	-11758
▁Phys	-11759
▁Pitt	-11760
▁Pool	-11761
▁Prep	-11762
▁Pres	-11763
▁Rate	-11764
▁Real	-11765
▁Requ	-11766
▁Shee	-11767
▁Shen	-11768
▁Shep	-11769
▁Shuk	-11770
▁Smut	-11771
▁Sony	-11772
▁Stud	-11773
▁Such	-11774
▁Swap	-11775
▁Taco	-11776
▁Tear	-11777
▁Tina	-11778
▁Tree	-11779
▁Trip	-11780
▁Triv	-11781
▁True	-11782
▁Turk	-11783
▁UCAN	-11784
▁Unre	-11785
▁WARW	-11786
▁Wait	-11787
▁Wall	-11788
▁Weil	-11789
▁Xbox	-11790
▁abol	-11791
▁adop	-11792
▁alar	-11793
▁alum	-11794
▁ants	-11795
▁appy	-11796
▁atty	-11797
▁bait	-11798
▁bang	-11799
BUL	-11800
upi	-11801
.2.1	-11802
88.9	-11803
aleh	-11804
book	-11805
euci	-11806
pecc	-11807
remy	-11808
▁129	-11809
▁512	-11810
▁ISS	-11811
▁NYE	-11812
▁Ono	-11813
▁Orr	-11814
▁PhD	-11815
▁SOU	-11816
▁cup	-11817
2.676	-11818
arale	-11819
bably	-11820
inced	-11821
ridge	-11822
▁Book	-11823
▁Cook	-11824
▁Exoc	-11825
▁Lara	-11826
▁Male	-11827
▁WebL	-11828
▁arrv	-11829
▁batt	-11830
▁beak	-11831
▁bean	-11832
▁beds	-11833
▁beef	-11834
▁bees	-11835
▁bent	-11836
▁bidd	-11837
▁blew	-11838
▁blur	-11839
▁bore	-11840
▁bout	-11841
▁brig	-11842
▁brow	-11843
▁buck	-11844
▁bund	-11845
▁calf	-11846
▁cave	-11847
▁cere	-11848
▁chat	-11849
▁clue	-11850
▁coat	-11851
▁cogn	-11852
▁cork	-11853
▁cuis	-11854
▁cust	-11855
▁dear	-11856
▁deck	-11857
▁deer	-11858
▁disg	-11859
▁dove	-11860
▁ease	-11861
▁enab	-11862
▁ende	-11863
▁enro	-11864
▁fant	-11865
▁fare	-11866
▁farm	-11867
▁feas	-11868
▁feet	-11869
▁fins	-11870
▁fles	-11871
▁foie	-11872
▁gard	-11873
▁gest	-11874
▁grac	-11875
▁gras	-11876
▁gray	-11877
▁guer	-11878
▁gull	-11879
▁hack	-11880
▁hamm	-11881
▁heck	-11882
▁herd	-11883
▁hers	-11884
▁hill	-11885
▁holl	-11886
▁hose	-11887
▁jail	-11888
▁jaws	-11889
▁jets	-11890
▁keys	-11891
▁lace	-11892
▁lazy	-11893
▁leak	-11894
▁lean	-11895
▁lens	-11896
▁lets	-11897
▁lift	-11898
▁ling	-11899
ISA	-11900
SIS	-11901
1234	-11902
ILLY	-11903
dney	-11904
▁360	-11905
▁EAT	-11906
▁GIS	-11907
▁tug	-11908
OLUTE	-11909
althy	-11910
ascin	-11911
chchi	-11912
efied	-11913
rayed	-11914
▁1:30	-11915
▁Diet	-11916
▁Guth	-11917
▁Luck	-11918
▁Merr	-11919
▁Orig	-11920
▁Troy	-11921
▁VISA	-11922
▁Vald	-11923
▁dude	-11924
▁lith	-11925
▁loop	-11926
▁loot	-11927
▁lose	-11928
▁math	-11929
▁mode	-11930
▁mont	-11931
▁myst	-11932
▁nick	-11933
▁obed	-11934
▁omin	-11935
▁orth	-11936
▁outs	-11937
▁pact	-11938
▁padd	-11939
▁pale	-11940
▁panc	-11941
▁peak	-11942
▁perp	-11943
▁phon	-11944
▁pill	-11945
▁plun	-11946
▁poop	-11947
▁pork	-11948
▁pret	-11949
▁prey	-11950
▁prin	-11951
▁proc	-11952
▁prud	-11953
▁rack	-11954
▁radi	-11955
▁raid	-11956
▁rect	-11957
▁reef	-11958
▁refr	-11959
▁rely	-11960
▁rend	-11961
▁reop	-11962
▁rins	-11963
▁rose	-11964
▁sash	-11965
▁scan	-11966
▁sche	-11967
▁scoo	-11968
▁scru	-11969
▁seiz	-11970
▁shif	-11971
▁shit	-11972
▁skip	-11973
▁slic	-11974
▁slip	-11975
▁snow	-11976
▁sony	-11977
▁span	-11978
▁spin	-11979
▁stem	-11980
▁stil	-11981
▁stir	-11982
▁stoo	-11983
▁tabs	-11984
▁thin	-11985
▁tong	-11986
▁unbe	-11987
▁unde	-11988
▁unne	-11989
▁uphe	-11990
▁user	-11991
▁vain	-11992
▁vary	-11993
▁vial	-11994
▁vide	-11995
▁ward	-11996
▁ware	-11997
▁wars	-11998
▁wasp	-11999
:23	-12000
:31	-12001
:36	-12002
URN	-12003
INTS	-12004
KING	-12005
TING	-12006
burg	-12007
ikon	-12008
umbo	-12009
▁3.5	-12010
▁Fei	-12011
▁Hik	-12012
▁SUN	-12013
▁esp	-12014
ATING	-12015
inned	-12016
ramid	-12017
▁ADSL	-12018
▁Adri	-12019
▁Atta	-12020
▁Cole	-12021
▁Ferr	-12022
▁edge	-12023
▁emit	-12024
▁maul	-12025
▁pupp	-12026
▁whim	-12027
▁wilt	-12028
▁wins	-12029
▁wire	-12030
▁worn	-12031
▁yeah	-12032
/15/99	-12033
1-9019	-12034
1/2001	-12035
2/2000	-12036
3/2001	-12037
69381-	-12038
:39:56	-12039
ANDING	-12040
August	-12041
IOUSLY	-12042
TRANSR	-12043
adianz	-12044
adings	-12045
ailand	-12046
ailing	-12047
alling	-12048
alties	-12049
ankman	-12050
arents	-12051
athist	-12052
aurant	-12053
berger	-12054
celing	-12055
cement	-12056
centre	-12057
ceptor	-12058
ecided	-12059
enship	-12060
erable	-12061
ercise	-12062
ermott	-12063
ernest	-12064
erspot	-12065
estyle	-12066
fering	-12067
fights	-12068
gawatt	-12069
gments	-12070
hereff	-12071
igeria	-12072
ignant	-12073
igning	-12074
iliate	-12075
imetre	-12076
inging	-12077
inkles	-12078
ionist	-12079
iotape	-12080
iotics	-12081
ipedia	-12082
isfied	-12083
istent	-12084
isters	-12085
ithrax	-12086
keeper	-12087
lement	-12088
liance	-12089
liners	-12090
lipped	-12091
mailed	-12092
makers	-12093
manGod	-12094
market	-12095
master	-12096
mayurs	-12097
merged	-12098
minate	-12099
5-2	-12100
:55	-12101
ART	-12102
ARY	-12103
307.	-12104
gimp	-12105
ophy	-12106
rosh	-12107
▁220	-12108
▁Guy	-12109
▁OLY	-12110
▁SCH	-12111
▁Spa	-12112
0307.	-12113
8-780	-12114
iocre	-12115
▁Cats	-12116
▁Edin	-12117
▁FITN	-12118
▁Orla	-12119
▁Spot	-12120
▁Vics	-12121
▁fixt	-12122
▁holy	-12123
▁nonb	-12124
▁ruin	-12125
autics	-12126
gimped	-12127
mnibus	-12128
nament	-12129
ocking	-12130
onesia	-12131
ortium	-12132
othing	-12133
ouched	-12134
oulder	-12135
ounter	-12136
ousand	-12137
outing	-12138
papers	-12139
people	-12140
placed	-12141
redict	-12142
remely	-12143
ribute	-12144
ricorn	-12145
rocery	-12146
roduce	-12147
rowave	-12148
rullah	-12149
rument	-12150
season	-12151
secure	-12152
seless	-12153
soever	-12154
terior	-12155
ternal	-12156
tunate	-12157
uating	-12158
uddled	-12159
ulates	-12160
ulsive	-12161
umbers	-12162
usters	-12163
verett	-12164
versal	-12165
weight	-12166
ylight	-12167
▁-----	-12168
▁01:09	-12169
▁01:14	-12170
▁03:58	-12171
▁05:37	-12172
▁07:24	-12173
▁08/03	-12174
▁09:14	-12175
▁1,200	-12176
▁10:25	-12177
▁10:56	-12178
▁11:07	-12179
▁11:35	-12180
▁2,000	-12181
▁2.975	-12182
▁6,000	-12183
▁68710	-12184
▁800-5	-12185
▁80435	-12186
▁Annex	-12187
▁Anwar	-12188
▁Apple	-12189
▁Aries	-12190
▁Asked	-12191
▁BASIC	-12192
▁Based	-12193
▁Bazar	-12194
▁Benef	-12195
▁Billy	-12196
▁Black	-12197
▁Blood	-12198
▁Bloom	-12199
67.	-12200
:40	-12201
OME	-12202
8600	-12203
EDES	-12204
oebe	-12205
swer	-12206
▁143	-12207
▁ASK	-12208
▁McM	-12209
▁NET	-12210
▁fuc	-12211
00-99	-12212
67.77	-12213
ronze	-12214
▁Harp	-12215
▁Rico	-12216
▁gtee	-12217
▁rode	-12218
rocosm	-12219
▁About	-12220
▁Brass	-12221
▁Brent	-12222
▁Bring	-12223
▁Bruce	-12224
▁Buyer	-12225
▁Chess	-12226
▁Child	-12227
▁Citiz	-12228
▁Clark	-12229
▁Clear	-12230
▁Click	-12231
▁Corey	-12232
▁Creek	-12233
▁DOING	-12234
▁Dartm	-12235
▁Delta	-12236
▁Deter	-12237
▁Dhaka	-12238
▁Diego	-12239
▁Drink	-12240
▁Dwarf	-12241
▁Emery	-12242
▁Exact	-12243
▁GOVER	-12244
▁Goodw	-12245
▁Guide	-12246
▁Hamid	-12247
▁Hmmmm	-12248
▁Horse	-12249
▁Huber	-12250
▁Human	-12251
▁Ineos	-12252
▁Irish	-12253
▁Janet	-12254
▁Jorge	-12255
▁Kapor	-12256
▁Karla	-12257
▁Kitty	-12258
▁Kline	-12259
▁Kueck	-12260
▁Kurds	-12261
▁Large	-12262
▁Lavor	-12263
▁Learn	-12264
▁Leave	-12265
▁Leite	-12266
▁Libra	-12267
▁Libya	-12268
▁Light	-12269
▁Lindh	-12270
▁Lotte	-12271
▁Lynch	-12272
▁Major	-12273
▁Makes	-12274
▁Maria	-12275
▁Marly	-12276
▁Medal	-12277
▁Media	-12278
▁Meier	-12279
▁Mills	-12280
▁Motor	-12281
▁Mount	-12282
▁Murph	-12283
▁Nicki	-12284
▁Ocean	-12285
▁Ogden	-12286
▁PHONE	-12287
▁PRESS	-12288
▁Pager	-12289
▁Parks	-12290
▁Patel	-12291
▁Pinto	-12292
▁Polit	-12293
▁Pract	-12294
▁Press	-12295
▁Print	-12296
▁Purch	-12297
▁QUEST	-12298
▁Quick	-12299
721	-12300
:21	-12301
URY	-12302
443-	-12303
ALAM	-12304
▁NAM	-12305
▁SAM	-12306
69334	-12307
LLENT	-12308
leyan	-12309
▁1937	-12310
▁DOOR	-12311
▁STOR	-12312
▁cows	-12313
▁fits	-12314
▁fray	-12315
▁wavy	-12316
mptoms	-12317
ourage	-12318
▁Deriv	-12319
▁Laure	-12320
▁Manne	-12321
▁Pache	-12322
▁Peels	-12323
▁RIGHT	-12324
▁Ramzi	-12325
▁Range	-12326
▁Rates	-12327
▁Regul	-12328
▁Rosem	-12329
▁Round	-12330
▁Rover	-12331
▁Rules	-12332
▁SOLAS	-12333
▁START	-12334
▁STEAK	-12335
▁SUPER	-12336
▁Sadat	-12337
▁Saleh	-12338
▁Sales	-12339
▁Sally	-12340
▁Scheu	-12341
▁Scorp	-12342
▁Sever	-12343
▁Sheik	-12344
▁Shona	-12345
▁Shrii	-12346
▁Sport	-12347
▁Starr	-12348
▁Stock	-12349
▁Stout	-12350
▁Subsc	-12351
▁Techn	-12352
▁Thanh	-12353
▁Thanx	-12354
▁Tough	-12355
▁Virgo	-12356
▁WHERE	-12357
▁Whore	-12358
▁admin	-12359
▁afflu	-12360
▁alike	-12361
▁analy	-12362
▁angel	-12363
▁annex	-12364
▁antib	-12365
▁arsen	-12366
▁asian	-12367
▁bands	-12368
▁beard	-12369
▁bench	-12370
▁blows	-12371
▁bluff	-12372
▁boots	-12373
▁boule	-12374
▁bound	-12375
▁brack	-12376
▁buddy	-12377
▁bulbs	-12378
▁burgl	-12379
▁busyb	-12380
▁canon	-12381
▁cared	-12382
▁cease	-12383
▁cited	-12384
▁clerk	-12385
▁colon	-12386
▁combo	-12387
▁comed	-12388
▁corps	-12389
▁crash	-12390
▁cured	-12391
▁curve	-12392
▁cycle	-12393
▁dedic	-12394
▁depot	-12395
▁dined	-12396
▁downs	-12397
▁drunk	-12398
▁dryer	-12399
.25	-12400
836	-12401
1111	-12402
1414	-12403
chta	-12404
▁Boi	-12405
ASTIC	-12406
ainey	-12407
▁07/1	-12408
▁Atef	-12409
▁Emma	-12410
▁Used	-12411
living	-12412
▁Diagn	-12413
▁Maine	-12414
▁Sarah	-12415
▁Touch	-12416
▁audio	-12417
▁drool	-12418
▁eater	-12419
▁edges	-12420
▁effem	-12421
▁elder	-12422
▁emper	-12423
▁enron	-12424
▁etiqu	-12425
▁expir	-12426
▁expon	-12427
▁expos	-12428
▁exter	-12429
▁fears	-12430
▁feeds	-12431
▁feild	-12432
▁fired	-12433
▁fires	-12434
▁flats	-12435
▁flops	-12436
▁fried	-12437
▁funny	-12438
▁genet	-12439
▁grace	-12440
▁grave	-12441
▁heave	-12442
▁hitch	-12443
▁hobby	-12444
▁holes	-12445
▁honey	-12446
▁icing	-12447
▁imper	-12448
▁index	-12449
▁input	-12450
▁jerks	-12451
▁juicy	-12452
▁jumps	-12453
▁karma	-12454
▁lasts	-12455
▁leads	-12456
▁leaks	-12457
▁lined	-12458
▁locks	-12459
▁lodge	-12460
▁longe	-12461
▁lying	-12462
▁marks	-12463
▁mayor	-12464
▁mayur	-12465
▁medal	-12466
▁melts	-12467
▁midst	-12468
▁minds	-12469
▁mines	-12470
▁misin	-12471
▁misst	-12472
▁monot	-12473
▁nicer	-12474
▁nicks	-12475
▁obliv	-12476
▁overb	-12477
▁pager	-12478
▁pairs	-12479
▁paris	-12480
▁pedic	-12481
▁picky	-12482
▁plate	-12483
▁potty	-12484
▁punct	-12485
▁ranch	-12486
▁reads	-12487
▁reaff	-12488
▁rebel	-12489
▁recal	-12490
▁refin	-12491
▁restr	-12492
▁retro	-12493
▁rider	-12494
▁ridic	-12495
▁rumor	-12496
▁scale	-12497
▁scand	-12498
▁scare	-12499
.24	-12500
108	-12501
650	-12502
NET	-12503
ACLE	-12504
▁268	-12505
▁3.2	-12506
▁BRI	-12507
▁ECC	-12508
▁FRI	-12509
▁Imp	-12510
▁RAC	-12511
.2461	-12512
.7184	-12513
00108	-12514
FINAL	-12515
gleth	-12516
▁Erin	-12517
▁Imag	-12518
▁Salt	-12519
▁Task	-12520
▁Tori	-12521
▁eyew	-12522
▁irre	-12523
ibaldi	-12524
▁Angie	-12525
▁Broke	-12526
▁COMES	-12527
▁Loose	-12528
▁PLACE	-12529
▁Roose	-12530
▁Salon	-12531
▁Terms	-12532
▁Years	-12533
▁excel	-12534
▁frame	-12535
▁merge	-12536
▁radar	-12537
▁radio	-12538
▁scene	-12539
▁schiz	-12540
▁scrat	-12541
▁sends	-12542
▁shade	-12543
▁sheep	-12544
▁shift	-12545
▁shine	-12546
▁shout	-12547
▁shrap	-12548
▁shred	-12549
▁sinks	-12550
▁sixth	-12551
▁slack	-12552
▁slept	-12553
▁slick	-12554
▁slide	-12555
▁smirk	-12556
▁smith	-12557
▁snack	-12558
▁socio	-12559
▁solar	-12560
▁solid	-12561
▁soups	-12562
▁spare	-12563
▁spell	-12564
▁spicy	-12565
▁spoil	-12566
▁spurs	-12567
▁stare	-12568
▁steam	-12569
▁steel	-12570
▁stone	-12571
▁stops	-12572
▁stove	-12573
▁stunk	-12574
▁subpo	-12575
▁sucks	-12576
▁sushi	-12577
▁swall	-12578
▁sweat	-12579
▁tacos	-12580
▁tamed	-12581
▁tasty	-12582
▁teams	-12583
▁teeth	-12584
▁therm	-12585
▁thief	-12586
▁tints	-12587
▁toile	-12588
▁totes	-12589
▁trait	-12590
▁trios	-12591
▁troub	-12592
▁units	-12593
▁usage	-12594
▁vegan	-12595
▁virus	-12596
▁wagon	-12597
▁walls	-12598
▁wider	-12599
RRR	-12600
haas	-12601
▁CPI	-12602
▁JUN	-12603
▁POP	-12604
▁POS	-12605
cache	-12606
▁1179	-12607
▁1575	-12608
▁1983	-12609
▁COST	-12610
▁SHOC	-12611
▁Tiff	-12612
▁WEEK	-12613
▁aunt	-12614
▁casc	-12615
▁junk	-12616
ingham	-12617
ooming	-12618
▁Denis	-12619
▁Eagle	-12620
▁Maint	-12621
▁Porte	-12622
▁Proxy	-12623
▁THANK	-12624
▁TIMES	-12625
▁uncut	-12626
▁waist	-12627
▁wield	-12628
▁wings	-12629
▁wires	-12630
▁wives	-12631
▁worst	-12632
▁yield	-12633
▁yummy	-12634
-05-02.	-12635
53-3119	-12636
ATIONAL	-12637
ERNOBYL	-12638
LIMITED	-12639
OLUTELY	-12640
adename	-12641
ajpayee	-12642
alpindi	-12643
anskrit	-12644
apeluna	-12645
atively	-12646
attered	-12647
castgob	-12648
cessary	-12649
clusive	-12650
duction	-12651
edayeen	-12652
felines	-12653
hemical	-12654
iburton	-12655
ichrist	-12656
idently	-12657
iferate	-12658
ificent	-12659
igation	-12660
ilising	-12661
inarily	-12662
inerary	-12663
inville	-12664
ionists	-12665
ishings	-12666
itively	-12667
itivity	-12668
ivative	-12669
lishing	-12670
ocation	-12671
ographs	-12672
ominium	-12673
onymous	-12674
ophases	-12675
orenste	-12676
osition	-12677
ourable	-12678
parents	-12679
patriot	-12680
percuss	-12681
pocrisy	-12682
portant	-12683
portion	-12684
radianz	-12685
ramento	-12686
reeding	-12687
riptive	-12688
ronicus	-12689
rosario	-12690
ructive	-12691
sources	-12692
strated	-12693
umental	-12694
utional	-12695
▁21,000	-12696
▁3,202.	-12697
▁3/8/00	-12698
▁42,000	-12699
▁979	-12700
▁EDT	-12701
▁PSP	-12702
▁SEO	-12703
▁mpg	-12704
India	-12705
OUBLE	-12706
encer	-12707
ithet	-12708
visor	-12709
▁1504	-12710
▁Akin	-12711
▁Buis	-12712
▁Duct	-12713
▁Flex	-12714
▁Gyan	-12715
▁Omar	-12716
▁doub	-12717
▁luna	-12718
▁soul	-12719
▁soup	-12720
▁synt	-12721
aliate	-12722
rowded	-12723
▁Ariel	-12724
▁BRING	-12725
▁Katie	-12726
▁Mails	-12727
▁Peggy	-12728
▁drops	-12729
▁genes	-12730
▁pools	-12731
▁queen	-12732
▁rocks	-12733
▁songs	-12734
itarian	-12735
sterdam	-12736
▁47,500	-12737
▁505-62	-12738
▁567.77	-12739
▁814014	-12740
▁Abbudi	-12741
▁Advice	-12742
▁Afraid	-12743
▁Alaska	-12744
▁Arakan	-12745
▁Autumn	-12746
▁Awards	-12747
▁BOTHER	-12748
▁Bengal	-12749
▁Blanco	-12750
▁Briggs	-12751
▁Campus	-12752
▁Carlos	-12753
▁Carrib	-12754
▁Carter	-12755
▁Cavern	-12756
▁Chaman	-12757
▁Cheese	-12758
▁Choate	-12759
▁Coming	-12760
▁DISPOS	-12761
▁Dealer	-12762
▁Decoud	-12763
▁Dental	-12764
▁Dublin	-12765
▁Dudley	-12766
▁Dulaim	-12767
▁Eating	-12768
▁Employ	-12769
▁Equine	-12770
▁Exotic	-12771
▁Fahren	-12772
▁Forces	-12773
▁Fossum	-12774
▁Garage	-12775
▁Gentle	-12776
▁Gibson	-12777
▁Golden	-12778
▁Hasina	-12779
▁Honest	-12780
▁Howrah	-12781
▁INTERN	-12782
▁Incred	-12783
▁Indeed	-12784
▁Islami	-12785
▁Ismail	-12786
▁Janell	-12787
▁Jintao	-12788
▁Kalkat	-12789
▁Kansas	-12790
▁Kaplan	-12791
▁Kilino	-12792
▁LITTLE	-12793
▁Levitt	-12794
▁Lihaib	-12795
▁Lounge	-12796
▁Mabruk	-12797
▁Maitra	-12798
▁Makkai	-12799
ucei	-12800
▁-2-	-12801
▁ETS	-12802
▁IPN	-12803
▁Upd	-12804
▁Wii	-12805
▁bpd	-12806
▁cyn	-12807
▁11.5	-12808
▁202-	-12809
▁4:50	-12810
▁Dawa	-12811
▁Judy	-12812
▁Loop	-12813
▁MOVE	-12814
▁Team	-12815
▁tuna	-12816
icipal	-12817
▁01:58	-12818
▁04:17	-12819
▁08:50	-12820
▁09:45	-12821
▁Bowen	-12822
▁CHICK	-12823
▁Ismat	-12824
▁Nobel	-12825
▁Ummmm	-12826
▁Wheel	-12827
▁aimed	-12828
▁baked	-12829
▁depth	-12830
▁irish	-12831
▁limbs	-12832
▁sunny	-12833
ACKLINE	-12834
olesale	-12835
▁ANYONE	-12836
▁Heaven	-12837
▁Maryam	-12838
▁Morgan	-12839
▁Morton	-12840
▁Mother	-12841
▁NOTICE	-12842
▁Newark	-12843
▁Offers	-12844
▁Ogleth	-12845
▁Online	-12846
▁Orwell	-12847
▁PEREGR	-12848
▁POINTS	-12849
▁Palace	-12850
▁Parish	-12851
▁Piccad	-12852
▁Pisces	-12853
▁Public	-12854
▁Quetta	-12855
▁Raging	-12856
▁Ramadi	-12857
▁Ranger	-12858
▁Recall	-12859
▁Repair	-12860
▁Return	-12861
▁Ritten	-12862
▁STARZZ	-12863
▁Seeing	-12864
▁Select	-12865
▁Series	-12866
▁Shakes	-12867
▁Sherri	-12868
▁Shrimp	-12869
▁Sibley	-12870
▁Simien	-12871
▁Simone	-12872
▁Simply	-12873
▁Singer	-12874
▁Stacey	-12875
▁Strong	-12876
▁Sydney	-12877
▁Talked	-12878
▁Tehran	-12879
▁Teresa	-12880
▁Things	-12881
▁Tikrit	-12882
▁Toledo	-12883
▁Towing	-12884
▁Toyota	-12885
▁Trails	-12886
▁Treaty	-12887
▁UNITED	-12888
▁Unlike	-12889
▁Usmani	-12890
▁Victor	-12891
▁Wallen	-12892
▁Warner	-12893
▁Weight	-12894
▁Willow	-12895
▁Winton	-12896
▁Wolves	-12897
▁Yousef	-12898
▁academ	-12899
LGG	-12900
415-	-12901
7-1.	-12902
MPUS	-12903
▁URS	-12904
▁WWW	-12905
ALITY	-12906
SIBLE	-12907
etchy	-12908
trans	-12909
▁Budd	-12910
▁Luan	-12911
▁Oslo	-12912
▁PLAN	-12913
▁lube	-12914
▁soph	-12915
ockius	-12916
roatia	-12917
▁03:48	-12918
▁04:28	-12919
▁04:37	-12920
▁10/31	-12921
▁10:34	-12922
▁6.2.1	-12923
▁APPRO	-12924
▁Irony	-12925
▁nostr	-12926
16.7184	-12927
▁Darren	-12928
▁LOCUST	-12929
▁NMANNE	-12930
▁Rockin	-12931
▁Rothko	-12932
▁Shawna	-12933
▁URSULA	-12934
▁Window	-12935
▁accent	-12936
▁accomp	-12937
▁addict	-12938
▁aerial	-12939
▁affirm	-12940
▁alarms	-12941
▁annual	-12942
▁aortic	-12943
▁applic	-12944
▁assure	-12945
▁autumn	-12946
▁backup	-12947
▁bakery	-12948
▁barbec	-12949
▁barrel	-12950
▁barren	-12951
▁begins	-12952
▁beside	-12953
▁biodef	-12954
▁blanco	-12955
▁bloody	-12956
▁boards	-12957
▁boiled	-12958
▁bomber	-12959
▁boring	-12960
▁brakes	-12961
▁breyer	-12962
▁bridal	-12963
▁bridge	-12964
▁brunch	-12965
▁burden	-12966
▁burner	-12967
▁burrow	-12968
▁buyers	-12969
▁cabins	-12970
▁camper	-12971
▁canned	-12972
▁casual	-12973
▁cattle	-12974
▁cement	-12975
▁censor	-12976
▁chains	-12977
▁chairs	-12978
▁chicks	-12979
▁childb	-12980
▁chores	-12981
▁chosen	-12982
▁coding	-12983
▁colony	-12984
▁compel	-12985
▁compre	-12986
▁confid	-12987
▁copied	-12988
▁corpor	-12989
▁costly	-12990
▁cotton	-12991
▁county	-12992
▁darker	-12993
▁define	-12994
▁demons	-12995
▁denote	-12996
▁deputy	-12997
▁desert	-12998
▁desper	-12999
-66	-13000
0295	-13001
9933	-13002
▁947	-13003
▁BBC	-13004
▁HOT	-13005
atiel	-13006
▁DSLR	-13007
▁HAND	-13008
▁Hmmm	-13009
▁Husk	-13010
▁Kids	-13011
▁MAKE	-13012
▁semi	-13013
INALLY	-13014
▁04:03	-13015
▁888.9	-13016
▁Arabs	-13017
▁Drive	-13018
▁ENJOY	-13019
▁Holga	-13020
▁Opera	-13021
▁Soper	-13022
▁Veter	-13023
▁loyal	-13024
▁scoop	-13025
▁wangs	-13026
artpury	-13027
▁759933	-13028
▁DeCook	-13029
▁Rachel	-13030
▁breeze	-13031
▁chapel	-13032
▁choppy	-13033
▁device	-13034
▁dilute	-13035
▁disenf	-13036
▁dissat	-13037
▁divers	-13038
▁domain	-13039
▁donate	-13040
▁drills	-13041
▁drying	-13042
▁duplic	-13043
▁editor	-13044
▁entert	-13045
▁equity	-13046
▁errors	-13047
▁excell	-13048
▁expire	-13049
▁explod	-13050
▁extrac	-13051
▁favour	-13052
▁fights	-13053
▁firmly	-13054
▁flower	-13055
▁folded	-13056
▁foster	-13057
▁france	-13058
▁gastro	-13059
▁geared	-13060
▁gently	-13061
▁google	-13062
▁grades	-13063
▁guacam	-13064
▁hammer	-13065
▁hangar	-13066
▁harass	-13067
▁hardly	-13068
▁hauled	-13069
▁heater	-13070
▁heaven	-13071
▁hectic	-13072
▁hereby	-13073
▁hiring	-13074
▁hisses	-13075
▁hosted	-13076
▁hourly	-13077
▁houses	-13078
▁humane	-13079
▁hummus	-13080
▁hyster	-13081
▁impose	-13082
▁insist	-13083
▁instig	-13084
▁intrig	-13085
▁intrud	-13086
▁junior	-13087
▁jurisd	-13088
▁kaplan	-13089
▁lately	-13090
▁layers	-13091
▁laying	-13092
▁lesion	-13093
▁linked	-13094
▁locked	-13095
▁locker	-13096
▁losses	-13097
▁magnet	-13098
▁mailed	-13099
human	-13100
nesty	-13101
▁AWOL	-13102
▁tiny	-13103
▁tort	-13104
otorua	-13105
▁*****	-13106
▁INSUL	-13107
▁Wazed	-13108
▁Wolak	-13109
▁gravy	-13110
▁Amelia	-13111
▁Clinic	-13112
▁Oracle	-13113
▁Posted	-13114
▁Reagan	-13115
▁Server	-13116
▁Stuart	-13117
▁Wolens	-13118
▁amazed	-13119
▁clinic	-13120
▁forbid	-13121
▁leaves	-13122
▁massac	-13123
▁millet	-13124
▁mining	-13125
▁monkey	-13126
▁mosque	-13127
▁multip	-13128
▁nephew	-13129
▁neuter	-13130
▁nicely	-13131
▁offers	-13132
▁orange	-13133
▁orient	-13134
▁outlet	-13135
▁output	-13136
▁overly	-13137
▁parale	-13138
▁pastor	-13139
▁payout	-13140
▁pencil	-13141
▁pepper	-13142
▁persue	-13143
▁pester	-13144
▁philos	-13145
▁phrase	-13146
▁piping	-13147
▁plates	-13148
▁podium	-13149
▁poorly	-13150
▁popped	-13151
▁potato	-13152
▁prayer	-13153
▁prizes	-13154
▁propag	-13155
▁psycho	-13156
▁publis	-13157
▁pursue	-13158
▁quotes	-13159
▁racing	-13160
▁racism	-13161
▁random	-13162
▁ranges	-13163
▁ranked	-13164
▁rebels	-13165
▁relief	-13166
▁rental	-13167
▁rented	-13168
▁repris	-13169
▁retail	-13170
▁retake	-13171
▁revise	-13172
▁rifles	-13173
▁rigged	-13174
▁rinsed	-13175
▁rocket	-13176
▁rounds	-13177
▁rudely	-13178
▁ruined	-13179
▁rumors	-13180
▁rushed	-13181
▁salads	-13182
▁scroll	-13183
▁sealed	-13184
▁seated	-13185
▁secess	-13186
▁setoff	-13187
▁shrink	-13188
▁signal	-13189
▁silkie	-13190
▁slaves	-13191
▁solved	-13192
▁sooner	-13193
▁spaces	-13194
▁spinal	-13195
▁staffs	-13196
▁stairs	-13197
▁statue	-13198
▁stifle	-13199
dslr	-13200
▁ABB	-13201
▁Eye	-13202
▁IEP	-13203
▁JPY	-13204
▁OMG	-13205
▁RAW	-13206
35172	-13207
Ellen	-13208
▁5/18	-13209
▁CORR	-13210
▁Endo	-13211
▁Gaza	-13212
▁Lysa	-13213
▁NCRC	-13214
▁PUTS	-13215
▁nurt	-13216
6-9004	-13217
onnell	-13218
rectly	-13219
warted	-13220
▁Ahmad	-13221
▁GROUP	-13222
▁Hazim	-13223
▁Julie	-13224
▁Karen	-13225
▁LOGIN	-13226
▁Latin	-13227
▁Nella	-13228
▁OWNER	-13229
▁Ruona	-13230
▁SCIRI	-13231
▁THREE	-13232
▁Tampa	-13233
▁Total	-13234
▁eerie	-13235
▁fluid	-13236
▁hedge	-13237
▁mezza	-13238
▁shoes	-13239
theless	-13240
▁Chavez	-13241
▁Coogan	-13242
▁Cruise	-13243
▁Dennis	-13244
▁Edmund	-13245
▁Gemini	-13246
▁Invest	-13247
▁Jersey	-13248
▁Purple	-13249
▁Search	-13250
▁Social	-13251
▁Tarawa	-13252
▁beauty	-13253
▁bypass	-13254
▁hatred	-13255
▁hunger	-13256
▁maniac	-13257
▁shaped	-13258
▁stored	-13259
▁streak	-13260
▁strife	-13261
▁subpar	-13262
▁sucked	-13263
▁suffix	-13264
▁survey	-13265
▁tables	-13266
▁tactic	-13267
▁talent	-13268
▁taller	-13269
▁tattoo	-13270
▁timefr	-13271
▁titled	-13272
▁tonnes	-13273
▁tossed	-13274
▁tracks	-13275
▁trades	-13276
▁tragic	-13277
▁trains	-13278
▁trauma	-13279
▁turkey	-13280
▁unanim	-13281
▁unders	-13282
▁uneven	-13283
▁versus	-13284
▁vision	-13285
▁voters	-13286
▁voting	-13287
▁wallet	-13288
▁warmly	-13289
▁wasted	-13290
▁wholly	-13291
▁widely	-13292
▁willow	-13293
------->	-13294
/10/2004	-13295
/11/2004	-13296
00108806	-13297
69334-1.	-13298
69377-1.	-13299
cfm	-13300
Stip	-13301
▁969	-13302
▁MWh	-13303
▁NDI	-13304
▁OBL	-13305
▁VOF	-13306
▁ACIA	-13307
▁GUYS	-13308
▁ICDC	-13309
▁IGTS	-13310
▁ROAD	-13311
▁SAID	-13312
▁SNAP	-13313
11/09/	-13314
5-8031	-13315
602175	-13316
leznov	-13317
timore	-13318
▁Birds	-13319
▁Kelly	-13320
▁Lexus	-13321
▁Beware	-13322
▁Chiara	-13323
▁Kriste	-13324
▁Method	-13325
▁Namsan	-13326
▁SPARKS	-13327
▁Sheila	-13328
▁Sweden	-13329
▁Taurus	-13330
▁barcod	-13331
▁guilds	-13332
▁lethal	-13333
▁subsid	-13334
69336-1.	-13335
69381-1.	-13336
69396-1.	-13337
69397-1.	-13338
===<----	-13339
IDENTIAL	-13340
amanager	-13341
aneously	-13342
approved	-13343
arianism	-13344
arranged	-13345
castgobl	-13346
clusions	-13347
ervation	-13348
hematics	-13349
icipants	-13350
idential	-13351
igerator	-13352
iliatory	-13353
irmation	-13354
isconsin	-13355
istances	-13356
iversary	-13357
lessness	-13358
lighting	-13359
mayursha	-13360
national	-13361
ographer	-13362
ographic	-13363
olerance	-13364
orically	-13365
ortunity	-13366
ostering	-13367
peccable	-13368
peration	-13369
personal	-13370
revision	-13371
ributing	-13372
riptions	-13373
rostatic	-13374
screened	-13375
spection	-13376
▁11/7/08	-13377
▁6871082	-13378
▁718-780	-13379
▁832.676	-13380
▁Adriana	-13381
▁Advance	-13382
▁Affairs	-13383
▁African	-13384
▁Algeria	-13385
▁Amnesty	-13386
▁Antique	-13387
▁Armatho	-13388
▁Austria	-13389
▁BRENNER	-13390
▁Balochi	-13391
▁Barrett	-13392
▁Bashers	-13393
▁Bechtel	-13394
▁Believe	-13395
▁Beschta	-13396
▁Billing	-13397
▁Bojinka	-13398
▁Bolivia	-13399
▁ALSO	-13400
▁sapl	-13401
460-33	-13402
mmorow	-13403
scopic	-13404
▁11608	-13405
▁4_28_	-13406
▁BUNCH	-13407
▁Becky	-13408
▁ERCOT	-13409
▁GRILL	-13410
▁LAURA	-13411
▁Leahy	-13412
▁MONEY	-13413
▁Noyce	-13414
▁apert	-13415
▁mitig	-13416
ameters	-13417
izabeth	-13418
rijumah	-13419
uilding	-13420
▁DINING	-13421
▁Hormuz	-13422
▁Puerto	-13423
▁Shreve	-13424
▁Strike	-13425
▁TRAVEL	-13426
▁Tropez	-13427
▁UltraS	-13428
▁Wigner	-13429
▁amazes	-13430
▁awhile	-13431
▁bacter	-13432
▁gambit	-13433
▁pewter	-13434
▁seldom	-13435
▁shrewd	-13436
▁sporad	-13437
▁wisdom	-13438
621.8317	-13439
782.7822	-13440
lygamous	-13441
ophrenic	-13442
▁Anthony	-13443
▁Asansol	-13444
▁Brandee	-13445
▁Britain	-13446
▁Capital	-13447
▁Capitol	-13448
▁Chandel	-13449
▁Chanley	-13450
▁Charles	-13451
▁Cheveux	-13452
▁Chicken	-13453
▁Clayton	-13454
▁Concern	-13455
▁Coordin	-13456
▁Counsel	-13457
▁Crayola	-13458
▁Croatia	-13459
▁Danelia	-13460
▁Debaath	-13461
▁Defense	-13462
▁Dempsey	-13463
▁Derrick	-13464
▁Despite	-13465
▁Dessert	-13466
▁Dollars	-13467
▁Driving	-13468
▁Elliott	-13469
▁Epstein	-13470
▁Eurasia	-13471
▁Everett	-13472
▁Fernand	-13473
▁Ferrari	-13474
▁Firstly	-13475
▁Fishman	-13476
▁Founder	-13477
▁Fraiser	-13478
▁Freeman	-13479
▁Fridays	-13480
▁Gallery	-13481
▁Getting	-13482
▁Guarant	-13483
▁Guthrie	-13484
▁HOWEVER	-13485
▁Harvard	-13486
▁Hawijah	-13487
▁Hickory	-13488
▁Hmmmmmm	-13489
▁Huskers	-13490
▁Indians	-13491
▁Jazeera	-13492
▁Jupiter	-13493
▁KEVALAM	-13494
▁Kevalam	-13495
▁Kingdom	-13496
▁Kitchen	-13497
▁Kurdish	-13498
▁Leaders	-13499
▁Answer	-13500
▁Jeremy	-13501
▁MILNET	-13502
▁PHILLY	-13503
435-0295	-13504
443-3744	-13505
▁ANTONIO	-13506
▁BRIDGET	-13507
▁Boulder	-13508
▁FITNESS	-13509
▁FUCKING	-13510
▁Goodwyn	-13511
▁Leaving	-13512
▁Lebanon	-13513
▁Looking	-13514
▁Loretta	-13515
▁Mailing	-13516
▁Manipur	-13517
▁Marquez	-13518
▁Massoud	-13519
▁Maureen	-13520
▁Maximum	-13521
▁Melanie	-13522
▁Merrist	-13523
▁Mexican	-13524
▁Nichols	-13525
▁Nicobar	-13526
▁OLYMPUS	-13527
▁OVERALL	-13528
▁Orlando	-13529
▁Outback	-13530
▁PROCEED	-13531
▁Pacheco	-13532
▁Parties	-13533
▁Pashtun	-13534
▁Perkins	-13535
▁Pervaiz	-13536
▁Phillip	-13537
▁Pilates	-13538
▁Pioneer	-13539
▁Primary	-13540
▁Problem	-13541
▁Project	-13542
▁Quixote	-13543
▁Rabbits	-13544
▁Ramtanu	-13545
▁Redwood	-13546
▁Regency	-13547
▁Reliant	-13548
▁Removes	-13549
▁Reserve	-13550
▁Respect	-13551
▁Retired	-13552
▁Reuters	-13553
▁Scheuer	-13554
▁Science	-13555
▁Scorpio	-13556
▁Shuttle	-13557
▁Sinhala	-13558
▁Skilled	-13559
▁Smutney	-13560
▁Station	-13561
▁Steffes	-13562
▁Stephen	-13563
▁Stubley	-13564
▁Success	-13565
▁Suicide	-13566
▁Thelema	-13567
▁Thought	-13568
▁Through	-13569
▁Tiffany	-13570
▁Tmobile	-13571
▁Tourist	-13572
▁Tozzini	-13573
▁Trouble	-13574
▁Ulistic	-13575
▁Village	-13576
▁Vintage	-13577
▁WARWICK	-13578
▁Walking	-13579
▁Walloch	-13580
▁Wedding	-13581
▁Working	-13582
▁Wyoming	-13583
▁accuses	-13584
▁acrylic	-13585
▁addicts	-13586
▁advises	-13587
▁affects	-13588
▁airfare	-13589
▁airlift	-13590
▁amended	-13591
▁ammonia	-13592
▁ancient	-13593
▁annoyed	-13594
▁arising	-13595
▁assumed	-13596
▁backing	-13597
▁belongs	-13598
▁beloved	-13599
▁CORRECT	-13600
▁FINALLY	-13601
▁beneath	-13602
▁bidders	-13603
▁bioweap	-13604
▁blooded	-13605
▁blowing	-13606
▁blurred	-13607
▁bombast	-13608
▁bottles	-13609
▁breeder	-13610
▁budgets	-13611
▁buildup	-13612
▁burgers	-13613
▁camping	-13614
▁carrier	-13615
▁casting	-13616
▁cheques	-13617
▁chromat	-13618
▁citizen	-13619
▁clarify	-13620
▁clashes	-13621
▁clearer	-13622
▁climber	-13623
▁collage	-13624
▁compare	-13625
▁comprom	-13626
▁conceiv	-13627
▁conflag	-13628
▁confuse	-13629
▁console	-13630
▁contend	-13631
▁contest	-13632
▁corrupt	-13633
▁council	-13634
▁couples	-13635
▁crafter	-13636
▁craving	-13637
▁crushed	-13638
▁cuisine	-13639
▁curtain	-13640
▁custody	-13641
▁dancers	-13642
▁dangers	-13643
▁defence	-13644
▁delayed	-13645
▁derived	-13646
▁despair	-13647
▁destiny	-13648
▁detract	-13649
▁devices	-13650
▁dharmad	-13651
▁diapers	-13652
▁digital	-13653
▁disease	-13654
▁dislike	-13655
▁dispute	-13656
▁distort	-13657
▁disturb	-13658
▁divorce	-13659
▁dragged	-13660
▁dreamed	-13661
▁drivers	-13662
▁elegant	-13663
▁embassy	-13664
▁emerged	-13665
▁enables	-13666
▁episode	-13667
▁epithet	-13668
▁equival	-13669
▁erratic	-13670
▁examine	-13671
▁excuses	-13672
▁exhaust	-13673
▁exhibit	-13674
▁facilit	-13675
▁factors	-13676
▁factory	-13677
▁fallout	-13678
▁fanatic	-13679
▁fantasy	-13680
▁fiction	-13681
▁fifteen	-13682
▁filling	-13683
▁flicker	-13684
▁flooded	-13685
▁focuses	-13686
▁foresee	-13687
▁founded	-13688
▁frankly	-13689
▁freight	-13690
▁furnace	-13691
▁gearbox	-13692
▁giggled	-13693
▁glaring	-13694
▁glasses	-13695
▁glowing	-13696
▁googled	-13697
▁gouging	-13698
▁grabbed	-13699
▁greeter	-13700
▁grenade	-13701
▁harbour	-13702
▁harmony	-13703
▁harshly	-13704
▁heating	-13705
▁highway	-13706
▁hissing	-13707
▁hitting	-13708
▁homosex	-13709
▁hookers	-13710
▁hostile	-13711
▁hundred	-13712
▁hunting	-13713
▁incomes	-13714
▁indoors	-13715
▁infrast	-13716
▁ingrown	-13717
▁inquiry	-13718
▁insects	-13719
▁inserts	-13720
▁jamming	-13721
▁jointly	-13722
▁judging	-13723
▁kidding	-13724
▁landing	-13725
▁laptops	-13726
▁legally	-13727
▁leisure	-13728
▁lengthy	-13729
▁liberty	-13730
▁licking	-13731
▁literal	-13732
▁lobster	-13733
▁locally	-13734
▁lookout	-13735
▁looming	-13736
▁looting	-13737
▁lottery	-13738
▁magical	-13739
▁marking	-13740
▁martyrs	-13741
▁massage	-13742
▁maximum	-13743
▁meowing	-13744
▁merging	-13745
▁mexican	-13746
▁microns	-13747
▁migrate	-13748
▁militar	-13749
▁mothers	-13750
▁motives	-13751
▁mussels	-13752
▁nearest	-13753
▁neglect	-13754
▁neither	-13755
▁neocons	-13756
▁newborn	-13757
▁nowhere	-13758
▁objects	-13759
▁observe	-13760
▁ominous	-13761
▁omnibus	-13762
▁onshore	-13763
▁onwards	-13764
▁outlets	-13765
▁outward	-13766
▁overdue	-13767
▁painter	-13768
▁passion	-13769
▁pasture	-13770
▁payable	-13771
▁pending	-13772
▁peoples	-13773
▁percell	-13774
▁perfume	-13775
▁persons	-13776
▁plotter	-13777
▁posters	-13778
▁pounded	-13779
▁privacy	-13780
▁profits	-13781
▁protest	-13782
▁pullers	-13783
▁pyramid	-13784
▁quietly	-13785
▁quoting	-13786
▁raisers	-13787
▁rapidly	-13788
▁realise	-13789
▁refuses	-13790
▁regimes	-13791
▁relates	-13792
▁replies	-13793
▁resting	-13794
▁revalue	-13795
▁revenue	-13796
▁revived	-13797
▁rivalry	-13798
▁sashimi	-13799
▁satanic	-13800
▁savings	-13801
▁scammer	-13802
▁scaring	-13803
▁schedul	-13804
▁screwed	-13805
▁seasons	-13806
▁seating	-13807
▁servant	-13808
▁setback	-13809
▁sharing	-13810
▁signals	-13811
▁singles	-13812
▁skyrock	-13813
▁smokers	-13814
▁soaking	-13815
▁solicit	-13816
▁specify	-13817
▁squeeze	-13818
▁stadium	-13819
▁stating	-13820
▁sticker	-13821
▁storing	-13822
▁streams	-13823
▁stretch	-13824
▁studied	-13825
▁studios	-13826
▁stylist	-13827
▁subcont	-13828
▁submits	-13829
▁succint	-13830
▁suppose	-13831
▁supreme	-13832
▁surpass	-13833
▁survive	-13834
▁tablets	-13835
▁tankers	-13836
▁thieves	-13837
▁toenail	-13838
▁tourism	-13839
▁tractor	-13840
▁trailer	-13841
▁trainer	-13842
▁travels	-13843
▁trigger	-13844
▁tripped	-13845
▁trusted	-13846
▁turning	-13847
▁twisted	-13848
▁unaware	-13849
▁unknown	-13850
▁unnamed	-13851
▁unpleas	-13852
▁urinals	-13853
▁vanilla	-13854
▁verdict	-13855
▁virtual	-13856
▁volunte	-13857
▁wearing	-13858
▁webpage	-13859
▁western	-13860
▁whistle	-13861
▁worship	-13862
▁wounded	-13863
▁younger	-13864
.........	-13865
.713.8600	-13866
/2011/09/	-13867
819602175	-13868
SusmanGod	-13869
autifully	-13870
cientious	-13871
connected	-13872
enteritis	-13873
essential	-13874
fessional	-13875
furniture	-13876
hematical	-13877
naissance	-13878
ominantly	-13879
powerment	-13880
ranchised	-13881
sequently	-13882
spiritual	-13883
umstances	-13884
upuncture	-13885
urricular	-13886
▁********	-13887
▁---->===	-13888
▁01:39:56	-13889
▁05/17/99	-13890
▁09/15/99	-13891
▁1-800-99	-13892
▁281-518-	-13893
▁3,202.61	-13894
▁425-415-	-13895
▁4_28_00.	-13896
▁510-642-	-13897
▁713/853-	-13898
▁Abramoff	-13899
▁Activity	-13900
▁Amrullah	-13901
▁Answered	-13902
▁Approval	-13903
▁Approved	-13904
▁Aquarius	-13905
▁Ashcroft	-13906
▁Baathist	-13907
▁Berkeley	-13908
▁Calculus	-13909
▁Calcutta	-13910
▁Campenni	-13911
▁Caroline	-13912
▁Chemical	-13913
▁Cherokee	-13914
▁Conflict	-13915
▁Criminal	-13916
▁DISPOSAL	-13917
▁Damascus	-13918
▁Delainey	-13919
▁Dietrich	-13920
▁Document	-13921
▁EVERYONE	-13922
▁Embedded	-13923
▁Enquirer	-13924
▁Entities	-13925
▁Fedayeen	-13926
▁Festival	-13927
▁Fountain	-13928
▁Franklin	-13929
▁Frontier	-13930
▁Gapinski	-13931
▁Graduate	-13932
▁Hartpury	-13933
▁Homeland	-13934
▁Hundreds	-13935
▁Indivero	-13936
▁Industry	-13937
▁Infinity	-13938
▁Intrepid	-13939
▁Jamaican	-13940
▁Jennifer	-13941
▁Johnette	-13942
▁Judicial	-13943
▁Lavorato	-13944
▁Lewiston	-13945
▁Location	-13946
▁Malaysia	-13947
▁Margaret	-13948
▁Medicine	-13949
▁Medieval	-13950
▁Ministry	-13951
▁Monopoly	-13952
▁Nepalese	-13953
▁Networks	-13954
▁Notional	-13955
▁PASSWORD	-13956
▁PEREGRIN	-13957
▁Papeluna	-13958
▁Paradero	-13959
▁Parisian	-13960
▁Passcode	-13961
▁Patience	-13962
▁PetSmart	-13963
▁Petersen	-13964
▁Pictures	-13965
▁Pioneers	-13966
▁Planning	-13967
▁Portugal	-13968
▁Practice	-13969
▁Probably	-13970
▁Programs	-13971
▁Proposed	-13972
▁Provided	-13973
▁Provides	-13974
▁Purchase	-13975
▁Quantity	-13976
▁Requests	-13977
▁Revenues	-13978
▁Richards	-13979
▁Romanick	-13980
▁SCHEDULE	-13981
▁Sanskrit	-13982
▁Secondly	-13983
▁Seleznov	-13984
▁Shankman	-13985
▁Shenzhou	-13986
▁Shepherd	-13987
▁Southern	-13988
▁Speaking	-13989
▁Strzalka	-13990
▁Terminal	-13991
▁Thailand	-13992
▁Tronicus	-13993
▁Vajpayee	-13994
▁WebLogic	-13995
▁Wildlife	-13996
▁Workshop	-13997
▁academic	-13998
▁achieved	-13999
▁adequate	-14000
▁advisers	-14001
▁advisors	-14002
▁affluent	-14003
▁altitude	-14004
▁aluminum	-14005
▁animated	-14006
▁aperture	-14007
▁appalled	-14008
▁aquarium	-14009
▁arrogant	-14010
▁assembly	-14011
▁audience	-14012
▁aviation	-14013
▁backside	-14014
▁barbecue	-14015
▁beverage	-14016
▁brigades	-14017
▁bulletin	-14018
▁calculus	-14019
▁calender	-14020
▁capsules	-14021
▁censored	-14022
▁channels	-14023
▁chatting	-14024
▁checkout	-14025
▁choosing	-14026
▁cleaners	-14027
▁cocktail	-14028
▁collages	-14029
▁colleges	-14030
▁colorful	-14031
▁combined	-14032
▁commands	-14033
▁conclude	-14034
▁confined	-14035
▁controls	-14036
▁courtesy	-14037
▁covering	-14038
▁creation	-14039
▁credence	-14040
▁cultures	-14041
▁curtains	-14042
▁damaging	-14043
▁darkness	-14044
▁database	-14045
▁deciding	-14046
▁declared	-14047
▁decrease	-14048
▁defended	-14049
▁defining	-14050
▁detained	-14051
▁detector	-14052
▁diagnose	-14053
▁dilemmas	-14054
▁diplomat	-14055
▁discover	-14056
▁disgrace	-14057
▁disperse	-14058
▁distance	-14059
▁downhill	-14060
▁downside	-14061
▁dramatic	-14062
▁duration	-14063
▁earliest	-14064
▁electric	-14065
▁emerging	-14066
▁enabling	-14067
▁endeavor	-14068
▁engineer	-14069
▁enrolled	-14070
▁ensuring	-14071
▁entrance	-14072
▁evacuate	-14073
▁excepted	-14074
▁exchange	-14075
▁external	-14076
▁faithful	-14077
▁favoured	-14078
▁feasible	-14079
▁featured	-14080
▁features	-14081
▁filtered	-14082
▁finalize	-14083
▁financed	-14084
▁fingered	-14085
▁flawless	-14086
▁fleshing	-14087
▁flexible	-14088
▁flipping	-14089
▁flopping	-14090
▁focusing	-14091
▁frighten	-14092
▁generous	-14093
▁genitals	-14094
▁genocide	-14095
▁grabbing	-14096
▁gracious	-14097
▁grandson	-14098
▁granting	-14099
▁greatest	-14100
▁greeting	-14101
▁guaranty	-14102
▁guardian	-14103
▁guerilla	-14104
▁gullible	-14105
▁handsome	-14106
▁hardness	-14107
▁historic	-14108
▁homemade	-14109
▁hookless	-14110
▁ideology	-14111
▁ignorant	-14112
▁ignoring	-14113
▁immunity	-14114
▁implicit	-14115
▁incurred	-14116
▁infantry	-14117
▁inquired	-14118
▁insecure	-14119
▁instinct	-14120
▁intimacy	-14121
▁invented	-14122
▁invested	-14123
▁inviting	-14124
▁invoiced	-14125
▁judgment	-14126
▁kindness	-14127
▁landlord	-14128
▁laughing	-14129
▁leverage	-14130
▁managers	-14131
▁manifest	-14132
▁manually	-14133
▁marginal	-14134
▁maritime	-14135
▁mediocre	-14136
▁megawatt	-14137
▁memorial	-14138
▁metering	-14139
▁midterms	-14140
▁migrants	-14141
▁militias	-14142
▁mistaken	-14143
▁misunder	-14144
▁monarchy	-14145
▁mutually	-14146
▁networks	-14147
▁nostrils	-14148
▁nowadays	-14149
▁obsessed	-14150
▁obtained	-14151
▁occasion	-14152
▁openings	-14153
▁opinions	-14154
▁outdoors	-14155
▁paradise	-14156
▁password	-14157
▁petsmart	-14158
▁pointing	-14159
▁politely	-14160
▁polluter	-14161
▁portions	-14162
▁postings	-14163
▁preacher	-14164
▁preceded	-14165
▁pregnant	-14166
▁preserve	-14167
▁priority	-14168
▁produces	-14169
▁promptly	-14170
▁protects	-14171
▁protests	-14172
▁provider	-14173
▁quantity	-14174
▁radicals	-14175
▁ranchers	-14176
▁reasoned	-14177
▁referral	-14178
▁rejected	-14179
▁relaxing	-14180
▁remedies	-14181
▁reminded	-14182
▁removing	-14183
▁rendered	-14184
▁repaired	-14185
▁reptiles	-14186
▁resisted	-14187
▁resolved	-14188
▁resource	-14189
▁respects	-14190
▁retrieve	-14191
▁revealed	-14192
▁reversal	-14193
▁roadside	-14194
▁roosters	-14195
▁rotation	-14196
▁saplings	-14197
▁scammers	-14198
▁scanning	-14199
▁scenario	-14200
▁sciencem	-14201
▁scooping	-14202
▁screened	-14203
▁seasoned	-14204
▁seperate	-14205
▁sessions	-14206
▁shedding	-14207
▁shelters	-14208
▁shifting	-14209
▁shipment	-14210
▁shipping	-14211
▁showroom	-14212
▁shrapnel	-14213
▁sickness	-14214
▁skipping	-14215
▁sleeping	-14216
▁sociable	-14217
▁spacious	-14218
▁speakers	-14219
▁starving	-14220
▁striking	-14221
▁stronger	-14222
▁struggle	-14223
▁suffered	-14224
▁symptoms	-14225
▁tastings	-14226
▁teachers	-14227
▁teaching	-14228
▁teething	-14229
▁tensions	-14230
▁thankful	-14231
▁thousand	-14232
▁thursday	-14233
▁thwarted	-14234
▁tolerate	-14235
▁tommorow	-14236
▁tracking	-14237
▁trainers	-14238
▁tropical	-14239
▁trotters	-14240
▁tutorial	-14241
▁ulterior	-14242
▁uncommon	-14243
▁uniforms	-14244
▁uniquely	-14245
▁unpreced	-14246
▁upcoming	-14247
▁upheaval	-14248
▁valuable	-14249
▁verified	-14250
▁waitress	-14251
▁wielding	-14252
▁wildlife	-14253
▁withdrew	-14254
▁wrinkles	-14255
▁xferring	-14256
TRANSREDES	-14257
ascinating	-14258
gimpedblog	-14259
hereffects	-14260
illingness	-14261
redictable	-14262
roductions	-14263
▁02-05-02.	-14264
▁Amsterdam	-14265
▁Authority	-14266
▁Ayatollah	-14267
▁BLACKLINE	-14268
▁Baltimore	-14269
▁Brazilian	-14270
▁CHERNOBYL	-14271
▁Capricorn	-14272
▁Charlotte	-14273
▁Commodity	-14274
▁Crowleyan	-14275
▁Dartmouth	-14276
▁Decisions	-14277
▁EXCELLENT	-14278
▁EXPERIENC	-14279
▁Edinburgh	-14280
▁Effective	-14281
▁Electoral	-14282
▁Elizabeth	-14283
▁Evidently	-14284
▁Expansion	-14285
▁Extremely	-14286
▁FANTASTIC	-14287
▁Financial	-14288
▁Furniture	-14289
▁Garibaldi	-14290
▁Gyanendra	-14291
▁Hezbollah	-14292
▁Hizbullah	-14293
▁Holocaust	-14294
▁Imaginary	-14295
▁Important	-14296
▁Increases	-14297
▁Indonesia	-14298
▁Insurance	-14299
▁Maintains	-14300
▁Malaysian	-14301
▁Mechanics	-14302
▁Messenger	-14303
▁Nashville	-14304
▁Palestine	-14305
▁Preseason	-14306
▁QUESTIONS	-14307
▁ROADHOUSE	-14308
▁Roosevelt	-14309
▁SERIOUSLY	-14310
▁Specified	-14311
▁Superfund	-14312
▁Tradename	-14313
▁Transport	-14314
▁UNLIMITED	-14315
▁Underwear	-14316
▁Vicsandra	-14317
▁Visualize	-14318
▁abandoned	-14319
▁absorbing	-14320
▁achieving	-14321
▁adventure	-14322
▁affection	-14323
▁afterward	-14324
▁amazingly	-14325
▁anonymous	-14326
▁arguments	-14327
▁arrogance	-14328
▁assurance	-14329
▁attendant	-14330
▁audiotape	-14331
▁ballerina	-14332
▁befuddled	-14333
▁boulevard	-14334
▁brainwash	-14335
▁breathing	-14336
▁canceling	-14337
▁cancelled	-14338
▁certified	-14339
▁challenge	-14340
▁chinatown	-14341
▁chocolate	-14342
▁cockatiel	-14343
▁comparing	-14344
▁competing	-14345
▁completly	-14346
▁complexes	-14347
▁conducted	-14348
▁confusion	-14349
▁connected	-14350
▁consensus	-14351
▁consumers	-14352
▁convicted	-14353
▁convinced	-14354
▁courteous	-14355
▁criticism	-14356
▁customize	-14357
▁databases	-14358
▁decorated	-14359
▁dedicated	-14360
▁designers	-14361
▁desirable	-14362
▁desperate	-14363
▁detective	-14364
▁developer	-14365
▁diplomacy	-14366
▁directive	-14367
▁discharge	-14368
▁displaced	-14369
▁dominance	-14370
▁electoral	-14371
▁embassies	-14372
▁enjoyment	-14373
▁entourage	-14374
▁essential	-14375
▁etiquette	-14376
▁examining	-14377
▁exclusion	-14378
▁existence	-14379
▁exploring	-14380
▁fashioned	-14381
▁festivals	-14382
▁flatbread	-14383
▁forecasts	-14384
▁foreigner	-14385
▁fortunate	-14386
▁freighter	-14387
▁frequency	-14388
▁galleries	-14389
▁generates	-14390
▁gentleman	-14391
▁googlenut	-14392
▁graduated	-14393
▁guacamole	-14394
▁headlines	-14395
▁hibernate	-14396
▁hypocrisy	-14397
▁identical	-14398
▁ignorance	-14399
▁immigrate	-14400
▁inability	-14401
▁innkeeper	-14402
▁inquiring	-14403
▁inspector	-14404
▁intention	-14405
▁interrupt	-14406
▁invention	-14407
▁kaoshikii	-14408
▁launchers	-14409
▁launching	-14410
▁liability	-14411
▁lifestyle	-14412
▁liquefied	-14413
▁longevity	-14414
▁magnitude	-14415
▁manliness	-14416
▁marketers	-14417
▁marvelous	-14418
▁meanwhile	-14419
▁mechanics	-14420
▁mediation	-14421
▁midmarket	-14422
▁miniature	-14423
▁miserable	-14424
▁moderates	-14425
▁monitored	-14426
▁municipal	-14427
▁musicians	-14428
▁nightlife	-14429
▁nonbondad	-14430
▁obedience	-14431
▁obtaining	-14432
▁offerings	-14433
▁organised	-14434
▁overnight	-14435
▁overthrow	-14436
▁overtures	-14437
▁paragraph	-14438
▁paralegal	-14439
▁partition	-14440
▁passenger	-14441
▁patronage	-14442
▁penalties	-14443
▁perceived	-14444
▁picketing	-14445
▁pleadings	-14446
▁polluting	-14447
▁practical	-14448
▁practices	-14449
▁prescribe	-14450
▁presently	-14451
▁prevented	-14452
▁primaries	-14453
▁principal	-14454
▁prisoners	-14455
▁processor	-14456
▁promoting	-14457
▁proposing	-14458
▁protested	-14459
▁provinces	-14460
▁purported	-14461
▁realizing	-14462
▁recruited	-14463
▁reduction	-14464
▁regulated	-14465
▁relatives	-14466
▁remembers	-14467
▁repercuss	-14468
▁replacing	-14469
▁repulsive	-14470
▁reputable	-14471
▁residence	-14472
▁residents	-14473
▁retaliate	-14474
▁routinely	-14475
▁sanctions	-14476
▁satellite	-14477
▁schooling	-14478
▁scientist	-14479
▁screaming	-14480
▁sculpture	-14481
▁secondary	-14482
▁secretary	-14483
▁senseless	-14484
▁sentiment	-14485
▁separated	-14486
▁someplace	-14487
▁spreading	-14488
▁strategic	-14489
▁stringing	-14490
▁strippers	-14491
▁submerged	-14492
▁subpoenas	-14493
▁substance	-14494
▁supported	-14495
▁supporter	-14496
▁surprises	-14497
▁surrounds	-14498
▁technique	-14499
▁telephone	-14500
▁testified	-14501
▁therapist	-14502
▁threatens	-14503
▁tolerable	-14504
▁tradition	-14505
▁transcend	-14506
▁transfers	-14507
▁triggered	-14508
▁uncertain	-14509
▁undecided	-14510
▁undertake	-14511
▁viability	-14512
▁volunteer	-14513
▁warehouse	-14514
▁witnesses	-14515
▁workshops	-14516
▁worldwide	-14517
Ellenberger	-14518
appropriate	-14519
oconference	-14520
▁**********	-14521
▁..........	-14522
▁0000108806	-14523
▁01/24/2001	-14524
▁01/25/2001	-14525
▁02/27/2001	-14526
▁03/09/2000	-14527
▁03/21/2001	-14528
▁05/01/2001	-14529
▁05/03/2001	-14530
▁05/30/2001	-14531
▁07/14/2000	-14532
▁08/03/2000	-14533
▁11-20-2000	-14534
▁11/08/2000	-14535
▁11/27/2000	-14536
▁12/26/2000	-14537
▁315-460-33	-14538
▁ABSOLUTELY	-14539
▁Amerithrax	-14540
▁Associates	-14541
▁Carribbean	-14542
▁Definitely	-14543
▁Diagnostic	-14544
▁Employment	-14545
▁Especially	-14546
▁Fahrenheit	-14547
▁GOVERNMENT	-14548
▁Giovannini	-14549
▁Interviews	-14550
▁Lieutenant	-14551
▁Meditation	-14552
▁Nationwide	-14553
▁Oglethorpe	-14554
▁Pakistanis	-14555
▁Philippine	-14556
▁Plantation	-14557
▁Production	-14558
▁Protection	-14559
▁Rawalpindi	-14560
▁Reasonable	-14561
▁Regulatory	-14562
▁Revolution	-14563
▁Sacramento	-14564
▁Shreveport	-14565
▁Strathmann	-14566
▁UltraSonic	-14567
▁Unreported	-14568
▁Veterinary	-14569
▁Wildernest	-14570
▁abandoning	-14571
▁absorption	-14572
▁acceptable	-14573
▁accessible	-14574
▁accomplish	-14575
▁adequately	-14576
▁advertised	-14577
▁alchemical	-14578
▁allocation	-14579
▁alternates	-14580
▁anticipate	-14581
▁approaches	-14582
▁assignment	-14583
▁astounding	-14584
▁atrocities	-14585
▁attempting	-14586
▁attraction	-14587
▁authorized	-14588
▁biodefense	-14589
▁breakfasts	-14590
▁busybodies	-14591
▁calculated	-14592
▁centimetre	-14593
▁centralize	-14594
▁childbirth	-14595
▁classified	-14596
▁comforting	-14597
▁commitment	-14598
▁completing	-14599
▁concluding	-14600
▁confidante	-14601
▁consortium	-14602
▁conspiracy	-14603
▁constitute	-14604
▁consulates	-14605
▁containing	-14606
▁continuing	-14607
▁contractor	-14608
▁controlled	-14609
▁correction	-14610
▁creativity	-14611
▁criticized	-14612
▁definately	-14613
▁definition	-14614
▁democratic	-14615
▁derivative	-14616
▁describing	-14617
▁diplomatic	-14618
▁dismissing	-14619
▁earthquake	-14620
▁earthworms	-14621
▁economical	-14622
▁effeminate	-14623
▁electronic	-14624
▁endangered	-14625
▁enthusiasm	-14626
▁excellence	-14627
▁expiration	-14628
▁extinction	-14629
▁faithfully	-14630
▁favourable	-14631
▁forbidding	-14632
▁friendship	-14633
▁fulfilling	-14634
▁guarantees	-14635
▁habitation	-14636
▁hardliners	-14637
▁healthcare	-14638
▁historians	-14639
▁immigrants	-14640
▁impeccable	-14641
▁importance	-14642
▁incubation	-14643
▁indefinite	-14644
▁indicating	-14645
▁industrial	-14646
▁inevitable	-14647
▁inevitably	-14648
▁ingredient	-14649
▁innovation	-14650
▁innovative	-14651
▁instructed	-14652
▁instrument	-14653
▁intentions	-14654
▁justifying	-14655
▁lieutenant	-14656
▁literature	-14657
▁mainstream	-14658
▁manipulate	-14659
▁minimizing	-14660
▁monumental	-14661
▁motivation	-14662
▁newspapers	-14663
▁occasional	-14664
▁operatives	-14665
▁opposition	-14666
▁optimistic	-14667
▁overcooked	-14668
▁parameters	-14669
▁percentage	-14670
▁perception	-14671
▁performers	-14672
▁personable	-14673
▁philosophy	-14674
▁polygamous	-14675
▁popularity	-14676
▁practicing	-14677
▁preferably	-14678
▁preference	-14679
▁prepayment	-14680
▁preventing	-14681
▁preventive	-14682
▁proceeding	-14683
▁professors	-14684
▁progresses	-14685
▁propaganda	-14686
▁properties	-14687
▁proponents	-14688
▁proportion	-14689
▁prostitute	-14690
▁provincial	-14691
▁punishment	-14692
▁reasonably	-14693
▁rebuilding	-14694
▁reccommend	-14695
▁reconciled	-14696
▁recovering	-14697
▁recreating	-14698
▁reflection	-14699
▁regardless	-14700
▁regulatory	-14701
▁resolution	-14702
▁respectful	-14703
▁respective	-14704
▁responding	-14705
▁selections	-14706
▁separately	-14707
▁simulation	-14708
▁smithjones	-14709
▁streamside	-14710
▁struggling	-14711
▁substances	-14712
▁supervisor	-14713
▁supplement	-14714
▁supposedly	-14715
▁suppressed	-14716
▁surprising	-14717
▁symbolizes	-14718
▁sympathize	-14719
▁television	-14720
▁thankfully	-14721
▁thereafter	-14722
▁tournament	-14723
▁traditions	-14724
▁translated	-14725
▁unbeatable	-14726
▁ventilator	-14727
▁vulnerable	-14728
▁whatsoever	-14729
▁yourselves	-14730
------------	-14731
▁Acupuncture	-14732
▁Aeronautics	-14733
▁Arbitration	-14734
▁Association	-14735
▁Balochistan	-14736
▁Bangladeshi	-14737
▁Chandeliers	-14738
▁Citizenship	-14739
▁Connecticut	-14740
▁Contractual	-14741
▁Coordinator	-14742
▁Datamanager	-14743
▁Derivatives	-14744
▁Directorate	-14745
▁EnronOnLine	-14746
▁Environment	-14747
▁Furthermore	-14748
▁Halliburton	-14749
▁Interceptor	-14750
▁Kilinochchi	-14751
▁Opportunity	-14752
▁Rittenhouse	-14753
▁Shakespeare	-14754
▁Shukrijumah	-14755
▁Termination	-14756
▁Woodinville	-14757
▁abomination	-14758
▁accompanied	-14759
▁advancement	-14760
▁advertising	-14761
▁anniversary	-14762
▁antibiotics	-14763
▁arrangement	-14764
▁assumptions	-14765
▁biochemical	-14766
▁calculating	-14767
▁campaigning	-14768
▁checkerspot	-14769
▁cognitively	-14770
▁collaborate	-14771
▁comfortably	-14772
▁complicated	-14773
▁compliments	-14774
▁composition	-14775
▁conclusions	-14776
▁condominium	-14777
▁conferenced	-14778
▁confiscated	-14779
▁continually	-14780
▁contractors	-14781
▁contributed	-14782
▁controlling	-14783
▁controversy	-14784
▁convenience	-14785
▁cooperating	-14786
▁coordinated	-14787
▁corporation	-14788
▁definitions	-14789
▁demonstrate	-14790
▁departments	-14791
▁desperately	-14792
▁distinguish	-14793
▁earthquakes	-14794
▁effectively	-14795
▁eliminating	-14796
▁embarrassed	-14797
▁examination	-14798
▁exceptional	-14799
▁expectation	-14800
▁fallibility	-14801
▁financially	-14802
▁forgiveness	-14803
▁forthcoming	-14804
▁frightening	-14805
▁frustrating	-14806
▁hibernation	-14807
▁highlighted	-14808
▁identifying	-14809
▁incompetent	-14810
▁incorrectly	-14811
▁influential	-14812
▁intelligent	-14813
▁intolerance	-14814
▁investigate	-14815
▁legislature	-14816
▁magnificent	-14817
▁microscopic	-14818
▁nationalist	-14819
▁negotiation	-14820
▁neighboring	-14821
▁overbearing	-14822
▁overcharges	-14823
▁overcrowded	-14824
▁participant	-14825
▁phenophases	-14826
▁photography	-14827
▁politically	-14828
▁potentially	-14829
▁prioritised	-14830
▁probability	-14831
▁programming	-14832
▁proliferate	-14833
▁promotional	-14834
▁reconciling	-14835
▁recruitment	-14836
▁regrettable	-14837
▁reliability	-14838
▁rescheduled	-14839
▁resolutions	-14840
▁salesperson	-14841
▁sensitivity	-14842
▁sponsorship	-14843
▁technically	-14844
▁termination	-14845
▁trafficking	-14846
▁unanimously	-14847
▁unconnected	-14848
▁unnecessary	-14849
▁willingness	-14850
SusmanGodfrey	-14851
▁202.456.1111	-14852
▁202.456.1414	-14853
▁202.456.2461	-14854
▁281-435-0295	-14855
▁281-443-3744	-14856
▁415.621.8317	-14857
▁415.782.7822	-14858
▁505-625-8031	-14859
▁713-654-0365	-14860
▁713-654-1281	-14861
▁713-853-1696	-14862
▁713-853-3098	-14863
▁800-553-3119	-14864
▁800.713.8600	-14865
▁888.916.7184	-14866
▁Additionally	-14867
▁CONFIDENTIAL	-14868
▁Christianity	-14869
▁Highlighting	-14870
▁Nevertheless	-14871
▁Participants	-14872
▁Respectfully	-14873
▁Subscription	-14874
▁acknowledged	-14875
▁announcement	-14876
▁apprehension	-14877
▁apprehensive	-14878
▁bioweaponeer	-14879
▁chlorination	-14880
▁colonization	-14881
▁communicated	-14882
▁conciliatory	-14883
▁confirmation	-14884
▁coordination	-14885
▁corporations	-14886
▁deliberately	-14887
▁demonstrated	-14888
▁demonstrates	-14889
▁dictatorship	-14890
▁discouraging	-14891
▁dramatically	-14892
▁economically	-14893
▁embarrassing	-14894
▁enthusiastic	-14895
▁establishing	-14896
▁experiencing	-14897
▁fabrications	-14898
▁governorates	-14899
▁grandparents	-14900
▁imprisonment	-14901
▁incompetence	-14902
▁incorporated	-14903
▁intellectual	-14904
▁intermediate	-14905
▁jurisdiction	-14906
▁montparnasse	-14907
▁occasionally	-14908
▁participated	-14909
▁personalized	-14910
▁preparations	-14911
▁publications	-14912
▁refrigerator	-14913
▁reimbursable	-14914
▁reintroduced	-14915
▁reservations	-14916
▁respectfully	-14917
▁respectively	-14918
▁rhythmically	-14919
▁skyrocketing	-14920
▁straightened	-14921
▁subcontinent	-14922
▁sufficiently	-14923
▁surroundings	-14924
▁temperatures	-14925
weathereffects	-14926
▁Administrator	-14927
▁Commissioners	-14928
▁INTERNATIONAL	-14929
▁Restructuring	-14930
▁Revolutionary	-14931
▁Visualization	-14932
▁appropriating	-14933
▁appropriators	-14934
▁categorically	-14935
▁chromatograph	-14936
▁circumstances	-14937
[...]
