<unk>	0
<s>	0
</s>	0
▁.	-3.43471
▁the	-3.44706
s	-3.46322
▁	-3.47349
▁,	-3.70938
▁to	-3.93325
▁and	-4.08835
▁a	-4.15949
▁I	-4.29585
ing	-4.30135
▁of	-4.41755
ed	-4.4674
y	-4.47703
▁in	-4.55561
t	-4.70814
▁be	-4.84078
▁is	-4.8619
▁you	-4.90977
d	-4.96397
▁for	-5.05586
▁'	-5.06346
e	-5.06517
ly	-5.10472
▁it	-5.18306
▁-	-5.30295
▁have	-5.34988
▁was	-5.39211
▁with	-5.40346
▁on	-5.40532
▁The	-5.45725
.	-5.49375
▁not	-5.58475
▁th	-5.58863
▁"	-5.59347
▁are	-5.6
▁do	-5.63222
at	-5.63678
n	-5.6582
▁n	-5.68039
▁)	-5.75826
▁will	-5.76824
▁tha	-5.77754
ould	-5.77759
▁?	-5.79868
▁(	-5.80346
▁as	-5.86823
'	-5.89864
▁my	-5.91282
▁w	-5.95993
▁me	-5.96897
▁or	-5.97143
▁we	-5.98691
▁he	-5.98977
▁at	-6.00495
this	-6.01797
▁your	-6.02676
▁:	-6.02718
from	-6.10777
▁an	-6.11118
▁can	-6.13876
▁but	-6.17068
▁by	-6.21869
▁!	-6.22091
▁go	-6.23976
▁some	-6.27586
▁t	-6.30889
▁has	-6.34003
▁like	-6.34505
▁so	-6.34636
▁out	-6.35219
▁any	-6.35915
▁A	-6.36688
en	-6.38054
f	-6.39224
▁all	-6.39814
▁get	-6.39909
es	-6.41969
m	-6.43058
▁there	-6.43682
▁m	-6.44881
er	-6.45335
▁up	-6.45367
if	-6.45411
▁one	-6.46842
▁know	-6.48803
▁time	-6.53097
▁P	-6.5609
had	-6.56822
about	-6.58398
a	-6.59096
al	-6.61132
▁his	-6.61137
▁what	-6.62412
▁i	-6.62419
▁just	-6.63299
▁c	-6.65892
r	-6.67091
▁their	-6.67733
▁were	-6.6776
hat	-6.68131
▁We	-6.6936
▁It	-6.70191
▁work	-6.70439
▁them	-6.71212
▁S	-6.7259
▁s	-6.73794
▁want	-6.74778
which	-6.74955
▁our	-6.76684
▁him	-6.76896
very	-6.77025
▁when	-6.77268
▁who	-6.78873
▁no	-6.79076
▁other	-6.81631
▁call	-6.82305
on	-6.83614
one	-6.849
▁more	-6.85377
▁need	-6.85706
/	-6.86367
▁us	-6.86414
ever	-6.878
is	-6.88885
▁also	-6.89711
▁C	-6.90316
▁$	-6.90814
-	-6.91486
thing	-6.91792
▁You	-6.92458
▁good	-6.92559
st	-6.93132
▁back	-6.94304
▁He	-6.94454
▁T	-6.95797
ve	-6.96327
▁am	-6.96673
▁only	-6.98374
▁place	-7.01677
▁see	-7.02911
▁take	-7.03038
able	-7.04249
▁...	-7.04468
did	-7.04505
▁over	-7.04531
▁say	-7.05398
▁f	-7.05654
uch	-7.06435
ll	-7.07446
▁people	-7.08189
▁look	-7.10382
▁she	-7.10641
▁should	-7.10795
▁even	-7.10823
o	-7.12136
▁Bush	-7.12881
re	-7.13219
▁how	-7.13632
le	-7.13918
▁her	-7.1421
▁new	-7.14264
▁think	-7.15652
▁way	-7.17627
▁may	-7.17888
▁after	-7.20182
ion	-7.2038
€	-7.21748
â	-7.21748
▁make	-7.2308
ies	-7.23447
▁help	-7.25408
fore	-7.25454
▁now	-7.25533
cause	-7.26782
▁great	-7.28529
▁In	-7.29098
▁Thanks	-7.29244
▁every	-7.30188
ment	-7.30416
▁service	-7.30429
▁use	-7.31382
▁into	-7.3163
ld	-7.32199
▁E	-7.32835
▁again	-7.33198
in	-7.33953
▁L	-7.351
▁year	-7.36012
ation	-7.36069
▁2	-7.36178
▁@@	-7.36309
▁M	-7.37196
▁than	-7.37463
▁re	-7.37553
▁day	-7.37794
▁F	-7.38676
se	-7.38757
i	-7.39753
▁un	-7.39901
▁give	-7.40716
S	-7.41176
▁B	-7.41337
▁1	-7.43899
ce	-7.44011
▁sai	-7.44729
well	-7.44935
▁US	-7.4494
lease	-7.46499
com	-7.47507
or	-7.48791
@	-7.49513
▁--	-7.49519
▁price	-7.49928
▁food	-7.5017
▁Al	-7.50455
▁W	-7.51556
▁Do	-7.51584
▁D	-7.52759
▁real	-7.53195
▁week	-7.53462
ally	-7.53926
&	-7.53997
▁thi	-7.54107
w	-7.5486
▁let	-7.55281
▁try	-7.55699
▁made	-7.56698
▁My	-7.57845
▁change	-7.57996
1	-7.58238
▁please	-7.58654
▁And	-7.58763
▁most	-7.58764
0	-7.59282
▁3	-7.59436
▁Thi	-7.60031
▁years	-7.6031
an	-7.60579
▁long	-7.60788
▁here	-7.60945
▁car	-7.61829
h	-7.61862
▁come	-7.61904
other	-7.62189
l	-7.6248
▁right	-7.62582
th	-7.6283
▁its	-7.63583
▁got	-7.63705
▁l	-7.64135
▁There	-7.6431
▁PM	-7.64404
▁How	-7.65306
▁U	-7.65664
still	-7.65812
▁4	-7.66874
▁5	-7.67138
round	-7.67753
▁last	-7.68125
▁put	-7.68542
▁name	-7.69656
many	-7.69997
▁off	-7.70406
▁down	-7.70528
▁N	-7.71175
▁find	-7.71806
▁Th	-7.72038
▁though	-7.72485
▁month	-7.72726
▁But	-7.74002
▁sure	-7.74189
▁lot	-7.743
▁point	-7.75966
▁too	-7.7691
▁through	-7.77759
▁So	-7.78093
ext	-7.7816
▁start	-7.78162
▁feel	-7.78803
▁What	-7.7916
two	-7.79561
▁ask	-7.7984
▁e	-7.80479
▁world	-7.80919
▁show	-7.80992
▁order	-7.81109
2	-7.82284
▁keep	-7.83001
ch	-7.83107
▁Iraq	-7.83569
▁home	-7.84723
▁al	-7.8473
▁b	-7.85179
▁part	-7.85183
▁issue	-7.8633
▁American	-7.8651
ity	-7.87416
▁those	-7.87468
▁meet	-7.87802
day	-7.87859
▁high	-7.88352
▁own	-7.89722
▁<	-7.89857
TM	-7.90365
▁On	-7.91078
▁;	-7.91978
▁Enron	-7.92014
▁since	-7.9202
▁number	-7.92186
▁love	-7.92302
out	-7.92533
ting	-7.92721
▁10	-7.93181
▁business	-7.93215
3	-7.93876
ew	-7.94333
▁where	-7.94783
▁night	-7.94894
▁Iran	-7.95852
ther	-7.95898
▁room	-7.96125
ers	-7.96227
▁days	-7.96334
us	-7.96622
▁deal	-7.96834
▁office	-7.97279
ance	-7.978
▁both	-7.97967
▁ca	-7.98639
▁ha	-7.98657
▁AM	-7.98831
▁mean	-7.98887
▁sam	-7.99398
▁interest	-7.99439
▁No	-7.99669
ight	-8.00189
▁As	-8.00367
▁per	-8.01273
lway	-8.02023
ge	-8.02605
▁H	-8.02863
▁end	-8.02865
▁She	-8.03792
▁G	-8.04101
▁came	-8.04182
▁experience	-8.04187
▁believe	-8.04339
▁send	-8.0453
▁under	-8.04537
▁already	-8.04638
▁p	-8.04729
▁wo	-8.05181
▁recommend	-8.06223
▁famil	-8.06603
▁read	-8.0661
ty	-8.06671
elf	-8.06942
ry	-8.06981
▁20	-8.08118
▁New	-8.08368
▁di	-8.0842
▁things	-8.08678
▁nice	-8.09127
▁water	-8.09189
ous	-8.09402
▁whil	-8.09421
aid	-8.09666
▁R	-8.09737
▁wait	-8.0997
▁visit	-8.10048
▁check	-8.1065
man	-8.11031
▁talk	-8.11371
ive	-8.11377
▁treat	-8.11723
▁May	-8.1183
▁list	-8.12838
▁fir	-8.12855
▁problem	-8.13582
▁6	-8.13624
▁person	-8.13685
▁O	-8.13797
▁pay	-8.13809
▁co	-8.13879
▁staff	-8.14501
D	-8.14818
▁tell	-8.14964
▁compan	-8.15222
ember	-8.15241
ough	-8.15482
▁found	-8.15529
ent	-8.16152
▁questions	-8.16181
twee	-8.16379
ar	-8.17089
▁China	-8.17527
▁life	-8.17903
each	-8.18499
T	-8.18936
▁date	-8.19537
▁hard	-8.19924
▁away	-8.20154
▁g	-8.2016
▁!!	-8.20611
▁return	-8.20742
p	-8.20797
▁200	-8.20954
▁guy	-8.21243
▁state	-8.22008
▁11	-8.22022
▁group	-8.22277
▁customer	-8.22364
c	-8.22374
less	-8.22605
▁live	-8.22787
k	-8.23209
u	-8.23501
▁friend	-8.23505
▁review	-8.23515
▁line	-8.23643
nt	-8.23697
▁old	-8.239
▁email	-8.23927
▁actual	-8.24642
▁job	-8.2576
▁cost	-8.25819
▁care	-8.26055
g	-8.26297
▁h	-8.26459
▁else	-8.265
▁hav	-8.26548
▁leas	-8.26799
▁power	-8.27392
x	-8.27637
▁add	-8.27944
▁head	-8.28007
ian	-8.28585
▁St	-8.2877
▁Number	-8.28778
▁answer	-8.28779
▁request	-8.28783
irst	-8.28842
ne	-8.28953
▁Dr	-8.29292
▁cat	-8.30423
▁Qa	-8.30557
id	-8.30626
his	-8.30688
▁understand	-8.30977
▁hope	-8.30988
age	-8.3108
▁sign	-8.31335
▁small	-8.31556
▁bad	-8.31626
▁Be	-8.32057
A	-8.3208
▁seem	-8.32085
▁plan	-8.32113
▁Re	-8.32132
▁full	-8.32159
▁en	-8.3251
▁oil	-8.32525
▁close	-8.32869
ic	-8.32965
▁John	-8.34022
▁large	-8.34044
▁Sept	-8.34046
▁15	-8.3408
▁forward	-8.3422
▁mo	-8.34259
▁letter	-8.34304
▁buy	-8.34503
▁wh	-8.34819
▁bit	-8.35108
▁charge	-8.35634
▁dur	-8.35855
▁different	-8.35942
be	-8.361
▁far	-8.36164
▁comment	-8.36267
▁report	-8.36289
▁eat	-8.36561
_	-8.37093
▁Whe	-8.37692
▁test	-8.37899
▁information	-8.379
▁Can	-8.38564
▁case	-8.38687
▁de	-8.3887
▁open	-8.39116
▁war	-8.39165
▁hear	-8.39325
▁free	-8.39556
▁attach	-8.39581
▁minute	-8.396
▁Friday	-8.39601
▁set	-8.39862
▁must	-8.39941
tion	-8.40149
▁play	-8.40154
ate	-8.40627
▁For	-8.41011
▁d	-8.41071
▁possibl	-8.42113
▁provide	-8.42721
▁train	-8.43124
<	-8.43259
▁discuss	-8.4328
▁message	-8.43594
E	-8.43743
ur	-8.43756
▁country	-8.43795
ness	-8.44029
▁phone	-8.44553
▁man	-8.44585
▁soon	-8.44666
▁walk	-8.44821
ary	-8.44847
▁To	-8.45277
ey	-8.45499
▁dog	-8.46103
▁stay	-8.46193
as	-8.46504
▁reason	-8.46516
il	-8.4707
▁Let	-8.47117
▁Thank	-8.47162
ese	-8.47215
▁enjoy	-8.47516
ok	-8.4763
▁kind	-8.4772
▁system	-8.47784
uld	-8.48021
▁NOT	-8.48071
▁hand	-8.48097
▁pass	-8.48794
▁question	-8.49393
▁Georg	-8.49599
▁process	-8.49672
▁militar	-8.49792
▁litt	-8.49829
▁THE	-8.49847
▁pre	-8.49926
went	-8.50005
▁post	-8.50243
▁warm	-8.50753
▁times	-8.51001
▁At	-8.51391
▁girl	-8.51724
▁Jeff	-8.51725
▁Afghan	-8.51728
▁recent	-8.5176
▁President	-8.51944
▁market	-8.52073
▁thing	-8.5214
▁>>	-8.52322
mount	-8.5256
▁....	-8.52616
▁Pakistan	-8.52922
later	-8.52935
▁India	-8.53492
▁horse	-8.53756
▁An	-8.53815
▁etc	-8.5392
▁government	-8.53933
▁space	-8.53958
▁feed	-8.53959
▁2005	-8.54004
um	-8.54046
▁!!!	-8.54396
▁clean	-8.54425
mail	-8.54543
low	-8.54787
done	-8.54882
▁Not	-8.54935
F	-8.55112
▁sent	-8.55397
▁>	-8.55558
▁sever	-8.55951
▁quick	-8.56124
▁concern	-8.56225
▁couple	-8.56234
▁Sara	-8.56253
▁big	-8.56494
▁leave	-8.56505
▁received	-8.56553
▁stop	-8.56614
ught	-8.56925
oney	-8.56973
▁final	-8.57988
▁fact	-8.58053
▁draft	-8.58396
▁official	-8.58416
▁happen	-8.58571
▁IS	-8.58599
▁includ	-8.58687
▁rate	-8.59047
▁K	-8.59072
cy	-8.59174
long	-8.59685
▁*	-8.59748
▁mind	-8.60062
▁Co	-8.60201
▁word	-8.60259
▁offer	-8.60426
istan	-8.60609
▁certain	-8.60733
▁current	-8.60906
▁near	-8.60943
▁book	-8.61073
▁deliver	-8.61294
▁contact	-8.61298
▁Wh	-8.61319
it	-8.61913
▁file	-8.6231
▁friends	-8.62442
▁tak	-8.62525
▁town	-8.62635
C	-8.62657
▁form	-8.62866
▁move	-8.62874
▁second	-8.631
▁After	-8.63101
▁Monday	-8.63103
▁remember	-8.63116
▁hotel	-8.63128
▁result	-8.63134
▁agreement	-8.63157
▁happ	-8.63203
▁attack	-8.63248
▁run	-8.63323
▁7	-8.63337
ton	-8.63428
▁clear	-8.63458
▁yet	-8.63619
▁whole	-8.63624
▁doe	-8.63665
▁probabl	-8.63726
▁support	-8.64059
ook	-8.64284
te	-8.64406
▁fine	-8.64425
▁house	-8.64663
▁contract	-8.65259
eda	-8.65456
▁April	-8.65536
▁excellent	-8.65607
▁restaurant	-8.65647
▁turn	-8.65956
▁following	-8.66427
▁address	-8.6649
land	-8.66536
est	-8.66861
most	-8.67049
▁simpl	-8.67139
▁quit	-8.67481
ercentage	-8.67866
▁entire	-8.68051
▁Great	-8.68055
▁2004	-8.68207
wo	-8.68325
▁regard	-8.68359
▁hair	-8.68678
▁fe	-8.68869
ame	-8.68903
▁Mr	-8.6896
▁force	-8.70188
▁idea	-8.70309
▁store	-8.70549
▁school	-8.706
▁project	-8.70602
▁helpful	-8.70649
▁bee	-8.70835
▁cage	-8.71066
where	-8.71079
▁J	-8.71213
▁Any	-8.71218
▁position	-8.71275
▁late	-8.71746
▁product	-8.71897
▁fun	-8.72001
▁problems	-8.72188
▁program	-8.72236
▁complete	-8.72926
▁Paul	-8.72956
▁death	-8.73239
▁agree	-8.733
▁weapon	-8.73328
▁outside	-8.73332
▁piece	-8.73348
▁response	-8.73654
▁Nation	-8.73734
ves	-8.73762
▁pret	-8.73855
me	-8.73961
▁gas	-8.74015
▁Jan	-8.74024
▁mak	-8.74136
ither	-8.74251
▁Just	-8.7429
doc	-8.74335
----------------	-8.74843
ice	-8.75679
▁light	-8.75754
to	-8.75828
▁less	-8.75964
8	-8.75975
▁include	-8.75997
▁le	-8.76137
ter	-8.76327
▁become	-8.76393
▁bring	-8.76647
▁Iraqi	-8.7697
▁availab	-8.77174
▁hold	-8.78161
5	-8.78245
▁All	-8.78723
▁professional	-8.78786
▁above	-8.78792
▁Oct	-8.78864
▁past	-8.79153
▁air	-8.79217
P	-8.79452
▁pick	-8.79593
▁follow	-8.79839
▁vet	-8.79918
Y	-8.80066
▁Hi	-8.80135
▁com	-8.80154
▁2000	-8.80723
though	-8.80786
▁2001	-8.81089
▁Hous	-8.8152
▁Mike	-8.81598
▁important	-8.81625
▁election	-8.81896
▁side	-8.82057
▁Ka	-8.82068
front	-8.82177
▁Are	-8.82247
▁By	-8.82749
ft	-8.8294
▁perfect	-8.83213
:30	-8.83299
▁La	-8.83587
▁..	-8.83659
▁pro	-8.83672
ra	-8.84224
▁continue	-8.84249
ful	-8.84393
▁sa	-8.8441
://	-8.84464
▁short	-8.84514
▁learn	-8.84606
▁Ma	-8.84632
▁paper	-8.84771
▁30	-8.85289
ney	-8.85408
▁extreme	-8.85447
▁ever	-8.85797
▁earlie	-8.86123
ENRON	-8.864
▁Yes	-8.86454
son	-8.86497
▁bab	-8.86712
▁ago	-8.87119
▁consider	-8.87379
▁public	-8.87409
▁door	-8.8754
▁remain	-8.87549
▁Good	-8.87577
▁weekend	-8.87668
▁:)	-8.87677
▁claim	-8.87698
▁tank	-8.88038
▁Za	-8.88126
N	-8.88392
4	-8.88565
▁direct	-8.88684
▁eas	-8.88825
▁YOU	-8.89305
▁base	-8.89407
▁strong	-8.89526
I	-8.89578
▁members	-8.89676
▁Now	-8.89951
ck	-8.90271
▁security	-8.90662
▁wrong	-8.90669
▁explain	-8.90683
▁region	-8.90742
▁four	-8.90837
ble	-8.9084
special	-8.9094
▁site	-8.91015
▁16	-8.91671
▁event	-8.91809
▁trip	-8.91865
▁cut	-8.91882
bility	-8.91972
ding	-8.91988
00	-8.92051
▁top	-8.92146
▁Chris	-8.92255
▁expect	-8.92667
ely	-8.92797
tic	-8.93056
▁ga	-8.9319
▁Mark	-8.93672
lso	-8.93734
ped	-8.93744
▁Texa	-8.9388
▁campaign	-8.93888
▁doctor	-8.93905
▁detail	-8.93925
▁course	-8.93982
tp	-8.94017
▁initial	-8.94062
▁worth	-8.94071
▁With	-8.94087
▁accept	-8.94246
▁quality	-8.94278
▁fight	-8.94338
▁12	-8.94637
▁su	-8.95376
▁Attach	-8.95449
and	-8.95596
due	-8.95816
eft	-8.96137
▁tri	-8.96257
▁arm	-8.96261
▁main	-8.96297
body	-8.96432
▁thre	-8.96507
ten	-8.96538
noon	-8.96693
▁attend	-8.96751
▁fall	-8.96772
▁credit	-8.96935
▁face	-8.97015
ING	-8.971
▁peace	-8.97204
▁example	-8.97217
▁snake	-8.97232
▁copy	-8.97324
▁David	-8.97365
ow	-8.97415
▁Some	-8.97434
ww	-8.97522
▁game	-8.9758
▁political	-8.97671
▁cover	-8.97713
▁watch	-8.97715
AND	-8.97787
▁Every	-8.9783
▁murder	-8.97855
▁usual	-8.98162
ture	-8.98207
ave	-8.98508
once	-8.98577
hing	-8.98725
b	-8.98935
ory	-8.99008
▁period	-8.99017
angua	-8.9917
▁r	-8.99573
▁yes	-8.99786
mo	-8.99889
7	-9.00098
▁develop	-9.00098
▁De	-9.00103
ning	-9.00582
▁poor	-9.00729
▁decide	-9.00842
today	-9.00909
▁human	-9.00992
▁half	-9.01129
▁key	-9.0119
▁parent	-9.01301
we	-9.01432
▁mor	-9.01462
sday	-9.01534
ell	-9.0174
ma	-9.01797
▁Kay	-9.01809
▁stand	-9.01956
▁Ju	-9.01988
▁act	-9.02124
▁legal	-9.02228
▁tax	-9.02378
▁thanks	-9.02423
▁trust	-9.02619
▁term	-9.02903
ng	-9.02939
▁notice	-9.03095
▁yoursel	-9.03115
▁link	-9.03418
▁plann	-9.03461
▁8	-9.03784
▁suggest	-9.03906
▁Have	-9.03914
▁13	-9.04113
el	-9.04234
▁picture	-9.04235
▁Agreement	-9.04236
▁major	-9.04239
▁North	-9.04259
▁Fax	-9.04291
▁matter	-9.04298
▁natural	-9.04357
▁threat	-9.04481
▁Thur	-9.04502
▁level	-9.04507
▁Israel	-9.04563
V	-9.04565
▁health	-9.04936
living	-9.05261
▁Well	-9.05293
▁pm	-9.05343
▁present	-9.05407
▁Indian	-9.05416
▁fund	-9.05431
▁25	-9.0562
▁Jun	-9.05674
L	-9.05713
he	-9.05743
wa	-9.05791
ration	-9.06003
ad	-9.06288
▁options	-9.06362
▁100	-9.06621
▁Ga	-9.06844
▁EB	-9.0701
▁access	-9.07271
enron	-9.07463
animals	-9.07532
▁special	-9.07558
energy	-9.0758
▁Per	-9.07639
ical	-9.07808
▁mov	-9.07871
▁black	-9.0793
▁figure	-9.07934
▁attempt	-9.07936
▁difficult	-9.07938
▁particular	-9.07942
▁Canada	-9.08037
▁Mar	-9.08094
▁safe	-9.08126
▁local	-9.08148
▁egg	-9.08274
▁Regards	-9.0828
▁sound	-9.08291
ley	-9.08318
▁sit	-9.08378
▁type	-9.08379
▁leg	-9.08492
▁shall	-9.08537
▁pet	-9.08634
▁kids	-9.08666
▁Ho	-9.08819
OK	-9.08842
▁miss	-9.08872
▁Her	-9.08982
▁ht	-9.0899
▁50	-9.09077
▁specific	-9.09117
all	-9.09152
ife	-9.09179
rs	-9.09182
▁risk	-9.09261
▁board	-9.09324
▁met	-9.09535
▁action	-9.09797
▁amount	-9.09801
▁leaders	-9.09807
om	-9.09836
LY	-9.10131
▁Kar	-9.10282
▁young	-9.1046
▁19	-9.10493
R	-9.10497
▁dis	-9.10523
▁Dec	-9.10841
▁rat	-9.10847
▁polic	-9.10975
▁confirm	-9.10977
ware	-9.11172
ittle	-9.11177
ondon	-9.11197
▁design	-9.11579
▁Vietnam	-9.11781
▁dollar	-9.11787
▁Vince	-9.11788
▁serious	-9.11794
▁personal	-9.11823
▁wonderful	-9.11823
▁budget	-9.11825
▁team	-9.11836
▁website	-9.11847
ake	-9.11958
▁u	-9.12001
▁CIA	-9.12101
▁statement	-9.12152
▁lack	-9.12183
raf	-9.12275
▁rude	-9.12328
▁quote	-9.12779
cal	-9.12873
▁dead	-9.12919
▁intend	-9.13045
▁bear	-9.1343
til	-9.13533
hind	-9.1363
ree	-9.13848
▁owner	-9.13856
▁@	-9.14223
urther	-9.14359
▁conference	-9.14441
ine	-9.14448
▁travel	-9.14476
▁14	-9.14615
▁step	-9.14707
▁definit	-9.14956
▁non	-9.14957
ted	-9.15262
▁proper	-9.1534
ite	-9.15427
hiri	-9.15498
et	-9.15703
ban	-9.15717
▁difference	-9.15788
kept	-9.15792
▁record	-9.15793
▁Europe	-9.15812
▁dinner	-9.15822
▁Arab	-9.16087
▁du	-9.16092
▁correct	-9.16185
▁necessar	-9.16223
▁mentioned	-9.16255
▁terrorist	-9.16377
▁respond	-9.16563
▁inside	-9.16889
ax	-9.17073
▁general	-9.17303
orry	-9.17508
▁option	-9.17532
▁control	-9.18029
▁increase	-9.18232
▁.?	-9.18381
ri	-9.18607
▁199	-9.18665
▁San	-9.18757
so	-9.18885
▁whe	-9.19288
▁law	-9.19561
hap	-9.19617
z	-9.19763
▁ok	-9.19922
▁drink	-9.19934
▁effort	-9.19943
▁exact	-9.19943
▁Japan	-9.19944
▁cruise	-9.19946
▁immediate	-9.19946
▁situation	-9.19949
▁lunch	-9.19957
▁chance	-9.19962
▁Nov	-9.19978
▁subject	-9.20038
▁guess	-9.20059
▁Even	-9.20127
▁amazing	-9.20258
▁cap	-9.20367
▁manager	-9.20452
▁lo	-9.20454
▁schedule	-9.20542
▁lead	-9.2058
cross	-9.20661
▁toward	-9.20693
K	-9.20749
▁operation	-9.20879
▁body	-9.20975
▁9	-9.21343
▁total	-9.2135
:00	-9.21367
line	-9.21416
▁fu	-9.21562
▁Service	-9.21847
99	-9.22003
▁administ	-9.22112
▁sometime	-9.22286
▁member	-9.22596
▁Carol	-9.22622
▁inter	-9.22665
▁appreciate	-9.2276
▁mail	-9.22918
port	-9.23201
,000	-9.234
▁rest	-9.23419
▁Tal	-9.23521
▁America	-9.23566
▁star	-9.24078
▁item	-9.24112
ster	-9.24129
ada	-9.24257
▁Syria	-9.24269
▁finish	-9.24271
▁Gulf	-9.24271
▁condition	-9.24296
▁research	-9.24299
▁significant	-9.24301
▁bird	-9.24317
▁according	-9.24321
▁First	-9.24407
▁standard	-9.24425
▁South	-9.24461
im	-9.24556
side	-9.24623
▁glob	-9.24712
▁president	-9.24736
eral	-9.25019
▁ship	-9.25203
▁spend	-9.25309
B	-9.25503
▁hot	-9.25656
▁Bill	-9.25701
▁spot	-9.25776
▁allow	-9.25948
▁normal	-9.26123
▁bus	-9.26138
▁page	-9.2614
▁six	-9.26169
▁bo	-9.26183
thra	-9.26338
har	-9.2643
▁reported	-9.26708
▁approve	-9.26731
stern	-9.26829
▁Hope	-9.26961
▁exist	-9.26986
ern	-9.271
▁value	-9.27114
▁NO	-9.2725
▁drive	-9.27299
▁save	-9.2745
▁k	-9.27638
v	-9.27752
ure	-9.27851
▁197	-9.279
▁shop	-9.27979
▁abou	-9.28152
▁nation	-9.28269
▁earl	-9.28373
ard	-9.28382
▁purchase	-9.28411
▁Richard	-9.2856
▁mu	-9.2856
▁source	-9.28626
▁Y	-9.28781
▁luck	-9.28853
▁danger	-9.28971
▁billion	-9.28983
▁honest	-9.2901
▁location	-9.29055
▁fel	-9.29095
▁Jul	-9.29185
▁August	-9.2922
▁cheap	-9.29246
▁Ha	-9.29249
▁saw	-9.29327
▁park	-9.29333
ier	-9.2936
▁version	-9.29471
▁Mus	-9.29556
▁sense	-9.29585
▁fixed	-9.29595
▁pull	-9.29779
▁rule	-9.29815
▁press	-9.29853
some	-9.2991
ism	-9.30084
tal	-9.30239
▁mid	-9.30367
co	-9.30438
ta	-9.30574
way	-9.30724
tter	-9.30967
6	-9.31106
▁Whi	-9.31211
▁unit	-9.31223
▁hearing	-9.31549
ts	-9.31672
▁st	-9.31675
▁mon	-9.31826
king	-9.31868
▁fi	-9.31871
▁x	-9.32055
former	-9.32211
ible	-9.32243
▁Lo	-9.32323
▁blood	-9.32598
uck	-9.32627
▁speak	-9.32715
▁interview	-9.32822
ie	-9.3288
▁print	-9.33146
bout	-9.33199
▁bro	-9.33328
▁Di	-9.33419
▁media	-9.33453
▁York	-9.33573
▁rabbit	-9.33574
▁Since	-9.33583
▁chicken	-9.33587
▁connection	-9.33589
▁management	-9.33597
▁Sunday	-9.33614
▁bor	-9.33637
▁hospital	-9.33682
▁news	-9.33699
▁basis	-9.33738
▁hour	-9.33763
▁development	-9.33807
▁fax	-9.3383
▁friendl	-9.34055
▁view	-9.34071
▁fair	-9.34153
▁fear	-9.3417
lines	-9.34277
▁grow	-9.34311
▁sort	-9.34503
▁reach	-9.34536
ver	-9.34782
ish	-9.34844
2000	-9.35077
▁works	-9.35585
▁comfortabl	-9.35675
▁cause	-9.35734
icide	-9.35927
iz	-9.35962
▁Sa	-9.36018
▁X	-9.36047
▁Will	-9.36158
▁leader	-9.36292
▁Che	-9.36394
▁heat	-9.36664
ors	-9.36676
nd	-9.36677
▁surge	-9.36764
stead	-9.37019
▁Sh	-9.37034
▁Go	-9.37107
▁opportunit	-9.3715
▁hug	-9.372
▁bar	-9.3721
▁California	-9.37309
ist	-9.37606
▁V	-9.38085
▁countr	-9.3813
▁Am	-9.38171
▁document	-9.38519
▁Egypt	-9.38569
▁absolute	-9.3857
▁transport	-9.38574
▁marri	-9.38577
▁wonder	-9.38579
DOC	-9.38594
▁activities	-9.38595
▁afford	-9.38611
▁running	-9.3862
▁single	-9.38631
▁chair	-9.3865
▁AS	-9.3867
▁update	-9.38731
▁info	-9.38735
▁model	-9.38952
▁apply	-9.38957
▁Le	-9.38995
▁21	-9.39274
▁fish	-9.39283
07	-9.39328
▁Del	-9.39513
ial	-9.3954
ASA	-9.39543
▁See	-9.39646
▁involve	-9.39748
▁sales	-9.39871
▁circle	-9.39883
dam	-9.39903
▁tire	-9.39976
▁fit	-9.4005
ant	-9.40146
ities	-9.4021
▁serv	-9.40374
▁listen	-9.40803
city	-9.40896
▁reviews	-9.40985
▁reasonabl	-9.41176
▁sell	-9.41188
▁release	-9.41422
tty	-9.41472
▁''	-9.4151
▁Man	-9.41875
▁range	-9.41942
▁defens	-9.41965
▁Su	-9.41967
time	-9.42109
▁Ca	-9.42291
▁West	-9.42475
argill	-9.42543
▁territor	-9.42576
▁17	-9.42727
hi	-9.42739
▁Pa	-9.42796
▁animal	-9.42812
12	-9.42952
ries	-9.42996
▁Over	-9.43432
▁Or	-9.43467
▁application	-9.43834
▁decade	-9.43837
▁Group	-9.43839
▁choice	-9.43839
▁student	-9.43841
▁stuff	-9.43842
▁decision	-9.43845
▁kitten	-9.43859
▁article	-9.43878
▁among	-9.43893
▁reference	-9.43902
▁street	-9.43904
▁benefit	-9.43927
▁color	-9.43944
▁fresh	-9.43974
▁deep	-9.44034
▁requirement	-9.44041
---------------	-9.44169
▁Right	-9.44178
▁Is	-9.44197
▁search	-9.44322
▁Paris	-9.4441
▁station	-9.4446
ked	-9.44487
ions	-9.44631
▁separate	-9.44687
▁handle	-9.44713
▁summ	-9.44879
▁bill	-9.4488
▁birth	-9.44996
▁ma	-9.45092
head	-9.45287
rom	-9.4529
▁Un	-9.45321
▁DO	-9.45415
▁receive	-9.45416
▁stor	-9.45621
▁se	-9.45635
killed	-9.45889
▁Feb	-9.45943
▁inform	-9.46011
illion	-9.46065
▁Ru	-9.46327
▁unt	-9.46387
▁vs	-9.46423
▁Sad	-9.46479
ence	-9.46648
▁box	-9.46649
msel	-9.46654
ring	-9.46694
een	-9.46889
mission	-9.46906
▁Sun	-9.4698
connect	-9.4701
▁li	-9.47208
▁protect	-9.47405
ike	-9.47451
ke	-9.47472
▁CA	-9.47511
▁neighbor	-9.47602
ily	-9.4772
▁los	-9.47758
▁note	-9.48139
▁thank	-9.48162
▁rep	-9.48233
▁trad	-9.4842
opez	-9.4843
▁card	-9.4853
▁fix	-9.48586
▁fast	-9.48649
▁fo	-9.48722
▁o	-9.48811
▁spoke	-9.48934
TTE	-9.49064
ai	-9.49113
na	-9.4919
▁focus	-9.49336
▁histor	-9.49385
▁Michael	-9.49388
▁beautiful	-9.49388
▁female	-9.49389
▁Commission	-9.49391
▁balance	-9.49395
▁EPM	-9.49395
...@	-9.49412
▁Global	-9.49413
▁organization	-9.4947
▁Email	-9.49531
▁push	-9.49543
sh	-9.49574
nce	-9.49575
▁cash	-9.49601
▁computer	-9.49631
▁spen	-9.4971
▁!!!!	-9.49733
▁Air	-9.49844
▁child	-9.49886
▁suggestion	-9.50039
▁require	-9.50143
▁Se	-9.50255
989	-9.50362
NA	-9.50556
iddle	-9.50608
sphere	-9.50761
▁promise	-9.5082
▁ye	-9.50899
▁nail	-9.50958
▁willing	-9.5098
▁enter	-9.51014
▁ne	-9.5127
of	-9.51278
▁38	-9.51343
339	-9.51359
▁reflect	-9.51579
▁chang	-9.51594
▁terror	-9.51692
▁expens	-9.51709
▁NAS	-9.51794
▁text	-9.51824
▁NY	-9.51871
often	-9.51885
▁host	-9.51946
▁Pakistani	-9.5199
M	-9.52073
▁original	-9.52387
OL	-9.52422
upon	-9.52512
ency	-9.5266
▁account	-9.52782
▁18	-9.52913
ounterpart	-9.52933
rench	-9.52981
▁tour	-9.53083
▁mark	-9.53118
ternational	-9.53353
▁cross	-9.53686
▁slow	-9.53699
rning	-9.53911
▁Du	-9.53936
net	-9.53977
▁vote	-9.53994
▁serve	-9.54051
ious	-9.54216
ud	-9.54282
ether	-9.5439
are	-9.54505
▁skill	-9.54522
▁His	-9.54705
▁class	-9.54726
▁22	-9.5474
go	-9.55124
ize	-9.55214
Executive	-9.5527
▁Wednesday	-9.5527
▁spread	-9.55278
▁confidential	-9.55279
▁window	-9.5528
▁Clair	-9.55297
Washington	-9.55305
▁basic	-9.55316
▁advice	-9.55346
▁supposed	-9.55346
▁Kim	-9.55369
▁electric	-9.5537
▁visa	-9.55384
usband	-9.55389
▁financial	-9.55445
▁road	-9.55462
ober	-9.5549
▁Other	-9.55491
H	-9.55495
▁common	-9.55502
▁repair	-9.55515
▁foot	-9.55537
▁count	-9.55577
▁flight	-9.55599
▁appear	-9.55612
▁Look	-9.55637
▁expert	-9.55701
▁patient	-9.55707
hey	-9.55879
▁ON	-9.55894
▁Where	-9.55951
▁hurt	-9.55971
▁Their	-9.56046
▁limit	-9.56088
▁true	-9.56231
▁TO	-9.56244
nergy	-9.56372
▁File	-9.56386
▁male	-9.564
▁crime	-9.56466
▁firm	-9.56478
▁taste	-9.56511
▁anyway	-9.5655
ay	-9.56675
▁ground	-9.56821
wood	-9.56966
▁pain	-9.57109
dditional	-9.57146
ru	-9.57188
▁Bu	-9.57461
ile	-9.57461
ior	-9.57592
▁sea	-9.5778
ship	-9.57828
▁replace	-9.57922
ama	-9.57983
▁Ou	-9.58006
▁create	-9.58027
▁Trans	-9.58095
▁via	-9.5813
▁writ	-9.5823
ality	-9.58263
▁blow	-9.58354
▁Pos	-9.58605
wi	-9.5861
ston	-9.58656
no	-9.58852
dom	-9.58857
▁ra	-9.58911
89	-9.5896
▁refer	-9.5897
▁prior	-9.59074
ONE	-9.59454
NE	-9.59466
▁execute	-9.59959
▁Ph	-9.60052
la	-9.60203
▁Ba	-9.60375
▁join	-9.60394
▁depend	-9.6041
▁economic	-9.60768
▁Steve	-9.60856
▁Sea	-9.61176
▁adjust	-9.61244
ready	-9.6125
vision	-9.61332
▁trouble	-9.61521
▁progress	-9.61521
▁capital	-9.61522
▁General	-9.61522
▁vacation	-9.61524
▁jump	-9.61529
▁religious	-9.61535
▁stock	-9.61545
▁department	-9.61569
▁Marie	-9.61569
▁Who	-9.61717
▁Year	-9.61722
▁film	-9.61767
▁opinion	-9.61778
▁arrest	-9.61781
▁appointment	-9.61783
▁Jim	-9.61794
▁social	-9.61902
▁white	-9.6193
▁music	-9.61997
▁industr	-9.62009
▁style	-9.62075
▁break	-9.62177
▁horses	-9.62208
▁size	-9.62274
▁Get	-9.62356
town	-9.62669
▁fail	-9.6271
ber	-9.62743
▁hit	-9.62758
▁dark	-9.62919
▁advise	-9.63225
▁impress	-9.63337
▁con	-9.63374
▁mine	-9.63404
▁Mary	-9.63414
▁driv	-9.63456
these	-9.63592
▁settle	-9.63643
▁realize	-9.63853
▁boy	-9.63983
▁Terr	-9.64003
▁Guar	-9.64023
▁Peter	-9.6412
▁band	-9.6416
▁dad	-9.64164
▁fill	-9.64289
▁Sha	-9.64295
EVER	-9.64353
ling	-9.6449
▁surprise	-9.64847
▁Ok	-9.64863
▁Ken	-9.64883
▁trie	-9.64998
▁Bob	-9.65006
▁kill	-9.65053
▁pl	-9.65124
ility	-9.65401
izz	-9.65411
▁Sen	-9.65429
ara	-9.65681
by	-9.65863
▁refuse	-9.65934
ah	-9.66078
back	-9.661
given	-9.66234
▁attenti	-9.6629
▁gain	-9.66327
ttle	-9.66427
▁hi	-9.66717
▁Tha	-9.66793
▁cent	-9.66931
▁Ver	-9.67044
ha	-9.672
rd	-9.67212
▁speci	-9.67311
led	-9.67312
▁officer	-9.6737
▁numbers	-9.67524
ISO	-9.67529
rry	-9.67621
▁extra	-9.67805
BI	-9.67844
▁Ben	-9.67969
▁except	-9.68052
▁individual	-9.68187
▁conversation	-9.68187
▁implement	-9.68188
▁advance	-9.68189
▁Lanka	-9.6819
▁drug	-9.68192
▁Shiite	-9.68194
▁target	-9.68197
▁obvious	-9.68198
▁Florida	-9.68198
▁sleep	-9.68199
▁OBS	-9.68205
▁Michelle	-9.68207
▁carol	-9.68258
▁establish	-9.6828
▁04	-9.68288
▁Ed	-9.68295
▁track	-9.6832
▁Russia	-9.68337
▁solution	-9.68393
ia	-9.68454
▁regular	-9.68463
▁effective	-9.68483
▁knowledge	-9.68484
▁plant	-9.68501
▁80	-9.68534
▁ride	-9.68548
▁popular	-9.68567
▁father	-9.68597
▁practice	-9.68619
za	-9.68708
▁hands	-9.68749
▁26	-9.68764
▁online	-9.68777
▁discussion	-9.68892
xcellent	-9.6898
any	-9.68981
▁agent	-9.69002
mmed	-9.691
▁web	-9.69127
▁image	-9.69253
▁Gam	-9.6928
▁age	-9.69449
▁wish	-9.69493
▁sal	-9.6962
▁south	-9.69664
ECT	-9.69769
old	-9.69877
▁voice	-9.69998
▁713-853-3	-9.70133
▁pa	-9.70191
rrow	-9.70215
ls	-9.70312
ol	-9.70479
▁Ch	-9.70556
▁giv	-9.70768
▁Dan	-9.70773
friend	-9.71034
Web	-9.71114
▁fee	-9.71182
▁fly	-9.71256
▁warn	-9.71275
▁leav	-9.71319
▁tr	-9.71353
▁sun	-9.71383
▁whom	-9.71797
ating	-9.72059
ition	-9.7207
▁son	-9.72107
EL	-9.72117
▁Govern	-9.72124
▁Yo	-9.72278
▁dress	-9.72359
9	-9.72603
▁Mo	-9.72723
os	-9.72724
W	-9.7278
▁Islami	-9.72806
▁Gu	-9.72809
▁begin	-9.72809
▁highl	-9.72828
her	-9.72936
▁tru	-9.73662
▁pric	-9.73711
▁Ar	-9.73889
▁launch	-9.73992
▁flow	-9.74059
▁fed	-9.74162
▁Tues	-9.74385
▁ba	-9.74398
the	-9.74488
▁beginn	-9.74494
more	-9.74781
▁sub	-9.74868
646-	-9.74955
▁Moha	-9.75071
sterda	-9.75233
▁physical	-9.7533
▁bathroom	-9.7533
▁previous	-9.75331
▁Palestinian	-9.75332
▁behavio	-9.75332
▁alternative	-9.75334
▁suspect	-9.75336
▁pilot	-9.75338
▁adult	-9.7534
▁population	-9.75348
▁Laden	-9.75348
▁measure	-9.75349
▁Susan	-9.75355
▁favorite	-9.75361
▁suffer	-9.75364
▁filter	-9.75396
▁kn	-9.75439
▁Both	-9.75449
▁wheel	-9.75468
▁education	-9.75478
▁corner	-9.75487
▁slight	-9.7551
▁rid	-9.75549
▁People	-9.75613
▁apartment	-9.75675
▁eviden	-9.7569
▁carry	-9.75784
▁??	-9.75821
▁roll	-9.75822
▁Call	-9.75872
▁nucle	-9.75898
▁Harris	-9.75912
▁worry	-9.75941
▁bas	-9.76049
▁procedure	-9.76109
▁sink	-9.7612
work	-9.76231
▁dating	-9.76287
▁waste	-9.76291
J	-9.763
▁touch	-9.76472
▁career	-9.76482
▁International	-9.76596
nu	-9.76648
▁Spa	-9.76676
▁Ra	-9.76705
▁Time	-9.76731
▁pressure	-9.76745
▁Of	-9.76837
▁bag	-9.76918
▁building	-9.76923
ER	-9.76992
▁.....	-9.77002
▁par	-9.77043
▁Kerr	-9.771
▁perform	-9.77104
mas	-9.77171
▁God	-9.77211
▁prepared	-9.77262
▁hang	-9.77463
inner	-9.7748
▁insur	-9.77541
▁dry	-9.77629
▁Commit	-9.77757
▁art	-9.77895
ated	-9.77946
▁shot	-9.77966
▁sheet	-9.77986
▁ENRON	-9.78014
▁reserve	-9.78091
▁generat	-9.78218
▁determine	-9.78568
▁busy	-9.78587
▁authorit	-9.78815
▁0	-9.78997
lly	-9.79037
▁24	-9.79179
O	-9.79226
▁prevent	-9.79246
▁creat	-9.7925
▁Me	-9.79307
▁713-	-9.79377
▁seek	-9.7941
▁red	-9.79642
01	-9.79669
uar	-9.79778
AP	-9.80151
.00	-9.80156
▁bigge	-9.80202
▁War	-9.80274
IT	-9.80281
▁Bo	-9.80317
▁ME	-9.80353
▁01	-9.80386
ir	-9.80876
▁counter	-9.8098
▁suit	-9.81084
weather	-9.81221
▁mile	-9.81307
▁assume	-9.8139
▁bare	-9.81456
▁GO	-9.81547
gan	-9.81705
▁meal	-9.81814
ast	-9.81839
▁easi	-9.81861
▁27	-9.81879
▁effect	-9.81883
▁employ	-9.81989
▁dai	-9.82
thr	-9.82046
pe	-9.82067
:	-9.82071
▁sta	-9.82156
▁mention	-9.82222
▁Je	-9.82287
▁des	-9.82482
▁WAS	-9.82572
tee	-9.82583
X	-9.82771
ntil	-9.82898
▁East	-9.82961
▁713	-9.83002
▁respect	-9.83013
▁Orleans	-9.83022
▁potential	-9.83023
▁Republic	-9.83023
▁School	-9.83024
▁decline	-9.83025
▁complain	-9.8303
▁strateg	-9.8303
▁pleasant	-9.8303
▁Office	-9.83031
▁societ	-9.83041
▁certificat	-9.83048
▁client	-9.83056
▁sweet	-9.83066
▁border	-9.83106
MENT	-9.83138
▁data	-9.83179
▁manner	-9.8318
▁cool	-9.83209
▁earth	-9.8324
▁winter	-9.83244
▁OF	-9.83249
▁Home	-9.8325
▁sick	-9.83258
▁finger	-9.83258
▁win	-9.83265
▁Scott	-9.83274
▁woman	-9.83293
)	-9.83376
▁hung	-9.83425
▁THI	-9.83436
▁Green	-9.83448
▁affect	-9.83489
▁Dave	-9.83504
▁According	-9.83522
▁Asia	-9.8354
ach	-9.83551
ee	-9.83557
▁copie	-9.83654
▁Joe	-9.83655
▁GCP	-9.8366
▁portion	-9.8367
▁lol	-9.83684
▁assist	-9.83794
▁Chin	-9.83888
▁propose	-9.84206
▁pair	-9.84292
▁Mann	-9.84395
DA	-9.84481
▁ear	-9.84575
clai	-9.84647
atur	-9.84683
▁injur	-9.84794
▁Mu	-9.84814
▁operat	-9.84854
▁meat	-9.8489
▁guide	-9.84899
▁tw	-9.84926
▁Li	-9.84992
▁cloth	-9.85037
reme	-9.8504
▁expected	-9.85394
da	-9.85451
▁weight	-9.85592
rated	-9.85632
▁po	-9.85773
▁vi	-9.85867
▁communit	-9.86046
*	-9.86124
▁Marc	-9.86138
telligence	-9.86426
nstead	-9.86483
45	-9.86995
▁minimu	-9.87148
▁arriv	-9.87164
ned	-9.87209
ak	-9.87227
▁handl	-9.87388
▁Cha	-9.87526
▁opening	-9.87646
▁05	-9.87973
▁broke	-9.88012
▁soft	-9.88193
▁Na	-9.8837
nda	-9.88403
▁transfer	-9.88431
▁raise	-9.88621
am	-9.8869
▁ho	-9.88896
rea	-9.8893
▁bomb	-9.89067
HAT	-9.89155
▁elect	-9.89232
ill	-9.89255
iness	-9.89284
DP	-9.8948
G	-9.89594
▁national	-9.89648
▁Fort	-9.89842
▁Court	-9.89941
▁jobs	-9.89964
niversit	-9.90004
▁Plan	-9.9011
▁argue	-9.90126
▁Stat	-9.90185
▁birthda	-9.90201
▁island	-9.90427
▁emerg	-9.90441
▁build	-9.90508
▁ches	-9.90531
ny	-9.90744
▁Mc	-9.90905
▁dance	-9.90913
whil	-9.90925
▁Sam	-9.9095
▁br	-9.91085
▁Samuel	-9.91356
▁Shackleton	-9.91356
▁purpose	-9.91356
▁constant	-9.91356
▁assassinat	-9.91356
▁Gregg	-9.91356
▁candidate	-9.91358
▁destroy	-9.91359
▁Beatle	-9.91362
▁favor	-9.91362
▁conflict	-9.91366
▁soldier	-9.91369
▁faith	-9.9137
▁college	-9.9137
▁maintain	-9.91371
▁regime	-9.91371
▁gift	-9.91381
▁package	-9.91383
▁block	-9.91384
▁governor	-9.91388
▁modern	-9.9139
▁ticket	-9.91405
▁Settlement	-9.91438
▁glad	-9.91441
▁recall	-9.91458
▁Float	-9.9147
▁Order	-9.91516
▁season	-9.9152
▁crap	-9.91571
▁Robin	-9.91583
▁companies	-9.91592
▁choose	-9.9162
▁table	-9.91635
▁guest	-9.91641
▁click	-9.91677
▁supplie	-9.91683
▁estimate	-9.91714
story	-9.91718
furniture	-9.91803
▁Sup	-9.91815
▁none	-9.91828
▁equip	-9.9183
ET	-9.91854
▁More	-9.91932
▁avoid	-9.92015
▁screen	-9.92018
▁City	-9.9206
▁active	-9.92079
▁expectation	-9.92086
▁responsibilit	-9.92118
▁Inc	-9.92127
▁Never	-9.92171
▁represent	-9.92195
▁finding	-9.92206
ro	-9.92255
▁trade	-9.92321
▁plus	-9.92341
▁Oh	-9.92428
▁Ji	-9.92459
▁prefer	-9.92539
▁forget	-9.92608
▁direction	-9.92628
▁bombing	-9.9265
▁driver	-9.92681
▁Dis	-9.92944
end	-9.92994
fighting	-9.92996
ibald	-9.93092
▁committe	-9.93144
▁select	-9.93161
▁ensure	-9.93396
▁lov	-9.93442
ED	-9.93464
op	-9.93481
▁ex	-9.93559
▁rare	-9.93665
▁audi	-9.93679
▁transactions	-9.93679
hip	-9.93726
▁Mos	-9.93737
▁Star	-9.9384
▁Than	-9.93871
▁code	-9.93898
▁trader	-9.93899
▁Tom	-9.94325
▁throw	-9.94349
▁instruct	-9.9443
▁=	-9.94439
der	-9.94446
▁Bin	-9.94524
▁cook	-9.94648
▁bite	-9.94693
▁Da	-9.94801
▁Senat	-9.95166
▁wine	-9.9518
▁associate	-9.95184
▁Tor	-9.95246
▁heart	-9.95373
▁civil	-9.95379
▁imagin	-9.95407
▁wi	-9.95566
onto	-9.9576
▁800	-9.95869
cut	-9.95959
▁Day	-9.96017
▁comp	-9.96033
▁bank	-9.96138
▁relate	-9.96148
atch	-9.96274
de	-9.96373
--------------	-9.96496
ul	-9.96506
▁participate	-9.96571
▁na	-9.96593
▁land	-9.96704
▁EN	-9.96859
morr	-9.96946
ig	-9.96972
▁earn	-9.96986
▁arrive	-9.97007
▁fan	-9.97071
▁disappoint	-9.97286
▁prove	-9.97302
ns	-9.97315
▁recommended	-9.97357
▁wol	-9.97511
rah	-9.97698
▁cancel	-9.97707
▁eye	-9.98077
▁transaction	-9.98241
our	-9.98302
03	-9.98318
▁north	-9.98695
▁Ta	-9.9879
▁Count	-9.99018
▁Vic	-9.99235
j	-9.99316
▁relax	-9.99401
▁port	-9.99502
io	-9.99553
▁produce	-9.99586
cent	-9.99603
▁seat	-9.99679
rage	-9.99817
▁write	-10.0035
▁Ahm	-10.0043
▁Analyst	-10.0045
▁holiday	-10.0045
▁recipient	-10.0045
▁Columbia	-10.0045
commercial	-10.0045
▁delicious	-10.0045
▁machine	-10.0045
▁Cindy	-10.0045
▁material	-10.0045
▁Brazil	-10.0045
▁parakeet	-10.0045
▁analysis	-10.0045
▁demand	-10.0045
▁disaster	-10.0046
▁lawyer	-10.0047
▁title	-10.0049
▁Linda	-10.0049
▁floor	-10.005
▁Worth	-10.0051
▁approval	-10.0051
strain	-10.0051
▁study	-10.0052
▁Italian	-10.0052
pipeline	-10.0052
▁element	-10.0053
▁alleged	-10.0054
ina	-10.0054
▁Johnson	-10.0054
▁invest	-10.0055
▁guarantee	-10.0056
▁delete	-10.0056
▁crew	-10.0056
▁manual	-10.0057
corporate	-10.0059
▁fantas	-10.0059
▁escap	-10.0071
▁discover	-10.0072
ko	-10.0074
▁task	-10.0074
▁content	-10.0076
▁video	-10.0076
▁Leon	-10.0078
▁tourist	-10.0078
▁repeated	-10.0091
▁curve	-10.0098
ph	-10.0101
▁mouth	-10.0103
▁Stan	-10.0107
▁central	-10.0108
▁capabilit	-10.011
▁terribl	-10.0113
ujah	-10.0125
▁invit	-10.0125
▁Love	-10.0127
▁surrounding	-10.013
▁camp	-10.013
▁revision	-10.0147
▁laws	-10.0149
▁dropp	-10.015
▁wide	-10.0157
▁cake	-10.0165
force	-10.0172
LE	-10.0173
▁Unfortuna	-10.0173
▁impos	-10.0175
▁Make	-10.0176
▁lesson	-10.018
▁variet	-10.0191
▁23	-10.0195
▁mass	-10.0195
▁writing	-10.0204
▁activit	-10.021
▁nor	-10.0216
▁Ja	-10.022
▁pool	-10.0222
▁culture	-10.0223
▁Try	-10.0238
▁Quest	-10.0245
▁mis	-10.0252
▁Jones	-10.0255
▁technolog	-10.0257
ification	-10.0263
▁Don	-10.0265
▁melt	-10.0269
▁Q	-10.0273
02	-10.0275
THERE	-10.0287
ffee	-10.0308
▁led	-10.0317
▁Dun	-10.0321
▁Ne	-10.0327
?	-10.0335
▁cold	-10.0336
SE	-10.0375
▁En	-10.0418
▁dish	-10.0431
ford	-10.0432
69	-10.0439
▁song	-10.0442
▁dirt	-10.045
25	-10.0467
rely	-10.0479
▁alt	-10.048
▁wall	-10.0497
▁describe	-10.0501
▁pai	-10.0506
ug	-10.0507
lower	-10.0518
▁spe	-10.0526
▁reduce	-10.0544
▁achieve	-10.0563
▁Fe	-10.0575
ex	-10.0576
84	-10.0592
mmer	-10.0592
▁loss	-10.06
▁provid	-10.0634
▁breath	-10.0639
▁owners	-10.0665
▁Islam	-10.0673
▁mess	-10.0676
ection	-10.0681
▁memor	-10.0684
▁la	-10.0691
Z	-10.0699
▁addition	-10.0718
house	-10.0733
400	-10.0742
▁satisf	-10.0742
▁assign	-10.0751
aster	-10.0753
my	-10.0754
▁Down	-10.0756
mp	-10.076
▁William	-10.0774
▁wa	-10.0781
▁75	-10.0789
ze	-10.079
lan	-10.0794
▁Ham	-10.0796
▁oppose	-10.0798
nglish	-10.0804
ations	-10.0816
▁manage	-10.0835
▁Arc	-10.0849
▁die	-10.0851
room	-10.0854
AT	-10.0872
▁Hu	-10.0878
use	-10.0894
▁responsib	-10.0895
▁Arm	-10.0896
rza	-10.091
do	-10.0917
war	-10.0928
▁putt	-10.0941
04	-10.0943
▁coup	-10.0947
▁encourage	-10.0957
▁fire	-10.0962
▁Dat	-10.0968
▁prepare	-10.1011
▁command	-10.1014
▁Corp	-10.1018
▁500	-10.1018
▁Hell	-10.1026
▁60	-10.1029
9/11	-10.1029
VERY	-10.1039
▁Baghdad	-10.1045
▁Silkie	-10.1045
▁vehicle	-10.1045
XLS	-10.1045
▁method	-10.1045
▁relationship	-10.1045
▁GOOD	-10.1045
▁brief	-10.1045
▁Saudi	-10.1045
▁network	-10.1045
▁excit	-10.1045
▁Congress	-10.1046
▁Spring	-10.1046
▁register	-10.1046
▁panel	-10.1046
▁England	-10.1046
▁super	-10.1047
▁argument	-10.1047
▁Australia	-10.1047
▁relative	-10.1048
▁mechanic	-10.1048
▁Sharon	-10.1049
▁centur	-10.1049
▁Christian	-10.105
▁5:00	-10.1051
▁apparent	-10.1052
▁mountain	-10.1053
▁strengthen	-10.1054
▁Food	-10.1055
▁Check	-10.1055
▁familiar	-10.1055
▁missile	-10.1056
▁Port	-10.1058
▁frequent	-10.106
▁coast	-10.106
▁sp	-10.1062
WAY	-10.1068
▁FOR	-10.1076
▁formal	-10.1079
▁successful	-10.1081
▁daughter	-10.1083
ative	-10.1084
▁positi	-10.1086
▁possibilit	-10.1086
▁drill	-10.1087
▁noise	-10.1089
▁Ferr	-10.1096
▁worrie	-10.1097
▁Kev	-10.1108
▁attorney	-10.1114
▁magic	-10.1115
▁Mom	-10.1115
▁300	-10.1116
▁blank	-10.1117
▁Market	-10.1125
________________	-10.1128
church	-10.1133
▁judge	-10.1151
▁flat	-10.1153
▁assistan	-10.1153
▁Deb	-10.1156
▁indicate	-10.1157
ward	-10.1161
▁lea	-10.1166
▁spokes	-10.1168
▁breed	-10.1173
red	-10.1185
▁Jam	-10.1186
ium	-10.1187
,	-10.1199
▁anti	-10.121
ise	-10.1224
up	-10.1225
▁occasion	-10.1229
▁spring	-10.1232
rate	-10.1233
▁fat	-10.1255
▁cell	-10.1256
▁remove	-10.1258
▁structure	-10.1259
▁Suf	-10.1265
EO	-10.1273
▁damage	-10.128
▁workers	-10.1281
▁confirmed	-10.1298
redit	-10.1299
▁mother	-10.131
▁Sta	-10.1326
UST	-10.1327
▁Table	-10.1331
AVE	-10.1332
EVE	-10.1334
▁flower	-10.1342
▁28	-10.1343
▁competiti	-10.1349
nsive	-10.135
mar	-10.1351
/30/200	-10.1356
▁funding	-10.1361
▁blog	-10.1362
▁Leg	-10.1378
▁gun	-10.1382
▁locat	-10.1406
board	-10.1419
▁violen	-10.1425
House	-10.1448
▁reporter	-10.1448
▁travell	-10.1463
ncy	-10.1473
ong	-10.148
▁mom	-10.1482
▁lay	-10.1486
▁cleaned	-10.1486
ESS	-10.1489
▁TW	-10.1494
unt	-10.1503
sk	-10.1508
▁reliab	-10.152
▁environment	-10.1533
▁econom	-10.154
▁graduate	-10.1543
▁terroris	-10.1549
▁Final	-10.1558
▁remind	-10.1567
aught	-10.1572
org	-10.1574
ix	-10.1574
▁rough	-10.1579
▁Robert	-10.1579
▁low	-10.1585
▁Canad	-10.1593
mental	-10.1608
▁Put	-10.1618
ni	-10.1621
▁Wal	-10.1635
▁expense	-10.1641
▁pets	-10.1649
▁Services	-10.165
▁Could	-10.1653
▁Product	-10.1656
istic	-10.1665
▁traffic	-10.1676
693	-10.1677
ball	-10.1677
▁BE	-10.1692
▁Wor	-10.1695
ide	-10.1703
▁---	-10.1739
▁alon	-10.1745
▁31	-10.1759
▁Centr	-10.1764
2001	-10.1765
TH	-10.1768
lace	-10.1772
▁relat	-10.1775
▁negotiat	-10.1779
14	-10.1801
▁meaning	-10.1805
▁Chi	-10.1808
2/200	-10.1814
▁contain	-10.182
▁tool	-10.1824
▁Unit	-10.1831
▁blu	-10.1834
▁las	-10.1838
▁invoice	-10.1848
▁cast	-10.1854
▁rec	-10.1854
wis	-10.1855
DC	-10.1875
▁sh	-10.1884
▁reconcili	-10.1885
▁lock	-10.1892
ca	-10.1897
▁muscle	-10.19
▁follows	-10.1922
▁Shi	-10.1923
▁USA	-10.193
▁milli	-10.1931
ME	-10.1935
▁King	-10.1936
▁Hat	-10.1944
▁Pho	-10.1948
▁remov	-10.1959
LOP	-10.1963
▁PS	-10.1993
healthy	-10.1999
▁foreign	-10.2008
II	-10.2011
▁Curren	-10.2033
▁Give	-10.2051
▁Brit	-10.2066
▁03/0	-10.2066
▁custom	-10.207
▁engine	-10.2083
ali	-10.2092
mart	-10.2109
▁hell	-10.2115
▁probab	-10.2135
▁percent	-10.2155
▁Hussein	-10.2156
▁Chicago	-10.2156
▁Stephanie	-10.2156
▁Zealand	-10.2156
▁disappear	-10.2156
▁sandwich	-10.2156
▁Warwick	-10.2156
▁temperature	-10.2156
▁stupid	-10.2156
▁vomit	-10.2156
▁Essie	-10.2156
▁premium	-10.2156
▁warrant	-10.2156
▁Second	-10.2156
▁confidence	-10.2156
▁LLC	-10.2156
▁doubt	-10.2156
▁EnronOn	-10.2156
▁blind	-10.2156
▁unique	-10.2156
▁false	-10.2157
▁recruit	-10.2157
▁session	-10.2157
▁incredibl	-10.2157
▁similar	-10.2157
▁FYI	-10.2158
▁resume	-10.2158
▁spray	-10.2158
▁typical	-10.2158
▁finance	-10.2158
▁gender	-10.2159
▁capture	-10.2159
▁Jason	-10.2159
▁breakfast	-10.216
▁mistake	-10.216
19	-10.216
▁equal	-10.216
▁Parent	-10.2161
▁fuel	-10.2163
▁double	-10.2164
▁Tana	-10.2164
▁affair	-10.2165
▁pupp	-10.2165
▁???	-10.2165
▁careful	-10.2166
▁petrol	-10.2168
▁truth	-10.2168
▁Jose	-10.2168
▁investigation	-10.2168
▁documentation	-10.2169
▁reception	-10.2171
▁pose	-10.2172
ards	-10.2172
▁Color	-10.2174
▁teacher	-10.2175
▁install	-10.2175
iff	-10.2175
▁Judge	-10.2177
▁clim	-10.2178
▁counterpart	-10.2178
NT	-10.2179
▁Us	-10.218
▁mouse	-10.218
▁efficient	-10.2184
/28/200	-10.2185
▁establishment	-10.2185
▁selection	-10.2186
▁Khan	-10.2188
▁trail	-10.2193
▁heavy	-10.2196
▁intercept	-10.2201
▁Security	-10.2203
▁hide	-10.2207
▁generation	-10.2208
▁path	-10.2236
▁seven	-10.2239
▁extend	-10.2239
▁REAL	-10.2243
▁slice	-10.2244
ternet	-10.2247
▁satani	-10.2251
ERC	-10.2251
/26/200	-10.2253
▁attachment	-10.2253
▁convict	-10.2266
▁trick	-10.2268
▁secure	-10.2273
▁tonight	-10.2278
▁grant	-10.2293
▁Har	-10.2302
▁studie	-10.2309
ger	-10.231
▁transmit	-10.231
▁appropriate	-10.2312
▁07/1	-10.2317
▁kid	-10.2318
▁internal	-10.2325
▁rais	-10.2331
▁Net	-10.2332
▁Mi	-10.2333
▁Cent	-10.2335
▁killing	-10.2337
HING	-10.2368
▁II	-10.2371
ubject	-10.2373
▁09	-10.2393
▁cou	-10.2396
▁cl	-10.2401
▁approach	-10.2402
▁Vi	-10.2406
▁Fuj	-10.2408
orld	-10.2409
oops	-10.2413
▁Compan	-10.2433
▁mode	-10.2441
▁gu	-10.245
▁Com	-10.2472
nation	-10.249
nyway	-10.2493
▁wou	-10.2497
▁award	-10.2504
▁shopp	-10.2536
▁mailing	-10.2539
▁agenc	-10.2549
▁Mid	-10.2561
▁gra	-10.2561
gain	-10.2563
▁Fro	-10.2577
10	-10.2585
hone	-10.2592
OW	-10.2611
▁Pres	-10.2617
▁pack	-10.2619
▁grand	-10.262
▁Fa	-10.2625
▁medi	-10.2636
▁referr	-10.2664
▁Jane	-10.2665
ended	-10.2668
▁ran	-10.2675
▁Has	-10.271
▁Blu	-10.2719
▁refus	-10.2722
fill	-10.2729
PI	-10.2733
▁greet	-10.2735
▁Po	-10.2773
▁nav	-10.2775
dden	-10.2777
▁bott	-10.2785
▁Ro	-10.2809
lah	-10.2816
▁values	-10.2821
over	-10.2825
▁Wi	-10.2825
▁player	-10.2826
own	-10.2829
▁j	-10.2829
▁challeng	-10.285
ronic	-10.2854
ear	-10.2856
eck	-10.2898
▁Cher	-10.2913
ird	-10.2936
how	-10.2949
risk	-10.2955
aman	-10.2958
▁High	-10.296
trial	-10.2961
▁medic	-10.2964
▁plane	-10.2975
▁coordinat	-10.2981
nts	-10.2982
▁AT	-10.2993
actions	-10.2996
nger	-10.3007
▁Tho	-10.3021
▁Non	-10.3024
75	-10.3032
BA	-10.3036
nnon	-10.3044
OM	-10.3046
▁char	-10.3049
yon	-10.3078
hy	-10.3079
rote	-10.3088
ates	-10.309
▁lie	-10.3105
fe	-10.3107
HERE	-10.3114
TC	-10.3148
▁clos	-10.3149
tention	-10.3156
▁guid	-10.3158
▁sight	-10.3166
▁whi	-10.3169
67	-10.3172
28	-10.3172
▁Bl	-10.3179
▁requir	-10.3183
wed	-10.3184
lliance	-10.3187
ettlement	-10.3193
▁Fall	-10.32
▁influen	-10.3201
▁pleas	-10.3201
chedule	-10.3203
▁dealer	-10.324
▁Base	-10.3247
▁deposit	-10.3256
hood	-10.326
▁Bal	-10.326
▁del	-10.3273
▁Rho	-10.3275
▁draw	-10.3277
▁Hal	-10.328
▁twi	-10.3288
▁surround	-10.3292
▁operate	-10.3293
▁ta	-10.3296
▁drop	-10.3298
ager	-10.3299
evil	-10.3302
bit	-10.3309
▁parti	-10.3322
▁Ya	-10.3324
▁movie	-10.3328
onference	-10.3328
ub	-10.3332
1.	-10.3333
▁trot	-10.3345
▁Mexic	-10.3371
payment	-10.3373
▁cha	-10.3393
▁yell	-10.3401
▁drag	-10.3402
▁cabin	-10.3404
▁liquid	-10.3405
▁FOOD	-10.3406
▁Katrina	-10.3406
▁helicopter	-10.3406
▁privilege	-10.3406
▁smooth	-10.3406
▁WITH	-10.3406
▁obtain	-10.3406
▁11/29/	-10.3406
▁Constitution	-10.3406
▁bowl	-10.3406
▁Tamil	-10.3406
▁prompt	-10.3406
▁STEP	-10.3406
▁success	-10.3406
▁compassion	-10.3406
▁Kyle	-10.3406
▁dealership	-10.3407
▁complex	-10.3407
▁switch	-10.3407
▁Atlant	-10.3407
▁vendor	-10.3407
▁consistent	-10.3407
▁Actual	-10.3407
▁hundred	-10.3407
▁LOVE	-10.3408
▁Leban	-10.3408
▁deserve	-10.3408
▁feature	-10.3408
▁Director	-10.3408
▁River	-10.3409
▁Sheikh	-10.3409
▁Balance	-10.3409
▁quiet	-10.3409
▁analyst	-10.3409
▁hamster	-10.3409
▁impact	-10.3409
▁straight	-10.3409
▁Hotel	-10.3409
▁Job	-10.341
▁Martin	-10.341
▁Gerry	-10.3411
▁background	-10.3412
▁1999	-10.3412
▁Rick	-10.3412
▁neighbour	-10.3412
ount	-10.3413
▁Cafe	-10.3413
▁admitted	-10.3413
▁Front	-10.3413
▁Imagin	-10.3415
▁hopeful	-10.3416
▁reward	-10.3417
▁rush	-10.3417
▁Pay	-10.3417
▁vast	-10.3418
▁delay	-10.3418
▁Molly	-10.3425
▁Nick	-10.3426
▁Island	-10.3426
▁brother	-10.3427
reports	-10.3429
▁green	-10.343
▁40	-10.3434
▁salad	-10.3434
▁cur	-10.3435
▁match	-10.3437
▁expand	-10.3437
▁chef	-10.3437
▁chief	-10.3444
▁cu	-10.3445
gimp	-10.3446
▁Far	-10.3446
▁shape	-10.3446
ga	-10.3448
ull	-10.3449
▁bulb	-10.345
▁moderate	-10.3456
▁1000	-10.3456
▁calm	-10.3458
▁Rice	-10.3459
rape	-10.3466
ami	-10.3476
▁asset	-10.3477
U	-10.3478
▁pop	-10.348
▁enem	-10.348
!	-10.349
▁dominate	-10.349
▁aspect	-10.349
▁role	-10.3492
▁forgot	-10.3499
ks	-10.3504
▁stick	-10.3508
▁Francis	-10.3508
▁compar	-10.3509
▁Pl	-10.3521
▁stage	-10.3528
▁Sit	-10.3532
▁fil	-10.3535
▁chemical	-10.3536
▁Jo	-10.3546
▁nine	-10.3548
▁emerge	-10.3549
▁fro	-10.355
▁mys	-10.3553
▁valu	-10.3557
▁loose	-10.3558
▁error	-10.3574
▁lab	-10.3575
▁occurr	-10.3576
▁paint	-10.358
▁Tak	-10.3583
▁boat	-10.3584
▁regret	-10.3585
▁technical	-10.3586
▁server	-10.3588
▁recommendation	-10.3595
▁forms	-10.3596
▁income	-10.3599
ondad	-10.36
orrible	-10.3605
▁degrees	-10.3632
▁Davi	-10.3634
▁broad	-10.3639
▁load	-10.3639
▁shut	-10.3646
row	-10.3665
BC	-10.3671
▁hu	-10.3672
▁submit	-10.3673
nature	-10.3676
▁score	-10.3682
▁rich	-10.3688
▁Prim	-10.369
▁wild	-10.3692
▁field	-10.3696
▁recover	-10.37
▁police	-10.3717
sm	-10.3723
6-1.	-10.3726
treet	-10.3743
RA	-10.3757
▁03	-10.3775
11	-10.3776
▁10:	-10.3778
eau	-10.3779
alon	-10.3779
▁Edw	-10.3786
▁bother	-10.3788
▁diplomat	-10.3803
▁west	-10.3804
▁Tit	-10.3819
ather	-10.3833
▁engage	-10.3848
30	-10.3851
▁bra	-10.3858
▁share	-10.3864
▁Defen	-10.3865
▁invite	-10.3868
▁artist	-10.3891
ood	-10.3895
▁brea	-10.3896
▁Minist	-10.3902
▁CO	-10.3902
▁COM	-10.3906
▁fr	-10.3919
stand	-10.3922
▁Patric	-10.3927
▁Fr	-10.3927
ester	-10.394
▁Associate	-10.3942
▁Note	-10.395
lf	-10.3955
tional	-10.3969
▁UV	-10.3972
▁generate	-10.3982
34	-10.3985
▁Sue	-10.3994
▁challenge	-10.3995
▁Ex	-10.4008
HR	-10.4029
▁posting	-10.4033
▁ski	-10.4034
orn	-10.4054
ran	-10.4075
west	-10.4079
ond	-10.4082
ments	-10.4098
▁literal	-10.4105
erchant	-10.411
▁tight	-10.4112
ters	-10.4112
▁coal	-10.4116
▁communicati	-10.4121
lid	-10.4123
cial	-10.4123
air	-10.4125
▁urin	-10.4135
▁round	-10.4149
entity	-10.4156
▁nest	-10.4161
AD	-10.417
ace	-10.4184
bar	-10.4202
▁heel	-10.4211
32	-10.4227
20	-10.423
▁releas	-10.4247
▁Wil	-10.427
▁statu	-10.4272
▁exception	-10.4278
▁addresse	-10.4278
▁invent	-10.4284
/10/200	-10.4286
craft	-10.4287
▁SO	-10.4304
▁41	-10.4312
▁utilit	-10.4321
7/200	-10.4322
▁Phil	-10.4322
▁hate	-10.4329
▁Fee	-10.4337
care	-10.4358
▁creativ	-10.4359
▁pla	-10.436
▁Mei	-10.4368
▁ST	-10.437
ik	-10.4379
▁Ni	-10.438
AL	-10.4383
▁Ave	-10.4385
sheet	-10.4398
guy	-10.4406
1:00	-10.4413
▁MY	-10.4413
word	-10.4423
▁rang	-10.4427
Q	-10.4438
▁mission	-10.4439
▁sur	-10.4439
dogs	-10.4452
15	-10.4457
▁Pre	-10.4465
laba	-10.4483
▁involv	-10.449
▁Kha	-10.4539
-------------	-10.4552
▁Val	-10.4555
▁mill	-10.4557
▁Bi	-10.4567
▁pe	-10.4568
▁Cra	-10.4569
▁substantial	-10.458
▁degree	-10.458
unni	-10.459
▁caus	-10.4591
▁produc	-10.4595
▁70	-10.4597
▁fac	-10.4602
▁Hol	-10.4607
▁movement	-10.4607
▁cultur	-10.4611
▁PO	-10.4613
0,000	-10.4617
▁12:	-10.4626
▁News	-10.4639
▁commit	-10.4647
▁Ku	-10.4648
▁Price	-10.4653
▁indicat	-10.4654
gs	-10.4661
79	-10.4662
▁welcome	-10.4673
000	-10.4684
▁Sal	-10.4689
▁politic	-10.4694
afra	-10.4695
▁Israeli	-10.4696
▁sto	-10.4709
▁BU	-10.471
▁compare	-10.4716
▁plast	-10.4721
▁gene	-10.4721
DT	-10.4745
▁priva	-10.4745
nstruction	-10.4749
▁bu	-10.476
stimate	-10.4767
▁numero	-10.4771
▁Arabi	-10.4789
KE	-10.4795
came	-10.4798
▁McCa	-10.4801
ILL	-10.4805
lin	-10.4808
▁decid	-10.4816
▁express	-10.4828
▁confident	-10.4834
ming	-10.4834
▁Analysis	-10.4834
▁Dasovich	-10.4834
▁Immigra	-10.4834
▁Jordan	-10.4834
▁volume	-10.4834
▁Picture	-10.4834
▁routine	-10.4834
▁license	-10.4834
▁favour	-10.4834
▁surface	-10.4834
▁laptop	-10.4834
▁suspicio	-10.4835
▁exposure	-10.4835
▁mutual	-10.4835
▁Earth	-10.4835
▁Metro	-10.4835
▁honor	-10.4835
▁yoga	-10.4835
▁counsel	-10.4835
▁extremist	-10.4835
▁fundamentalist	-10.4836
▁pledge	-10.4836
▁representative	-10.4836
▁Doctor	-10.4836
▁screw	-10.4836
▁minister	-10.4837
▁Board	-10.4837
read	-10.4837
▁branch	-10.4838
▁1980	-10.4838
▁ver	-10.4838
▁Sanders	-10.4838
▁provision	-10.4839
▁insurgen	-10.4839
▁gross	-10.484
▁RAP	-10.484
▁Bank	-10.484
▁Rude	-10.484
▁Jack	-10.484
▁cheek	-10.4841
▁barrel	-10.4842
▁grip	-10.4842
▁reservation	-10.4843
▁Camp	-10.4843
rtney	-10.4844
▁Rock	-10.4845
▁elsewhere	-10.4846
▁stress	-10.4848
▁Anton	-10.4848
▁200,000	-10.4849
▁Wood	-10.485
▁execution	-10.485
▁studio	-10.485
▁participant	-10.485
▁156	-10.4852
uce	-10.4853
▁pub	-10.4853
▁Family	-10.4855
▁bi	-10.4856
▁invasi	-10.4857
▁defin	-10.4858
▁brain	-10.486
▁religion	-10.487
▁ripp	-10.4871
▁v	-10.4874
▁Today	-10.4874
▁independent	-10.4875
▁guilt	-10.4877
▁sale	-10.4878
▁rock	-10.4879
▁Allow	-10.488
▁rent	-10.488
epartment	-10.4884
▁embarrass	-10.4885
▁wealth	-10.4895
▁Too	-10.4896
▁10/2	-10.4897
▁pol	-10.49
▁split	-10.4901
▁Nice	-10.4902
zu	-10.4907
bio	-10.491
lks	-10.4911
▁route	-10.4911
▁GM	-10.4912
▁Alber	-10.4912
▁Powe	-10.4913
lia	-10.4915
▁milk	-10.4915
▁:(	-10.492
▁litter	-10.4921
▁threaten	-10.4922
OUL	-10.4923
▁Agenc	-10.4925
▁Ram	-10.4928
aine	-10.4932
▁crowd	-10.4932
▁WH	-10.494
▁cru	-10.494
▁phase	-10.4944
▁inspect	-10.4948
▁Deal	-10.4959
▁Force	-10.4959
▁revise	-10.4962
UT	-10.4963
▁flood	-10.497
▁spiritual	-10.4975
▁multiple	-10.4977
▁ar	-10.4978
▁ALL	-10.4987
▁compress	-10.5009
enos	-10.5015
far	-10.5019
▁German	-10.5022
▁Park	-10.5024
ISCO	-10.503
▁Fish	-10.5031
08	-10.5031
▁purchas	-10.5033
▁Talk	-10.5035
view	-10.5037
▁Pass	-10.5038
▁pig	-10.5044
ez	-10.5045
▁ANY	-10.505
gie	-10.5065
▁section	-10.5068
▁Ame	-10.5072
▁Fri	-10.5079
ual	-10.508
mir	-10.5085
▁gear	-10.5089
▁Pen	-10.5095
▁guard	-10.5103
▁Yea	-10.5107
titude	-10.5107
▁climb	-10.5108
light	-10.5112
▁11:	-10.5121
▁designer	-10.5133
65	-10.5144
▁incite	-10.5147
rew	-10.5151
ransaction	-10.5156
▁ray	-10.5165
▁debt	-10.5167
▁46	-10.5169
▁qualifi	-10.5174
▁196	-10.5174
▁ball	-10.5177
▁muscles	-10.5178
▁Anne	-10.5179
▁Edi	-10.5183
▁Carn	-10.5187
hich	-10.5191
les	-10.5191
▁critic	-10.5194
▁Trade	-10.5196
▁conc	-10.52
li	-10.5201
▁val	-10.5202
▁Br	-10.5202
▁function	-10.5211
LEAS	-10.5215
▁execut	-10.5216
▁minor	-10.522
▁belong	-10.5231
ction	-10.5245
▁summar	-10.5252
▁commission	-10.5261
▁resource	-10.5262
▁65	-10.5281
els	-10.5283
▁Kenne	-10.5283
▁ignore	-10.5287
rates	-10.5289
▁visitor	-10.5293
▁Spani	-10.5303
▁virtual	-10.5305
▁Got	-10.5306
sed	-10.531
▁islands	-10.531
ib	-10.5323
▁Mou	-10.5324
▁Nav	-10.5328
▁AL	-10.5331
▁Kor	-10.5331
byl	-10.5333
nternational	-10.5342
▁Franc	-10.5344
▁shed	-10.535
ving	-10.5358
▁collect	-10.5362
▁nerv	-10.5362
▁Wint	-10.5372
▁laugh	-10.5373
▁goal	-10.5387
▁IP	-10.5387
▁suck	-10.5392
ot	-10.5395
▁EE	-10.5395
etting	-10.5404
asse	-10.5412
ron	-10.5424
▁freez	-10.5429
▁din	-10.5431
▁Corporat	-10.5436
▁Free	-10.5464
CO	-10.5467
▁Plu	-10.5479
_______________	-10.5479
spot	-10.5483
CA	-10.5489
▁accounts	-10.5494
▁Out	-10.5495
▁burn	-10.5506
▁hur	-10.5509
▁christ	-10.5513
▁Web	-10.5517
▁mate	-10.5539
▁biologi	-10.554
▁meta	-10.5563
▁Independen	-10.557
ellows	-10.5579
umb	-10.5599
▁sen	-10.5599
48	-10.5614
render	-10.563
▁format	-10.5639
▁tame	-10.5647
struction	-10.567
▁partners	-10.5679
▁describ	-10.5687
gua	-10.5693
ona	-10.5695
consumers	-10.5702
hen	-10.5722
▁avail	-10.5722
ef	-10.5727
▁hole	-10.5732
▁stream	-10.5734
▁minim	-10.5735
IG	-10.5735
▁initiate	-10.5736
▁PG	-10.5738
▁forth	-10.5738
SM	-10.5741
sump	-10.575
▁Hug	-10.5751
▁receiv	-10.5754
▁origin	-10.5758
tract	-10.5762
times	-10.577
▁signing	-10.5777
▁mad	-10.5792
▁presen	-10.5806
▁gallo	-10.5814
▁experiences	-10.5814
tory	-10.5819
▁desire	-10.5823
▁dust	-10.5828
ut	-10.5832
tting	-10.5842
▁beard	-10.5844
ek	-10.5852
▁Medi	-10.5859
par	-10.5861
rms	-10.5866
▁harm	-10.5873
tain	-10.5884
gg	-10.5914
off	-10.5914
burn	-10.5922
que	-10.5932
ag	-10.5932
ronaut	-10.5953
▁Dar	-10.5955
▁bed	-10.5968
▁01/1	-10.5976
ab	-10.598
▁net	-10.6005
▁LA	-10.6013
▁Suss	-10.6028
usual	-10.6028
lo	-10.6032
ff	-10.6036
ans	-10.6038
usiness	-10.6048
▁desp	-10.605
27	-10.6069
fia	-10.6106
72	-10.6109
▁bras	-10.6125
right	-10.6136
▁explor	-10.616
▁kne	-10.6163
ick	-10.617
rie	-10.6176
HA	-10.6194
▁hop	-10.6197
CK	-10.6199
▁Sala	-10.621
AS	-10.6225
▁convince	-10.6231
▁WA	-10.6237
▁04:	-10.6244
8/200	-10.625
,500	-10.625
▁Google	-10.6252
▁Dub	-10.6253
ery	-10.6256
▁gr	-10.627
venue	-10.6306
▁photograph	-10.6307
▁PA	-10.6318
CH	-10.6323
come	-10.6325
mer	-10.6333
astic	-10.6367
SA	-10.6367
▁proceed	-10.6368
bon	-10.6372
anic	-10.6372
▁functional	-10.6375
▁allocate	-10.6376
▁applie	-10.6388
▁Accord	-10.6389
▁author	-10.6394
YN	-10.6404
▁Pric	-10.6407
load	-10.642
▁wan	-10.6426
gue	-10.6429
▁hous	-10.6433
olla	-10.6438
limit	-10.644
▁Nam	-10.644
mith	-10.644
▁Ve	-10.6442
▁shoe	-10.6452
▁repeat	-10.6466
700	-10.647
▁dri	-10.6475
▁Gar	-10.6478
what	-10.6479
▁facilit	-10.648
▁pho	-10.6483
▁strength	-10.6485
▁55	-10.6487
▁Ay	-10.6489
▁detect	-10.6489
▁grab	-10.6493
und	-10.6499
▁fundamental	-10.65
▁Argentin	-10.6501
▁Richmond	-10.6501
▁SERVICE	-10.6501
▁System	-10.6501
▁Taiwan	-10.6501
▁asymmetric	-10.6501
▁consequence	-10.6501
▁ingredient	-10.6501
▁migrant	-10.6501
▁character	-10.6501
▁ARCHI	-10.6501
stitute	-10.6501
▁ultimate	-10.6501
▁TIME	-10.6501
delphi	-10.6501
▁demonstrate	-10.6501
▁ridicul	-10.6501
▁pocket	-10.6501
▁PRICE	-10.6501
▁farrier	-10.6501
▁flavor	-10.6501
▁scream	-10.6501
▁concept	-10.6501
▁rescue	-10.6501
▁imprison	-10.6501
▁kitchen	-10.6501
▁Barclay	-10.6501
▁accurate	-10.6501
▁Abdul	-10.6501
3736	-10.6502
▁Foreign	-10.6502
▁Philip	-10.6502
▁discourag	-10.6502
▁Pat	-10.6502
▁micro	-10.6502
▁entertain	-10.6502
▁conduct	-10.6502
▁knock	-10.6502
▁Louisian	-10.6502
▁succeed	-10.6502
▁radical	-10.6502
▁steak	-10.6502
▁annoy	-10.6502
▁Friend	-10.6502
▁calendar	-10.6502
▁discount	-10.6503
▁spawn	-10.6503
▁narrow	-10.6503
▁Secretary	-10.6503
▁Mont	-10.6503
▁Ryan	-10.6503
▁download	-10.6504
▁subsequent	-10.6504
▁36	-10.6504
▁cruel	-10.6504
▁identify	-10.6504
▁trillion	-10.6504
▁prize	-10.6504
▁science	-10.6505
▁smell	-10.6505
▁trash	-10.6505
▁alarm	-10.6505
▁failure	-10.6505
▁Compaq	-10.6505
▁Short	-10.6505
▁dwarf	-10.6505
▁leadership	-10.6505
▁identity	-10.6506
▁club	-10.6506
▁Danny	-10.6506
▁curb	-10.6506
▁destination	-10.6506
▁Parisian	-10.6507
▁Manager	-10.6507
▁preparation	-10.6508
▁collective	-10.6509
▁exceed	-10.6509
▁obligat	-10.6509
▁Marri	-10.6509
html	-10.651
▁Grand	-10.651
▁blame	-10.6511
▁decor	-10.6511
▁Trust	-10.6511
▁refund	-10.6511
▁pump	-10.6512
▁insert	-10.6513
▁strip	-10.6513
▁Liber	-10.6513
▁protest	-10.6514
▁expla	-10.6516
▁Rome	-10.6517
AN	-10.6519
▁pursu	-10.6519
▁ruin	-10.6521
IR	-10.6522
enter	-10.6528
▁pound	-10.6528
▁circular	-10.6529
▁instance	-10.6531
▁coz	-10.6531
▁amend	-10.6534
▁Super	-10.6534
ends	-10.6536
▁profit	-10.6536
EPC	-10.6537
incident	-10.6537
era	-10.6537
▁operative	-10.6539
▁Dale	-10.6541
▁devote	-10.6541
▁!!!!!!	-10.6542
▁Gray	-10.6544
▁acupunctur	-10.6546
▁indefinite	-10.6547
▁increasing	-10.6548
▁chose	-10.6551
▁cock	-10.6551
▁belie	-10.6551
▁deploy	-10.6552
▁hall	-10.6554
▁signature	-10.6554
▁Moslem	-10.656
▁EVERY	-10.6561
ncil	-10.6563
▁default	-10.6563
▁Sound	-10.6565
tone	-10.6566
▁disease	-10.6567
▁accident	-10.6571
▁Philippines	-10.6576
▁Brad	-10.6577
ccess	-10.6577
▁surprising	-10.6578
▁Provide	-10.658
▁adjustment	-10.6582
▁valid	-10.6582
hman	-10.6583
▁lap	-10.6585
▁chain	-10.6585
▁fellow	-10.6586
▁VI	-10.6588
▁Turk	-10.6588
▁2:30	-10.6593
eriod	-10.6596
▁Car	-10.6603
SHE	-10.6604
▁rein	-10.6609
▁inspir	-10.6609
▁1,	-10.6611
▁historical	-10.6614
▁essential	-10.662
▁Mean	-10.6621
▁Ball	-10.6625
▁layer	-10.6625
▁Earl	-10.6635
▁cla	-10.6638
▁pinkie	-10.664
▁programme	-10.6641
▁Wol	-10.6641
▁neg	-10.6642
▁76	-10.6647
▁talent	-10.665
▁rise	-10.666
▁Para	-10.666
▁averag	-10.6663
▁appli	-10.6665
oui	-10.6668
▁bug	-10.6669
▁continu	-10.667
▁wind	-10.667
▁Pew	-10.6675
▁Jana	-10.6677
▁misc	-10.6678
▁approximate	-10.6679
▁Additional	-10.6684
▁Shann	-10.6686
▁defend	-10.6688
▁opposit	-10.6689
▁famili	-10.669
▁Paula	-10.669
▁authoriz	-10.669
▁sky	-10.6692
▁planet	-10.67
▁Works	-10.6702
▁eliminate	-10.671
▁pure	-10.6714
▁welcom	-10.6719
▁03:	-10.6722
ac	-10.6723
▁gon	-10.6725
vant	-10.6725
▁setting	-10.6727
▁evaluat	-10.6727
sonic	-10.6734
▁rank	-10.6736
ippi	-10.6737
entic	-10.6737
▁considerabl	-10.6738
▁centre	-10.6745
▁complet	-10.6747
▁gar	-10.6748
▁consult	-10.6749
ignoff	-10.6757
▁sponsor	-10.6757
▁semi	-10.6763
▁Jen	-10.6768
un	-10.6769
▁MOR	-10.677
▁enable	-10.6787
▁Mil	-10.6788
▁photos	-10.6789
▁Dent	-10.679
▁Barb	-10.6794
▁publishe	-10.6806
rance	-10.6807
▁occup	-10.6812
▁Sir	-10.6843
▁dial	-10.6848
▁Er	-10.6851
ountain	-10.6853
▁joint	-10.686
taff	-10.6861
▁Aust	-10.6866
▁goals	-10.6869
tt	-10.6871
▁registra	-10.6872
pa	-10.6886
▁attract	-10.6887
▁tactic	-10.6892
▁Ki	-10.69
▁scare	-10.6902
fault	-10.6914
▁hire	-10.692
mbali	-10.6922
▁cris	-10.6923
▁integr	-10.6925
toxic	-10.6943
ents	-10.6959
▁ju	-10.6961
▁Mail	-10.6962
▁assum	-10.6971
table	-10.6975
ground	-10.6975
aurie	-10.6993
worm	-10.7009
29	-10.7015
▁hesitat	-10.7015
▁?!	-10.7016
▁fold	-10.7017
▁Light	-10.7025
▁ti	-10.7025
▁Con	-10.7025
▁03/1	-10.7028
▁frustrat	-10.703
▁juic	-10.7032
▁reputa	-10.7034
inter	-10.7035
▁factor	-10.7037
pecialist	-10.7039
▁tele	-10.7046
▁moral	-10.7049
graphic	-10.7056
▁distribut	-10.7056
ON	-10.7072
▁Cop	-10.7079
sa	-10.708
ura	-10.7082
▁bio	-10.7083
▁Mill	-10.7083
ap	-10.7084
▁***	-10.7097
▁acquir	-10.7112
con	-10.7119
life	-10.7121
▁Red	-10.713
rick	-10.7146
oursel	-10.7147
ged	-10.7149
,000,000	-10.7158
dity	-10.7162
plain	-10.7164
▁substanti	-10.7169
▁Parm	-10.7178
▁LO	-10.718
▁stat	-10.7184
▁Sat	-10.7197
dge	-10.7201
Read	-10.7201
▁improve	-10.7203
tra	-10.7205
▁Z	-10.7216
▁che	-10.7236
▁accuse	-10.724
ore	-10.7241
zz	-10.7245
unch	-10.7259
▁categor	-10.726
▁RI	-10.726
ontinue	-10.7261
▁Satan	-10.7265
▁poster	-10.7265
▁confuse	-10.7278
▁chir	-10.729
▁Pr	-10.7291
▁luna	-10.7292
▁wound	-10.7295
▁assur	-10.7304
▁multi	-10.7318
RC	-10.732
▁seal	-10.7342
▁sold	-10.7346
onscious	-10.7351
91	-10.7356
▁craft	-10.7377
▁citizens	-10.7381
▁Col	-10.7388
▁caps	-10.7397
▁09:	-10.7402
▁inquir	-10.7403
▁gener	-10.7411
▁offering	-10.7414
▁Manso	-10.7416
ocol	-10.7416
map	-10.7417
mature	-10.7436
tta	-10.744
ess	-10.7442
▁primari	-10.7467
▁conclude	-10.7471
▁primar	-10.7474
▁Pe	-10.7475
▁Clin	-10.7481
▁meter	-10.7486
▁chap	-10.7486
▁pot	-10.7494
▁Cu	-10.7499
▁smoke	-10.7505
▁Missi	-10.7509
get	-10.751
nais	-10.7513
oshi	-10.7514
▁UN	-10.7515
kin	-10.7525
als	-10.7534
oxi	-10.7538
▁ONL	-10.754
bodi	-10.7543
▁god	-10.7543
cher	-10.7544
twe	-10.7545
▁environmental	-10.7545
ompaq	-10.7549
LOI	-10.7551
▁Ted	-10.7562
▁Care	-10.7587
lled	-10.759
▁determin	-10.7592
▁90	-10.7598
▁GR	-10.76
=	-10.7605
obby	-10.7616
explore	-10.7617
▁announce	-10.762
ays	-10.7624
ue	-10.7628
▁tip	-10.7628
▁Hub	-10.7629
▁11:3	-10.7636
▁promot	-10.764
ational	-10.7647
▁cure	-10.7648
ontrol	-10.7657
race	-10.7657
bos	-10.7658
▁UP	-10.7681
▁beca	-10.7689
ound	-10.7694
acity	-10.7705
▁bl	-10.7738
▁34	-10.7742
▁plays	-10.7743
ea	-10.7753
aat	-10.7756
▁Under	-10.7771
▁LI	-10.7774
▁comfort	-10.7799
yo	-10.7799
ner	-10.7809
▁strange	-10.7815
▁Dea	-10.7818
▁45	-10.782
ibility	-10.7824
▁BA	-10.7837
kly	-10.7841
ugh	-10.7872
▁pray	-10.7897
tie	-10.7904
place	-10.7906
stic	-10.7912
▁beat	-10.792
▁Hot	-10.7932
hair	-10.794
▁spa	-10.7946
adian	-10.7947
▁wake	-10.7969
▁reviewer	-10.7971
▁stabili	-10.8002
wide	-10.8002
rch	-10.8013
blog	-10.8018
code	-10.802
▁02	-10.8022
▁ch	-10.8025
den	-10.8025
▁_______	-10.8027
stream	-10.8031
box	-10.8036
quarter	-10.8037
Jones	-10.8041
field	-10.8042
▁fl	-10.8051
▁CR	-10.8055
coal	-10.8055
▁don	-10.8063
▁assure	-10.8105
stair	-10.8112
▁urge	-10.8124
▁LOC	-10.813
▁secret	-10.8132
▁occupa	-10.8134
120	-10.8139
tten	-10.8152
pool	-10.8154
▁Chan	-10.816
▁fin	-10.8164
▁RE	-10.8173
▁Live	-10.8182
▁stu	-10.8194
TE	-10.8196
▁Law	-10.8205
ssa	-10.8209
▁Andre	-10.821
▁scar	-10.8212
16	-10.8214
▁beg	-10.8215
nternet	-10.8216
▁doors	-10.822
▁7:3	-10.8223
▁occur	-10.8225
res	-10.8236
▁photo	-10.8236
priced	-10.8245
▁Christ	-10.8245
▁mix	-10.8256
05	-10.8259
37	-10.8264
▁**	-10.8316
▁Travel	-10.8317
▁Var	-10.8326
lobal	-10.835
ISI	-10.835
▁democra	-10.8351
▁Harr	-10.8352
ague	-10.8353
▁GRE	-10.8353
▁Off	-10.8356
▁controll	-10.8357
ttorney	-10.8358
33	-10.836
▁Kee	-10.8366
▁constructi	-10.837
ushi	-10.8382
▁exam	-10.8384
ti	-10.8394
▁fol	-10.8397
44	-10.8399
▁propos	-10.8413
inea	-10.8415
alliance	-10.8417
VE	-10.842
ria	-10.8426
ES	-10.8431
▁Laur	-10.8432
shar	-10.8433
HC	-10.8434
▁Clim	-10.8434
▁Cli	-10.8436
▁object	-10.8439
▁Rob	-10.8445
▁buil	-10.8452
▁Administrati	-10.8463
spect	-10.8475
for	-10.8475
▁spirit	-10.8481
▁notifi	-10.8495
put	-10.8498
ease	-10.8499
▁Sand	-10.8499
▁sympath	-10.85
▁controvers	-10.8501
▁reimburs	-10.8501
▁Absolute	-10.8501
▁Bangladesh	-10.8501
▁District	-10.8501
▁HIGH	-10.8501
▁Montgomery	-10.8501
▁Program	-10.8501
▁Venezuela	-10.8501
▁Yahoo	-10.8501
▁advantage	-10.8501
▁fabulous	-10.8501
▁Jamaica	-10.8501
▁scholars	-10.8501
▁Rachel	-10.8501
▁monitor	-10.8501
▁prosecut	-10.8501
▁Management	-10.8501
▁pattern	-10.8501
▁Kuwait	-10.8501
▁silver	-10.8501
yndham	-10.8501
▁PERE	-10.8501
▁strict	-10.8501
▁unemploy	-10.8501
▁explosive	-10.8501
▁reptile	-10.8501
▁adapt	-10.8501
▁lifeboat	-10.8501
▁legislat	-10.8501
▁penalt	-10.8501
▁neighbourhood	-10.8501
▁plot	-10.8501
▁excuse	-10.8501
▁forecast	-10.8501
▁uniform	-10.8501
▁principle	-10.8502
▁laundr	-10.8502
▁deteriorat	-10.8502
▁rapid	-10.8502
▁Design	-10.8502
▁absorb	-10.8502
▁Mac	-10.8502
▁poison	-10.8502
▁silent	-10.8502
▁thorough	-10.8502
▁conclusion	-10.8502
▁jerk	-10.8502
▁tension	-10.8502
▁Fusion	-10.8502
▁Sullivan	-10.8503
▁Leigh	-10.8503
▁diagnose	-10.8503
▁McG	-10.8503
▁Network	-10.8503
▁awful	-10.8503
▁Fuel	-10.8503
▁guerrilla	-10.8503
▁veteran	-10.8503
▁mineral	-10.8503
▁newspaper	-10.8504
▁Limit	-10.8504
act	-10.8504
▁Appropriations	-10.8504
▁shelter	-10.8504
▁Frank	-10.8504
▁Angel	-10.8504
eep	-10.8504
▁Happ	-10.8504
▁sudden	-10.8504
▁debate	-10.8504
▁Murph	-10.8504
▁speech	-10.8505
yahoo	-10.8505
▁kick	-10.8505
▁accommodation	-10.8505
▁Africa	-10.8505
▁Brown	-10.8505
▁description	-10.8505
▁crop	-10.8505
BAL	-10.8505
▁swap	-10.8506
ark	-10.8506
▁Alito	-10.8506
▁Percell	-10.8506
▁instant	-10.8506
▁resort	-10.8506
▁Moore	-10.8507
▁isolat	-10.8508
▁shock	-10.8509
▁peaceful	-10.8509
▁Inter	-10.8509
▁rele	-10.851
▁revenue	-10.851
▁Polic	-10.851
▁expression	-10.8511
▁sentence	-10.8511
▁Eastern	-10.8511
▁ro	-10.8512
▁dozen	-10.8512
▁auto	-10.8512
▁boast	-10.8513
▁conscious	-10.8513
▁rumor	-10.8513
▁ab	-10.8514
▁100,000	-10.8514
▁Forster	-10.8515
▁Question	-10.8516
▁sister	-10.8516
▁unlike	-10.8516
▁Back	-10.8516
▁overwhelming	-10.8516
▁delight	-10.8516
▁Space	-10.8516
▁Type	-10.8517
▁sensor	-10.8517
940	-10.8517
▁2006	-10.8518
▁proposal	-10.8518
▁habitat	-10.852
▁feather	-10.852
▁lobby	-10.852
▁NW	-10.8524
▁tribe	-10.8525
▁Patty	-10.8526
htm	-10.8526
per	-10.8526
▁Further	-10.8526
▁roof	-10.8527
▁auth	-10.8527
hange	-10.853
▁merit	-10.8531
▁bright	-10.8533
▁defeat	-10.8534
▁Jean	-10.8534
▁bottle	-10.8534
▁Work	-10.8535
▁specialist	-10.8537
▁angel	-10.8538
▁gang	-10.8538
▁Senator	-10.8538
▁Bra	-10.8538
▁Virg	-10.8539
▁fabric	-10.8541
tenant	-10.8544
▁divid	-10.8544
▁haul	-10.8546
index	-10.8546
▁curren	-10.8548
▁FR	-10.8549
▁Administrat	-10.855
ps	-10.8552
▁Release	-10.8554
▁deny	-10.8558
▁highlight	-10.8558
▁fashion	-10.856
▁objection	-10.856
eeting	-10.856
▁chew	-10.856
▁bike	-10.8566
▁motion	-10.8568
▁convention	-10.8569
▁fur	-10.857
▁universal	-10.857
Civet	-10.8571
▁cafe	-10.8574
▁GA	-10.8575
▁priest	-10.8575
▁scary	-10.858
▁consideration	-10.858
itary	-10.8581
▁react	-10.8582
▁joke	-10.8583
sources	-10.8585
▁assess	-10.8588
▁revis	-10.8589
▁Rule	-10.8591
▁Cap	-10.8592
static	-10.8593
▁convenient	-10.8596
rk	-10.8597
AGE	-10.8597
▁Bang	-10.8605
ANT	-10.8605
▁tasting	-10.8606
▁STAR	-10.8611
▁saving	-10.8611
ntelligence	-10.8613
▁Roll	-10.8615
▁commander	-10.8615
▁collected	-10.8615
▁para	-10.8617
▁publication	-10.8621
▁shame	-10.8624
▁Alla	-10.8624
▁apart	-10.8625
▁Islamist	-10.8627
ott	-10.8627
▁OVER	-10.863
rancisco	-10.8636
pologize	-10.8641
▁haha	-10.8646
▁Cam	-10.865
▁float	-10.8658
▁Current	-10.8661
▁boot	-10.8661
▁Baba	-10.8664
▁Devi	-10.8665
▁proceeding	-10.8667
arch	-10.8673
MAN	-10.8674
▁DSL	-10.8674
▁button	-10.8676
▁pretend	-10.8677
▁ja	-10.8681
▁Add	-10.8682
▁Ellis	-10.8682
iling	-10.8685
▁cr	-10.8685
▁timing	-10.8687
4/200	-10.8689
labi	-10.8689
ons	-10.869
▁bondad	-10.8693
lio	-10.8693
▁Kind	-10.8694
▁Rod	-10.8701
▁mosque	-10.8713
▁Nail	-10.8716
▁Though	-10.8721
▁WHO	-10.8723
6:00	-10.8725
▁circulate	-10.8726
hin	-10.8727
kii	-10.8733
▁hunt	-10.8734
▁intention	-10.8735
▁35	-10.8739
▁345-	-10.8741
▁strik	-10.8741
▁Va	-10.8742
▁concert	-10.8742
dental	-10.8744
▁Uni	-10.8746
▁reaction	-10.8748
▁Mur	-10.8752
▁Grac	-10.8754
nch	-10.8765
▁extensi	-10.8769
▁Walk	-10.8771
▁Intelligence	-10.8773
▁raci	-10.8773
▁spell	-10.8774
▁identifie	-10.8775
▁root	-10.8778
▁soul	-10.8782
▁foreigner	-10.8786
cious	-10.8787
nic	-10.879
▁leak	-10.879
▁Phy	-10.8793
▁List	-10.8795
▁patien	-10.8799
rude	-10.88
▁signal	-10.8806
50	-10.8807
ple	-10.881
▁Need	-10.8817
▁Abb	-10.8819
▁launcher	-10.882
09	-10.8829
▁Perv	-10.8833
▁compensat	-10.8833
DG	-10.8837
▁destructi	-10.884
testimony	-10.8848
▁empt	-10.8849
▁Los	-10.8851
enovat	-10.8853
ctic	-10.886
corp	-10.8868
▁envelope	-10.8876
▁pipe	-10.8876
▁accumulat	-10.8887
▁renew	-10.8894
raig	-10.8896
▁sum	-10.8896
▁movements	-10.8898
dominant	-10.8905
▁evident	-10.891
RV	-10.8922
▁marked	-10.8922
▁Prices	-10.8922
▁Las	-10.8925
▁Thai	-10.8929
Bond	-10.893
▁Chal	-10.8939
▁mold	-10.8941
▁Bil	-10.8945
▁Fed	-10.8945
▁speaker	-10.8951
▁47	-10.8952
35	-10.8955
▁edit	-10.8956
▁dine	-10.8964
mbo	-10.897
▁baker	-10.8973
TA	-10.8979
▁communicat	-10.8979
▁quarter	-10.8987
▁disclose	-10.8991
▁29	-10.8996
▁oh	-10.8998
pping	-10.9
mor	-10.9005
▁Bad	-10.9008
▁fam	-10.9014
▁hid	-10.9018
▁stall	-10.9027
OT	-10.9042
RI	-10.9047
▁wang	-10.9049
****************	-10.9058
▁survive	-10.9059
pers	-10.9061
▁Shu	-10.9066
▁Financ	-10.9067
▁shipp	-10.9069
inal	-10.9071
▁33	-10.9075
.5	-10.9076
▁arrange	-10.9081
ean	-10.9086
▁adher	-10.9088
mike	-10.909
pite	-10.9091
▁Lyn	-10.9092
fr	-10.9095
▁congre	-10.9114
▁Tr	-10.9116
▁Os	-10.9121
▁buck	-10.9124
achi	-10.9126
88	-10.9128
till	-10.9132
MUNI	-10.914
▁flee	-10.9144
▁Had	-10.915
▁examin	-10.9152
▁bet	-10.9157
AM	-10.9161
aba	-10.9163
▁bust	-10.9164
▁addict	-10.9173
ems	-10.919
▁MA	-10.9198
rv	-10.92
REE	-10.92
sure	-10.9207
▁compa	-10.9214
▁stepp	-10.9221
▁El	-10.9221
▁Medic	-10.9232
36	-10.9234
USE	-10.9237
hurch	-10.9242
▁BO	-10.9245
GE	-10.9245
▁Carolin	-10.9253
em	-10.9266
nning	-10.9275
sex	-10.9278
omprehensi	-10.928
▁Highl	-10.9296
▁08	-10.9298
awa	-10.9309
lor	-10.9311
▁Buy	-10.9311
▁somewh	-10.9312
▁Part	-10.9314
▁extradit	-10.9323
▁founder	-10.9338
▁initiat	-10.9345
▁Ali	-10.9347
etter	-10.935
avig	-10.935
▁YE	-10.9353
▁wed	-10.9358
▁Win	-10.9361
CE	-10.9365
▁Only	-10.9373
▁sample	-10.9377
▁men	-10.9385
▁Pop	-10.9386
▁Infinit	-10.9395
▁Equi	-10.9395
▁tent	-10.9396
7.	-10.9397
rovince	-10.9399
▁seize	-10.9401
▁Bow	-10.9415
▁sole	-10.9418
▁Fo	-10.9422
asis	-10.9425
ceipt	-10.9445
position	-10.9448
------------	-10.9448
ahar	-10.9452
===	-10.9453
▁Bar	-10.9454
ospital	-10.946
▁broker	-10.9466
▁interviewer	-10.9468
5/200	-10.9471
van	-10.9481
▁stori	-10.9488
▁EC	-10.9507
sian	-10.951
▁solve	-10.9513
▁vari	-10.9518
▁que	-10.9529
▁56	-10.9535
ss	-10.9536
▁visi	-10.9538
▁cleaner	-10.9549
▁wear	-10.9557
Speak	-10.9557
▁participat	-10.9564
▁dut	-10.957
▁HE	-10.9574
ev	-10.9577
abi	-10.9584
▁chase	-10.9589
ola	-10.9592
▁Hami	-10.9593
nut	-10.9593
ep	-10.9595
▁Bend	-10.9606
lies	-10.9615
top	-10.9617
▁rul	-10.962
▁str	-10.9621
▁68	-10.9624
ari	-10.9634
▁carrie	-10.9638
ayment	-10.9661
▁si	-10.9663
▁conclud	-10.9663
gation	-10.967
marry	-10.9678
▁Wild	-10.9681
▁Cr	-10.9683
mayur	-10.9684
ambit	-10.9705
▁smok	-10.9712
BLE	-10.9712
egal	-10.9713
mi	-10.9716
PA	-10.9719
gh	-10.9722
▁approv	-10.9725
▁noon	-10.9726
▁consumer	-10.9726
nis	-10.9731
▁neat	-10.9736
46	-10.9739
amily	-10.974
unk	-10.974
zi	-10.9751
▁Bri	-10.9752
him	-10.9755
▁dig	-10.9769
SS	-10.977
▁schedul	-10.9779
▁biolog	-10.9799
47	-10.9806
▁Bre	-10.9819
▁Aa	-10.982
ress	-10.9843
▁sat	-10.9871
▁becom	-10.9878
▁ve	-10.9882
▁maint	-10.9888
▁CP	-10.9901
▁confus	-10.9903
ience	-10.9904
▁WHE	-10.9921
ain	-10.994
▁rac	-10.9941
▁abuse	-10.9947
▁646-	-10.9952
______________	-10.9955
▁calculat	-10.9958
▁IN	-10.9967
name	-10.9967
evelopment	-10.9969
cc	-10.997
onym	-10.9979
▁supporter	-10.9979
now	-10.998
ngle	-10.9982
▁tradition	-10.9989
▁impression	-10.9989
▁height	-10.9992
▁improv	-10.9992
▁Tenn	-10.9997
▁lad	-11.0018
▁admit	-11.0022
▁Pur	-11.0023
DB	-11.0025
ces	-11.0025
▁74	-11.0031
▁10:5	-11.0033
▁awar	-11.0044
unity	-11.0045
mic	-11.0088
eaten	-11.01
▁ARE	-11.0102
▁organiz	-11.0103
rst	-11.0106
95	-11.0109
▁tend	-11.0133
▁Bran	-11.0133
▁chor	-11.0136
▁comb	-11.0141
posed	-11.015
min	-11.0156
▁manufacture	-11.0164
lla	-11.0175
▁acquire	-11.0176
▁FA	-11.0197
verpriced	-11.0198
ctions	-11.02
VB	-11.0201
imply	-11.0202
▁Ten	-11.0209
▁rear	-11.0218
▁paw	-11.0237
fall	-11.024
ral	-11.0253
nted	-11.0267
-1.	-11.028
week	-11.029
rete	-11.0291
IS	-11.0305
ional	-11.0326
gi	-11.0329
▁Bond	-11.0334
▁Que	-11.0336
▁surviv	-11.0337
▁415	-11.0347
▁ignor	-11.0354
stan	-11.0359
ventur	-11.036
▁aim	-11.0363
▁Age	-11.0364
▁bull	-11.0373
▁investigat	-11.0374
▁pos	-11.038
bor	-11.0397
▁Ever	-11.0402
iba	-11.0402
ool	-11.0404
▁sl	-11.0416
power	-11.0422
▁scratch	-11.0427
▁250	-11.043
tro	-11.0434
EAT	-11.044
▁Ko	-11.0444
dy	-11.0452
rap	-11.0481
dit	-11.0482
ampa	-11.0483
EN	-11.0485
▁wor	-11.0493
▁vita	-11.0499
lation	-11.0514
/27/200	-11.0517
dan	-11.0541
▁publish	-11.0542
like	-11.0552
fra	-11.0553
spring	-11.0556
:32	-11.0559
ID	-11.0566
oul	-11.0571
▁quot	-11.0577
▁Cre	-11.058
▁provider	-11.0584
broad	-11.0586
▁Ad	-11.0587
CATION	-11.0591
erson	-11.0592
lent	-11.0593
▁ENE	-11.0595
▁20,000	-11.0596
ail	-11.0599
▁coff	-11.0599
gle	-11.0603
▁GI	-11.062
fi	-11.0625
▁thir	-11.0631
rison	-11.0633
▁gate	-11.0649
ital	-11.0657
▁Hou	-11.0658
▁hel	-11.0663
▁bou	-11.0663
▁SU	-11.0681
▁dam	-11.0686
▁sho	-11.0686
phone	-11.0716
▁Ke	-11.0716
▁court	-11.0725
3/200	-11.0729
85	-11.0746
▁Regard	-11.0748
▁horr	-11.0749
ST	-11.0765
ocation	-11.0776
hould	-11.0781
eligious	-11.0781
▁appropriat	-11.0782
ujai	-11.0782
▁Hind	-11.0786
▁suc	-11.0791
▁PR	-11.0792
▁pink	-11.0796
▁inflat	-11.0803
▁Act	-11.0806
▁09:4	-11.0823
▁disc	-11.0824
eclar	-11.0825
▁flu	-11.0826
▁temp	-11.0828
KED	-11.0835
ports	-11.0839
49	-11.0844
tive	-11.0844
▁google	-11.0856
have	-11.0865
▁domin	-11.0866
umara	-11.088
▁abs	-11.0889
▁Fede	-11.0894
ping	-11.0904
rist	-11.0912
▁rea	-11.0913
▁Gen	-11.0917
pot	-11.0918
lett	-11.0927
onald	-11.0928
▁surve	-11.0932
ose	-11.0934
▁lope	-11.0937
▁Jer	-11.0946
erry	-11.0946
▁paste	-11.095
▁Blo	-11.0959
▁Calcul	-11.0962
▁replie	-11.0973
cular	-11.0976
▁04:1	-11.0978
ology	-11.0979
ival	-11.0988
▁liq	-11.0994
▁Michel	-11.0994
reakfast	-11.0996
▁precise	-11.1001
▁vulnerab	-11.1001
ElPaso	-11.1001
FINAL	-11.1001
▁Christopher	-11.1001
▁Experience	-11.1001
▁HORRIBLE	-11.1001
▁Hubbard	-11.1001
▁Kaminski	-11.1001
▁Kaufman	-11.1001
▁Microsoft	-11.1001
▁Norwegian	-11.1001
▁Packard	-11.1001
▁Pennsylvania	-11.1001
▁Rosalee	-11.1001
▁adequate	-11.1001
▁apprehensi	-11.1001
▁distinguish	-11.1001
▁giraffe	-11.1001
▁hijacker	-11.1001
▁sculpt	-11.1001
▁unexpected	-11.1001
▁vegetable	-11.1001
▁202.456.1	-11.1001
▁Visualiz	-11.1001
▁aggravat	-11.1001
▁compliment	-11.1001
▁contradict	-11.1001
▁inevitabl	-11.1001
Leopold	-11.1001
▁Application	-11.1001
▁Malaysia	-11.1001
▁Marianne	-11.1001
▁budgie	-11.1001
▁desperate	-11.1001
▁volunteer	-11.1001
▁colleague	-11.1001
▁kilomet	-11.1001
▁neurolog	-11.1001
▁06/01/200	-11.1001
▁713-654-	-11.1001
▁scoop	-11.1001
▁grateful	-11.1001
▁extraordinar	-11.1001
▁recieve	-11.1001
▁Daniel	-11.1001
▁Garcia	-11.1001
▁channel	-11.1001
▁Dallas	-11.1001
▁Pioneer	-11.1001
▁Answer	-11.1001
▁censor	-11.1001
▁Belgi	-11.1001
▁DEAL	-11.1001
▁punish	-11.1001
▁database	-11.1001
▁patron	-11.1001
▁Electric	-11.1001
▁nutri	-11.1001
▁AMAZING	-11.1001
▁collapse	-11.1001
▁hibernat	-11.1001
▁withdraw	-11.1001
▁atroph	-11.1001
jpg	-11.1001
▁abandon	-11.1001
▁dentist	-11.1001
▁eligib	-11.1001
▁delicate	-11.1001
▁curtain	-11.1001
8-7	-11.1001
▁01/19/	-11.1001
▁trademark	-11.1001
▁exhibit	-11.1001
▁Description	-11.1002
▁struggl	-11.1002
▁postpone	-11.1002
▁length	-11.1002
▁Balochi	-11.1002
▁Express	-11.1002
▁dream	-11.1002
▁trigger	-11.1002
▁python	-11.1002
▁overflow	-11.1002
▁Clean	-11.1002
▁Alexand	-11.1002
▁flakes	-11.1002
▁superior	-11.1002
▁frighten	-11.1002
▁EGM	-11.1002
▁Steak	-11.1002
▁substance	-11.1002
▁WAIT	-11.1002
▁aggressive	-11.1002
▁intuitive	-11.1003
▁Tollis	-11.1003
▁resolution	-11.1003
▁household	-11.1003
▁unfortunate	-11.1003
▁Gonzales	-11.1004
▁Revolution	-11.1004
▁revolution	-11.1004
▁Support	-11.1004
6939	-11.1004
▁grandmother	-11.1004
▁16.3	-11.1004
▁CAME	-11.1004
▁Help	-11.1004
▁freight	-11.1005
▁shift	-11.1005
▁embass	-11.1005
▁politician	-11.1005
oke	-11.1005
▁Proposal	-11.1005
▁cousin	-11.1005
▁advertis	-11.1005
▁Roger	-11.1005
▁harsh	-11.1005
▁Bosnia	-11.1005
▁faithful	-11.1005
▁sharp	-11.1006
cific	-11.1006
▁overcharge	-11.1006
▁declar	-11.1007
▁spoil	-11.1007
▁Personal	-11.1007
▁rebel	-11.1007
▁incompeten	-11.1007
▁respectful	-11.1007
▁superb	-11.1008
▁forbid	-11.1008
▁Nancy	-11.1008
▁Levi	-11.1008
▁shoot	-11.1008
▁clock	-11.1008
▁thankful	-11.1008
▁liberal	-11.1009
▁migrate	-11.1009
▁dismiss	-11.1009
▁remark	-11.101
▁TRY	-11.101
▁Robbi	-11.101
▁HOW	-11.101
▁funeral	-11.101
▁cabinet	-11.101
▁motor	-11.101
▁blackline	-11.1011
▁Horrible	-11.1011
▁Follow	-11.1011
▁Eric	-11.1012
osario	-11.1012
pdf	-11.1012
▁jaw	-11.1012
▁Room	-11.1012
▁executive	-11.1012
▁Visa	-11.1013
▁Shady	-11.1013
▁Trav	-11.1013
▁spike	-11.1014
▁CST	-11.1014
▁collage	-11.1014
▁civilian	-11.1015
▁smile	-11.1015
▁fyi	-11.1016
▁panic	-11.1017
▁Hmmm	-11.1018
▁Disp	-11.1018
▁device	-11.1018
ecker	-11.1019
▁Auto	-11.102
▁accent	-11.102
▁Walker	-11.102
mazing	-11.1022
▁glass	-11.1023
ville	-11.1023
▁Radi	-11.1024
▁grabb	-11.1024
▁groom	-11.1024
▁square	-11.1024
▁Sub	-11.1024
▁scam	-11.1025
▁loud	-11.1025
▁GW	-11.1025
▁NEW	-11.1026
▁PST	-11.1026
▁alert	-11.1027
▁Swift	-11.1027
▁Link	-11.1028
▁corporation	-11.1029
▁jack	-11.1031
▁Gov	-11.1031
▁contribution	-11.1031
▁Liz	-11.1032
▁Baff	-11.1036
▁10,000	-11.1037
▁temple	-11.1039
unga	-11.1039
▁va	-11.1042
▁Opera	-11.1044
▁gentle	-11.1044
▁capa	-11.1046
▁outlet	-11.1046
▁weird	-11.1046
▁gallery	-11.1046
SHI	-11.1047
▁im	-11.1049
ykman	-11.1051
▁MK	-11.1054
▁Report	-11.1054
▁Turn	-11.1055
▁Little	-11.1055
▁conservative	-11.1056
▁43	-11.1056
▁gda	-11.1056
▁Ye	-11.1057
▁Noble	-11.1058
▁cooperat	-11.106
▁outcome	-11.1061
▁Labor	-11.1062
▁sympathizer	-11.1062
▁FY	-11.1062
▁spore	-11.1064
▁Water	-11.1073
▁advisor	-11.1074
▁topic	-11.1074
▁Customer	-11.1076
▁keen	-11.1077
▁iron	-11.1079
▁respective	-11.108
▁SW	-11.108
IC	-11.1082
▁Crim	-11.1082
OUT	-11.1083
gov	-11.1083
ere	-11.1086
precede	-11.1087
▁Assistan	-11.1087
▁Worker	-11.1089
▁epi	-11.109
▁teeth	-11.1091
▁dramatic	-11.1092
▁gathering	-11.1093
▁fuss	-11.1095
nformation	-11.1095
▁pan	-11.1097
▁sexual	-11.1097
▁distinct	-11.1098
▁battle	-11.1098
▁Gold	-11.1099
▁AW	-11.1099
▁Money	-11.11
▁native	-11.11
▁flash	-11.1101
▁northeast	-11.1104
▁modif	-11.1104
▁Curr	-11.1105
RAC	-11.111
▁Tel	-11.111
▁verif	-11.111
Unitary	-11.1111
▁label	-11.1111
▁Night	-11.1112
q	-11.1116
▁bankruptc	-11.1121
▁USD	-11.1125
minate	-11.1126
▁Think	-11.1128
.71	-11.1132
ordstrom	-11.1135
▁___________	-11.1139
▁Meeting	-11.1139
▁taxe	-11.114
▁lbs	-11.1141
▁financ	-11.1141
▁NC	-11.1142
weaponize	-11.1144
▁NEP	-11.1153
▁regulation	-11.1155
▁Kath	-11.1161
owing	-11.1162
PR	-11.1166
870	-11.1166
▁spice	-11.1167
shire	-11.1167
OFF	-11.1169
▁define	-11.1171
▁container	-11.1172
▁quiz	-11.1172
BS	-11.1174
istani	-11.1175
▁spur	-11.1177
▁LIKE	-11.1179
▁engineer	-11.1179
▁resident	-11.118
▁THA	-11.1181
torm	-11.1186
ric	-11.1197
▁ador	-11.1199
▁EES	-11.12
▁Termina	-11.1204
di	-11.1204
▁stole	-11.1207
igi	-11.1208
▁!?	-11.1208
▁Au	-11.1209
english	-11.1211
▁app	-11.1212
▁11:0	-11.1212
▁53	-11.1212
▁Van	-11.1215
▁universit	-11.1215
▁polite	-11.1221
▁Abd	-11.1222
▁equi	-11.1225
ement	-11.1228
ference	-11.1228
▁pixel	-11.1228
ENI	-11.1229
▁audio	-11.123
▁tail	-11.1235
skilled	-11.1239
▁overse	-11.1242
▁281-4	-11.1243
▁bond	-11.1248
rocket	-11.1254
▁scent	-11.1258
6933	-11.1265
▁ranch	-11.1266
▁diar	-11.1266
▁spay	-11.1271
▁mild	-11.1277
cari	-11.128
elow	-11.1283
▁Dow	-11.1285
▁definition	-11.1285
77	-11.1292
▁Roy	-11.1292
▁grind	-11.1293
▁Ele	-11.1294
ms	-11.1294
▁master	-11.1296
▁42	-11.1306
▁Word	-11.1312
atisfactory	-11.1313
▁Steven	-11.1315
▁Use	-11.132
▁Max	-11.1322
erkeley	-11.1324
▁dire	-11.1325
▁lett	-11.1329
▁Representati	-11.1331
ardo	-11.1332
▁eight	-11.1333
witz	-11.1336
▁contractor	-11.1337
▁Find	-11.1344
river	-11.1346
▁1.5	-11.1346
▁deck	-11.1348
▁fift	-11.135
void	-11.1354
mber	-11.1356
▁!!!!!	-11.1358
▁fries	-11.1368
.782	-11.1369
▁coupon	-11.1373
▁SS	-11.1375
▁spine	-11.1378
▁scene	-11.1382
▁disrupt	-11.1393
▁expose	-11.1394
bul	-11.1407
▁combat	-11.1409
!!!!!!!!!!!!!!!!	-11.1411
itten	-11.1414
▁Carri	-11.142
▁ple	-11.1421
effects	-11.1423
▁ego	-11.1434
▁AA	-11.1435
nia	-11.144
▁convinc	-11.144
▁fell	-11.1442
▁Nei	-11.1442
▁soup	-11.1443
▁Hall	-11.1444
tle	-11.1448
UV	-11.1449
inia	-11.1452
▁trap	-11.1463
▁edge	-11.1473
▁bal	-11.1477
EXA	-11.1483
▁Jr	-11.1486
003	-11.1489
▁Shri	-11.1492
ray	-11.1499
kay	-11.1501
7-1.	-11.1505
night	-11.1513
littl	-11.1513
▁ED	-11.1517
▁logic	-11.152
▁Cal	-11.1521
▁traveler	-11.1523
gun	-11.1524
▁dys	-11.1534
leading	-11.1537
Comm	-11.1551
ette	-11.1557
▁explode	-11.1558
raz	-11.1559
tar	-11.1559
▁reli	-11.1565
▁smuggl	-11.1565
▁VC	-11.1567
▁Grill	-11.1567
▁predict	-11.157
key	-11.1572
▁y	-11.1575
▁plate	-11.1576
/01/200	-11.1584
cho	-11.1585
▁Falls	-11.1592
2009	-11.1598
lub	-11.1601
lk	-11.1605
▁vest	-11.1608
▁Qua	-11.1616
▁belo	-11.1623
xt	-11.1626
▁expire	-11.1626
ellow	-11.1626
lar	-11.1628
ase	-11.1629
uke	-11.1643
ause	-11.165
▁skin	-11.1652
ingham	-11.1653
▁discre	-11.1672
==============	-11.1672
gus	-11.168
ommunist	-11.1686
▁Em	-11.1688
droom	-11.1695
comfort	-11.1696
▁territori	-11.17
-6	-11.1702
otic	-11.171
▁Rum	-11.1717
▁Was	-11.1722
▁Bit	-11.1724
/25/200	-11.1724
▁pi	-11.1733
form	-11.1734
xpect	-11.1734
mem	-11.1738
erivative	-11.1746
▁dep	-11.1757
shed	-11.1759
▁Lab	-11.1762
▁Set	-11.1766
umn	-11.1775
▁Te	-11.178
▁reassure	-11.1783
▁ge	-11.1787
▁invoic	-11.1789
▁ei	-11.1793
▁07:	-11.1795
ATE	-11.1814
▁Ital	-11.1816
wing	-11.1817
26	-11.1822
▁cons	-11.1831
▁corresponden	-11.1833
▁da	-11.1836
ullen	-11.1838
ebsite	-11.1841
▁loo	-11.1846
▁Sing	-11.1846
13	-11.185
▁mount	-11.1851
CC	-11.1854
MA	-11.1862
OP	-11.1868
TEN	-11.1868
▁ob	-11.1869
▁Chick	-11.1872
▁liv	-11.1879
▁79	-11.1884
sual	-11.1888
▁spin	-11.189
▁Contract	-11.1893
81	-11.19
▁zoo	-11.1902
▁cop	-11.1903
295	-11.1904
▁compel	-11.1907
tu	-11.191
AIL	-11.191
ham	-11.1913
▁forum	-11.192
▁3.	-11.1926
143	-11.1944
▁communicate	-11.1947
mini	-11.1951
▁reject	-11.1954
▁Lu	-11.196
wn	-11.1963
nvoy	-11.1972
842	-11.1992
oral	-11.1994
ja	-11.1995
ange	-11.1997
▁BS	-11.2005
▁corre	-11.2007
▁vot	-11.2009
rish	-11.2012
▁roman	-11.203
▁supp	-11.2032
▁fanc	-11.2032
▁Rate	-11.2038
98	-11.2042
legal	-11.2045
=============	-11.2048
▁Skin	-11.2052
24	-11.2055
ounding	-11.2061
▁transferr	-11.2064
▁appreciat	-11.2067
OLY	-11.2068
vern	-11.2071
etail	-11.2075
▁belt	-11.2078
63	-11.2083
▁01:	-11.2088
▁yea	-11.2089
ka	-11.2096
▁gap	-11.2105
▁hum	-11.2111
/16/200	-11.2113
▁8:	-11.2118
▁inno	-11.2122
▁713-853-	-11.2123
zing	-11.2135
▁ten	-11.2149
▁loot	-11.2162
▁preferr	-11.2164
▁concentrat	-11.2164
▁heav	-11.2165
▁Fu	-11.2179
ines	-11.218
▁theater	-11.22
▁desir	-11.2209
akes	-11.2209
east	-11.221
▁wel	-11.2212
===============	-11.2219
new	-11.2229
▁priorit	-11.2232
rising	-11.2232
▁TH	-11.224
rab	-11.2244
ole	-11.2257
cca	-11.2257
--------	-11.2262
▁divers	-11.2263
rice	-11.2267
mark	-11.2274
▁gall	-11.2277
▁announc	-11.2279
▁Wonder	-11.2284
agan	-11.2286
▁reduc	-11.229
▁Agr	-11.2298
▁Wed	-11.2298
▁ruler	-11.2302
================	-11.231
▁crack	-11.2315
tial	-11.2321
▁Barn	-11.2323
▁01:5	-11.2325
▁perfection	-11.2325
ination	-11.2332
bru	-11.2337
▁Shop	-11.234
mend	-11.2354
mmmm	-11.2355
ym	-11.236
mes	-11.2369
▁entr	-11.2372
sus	-11.2377
nbelievabl	-11.2379
cation	-11.2379
▁permit	-11.2386
▁condo	-11.2389
art	-11.2397
▁Bas	-11.2403
ana	-11.2414
ilot	-11.2418
▁allocat	-11.2427
▁infect	-11.2437
710	-11.2438
bil	-11.2441
▁Par	-11.2442
▁157	-11.2447
▁subm	-11.2447
▁wid	-11.2448
▁partner	-11.2455
lute	-11.2459
ler	-11.2464
ament	-11.247
▁6.	-11.2471
▁pr	-11.2481
oper	-11.2489
▁mere	-11.2491
kri	-11.2503
▁dresse	-11.2507
▁observe	-11.2508
▁ent	-11.2515
azi	-11.2524
curr	-11.2527
try	-11.2527
2007	-11.2528
beginner	-11.2531
▁Cl	-11.2542
.2	-11.2557
▁deregulat	-11.2563
▁reccom	-11.2575
erce	-11.2577
site	-11.2591
▁Mia	-11.2593
▁entit	-11.2602
▁actu	-11.2607
▁Gua	-11.2615
▁fa	-11.2619
ssive	-11.2627
lef	-11.2635
▁Hille	-11.264
▁enc	-11.264
▁wal	-11.2653
▁Plant	-11.2655
elia	-11.2661
▁radi	-11.2665
erspective	-11.2667
▁750	-11.2669
▁brave	-11.2673
/03/200	-11.2686
member	-11.2689
consider	-11.2691
enni	-11.2692
Tub	-11.2696
news	-11.2696
ux	-11.2702
umble	-11.2703
▁rubb	-11.2715
▁Giv	-11.2723
lton	-11.2736
▁11/0	-11.2739
here	-11.2739
▁essen	-11.2752
▁Pet	-11.2752
rty	-11.2756
▁carri	-11.2757
onderful	-11.2758
▁entre	-11.2761
▁Rec	-11.277
▁Mon	-11.2775
00.	-11.2776
loss	-11.2779
plan	-11.279
▁replac	-11.2791
▁Shar	-11.2793
62	-11.2793
teral	-11.2796
ails	-11.2806
▁core	-11.2807
▁Laun	-11.2808
ties	-11.2812
/16/	-11.2816
▁instructi	-11.2817
▁libert	-11.2836
▁longe	-11.2848
version	-11.2857
bean	-11.2861
▁east	-11.2862
▁log	-11.2872
TS	-11.2878
shm	-11.2893
NK	-11.2894
shore	-11.2899
after	-11.29
orms	-11.2902
▁trainer	-11.2924
▁Moon	-11.2932
ump	-11.2939
▁Cure	-11.294
olf	-11.2942
hose	-11.2945
▁Peters	-11.2947
take	-11.2949
▁sampl	-11.2949
▁accus	-11.2962
▁198	-11.2968
▁Broo	-11.2975
▁Sp	-11.2977
rn	-11.2981
hes	-11.299
▁ECT	-11.2994
ang	-11.2997
iqui	-11.2999
▁Ple	-11.3004
:14	-11.3043
▁shar	-11.3049
▁chee	-11.3051
lick	-11.3052
▁realiz	-11.3054
ero	-11.3059
esk	-11.3067
▁Reg	-11.3072
▁Lea	-11.3075
▁BB	-11.3081
▁farm	-11.3086
▁dro	-11.3088
▁Develop	-11.3089
>	-11.3096
▁enron	-11.3112
▁Gr	-11.3118
:39:	-11.3127
ntana	-11.3127
llis	-11.3135
grade	-11.3137
▁tap	-11.3137
▁Sah	-11.3137
17	-11.3154
▁collecti	-11.3156
43	-11.317
lair	-11.3174
▁reintroduc	-11.3184
tch	-11.3192
cale	-11.3195
NER	-11.3196
nz	-11.3196
▁Sid	-11.3197
▁Fin	-11.3204
▁translate	-11.3223
ecruit	-11.3226
veral	-11.3227
temporar	-11.3233
ops	-11.3239
ization	-11.3239
vi	-11.3243
▁Real	-11.325
nan	-11.3252
▁Sale	-11.326
uff	-11.3265
▁Dev	-11.3273
lue	-11.3274
ENT	-11.3276
▁greete	-11.3285
NO	-11.329
ruit	-11.3325
▁Min	-11.3351
▁8:3	-11.3366
eceipt	-11.3371
aimed	-11.3371
ati	-11.3374
ved	-11.3385
yatt	-11.3392
ature	-11.3398
ntry	-11.3399
iya	-11.3437
urs	-11.3441
▁suppl	-11.3445
▁Str	-11.3449
ecent	-11.345
▁stab	-11.3457
▁undermin	-11.3463
▁Kan	-11.3463
▁prov	-11.3464
▁gri	-11.3465
▁spo	-11.3466
▁bur	-11.3478
▁11:4	-11.3487
▁?????	-11.3488
▁Si	-11.3492
▁MI	-11.3493
▁SA	-11.3494
oud	-11.35
============	-11.3504
tish	-11.3506
umor	-11.3509
▁reconcil	-11.3515
▁02:1	-11.3518
cast	-11.3524
▁enro	-11.3526
▁expir	-11.3534
order	-11.3547
93	-11.3552
▁examine	-11.3557
▁Char	-11.3564
speci	-11.3567
rity	-11.3569
made	-11.3582
lon	-11.3583
▁circl	-11.3587
kinaw	-11.359
onic	-11.3595
▁Rev	-11.3621
▁combine	-11.3622
elines	-11.3637
▁cri	-11.3637
▁Stra	-11.3647
▁Ea	-11.3648
tw	-11.3652
hold	-11.3652
-----------	-11.3671
▁occasional	-11.3672
nel	-11.3678
person	-11.3683
tation	-11.369
▁Thu	-11.3705
600	-11.3709
▁Leav	-11.3734
▁SUC	-11.3736
▁grav	-11.3739
system	-11.374
kers	-11.3743
market	-11.3751
ND	-11.3753
ack	-11.3758
COM	-11.376
tagon	-11.3767
▁Wa	-11.3772
just	-11.3774
▁Iris	-11.3777
tters	-11.3778
▁pee	-11.3779
DEC	-11.3786
▁retire	-11.3787
aragraph	-11.379
eather	-11.379
regard	-11.3792
▁rely	-11.3796
▁ban	-11.3796
▁02:	-11.3799
▁wire	-11.3808
functional	-11.3809
▁memo	-11.3817
▁medica	-11.3819
▁owe	-11.3827
ikh	-11.3828
▁offe	-11.3832
▁technic	-11.3832
generate	-11.3835
▁trans	-11.3837
buck	-11.384
bra	-11.3851
OWN	-11.3852
▁acknowledge	-11.3853
rid	-11.3855
ado	-11.3856
▁radio	-11.386
TIONS	-11.3863
AST	-11.3867
▁Sec	-11.3881
lic	-11.3881
lena	-11.3883
graduate	-11.3884
hill	-11.3886
page	-11.3886
math	-11.3887
▁12:3	-11.3887
Mart	-11.389
▁eliminat	-11.3893
▁Ran	-11.3894
half	-11.3894
CS	-11.3895
guard	-11.3895
warf	-11.3904
happ	-11.3906
not	-11.3915
Germany	-11.3923
▁Jew	-11.3925
▁Moro	-11.3927
▁bec	-11.3928
ded	-11.3933
▁61	-11.3939
▁hint	-11.394
erland	-11.3943
▁UT	-11.3944
▁gre	-11.395
▁passe	-11.3954
▁Prop	-11.3965
bsite	-11.3967
▁cheape	-11.3976
▁Profess	-11.3977
rival	-11.3981
▁DIS	-11.3981
▁blad	-11.3986
SO	-11.399
ren	-11.4004
change	-11.401
agon	-11.4018
▁prote	-11.4022
▁pros	-11.4023
▁Kindl	-11.4036
▁GU	-11.4039
▁victim	-11.4052
▁armament	-11.4054
▁abundan	-11.4056
▁acr	-11.4066
▁prepar	-11.4073
articula	-11.4077
ector	-11.4081
POS	-11.4083
▁Fan	-11.4083
bek	-11.4085
cide	-11.4086
▁Mad	-11.4092
▁cit	-11.4093
3-	-11.4107
ape	-11.4109
azar	-11.411
pid	-11.4119
▁Prot	-11.412
9/200	-11.4125
angle	-11.4125
▁Term	-11.4128
poly	-11.4129
ribb	-11.4131
shall	-11.4141
▁Sign	-11.4143
ANY	-11.4146
▁Hus	-11.4146
59	-11.4148
▁Conf	-11.4152
▁introduc	-11.4154
dry	-11.4158
▁bankrupt	-11.417
BM	-11.4175
ighten	-11.418
▁accidental	-11.4184
rove	-11.4191
▁sla	-11.4193
▁tast	-11.4193
▁tolera	-11.4194
▁aid	-11.4195
addle	-11.4197
compan	-11.4198
▁Den	-11.4205
▁insult	-11.4211
▁disa	-11.4232
elect	-11.4238
call	-11.4239
KS	-11.4239
▁airline	-11.4241
▁efficien	-11.4241
▁bodi	-11.4247
ctory	-11.4249
PUC	-11.4253
▁Og	-11.4262
NU	-11.4265
▁gather	-11.427
dependent	-11.4271
▁uni	-11.4274
▁wrap	-11.4277
▁Ask	-11.4277
▁Cho	-11.4284
▁bin	-11.4286
anasi	-11.4286
men	-11.4289
▁_	-11.4291
lamp	-11.4291
▁negotiate	-11.4296
▁appeti	-11.43
▁Penn	-11.43
▁Aero	-11.4302
quare	-11.4303
▁Sinh	-11.4304
▁Kurd	-11.4306
▁journ	-11.4308
egon	-11.4308
▁Iron	-11.4312
▁govern	-11.4313
love	-11.4313
922	-11.4316
▁interfere	-11.4318
▁accomplish	-11.4318
iologist	-11.4319
avorite	-11.4324
ocate	-11.4327
ducation	-11.4328
bvious	-11.4328
▁infla	-11.4328
▁sw	-11.4331
GHT	-11.4331
onzales	-11.4331
evolution	-11.4332
merican	-11.4332
183	-11.4332
tutorial	-11.4334
▁Giovanni	-11.4334
▁conspira	-11.4334
▁416-865-370	-11.4334
▁Advance	-11.4334
▁Aquariu	-11.4334
▁EXPERIENCE	-11.4334
▁Juggernaut	-11.4334
▁Netherlands	-11.4334
▁QUES	-11.4334
▁alcohol	-11.4334
▁deliberate	-11.4334
▁manipulat	-11.4334
▁marvelous	-11.4334
▁pepper	-11.4334
▁professor	-11.4334
▁recognize	-11.4334
▁rhythm	-11.4334
▁Trouble	-11.4334
▁dilemma	-11.4334
▁disturb	-11.4334
▁divorce	-11.4334
▁evacuate	-11.4334
▁perfume	-11.4334
▁phrase	-11.4334
▁retrieve	-11.4334
▁simultaneous	-11.4334
TRANS	-11.4334
▁Kathleen	-11.4334
▁district	-11.4334
▁scenario	-11.4334
▁Civil	-11.4334
▁Tourist	-11.4334
▁grenade	-11.4334
▁platform	-11.4334
trathmann	-11.4334
▁Abramo	-11.4334
▁brainwash	-11.4334
▁butterfly	-11.4334
▁pregnan	-11.4334
▁seperate	-11.4334
▁squeeze	-11.4334
▁1-800-	-11.4334
▁Sicily	-11.4334
▁WELL	-11.4334
▁threshold	-11.4334
▁WEEK	-11.4334
▁warlord	-11.4334
franchise	-11.4334
▁Enjoy	-11.4334
▁anticipate	-11.4334
▁intellectual	-11.4334
▁620-294-	-11.4334
▁stylist	-11.4334
▁Bailey	-11.4334
▁trauma	-11.4334
▁ventilat	-11.4334
▁Whipple	-11.4334
▁mysterious	-11.4334
▁streak	-11.4334
▁drunk	-11.4335
▁supervis	-11.4335
▁column	-11.4335
▁SCAM	-11.4335
▁Workshop	-11.4335
▁Consider	-11.4335
▁flexib	-11.4335
▁incubati	-11.4335
▁Nichol	-11.4335
▁flicker	-11.4335
▁proliferat	-11.4335
▁Account	-11.4335
▁affirm	-11.4335
▁assault	-11.4335
▁attribut	-11.4335
▁burden	-11.4335
▁enclos	-11.4335
▁martyr	-11.4335
▁Algeria	-11.4335
▁Phillip	-11.4335
▁Russell	-11.4335
dslr	-11.4335
▁accompan	-11.4335
▁01/25/200	-11.4335
▁BRING	-11.4335
▁Creek	-11.4335
▁disseminat	-11.4335
▁pheno	-11.4335
▁Liquidweb	-11.4335
▁neuter	-11.4335
▁enthusiastic	-11.4335
▁quantit	-11.4335
▁Wildwood	-11.4335
▁maxim	-11.4335
entation	-11.4335
▁Alaska	-11.4335
▁atrocit	-11.4335
▁Baath	-11.4335
▁confiscat	-11.4336
▁appetizers	-11.4336
▁reveal	-11.4336
▁KNOW	-11.4336
▁1774	-11.4336
▁Definite	-11.4336
▁Margar	-11.4336
▁Dollar	-11.4336
▁adventur	-11.4336
▁motivation	-11.4336
▁Window	-11.4336
ZZ	-11.4336
▁Dorsey	-11.4336
▁Remove	-11.4336
▁Horton	-11.4336
▁extinct	-11.4336
▁Nepal	-11.4336
▁passenger	-11.4336
allerina	-11.4336
▁monarch	-11.4337
▁Baathist	-11.4337
▁burger	-11.4337
PLE	-11.4337
▁falter	-11.4337
▁republic	-11.4337
▁Financial	-11.4337
▁perception	-11.4337
▁stifle	-11.4337
▁Antique	-11.4337
▁depart	-11.4337
▁Wayne	-11.4337
▁fifteen	-11.4337
enberg	-11.4337
▁garden	-11.4338
▁Broke	-11.4338
▁snack	-11.4338
▁SPAR	-11.4338
▁stretch	-11.4338
▁NEED	-11.4338
▁jihad	-11.4338
▁Hizb	-11.4338
▁dispers	-11.4338
jones	-11.4338
▁genetic	-11.4338
▁Libya	-11.4338
▁Index	-11.4338
▁Comfort	-11.4338
▁sufficient	-11.4338
▁Reason	-11.4339
elanie	-11.4339
▁endanger	-11.4339
KERS	-11.4339
hibit	-11.434
▁Broad	-11.434
▁penetrate	-11.434
Donald	-11.434
▁Depend	-11.434
▁workshop	-11.434
▁contrast	-11.434
▁dictators	-11.434
▁MIL	-11.434
haka	-11.4341
▁Clark	-11.4341
▁bridge	-11.4341
▁notebook	-11.4341
▁Lewis	-11.4341
▁SCI	-11.4341
▁dislike	-11.4341
▁prepayment	-11.4341
▁retreat	-11.4342
▁crash	-11.4342
▁grandson	-11.4342
▁Coa	-11.4343
ecomm	-11.4343
▁Latin	-11.4343
▁Courtney	-11.4343
▁aquari	-11.4343
MIT	-11.4343
▁Point	-11.4344
▁ownership	-11.4344
▁flesh	-11.4344
▁tattoo	-11.4344
▁scientist	-11.4344
▁puff	-11.4344
▁distance	-11.4344
▁slip	-11.4345
ertain	-11.4345
6-9	-11.4345
▁lieu	-11.4345
▁Drink	-11.4345
▁Human	-11.4346
▁witness	-11.4346
▁Approval	-11.4346
▁musician	-11.4346
▁preference	-11.4346
▁ETA	-11.4346
crease	-11.4347
▁undertake	-11.4347
▁steam	-11.4347
handelier	-11.4348
▁infant	-11.435
▁accomplishment	-11.435
▁mechani	-11.4351
▁Founder	-11.4351
▁plotter	-11.4352
▁......	-11.4352
▁chrom	-11.4353
▁pride	-11.4355
▁Nash	-11.4355
▁incomplete	-11.4356
▁foster	-11.4358
▁suprem	-11.4359
916	-11.4359
▁assumption	-11.436
▁stamp	-11.4362
▁Portug	-11.4362
▁Charles	-11.4363
▁afterward	-11.4365
▁Post	-11.4366
▁guild	-11.4366
▁Delight	-11.4366
▁Recommend	-11.4367
▁cheque	-11.4368
▁incorporate	-11.4369
▁slack	-11.4369
▁Anti	-11.4369
▁Sinhal	-11.437
▁Sto	-11.437
▁.......	-11.437
ritis	-11.4371
▁Colo	-11.4371
▁detector	-11.4373
▁!!!!!!!!!!	-11.4373
quality	-11.4374
▁lb	-11.4375
▁insist	-11.4376
▁Lora	-11.4377
▁pasture	-11.4378
▁STEA	-11.4378
▁blan	-11.4379
▁innovation	-11.4381
▁pyr	-11.4382
▁liqu	-11.4383
NTER	-11.4384
▁Ranger	-11.4384
▁polluter	-11.4384
▁inspector	-11.4384
ATO	-11.4384
▁jam	-11.4385
▁realise	-11.4386
▁Living	-11.4386
▁3,	-11.4386
▁Louis	-11.4387
▁principal	-11.4387
▁Load	-11.4388
rhea	-11.4389
▁referral	-11.439
▁silkie	-11.4391
▁fulfill	-11.4391
nburg	-11.4393
▁upper	-11.4394
▁flipp	-11.4394
▁BLA	-11.4396
▁!!!!!!!	-11.4397
▁arrogant	-11.4398
▁DAY	-11.4398
▁inexpe	-11.44
▁regulator	-11.44
▁dispute	-11.4403
▁92	-11.4403
▁flopp	-11.4404
therapist	-11.4405
frey	-11.4406
▁Lotte	-11.4406
▁ser	-11.4408
▁Treat	-11.441
▁slide	-11.4411
3.8	-11.4411
▁twist	-11.4412
▁PUT	-11.4413
▁Award	-11.4414
▁Waz	-11.4417
▁clash	-11.4417
▁Eco	-11.4417
▁blurr	-11.4419
▁har	-11.4422
▁EXCEL	-11.4423
▁Ltd	-11.4428
▁dragg	-11.4431
ionist	-11.4432
athist	-11.4432
▁HOT	-11.4432
▁conscien	-11.4433
▁resolve	-11.4433
▁percentage	-11.4435
▁domain	-11.4437
▁Data	-11.4438
▁Nord	-11.4438
▁Bird	-11.4438
val	-11.444
▁prisoner	-11.4441
▁Mexican	-11.4442
itical	-11.4442
keeper	-11.4443
▁heave	-11.4443
▁Swed	-11.4444
rink	-11.4444
arine	-11.4444
▁symbol	-11.4445
sel	-11.4445
▁verifie	-11.4446
retta	-11.4448
▁sensitiv	-11.4448
▁revive	-11.4449
▁rode	-11.4451
▁comprehensi	-11.4452
▁mini	-11.4454
▁muni	-11.4454
▁budd	-11.4456
▁talks	-11.4457
▁FIT	-11.4463
▁pup	-11.4468
▁democratic	-11.447
▁assembl	-11.447
▁detaine	-11.4472
▁judgment	-11.4474
▁trend	-11.4475
hilad	-11.4479
▁Wolf	-11.448
IOUS	-11.4481
▁residence	-11.4482
▁insulting	-11.4486
secure	-11.4487
▁Deli	-11.4487
▁bound	-11.4487
▁Form	-11.4489
▁Die	-11.449
▁Wall	-11.4492
▁kitt	-11.4493
▁golf	-11.4494
▁survey	-11.4496
▁04:3	-11.4497
▁preach	-11.4497
pulation	-11.4499
▁introduce	-11.4501
▁Dama	-11.4501
▁Trad	-11.4503
UCT	-11.4505
EP	-11.4507
▁viru	-11.4508
▁Luc	-11.4512
▁Leach	-11.4513
▁assert	-11.4513
▁dude	-11.4514
ternal	-11.4515
▁Fun	-11.4515
▁pour	-11.4519
▁Reserv	-11.4521
erfect	-11.4522
ovan	-11.4524
▁crush	-11.4528
▁Gib	-11.4528
▁mega	-11.4529
corn	-11.4529
▁Democrat	-11.4531
egg	-11.4531
▁journalist	-11.4533
▁vict	-11.4539
▁Oka	-11.4539
specta	-11.454
IF	-11.4544
tom	-11.4546
▁SMS	-11.4546
value	-11.4547
▁Haz	-11.4548
▁AB	-11.4554
ire	-11.4554
▁Taur	-11.4556
▁carrier	-11.4556
▁imm	-11.4556
▁Taco	-11.4557
▁PLA	-11.4557
uerrilla	-11.4558
▁08:	-11.4559
▁underst	-11.4561
▁paradi	-11.4564
▁Dance	-11.4564
1/200	-11.4564
▁Raw	-11.4564
▁alter	-11.4567
▁Beard	-11.4569
▁distributi	-11.4571
▁Emb	-11.4573
arge	-11.4577
ask	-11.4577
▁charm	-11.4577
▁steer	-11.4579
ERS	-11.458
▁consen	-11.4584
▁remo	-11.459
888.	-11.4594
▁confine	-11.4595
pco	-11.4595
plus	-11.4597
beauty	-11.46
▁cease	-11.4601
ale	-11.4604
▁83	-11.4604
diction	-11.4604
duct	-11.4605
▁hyp	-11.4605
▁hook	-11.4607
▁Yog	-11.4608
▁bless	-11.4608
▁wil	-11.4608
▁clarif	-11.461
ception	-11.4612
elpe	-11.4617
▁Roos	-11.4621
▁rail	-11.4621
ssert	-11.4625
xpansion	-11.4625
▁victims	-11.4626
▁forgive	-11.4627
▁emit	-11.463
▁incorporates	-11.4633
▁STOR	-11.4633
RUE	-11.4635
▁Loo	-11.4635
gar	-11.4641
▁king	-11.4642
▁motive	-11.4643
▁(:	-11.4644
eopard	-11.4649
▁introduction	-11.465
▁jet	-11.4653
▁Judicia	-11.466
HILL	-11.4661
mb	-11.4668
▁HATE	-11.4669
bell	-11.467
▁eco	-11.4672
▁brid	-11.4679
gant	-11.4683
▁clo	-11.4688
llage	-11.4688
80	-11.4689
▁foo	-11.4691
rofessional	-11.47
▁peak	-11.4701
▁leaf	-11.4703
979	-11.4704
▁08:2	-11.471
▁Jenn	-11.4714
▁chlorin	-11.4717
▁SUP	-11.4718
▁Bash	-11.4722
▁OR	-11.4726
ighting	-11.4726
▁Dai	-11.4728
▁Offer	-11.4732
▁hal	-11.4734
▁Authorit	-11.4737
▁**********	-11.4738
▁lift	-11.4739
▁mm	-11.4741
▁Barc	-11.4752
▁exclusi	-11.4755
▁Donald	-11.4755
▁offend	-11.4757
▁humm	-11.4758
ssembl	-11.4759
▁continent	-11.476
▁gro	-11.4761
▁soak	-11.4764
Internet	-11.4768
▁consol	-11.4769
▁preserv	-11.4769
▁SOL	-11.4769
▁Lav	-11.4772
eeze	-11.4778
▁province	-11.4784
bie	-11.4784
▁Protect	-11.4787
▁corn	-11.4789
▁relaxe	-11.4794
▁landlo	-11.4794
-4	-11.4795
immigrate	-11.4795
▁82	-11.4796
▁Calculat	-11.4802
▁organis	-11.4803
▁Plac	-11.4809
▁Arie	-11.4817
▁economical	-11.4821
▁bomber	-11.4827
/17/	-11.4827
etic	-11.483
imate	-11.483
▁populat	-11.4832
anger	-11.4833
82	-11.4841
talent	-11.4844
drian	-11.4844
atriot	-11.4844
▁string	-11.4847
▁cycle	-11.4851
▁seri	-11.4852
▁Tre	-11.4855
LIN	-11.4856
AY	-11.4865
▁permissi	-11.4867
NITE	-11.487
avy	-11.4873
▁Pers	-11.4875
▁Haven	-11.4876
▁Vict	-11.4878
▁propert	-11.4882
▁Libr	-11.4883
▁51	-11.4886
doors	-11.4886
▁Driv	-11.4887
▁colla	-11.4895
esponse	-11.4897
▁Scho	-11.4899
▁rally	-11.4902
▁Kid	-11.4912
▁bidd	-11.4914
▁06:0	-11.4915
▁dancer	-11.4921
▁Indo	-11.4925
▁tea	-11.4925
obble	-11.4927
▁limb	-11.4929
▁retir	-11.4929
alize	-11.4935
▁Lot	-11.4935
▁Cash	-11.4941
mach	-11.4942
▁Boy	-11.4948
▁Hand	-11.4953
▁WOR	-11.4955
▁600	-11.4961
71	-11.4962
och	-11.4963
▁resist	-11.4967
▁ignoran	-11.4969
▁ru	-11.4969
483	-11.4975
au	-11.4979
▁tra	-11.4981
▁OWN	-11.4986
▁fille	-11.4987
▁employe	-11.499
▁sti	-11.4999
tah	-11.4999
illo	-11.5
eterinar	-11.5007
bine	-11.5009
▁intent	-11.5013
nual	-11.5018
▁cup	-11.5019
▁educat	-11.5021
1600	-11.5031
NLI	-11.5039
▁complicat	-11.5041
▁Specifi	-11.5048
NCH	-11.5064
pher	-11.5068
▁Tur	-11.5073
▁contribute	-11.5074
▁beside	-11.509
▁Croa	-11.5091
views	-11.5093
▁exp	-11.51
▁Boi	-11.5101
▁Nel	-11.5102
ars	-11.5106
▁arrangement	-11.511
ontact	-11.512
udi	-11.5122
▁criticis	-11.5122
▁wash	-11.5123
ixed	-11.5128
▁Kent	-11.5129
▁jok	-11.513
omin	-11.5138
▁158	-11.5142
▁Ana	-11.5142
ideas	-11.5143
97	-11.5153
▁rack	-11.5154
▁charg	-11.5162
▁bloody	-11.5185
▁cater	-11.5186
aring	-11.5189
▁fri	-11.5192
▁Sti	-11.5194
homa	-11.5196
▁satisfact	-11.5199
▁expe	-11.5204
▁rider	-11.521
▁defect	-11.5218
▁Ric	-11.5219
▁Parad	-11.5222
▁Up	-11.5225
▁alternate	-11.5226
rass	-11.5227
▁Tree	-11.5228
▁COME	-11.5229
▁RU	-11.523
▁10:4	-11.5235
991	-11.5245
diot	-11.5258
wel	-11.5259
▁Ope	-11.5262
▁practical	-11.5263
iring	-11.5264
ganda	-11.5265
raw	-11.5267
OPE	-11.5269
odge	-11.5276
CUR	-11.5287
▁propa	-11.5288
uty	-11.5297
doo	-11.53
ou	-11.5301
94	-11.5305
▁ups	-11.5316
▁swi	-11.533
▁Freema	-11.5333
lawless	-11.5335
▁ele	-11.5337
2,000	-11.5342
▁Fill	-11.5344
ect	-11.5359
▁sour	-11.5367
▁Gall	-11.5369
---->	-11.537
ulous	-11.537
ivet	-11.5381
▁sex	-11.5381
sumption	-11.5382
010	-11.5385
▁finaliz	-11.5385
▁Nic	-11.539
ompensation	-11.5395
▁tre	-11.5396
▁Heal	-11.5407
bove	-11.5413
▁Williams	-11.5419
▁def	-11.542
under	-11.542
▁signe	-11.5425
▁inch	-11.5425
btu	-11.5432
enny	-11.5433
▁shit	-11.5438
etal	-11.544
▁cork	-11.5447
▁cutt	-11.5455
▁Bart	-11.5456
▁Fre	-11.5458
▁ide	-11.5467
▁developer	-11.5467
url	-11.549
egetarian	-11.5491
▁Fred	-11.5508
ancy	-11.5514
OVE	-11.5515
ounge	-11.5524
luster	-11.5525
NJ	-11.553
▁tolerat	-11.5534
▁exten	-11.5537
into	-11.5541
oxy	-11.5544
▁biochemi	-11.5545
▁Leave	-11.5547
▁Lie	-11.5553
▁FREE	-11.5554
metic	-11.5554
▁loom	-11.5562
ETS	-11.5563
▁inten	-11.5567
rights	-11.557
▁scrap	-11.5578
▁coincide	-11.558
rious	-11.5581
▁37	-11.5586
▁cre	-11.5588
▁Cross	-11.5588
40	-11.5593
uts	-11.5593
ario	-11.5597
US	-11.5611
▁grave	-11.5612
▁Sherr	-11.5619
▁Rent	-11.5623
▁manufactur	-11.5627
▁Travell	-11.5633
ASS	-11.5637
▁confl	-11.5642
▁Pott	-11.5643
ris	-11.5648
▁Sacr	-11.5654
▁AD	-11.5656
▁commo	-11.5663
ung	-11.5664
▁shad	-11.5667
▁immigra	-11.568
▁testif	-11.5681
22	-11.5682
▁tablet	-11.5699
▁preferabl	-11.5703
▁rain	-11.5703
eney	-11.5704
▁Pape	-11.5705
▁intermedia	-11.5707
tel	-11.5708
▁Must	-11.5708
▁PHO	-11.5713
▁prim	-11.5713
▁lick	-11.5716
▁phil	-11.572
▁lodg	-11.5731
IRS	-11.5732
▁organize	-11.5735
▁believ	-11.5735
▁picket	-11.5737
OUR	-11.5738
▁gi	-11.5738
▁Dula	-11.5749
▁user	-11.5751
VA	-11.5758
▁crim	-11.5765
nkman	-11.5766
23	-11.5773
ssignment	-11.5784
▁Comm	-11.5797
▁fever	-11.5819
▁Ri	-11.582
note	-11.5821
bed	-11.5822
▁infinit	-11.5827
5-02	-11.583
▁MM	-11.5837
ano	-11.5838
odern	-11.5843
▁utili	-11.5845
▁hill	-11.5845
▁1.8	-11.5849
eel	-11.5853
ollaborat	-11.5853
▁Mart	-11.5855
▁cancell	-11.5857
oo	-11.5863
419	-11.5863
cer	-11.5868
▁Heav	-11.5869
▁infl	-11.5891
▁sc	-11.5898
sion	-11.5902
tmo	-11.5903
▁Ara	-11.5907
▁colon	-11.5914
▁Bru	-11.592
▁worker	-11.593
▁Hy	-11.5934
▁05:	-11.5945
▁gen	-11.596
▁BT	-11.5968
▁Pro	-11.5969
▁Page	-11.5972
▁willow	-11.5994
DE	-11.5995
rown	-11.5996
317	-11.6014
▁Aeron	-11.6017
▁exceptional	-11.6018
▁cry	-11.6026
▁chi	-11.6028
igh	-11.6046
▁Gra	-11.6052
▁northw	-11.6053
rive	-11.6055
▁HA	-11.6066
uddl	-11.6071
rongs	-11.6072
omni	-11.6073
▁won	-11.6075
mmy	-11.6088
▁raiser	-11.609
▁nationalis	-11.6102
030	-11.6109
rua	-11.6118
zation	-11.6123
arian	-11.6132
erie	-11.6135
▁Leit	-11.6137
▁Teh	-11.614
▁Kh	-11.6141
▁eater	-11.6144
▁traffick	-11.6144
▁Dud	-11.6158
----	-11.6166
▁intelligen	-11.6171
▁knowing	-11.6178
EM	-11.6187
▁Ul	-11.619
▁Band	-11.6194
▁spi	-11.62
▁sel	-11.6209
▁03:5	-11.6213
▁thro	-11.6214
6,000	-11.6219
▁bald	-11.6222
▁UCA	-11.623
▁159	-11.6235
▁Haw	-11.6235
▁atten	-11.6242
▁festiv	-11.6245
===========	-11.6256
tomo	-11.626
▁Ent	-11.6265
▁protecti	-11.6266
▁tro	-11.6271
ony	-11.6274
1530	-11.6277
345-	-11.6284
▁surpris	-11.6291
▁Cay	-11.6298
/21/200	-11.63
rit	-11.6303
tail	-11.6303
▁sus	-11.631
▁glo	-11.6311
smith	-11.6313
▁skip	-11.6328
▁Emer	-11.6337
▁brow	-11.6337
scop	-11.6339
▁lat	-11.6345
▁gastr	-11.6349
CHS	-11.635
enu	-11.6367
▁05:3	-11.637
▁Romani	-11.6377
zak	-11.6377
▁achiev	-11.638
▁STA	-11.638
ICE	-11.6389
▁avia	-11.6406
ustin	-11.6411
▁Increase	-11.6414
▁Elect	-11.6417
ttag	-11.6423
▁Parti	-11.6427
abilit	-11.6427
pp	-11.6429
▁Fei	-11.6432
bbe	-11.6435
▁dear	-11.6454
▁subt	-11.6471
NCE	-11.649
▁sch	-11.6492
RY	-11.6502
▁grade	-11.6505
▁compari	-11.6513
shi	-11.6513
count	-11.6525
▁tow	-11.6532
ollege	-11.6542
paper	-11.6549
▁prop	-11.6554
▁Roberts	-11.6556
▁sail	-11.6562
▁observ	-11.6565
odd	-11.6565
▁repl	-11.6583
▁Exp	-11.659
▁Bud	-11.659
▁starte	-11.6606
wear	-11.6607
bo	-11.6634
301	-11.6642
aq	-11.6643
▁reminde	-11.6644
pent	-11.6647
▁latte	-11.6654
0/200	-11.6654
▁ende	-11.6655
▁stil	-11.6661
▁highe	-11.6666
▁Mars	-11.6676
ki	-11.6703
▁citizen	-11.6712
▁tur	-11.6715
▁bask	-11.672
▁consist	-11.673
▁Roman	-11.6747
onda	-11.675
▁pollut	-11.6751
az	-11.6755
TNA	-11.6779
▁secretar	-11.6781
▁Hoo	-11.6788
itch	-11.6788
▁mi	-11.679
gam	-11.6795
▁relie	-11.6798
▁*****	-11.6807
eting	-11.6808
scal	-11.6819
zb	-11.6821
cache	-11.6832
1/01	-11.6834
estival	-11.6834
TT	-11.6838
................	-11.6839
▁teen	-11.684
▁Des	-11.6847
▁112	-11.6857
▁Commo	-11.6859
06	-11.6859
OB	-11.6867
▁Ris	-11.6869
▁associat	-11.6869
hnic	-11.6875
ower	-11.6883
▁bre	-11.6886
▁Circ	-11.6891
▁Bir	-11.6905
▁JO	-11.6925
lotte	-11.6928
▁150	-11.6928
sai	-11.693
▁equ	-11.6932
▁lit	-11.694
logg	-11.6943
▁appropriation	-11.6948
gal	-11.695
▁sca	-11.695
▁connect	-11.6953
42	-11.6954
▁paris	-11.6957
quest	-11.6958
llow	-11.6959
ome	-11.6971
ption	-11.6976
amster	-11.6991
▁unde	-11.6993
▁invita	-11.6994
WO	-11.6998
CU	-11.7006
lem	-11.7007
su	-11.7041
▁refu	-11.705
tarian	-11.7053
▁bac	-11.706
▁Atta	-11.7061
▁qui	-11.7066
▁Associat	-11.7074
68	-11.7076
vel	-11.708
▁77	-11.71
▁05/	-11.7113
liver	-11.7115
▁crit	-11.7117
ural	-11.7119
chemical	-11.7121
giv	-11.7126
af	-11.7156
▁electro	-11.7156
▁upset	-11.717
scribe	-11.7173
ator	-11.7188
▁totall	-11.7199
▁FIR	-11.721
rhood	-11.7214
▁bla	-11.7216
▁Kell	-11.7217
▁normall	-11.7217
ldernes	-11.7225
▁grandm	-11.723
pt	-11.7235
sive	-11.7247
▁distribute	-11.7256
AMI	-11.7258
ddle	-11.727
▁85	-11.727
▁Cat	-11.7271
▁SAM	-11.7275
▁11/2	-11.7276
▁litera	-11.7279
▁****	-11.7288
area	-11.729
▁01/2	-11.7292
ify	-11.7298
31	-11.7301
▁Pow	-11.7301
▁obs	-11.7314
ser	-11.7315
▁MO	-11.7318
▁Hill	-11.7326
▁je	-11.733
▁streams	-11.7332
▁gl	-11.7333
▁tol	-11.7352
py	-11.7355
even	-11.7362
▁phon	-11.7362
liance	-11.7363
ho	-11.7366
▁reserv	-11.737
alls	-11.7371
***************	-11.7377
/01	-11.7381
▁calcul	-11.7381
▁Ban	-11.7382
ci	-11.7387
▁Warn	-11.7391
▁ph	-11.7403
bble	-11.7404
▁imp	-11.7415
66	-11.7417
ater	-11.7429
issan	-11.7443
▁informati	-11.745
▁Lim	-11.7451
▁flo	-11.7452
ct	-11.7459
.7	-11.7464
▁Bro	-11.7472
med	-11.7476
▁veg	-11.7481
744	-11.7484
.3	-11.7487
tur	-11.7503
▁03:1	-11.7505
part	-11.7516
▁09:2	-11.7519
200	-11.7532
TER	-11.7537
56	-11.7537
▁Arma	-11.7538
don	-11.7545
tia	-11.7556
dr	-11.7569
▁bef	-11.757
52	-11.7575
▁van	-11.758
▁bett	-11.7585
SI	-11.7592
▁diploma	-11.7604
▁glow	-11.7606
overnment	-11.7613
▁winn	-11.7629
▁practic	-11.7633
ust	-11.7646
oon	-11.7654
nding	-11.7655
▁Clu	-11.7655
▁advis	-11.7665
▁shu	-11.7669
▁investigate	-11.7671
▁Gl	-11.7673
435	-11.7679
▁Mag	-11.7684
ept	-11.769
▁Blan	-11.7701
6/	-11.7701
getarian	-11.7702
▁COMM	-11.7705
finite	-11.7708
asp	-11.7721
▁Capit	-11.7731
▁weak	-11.7742
▁Entr	-11.7746
ourtesy	-11.7748
▁lose	-11.7748
202.6	-11.7751
utan	-11.7751
▁Ze	-11.7752
terior	-11.7767
▁feas	-11.7787
▁experienc	-11.7788
▁uncomm	-11.7789
COR	-11.7796
▁06:	-11.7802
▁coat	-11.7826
▁04:4	-11.7836
▁slave	-11.7839
▁notic	-11.7843
tte	-11.7846
radian	-11.7855
▁Fi	-11.7861
▁res	-11.7862
▁bake	-11.7864
▁extradite	-11.7879
people	-11.7888
▁Gro	-11.789
IN	-11.7892
▁tar	-11.7897
MP	-11.7898
contacts	-11.79
gains	-11.7909
▁cal	-11.7911
turn	-11.7912
▁Medici	-11.7918
▁CD	-11.7926
ogan	-11.7931
▁promis	-11.7954
▁ER	-11.7957
▁ensur	-11.796
▁Emm	-11.7962
▁identi	-11.7964
ched	-11.7966
▁hers	-11.7968
▁57	-11.7982
▁deli	-11.7985
ox	-11.7995
▁damag	-11.8005
▁Art	-11.8006
▁technologi	-11.8012
▁Exi	-11.8015
▁Travelle	-11.8016
clay	-11.802
utch	-11.802
EE	-11.8026
▁indoor	-11.8045
tique	-11.8052
think	-11.8053
▁Ac	-11.8056
national	-11.8064
yer	-11.807
▁Idea	-11.8077
ROC	-11.8082
ida	-11.8097
▁inde	-11.8099
upi	-11.8104
nes	-11.8104
▁rub	-11.8107
ints	-11.811
▁Spo	-11.8113
ime	-11.8127
uct	-11.8129
rigade	-11.8142
▁lone	-11.8144
ght	-11.8147
look	-11.8152
core	-11.8162
▁flaw	-11.8168
▁contribut	-11.817
▁94	-11.8177
$	-11.8178
▁Stu	-11.8179
▁Karl	-11.8181
▁Anth	-11.8182
▁courte	-11.8192
▁Ann	-11.8194
send	-11.8198
overt	-11.82
▁Tod	-11.8213
1,000	-11.8213
▁expos	-11.8223
▁pressur	-11.8231
rough	-11.8233
▁Euro	-11.8236
uz	-11.8239
tri	-11.8242
▁Brita	-11.8246
_____________	-11.8252
▁ea	-11.826
INT	-11.8262
racle	-11.8263
▁letha	-11.8266
▁Blai	-11.8266
▁POS	-11.8275
▁mod	-11.8283
▁terminat	-11.8284
ins	-11.8293
▁73	-11.8294
▁PRO	-11.8295
ua	-11.8308
▁Jaz	-11.8309
bel	-11.8312
▁201	-11.8315
▁trace	-11.8316
chan	-11.8328
EA	-11.8335
olution	-11.8345
▁thin	-11.835
clusion	-11.8353
▁Medit	-11.836
21	-11.8367
ffe	-11.8369
▁notif	-11.8382
ograph	-11.8388
▁Rus	-11.8389
▁heal	-11.8397
issa	-11.84
▁Tw	-11.8408
▁optim	-11.8419
amp	-11.8422
penetra	-11.8427
▁pip	-11.8433
▁pit	-11.8443
chest	-11.8447
sters	-11.8448
▁Fran	-11.845
cia	-11.8451
▁?!?	-11.8455
tors	-11.8463
cosm	-11.8463
▁inven	-11.8471
▁713/	-11.8481
bus	-11.8483
▁SH	-11.8502
▁regrett	-11.8507
▁Op	-11.8508
abul	-11.8509
mous	-11.8515
▁cred	-11.8552
▁reta	-11.8552
▁ji	-11.8554
▁dat	-11.8564
▁evaluati	-11.8569
understand	-11.8584
conference	-11.859
fortunate	-11.8605
India	-11.8607
sponse	-11.8616
▁Rem	-11.8618
▁diversi	-11.8621
parent	-11.8629
▁appal	-11.8633
▁perceive	-11.8634
▁415.	-11.8642
▁regulate	-11.8644
hal	-11.8647
▁hiss	-11.8648
▁struc	-11.8655
▁AU	-11.8658
group	-11.8665
luna	-11.8671
▁BRE	-11.8671
lgar	-11.8673
Smart	-11.8676
▁el	-11.8678
action	-11.8679
▁SP	-11.8683
▁judg	-11.8684
ven	-11.8688
▁roo	-11.8688
weapon	-11.869
UL	-11.8696
▁Come	-11.8698
▁AR	-11.8698
▁returne	-11.8699
▁quo	-11.87
▁Mini	-11.8704
▁Calcu	-11.8707
personal	-11.8707
▁88	-11.8718
continent	-11.8719
58	-11.8729
▁designe	-11.8729
▁Juli	-11.8729
chi	-11.8744
human	-11.8748
▁03:4	-11.8753
▁enabl	-11.8757
CIA	-11.8766
manager	-11.8771
necessar	-11.8775
automatic	-11.8775
▁Instruct	-11.8776
▁Mount	-11.8777
▁Provi	-11.8779
August	-11.8779
76	-11.8784
source	-11.8789
correct	-11.8791
set	-11.8795
cycle	-11.8801
DU	-11.8804
▁Mer	-11.8805
defens	-11.8812
▁54	-11.8814
▁703	-11.8815
▁reschedule	-11.8815
505	-11.8817
building	-11.8821
child	-11.8823
▁Lou	-11.8826
▁Cou	-11.8827
etin	-11.8828
appropriate	-11.8828
▁01:3	-11.883
reported	-11.8831
birth	-11.8833
1.8	-11.8834
GCP	-11.8835
God	-11.8841
▁thieve	-11.8845
ju	-11.8848
bondad	-11.885
▁Elli	-11.885
DSL	-11.885
ourage	-11.8852
pixel	-11.8853
▁consul	-11.8855
pend	-11.8855
▁Fil	-11.8857
down	-11.8859
▁fli	-11.8861
fund	-11.8864
ATIONS	-11.8867
▁Pla	-11.8868
pical	-11.8868
bott	-11.8872
screen	-11.8879
nex	-11.888
throw	-11.8883
119	-11.889
CHE	-11.8898
▁Ren	-11.8898
centre	-11.8907
revision	-11.8912
structure	-11.8912
ache	-11.8914
/15/	-11.8914
bs	-11.8915
▁Jacob	-11.8915
spiritual	-11.8918
weight	-11.892
cook	-11.8921
non	-11.8921
▁Rat	-11.8921
▁Main	-11.8923
phase	-11.8923
▁Temp	-11.8926
pan	-11.8939
crowd	-11.8941
RO	-11.8947
predict	-11.8948
creat	-11.895
▁Mor	-11.8951
mouth	-11.8955
asia	-11.8958
▁Edm	-11.8963
MY	-11.8964
christ	-11.8968
▁historic	-11.8974
style	-11.8981
elieve	-11.8982
kes	-11.8982
▁trai	-11.8988
▁defen	-11.8995
▁08/0	-11.8997
master	-11.9003
rmed	-11.9004
erator	-11.9015
nc	-11.9019
ployment	-11.902
▁earthquake	-11.9025
Wh	-11.9026
▁scammer	-11.9027
▁TRA	-11.903
PY	-11.903
face	-11.9033
WAR	-11.9034
IM	-11.9035
AU	-11.9038
kind	-11.9043
▁milit	-11.9045
trans	-11.9047
▁journal	-11.9064
ji	-11.907
raiser	-11.907
▁Philippine	-11.9071
ker	-11.9074
portion	-11.9075
Stip	-11.9075
BY	-11.9077
fish	-11.9082
▁..........	-11.9083
lling	-11.9084
STIC	-11.9093
▁amaze	-11.9101
rett	-11.9103
RTH	-11.9106
run	-11.9106
▁DA	-11.9107
kan	-11.911
39	-11.9111
tractor	-11.9122
57	-11.9125
▁sanct	-11.9125
fire	-11.9129
TL	-11.9133
▁deriv	-11.9134
▁07	-11.9138
▁promote	-11.9139
▁choos	-11.9145
icular	-11.9146
▁Scot	-11.9151
▁symboli	-11.9157
UCK	-11.9158
VEL	-11.916
▁04:0	-11.9161
▁4.	-11.9162
exp	-11.9164
▁dual	-11.9164
SOL	-11.9171
RAW	-11.9174
cupunctur	-11.9177
see	-11.9178
▁Tro	-11.9179
level	-11.9179
clusive	-11.9186
▁prison	-11.919
▁110	-11.9195
▁sympathize	-11.9199
▁Brig	-11.9208
▁Sk	-11.9216
▁sham	-11.9217
fair	-11.9224
▁merg	-11.9224
ential	-11.9228
▁arrogan	-11.9231
▁differ	-11.9236
▁importan	-11.9237
▁excellen	-11.9238
ctivit	-11.924
isk	-11.9242
▁frequen	-11.9243
ffective	-11.9245
iri	-11.9247
NG	-11.9249
▁silk	-11.9251
▁cle	-11.9252
fluent	-11.9253
rul	-11.9254
▁suppose	-11.9258
WS	-11.9258
▁guarant	-11.9261
▁Barr	-11.9262
NATION	-11.9262
:50	-11.9265
▁Wo	-11.9267
FT	-11.9277
edu	-11.9284
▁Range	-11.9285
▁Connecti	-11.9286
cient	-11.9286
dict	-11.9291
▁flip	-11.9299
▁cult	-11.9302
▁Res	-11.9307
▁innovati	-11.9307
▁CHI	-11.9308
▁nam	-11.9308
lowing	-11.9311
mportant	-11.9312
▁MU	-11.9313
▁certifi	-11.9314
ARD	-11.9314
▁psycho	-11.9315
▁dismisse	-11.9317
hou	-11.9318
ntercept	-11.9321
▁NAM	-11.9321
▁reneg	-11.9322
echanic	-11.9322
▁destin	-11.9323
▁custo	-11.9324
▁Micro	-11.9324
conciliat	-11.9326
▁Approv	-11.9326
mmm	-11.9329
onflict	-11.933
ngs	-11.9331
articipant	-11.9331
orato	-11.9331
urchase	-11.9332
avor	-11.9332
igner	-11.9332
WI	-11.9333
▁Palestin	-11.9333
-20-	-11.9333
▁enthusias	-11.9333
exican	-11.9334
▁excel	-11.9334
3.	-11.9334
AAAAAG	-11.9334
/2011/09/	-11.9334
ligence	-11.9334
cipal	-11.9334
▁dissatisf	-11.9334
▁718-780-0	-11.9334
▁CONFIDENTIAL	-11.9334
▁PEREGRIN	-11.9334
9819602175	-11.9334
ABUL	-11.9334
McDermott	-11.9334
antifraud	-11.9334
eanutjak	-11.9334
exercise	-11.9334
▁11/7/08	-11.9334
▁202.456.2461	-11.9334
▁281-518-	-11.9334
▁315-460-334	-11.9334
▁425-415-30	-11.9334
▁832.676.	-11.9334
▁CHRIS	-11.9334
▁EnronOnLine	-11.9334
▁Environment	-11.9334
▁Exercise	-11.9334
▁Hikmet	-11.9334
▁Original	-11.9334
▁Pacheco	-11.9334
▁Pashtun	-11.9334
▁Piccadill	-11.9334
▁Practice	-11.9334
▁Project	-11.9334
▁ROADHOUSE	-11.9334
▁Restaurant	-11.9334
▁Rothko	-11.9334
▁Seleznov	-11.9334
▁Woodinville	-11.9334
▁burglar	-11.9334
▁catastroph	-11.9334
▁conceivabl	-11.9334
▁exhaust	-11.9334
▁eyewitness	-11.9334
▁intrigue	-11.9334
▁mitigat	-11.9334
▁precaution	-11.9334
▁reproduce	-11.9334
▁secessionist	-11.9334
▁sporadic	-11.9334
▁unpleasant	-11.9334
▁reprisal	-11.9334
▁10/31/	-11.9334
▁94720-	-11.9334
▁Bumrung	-11.9334
▁ENJOY	-11.9334
▁Exocet	-11.9334
▁GROUP	-11.9334
▁INSULT	-11.9334
▁Methodi	-11.9334
▁Public	-11.9334
▁Shakespeare	-11.9334
▁affiliate	-11.9334
▁airlift	-11.9334
▁analyze	-11.9334
▁exterminat	-11.9334
▁homosexual	-11.9334
▁instinct	-11.9334
▁napkin	-11.9334
EQU	-11.9334
RIFIE	-11.9334
▁510-642-	-11.9334
▁713-793-	-11.9334
▁Beautiful	-11.9334
▁Delainey	-11.9334
▁OVERALL	-11.9334
▁Smartwol	-11.9334
▁sacrifice	-11.9334
/11/2004	-11.9334
▁Concern	-11.9334
▁instigate	-11.9334
▁pacify	-11.9334
Bockius	-11.9334
wikipedia	-11.9334
▁713/853-	-11.9334
▁APPROV	-11.9334
▁Maitra	-11.9334
▁Stephen	-11.9334
▁Video	-11.9334
▁conquer	-11.9334
▁Incredibl	-11.9334
▁Orlando	-11.9334
▁Reuters	-11.9334
▁Maureen	-11.9334
▁Physio	-11.9334
▁emperor	-11.9334
▁kaplan	-11.9334
▁oblivio	-11.9334
▁Lihaib	-11.9334
▁cascade	-11.9334
▁restrict	-11.9334
▁scandal	-11.9334
▁shrewd	-11.9334
▁nickname	-11.9334
▁Teresa	-11.9334
▁capsules	-11.9334
▁fanatic	-11.9334
parallel	-11.9335
▁Alpha	-11.9335
▁Trivia	-11.9335
▁jeju	-11.9335
▁massacr	-11.9335
▁Politic	-11.9335
etcalfe	-11.9335
▁nurture	-11.9335
▁oppress	-11.9335
▁punctua	-11.9335
▁synthe	-11.9335
▁Dharma	-11.9335
scription	-11.9335
▁incentive	-11.9335
▁Bolivia	-11.9335
▁monoton	-11.9335
▁Perkins	-11.9335
ALITY	-11.9335
Connell	-11.9335
▁Cruise	-11.9335
▁Photograph	-11.9335
▁swallow	-11.9335
▁Tajik	-11.9335
▁surpass	-11.9335
▁OMG	-11.9335
▁subsidi	-11.9335
esthetic	-11.9335
▁reaffirm	-11.9335
▁discriminat	-11.9335
crumbl	-11.9335
▁OPEN	-11.9335
▁suitcase	-11.9335
▁Jorge	-11.9335
▁whistle	-11.9335
▁Explor	-11.9335
▁adopt	-11.9335
▁Confirm	-11.9335
▁shirt	-11.9335
SWER	-11.9335
mpowerment	-11.9335
▁equival	-11.9335
828-	-11.9335
LGG	-11.9335
▁scheme	-11.9335
▁stooge	-11.9335
otorua	-11.9335
▁SHOCK	-11.9335
harmad	-11.9335
▁interrupt	-11.9335
ethics	-11.9335
▁manifest	-11.9335
▁component	-11.9335
▁intruder	-11.9335
▁abolish	-11.9335
▁Picas	-11.9336
▁gesture	-11.9336
▁harbour	-11.9336
▁Flex	-11.9336
▁01:09	-11.9336
▁vessel	-11.9336
▁vintage	-11.9336
▁holler	-11.9336
▁pedicure	-11.9336
▁Flip	-11.9336
▁proficien	-11.9336
▁Holocaust	-11.9336
▁Clayton	-11.9336
▁978	-11.9336
MISSI	-11.9336
▁unprofessional	-11.9336
▁12-20-	-11.9336
▁BALL	-11.9336
▁ecolog	-11.9336
▁hysteri	-11.9336
▁cotton	-11.9336
▁Carlos	-11.9336
▁cartoon	-11.9336
▁yield	-11.9336
▁ribbon	-11.9336
▁distort	-11.9336
▁solicit	-11.9337
egulator	-11.9337
▁Quick	-11.9337
▁grocer	-11.9337
▁demons	-11.9337
▁uncertain	-11.9337
▁FRIE	-11.9337
MBER	-11.9337
▁encounter	-11.9337
cussion	-11.9337
orneby	-11.9337
▁persuasi	-11.9337
▁IMPO	-11.9337
▁Prince	-11.9337
▁Fernand	-11.9337
▁Visit	-11.9337
▁enterprise	-11.9337
▁psycholog	-11.9337
▁bluff	-11.9337
▁symp	-11.9337
▁random	-11.9337
cfm	-11.9337
▁Ineos	-11.9337
▁plunge	-11.9338
▁Brenda	-11.9338
▁creep	-11.9338
▁Motor	-11.9338
▁carrot	-11.9338
▁Bridge	-11.9338
▁Success	-11.9338
▁furnish	-11.9338
▁Olymp	-11.9338
▁Clear	-11.9338
▁retard	-11.9338
▁DOOR	-11.9338
▁Nella	-11.9339
▁202.7	-11.9339
▁craving	-11.9339
▁railway	-11.9339
▁teach	-11.9339
▁sn	-11.9339
-90	-11.9339
▁possesse	-11.9339
▁Honest	-11.9339
▁11/8/	-11.9339
▁timeframe	-11.9339
▁Factor	-11.9339
4-12	-11.9339
▁Strong	-11.934
▁shatter	-11.934
▁microwave	-11.934
▁lamb	-11.934
URY	-11.934
▁duplic	-11.934
▁miracle	-11.934
igorous	-11.9341
▁praise	-11.9341
▁uncover	-11.9341
▁Expansion	-11.9341
▁Quebec	-11.9341
6:5	-11.9341
▁08:50	-11.9341
▁participati	-11.9341
andbag	-11.9341
▁junk	-11.9342
▁Dentist	-11.9342
▁giant	-11.9342
▁BOTHER	-11.9342
▁buildup	-11.9343
▁chamber	-11.9343
▁condemnation	-11.9343
▁roast	-11.9343
▁Transport	-11.9343
▁Record	-11.9343
▁armature	-11.9343
53-3	-11.9343
▁hookers	-11.9343
▁neglect	-11.9343
▁casual	-11.9344
▁Coordinator	-11.9344
ssenger	-11.9344
▁unknow	-11.9345
editorial	-11.9345
▁burrow	-11.9345
▁Team	-11.9345
ISTA	-11.9345
▁activist	-11.9345
▁Updat	-11.9345
▁Aplo	-11.9345
▁NICE	-11.9346
▁barcod	-11.9346
▁LIST	-11.9346
▁202-	-11.9346
cogni	-11.9346
▁Taj	-11.9346
▁worship	-11.9347
▁EXPE	-11.9347
▁Cookie	-11.9347
▁Ameri	-11.9347
▁11:35	-11.9347
▁bypass	-11.9347
▁vanish	-11.9348
▁confront	-11.9348
▁intimate	-11.9348
▁seizure	-11.9348
▁BRO	-11.9348
▁Patel	-11.9348
ipur	-11.9348
▁Goldman	-11.9349
▁42,000	-11.9349
▁bundl	-11.9349
▁editor	-11.9349
▁Orla	-11.935
▁premise	-11.935
▁Guarant	-11.935
▁McM	-11.935
▁recip	-11.935
▁973-	-11.935
ocument	-11.9351
▁Opportunity	-11.9351
▁bruise	-11.9352
▁wallet	-11.9352
▁galler	-11.9352
abbit	-11.9352
▁objective	-11.9353
▁ailment	-11.9353
▁Garage	-11.9353
▁surgical	-11.9354
▁ECC	-11.9354
▁SUN	-11.9354
TOR	-11.9354
▁restful	-11.9354
▁socio	-11.9355
▁INS	-11.9355
▁tongue	-11.9355
▁Pitt	-11.9356
6867	-11.9356
ndustr	-11.9356
▁nurse	-11.9356
▁BRI	-11.9356
RED	-11.9356
▁responsive	-11.9357
▁Print	-11.9357
NDI	-11.9357
▁urgent	-11.9358
▁Sheik	-11.9358
▁Direct	-11.9358
▁banner	-11.9359
172	-11.9359
▁profile	-11.9359
ITY	-11.9359
▁Brick	-11.9359
ade	-11.936
borenste	-11.9361
▁Benefit	-11.9361
▁absor	-11.9362
hemical	-11.9363
▁fixture	-11.9364
▁Command	-11.9364
▁punch	-11.9365
▁Ahmad	-11.9365
▁compromis	-11.9365
▁Killi	-11.9365
ubstanti	-11.9366
iriya	-11.9367
▁retail	-11.9367
▁persuad	-11.9368
▁creature	-11.9368
▁Pompe	-11.9368
MB	-11.9368
▁Kline	-11.9369
▁succint	-11.9369
▁colour	-11.937
▁Maria	-11.937
▁wander	-11.937
▁RET	-11.9371
▁Mobil	-11.9372
▁Brandee	-11.9372
▁Kriste	-11.9372
ocre	-11.9373
ECES	-11.9374
▁fusion	-11.9374
▁crisp	-11.9375
▁convenien	-11.9375
▁misstate	-11.9376
▁depict	-11.9376
▁FL	-11.9377
▁purported	-11.9377
callop	-11.9377
undred	-11.9378
▁Apr	-11.9378
▁batter	-11.9379
▁robbe	-11.9381
let	-11.9381
▁archive	-11.9382
▁Regist	-11.9383
▁chick	-11.9383
▁Connection	-11.9384
structur	-11.9384
▁labor	-11.9385
▁handsome	-11.9385
=1	-11.9386
hcroft	-11.9386
▁hack	-11.9386
NTA	-11.9386
▁maul	-11.9386
▁sand	-11.9387
▁beaver	-11.9387
▁Bowen	-11.9388
VAL	-11.9388
▁commence	-11.9389
TION	-11.9391
wyn	-11.9391
111	-11.9391
▁Astr	-11.9392
▁kidnapping	-11.9393
▁Orwell	-11.9393
jah	-11.9393
juven	-11.9394
▁Rib	-11.9394
▁toilet	-11.9394
721	-11.9395
orm	-11.9395
▁affection	-11.9395
▁pickup	-11.9395
▁uneas	-11.9396
▁focuse	-11.9396
▁Blood	-11.9397
roblem	-11.9397
▁freak	-11.9398
Cooper	-11.9398
▁COST	-11.9398
/8/	-11.9398
▁Fair	-11.94
▁disgr	-11.94
▁Through	-11.94
▁industrial	-11.9401
versal	-11.9402
▁Nope	-11.9402
BERT	-11.9403
uci	-11.9403
▁hamm	-11.9405
DR	-11.9405
▁sweep	-11.9405
▁steal	-11.9406
itchen	-11.9406
▁teenage	-11.9406
▁Wheel	-11.9406
inski	-11.9408
logo	-11.941
▁12/2	-11.941
ucei	-11.9411
▁Mommi	-11.9412
▁youngster	-11.9412
▁Carl	-11.9414
▁Clay	-11.9414
▁10:3	-11.9417
GIN	-11.9419
▁arsen	-11.9419
▁Feli	-11.9419
cot	-11.9419
▁simul	-11.9419
▁confid	-11.9422
▁runner	-11.9422
▁Degu	-11.9422
▁ironic	-11.9423
▁Kurdis	-11.9424
YS	-11.9425
▁Akin	-11.9425
▁setup	-11.9427
ntity	-11.9427
compartment	-11.9432
▁amaz	-11.9434
▁Luck	-11.9436
▁Harp	-11.9438
▁desert	-11.9438
004	-11.9438
▁swear	-11.9441
▁Sche	-11.9443
Cook	-11.9443
▁resu	-11.9444
▁Reli	-11.9444
▁numb	-11.9445
▁Dari	-11.9448
▁bon	-11.9449
▁aspiration	-11.9449
usa	-11.945
▁snows	-11.945
▁typo	-11.9451
NAME	-11.9453
▁slant	-11.9453
▁HAND	-11.9454
▁arbitrat	-11.9455
▁Denis	-11.9455
▁implicate	-11.9458
becu	-11.946
77.9	-11.946
▁transition	-11.9461
41	-11.9461
▁Lara	-11.9461
▁orient	-11.9462
descend	-11.9463
▁Lind	-11.9464
▁outrage	-11.9464
br	-11.9464
▁lob	-11.9466
▁legitima	-11.9466
▁effe	-11.9468
▁relations	-11.9469
▁Budd	-11.9469
▁implic	-11.947
▁SER	-11.9472
▁220	-11.9474
UFF	-11.9476
▁Savi	-11.9477
raduate	-11.9478
▁flop	-11.9479
▁disgu	-11.948
onnais	-11.9481
▁deter	-11.9482
▁Palm	-11.9484
▁lik	-11.9485
trospect	-11.9487
▁annex	-11.9488
▁shred	-11.9494
▁Ap	-11.9497
▁Glas	-11.9498
▁Wax	-11.95
▁archi	-11.9501
▁esp	-11.9501
▁mask	-11.9503
▁col	-11.9504
▁Interviews	-11.9506
▁airliner	-11.9507
ost	-11.9508
liza	-11.9508
▁restrain	-11.9511
▁subp	-11.9513
ERI	-11.9514
rift	-11.9519
QL	-11.952
band	-11.9522
▁paragraph	-11.9522
▁Tire	-11.9525
▁wrapp	-11.9525
▁Afr	-11.9527
▁browse	-11.9527
▁contend	-11.9528
▁weaken	-11.9528
▁statue	-11.9529
2.9	-11.9532
stein	-11.9535
nk	-11.9536
▁Touch	-11.9539
ntage	-11.954
affle	-11.9543
▁Sm	-11.9544
▁Vol	-11.9545
urniture	-11.9545
▁Sony	-11.9546
:29	-11.9547
▁sleeve	-11.955
78	-11.955
▁TG	-11.9551
igation	-11.9552
▁modul	-11.9553
fertil	-11.9554
redirect	-11.9555
▁bob	-11.9556
▁BRA	-11.9564
▁instrumenta	-11.9566
OR	-11.9566
▁Ash	-11.9566
▁1.	-11.9567
evel	-11.9567
▁Arth	-11.9569
▁fuck	-11.9569
▁sketch	-11.9572
rrupt	-11.9573
▁Penny	-11.9575
▁investor	-11.9577
▁beneficia	-11.9578
238	-11.9578
rmal	-11.9579
reach	-11.9586
▁Trip	-11.9588
▁merger	-11.9591
▁vir	-11.9594
▁NX	-11.9595
stance	-11.9596
▁ste	-11.9601
▁striking	-11.9601
wish	-11.9604
▁revolt	-11.9606
▁SAL	-11.9608
▁PD	-11.9609
▁numer	-11.961
teria	-11.9613
zzin	-11.9614
home	-11.9614
▁Bh	-11.9616
YSTIC	-11.9617
▁horrif	-11.962
eans	-11.962
▁WE	-11.9623
hawk	-11.9624
RT	-11.9624
▁Mak	-11.9625
▁divin	-11.9626
mani	-11.963
▁Pil	-11.9631
▁-----	-11.9632
jum	-11.9634
▁EI	-11.9637
▁11:1	-11.9638
▁Caroline	-11.9638
▁persu	-11.964
ALO	-11.9642
UGHT	-11.9644
ranscendent	-11.965
▁cyn	-11.9651
▁Aka	-11.9651
ssum	-11.9653
▁scammers	-11.9653
▁earthquakes	-11.9657
col	-11.9657
xtreme	-11.9659
▁detract	-11.966
▁specif	-11.9664
▁Mathematic	-11.9664
▁yam	-11.9664
URGE	-11.9666
▁biologist	-11.9669
▁Own	-11.9669
erform	-11.9671
UR	-11.9671
▁laud	-11.9672
▁Eur	-11.9673
▁temper	-11.9676
▁pic	-11.9678
▁ABB	-11.968
▁graduat	-11.9681
erial	-11.9684
▁outline	-11.9685
ransformation	-11.9689
aw	-11.969
▁Rebe	-11.9691
wer	-11.9693
▁absen	-11.9694
▁merge	-11.9695
EST	-11.9695
pair	-11.9696
charge	-11.9697
▁honey	-11.9698
665	-11.9699
EX	-11.9702
▁Wat	-11.9707
robabl	-11.9708
WL	-11.9711
pulsi	-11.9712
▁impe	-11.9714
▁SHO	-11.9715
scus	-11.9716
▁intima	-11.9723
▁bounce	-11.9725
▁pie	-11.9725
▁af	-11.9726
▁Suppose	-11.973
▁Fac	-11.9732
▁COU	-11.9733
▁absent	-11.9734
juan	-11.9735
ith	-11.9737
▁furn	-11.9742
HU	-11.9748
phant	-11.9749
▁62	-11.9757
▁Cass	-11.9757
gnific	-11.9761
lim	-11.9761
▁Iraqiya	-11.9763
hackle	-11.9765
maker	-11.9767
▁Def	-11.9768
▁Cran	-11.9768
▁Doc	-11.977
▁Jacobs	-11.9772
break	-11.9779
▁scrum	-11.9779
eval	-11.978
ratic	-11.9784
▁Buis	-11.9786
▁unbe	-11.9786
▁Hour	-11.9788
was	-11.9789
▁reopen	-11.9791
▁cautio	-11.9791
NIO	-11.9793
▁MT	-11.9795
▁defi	-11.98
raise	-11.98
▁keys	-11.9801
▁invad	-11.9803
6.1	-11.9804
▁marginal	-11.9805
Ell	-11.9805
bundance	-11.9805
▁shake	-11.9811
▁Arya	-11.9811
▁Rosem	-11.9811
slamist	-11.9813
DIN	-11.9813
▁scr	-11.9813
▁Beach	-11.9815
2-	-11.9817
▁mathematic	-11.9822
5-2	-11.9823
▁spic	-11.9824
▁techni	-11.9832
cris	-11.9834
oth	-11.9836
bage	-11.9838
athan	-11.984
dvice	-11.9843
ooglenut	-11.9848
eeding	-11.9849
▁jumb	-11.985
▁insight	-11.985
▁padd	-11.986
▁vis	-11.9861
emember	-11.9863
essential	-11.9868
▁CAR	-11.9869
▁cont	-11.987
with	-11.9871
▁5/1	-11.988
▁Casta	-11.9889
Callum	-11.989
▁reschedul	-11.9892
▁showe	-11.9892
▁encourag	-11.9893
frig	-11.9895
▁downgrad	-11.9896
ourish	-11.9899
▁preview	-11.99
willing	-11.9901
OME	-11.9905
▁max	-11.9908
▁gasp	-11.9908
ett	-11.9912
▁geni	-11.9914
acy	-11.9916
▁7:	-11.992
▁Morr	-11.992
▁canoe	-11.9921
▁Mas	-11.9924
▁automatic	-11.9925
▁SEC	-11.9927
▁CF	-11.9927
▁Ador	-11.9933
▁provinc	-11.9933
aintain	-11.9933
▁joy	-11.9939
search	-11.9942
iagnos	-11.9942
▁12:4	-11.9954
loy	-11.9962
senate	-11.9964
▁appr	-11.9964
SUL	-11.9967
.6	-11.9972
essive	-11.9973
bl	-11.9986
2.	-11.9989
ajor	-11.9991
▁graz	-11.9991
ini	-11.9992
liate	-11.9993
▁Pan	-11.9994
▁Weil	-11.9997
▁Conn	-12.0002
lymp	-12.0003
epa	-12.0006
▁finch	-12.0006
bi	-12.001
pat	-12.0012
▁Wholes	-12.0014
sing	-12.0015
OVER	-12.0015
ometer	-12.0016
▁drawer	-12.0017
oso	-12.0018
heav	-12.0018
▁creditor	-12.0023
▁farc	-12.0033
holder	-12.0036
ixture	-12.004
alam	-12.0045
▁DI	-12.005
▁18:	-12.0057
adi	-12.0059
▁Vot	-12.0061
Hodg	-12.0061
mitted	-12.0066
▁Say	-12.0074
▁Way	-12.0077
dline	-12.0077
▁Test	-12.008
920	-12.0081
▁66	-12.009
▁Mother	-12.0091
▁vent	-12.0091
ashi	-12.0093
pel	-12.0101
▁Warm	-12.0103
atable	-12.0107
541	-12.011
▁Hor	-12.0111
nasa	-12.0112
▁prud	-12.0121
iving	-12.0122
lema	-12.013
▁Valen	-12.0133
▁opti	-12.014
▁smi	-12.0146
Sus	-12.0147
ALK	-12.0148
fic	-12.0148
EWAR	-12.015
▁calend	-12.0153
▁perceiv	-12.0154
▁Aut	-12.0156
definite	-12.0157
sburg	-12.016
▁facilitat	-12.0162
▁apologi	-12.0164
▁Wish	-12.0168
lab	-12.017
29.	-12.0172
▁acknowledg	-12.0172
▁classi	-12.0175
hol	-12.0177
▁Tig	-12.0183
eigh	-12.0183
OKE	-12.0184
tari	-12.0189
rmaments	-12.0191
cape	-12.0193
obil	-12.0197
▁merc	-12.0207
▁Ti	-12.0212
por	-12.0219
ute	-12.0221
eath	-12.0221
▁psychi	-12.0222
pur	-12.0224
▁Kos	-12.0225
▁cab	-12.0227
▁memorial	-12.023
rin	-12.0242
RECT	-12.0243
▁chill	-12.0258
▁sma	-12.0258
181	-12.0262
▁deni	-12.0264
▁cooperati	-12.0266
claim	-12.0271
photographer	-12.0272
▁zi	-12.0275
oph	-12.0277
qui	-12.0282
▁cance	-12.0291
▁argu	-12.0295
▁rig	-12.0297
▁ur	-12.0298
▁Tru	-12.03
▁shrin	-12.0305
▁bid	-12.0309
rican	-12.031
organ	-12.0311
TW	-12.0314
route	-12.0315
ailing	-12.0319
efi	-12.0321
▁Fir	-12.0333
NOW	-12.0335
▁magnet	-12.0336
span	-12.034
CLE	-12.0343
anna	-12.0344
?!?	-12.0352
▁5.1	-12.0354
compete	-12.0363
cus	-12.037
tuna	-12.0377
2,500	-12.0388
▁ortho	-12.0391
auce	-12.0399
▁05:5	-12.04
ASI	-12.0401
iffe	-12.0405
▁embr	-12.0407
▁jur	-12.0409
rocco	-12.042
nnes	-12.0422
▁optimi	-12.0431
▁Cole	-12.0434
▁07:5	-12.0439
▁worse	-12.0443
▁fis	-12.0444
OA	-12.0448
▁gol	-12.0451
87	-12.0453
▁atm	-12.047
aller	-12.0474
▁44	-12.0476
▁Ala	-12.0479
step	-12.0479
▁ac	-12.0481
▁DS	-12.0483
▁STO	-12.0483
▁Pu	-12.0485
▁Phoe	-12.0488
▁130	-12.0491
▁Lawma	-12.0496
tor	-12.0499
▁corp	-12.0502
clip	-12.0514
▁Mandi	-12.0517
▁08:5	-12.0518
illa	-12.0521
bad	-12.0529
3-3	-12.0532
▁demo	-12.0536
▁poke	-12.0536
▁booste	-12.0539
endorf	-12.0544
sia	-12.0549
tney	-12.0557
ota	-12.0568
egi	-12.0574
▁Desp	-12.0582
2/22/200	-12.0587
▁EO	-12.0587
The	-12.0588
:35	-12.0591
usage	-12.0591
ACT	-12.0591
▁Animal	-12.0594
▁manag	-12.0604
mps	-12.0604
flower	-12.0611
cic	-12.0616
▁Polan	-12.0616
hief	-12.0625
▁una	-12.0633
pore	-12.0647
▁Tue	-12.065
▁belittl	-12.0659
▁Qui	-12.0666
▁z	-12.0678
▁circu	-12.0678
▁bore	-12.0681
▁Sim	-12.0684
▁eg	-12.0687
nie	-12.0689
SD	-12.0706
anim	-12.0706
▁pu	-12.0709
sfe	-12.0711
iger	-12.0714
▁refiner	-12.0717
sky	-12.0717
ches	-12.0721
ys	-12.0723
----------	-12.0727
▁ESA	-12.0729
ild	-12.0732
ferr	-12.0733
orse	-12.0737
VEN	-12.0742
cin	-12.0751
imien	-12.0758
earing	-12.0759
ular	-12.0769
35-	-12.0773
==========	-12.0773
obey	-12.0775
PEC	-12.0776
▁invok	-12.0796
uixot	-12.0798
▁Platt	-12.0801
▁Coun	-12.081
uer	-12.0817
▁Gill	-12.0822
ornell	-12.0822
▁urg	-12.0822
vident	-12.0824
▁95	-12.0826
AAAA	-12.0834
ggle	-12.0842
▁influ	-12.0844
▁accessib	-12.0852
term	-12.0855
▁Tar	-12.0869
▁Isma	-12.0874
▁Shee	-12.0875
nny	-12.0875
EED	-12.0877
▁Inde	-12.0878
lot	-12.0881
▁originate	-12.0893
▁cement	-12.0894
▁flyer	-12.0894
phy	-12.0894
rus	-12.0901
▁39	-12.0902
NSI	-12.0905
▁CE	-12.0906
▁EA	-12.0907
▁rem	-12.0908
▁shippe	-12.0914
▁min	-12.0919
aath	-12.0921
▁bulls	-12.093
▁icon	-12.093
▁ap	-12.0931
WW	-12.0932
zen	-12.0939
arma	-12.094
▁0.	-12.0943
icket	-12.0949
▁Rh	-12.0951
▁undermine	-12.0953
▁trott	-12.0955
then	-12.0957
270	-12.0961
▁combin	-12.0966
aneous	-12.0969
lib	-12.097
introduction	-12.0971
wap	-12.0972
PC	-12.0978
unday	-12.0981
▁wis	-12.0981
61	-12.0989
▁Tint	-12.0998
▁blade	-12.1002
oug	-12.1009
galen	-12.1009
▁Indi	-12.1012
▁donat	-12.1014
ock	-12.1016
cade	-12.1021
bay	-12.1025
▁Shr	-12.1028
▁UR	-12.1029
▁var	-12.1037
OON	-12.1038
584	-12.1038
▁EAT	-12.104
eat	-12.1042
▁seeker	-12.105
▁Hin	-12.106
237	-12.1065
▁Californian	-12.1068
▁Bon	-12.1069
▁compet	-12.1076
mma	-12.1078
▁misinform	-12.1092
▁anima	-12.1097
▁TA	-12.1097
▁bru	-12.1104
test	-12.1106
▁McC	-12.1116
▁interacti	-12.112
▁Rest	-12.1126
▁Propose	-12.1153
▁depo	-12.1153
gold	-12.1156
ings	-12.1156
▁mani	-12.1165
lier	-12.1168
▁09/1	-12.1184
▁11/	-12.1189
▁retak	-12.1195
▁Mod	-12.1197
PLICATION	-12.1212
ACK	-12.1218
▁VP	-12.122
▁48	-12.1235
▁202.	-12.1239
▁venue	-12.1239
▁Figur	-12.1248
▁Log	-12.1248
▁Capital	-12.1255
laz	-12.1256
ind	-12.1256
espectful	-12.1258
eason	-12.1307
▁Marine	-12.1312
4-1	-12.134
wait	-12.1341
▁attendan	-12.1344
MS	-12.1344
▁manne	-12.135
▁oversee	-12.1351
▁barre	-12.1351
▁soci	-12.1357
▁identifi	-12.1359
▁compose	-12.1361
ORD	-12.1366
eller	-12.1367
▁SM	-12.1369
▁Att	-12.1371
▁linked	-12.1385
ba	-12.1386
▁til	-12.1389
dia	-12.1394
amble	-12.1403
ddy	-12.1412
▁Wok	-12.1432
▁soph	-12.1435
metre	-12.1439
decide	-12.146
possibl	-12.1465
▁programm	-12.147
ggl	-12.1479
▁math	-12.1484
arage	-12.1488
Mayur	-12.1499
ectronic	-12.1508
aboard	-12.1511
ante	-12.1511
▁Bla	-12.1512
sume	-12.1518
script	-12.1524
▁Rip	-12.1525
▁Ge	-12.1525
calculati	-12.1538
UD	-12.1539
mmuniti	-12.1556
▁marking	-12.1558
▁neighbo	-12.156
VS	-12.1561
▁thr	-12.1561
LUS	-12.1564
▁1.6	-12.1564
umin	-12.157
-27	-12.1573
▁sad	-12.1579
▁plac	-12.1583
ena	-12.1593
ort	-12.16
▁gla	-12.1602
▁prob	-12.1613
▁Clau	-12.162
814	-12.1625
▁mont	-12.1642
▁poste	-12.1643
▁Econom	-12.1646
▁Pin	-12.1647
hese	-12.1655
lity	-12.1658
GO	-12.1658
▁rampa	-12.1662
rene	-12.1664
▁unhe	-12.1672
▁Chev	-12.1677
ogic	-12.1678
ots	-12.169
cience	-12.169
inni	-12.1696
▁ven	-12.1704
▁Mol	-12.1709
▁aspir	-12.1724
▁Appe	-12.1732
sam	-12.1735
▁Nat	-12.1736
169	-12.1744
▁Fl	-12.1752
▁counters	-12.1757
haz	-12.1758
ontemporar	-12.1762
peration	-12.1767
▁grace	-12.1767
enstein	-12.1769
NTO	-12.178
HER	-12.1783
train	-12.1792
can	-12.1797
ego	-12.1799
▁sap	-12.18
orie	-12.1801
EGA	-12.1804
▁div	-12.181
-5	-12.1816
▁GE	-12.1817
836	-12.1846
star	-12.1848
▁713-853-30	-12.1852
feb	-12.1853
▁Underw	-12.1854
touch	-12.1855
▁Ob	-12.186
▁980	-12.1874
▁Dee	-12.1875
▁fran	-12.1879
▁jun	-12.1883
▁heck	-12.1885
▁App	-12.1894
het	-12.1899
▁gamb	-12.1903
▁york	-12.191
▁Ger	-12.191
arrange	-12.1917
▁intern	-12.192
arry	-12.1922
rton	-12.1928
▁shr	-12.1931
lack	-12.1934
▁ham	-12.1944
mmunit	-12.1952
urb	-12.1961
▁Gal	-12.1963
CT	-12.1964
▁justifie	-12.1969
▁hedg	-12.1986
▁woke	-12.1988
lause	-12.1988
▁EX	-12.2016
▁scor	-12.2016
▁Amen	-12.2022
oll	-12.2029
ht	-12.2048
deation	-12.2052
DS	-12.2064
▁Nas	-12.2064
▁gua	-12.2065
09/11/	-12.2084
▁Lt	-12.2085
555	-12.2085
▁Qu	-12.2096
▁suffi	-12.2098
▁Regen	-12.2099
illed	-12.2114
▁convert	-12.2115
JM	-12.2116
-80	-12.212
3.1	-12.212
---------	-12.2121
azin	-12.2127
▁strang	-12.2129
▁Vir	-12.2137
▁CON	-12.2147
ircle	-12.2148
▁reco	-12.2148
▁Nige	-12.2156
▁cele	-12.2156
▁scheduler	-12.2163
▁parade	-12.2165
▁Kil	-12.2181
▁02:4	-12.2192
tho	-12.2199
▁Vet	-12.2201
ses	-12.2204
...	-12.2211
▁bri	-12.2211
▁Ol	-12.2216
afi	-12.2218
panes	-12.2226
lev	-12.2239
▁sci	-12.225
kr	-12.2263
unterpart	-12.2273
mon	-12.2286
quisit	-12.2295
trick	-12.2302
2.1	-12.2303
▁traditional	-12.2308
▁Core	-12.2312
gray	-12.2317
▁Cake	-12.2323
indi	-12.2323
ense	-12.2326
ANU	-12.2334
▁smalle	-12.2336
▁translat	-12.234
ehouse	-12.2342
▁chant	-12.2358
solid	-12.236
che	-12.2371
ART	-12.2377
▁mille	-12.2381
otal	-12.2381
suit	-12.2389
tual	-12.2393
▁Monta	-12.2395
rrible	-12.2408
▁unl	-12.2429
corne	-12.2434
▁varie	-12.2437
airs	-12.2439
rbitrat	-12.2439
3098	-12.2441
▁priv	-12.2441
▁sk	-12.2446
dg	-12.2449
▁AP	-12.245
▁uh	-12.2465
▁mus	-12.2465
▁Abu	-12.2467
96	-12.2471
▁easter	-12.2472
▁Nag	-12.2473
gu	-12.2474
pin	-12.2477
▁touris	-12.2483
tent	-12.2496
▁Ste	-12.2501
emed	-12.2514
heik	-12.2524
▁knee	-12.2525
opp	-12.2527
▁Tri	-12.2534
▁brun	-12.2535
▁Moral	-12.2538
▁03:3	-12.2546
len	-12.2552
oil	-12.2554
▁11:2	-12.2556
▁pend	-12.2559
▁imper	-12.2579
lka	-12.2581
iting	-12.2594
▁Sho	-12.2616
▁amus	-12.2621
anta	-12.2632
▁energ	-12.2637
▁resid	-12.2641
▁RA	-12.2642
▁liber	-12.2649
▁Sc	-12.265
▁Cor	-12.2652
alikh	-12.2659
▁Line	-12.2682
▁Surge	-12.2682
▁exclude	-12.2705
▁explo	-12.2706
▁natur	-12.2721
▁experi	-12.2727
ONAR	-12.2733
▁Cru	-12.2738
▁366	-12.2742
otel	-12.2743
▁JUN	-12.2745
conferences	-12.2763
ading	-12.2771
▁credi	-12.2781
▁abus	-12.2786
▁ze	-12.2787
:00:5	-12.2791
rt	-12.2791
▁3.2	-12.2793
ode	-12.2793
moleste	-12.2797
arden	-12.2797
65.	-12.2801
nal	-12.2802
mnest	-12.2802
ommer	-12.284
ifer	-12.2843
▁09:5	-12.2858
▁04:5	-12.2866
▁Pea	-12.2873
▁06	-12.2875
▁horn	-12.2877
▁RO	-12.2881
▁aut	-12.2884
roll	-12.2884
ranch	-12.2887
yan	-12.2894
ignitar	-12.2895
▁Tau	-12.2903
thor	-12.2913
ROD	-12.2925
▁Wind	-12.2932
▁acro	-12.2936
▁LE	-12.2937
▁Charl	-12.2939
approve	-12.294
commend	-12.2959
▁multipl	-12.2966
ages	-12.2967
▁dec	-12.2971
rilla	-12.2985
▁reconcile	-12.2992
▁deb	-12.2996
easure	-12.2997
▁cor	-12.2999
uk	-12.3003
▁Propos	-12.3005
▁jea	-12.301
▁SOU	-12.3016
▁Sol	-12.3021
▁bold	-12.3041
crimina	-12.305
erior	-12.3053
ltra	-12.3062
IBLE	-12.3066
▁Lau	-12.3066
rumble	-12.3068
▁Lan	-12.3069
ndon	-12.3076
▁ka	-12.3081
▁Ass	-12.3091
▁05/0	-12.3098
▁Simpl	-12.3103
REA	-12.3106
▁Ser	-12.3123
monic	-12.3128
▁Gri	-12.3129
03/	-12.3132
live	-12.315
▁blo	-12.3159
▁ki	-12.3167
▁Fah	-12.3173
ffair	-12.3176
▁investigati	-12.3201
frame	-12.3201
ergy	-12.3212
▁garn	-12.3224
▁713-6	-12.3227
aff	-12.3247
▁kin	-12.3253
▁holder	-12.326
▁Eve	-12.326
ics	-12.3261
dicate	-12.3264
46-	-12.3265
▁pres	-12.3268
cust	-12.327
ros	-12.3274
sor	-12.3283
pon	-12.3288
gic	-12.3296
▁Corel	-12.3302
quir	-12.3319
uite	-12.3324
fer	-12.3329
"	-12.3329
ffer	-12.3332
▁BEN	-12.334
▁Appl	-12.3342
281	-12.3343
▁Aid	-12.3344
gy	-12.3347
▁02:2	-12.3349
iddi	-12.3355
▁gentl	-12.3369
▁ambi	-12.3371
rose	-12.3382
hl	-12.3386
▁Basi	-12.339
▁ref	-12.3393
lone	-12.3411
ones	-12.3413
▁Jud	-12.3424
OID	-12.3431
▁controlle	-12.3448
▁abo	-12.3462
isappointed	-12.3465
rren	-12.3469
od	-12.3471
▁riso	-12.3476
▁Jou	-12.3481
tes	-12.349
▁CHE	-12.349
ign	-12.3498
▁Serv	-12.3501
▁tub	-12.3508
ink	-12.3514
Funk	-12.3516
▁nick	-12.3537
▁pur	-12.3537
lator	-12.3537
▁rad	-12.3551
▁JU	-12.3561
▁UC	-12.3582
orizon	-12.3585
committe	-12.3587
▁cra	-12.3588
▁Gi	-12.3595
believabl	-12.3638
ats	-12.3644
/13/200	-12.3655
hopp	-12.3662
met	-12.3667
▁pen	-12.3672
▁Land	-12.3683
IND	-12.369
▁Aya	-12.3707
▁153	-12.3712
▁exclud	-12.3714
▁obse	-12.3719
▁beer	-12.3726
:20	-12.3726
iro	-12.3728
▁em	-12.3729
▁inquire	-12.3737
74	-12.3755
▁ram	-12.376
▁nig	-12.3762
▁EVER	-12.3764
ash	-12.3798
pro	-12.3809
70	-12.3811
▁wri	-12.3819
▁Mell	-12.3822
(	-12.3869
▁plea	-12.3869
stri	-12.387
high	-12.3877
▁Bell	-12.3885
▁6.2	-12.3886
ias	-12.3893
▁perp	-12.3912
▁ri	-12.3914
nned	-12.3914
nder	-12.3927
▁qu	-12.3928
▁sala	-12.3935
▁Blog	-12.3937
▁Der	-12.394
SSI	-12.396
▁Late	-12.3977
51	-12.398
▁stru	-12.3993
reat	-12.3997
ounsel	-12.4001
sting	-12.4002
▁bush	-12.4015
▁Stor	-12.4033
▁scru	-12.4035
cl	-12.4039
hear	-12.4043
▁Lead	-12.4056
cuse	-12.4063
bear	-12.4064
Arts	-12.4069
ARCH	-12.4087
PL	-12.4089
ema	-12.4098
ork	-12.41
▁Furn	-12.4112
promotion	-12.412
sman	-12.4121
ique	-12.4126
itizen	-12.4127
987	-12.4129
▁communi	-12.413
/26/	-12.4132
▁histori	-12.4149
▁chart	-12.4149
▁categori	-12.4151
RL	-12.4179
▁withdr	-12.4181
▁meant	-12.4184
▁Sill	-12.4189
▁Hen	-12.4208
dow	-12.4224
mos	-12.4225
▁sixt	-12.4233
list	-12.4239
▁hmmm	-12.4244
▁chas	-12.4253
ears	-12.4253
acks	-12.4257
you	-12.4262
▁12.	-12.4269
ody	-12.4274
▁gradua	-12.4282
▁relia	-12.4293
▁Petr	-12.4312
/200	-12.4312
mm	-12.4315
ane	-12.4318
▁Bilb	-12.4332
▁Gla	-12.4333
rizon	-12.4335
iquet	-12.4344
eg	-12.4365
bias	-12.4365
bud	-12.4372
▁ce	-12.4377
▁Med	-12.4377
OST	-12.4402
▁seiz	-12.4402
CHU	-12.4403
▁span	-12.4404
ord	-12.4422
▁Pi	-12.4427
▁Chand	-12.4431
cos	-12.4437
lie	-12.4445
▁Phe	-12.4451
▁suff	-12.4462
▁PJ	-12.4468
inder	-12.4471
lient	-12.4477
▁Hil	-12.4499
▁shri	-12.4501
pple	-12.4501
▁interfer	-12.4504
▁grea	-12.4504
▁230	-12.4505
.4	-12.4537
ibu	-12.4542
mum	-12.4547
:15	-12.4552
lock	-12.4553
▁vani	-12.4559
▁terminate	-12.456
ench	-12.4563
▁emp	-12.4573
▁solv	-12.4573
▁coll	-12.4607
aving	-12.4612
stro	-12.4616
▁HD	-12.4616
ncer	-12.4623
60	-12.4628
agic	-12.4642
information	-12.4649
relation	-12.4651
605	-12.4669
▁Christi	-12.4693
▁Naz	-12.4709
48-	-12.4726
agg	-12.4728
ds	-12.4732
▁DEC	-12.4735
▁overt	-12.4753
atio	-12.4756
▁Eva	-12.4766
▁violat	-12.4767
jit	-12.4775
▁770	-12.4804
▁Ches	-12.481
.9	-12.4846
names	-12.4847
TY	-12.4856
pression	-12.4857
EDI	-12.4873
▁Sher	-12.4878
▁EL	-12.4889
imida	-12.4892
▁Lone	-12.4912
▁genera	-12.4913
utter	-12.4914
egan	-12.4918
ula	-12.4925
▁Meg	-12.4925
▁opportun	-12.4943
YM	-12.4951
zer	-12.4957
▁Vo	-12.4973
▁engag	-12.4977
mediate	-12.4984
earch	-12.4996
alid	-12.5012
jection	-12.5029
earn	-12.503
asy	-12.5047
nard	-12.5048
▁ramp	-12.5058
▁phill	-12.5059
verag	-12.5065
nam	-12.5066
fur	-12.5072
▁---------	-12.5074
▁rob	-12.5084
▁Comp	-12.5087
▁Soci	-12.5092
▁concentr	-12.511
▁impo	-12.5115
aughter	-12.5121
tim	-12.5127
▁lu	-12.5132
ush	-12.5134
oster	-12.5134
WOR	-12.5138
OS	-12.5143
▁Sacre	-12.5146
nym	-12.5163
OF	-12.5167
509	-12.5174
▁thes	-12.5189
08/	-12.5193
490	-12.5197
▁stro	-12.5203
9.3	-12.5209
▁ill	-12.5211
awi	-12.5234
▁virtu	-12.5262
▁crus	-12.5266
▁Scor	-12.5275
0-2	-12.5275
▁colo	-12.5284
kal	-12.5285
▁Crosse	-12.5291
▁scrape	-12.53
▁Special	-12.5307
UAR	-12.5321
▁Vald	-12.5341
▁perm	-12.5347
ives	-12.5351
9/	-12.5358
▁Rove	-12.5359
▁agen	-12.5364
aps	-12.5368
▁spou	-12.5387
▁Increas	-12.54
▁10.9	-12.5406
▁boxe	-12.5411
cks	-12.5425
ANC	-12.5432
▁cere	-12.5434
ndependent	-12.5436
▁Miss	-12.544
ass	-12.5444
▁Cut	-12.5453
▁Swi	-12.5461
fa	-12.5463
raft	-12.5466
▁laur	-12.5471
▁04/	-12.5483
itude	-12.549
LL	-12.5492
umps	-12.5494
EFI	-12.5506
▁jo	-12.5531
▁awa	-12.5537
dical	-12.555
▁emi	-12.5557
▁Figure	-12.5591
▁consum	-12.5591
ino	-12.5593
▁10:0	-12.5594
▁380	-12.5612
nea	-12.5615
▁correspond	-12.5616
140	-12.5624
▁justif	-12.5626
▁kidn	-12.5634
▁Oat	-12.5647
dignit	-12.5653
ustria	-12.5657
▁hesita	-12.5657
▁reassur	-12.5659
cla	-12.5669
▁177	-12.5682
brea	-12.569
▁lane	-12.5694
▁coinciden	-12.5717
▁rel	-12.5722
▁voic	-12.5722
▁Economi	-12.5727
gular	-12.5734
▁vers	-12.5742
nka	-12.5752
parate	-12.5755
▁salt	-12.5756
idential	-12.5762
kim	-12.5764
loch	-12.5775
▁Cur	-12.5777
/4	-12.5781
▁Gem	-12.5788
appell	-12.5795
701	-12.5796
▁Fly	-12.5802
terda	-12.5806
▁Tra	-12.5806
142	-12.581
arten	-12.5837
▁Rut	-12.584
ades	-12.584
▁06:2	-12.5858
▁ad	-12.5858
role	-12.5861
▁magn	-12.5865
▁Came	-12.5874
case	-12.5881
▁eth	-12.5889
eld	-12.5895
▁AN	-12.5901
ticul	-12.591
25/200	-12.5916
▁cow	-12.5919
▁minorit	-12.5931
▁Disco	-12.5965
▁wr	-12.5965
▁gods	-12.5975
▁Bona	-12.5975
▁id	-12.5992
YP	-12.6001
▁starv	-12.6002
▁gent	-12.6015
▁abilit	-12.6017
mpact	-12.6019
73	-12.6043
anc	-12.6046
▁mole	-12.6049
▁dia	-12.6054
▁PAI	-12.6058
▁Transm	-12.6066
operation	-12.6072
flag	-12.6073
▁01:0	-12.6075
ens	-12.6082
istory	-12.6083
lude	-12.6087
▁Sav	-12.609
83	-12.6097
gra	-12.6099
▁ridd	-12.6099
▁Jai	-12.6105
▁NV	-12.611
▁op	-12.6112
▁apo	-12.612
ental	-12.612
▁253	-12.6121
▁dr	-12.6129
▁Cons	-12.6142
▁Simi	-12.6159
ngl	-12.6162
merge	-12.6167
▁formatt	-12.6192
▁Dem	-12.6192
ication	-12.6222
368	-12.6223
▁1.0	-12.6238
passion	-12.6243
▁alternat	-12.6246
▁disclos	-12.6254
lax	-12.6255
genc	-12.6261
▁Dia	-12.6264
ROL	-12.6277
▁possib	-12.6328
▁darke	-12.6331
▁traine	-12.6332
▁circ	-12.6335
llies	-12.6336
lighten	-12.635
ank	-12.6353
5,0	-12.6354
osition	-12.6355
249	-12.6357
▁ignora	-12.636
▁approache	-12.6361
▁rif	-12.6364
▁rev	-12.6365
bject	-12.6371
▁WW	-12.6371
ographic	-12.6398
▁leve	-12.6418
▁attracti	-12.6438
AG	-12.6439
pen	-12.6441
eview	-12.6443
▁assu	-12.6448
▁Map	-12.645
▁arrang	-12.6452
pain	-12.6458
▁refine	-12.646
real	-12.6465
▁creati	-12.6487
▁MOV	-12.6492
car	-12.6493
lain	-12.6505
**************	-12.6515
ude	-12.6517
▁yours	-12.652
▁Lis	-12.6525
UND	-12.6531
▁grad	-12.6531
1/13/200	-12.6533
▁smuggle	-12.6537
▁Yan	-12.6543
AR	-12.6544
▁atta	-12.6545
▁amuse	-12.6547
nta	-12.655
Gate	-12.6554
▁listing	-12.656
qu	-12.6561
ATION	-12.658
ield	-12.6586
▁ext	-12.659
▁cus	-12.6592
apor	-12.6616
eas	-12.6619
yani	-12.664
▁Grille	-12.6641
▁Gues	-12.6643
▁64	-12.6644
tin	-12.6652
▁spac	-12.6653
09/20	-12.6659
lt	-12.666
▁incit	-12.666
▁performe	-12.6662
san	-12.6663
tline	-12.6666
Bush	-12.667
▁southe	-12.6675
rrangements	-12.6682
finity	-12.6685
▁understandabl	-12.6688
phere	-12.6688
ows	-12.6689
lawi	-12.6697
▁dept	-12.6699
▁uncle	-12.6705
sses	-12.671
▁educate	-12.6725
nization	-12.6732
reign	-12.6743
▁Speci	-12.6749
▁visib	-12.6766
▁qualif	-12.6768
▁aud	-12.6789
rug	-12.6793
bur	-12.6809
▁Loc	-12.6817
▁Spor	-12.6823
erno	-12.6836
464	-12.6839
▁170	-12.6855
▁cli	-12.6858
▁Eri	-12.6865
ques	-12.6866
▁Bus	-12.6867
sha	-12.6879
▁envelop	-12.6888
mmuni	-12.6889
▁Bala	-12.6893
5/	-12.6931
ivate	-12.6942
rosh	-12.695
cou	-12.6956
▁Ag	-12.696
▁2:	-12.6969
arn	-12.6972
sp	-12.6976
▁plu	-12.6988
▁pri	-12.7011
eadline	-12.7015
effe	-12.7019
-37	-12.702
valu	-12.7028
!!!	-12.7032
og	-12.7033
eadow	-12.7044
rti	-12.705
estimony	-12.7052
quisiti	-12.7067
mmon	-12.7072
book	-12.7086
eze	-12.7089
▁lou	-12.7093
pilla	-12.7107
▁repli	-12.7118
alia	-12.7121
itarian	-12.7121
uit	-12.7128
alab	-12.7135
PS	-12.7143
▁5.	-12.7144
CAS	-12.7146
mole	-12.7153
▁separat	-12.7157
▁5.3	-12.716
▁activ	-12.716
igli	-12.7166
unctio	-12.717
▁MOO	-12.7172
reparedness	-12.7176
PO	-12.718
convert	-12.7181
NES	-12.7183
stor	-12.7185
▁panc	-12.7188
▁te	-12.7193
rm	-12.7196
TRE	-12.72
tmas	-12.7209
consi	-12.7219
point	-12.7231
pply	-12.7232
tire	-12.7235
ube	-12.7237
▁Mah	-12.7238
▁WO	-12.7245
▁sponsors	-12.7246
ures	-12.7254
urbin	-12.7256
ip	-12.7258
anu	-12.7259
▁perce	-12.7267
▁slit	-12.7267
993	-12.7271
pi	-12.728
▁Produc	-12.7284
deva	-12.7286
▁tel	-12.7287
▁Kus	-12.729
▁Sus	-12.7298
fu	-12.73
▁disrupti	-12.7305
irs	-12.7329
▁Bea	-12.7332
lum	-12.7345
1.5	-12.7347
ader	-12.7347
udg	-12.7348
▁Hit	-12.7354
hav	-12.7355
teen	-12.7365
EXT	-12.7381
logic	-12.7382
▁ag	-12.7388
900	-12.7389
urric	-12.7393
▁60,00	-12.7394
quire	-12.7408
▁literat	-12.7411
llen	-12.742
▁hosti	-12.7425
oji	-12.7436
sembl	-12.7438
DO	-12.7439
food	-12.7466
dd	-12.7487
703	-12.7496
AMS	-12.7516
▁stops	-12.7518
isse	-12.752
356	-12.7533
307	-12.7533
▁bel	-12.7537
▁...............	-12.7539
nest	-12.7549
▁MAR	-12.7558
▁studi	-12.7567
974	-12.7578
law	-12.7579
ssential	-12.758
nner	-12.7588
uge	-12.7594
ndicator	-12.76
ders	-12.7602
pes	-12.7602
cat	-12.7604
utation	-12.7606
LAN	-12.7608
▁Lon	-12.7608
▁205	-12.761
gree	-12.7622
rkeley	-12.7637
zin	-12.764
▁substantiati	-12.764
▁youth	-12.7643
▁invo	-12.7649
▁Asi	-12.7651
peak	-12.7653
plex	-12.7655
direct	-12.7667
American	-12.7672
▁sourc	-12.7675
▁unpa	-12.7675
thematical	-12.7681
nds	-12.7685
eaders	-12.7688
nsur	-12.7701
535	-12.7706
oordinator	-12.771
▁ou	-12.7711
hunt	-12.7727
▁spr	-12.773
▁procedur	-12.7732
world	-12.7735
▁Revi	-12.7736
▁overco	-12.774
hop	-12.7749
int	-12.7765
▁pulle	-12.7766
emp	-12.7778
lig	-12.7781
number	-12.7783
ladi	-12.7794
Bull	-12.7798
▁Author	-12.7799
quent	-12.7808
tago	-12.781
wante	-12.781
▁CL	-12.7811
▁inn	-12.7812
lamist	-12.7818
▁believer	-12.7822
▁Sever	-12.7826
hren	-12.7827
▁Wis	-12.7827
▁devi	-12.7832
▁approximat	-12.7841
▁apolog	-12.7842
▁Stre	-12.7851
erto	-12.7856
IO	-12.7867
▁Oc	-12.7867
▁chlori	-12.7872
dlin	-12.7875
issue	-12.788
/09/	-12.7898
scap	-12.7921
interest	-12.7921
partment	-12.7923
nostic	-12.7937
▁Alma	-12.7938
niversa	-12.7943
astern	-12.7962
bia	-12.7963
LS	-12.7978
--	-12.7981
visit	-12.7981
please	-12.7983
NN	-12.7984
ongress	-12.8009
experience	-12.8025
tructur	-12.8034
▁gue	-12.8038
nnel	-12.8041
eful	-12.8042
▁Marin	-12.8048
pane	-12.805
▁281-	-12.8051
▁Whole	-12.8055
want	-12.8056
▁radia	-12.8058
vapor	-12.8061
▁sow	-12.8083
rain	-12.8084
▁160	-12.809
hole	-12.8091
▁wildl	-12.8092
spective	-12.8112
▁eno	-12.8112
!?	-12.8113
ndi	-12.8115
sition	-12.8117
???	-12.8121
ala	-12.8133
▁Addition	-12.8134
lder	-12.8144
mina	-12.8145
GA	-12.8148
factory	-12.8151
May	-12.8152
talk	-12.8154
▁BAC	-12.816
cover	-12.8162
▁appointe	-12.8162
forward	-12.8163
66-	-12.8163
▁!!!!!!!!!!!!!!!	-12.8175
sort	-12.8179
▁concentrati	-12.818
uart	-12.8181
38	-12.8182
election	-12.819
▁shi	-12.8192
SU	-12.8195
▁substantia	-12.8196
job	-12.8201
GT	-12.8201
media	-12.8205
▁swea	-12.821
▁margin	-12.8218
VIE	-12.8221
ender	-12.8223
▁mosqu	-12.8236
kab	-12.8237
etric	-12.8253
sw	-12.8256
=========	-12.8288
▁irr	-12.8293
.8	-12.8299
question	-12.8303
looding	-12.8306
operate	-12.8308
▁zo	-12.8315
llion	-12.832
telli	-12.8327
3/10/	-12.833
dian	-12.8331
restaurant	-12.8332
▁immig	-12.8353
meet	-12.8366
▁Daw	-12.8369
▁ult	-12.8371
ights	-12.8372
6-84	-12.8373
eleva	-12.8374
alal	-12.8377
found	-12.8386
range	-12.8387
dwood	-12.839
letter	-12.8391
▁Ly	-12.8396
▁888	-12.8396
▁wet	-12.8398
▁sou	-12.8399
06/	-12.8402
▁structur	-12.8406
▁Tim	-12.8415
piece	-12.8415
▁Fra	-12.8418
aint	-12.8422
▁TOO	-12.8422
couple	-12.8428
attack	-12.843
▁Rose	-12.8434
2004	-12.8436
process	-12.8438
UC	-12.8449
consumer	-12.8455
arted	-12.8455
big	-12.8461
▁prospe	-12.8462
health	-12.8469
lv	-12.847
▁6/	-12.8475
releases	-12.8482
▁Prob	-12.8483
political	-12.8485
may	-12.8488
cell	-12.8489
move	-12.8494
▁CHIL	-12.8496
pad	-12.8497
86	-12.8498
current	-12.8503
▁Gha	-12.8508
▁righ	-12.8508
Oct	-12.8515
colon	-12.8518
▁participa	-12.8519
▁env	-12.8523
▁stri	-12.8523
▁messag	-12.8525
iment	-12.8525
design	-12.8534
istance	-12.8541
worth	-12.8561
buy	-12.8561
irm	-12.8561
emocratic	-12.8567
urgeon	-12.8568
zos	-12.8569
base	-12.8572
got	-12.8573
▁transcend	-12.8573
dog	-12.8578
▁2.0	-12.8581
▁Patr	-12.8586
normal	-12.8591
▁Hop	-12.8599
Arab	-12.8607
rative	-12.8609
UGH	-12.8614
▁Excel	-12.8615
original	-12.8616
compose	-12.8617
▁Lun	-12.8621
safe	-12.8641
▁starter	-12.8644
cement	-12.8644
▁Starr	-12.8647
▁splitt	-12.8648
igator	-12.8649
play	-12.8653
accept	-12.8663
▁purcha	-12.8664
computer	-12.8665
▁Compa	-12.8672
FO	-12.8676
▁Invest	-12.8677
Indian	-12.8679
berta	-12.8684
knowledge	-12.8691
baker	-12.8692
ngua	-12.8693
motive	-12.8693
opinion	-12.8696
▁!!!!!!!!!!!!!!	-12.8697
acts	-12.8701
▁revol	-12.8703
confirm	-12.8704
▁cycl	-12.8705
sheri	-12.8706
popular	-12.8714
.99	-12.8715
▁gree	-12.8717
establish	-12.8719
type	-12.8719
▁emb	-12.8722
▁irre	-12.8722
1/30/	-12.8723
gger	-12.8723
People	-12.8723
bring	-12.8723
uction	-12.8734
arrest	-12.8734
JUN	-12.8737
represent	-12.8741
Core	-12.8744
ects	-12.8744
BRE	-12.8749
▁civ	-12.8751
counter	-12.876
OUS	-12.876
isc	-12.8762
resource	-12.8764
link	-12.8771
▁Inn	-12.8771
yl	-12.8771
grace	-12.8772
earl	-12.8773
Trip	-12.8776
esse	-12.8778
Security	-12.8778
apolog	-12.8779
image	-12.8783
specifi	-12.8785
repair	-12.8785
aby	-12.8789
biologist	-12.879
Trade	-12.8792
successful	-12.8795
Think	-12.8797
video	-12.8798
sexual	-12.8799
▁cosm	-12.88
ove	-12.8801
spoke	-12.8803
flash	-12.8804
erra	-12.8806
▁CB	-12.8807
hard	-12.8807
Love	-12.8807
▁embarras	-12.8809
Moslem	-12.8811
▁det	-12.8813
bulb	-12.8813
sleeve	-12.8816
▁155	-12.8817
active	-12.8818
ault	-12.8818
free	-12.8819
▁6/1	-12.8821
nake	-12.8823
photos	-12.8824
dramatic	-12.8825
equip	-12.8825
brid	-12.8826
google	-12.8829
priest	-12.8829
judgment	-12.8832
invest	-12.8833
define	-12.8834
▁Umm	-12.8838
▁Contra	-12.8839
violen	-12.8843
arishi	-12.8845
write	-12.8847
▁modes	-12.8849
Hi	-12.8849
▁06:1	-12.8849
white	-12.885
Fish	-12.885
disease	-12.8851
clear	-12.8855
:(	-12.8855
convenient	-12.8861
▁aspirin	-12.8869
Meeting	-12.887
tog	-12.8871
default	-12.8871
Free	-12.8873
social	-12.8873
▁Spea	-12.8875
sensitiv	-12.888
Christ	-12.8882
pact	-12.8884
appropriation	-12.8886
signature	-12.8886
▁Rou	-12.8891
cultur	-12.8892
EES	-12.8895
/18	-12.8896
▁battl	-12.8898
democratic	-12.89
signing	-12.8902
▁necess	-12.8904
reconcil	-12.8905
▁IC	-12.8905
interview	-12.8908
IGI	-12.8909
CRA	-12.891
model	-12.8916
ITE	-12.8916
label	-12.8917
▁!!!!!!!!!!!	-12.892
GM	-12.892
▁comprehen	-12.8922
▁3/	-12.8922
ecision	-12.8924
▁Guer	-12.8927
ago	-12.8929
examin	-12.893
effective	-12.8931
▁surg	-12.8936
resolve	-12.8939
PRO	-12.894
daughter	-12.8942
▁residenc	-12.8944
▁ang	-12.8945
fresh	-12.8945
vin	-12.8945
▁sku	-12.8947
stra	-12.8947
▁BUR	-12.895
regular	-12.895
moker	-12.8951
flight	-12.8953
546	-12.8953
inspir	-12.8956
30/200	-12.8957
camp	-12.8958
▁explod	-12.8959
▁eve	-12.896
sourc	-12.8962
plicit	-12.8973
▁profession	-12.8973
FF	-12.8974
▁EXCE	-12.8975
hearing	-12.8975
horses	-12.8977
2-20	-12.8981
▁bounc	-12.8981
▁05/3	-12.8984
affect	-12.8984
igg	-12.8984
▁98	-12.8995
22-	-12.9001
▁hospita	-12.9005
▁Spirit	-12.9008
religion	-12.9015
patient	-12.9018
idea	-12.9022
▁admi	-12.9027
breed	-12.903
valid	-12.9043
father	-12.9044
ketch	-12.9044
fabricat	-12.9045
priorit	-12.9046
TON	-12.9052
▁Cel	-12.9053
conservative	-12.9058
bran	-12.9059
aration	-12.9059
▁Interview	-12.9065
nance	-12.9066
convention	-12.9068
roat	-12.907
▁Gree	-12.9075
rupt	-12.9078
ortunate	-12.9086
▁Judg	-12.9087
locat	-12.9088
thograph	-12.9097
▁fulfil	-12.9104
▁transferab	-12.911
▁med	-12.9111
CTION	-12.9111
▁presid	-12.9113
▁aw	-12.9115
▁stem	-12.9115
sketch	-12.9115
organiz	-12.9121
HS	-12.9122
laborat	-12.9124
USH	-12.9124
orrespondent	-12.9128
▁...........	-12.9129
▁transit	-12.9131
▁Glo	-12.9132
opard	-12.9133
cle	-12.9134
ald	-12.9134
lash	-12.9136
▁brac	-12.9147
▁recepti	-12.9149
▁budge	-12.9152
content	-12.9158
haza	-12.9158
pl	-12.9163
7:	-12.9163
tree	-12.9164
farm	-12.9165
ficial	-12.917
cil	-12.917
employ	-12.918
ppreciate	-12.9182
ICA	-12.9184
gui	-12.9186
integr	-12.9186
▁kidnapp	-12.9187
▁surv	-12.9187
outs	-12.9188
-66	-12.9189
▁aggre	-12.9189
rrect	-12.919
course	-12.9193
▁eatin	-12.9197
estic	-12.9201
descript	-12.9201
BER	-12.9201
▁unpre	-12.9203
melt	-12.9205
croft	-12.9205
▁Creat	-12.9207
rep	-12.9207
adow	-12.9213
RE	-12.9215
▁acqu	-12.9215
▁blur	-12.9222
GD	-12.9222
restrain	-12.9223
▁overwhelm	-12.9223
▁adv	-12.9224
▁billi	-12.9225
▁accord	-12.9229
▁purport	-12.923
▁Italia	-12.9232
poster	-12.9233
ignment	-12.9234
ared	-12.9236
ocratic	-12.9236
workers	-12.9236
oka	-12.9237
HI	-12.9237
UM	-12.9238
RCH	-12.9239
rticle	-12.9241
272	-12.9243
LOG	-12.9249
novation	-12.9252
▁Securit	-12.9252
judic	-12.9252
▁Rea	-12.9253
▁retro	-12.9254
▁Brande	-12.9256
▁Krist	-12.9256
5-9	-12.9259
URN	-12.9259
▁JA	-12.9259
▁OB	-12.9261
quan	-12.9263
▁Flo	-12.9264
▁Custom	-12.9264
dvisor	-12.9266
forc	-12.927
nnounce	-12.927
worker	-12.9271
▁doubl	-12.9273
▁magne	-12.9275
teous	-12.9282
echnical	-12.9287
▁Manag	-12.929
ashington	-12.929
▁Prepare	-12.9292
mistak	-12.9296
▁obli	-12.9297
▁succin	-12.9297
▁aqua	-12.9299
▁transact	-12.9299
away	-12.9301
▁KI	-12.9302
rdinar	-12.9304
▁accommodat	-12.9305
nclude	-12.9305
atter	-12.9307
ignificant	-12.9308
▁Florid	-12.9308
uggestion	-12.9308
▁conservati	-12.9308
urgical	-12.931
▁condemn	-12.9313
chemist	-12.9315
enro	-12.9317
ufficient	-12.9317
▁Break	-12.9317
cientist	-12.9318
echnolog	-12.932
gnore	-12.932
nnovati	-12.9321
▁cho	-12.9322
▁moderat	-12.9322
ullivan	-12.9323
pasto	-12.9323
MM	-12.9324
ictator	-12.9325
larks	-12.9325
▁neocons	-12.9325
HN	-12.9326
raffic	-12.9326
arthquakes	-12.9326
▁situat	-12.9326
ntroduce	-12.9326
iploma	-12.9327
cula	-12.9327
OTHER	-12.9327
nterprise	-12.9328
mplicate	-12.9328
▁42,00	-12.9329
olocaust	-12.933
rganization	-12.933
▁vacat	-12.933
▁!!!!!!!!!!!!!	-12.9331
ISH	-12.9332
onstitutiona	-12.9333
ampaign	-12.9333
▁AMAZ	-12.9333
▁Boliv	-12.9333
nderstandabl	-12.9333
cipate	-12.9334
-294-4	-12.9334
▁intellect	-12.9334
1-9	-12.9334
▁volunt	-12.9334
EEEEEEEE	-12.9334
HHHHH	-12.9334
QUA	-12.9334
RRRRRR	-12.9334
aaaaaaaaaaaa	-12.9334
ooooo	-12.9334
RRRR	-12.9334
▁enviro	-12.9334
mplifi	-12.9334
funct	-12.9334
415-	-12.9335
4-3	-12.9335
▁281-51	-12.9335
ixel	-12.9335
via	-12.9335
ccupa	-12.9335
▁1-8	-12.9336
▁CONFI	-12.9336
ehicle	-12.9336
IDENT	-12.9336
▁PU	-12.9336
▁confere	-12.9336
▁insid	-12.9337
revious	-12.9337
posses	-12.9337
ilipin	-12.9337
ngineer	-12.9337
acobs	-12.9337
▁Austral	-12.9337
▁BOTH	-12.9337
▁COS	-12.9338
fortun	-12.9338
OUGH	-12.9338
3-16	-12.9338
▁Columb	-12.9338
▁smug	-12.9339
tributa	-12.9339
▁lobb	-12.9339
1-800	-12.9341
eizure	-12.9342
306	-12.9342
▁713-79	-12.9343
curity	-12.9344
0.9	-12.9345
UAL	-12.9345
ffirmati	-12.9345
ROU	-12.9346
-370	-12.9346
▁202.4	-12.9347
icrowave	-12.9347
▁Bagh	-12.9347
nstru	-12.9348
▁drama	-12.9348
▁Satisf	-12.9348
▁Secret	-12.9349
ENCE	-12.9349
853-	-12.9349
PAR	-12.9351
HOUSE	-12.9351
iliate	-12.9352
sale	-12.9352
abolis	-12.9352
2-3	-12.9353
▁.........	-12.9353
arakeet	-12.9353
▁subpar	-12.9353
▁==	-12.9353
edicure	-12.9354
OOR	-12.9354
3704	-12.9358
wiki	-12.9359
simplif	-12.9359
uspic	-12.936
urope	-12.936
HES	-12.936
▁discour	-12.9362
slau	-12.9362
campi	-12.9363
iquidweb	-12.9364
AGG	-12.9364
onomy	-12.9364
commerc	-12.9364
limber	-12.9367
cratic	-12.9367
circle	-12.9368
3:5	-12.9368
barra	-12.9368
▁GRO	-12.9371
▁embar	-12.9372
▁scienti	-12.9372
igious	-12.9372
Nama	-12.9372
sistent	-12.9373
▁dictat	-12.9373
utiful	-12.9373
fraud	-12.9374
571	-12.9374
▁delica	-12.9376
▁Bos	-12.9376
IENT	-12.9376
imp	-12.9377
sense	-12.9377
tant	-12.9378
-33	-12.9378
shoppe	-12.9379
press	-12.9381
walke	-12.9382
▁legit	-12.9382
▁acqui	-12.9383
▁advert	-12.9385
All	-12.9386
▁intuiti	-12.9387
▁potent	-12.9387
lit	-12.9388
vail	-12.9389
llifi	-12.9389
▁713-8	-12.9391
▁psychol	-12.9391
DLE	-12.9393
ollective	-12.9393
urnal	-12.9393
▁condi	-12.9393
NR	-12.9395
ubsequent	-12.9396
▁luc	-12.9398
nestl	-12.9398
lou	-12.9398
cipi	-12.94
nica	-12.94
acq	-12.94
piritual	-12.9402
▁Mob	-12.9403
MW	-12.9403
▁acce	-12.9407
GY	-12.9407
▁uncon	-12.9407
uffin	-12.9408
GR	-12.9408
umbers	-12.9411
709	-12.9412
▁esca	-12.9413
linked	-12.9414
ython	-12.9415
▁425-	-12.9419
omba	-12.9419
▁Operat	-12.9421
▁premi	-12.9423
▁16,	-12.9424
▁????	-12.9425
GG	-12.9427
vacu	-12.9429
IAL	-12.9429
▁Intel	-12.943
831	-12.9432
assies	-12.9432
▁Esp	-12.9436
▁bath	-12.9436
▁admin	-12.9437
▁maj	-12.9437
join	-12.944
sign	-12.9442
gr	-12.9443
937	-12.945
etermine	-12.9451
▁descripti	-12.9454
▁Fis	-12.9456
flick	-12.9457
UI	-12.9458
▁harbo	-12.9459
725	-12.9462
▁prepa	-12.9464
▁stir	-12.9469
▁Calif	-12.9469
▁Beau	-12.9472
tinent	-12.9472
ASH	-12.9473
lings	-12.9474
estroy	-12.9474
__	-12.9475
▁DON	-12.9475
▁aggressi	-12.9476
▁weigh	-12.9478
ATIN	-12.9481
DH	-12.9485
imbu	-12.9489
pric	-12.9489
ambo	-12.949
rrito	-12.9492
▁mater	-12.9492
ordinar	-12.9495
11/09/	-12.9495
rompt	-12.9497
imulati	-12.9498
aria	-12.95
.1	-12.9501
earth	-12.9504
TAL	-12.9505
▁accura	-12.9507
nivers	-12.9508
/24	-12.9508
▁sacri	-12.9508
▁shru	-12.9509
fession	-12.951
▁appetiz	-12.9511
PROV	-12.9511
▁Guerr	-12.9511
▁kil	-12.9514
RDO	-12.9518
▁kings	-12.952
▁sigh	-12.952
-79	-12.9523
ovi	-12.9525
lox	-12.9526
carr	-12.9529
assess	-12.9529
ugu	-12.953
nant	-12.9533
poo	-12.9536
▁incred	-12.9539
spina	-12.954
commended	-12.9541
▁consume	-12.9541
stresse	-12.9549
▁UG	-12.955
▁calc	-12.9552
▁homo	-12.9552
INA	-12.9553
▁applica	-12.9557
▁Rich	-12.9559
dispute	-12.9561
▁........	-12.9564
assign	-12.9565
▁gui	-12.9567
▁PE	-12.957
ENTI	-12.9571
danger	-12.9571
▁tech	-12.9574
▁Alex	-12.9574
▁brothe	-12.9575
▁Poo	-12.9577
ahh	-12.958
▁prope	-12.9581
sque	-12.9583
ich	-12.9584
stop	-12.9585
stick	-12.9585
estimate	-12.9586
▁Yas	-12.9594
minds	-12.9595
attoo	-12.9596
Pad	-12.9599
▁allege	-12.9602
ERV	-12.9603
▁cookin	-12.9605
▁scree	-12.9606
▁cuc	-12.9606
ION	-12.9611
01.	-12.9612
▁coop	-12.9613
▁Lor	-12.9617
kful	-12.9618
Of	-12.9623
▁pow	-12.9625
ctor	-12.9626
ycle	-12.9629
▁Cast	-12.963
SIS	-12.9631
illi	-12.9639
FOR	-12.9642
▁Kill	-12.9647
oldier	-12.9649
860	-12.9654
05/	-12.9656
leep	-12.9656
▁AAA	-12.9657
vies	-12.9657
ullfight	-12.9658
▁succ	-12.966
▁initia	-12.9661
uence	-12.9664
culate	-12.9665
ALI	-12.9667
treat	-12.9668
angi	-12.9668
FE	-12.9671
cred	-12.9672
▁viol	-12.9674
▁Zi	-12.9681
stay	-12.9698
omputer	-12.97
ategor	-12.9701
cott	-12.9703
yaho	-12.9707
▁dev	-12.9708
▁clin	-12.9714
▁decisi	-12.9715
trateg	-12.9716
/16	-12.972
ppose	-12.9721
▁Founde	-12.9727
pment	-12.9728
clo	-12.9729
anker	-12.9729
eopl	-12.9729
onist	-12.973
OLE	-12.973
▁transp	-12.9736
▁pale	-12.9737
▁herd	-12.9739
pparent	-12.9739
mag	-12.9741
rgy	-12.9743
12-20	-12.9743
RING	-12.9743
pedic	-12.9748
▁Wen	-12.975
▁sol	-12.9752
fashion	-12.9754
qual	-12.9754
bow	-12.9756
▁familia	-12.9761
Feb	-12.9762
olida	-12.977
eady	-12.977
rec	-12.9775
rior	-12.9776
amine	-12.9777
46-5	-12.9782
imilar	-12.9782
▁12:0	-12.9784
▁accessi	-12.9787
▁Aug	-12.9792
bp	-12.9801
▁sq	-12.9802
▁detecti	-12.9804
eteriorat	-12.9813
!?!	-12.9814
ollo	-12.9815
allery	-12.9818
ckel	-12.9818
shari	-12.9818
egislat	-12.9819
NX	-12.9824
etti	-12.9824
habit	-12.9826
223	-12.9827
avoid	-12.9831
▁comma	-12.9831
jo	-12.9834
▁unspe	-12.9841
pd	-12.9842
error	-12.9843
-200	-12.9844
▁Stud	-12.9851
wind	-12.9851
,5	-12.9854
▁Reco	-12.9855
▁spel	-12.9855
Sad	-12.9857
coll	-12.9863
akabl	-12.9864
▁Mala	-12.9867
▁Gul	-12.9872
▁yel	-12.9874
▁complic	-12.9874
plane	-12.9876
▁Amo	-12.9877
mel	-12.988
2.4	-12.988
▁Kat	-12.9882
mulate	-12.9884
Gr	-12.9887
▁Lia	-12.9887
ypical	-12.989
cture	-12.9891
Ben	-12.9894
ket	-12.9896
STE	-12.99
▁Emp	-12.9901
rade	-12.9913
▁condu	-12.9915
▁Fern	-12.9916
olly	-12.9918
orami	-12.992
select	-12.9924
▁Easter	-12.9924
▁rip	-12.9928
5.6	-12.9932
entative	-12.9939
▁Spe	-12.9951
rrup	-12.9955
cor	-12.9958
▁kar	-12.9961
▁Corre	-12.9965
▁Meth	-12.9969
▁thick	-12.997
▁200,	-12.9971
separa	-12.9974
rocess	-12.9974
▁specifi	-12.9976
IB	-12.998
▁siz	-12.9981
writing	-12.999
▁convi	-12.9996
▁evol	-12.9997
ebbe	-13.0003
abl	-13.0006
▁cro	-13.0011
▁obt	-13.0016
561	-13.0019
▁86	-13.0021
▁launche	-13.0028
bid	-13.0028
eceive	-13.0031
1/1	-13.0035
nvestigat	-13.0037
affa	-13.0038
Tra	-13.0038
Fra	-13.004
avo	-13.004
▁mil	-13.0043
▁Sch	-13.0046
▁insta	-13.0053
▁reside	-13.0054
443	-13.0056
▁Pete	-13.0061
apis	-13.0084
▁shel	-13.0105
▁unto	-13.0106
▁appar	-13.011
appointed	-13.011
▁DU	-13.0122
▁Glob	-13.0122
lesson	-13.0125
eration	-13.013
ength	-13.0142
2.7	-13.0145
wik	-13.0145
shop	-13.0149
▁orig	-13.0155
▁magni	-13.0162
▁Patri	-13.0166
▁Stro	-13.0167
▁mist	-13.0173
▁poll	-13.0173
undi	-13.0177
reliab	-13.0177
▁Kap	-13.0182
▁notabl	-13.0182
▁intru	-13.0183
▁vo	-13.019
938	-13.0193
▁adver	-13.0203
roke	-13.0213
nail	-13.0214
▁repo	-13.0215
asses	-13.0219
RGE	-13.023
▁Prod	-13.0232
ronica	-13.0239
▁wai	-13.0241
LATE	-13.0245
sen	-13.0247
tick	-13.0248
▁Richards	-13.0253
paye	-13.0253
▁memb	-13.0255
.0	-13.0256
▁Shak	-13.026
▁capab	-13.0261
lu	-13.027
▁boo	-13.0289
omic	-13.029
cq	-13.0297
reserve	-13.0301
5:	-13.0308
Cal	-13.0308
▁Leo	-13.031
▁Brin	-13.0311
fab	-13.0313
▁rece	-13.0314
>=	-13.0318
lanet	-13.032
▁pul	-13.0323
app	-13.033
ommo	-13.033
▁reap	-13.0336
tandard	-13.0339
mba	-13.034
▁tab	-13.0342
duction	-13.0342
tress	-13.0345
annin	-13.0347
▁Trop	-13.0356
▁Dig	-13.0362
▁Braz	-13.0363
HAN	-13.0364
VIC	-13.0377
eq	-13.0382
post	-13.0385
REC	-13.0393
fide	-13.0401
▁gut	-13.0401
▁proc	-13.0403
▁mag	-13.0403
ced	-13.041
In	-13.0411
707	-13.0413
tudio	-13.0418
udiciary	-13.0419
Pil	-13.0421
▁Ber	-13.0422
opti	-13.0423
som	-13.0424
bord	-13.0425
Jan	-13.043
boy	-13.0431
▁fili	-13.0438
lato	-13.0454
▁Impl	-13.0454
10-	-13.0457
wick	-13.0459
▁Enr	-13.0462
freez	-13.0472
▁Thou	-13.0478
llery	-13.0481
exist	-13.0482
▁downsi	-13.0482
IMP	-13.0489
thful	-13.0492
▁democrat	-13.0497
LOW	-13.0498
612	-13.0503
teful	-13.0509
▁Mel	-13.0524
enda	-13.0524
sistant	-13.0529
honest	-13.0544
onfidential	-13.0547
mus	-13.0556
kend	-13.0568
nsu	-13.0569
▁snow	-13.057
▁Fer	-13.0578
▁fuse	-13.0578
ath	-13.0581
eginn	-13.0585
acqui	-13.0586
ifi	-13.0587
▁organ	-13.0587
ndy	-13.0602
league	-13.0603
▁heartbr	-13.0609
Ru	-13.0612
BL	-13.0621
▁jer	-13.0657
eff	-13.066
dentity	-13.067
ligious	-13.0676
1-51	-13.0676
tarte	-13.0678
hari	-13.0678
propri	-13.0685
02-	-13.0686
▁Dy	-13.0686
tine	-13.0689
vour	-13.0691
▁Russ	-13.0691
YI	-13.0699
▁cau	-13.0705
6.3	-13.0705
tifie	-13.071
schedule	-13.071
▁nic	-13.0716
▁rumo	-13.0718
▁smil	-13.0719
▁Cau	-13.0726
▁pea	-13.0738
!.	-13.0745
▁contin	-13.0748
mpl	-13.077
cles	-13.0772
Am	-13.0772
ebook	-13.0774
Tw	-13.0779
affi	-13.0788
▁dip	-13.0792
ispute	-13.0792
▁minu	-13.0797
Fi	-13.0798
▁relation	-13.0805
▁06/0	-13.0812
lous	-13.0831
▁SE	-13.0842
▁handc	-13.0845
iss	-13.0847
inguis	-13.0847
cas	-13.0852
▁frie	-13.0854
etary	-13.086
ayee	-13.0862
▁wit	-13.0863
ayu	-13.087
▁Sag	-13.0871
nter	-13.0876
anza	-13.0877
▁16.	-13.0888
▁Equ	-13.0898
porate	-13.09
erture	-13.0915
Ak	-13.0939
pri	-13.0942
hamm	-13.0944
irth	-13.0945
agree	-13.0953
phan	-13.0963
/8	-13.0963
jp	-13.0981
18	-13.0984
zers	-13.0986
.87	-13.0991
xed	-13.0999
fford	-13.1016
ija	-13.1021
▁bloo	-13.1025
ya	-13.103
▁Mich	-13.1037
▁moto	-13.1044
▁mili	-13.1048
yah	-13.1051
▁cul	-13.1051
icke	-13.1054
▁impressi	-13.1054
ssem	-13.1055
▁Hom	-13.106
OD	-13.1065
lam	-13.1074
647	-13.1075
oz	-13.1088
SN	-13.109
▁03/	-13.1113
mil	-13.1114
▁Rep	-13.1124
Tk	-13.1133
istorian	-13.1135
roug	-13.1159
▁Lar	-13.1162
▁Pot	-13.1175
ddress	-13.118
EEM	-13.1195
TRA	-13.1197
rem	-13.1198
TO	-13.1204
ologi	-13.1226
pprox	-13.1233
wei	-13.1256
▁mac	-13.126
▁contra	-13.1267
▁therapi	-13.127
518	-13.1274
omplex	-13.1277
ORR	-13.1281
ARA	-13.1298
writ	-13.13
ulation	-13.1302
/03	-13.1303
593	-13.1311
▁NI	-13.1313
TI	-13.1318
hib	-13.1331
▁shou	-13.1339
▁tick	-13.1347
▁tale	-13.1359
▁Joh	-13.1373
▁Aw	-13.1418
eth	-13.1421
▁quest	-13.1422
▁Dep	-13.1445
empera	-13.1446
▁Smart	-13.1448
▁manif	-13.1463
rospect	-13.1465
apply	-13.1468
inta	-13.1476
RS	-13.148
▁REA	-13.1481
llo	-13.1491
▁Eu	-13.1492
▁summari	-13.1511
▁chal	-13.1523
EF	-13.1531
ondition	-13.1537
▁CU	-13.1547
▁Tab	-13.156
▁Cove	-13.1566
ssil	-13.1567
▁alleg	-13.1567
tude	-13.1575
mu	-13.1576
arol	-13.1587
▁pin	-13.1595
lery	-13.1611
ison	-13.1624
▁forgo	-13.1642
gate	-13.1643
▁sens	-13.1666
7-	-13.1667
lion	-13.1668
ssi	-13.167
nks	-13.1675
anda	-13.168
▁SC	-13.1685
tpu	-13.1686
path	-13.169
RCO	-13.1746
solution	-13.1763
undr	-13.1781
num	-13.1787
vid	-13.1807
:48	-13.1816
dder	-13.1816
nowle	-13.1826
courage	-13.1838
▁Yel	-13.1855
fication	-13.1874
lette	-13.188
artial	-13.188
▁eva	-13.1894
▁7.	-13.1894
vig	-13.1907
chief	-13.1914
▁vali	-13.1916
rad	-13.1926
▁hos	-13.1928
▁slid	-13.1929
▁Asse	-13.1951
▁Host	-13.197
ivit	-13.1982
▁Loca	-13.1997
oglenut	-13.1997
Log	-13.2
▁LL	-13.2003
seas	-13.2005
▁et	-13.201
uga	-13.2024
usc	-13.203
nice	-13.2042
att	-13.2045
▁Eat	-13.2053
llows	-13.2057
ARK	-13.2057
REN	-13.2065
▁Kin	-13.2066
▁Pam	-13.2076
713	-13.208
DIS	-13.2156
them	-13.2161
▁prefere	-13.2176
lux	-13.2189
▁adde	-13.2191
ratio	-13.2206
trip	-13.2215
▁713/8	-13.2223
score	-13.2223
▁Cate	-13.2261
▁Bloo	-13.2271
▁myster	-13.2299
▁Shei	-13.231
ublin	-13.2311
enetra	-13.2317
tha	-13.2322
ils	-13.2336
ALS	-13.2336
rat	-13.2338
xact	-13.2349
▁lover	-13.2351
arty	-13.2373
▁9.	-13.2378
115	-13.2385
▁Colla	-13.2388
paragraph	-13.2406
▁dominan	-13.2412
▁sque	-13.2424
1-	-13.2431
nded	-13.2434
▁unp	-13.2441
gel	-13.2441
articular	-13.2442
▁Num	-13.2444
ij	-13.2452
abb	-13.2452
nimals	-13.2453
obl	-13.2456
nity	-13.2458
▁fle	-13.2482
aga	-13.2496
/3	-13.2503
ithi	-13.2508
staff	-13.2543
icker	-13.2557
coff	-13.2561
tan	-13.2566
eve	-13.2568
---	-13.257
▁grin	-13.2573
▁VO	-13.2586
vera	-13.2595
itation	-13.2616
▁Laure	-13.2616
▁handi	-13.2617
UNI	-13.2624
▁butter	-13.2627
IL	-13.2657
uise	-13.2665
▁Europ	-13.2682
itis	-13.2699
▁hea	-13.2748
▁conve	-13.2748
iracle	-13.2767
dress	-13.2767
pines	-13.2773
abs	-13.2789
▁purp	-13.2792
197	-13.2794
ames	-13.2798
▁09/	-13.283
gow	-13.2834
▁provi	-13.284
▁regulat	-13.284
▁talki	-13.287
ips	-13.2897
▁additi	-13.2899
rena	-13.2907
▁Cres	-13.2932
porter	-13.2934
ssar	-13.2942
▁bun	-13.2946
PE	-13.2948
meal	-13.2967
mite	-13.2971
oc	-13.2976
▁insec	-13.2993
bali	-13.3022
inkin	-13.3028
▁Bur	-13.3034
elt	-13.3038
ief	-13.3042
respective	-13.3048
▁Mand	-13.3053
ounce	-13.3059
▁INT	-13.3073
▁movi	-13.3074
▁VE	-13.3087
rik	-13.3092
lls	-13.3097
orti	-13.31
entle	-13.3109
▁som	-13.3112
460	-13.3122
▁Ev	-13.3122
cute	-13.3124
aig	-13.3142
hance	-13.3149
UN	-13.3151
▁Walt	-13.3162
217	-13.3189
tiz	-13.3205
lite	-13.3209
▁Ques	-13.321
▁Kenn	-13.3255
kins	-13.3273
habi	-13.3288
▁dura	-13.3297
▁Pub	-13.3304
▁Nep	-13.3305
ugal	-13.3308
▁stren	-13.331
▁int	-13.333
cap	-13.3335
igning	-13.3341
▁lop	-13.3348
381	-13.3349
▁Expe	-13.3362
▁Leas	-13.3382
▁boi	-13.3394
tograph	-13.3395
▁scratche	-13.3403
elo	-13.341
ridge	-13.3411
olve	-13.3415
▁Rig	-13.342
oni	-13.343
tretch	-13.3455
▁arti	-13.3482
gno	-13.3508
droppe	-13.3528
▁printe	-13.3549
▁Lin	-13.3557
▁HO	-13.3567
▁Hear	-13.3591
▁abst	-13.3596
veg	-13.36
utto	-13.3609
mily	-13.3614
▁dele	-13.3629
bu	-13.3632
▁realit	-13.3636
▁hoa	-13.3651
lant	-13.3657
sequent	-13.366
rack	-13.3662
rot	-13.3681
bitt	-13.3686
tock	-13.3714
▁crosse	-13.3722
▁Vie	-13.3734
▁indicati	-13.3738
kh	-13.3765
show	-13.3765
126	-13.3784
cam	-13.3826
▁SD	-13.3827
▁modi	-13.3854
creati	-13.3869
spen	-13.3877
▁hisse	-13.3878
EC	-13.388
lov	-13.3929
▁containe	-13.3957
En	-13.3958
styl	-13.3966
▁cos	-13.3976
▁appa	-13.3994
av	-13.3996
▁revo	-13.4014
lay	-13.4021
▁princ	-13.4033
▁choi	-13.4034
urre	-13.4044
ocal	-13.4055
rel	-13.4077
tato	-13.4079
requent	-13.4083
esults	-13.4085
nna	-13.4089
cted	-13.4104
▁propo	-13.4106
▁rega	-13.4106
2-0	-13.4113
mex	-13.4115
po	-13.4142
▁Nu	-13.4148
deal	-13.4155
tigation	-13.4169
▁rabb	-13.4172
hed	-13.4196
▁forma	-13.42
▁OP	-13.421
▁Bot	-13.4212
fo	-13.4226
umm	-13.4226
uss	-13.425
ky	-13.4284
▁ANT	-13.4285
284	-13.4302
▁ai	-13.4304
▁trac	-13.4336
▁benefic	-13.4338
mper	-13.4346
itive	-13.4366
wift	-13.4367
will	-13.4367
ssue	-13.4387
▁Sur	-13.4388
mpression	-13.439
▁toxi	-13.4406
arclay	-13.4454
LO	-13.4462
▁08/1	-13.4465
sbor	-13.4465
▁soo	-13.4469
430	-13.448
omposition	-13.4486
ntist	-13.4486
4/	-13.4512
dition	-13.4525
▁Patt	-13.4527
->	-13.4548
dential	-13.455
tions	-13.4558
▁sin	-13.4576
imple	-13.4578
▁comf	-13.4586
sle	-13.4587
STER	-13.4589
?????	-13.4598
▁umb	-13.4622
dard	-13.4632
mont	-13.4639
ains	-13.4645
_0	-13.4654
ye	-13.4665
cum	-13.4687
were	-13.4703
glo	-13.4703
alka	-13.4713
pez	-13.4718
nor	-13.473
oration	-13.4735
175	-13.4736
▁conte	-13.4749
▁Ani	-13.477
▁clu	-13.4807
wit	-13.4818
dust	-13.4824
ien	-13.4828
▁wing	-13.4863
▁Foo	-13.4893
arm	-13.4899
nj	-13.4916
topp	-13.4929
▁bil	-13.4934
▁brig	-13.4947
thos	-13.4965
▁Seat	-13.4973
gon	-13.4998
▁cas	-13.5009
▁appea	-13.5011
▁Cas	-13.5011
iv	-13.5017
orea	-13.5034
▁Pol	-13.5048
330	-13.5049
tell	-13.5055
mpath	-13.507
▁broa	-13.5084
rsia	-13.509
EV	-13.5097
416	-13.5127
▁Gia	-13.513
2005	-13.5147
rent	-13.5147
ported	-13.5149
nick	-13.5151
rees	-13.5151
imm	-13.5153
rdles	-13.5157
▁Tall	-13.516
rence	-13.5162
sim	-13.5163
▁lan	-13.5167
/14	-13.5179
▁Af	-13.5193
ws	-13.5206
rgill	-13.5207
atural	-13.5229
than	-13.5231
098	-13.5236
Ski	-13.5257
igger	-13.5262
▁Sin	-13.5264
aus	-13.5272
▁anyt	-13.5289
▁dealers	-13.5305
▁Sil	-13.5314
▁wro	-13.5327
▁71	-13.5327
EI	-13.5331
637	-13.534
va	-13.5362
▁Len	-13.539
aib	-13.5391
5,00	-13.5403
▁rom	-13.5405
▁astr	-13.5416
amu	-13.5431
____________	-13.546
eeks	-13.5477
▁promi	-13.5491
plica	-13.5492
▁inf	-13.5504
▁oppos	-13.5507
▁somet	-13.5524
allen	-13.553
elli	-13.5533
YTH	-13.5571
END	-13.5597
▁teache	-13.5635
Cat	-13.5653
▁Cont	-13.5671
▁sha	-13.5678
mad	-13.5688
equ	-13.57
REED	-13.5716
fest	-13.572
radition	-13.5735
22,	-13.574
inera	-13.5746
▁Swit	-13.577
/20	-13.579
▁roma	-13.5791
-7	-13.5792
▁funn	-13.5794
event	-13.5794
lang	-13.5806
▁12/	-13.5813
aza	-13.5818
▁spra	-13.5845
▁Gus	-13.5855
▁134	-13.5868
oss	-13.5872
assin	-13.5883
▁tract	-13.5899
620	-13.5904
▁praye	-13.5917
gin	-13.5922
rian	-13.5924
eur	-13.5929
260	-13.593
rey	-13.5961
mann	-13.5964
gers	-13.597
entral	-13.5971
rows	-13.6008
▁Pala	-13.6019
versa	-13.6033
▁prese	-13.6035
wan	-13.6062
ossibl	-13.6074
▁killi	-13.6079
240	-13.6079
stall	-13.6092
rim	-13.6094
eco	-13.6109
ont	-13.611
gen	-13.6123
/04/	-13.6138
ila	-13.6149
▁ci	-13.6153
beer	-13.6163
▁spon	-13.6175
▁bod	-13.6175
elon	-13.6188
EAR	-13.6191
Ed	-13.6193
syn	-13.6239
▁CH	-13.6249
onclusion	-13.6249
illing	-13.6273
▁Imag	-13.6274
ices	-13.6285
geria	-13.6291
erv	-13.6311
▁preten	-13.6326
▁Sy	-13.634
blo	-13.6343
___________	-13.6353
▁arra	-13.6359
rest	-13.636
FIT	-13.6362
tag	-13.6374
▁TE	-13.6377
▁mart	-13.6392
▁windi	-13.6399
owa	-13.64
kistan	-13.6418
Jul	-13.6418
▁91	-13.6435
iona	-13.644
▁ove	-13.645
icken	-13.6453
▁Jon	-13.6458
▁Furni	-13.647
attle	-13.6485
sas	-13.6487
ownload	-13.6501
▁ours	-13.6522
considerat	-13.6547
late	-13.6569
orke	-13.6571
uble	-13.6579
nev	-13.6586
ourse	-13.6593
dra	-13.6596
SP	-13.6639
des	-13.6653
days	-13.6673
oison	-13.6712
rge	-13.6736
▁Rema	-13.6758
itar	-13.6763
▁corporat	-13.6775
748	-13.6831
▁Sect	-13.6833
/7/	-13.684
sport	-13.6876
nference	-13.6881
ope	-13.6891
ntal	-13.6933
wash	-13.6959
otte	-13.6975
3-5	-13.6976
iti	-13.7
IRE	-13.7007
indu	-13.7009
▁inco	-13.7018
▁mono	-13.707
sis	-13.7115
▁elsew	-13.712
onica	-13.7146
ranger	-13.7163
▁citi	-13.7215
idin	-13.7229
▁terri	-13.7229
iversit	-13.7256
arget	-13.726
6/200	-13.73
▁intim	-13.7312
▁locke	-13.7387
ISS	-13.7387
▁dy	-13.7399
rse	-13.7404
/11	-13.7407
ptions	-13.741
▁negotiati	-13.7432
▁Phill	-13.7435
mise	-13.7465
mmers	-13.7492
nforc	-13.7522
mple	-13.7567
▁ano	-13.7571
▁equa	-13.7576
▁----	-13.7606
▁stronge	-13.7611
espective	-13.7632
▁HAT	-13.7647
hit	-13.7655
eturn	-13.7683
olar	-13.7687
▁Lad	-13.77
hens	-13.774
/03/	-13.7741
▁scan	-13.7784
134	-13.7801
*************	-13.7866
▁picke	-13.7876
**********	-13.793
kka	-13.7932
llet	-13.7934
▁sli	-13.7936
▁Gat	-13.7937
gem	-13.7957
▁Goo	-13.7961
nton	-13.7976
escribe	-13.7997
harge	-13.8017
neg	-13.802
▁Cham	-13.8085
slo	-13.8087
▁Ir	-13.809
tze	-13.8108
▁Din	-13.8127
alist	-13.8129
▁Bec	-13.8144
ilk	-13.8145
negotiati	-13.8155
oday	-13.8163
▁minds	-13.8185
wal	-13.8187
▁veri	-13.8199
▁dra	-13.8215
▁admitt	-13.8264
ihad	-13.8305
fight	-13.8391
scent	-13.8392
osa	-13.8407
ifie	-13.8414
▁alo	-13.8414
▁unst	-13.8423
arc	-13.8433
uter	-13.8439
ult	-13.8443
rni	-13.8476
▁walki	-13.8495
▁Engl	-13.8536
▁clea	-13.8538
cruit	-13.8547
▁ul	-13.8593
▁Gre	-13.8606
05-	-13.8626
irl	-13.8644
every	-13.8647
▁tim	-13.8703
epair	-13.8715
▁Iro	-13.8725
rog	-13.8728
▁circula	-13.8736
merg	-13.8741
roduction	-13.8745
▁liste	-13.8748
▁Equa	-13.8785
▁nois	-13.8786
▁Hos	-13.8795
002	-13.8795
perform	-13.8801
lding	-13.8816
▁sui	-13.8831
▁TC	-13.8836
rsey	-13.8842
equest	-13.8904
rb	-13.8917
NON	-13.8977
sco	-13.8985
dul	-13.9014
actu	-13.9063
ellation	-13.9076
▁increas	-13.9078
▁Rece	-13.9112
303	-13.9147
▁bm	-13.9159
ventu	-13.9173
itizens	-13.9178
ragg	-13.9184
noo	-13.9185
▁exce	-13.9186
ges	-13.9187
▁mou	-13.9204
▁responsi	-13.9231
▁OM	-13.9234
lut	-13.9236
▁angl	-13.928
▁veh	-13.9288
ewspaper	-13.9306
orton	-13.9338
rous	-13.9362
ndra	-13.9362
ORA	-13.9366
▁existe	-13.9371
▁waite	-13.9384
▁Mea	-13.9386
▁ET	-13.9398
nage	-13.9457
▁02:3	-13.9477
du	-13.9517
gig	-13.9522
tile	-13.9526
▁canad	-13.957
domin	-13.9604
aji	-13.9621
enti	-13.9654
sef	-13.9668
▁Deni	-13.9758
str	-13.9781
divi	-13.9784
9:5	-13.9799
▁Gene	-13.9832
▁seas	-13.9916
pens	-13.9944
nni	-13.9952
dud	-13.9988
ntra	-14.0004
full	-14.0065
▁Unl	-14.0154
arra	-14.0166
▁lun	-14.0172
▁younge	-14.0191
player	-14.0237
Re	-14.025
sol	-14.0251
ani	-14.0288
▁Ab	-14.0293
▁Ado	-14.0325
awe	-14.0377
ubs	-14.0379
reate	-14.0386
mera	-14.0453
regulation	-14.0469
▁Attac	-14.0485
▁memori	-14.051
▁cod	-14.0535
81-	-14.0541
hut	-14.0559
clar	-14.056
▁unif	-14.059
uni	-14.0622
▁forme	-14.0624
▁polluti	-14.0641
▁Ron	-14.0667
108	-14.0702
▁qua	-14.0741
lands	-14.0749
▁2.	-14.0792
usion	-14.0817
▁followe	-14.0827
▁banne	-14.0863
mone	-14.0867
armer	-14.0902
ening	-14.0924
cid	-14.0984
eria	-14.0992
▁conv	-14.1023
▁proba	-14.1052
boa	-14.1054
uild	-14.1064
approv	-14.1065
pawn	-14.1078
sur	-14.1133
nish	-14.1147
ov	-14.1161
▁ris	-14.1177
▁Prov	-14.1178
ealth	-14.1225
▁interv	-14.1227
uest	-14.1268
▁civi	-14.1274
▁missi	-14.1276
ountry	-14.1295
▁metr	-14.133
▁consiste	-14.1383
bots	-14.1427
▁===	-14.1435
▁DE	-14.1508
curre	-14.1537
has	-14.1588
mit	-14.1592
oga	-14.1618
▁wha	-14.1623
eal	-14.1648
its	-14.1662
aven	-14.1688
ius	-14.1733
ppropriations	-14.1768
AME	-14.185
▁truste	-14.1881
ourna	-14.1888
▁stum	-14.1894
▁incl	-14.1907
alk	-14.1931
▁periodi	-14.2015
fles	-14.2046
rman	-14.2065
ailor	-14.2077
aged	-14.2153
leva	-14.2163
▁sate	-14.2173
201	-14.2288
▁preventi	-14.2315
▁Chr	-14.2327
khouse	-14.2341
gest	-14.2355
▁Cla	-14.2369
▁hol	-14.2373
bala	-14.2421
pul	-14.2425
▁balle	-14.2428
cons	-14.2441
▁MEA	-14.2442
▁Ng	-14.2505
asing	-14.2523
centage	-14.2548
ister	-14.2656
▁Holo	-14.2672
inc	-14.2701
ission	-14.2724
rchant	-14.2758
▁circulat	-14.2759
▁Ce	-14.2768
ille	-14.277
tage	-14.2809
0/20	-14.2838
▁respons	-14.2926
arges	-14.2942
▁orde	-14.2969
hine	-14.2985
▁homel	-14.2988
▁authori	-14.2998
ellen	-14.3015
tural	-14.3027
:57	-14.3045
otto	-14.3066
nne	-14.3097
▁Contr	-14.3107
;	-14.3129
lotter	-14.3129
