<unk>	0
<s>	0
</s>	0
s	-3.36192
▁.	-3.44073
▁the	-3.44807
▁	-3.46342
▁,	-3.71737
▁to	-3.92478
▁and	-4.09527
▁a	-4.15401
ing	-4.26141
▁I	-4.29358
t	-4.3221
ed	-4.39233
y	-4.40066
▁of	-4.42364
▁in	-4.54397
▁be	-4.79942
▁is	-4.85752
▁you	-4.91793
e	-4.95238
d	-4.98023
ly	-5.02938
▁for	-5.06667
▁'	-5.06707
▁tha	-5.10856
▁it	-5.17562
▁-	-5.3092
▁have	-5.35727
▁was	-5.4006
▁on	-5.40439
▁with	-5.41076
▁The	-5.452
.	-5.48088
n	-5.59079
▁do	-5.59856
▁"	-5.60149
▁are	-5.60522
▁n	-5.61766
▁not	-5.61982
ould	-5.6994
▁)	-5.76609
▁will	-5.77116
▁?	-5.80497
▁(	-5.81151
▁w	-5.89817
▁my	-5.90736
this	-5.9087
'	-5.9169
▁as	-5.94252
▁me	-5.94448
▁he	-5.96754
▁or	-5.96795
▁at	-5.97312
▁we	-6.01417
▁your	-6.02703
▁:	-6.03483
▁an	-6.10694
from	-6.10924
▁can	-6.1394
▁but	-6.17535
▁go	-6.22154
▁by	-6.22197
er	-6.22399
en	-6.22561
▁!	-6.22857
▁A	-6.25475
▁some	-6.28169
m	-6.29773
at	-6.33236
▁has	-6.33799
▁so	-6.33897
▁m	-6.34823
▁like	-6.35013
▁out	-6.35581
▁any	-6.36092
if	-6.3661
▁all	-6.39062
▁get	-6.3949
f	-6.41898
had	-6.42198
es	-6.43092
▁there	-6.4405
al	-6.44348
▁up	-6.45724
▁one	-6.46046
▁know	-6.48848
about	-6.50435
▁P	-6.51027
▁c	-6.52481
▁time	-6.52591
▁his	-6.59291
▁what	-6.62805
▁just	-6.63652
r	-6.64452
▁S	-6.66188
▁th	-6.66581
▁We	-6.6799
a	-6.68151
▁their	-6.68408
▁were	-6.68504
▁work	-6.68603
▁no	-6.70038
▁them	-6.72355
▁It	-6.73764
which	-6.74999
▁want	-6.75397
▁our	-6.76914
very	-6.77376
▁him	-6.77621
▁when	-6.7802
one	-6.7868
▁who	-6.79397
▁us	-6.79803
/	-6.80426
▁C	-6.81028
thing	-6.81034
▁other	-6.81978
▁call	-6.82621
le	-6.83491
▁i	-6.83544
ve	-6.83557
st	-6.84124
ever	-6.85114
▁more	-6.85946
▁need	-6.86186
-	-6.88894
▁also	-6.90623
▁$	-6.91609
▁You	-6.93085
▁good	-6.93325
ion	-6.93776
▁back	-6.94852
▁He	-6.95114
uch	-6.95389
did	-6.95673
▁am	-6.97174
able	-6.99278
▁only	-7.00045
▁see	-7.01426
▁place	-7.02096
on	-7.02489
▁over	-7.02533
ll	-7.02714
▁take	-7.03578
▁say	-7.04994
▁...	-7.05087
re	-7.07105
ies	-7.08681
▁people	-7.08946
▁she	-7.09853
▁even	-7.10589
▁look	-7.11021
▁should	-7.11528
▁her	-7.12124
▁Bush	-7.13645
▁new	-7.13717
▁how	-7.14323
▁un	-7.14546
▁T	-7.15789
ment	-7.16237
▁think	-7.1638
▁way	-7.17222
▁may	-7.18383
▁sai	-7.19041
▁Thi	-7.19214
▁thi	-7.19905
▁after	-7.20902
o	-7.22389
▁E	-7.22572
€	-7.22604
â	-7.22604
ld	-7.22703
▁real	-7.23029
se	-7.23035
ce	-7.2333
▁make	-7.23774
ation	-7.23962
▁L	-7.2518
fore	-7.2569
S	-7.25886
▁help	-7.26169
▁now	-7.265
cause	-7.26743
▁F	-7.26872
▁In	-7.27917
▁f	-7.28772
▁great	-7.29292
▁s	-7.29917
▁Thanks	-7.30329
i	-7.30615
▁every	-7.30962
▁service	-7.31173
▁into	-7.31432
▁give	-7.31659
▁again	-7.33842
▁M	-7.35148
▁year	-7.35697
▁B	-7.36624
▁@@	-7.37105
▁2	-7.37163
▁day	-7.37449
▁than	-7.38625
▁use	-7.38858
in	-7.39292
lease	-7.414
well	-7.42323
or	-7.42885
▁US	-7.45527
▁D	-7.45742
com	-7.47382
1	-7.47998
▁l	-7.48142
▁1	-7.48473
▁--	-7.49511
▁fir	-7.49735
▁price	-7.50496
@	-7.50789
▁food	-7.50889
▁Do	-7.51562
0	-7.5318
▁let	-7.53209
▁week	-7.54142
&	-7.54853
▁try	-7.55911
▁U	-7.56719
▁made	-7.57421
▁3	-7.57779
▁And	-7.57957
▁change	-7.58019
th	-7.58193
two	-7.58313
▁long	-7.58541
▁My	-7.58828
▁N	-7.58882
▁most	-7.59293
▁please	-7.59528
day	-7.59562
▁here	-7.60564
▁come	-7.61665
▁right	-7.61744
ew	-7.6202
▁years	-7.62497
▁Al	-7.62696
▁car	-7.62703
▁got	-7.62741
other	-7.63519
▁There	-7.64962
▁4	-7.65
▁PM	-7.65312
still	-7.65493
▁How	-7.66062
▁5	-7.67001
▁name	-7.68044
round	-7.68147
▁e	-7.68481
▁last	-7.68847
ity	-7.69118
▁ask	-7.69378
▁down	-7.69924
▁off	-7.70187
▁W	-7.70456
▁high	-7.71574
▁re	-7.71574
▁sam	-7.71783
▁find	-7.72044
▁put	-7.72613
▁though	-7.72777
▁month	-7.73494
▁lot	-7.74077
ext	-7.74608
▁But	-7.74652
▁too	-7.74702
▁sure	-7.74709
▁start	-7.74852
many	-7.7604
an	-7.76126
▁point	-7.7648
3	-7.76521
ge	-7.76739
▁al	-7.77375
▁So	-7.77441
ch	-7.78115
▁through	-7.78492
ther	-7.78713
▁part	-7.79206
ive	-7.79385
▁show	-7.79548
▁feel	-7.79549
▁What	-7.79677
h	-7.8036
▁its	-7.80426
2	-7.80601
▁world	-7.81636
▁order	-7.81749
▁meet	-7.82961
▁keep	-7.83757
p	-7.83773
▁On	-7.84772
▁home	-7.84898
▁Iraq	-7.85607
▁issue	-7.87079
▁American	-7.87172
▁read	-7.87303
ance	-7.8763
▁those	-7.88178
▁own	-7.89276
▁<	-7.8997
TM	-7.90482
ok	-7.90888
▁10	-7.91447
▁end	-7.91684
▁number	-7.91723
▁No	-7.92661
w	-7.92779
▁Enron	-7.92802
▁since	-7.92802
▁friend	-7.92989
▁litt	-7.93469
▁love	-7.93555
out	-7.93971
▁business	-7.93995
▁famil	-7.9401
k	-7.94198
us	-7.94757
ight	-7.94881
▁mean	-7.9546
▁where	-7.95588
▁night	-7.95702
ar	-7.96501
▁Iran	-7.96554
▁room	-7.96796
▁deal	-7.97449
▁mo	-7.97977
l	-7.98517
▁office	-7.98634
▁both	-7.98711
▁per	-7.98906
ers	-7.98953
▁days	-7.99088
lway	-7.9984
▁AM	-8.00129
▁interest	-8.00198
elf	-8.01167
▁She	-8.01216
ous	-8.01649
man	-8.01856
▁p	-8.02484
▁whil	-8.03062
x	-8.03181
▁experience	-8.03455
▁under	-8.04008
▁believe	-8.04156
▁send	-8.04202
▁came	-8.04624
ting	-8.05023
▁already	-8.05397
▁ca	-8.06382
▁As	-8.06635
D	-8.06701
▁recommend	-8.06709
▁talk	-8.06752
▁6	-8.06982
twee	-8.07023
▁H	-8.07223
▁20	-8.07562
▁New	-8.07908
▁Th	-8.0793
▁Re	-8.08989
▁G	-8.08991
is	-8.09247
▁water	-8.09515
▁wait	-8.09577
▁nice	-8.09679
▁things	-8.0975
c	-8.10546
▁visit	-8.10658
▁list	-8.10765
▁check	-8.10916
▁treat	-8.12376
▁May	-8.12474
▁pay	-8.12902
▁200	-8.13233
▁problem	-8.13271
went	-8.13294
▁compan	-8.13833
▁11	-8.13968
ian	-8.14231
▁tell	-8.15281
▁staff	-8.15285
ry	-8.15777
▁leas	-8.16178
ic	-8.16317
▁found	-8.16341
▁state	-8.16856
▁date	-8.16913
ember	-8.16922
less	-8.17677
▁questions	-8.17733
▁return	-8.18273
▁China	-8.18298
▁life	-8.18573
g	-8.19658
▁hard	-8.19833
▁away	-8.20222
▁live	-8.20578
▁line	-8.20658
ough	-8.20765
▁!!	-8.21052
each	-8.21086
age	-8.21191
▁person	-8.21199
▁actual	-8.21375
done	-8.21472
▁old	-8.21685
▁guy	-8.21913
eft	-8.21933
▁R	-8.22097
▁en	-8.22462
▁Be	-8.22464
▁group	-8.23039
▁customer	-8.2304
▁review	-8.23594
T	-8.2381
▁hav	-8.23837
▁report	-8.24466
oney	-8.24495
▁email	-8.24622
▁O	-8.25451
▁cat	-8.25454
▁man	-8.25645
▁care	-8.25979
▁job	-8.26042
▁else	-8.26198
▁cost	-8.26326
▁sign	-8.26758
▁add	-8.26858
▁head	-8.27236
_	-8.27861
til	-8.27986
▁power	-8.28071
▁eat	-8.28136
ate	-8.29182
▁Whe	-8.29292
u	-8.2932
F	-8.2936
▁Dr	-8.29479
▁Number	-8.29573
▁answer	-8.29574
▁small	-8.29576
▁request	-8.29577
▁St	-8.29804
▁de	-8.3042
▁Qa	-8.31325
▁bad	-8.31437
▁understand	-8.31522
ty	-8.31531
▁hope	-8.31665
▁full	-8.31693
ent	-8.31767
E	-8.319
▁seem	-8.31975
▁15	-8.32188
▁oil	-8.33055
▁far	-8.33509
▁close	-8.33554
▁dur	-8.3366
▁dog	-8.33765
▁charge	-8.34166
▁b	-8.34484
▁John	-8.34818
▁large	-8.34843
▁Sept	-8.34845
▁buy	-8.34929
▁letter	-8.3496
▁forward	-8.34984
▁bit	-8.35724
▁Can	-8.36042
low	-8.36062
▁different	-8.36682
▁comment	-8.3675
▁test	-8.37372
▁To	-8.38009
▁plan	-8.38104
▁thre	-8.3836
▁information	-8.38545
▁hear	-8.3856
▁case	-8.38698
▁set	-8.38719
▁open	-8.38929
▁play	-8.39089
ur	-8.39326
▁war	-8.39383
▁free	-8.39811
▁attach	-8.40288
▁minute	-8.40395
▁Friday	-8.40401
▁possibl	-8.40432
▁must	-8.40444
▁train	-8.41549
▁ga	-8.42088
▁reason	-8.4242
▁pass	-8.42659
ness	-8.43321
▁discuss	-8.44127
▁hand	-8.44172
▁walk	-8.44291
▁message	-8.443
▁country	-8.44814
▁provide	-8.44849
▁phone	-8.44901
▁For	-8.44971
▁soon	-8.45106
<	-8.45127
ught	-8.45174
later	-8.45471
be	-8.45897
▁rate	-8.46241
▁post	-8.46397
▁stay	-8.46532
▁Let	-8.46747
▁Thank	-8.46943
um	-8.47008
est	-8.47202
ton	-8.4742
▁7	-8.47509
lso	-8.47623
mount	-8.48023
▁enjoy	-8.48319
▁kind	-8.48426
▁system	-8.48488
▁NOT	-8.48907
▁question	-8.49051
ally	-8.49072
▁sever	-8.49331
▁thing	-8.49566
▁Georg	-8.50402
▁An	-8.50409
▁process	-8.50441
▁militar	-8.50452
▁THE	-8.50464
▁warm	-8.50724
▁tri	-8.51184
▁....	-8.51822
▁Afghan	-8.5253
▁girl	-8.5253
▁Jeff	-8.52532
▁>>	-8.52532
▁recent	-8.52556
▁President	-8.52588
8	-8.52703
▁market	-8.52716
----------------	-8.53047
▁At	-8.53235
▁horse	-8.53389
▁feed	-8.53571
▁final	-8.54044
▁wo	-8.5418
▁includ	-8.54201
▁India	-8.54346
▁wh	-8.5447
▁Pakistan	-8.54474
▁etc	-8.54706
▁space	-8.54715
▁government	-8.54718
▁2005	-8.54731
▁stop	-8.54749
mo	-8.54819
▁clean	-8.54974
▁sent	-8.5517
▁!!!	-8.55228
cy	-8.55399
▁pre	-8.55692
▁probabl	-8.55718
▁base	-8.55838
mail	-8.55896
▁fact	-8.56351
ne	-8.56667
▁h	-8.56733
▁quick	-8.56927
▁concern	-8.56928
▁couple	-8.56994
▁big	-8.57016
▁>	-8.5708
▁Sara	-8.57208
istan	-8.57219
▁leave	-8.57243
eda	-8.57251
▁received	-8.57383
▁Not	-8.57549
ten	-8.57667
▁form	-8.57901
land	-8.58321
long	-8.58364
C	-8.5838
▁draft	-8.59199
▁official	-8.59215
▁mind	-8.59246
ary	-8.59315
ither	-8.59361
▁happen	-8.59391
▁di	-8.59432
▁contact	-8.59538
▁idea	-8.59702
▁word	-8.59704
▁Nation	-8.59851
ese	-8.59874
▁IS	-8.59999
▁*	-8.60054
▁K	-8.60177
▁offer	-8.60615
▁times	-8.60681
▁tak	-8.61003
▁file	-8.61134
▁Mar	-8.6131
▁simpl	-8.61525
▁certain	-8.61533
▁near	-8.61595
▁deliver	-8.61626
▁book	-8.61667
▁current	-8.61693
▁pret	-8.6213
▁force	-8.62807
▁town	-8.62891
il	-8.62918
▁co	-8.63212
:30	-8.63784
▁happ	-8.63904
▁second	-8.63905
▁After	-8.63906
▁result	-8.63907
▁Monday	-8.63909
▁remember	-8.63914
▁hotel	-8.63924
▁clear	-8.63928
▁attack	-8.6395
▁agreement	-8.63977
▁run	-8.6402
▁fine	-8.64184
▁yet	-8.64556
▁whole	-8.64575
▁house	-8.65284
▁support	-8.65454
▁contract	-8.66112
ercentage	-8.66304
▁April	-8.66345
▁restaurant	-8.6639
▁excellent	-8.66414
▁quit	-8.66486
▁turn	-8.66569
▁friends	-8.67065
ful	-8.67582
▁following	-8.67618
▁address	-8.67713
due	-8.67795
where	-8.68254
most	-8.68389
▁Hi	-8.68633
ban	-8.68842
▁Great	-8.68845
▁entire	-8.68846
▁2004	-8.68926
▁La	-8.68979
▁regard	-8.69053
▁Mr	-8.69369
▁hair	-8.6939
▁product	-8.69415
▁mak	-8.69543
ney	-8.69715
▁Hous	-8.70065
rning	-8.71231
▁fun	-8.71332
▁project	-8.71409
▁school	-8.71409
▁helpful	-8.71482
▁position	-8.71673
▁cage	-8.71741
▁complete	-8.72362
▁store	-8.72412
N	-8.72578
▁pro	-8.72931
▁8	-8.72972
ra	-8.73261
as	-8.73758
▁program	-8.73788
▁Wh	-8.73898
▁Paul	-8.73901
▁weapon	-8.73979
▁agree	-8.74028
▁death	-8.74042
▁response	-8.74044
▁Jan	-8.74091
▁piece	-8.74092
▁arm	-8.74103
▁outside	-8.74157
doc	-8.74547
▁Just	-8.74646
7	-8.74653
▁Iraqi	-8.74711
▁light	-8.74865
id	-8.74987
▁problems	-8.75001
▁move	-8.75382
▁late	-8.75485
el	-8.75836
▁gas	-8.75853
P	-8.75961
ter	-8.76052
▁All	-8.76603
▁less	-8.76885
▁J	-8.77006
▁become	-8.77034
▁bring	-8.77253
▁follow	-8.7731
▁air	-8.77469
son	-8.77508
ow	-8.78191
▁hold	-8.7886
▁past	-8.79257
▁Ka	-8.79371
▁Any	-8.7947
▁pick	-8.79493
▁professional	-8.79531
front	-8.79532
▁Oct	-8.79573
▁eas	-8.79604
ASA	-8.79615
▁above	-8.79635
▁vet	-8.79769
thra	-8.80119
▁2001	-8.80126
▁2000	-8.8025
▁availab	-8.80656
Y	-8.80665
▁fight	-8.80703
it	-8.80889
▁com	-8.80894
▁side	-8.81782
special	-8.82111
though	-8.8223
▁Mike	-8.82416
▁important	-8.82436
▁election	-8.82469
▁bab	-8.82491
ma	-8.82847
▁include	-8.83047
▁Are	-8.83103
ory	-8.83176
▁perfect	-8.83555
tic	-8.83614
▁consider	-8.83933
▁30	-8.84022
5	-8.8417
ves	-8.84253
▁Co	-8.84287
▁16	-8.84575
▁continue	-8.84712
▁By	-8.84715
://	-8.85319
▁short	-8.85319
▁extreme	-8.85322
▁learn	-8.85348
▁paper	-8.85515
tp	-8.85722
▁12	-8.85738
ite	-8.85762
tion	-8.85773
▁whe	-8.85896
▁door	-8.86245
▁ht	-8.8709
tal	-8.87186
▁Yes	-8.87396
▁ago	-8.87535
har	-8.87642
te	-8.87742
▁direct	-8.88173
ENRON	-8.88175
▁public	-8.8823
▁remain	-8.88349
▁tank	-8.8835
▁strong	-8.8835
▁Good	-8.8836
▁weekend	-8.88405
▁:)	-8.88439
▁claim	-8.88505
▁top	-8.88545
ri	-8.88654
▁mov	-8.8869
▁Za	-8.88725
4	-8.88905
▁action	-8.88987
▁ever	-8.8924
▁YOU	-8.89278
ped	-8.89749
b	-8.90037
▁site	-8.90173
:00	-8.90351
wa	-8.9059
▁cut	-8.90707
▁members	-8.91029
▁13	-8.91309
▁earlie	-8.91433
▁security	-8.91474
▁wrong	-8.91474
▁region	-8.91475
▁explain	-8.91487
▁four	-8.91514
▁Now	-8.91633
▁act	-8.91665
ical	-8.91681
ake	-8.92831
▁expect	-8.9327
▁De	-8.93485
ING	-8.93525
ife	-8.93598
ture	-8.93669
▁trip	-8.94256
R	-8.94373
▁main	-8.94386
angua	-8.94677
▁doctor	-8.947
▁initial	-8.947
▁Texa	-8.947
▁campaign	-8.94703
▁Attach	-8.94704
▁detail	-8.94704
▁With	-8.94717
▁Mark	-8.9473
▁course	-8.9476
▁accept	-8.9476
▁worth	-8.94761
▁health	-8.94847
ware	-8.94913
▁quality	-8.9497
▁Chris	-8.95016
▁key	-8.95137
▁fall	-8.95242
▁personal	-8.95552
▁face	-8.96111
V	-8.96514
▁attend	-8.97009
tter	-8.97187
▁event	-8.97466
▁credit	-8.97846
noon	-8.97979
▁Ga	-8.98013
▁peace	-8.98015
▁murder	-8.98033
▁example	-8.98034
▁snake	-8.98035
▁period	-8.9804
living	-8.9806
▁Some	-8.9807
aid	-8.98074
▁game	-8.98075
port	-8.98128
ww	-8.98128
▁watch	-8.98152
▁copy	-8.98178
▁cap	-8.98181
▁link	-8.98184
▁political	-8.98197
▁David	-8.98215
▁cover	-8.98226
body	-8.98238
▁access	-8.98339
AND	-8.98546
▁usual	-8.98689
▁plann	-8.98731
▁Every	-8.9888
▁notice	-8.98967
iz	-8.9955
▁Her	-8.99551
we	-8.99738
▁dis	-9.00439
stead	-9.00458
▁25	-9.00658
z	-9.00695
▁develop	-9.00751
6	-9.00821
line	-9.00907
▁Jun	-9.01055
▁poor	-9.01512
▁trust	-9.01644
▁human	-9.01671
▁parent	-9.01672
▁half	-9.01798
▁stand	-9.02289
▁Sh	-9.02349
▁legal	-9.02454
im	-9.02545
▁stor	-9.02651
LY	-9.02704
▁Kay	-9.03065
▁sit	-9.03558
▁thanks	-9.03698
▁Kar	-9.03952
▁term	-9.04309
▁Whi	-9.04339
ine	-9.045
ck	-9.04573
▁leg	-9.04602
▁design	-9.04605
▁Have	-9.04724
▁fund	-9.04758
ley	-9.04801
▁suggest	-9.04833
enron	-9.04915
v	-9.04926
ondon	-9.04979
▁Agreement	-9.05053
▁picture	-9.05054
▁natural	-9.05054
▁North	-9.05056
▁matter	-9.0506
▁major	-9.05064
▁glob	-9.05092
▁Fax	-9.05095
▁Thur	-9.05133
▁level	-9.05221
ish	-9.05311
▁present	-9.05423
▁threat	-9.05441
▁pet	-9.05497
▁pm	-9.05607
▁decide	-9.0582
▁Indian	-9.05958
▁tax	-9.06002
▁Well	-9.06073
L	-9.06102
eral	-9.06192
▁miss	-9.06216
ru	-9.06245
▁young	-9.06376
ell	-9.06514
raf	-9.06534
▁g	-9.07127
▁EB	-9.07231
ist	-9.07326
energy	-9.07698
▁Ph	-9.07961
▁100	-9.08015
▁Israel	-9.08105
ada	-9.08156
▁options	-9.08158
illion	-9.08526
urther	-9.08598
▁black	-9.08741
▁attempt	-9.08757
▁figure	-9.08757
▁difficult	-9.08757
▁type	-9.08758
▁particular	-9.0876
▁specific	-9.08764
▁local	-9.08765
▁definit	-9.0877
▁dead	-9.08774
▁Canada	-9.08822
▁safe	-9.08827
▁sound	-9.08831
▁earl	-9.08903
▁approve	-9.08945
▁shall	-9.09077
ible	-9.09118
▁special	-9.09189
▁egg	-9.09193
▁Regards	-9.09234
▁Ma	-9.09267
sh	-9.09273
hind	-9.09402
OK	-9.0951
▁non	-9.09529
▁bo	-9.09629
▁risk	-9.09692
▁su	-9.097
▁Arab	-9.09869
▁kids	-9.10043
▁board	-9.10076
▁total	-9.10281
ration	-9.10298
▁Man	-9.104
▁ok	-9.10451
ism	-9.10586
all	-9.10637
▁bear	-9.10746
ice	-9.10761
B	-9.10923
▁yoursel	-9.11046
▁yes	-9.11242
▁50	-9.11269
▁bor	-9.1131
▁confirm	-9.11377
▁leaders	-9.11461
▁..	-9.1166
▁amount	-9.11741
▁polic	-9.11872
ier	-9.11963
▁Mus	-9.12419
▁Vietnam	-9.12603
▁dollar	-9.12604
▁serious	-9.12611
▁Vince	-9.12617
▁budget	-9.12629
▁team	-9.12632
▁wonderful	-9.12645
▁website	-9.12667
▁intend	-9.12689
▁lack	-9.12778
▁CIA	-9.128
▁199	-9.12851
▁statement	-9.12899
▁San	-9.12947
▁@	-9.12955
▁conference	-9.12974
sday	-9.13012
NA	-9.1303
▁Di	-9.13199
▁rude	-9.13283
▁quote	-9.13607
▁owner	-9.1367
ant	-9.1417
▁los	-9.14319
I	-9.1454
ie	-9.14575
A	-9.14621
▁Jul	-9.14876
▁sal	-9.14931
▁9	-9.14934
ure	-9.1531
to	-9.15345
▁met	-9.15447
▁animal	-9.15582
▁travel	-9.15607
la	-9.15662
▁step	-9.15747
99	-9.15851
▁14	-9.15995
▁Un	-9.161
hiri	-9.16186
▁cheap	-9.16603
▁respond	-9.16603
▁difference	-9.16603
▁record	-9.16604
▁dinner	-9.16617
▁Europe	-9.16643
kept	-9.1665
▁item	-9.16681
▁normal	-9.16689
▁increase	-9.16716
▁law	-9.16791
▁general	-9.16794
▁necessar	-9.1684
▁correct	-9.16844
hat	-9.16846
ern	-9.16901
▁terrorist	-9.1703
hap	-9.17043
▁source	-9.17087
ely	-9.17205
▁mentioned	-9.17251
▁option	-9.17261
07	-9.17379
▁lead	-9.17665
▁inside	-9.17702
▁rat	-9.17834
▁.?	-9.17865
side	-9.18388
▁Che	-9.18421
ia	-9.18427
uar	-9.1845
once	-9.18492
co	-9.18668
▁Ha	-9.19071
nu	-9.19231
bility	-9.19487
ai	-9.1961
ors	-9.1987
▁inter	-9.19992
▁Carol	-9.20262
▁control	-9.20383
▁body	-9.20522
▁des	-9.20734
ternational	-9.2076
▁effort	-9.2077
▁immediate	-9.2077
▁administ	-9.2077
▁cruise	-9.20771
▁drink	-9.20772
▁Japan	-9.20772
▁situation	-9.20773
▁exact	-9.20773
▁guess	-9.20774
▁Even	-9.20775
▁chance	-9.20776
▁settle	-9.20781
▁lunch	-9.20783
ta	-9.20814
▁Nov	-9.20824
▁subject	-9.20842
▁six	-9.20864
▁operation	-9.20936
▁amazing	-9.21068
▁manager	-9.21074
▁mail	-9.21101
▁19	-9.21381
▁Service	-9.21494
▁toward	-9.21626
▁rest	-9.21631
▁Ru	-9.21774
▁view	-9.21778
cross	-9.21846
▁sometime	-9.21897
ard	-9.21937
▁proper	-9.21999
om	-9.22087
▁schedule	-9.22154
▁ye	-9.22203
,000	-9.22256
▁fo	-9.22427
▁appreciate	-9.22477
▁member	-9.22679
▁fu	-9.2276
stern	-9.23002
uck	-9.2321
▁con	-9.23245
K	-9.23353
▁Ju	-9.23633
▁197	-9.23653
▁Dec	-9.23782
former	-9.2381
cal	-9.24022
▁countr	-9.24147
ble	-9.24279
▁America	-9.24746
orry	-9.2494
▁research	-9.25118
▁Richard	-9.25118
▁South	-9.25118
▁Syria	-9.25118
▁finish	-9.25119
▁Gulf	-9.25119
▁condition	-9.25122
▁significant	-9.25122
▁First	-9.25133
▁pull	-9.25134
▁unit	-9.25134
▁bird	-9.25134
▁according	-9.25154
▁standard	-9.25201
▁president	-9.25202
▁exist	-9.25206
▁fel	-9.25212
▁Hope	-9.25213
▁park	-9.25227
▁rep	-9.25312
▁Le	-9.25314
▁save	-9.25354
▁kn	-9.25465
▁allow	-9.25587
▁histor	-9.25618
▁hot	-9.25748
▁bro	-9.25758
▁spend	-9.25981
▁Bill	-9.26049
▁ship	-9.26143
▁spot	-9.26214
lines	-9.26258
▁bus	-9.26311
▁page	-9.26586
▁value	-9.26589
▁x	-9.26618
▁NO	-9.27209
▁st	-9.2799
et	-9.28335
▁reported	-9.28812
ial	-9.28895
▁nation	-9.28939
▁shop	-9.29127
▁Ca	-9.29303
▁drive	-9.29356
▁danger	-9.29663
▁print	-9.29663
▁honest	-9.29663
▁saw	-9.29701
▁surge	-9.29713
▁luck	-9.29722
▁location	-9.29739
▁mid	-9.29766
▁billion	-9.29809
▁sense	-9.29817
▁August	-9.29897
▁heat	-9.29931
▁press	-9.2994
▁bar	-9.29954
▁rule	-9.29965
▁star	-9.3002
▁version	-9.30094
▁See	-9.30136
▁fixed	-9.30702
animals	-9.3085
▁fit	-9.30907
▁k	-9.31113
▁Per	-9.3124
some	-9.31256
▁spen	-9.31579
▁17	-9.32069
▁pl	-9.32149
▁Go	-9.32338
▁ON	-9.32404
ud	-9.32414
▁purchase	-9.3282
▁blood	-9.32975
▁hearing	-9.33323
▁interview	-9.33382
▁tour	-9.33439
ency	-9.33629
▁speak	-9.3377
hi	-9.34115
12	-9.34396
connect	-9.34421
▁Since	-9.34425
▁rabbit	-9.34426
▁York	-9.34427
▁connection	-9.34429
▁hospital	-9.34431
▁basis	-9.34432
▁chicken	-9.3444
▁hour	-9.3445
▁management	-9.34462
▁Sunday	-9.34466
▁fax	-9.34468
ike	-9.34491
▁fear	-9.34498
icide	-9.34502
▁grow	-9.34526
▁protect	-9.34566
▁development	-9.34585
▁opportunit	-9.34594
▁fair	-9.3468
▁reach	-9.3475
ame	-9.34805
▁sort	-9.34988
go	-9.35104
▁Y	-9.35697
▁media	-9.35779
▁hug	-9.35909
▁fill	-9.35917
▁AS	-9.35953
▁note	-9.36041
▁leader	-9.36137
no	-9.36505
▁X	-9.36632
▁Ho	-9.36776
sterda	-9.37011
▁serv	-9.37099
▁r	-9.37363
▁comfortabl	-9.37514
▁21	-9.379
ster	-9.37999
▁Will	-9.38026
▁skill	-9.38225
▁territor	-9.38511
▁California	-9.38931
▁DO	-9.39028
▁bill	-9.39339
rea	-9.39348
▁document	-9.39351
▁wonder	-9.39409
=============	-9.39418
▁Egypt	-9.39425
▁neighbor	-9.39425
▁absolute	-9.39425
▁marri	-9.39425
argill	-9.39425
▁afford	-9.39426
▁transport	-9.39427
▁focus	-9.3943
▁running	-9.39436
▁info	-9.3944
DOC	-9.39456
▁single	-9.3946
00	-9.39466
▁activities	-9.39471
▁chair	-9.39477
▁emerg	-9.39484
▁update	-9.39488
▁apply	-9.39516
▁model	-9.39601
▁tire	-9.39693
▁sell	-9.39771
▁Or	-9.39771
▁fish	-9.39789
▁circle	-9.39882
▁V	-9.39915
dam	-9.40094
▁listen	-9.40166
▁Del	-9.40216
▁box	-9.40238
▁Over	-9.40291
op	-9.40367
mission	-9.40413
▁red	-9.40457
▁defens	-9.40574
nda	-9.40849
▁sales	-9.40863
▁Ou	-9.40867
H	-9.4171
▁summ	-9.41743
▁trad	-9.42351
ul	-9.42399
▁range	-9.42455
▁expens	-9.42507
ition	-9.42612
▁cause	-9.42817
▁ra	-9.42834
time	-9.43274
▁writ	-9.43417
ama	-9.4352
▁fast	-9.43735
▁Feb	-9.43753
▁mark	-9.43903
ior	-9.44331
▁inform	-9.44418
ounterpart	-9.44534
▁card	-9.44547
▁twi	-9.4456
ond	-9.44636
▁benefit	-9.44688
▁student	-9.44688
▁Group	-9.44688
▁application	-9.44689
▁decade	-9.4469
▁choice	-9.4469
▁decision	-9.44692
▁stuff	-9.44694
▁deep	-9.44699
▁reference	-9.44704
▁color	-9.44705
rench	-9.44709
▁kitten	-9.44717
▁search	-9.44719
▁article	-9.44737
▁class	-9.44744
▁among	-9.44755
OL	-9.44758
▁street	-9.4478
▁fresh	-9.44788
▁requirement	-9.44804
▁host	-9.44815
▁Right	-9.44818
▁38	-9.44835
▁promise	-9.44838
▁station	-9.44848
▁pai	-9.44876
msel	-9.44936
▁Paris	-9.4499
opez	-9.45321
▁separate	-9.45372
▁''	-9.45401
ious	-9.45415
▁reviews	-9.45476
cent	-9.45486
▁fe	-9.45519
▁Sad	-9.45566
ol	-9.45622
▁involve	-9.45855
▁vs	-9.46112
za	-9.46113
▁kill	-9.46223
▁receive	-9.46329
▁birth	-9.46483
rry	-9.46567
iddle	-9.46591
▁Tal	-9.46592
▁news	-9.4664
▁Sen	-9.46698
wis	-9.46758
▁son	-9.46844
wood	-9.46929
head	-9.47048
2000	-9.47133
▁thank	-9.47142
mas	-9.47161
▁18	-9.47174
ence	-9.47259
▁Wor	-9.47321
upon	-9.47736
▁Bo	-9.47766
tention	-9.47863
▁tr	-9.48243
dom	-9.48494
rrow	-9.48636
▁cross	-9.4882
ah	-9.48831
▁fix	-9.49037
▁Cha	-9.49566
▁terror	-9.49748
TTE	-9.50014
▁West	-9.50031
▁Trans	-9.50219
...@	-9.50243
▁EPM	-9.50243
▁Michael	-9.50243
▁beautiful	-9.50243
▁female	-9.50243
▁reflect	-9.50243
▁surprise	-9.50243
▁push	-9.50244
▁Global	-9.50248
▁Commission	-9.50249
▁balance	-9.50251
sphere	-9.50253
▁!!!!	-9.50254
▁organization	-9.50282
▁cash	-9.50317
▁Terr	-9.50325
▁NY	-9.50352
▁computer	-9.50355
▁Email	-9.50435
ities	-9.50461
▁text	-9.50463
▁child	-9.50533
▁Air	-9.50565
▁suggestion	-9.50597
339	-9.50657
telligence	-9.50821
▁Pakistani	-9.50844
▁nail	-9.5089
▁original	-9.50897
▁handle	-9.50965
▁release	-9.50983
▁Sea	-9.50987
989	-9.51145
▁CA	-9.51167
ug	-9.51396
▁Who	-9.51438
▁enter	-9.51532
▁Fro	-9.51603
gan	-9.5172
▁hit	-9.51849
▁gain	-9.5189
▁lo	-9.52092
ding	-9.52362
▁account	-9.52414
▁Su	-9.52535
▁spoke	-9.52593
ship	-9.52858
rs	-9.53003
atur	-9.5302
▁slow	-9.53227
net	-9.53406
nergy	-9.53972
▁Ba	-9.54077
▁Sa	-9.54202
▁art	-9.54327
killed	-9.54343
▁sea	-9.54426
▁age	-9.55484
---------------	-9.55601
ara	-9.55709
dditional	-9.55726
me	-9.55772
▁reasonabl	-9.55808
▁ha	-9.55845
mp	-9.55857
▁impress	-9.55977
Executive	-9.56126
▁Wednesday	-9.56126
▁expert	-9.56126
▁spread	-9.56127
▁financial	-9.56128
▁road	-9.56128
▁basic	-9.5613
▁visa	-9.5613
▁Govern	-9.5613
▁electric	-9.56131
▁dark	-9.56132
▁window	-9.56132
▁foot	-9.56133
EVER	-9.56133
▁confidential	-9.56135
usband	-9.56136
▁Clair	-9.56142
▁appear	-9.56164
▁flight	-9.56174
Washington	-9.56175
▁common	-9.56185
▁supposed	-9.56193
ober	-9.56198
▁Get	-9.56212
▁Look	-9.56226
▁Kim	-9.56227
▁repair	-9.56248
▁male	-9.56266
▁advice	-9.56278
▁Other	-9.56292
▁TO	-9.56382
▁Their	-9.56419
rd	-9.56446
▁patient	-9.56569
89	-9.56676
▁crime	-9.56724
▁Gam	-9.56753
▁sun	-9.56771
▁22	-9.56782
▁taste	-9.56802
▁blow	-9.56816
▁hurt	-9.56825
▁true	-9.56837
▁Pos	-9.569
▁replace	-9.5698
wo	-9.57042
▁Gu	-9.57058
▁vote	-9.57127
▁File	-9.57182
▁limit	-9.5724
vision	-9.57274
▁anyway	-9.57295
▁ground	-9.57349
▁firm	-9.57588
▁chang	-9.5759
▁require	-9.57705
▁Where	-9.57806
ONE	-9.57918
ET	-9.58116
▁serve	-9.58474
ring	-9.58603
▁His	-9.58611
▁works	-9.58739
▁Sun	-9.59022
▁creat	-9.59035
▁04	-9.59189
pe	-9.59268
▁26	-9.59274
▁pain	-9.59341
▁prior	-9.59862
▁713-853-3	-9.59993
▁Ver	-9.60102
town	-9.60368
▁die	-9.60809
tee	-9.60902
▁Sha	-9.6105
▁join	-9.61226
▁depend	-9.61348
▁advise	-9.61946
▁Steve	-9.61958
ily	-9.61976
▁speci	-9.61991
▁refer	-9.62021
▁01	-9.62083
▁Peter	-9.62191
▁adjust	-9.62225
▁driv	-9.6228
▁industr	-9.62375
▁appointment	-9.62376
▁progress	-9.62376
▁trouble	-9.62376
▁jump	-9.62377
▁capital	-9.62378
▁General	-9.62379
▁religious	-9.6238
▁south	-9.6238
▁vacation	-9.6238
▁music	-9.62391
▁stock	-9.624
▁department	-9.62401
▁Marie	-9.62407
▁dad	-9.62418
▁Year	-9.62455
▁band	-9.62471
▁film	-9.62471
▁fail	-9.6249
▁opinion	-9.62496
▁arrest	-9.62496
▁employ	-9.62502
▁white	-9.62549
▁ches	-9.62567
▁social	-9.62587
▁size	-9.62631
▁713-	-9.62679
ize	-9.62705
▁style	-9.6272
▁break	-9.62749
▁mine	-9.62753
O	-9.63045
of	-9.63187
▁via	-9.63291
▁seek	-9.63404
EL	-9.63609
ach	-9.6369
J	-9.63717
▁warn	-9.6375
▁officer	-9.63844
▁cent	-9.64034
▁Am	-9.64053
ali	-9.64182
▁Guar	-9.64209
ISO	-9.64363
▁boy	-9.64471
▁giv	-9.6462
▁Ken	-9.64674
ility	-9.6469
▁generat	-9.64698
▁Jim	-9.64889
▁Mo	-9.64936
ER	-9.65073
▁Me	-9.651
ls	-9.6529
▁fed	-9.65321
onto	-9.65471
646-	-9.65515
▁fee	-9.65737
ro	-9.65742
▁execute	-9.6576
back	-9.65868
▁05	-9.65934
AP	-9.65967
work	-9.65978
▁Mary	-9.66019
▁realize	-9.6611
▁economic	-9.66222
▁horses	-9.66462
▁plant	-9.66595
01	-9.66837
ber	-9.67026
ha	-9.6726
▁rid	-9.67368
ina	-9.67826
inner	-9.68129
▁leav	-9.68173
ling	-9.68201
▁flow	-9.6829
▁launch	-9.68378
way	-9.68592
BI	-9.68834
▁Spa	-9.68868
▁create	-9.6891
▁except	-9.68913
9	-9.68943
▁extra	-9.6902
▁conversation	-9.69042
▁drug	-9.69042
▁implement	-9.69042
▁individual	-9.69042
▁target	-9.69043
▁obvious	-9.69043
▁sleep	-9.69044
▁advance	-9.69044
▁track	-9.69044
▁Lanka	-9.69045
▁Florida	-9.69048
▁OBS	-9.69049
▁Russia	-9.6905
▁Shiite	-9.69051
▁Tues	-9.69051
▁image	-9.69052
▁establish	-9.69055
▁Michelle	-9.69069
▁solution	-9.69077
▁father	-9.6909
▁effective	-9.69093
xcellent	-9.69102
▁carol	-9.69103
▁agent	-9.69113
mmed	-9.69113
▁dai	-9.69123
▁knowledge	-9.69172
▁popular	-9.69172
▁regular	-9.69173
▁practice	-9.69197
▁Bu	-9.69275
▁counter	-9.69388
▁fly	-9.69538
▁discussion	-9.69572
▁wish	-9.69575
▁voice	-9.69594
▁web	-9.6961
45	-9.69657
▁Ok	-9.69688
M	-9.6971
and	-9.69724
▁perform	-9.69767
▁ride	-9.69861
▁online	-9.69958
ECT	-9.70067
▁invit	-9.70098
ondad	-9.70154
▁Dan	-9.70235
▁authorit	-9.71508
▁fi	-9.71536
▁beginn	-9.71606
▁Ben	-9.71618
tty	-9.71717
▁Ra	-9.71866
X	-9.71949
ng	-9.72153
▁reserve	-9.72199
▁ex	-9.72218
▁80	-9.72233
.00	-9.72264
▁waste	-9.72306
▁Ne	-9.72374
▁bare	-9.72417
▁whom	-9.72528
▁guide	-9.72544
ak	-9.72556
LE	-9.72613
▁Mos	-9.72746
Web	-9.72764
friend	-9.72916
▁arriv	-9.7303
rah	-9.73118
more	-9.73532
▁Ed	-9.73781
▁po	-9.73807
aster	-9.73868
rage	-9.73926
ong	-9.73936
▁0	-9.7412
G	-9.74225
▁effect	-9.74243
▁hands	-9.74352
NE	-9.74464
izz	-9.74803
▁eviden	-9.74891
DA	-9.74893
▁willing	-9.7516
▁lie	-9.7551
ternet	-9.75549
▁numbers	-9.75731
▁tru	-9.75805
▁begin	-9.75814
▁Moha	-9.7604
▁bigge	-9.76064
▁Call	-9.76108
▁THI	-9.76173
▁bathroom	-9.76185
▁physical	-9.76185
▁prevent	-9.76186
▁adult	-9.76186
▁Commit	-9.76186
▁previous	-9.76187
▁suffer	-9.76187
▁alternative	-9.76187
▁behavio	-9.76187
▁Susan	-9.76188
▁sink	-9.76188
▁Palestinian	-9.76189
▁relax	-9.76189
▁Laden	-9.7619
▁suspect	-9.7619
▁Time	-9.76193
▁pilot	-9.76195
▁measure	-9.76201
▁nucle	-9.76207
▁population	-9.76207
▁hang	-9.7621
▁favorite	-9.76212
▁filter	-9.76219
▁apartment	-9.76219
▁dating	-9.76221
▁count	-9.7624
▁Both	-9.76262
▁education	-9.7627
▁wheel	-9.76273
▁WAS	-9.76277
▁Bob	-9.76282
▁corner	-9.76295
▁procedure	-9.76309
▁shot	-9.76313
▁International	-9.76319
▁Kerr	-9.76323
▁People	-9.76324
▁slight	-9.76326
ffee	-9.76347
▁reliab	-9.76351
▁insur	-9.76356
▁mile	-9.76374
▁??	-9.76397
▁carry	-9.76499
▁wol	-9.76506
▁Harris	-9.76506
ave	-9.76517
▁bag	-9.76548
▁mass	-9.76599
▁ENRON	-9.76606
▁putt	-9.76691
ig	-9.76715
▁worry	-9.76722
▁Of	-9.76828
▁roll	-9.76883
▁dry	-9.77002
▁.....	-9.77325
▁GO	-9.77356
▁ME	-9.77437
▁career	-9.77445
▁prepared	-9.77465
▁handl	-9.77509
na	-9.77642
▁pressure	-9.77713
▁God	-9.7777
▁suit	-9.77792
▁building	-9.77838
▁Stat	-9.78006
▁sheet	-9.78094
▁East	-9.78279
▁busy	-9.78299
▁Yo	-9.78382
▁dress	-9.78422
▁Pa	-9.78475
▁pric	-9.786
▁Islam	-9.78615
▁Ta	-9.78995
▁u	-9.79047
▁assist	-9.79272
▁vi	-9.79595
:	-9.79965
PI	-9.80104
▁24	-9.80205
▁easi	-9.80219
ay	-9.80242
clai	-9.8038
struction	-9.80935
city	-9.81031
▁Lo	-9.81248
▁Star	-9.81701
ad	-9.81884
ions	-9.81985
weather	-9.82132
▁27	-9.82281
HAT	-9.82334
▁mention	-9.82675
▁Plan	-9.82793
j	-9.83059
▁medic	-9.83152
▁table	-9.83153
▁assume	-9.83206
▁port	-9.83335
▁OF	-9.83336
ection	-9.83375
▁national	-9.83447
▁713	-9.83502
ph	-9.83557
ston	-9.83567
atch	-9.83648
strain	-9.83816
▁respect	-9.83837
▁meal	-9.83843
niversit	-9.83869
▁Orleans	-9.83878
▁Republic	-9.83878
▁client	-9.83878
▁decline	-9.83878
▁sweet	-9.83878
▁potential	-9.83879
▁School	-9.83879
▁technolog	-9.83879
▁data	-9.8388
▁societ	-9.83882
▁pleasant	-9.83885
▁Office	-9.83886
▁injur	-9.83886
▁complain	-9.83887
▁strateg	-9.83887
▁ho	-9.8389
▁Home	-9.83897
▁certificat	-9.83899
▁negotiat	-9.83901
▁border	-9.83902
▁affect	-9.83905
▁winter	-9.83909
▁meat	-9.83916
▁manner	-9.83921
▁earth	-9.83925
▁ta	-9.83944
▁communit	-9.83984
▁finger	-9.83986
▁cool	-9.83989
▁sick	-9.84006
▁woman	-9.8401
▁lol	-9.84023
▁Dat	-9.84026
▁Dave	-9.84031
eck	-9.84032
▁hung	-9.84065
▁Scott	-9.84133
lan	-9.84139
▁Chin	-9.84186
▁GCP	-9.84288
W	-9.84317
▁operat	-9.84324
▁Joe	-9.84335
▁War	-9.84366
▁portion	-9.84422
▁cloth	-9.84466
▁copie	-9.84479
tro	-9.84482
MENT	-9.84498
▁According	-9.84532
▁Than	-9.84574
▁Green	-9.84591
▁win	-9.84732
▁pair	-9.84745
▁cook	-9.84826
▁led	-9.84988
▁Leg	-9.85212
▁br	-9.85477
▁Asia	-9.85602
▁Mann	-9.8565
▁elect	-9.85756
ko	-9.85799
▁weight	-9.86012
▁Sam	-9.86045
▁seat	-9.86342
▁sub	-9.86628
rated	-9.86647
▁Dis	-9.86855
▁Mc	-9.86867
▁expected	-9.8708
ative	-9.87614
os	-9.87675
▁ti	-9.87687
▁refuse	-9.88033
▁prefer	-9.88212
▁soft	-9.88386
▁relat	-9.88467
▁par	-9.88593
)	-9.88781
lo	-9.88797
▁pose	-9.88798
▁argue	-9.8888
nger	-9.88907
*	-9.88947
▁Fort	-9.88948
▁broke	-9.88966
der	-9.88979
whil	-9.88996
force	-9.89052
came	-9.89165
ide	-9.89253
SE	-9.89478
▁minimu	-9.89635
ird	-9.89736
▁Ji	-9.89779
▁birthda	-9.89821
▁li	-9.90056
▁bomb	-9.90106
▁north	-9.90123
▁opening	-9.90285
ED	-9.9043
rom	-9.90602
reme	-9.90679
▁propose	-9.90739
DP	-9.90928
corporate	-9.90937
▁build	-9.91025
▁Court	-9.91226
▁fan	-9.91298
▁determine	-9.9135
▁transfer	-9.91363
▁island	-9.9152
▁Bl	-9.91882
▁bite	-9.91904
▁Sup	-9.92009
▁dance	-9.92026
▁prove	-9.92102
▁select	-9.92138
▁civil	-9.92179
▁faith	-9.92192
▁favor	-9.92206
▁Samuel	-9.92211
▁Settlement	-9.92211
▁Shackleton	-9.92211
▁constant	-9.92211
▁imagin	-9.92211
▁purpose	-9.92211
▁regime	-9.92211
▁Gregg	-9.92211
▁assassinat	-9.92211
▁Float	-9.92212
▁destroy	-9.92212
▁Beatle	-9.92213
▁candidate	-9.92213
▁block	-9.92214
▁ticket	-9.92216
▁bank	-9.92217
▁remind	-9.92218
▁gift	-9.92218
▁governor	-9.92225
▁greet	-9.92226
▁soldier	-9.92227
▁conflict	-9.92231
▁Order	-9.92231
▁recall	-9.92232
▁package	-9.92233
ibald	-9.92234
ford	-9.92235
▁Robin	-9.92237
▁guest	-9.92237
▁college	-9.92244
▁maintain	-9.92245
▁modern	-9.92249
▁estimate	-9.92257
▁crap	-9.92266
▁season	-9.92267
▁click	-9.92268
▁forget	-9.92277
▁glad	-9.92301
▁disappoint	-9.92304
▁800	-9.92313
EO	-9.92333
▁choose	-9.92364
▁represent	-9.9237
▁lov	-9.92371
▁equip	-9.924
▁audi	-9.92417
▁More	-9.92429
▁Count	-9.9245
furniture	-9.92489
▁Oh	-9.92534
▁active	-9.92534
aine	-9.92577
▁responsibilit	-9.92589
ca	-9.92602
▁impos	-9.92623
▁expectation	-9.92624
▁screen	-9.92678
▁companies	-9.92729
▁supplie	-9.92746
▁eye	-9.92753
▁avoid	-9.92857
▁direction	-9.92877
▁rare	-9.92914
▁earn	-9.92987
▁Day	-9.93007
▁plus	-9.9302
▁driver	-9.9307
▁City	-9.93235
▁jobs	-9.93267
▁Inc	-9.93286
lower	-9.93304
▁Never	-9.93391
▁23	-9.93444
▁committe	-9.93461
▁Tor	-9.93518
▁dish	-9.93547
▁=	-9.93554
▁code	-9.93607
▁bombing	-9.93717
▁gu	-9.93742
by	-9.93745
▁trader	-9.93863
▁throw	-9.9387
istic	-9.94049
do	-9.94077
▁land	-9.9412
▁Tom	-9.94149
▁wine	-9.94199
▁rais	-9.94219
▁ensure	-9.94271
▁trade	-9.94428
lks	-9.94467
▁09	-9.94596
▁Bin	-9.94674
hip	-9.94828
▁produce	-9.95094
▁touch	-9.95119
often	-9.95124
▁Tho	-9.95298
ification	-9.95331
IT	-9.95373
TH	-9.95435
▁transactions	-9.9562
▁associate	-9.9571
▁500	-9.95927
nyway	-9.96136
rate	-9.96523
lid	-9.96661
▁finding	-9.96766
ex	-9.96779
▁Ko	-9.97126
he	-9.97167
▁refus	-9.97244
▁Wint	-9.9732
mir	-9.97325
morr	-9.97452
▁fat	-9.97668
▁transaction	-9.9773
▁Com	-9.97934
▁heart	-9.98031
io	-9.98051
▁Islami	-9.98066
▁Po	-9.98084
board	-9.98092
cut	-9.98144
▁comp	-9.98187
▁gra	-9.98322
▁Mi	-9.98393
ise	-9.98451
▁Ro	-9.98548
▁Senat	-9.98575
am	-9.98993
▁remov	-9.99289
▁din	-9.99312
mmer	-9.99607
▁none	-9.99671
ix	-9.99821
▁du	-9.99962
03	-10.001
nglish	-10.0011
▁nor	-10.0029
84	-10.0033
▁cancel	-10.0037
▁clim	-10.0038
▁wide	-10.006
▁recommended	-10.0071
▁responsib	-10.0089
▁Curren	-10.0098
que	-10.0112
iness	-10.0113
25	-10.0124
▁Quest	-10.0127
▁invest	-10.0128
▁Ahm	-10.0129
▁occup	-10.013
▁Brazil	-10.013
▁analysis	-10.013
▁approval	-10.013
▁distribut	-10.013
▁holiday	-10.013
▁recipient	-10.013
▁Cindy	-10.013
▁machine	-10.013
▁material	-10.013
▁delicious	-10.013
▁Analyst	-10.013
commercial	-10.013
▁Columbia	-10.013
▁alleged	-10.013
▁demand	-10.013
▁parakeet	-10.013
▁discover	-10.013
▁title	-10.0131
▁study	-10.0131
▁central	-10.0131
▁oppose	-10.0131
▁floor	-10.0131
▁capabilit	-10.0131
▁task	-10.0131
▁delete	-10.0131
▁Italian	-10.0132
▁disaster	-10.0132
▁lawyer	-10.0132
▁variet	-10.0133
▁manual	-10.0133
▁Linda	-10.0133
▁element	-10.0134
▁melt	-10.0137
hood	-10.0138
▁terribl	-10.0139
▁guarantee	-10.0139
▁Worth	-10.0139
▁Johnson	-10.014
▁tourist	-10.0141
pipeline	-10.0145
▁crew	-10.0145
▁Down	-10.0148
▁video	-10.0148
▁content	-10.0149
▁fantas	-10.015
▁escap	-10.015
▁Leon	-10.0153
▁camp	-10.0155
▁dirt	-10.0158
▁plast	-10.016
▁moral	-10.0161
ujah	-10.0162
/30/200	-10.0164
▁Love	-10.0164
▁activit	-10.0167
▁lesson	-10.0167
▁curve	-10.0168
▁cake	-10.0179
▁mouth	-10.0179
▁Stan	-10.0182
▁Arc	-10.0186
▁cold	-10.0186
▁Make	-10.0189
▁memor	-10.0191
▁song	-10.0193
▁revision	-10.0197
▁repeated	-10.0199
▁wall	-10.0204
▁dropp	-10.0206
▁Don	-10.0208
▁Dun	-10.0211
ull	-10.0217
▁write	-10.0217
▁Final	-10.0219
da	-10.0223
▁culture	-10.0233
▁surrounding	-10.0237
▁breath	-10.024
▁Tak	-10.0241
▁Jam	-10.0249
▁Try	-10.025
▁participate	-10.026
▁Jones	-10.0278
▁pool	-10.028
are	-10.0291
▁Q	-10.0293
▁Ham	-10.0294
400	-10.0331
▁Cher	-10.0343
▁Hell	-10.0346
THERE	-10.0348
693	-10.035
▁alt	-10.0372
▁Arm	-10.0389
▁writing	-10.0394
ium	-10.0407
ax	-10.0415
▁Se	-10.0433
house	-10.0466
evil	-10.0473
mar	-10.0483
▁Unfortuna	-10.0497
▁mis	-10.0506
▁Vic	-10.0507
ME	-10.0519
▁---	-10.0521
AD	-10.0549
▁Fa	-10.0549
▁blu	-10.0558
▁Centr	-10.0564
▁provid	-10.0586
ir	-10.0598
▁Ar	-10.0628
ward	-10.0644
end	-10.0645
nd	-10.0646
▁achieve	-10.0659
▁formal	-10.0677
▁spe	-10.0683
ami	-10.0688
▁William	-10.0714
▁Ya	-10.0721
NT	-10.0722
war	-10.073
▁spokes	-10.0731
Z	-10.0741
ttle	-10.0755
▁assign	-10.078
▁kid	-10.0787
02	-10.0787
▁ba	-10.0819
ni	-10.0841
room	-10.0842
34	-10.0851
lah	-10.0862
▁hi	-10.0872
▁manage	-10.0872
laba	-10.0888
▁mess	-10.0889
▁encourage	-10.0906
▁75	-10.0921
▁03	-10.0941
far	-10.0941
48	-10.0946
rely	-10.0974
▁laws	-10.0981
▁las	-10.0999
ters	-10.1004
▁60	-10.1026
▁collect	-10.1031
▁owners	-10.1059
2/200	-10.106
uke	-10.1068
▁Na	-10.1072
led	-10.1072
▁contain	-10.108
▁command	-10.1086
mart	-10.1087
▁prepare	-10.1091
▁Hol	-10.1092
▁lay	-10.1093
ujai	-10.1102
▁coup	-10.1111
▁positi	-10.112
VERY	-10.1122
▁econom	-10.1126
9/11	-10.1127
▁Corp	-10.1128
▁super	-10.1129
▁satisf	-10.113
▁GOOD	-10.113
****************	-10.113
XLS	-10.113
▁Baghdad	-10.113
▁England	-10.113
▁Silkie	-10.113
▁coordinat	-10.113
▁excit	-10.113
▁register	-10.113
▁Congress	-10.113
▁brief	-10.113
▁daughter	-10.113
▁vehicle	-10.113
▁possibilit	-10.113
▁method	-10.113
▁relationship	-10.113
▁Saudi	-10.113
▁Spring	-10.1131
▁worrie	-10.1131
▁Ferr	-10.1131
▁network	-10.1131
▁familiar	-10.1131
▁studie	-10.1131
▁argument	-10.1131
▁panel	-10.1132
▁missile	-10.1132
▁Kev	-10.1132
▁Christian	-10.1132
▁coast	-10.1133
▁Port	-10.1133
▁mode	-10.1133
▁Sharon	-10.1134
▁mechanic	-10.1134
▁Check	-10.1134
▁centur	-10.1135
▁magic	-10.1135
▁relative	-10.1135
▁Deb	-10.1135
▁Australia	-10.1135
▁anti	-10.1135
▁drill	-10.1136
▁locat	-10.1137
▁blank	-10.1139
▁Market	-10.114
▁apparent	-10.114
▁rough	-10.114
▁Food	-10.114
▁mountain	-10.1141
▁strengthen	-10.1142
▁5:00	-10.1146
afra	-10.1147
▁flat	-10.1147
▁noise	-10.1147
▁Put	-10.1149
WAY	-10.115
▁loss	-10.115
▁Mom	-10.115
▁violen	-10.115
▁frequent	-10.1151
▁FOR	-10.1151
▁successful	-10.1152
▁char	-10.1152
▁Product	-10.1161
▁Suf	-10.1162
▁300	-10.1164
▁tight	-10.1164
▁judge	-10.1167
▁addition	-10.117
▁Unit	-10.117
AVE	-10.1174
redit	-10.1177
▁breed	-10.1182
▁lock	-10.1183
▁cell	-10.1184
UST	-10.1184
ronic	-10.1185
04	-10.1186
hy	-10.1189
▁competiti	-10.119
▁structure	-10.12
/26/200	-10.1201
nature	-10.1209
▁attorney	-10.121
org	-10.1224
▁28	-10.1235
EVE	-10.1252
▁spring	-10.1257
▁travell	-10.1259
tain	-10.1261
/28/200	-10.1264
▁workers	-10.1266
▁Du	-10.1278
▁Ja	-10.128
ze	-10.1283
▁del	-10.1287
▁instruct	-10.1292
our	-10.1303
▁flower	-10.1305
▁reduce	-10.1309
church	-10.1324
ries	-10.1326
lliance	-10.1328
▁ear	-10.133
▁gun	-10.1331
▁Table	-10.134
ona	-10.1342
▁Je	-10.1357
ager	-10.1362
▁Robert	-10.1369
▁blog	-10.1383
▁mother	-10.1393
▁PS	-10.1396
ub	-10.1399
asse	-10.1403
▁cast	-10.1406
gie	-10.1407
▁damage	-10.1413
bout	-10.1441
ot	-10.1454
nnon	-10.1458
mental	-10.1462
▁bra	-10.1464
▁compar	-10.1464
▁reporter	-10.1467
rape	-10.1478
▁confirmed	-10.1487
ESS	-10.1498
▁fire	-10.1508
AT	-10.1518
▁plane	-10.1559
14	-10.1562
priced	-10.1568
▁expense	-10.1569
wed	-10.1572
bit	-10.1575
▁funding	-10.1577
▁Wal	-10.1579
?	-10.1581
75	-10.1587
OW	-10.1589
▁ray	-10.1594
▁low	-10.16
rza	-10.16
▁arrive	-10.1609
▁TW	-10.1619
▁tool	-10.162
▁nav	-10.1647
▁En	-10.1649
▁Hat	-10.1695
up	-10.1702
RA	-10.171
▁yell	-10.1713
House	-10.1743
▁hell	-10.1748
U	-10.1755
▁cleaned	-10.1765
▁indicate	-10.1771
DC	-10.1775
unni	-10.1775
▁assistan	-10.178
▁graduate	-10.1791
aught	-10.18
▁Wi	-10.1816
▁II	-10.1826
▁relate	-10.1832
▁King	-10.184
▁Vi	-10.1854
▁03/0	-10.1868
▁muscle	-10.1869
▁raise	-10.1877
▁Sal	-10.1891
rancisco	-10.1892
▁31	-10.1896
ball	-10.1903
ek	-10.1909
▁describ	-10.1914
▁requir	-10.1919
▁na	-10.1926
▁occasion	-10.1956
ather	-10.1972
II	-10.1974
oops	-10.1984
▁10:	-10.2
▁Hu	-10.2007
10	-10.2034
▁Services	-10.2044
▁invoice	-10.2055
▁environment	-10.2064
rew	-10.2076
69	-10.2084
▁USA	-10.2095
▁Powe	-10.2098
ating	-10.2107
▁traffic	-10.2114
▁Could	-10.2115
▁finance	-10.2122
LOP	-10.2137
UT	-10.215
▁foreign	-10.2152
▁High	-10.2159
▁Sta	-10.2162
▁???	-10.2167
ile	-10.217
▁grand	-10.2172
▁releas	-10.2177
▁rec	-10.2178
iff	-10.2181
story	-10.2182
▁custom	-10.2186
▁engine	-10.219
▁pets	-10.2199
▁BE	-10.2206
▁Kha	-10.221
▁Pay	-10.2214
chedule	-10.2214
▁terroris	-10.2221
▁reconcili	-10.2222
treet	-10.2235
▁Zealand	-10.2241
▁vomit	-10.2241
▁Chicago	-10.2241
▁Hussein	-10.2241
▁Stephanie	-10.2241
▁disappear	-10.2241
▁sandwich	-10.2241
▁temperature	-10.2241
▁LLC	-10.2241
▁EnronOn	-10.2241
▁Essie	-10.2241
▁Warwick	-10.2241
▁blind	-10.2241
▁typical	-10.2241
▁pack	-10.2241
▁session	-10.2241
▁warrant	-10.2241
▁Parent	-10.2241
▁stupid	-10.2241
▁confidence	-10.2241
▁incredibl	-10.2241
▁unique	-10.2241
▁premium	-10.2241
▁Second	-10.2241
▁gender	-10.2242
rote	-10.2242
▁false	-10.2242
▁petrol	-10.2242
▁FYI	-10.2242
▁doubt	-10.2242
▁install	-10.2242
▁recruit	-10.2242
▁priva	-10.2242
labi	-10.2242
▁breakfast	-10.2242
▁resume	-10.2243
▁similar	-10.2243
▁invent	-10.2243
▁Jason	-10.2244
▁reception	-10.2244
▁pupp	-10.2244
▁mistake	-10.2244
▁slice	-10.2244
▁Compan	-10.2244
▁mouse	-10.2244
▁percent	-10.2246
▁fuel	-10.2246
▁REAL	-10.2246
▁double	-10.2246
▁capture	-10.2246
▁seven	-10.2246
▁Tana	-10.2247
▁equal	-10.2247
▁allocate	-10.2247
▁path	-10.2248
▁spray	-10.225
▁grant	-10.225
▁truth	-10.225
▁investigation	-10.225
▁convict	-10.2251
▁Judge	-10.2251
▁Jose	-10.2251
▁Color	-10.2252
▁trick	-10.2253
▁careful	-10.2254
▁teacher	-10.2255
▁trail	-10.2255
▁documentation	-10.2259
▁selection	-10.2261
▁establishment	-10.2261
▁extend	-10.2265
how	-10.2265
ubject	-10.2266
▁Rho	-10.227
▁wild	-10.227
acity	-10.227
▁affair	-10.2271
▁07/1	-10.2272
▁Security	-10.2272
▁counterpart	-10.2275
▁internal	-10.2276
▁agenc	-10.2277
▁generation	-10.2278
▁efficient	-10.2278
▁intercept	-10.228
▁Khan	-10.228
▁referr	-10.2288
▁hide	-10.2293
▁heavy	-10.2298
▁Bal	-10.2306
▁attachment	-10.2308
OM	-10.2319
▁rent	-10.2319
▁Sit	-10.2322
aat	-10.2325
▁tonight	-10.2331
onference	-10.2333
▁bott	-10.2335
▁COM	-10.234
▁appropriate	-10.2343
▁secure	-10.2343
▁transmit	-10.2349
light	-10.2361
▁Jane	-10.2376
kin	-10.2377
▁shopp	-10.2389
ERC	-10.239
▁satani	-10.2392
▁pleas	-10.2404
▁stream	-10.2428
▁Val	-10.2429
rch	-10.2429
▁award	-10.2436
▁sight	-10.2444
TC	-10.2452
▁Net	-10.2469
▁CO	-10.2477
ger	-10.248
▁meaning	-10.2489
ards	-10.249
▁Pres	-10.2491
lace	-10.2512
eau	-10.2517
▁Mid	-10.2526
▁Has	-10.253
▁156	-10.2539
▁sta	-10.2542
▁dealer	-10.2546
▁killing	-10.255
▁deposit	-10.2558
▁influen	-10.2559
▁follows	-10.2577
▁Mei	-10.2593
▁ran	-10.2597
dden	-10.2606
▁Har	-10.262
nation	-10.2631
▁approach	-10.2645
ick	-10.2651
▁Far	-10.2661
▁player	-10.267
DT	-10.2682
lia	-10.2682
▁mailing	-10.2687
08	-10.2696
▁fil	-10.2714
▁Hal	-10.2717
umb	-10.2719
ran	-10.2723
ik	-10.2729
▁hate	-10.2742
ress	-10.275
▁Blu	-10.275
SM	-10.2753
_______________	-10.2754
▁Brit	-10.2778
▁Patric	-10.2781
▁mom	-10.28
▁caus	-10.2811
▁AT	-10.2815
HING	-10.2819
▁inflat	-10.2833
▁medi	-10.2842
ount	-10.2846
▁movie	-10.2863
west	-10.2867
▁cha	-10.2881
▁cur	-10.2891
▁Pho	-10.2893
lk	-10.2901
▁Free	-10.2902
▁paint	-10.2905
ast	-10.2916
▁Ave	-10.2916
▁Fed	-10.2948
▁indicat	-10.2951
▁Canad	-10.2982
▁stabili	-10.2995
gain	-10.3004
▁Non	-10.3006
▁pa	-10.3035
▁pol	-10.3041
▁dut	-10.3045
rick	-10.3086
ood	-10.3096
!	-10.3103
worm	-10.3108
▁Ku	-10.312
▁12:	-10.3121
▁Fall	-10.3134
▁Chi	-10.3169
risk	-10.3169
fill	-10.3183
HERE	-10.3194
aman	-10.3194
▁net	-10.3207
▁involv	-10.3209
BA	-10.3213
bar	-10.3223
79	-10.3227
▁clos	-10.3234
▁values	-10.3243
▁Ame	-10.3248
BC	-10.3249
ustin	-10.3251
▁decid	-10.3277
stand	-10.3277
▁Give	-10.328
sual	-10.329
______________	-10.3302
▁participat	-10.3312
▁40	-10.3317
19	-10.3321
▁196	-10.3338
▁surround	-10.3348
▁operate	-10.3388
▁EE	-10.3399
▁draw	-10.34
bor	-10.34
▁drop	-10.3403
▁statu	-10.3404
▁mill	-10.3408
▁Jo	-10.3413
▁Davi	-10.342
▁Aa	-10.3422
▁Mexic	-10.3438
67	-10.3441
▁valu	-10.3444
ez	-10.3448
▁challenge	-10.3453
▁drag	-10.3472
81	-10.3483
tract	-10.3483
stimate	-10.3485
venue	-10.3487
epartment	-10.349
▁success	-10.349
▁cabin	-10.3491
▁neighbour	-10.3491
▁WITH	-10.3491
ceipt	-10.3491
▁FOOD	-10.3491
▁Katrina	-10.3491
▁compassion	-10.3491
▁helicopter	-10.3491
▁privilege	-10.3491
▁smooth	-10.3491
▁vendor	-10.3491
▁Imagin	-10.3491
▁expand	-10.3491
▁straight	-10.3491
▁Tamil	-10.3491
▁split	-10.3491
▁bowl	-10.3491
▁analyst	-10.3491
▁error	-10.3491
▁Constitution	-10.3491
▁River	-10.3491
▁STEP	-10.3491
▁switch	-10.3491
▁Gerry	-10.3491
▁liquid	-10.3491
▁deserve	-10.3492
▁chef	-10.3492
▁11/29/	-10.3492
▁Actual	-10.3492
▁evaluat	-10.3492
▁hamster	-10.3492
▁prompt	-10.3492
▁obtain	-10.3492
▁rush	-10.3492
▁quiet	-10.3492
▁hundred	-10.3492
▁loose	-10.3492
▁Atlant	-10.3492
▁Martin	-10.3492
▁Cafe	-10.3492
▁Kyle	-10.3492
▁dealership	-10.3492
▁Front	-10.3492
erchant	-10.3492
▁rich	-10.3492
▁delay	-10.3492
▁consistent	-10.3492
▁admitted	-10.3492
▁complex	-10.3493
▁feature	-10.3493
▁Director	-10.3493
▁enem	-10.3493
▁Job	-10.3493
▁impact	-10.3493
▁Molly	-10.3493
▁Prim	-10.3493
▁forgot	-10.3493
▁Sheikh	-10.3493
▁stick	-10.3494
▁LOVE	-10.3494
▁salad	-10.3494
▁Hotel	-10.3494
▁calm	-10.3495
gimp	-10.3495
▁Rick	-10.3496
▁Balance	-10.3496
ron	-10.3497
▁Leban	-10.3497
▁1999	-10.3497
▁chief	-10.3498
▁vast	-10.3499
▁reward	-10.3499
▁background	-10.3499
▁role	-10.35
nais	-10.35
▁green	-10.3501
▁Alber	-10.3502
▁hopeful	-10.3505
▁occurr	-10.3507
▁moderate	-10.3507
▁stage	-10.3511
▁asset	-10.3512
▁brother	-10.3514
▁bulb	-10.3517
▁Nick	-10.3517
▁Pat	-10.3517
▁pop	-10.352
▁Island	-10.352
▁shape	-10.3522
▁match	-10.3523
▁MY	-10.3525
▁Rice	-10.3527
▁1000	-10.3529
▁challeng	-10.353
trial	-10.3533
▁urin	-10.3536
▁dominate	-10.3537
▁technical	-10.3538
tra	-10.3538
▁lab	-10.3539
▁Anne	-10.3539
▁utilit	-10.3545
unt	-10.3549
▁Plu	-10.3556
▁recover	-10.3558
▁sur	-10.3558
▁Dar	-10.356
fia	-10.3562
▁Minist	-10.3578
▁chemical	-10.3579
▁Tit	-10.358
▁val	-10.3588
tional	-10.3588
▁Phil	-10.3589
▁boat	-10.3605
▁recommendation	-10.3614
▁ski	-10.3616
▁aspect	-10.3617
▁Base	-10.3619
▁server	-10.3619
▁income	-10.362
▁presen	-10.362
▁Defen	-10.3642
ean	-10.3643
lub	-10.3649
▁nine	-10.365
▁broad	-10.3656
--------------	-10.3678
arch	-10.3685
▁ja	-10.3692
▁engage	-10.3696
▁trot	-10.3698
gua	-10.37
▁Independen	-10.37
▁field	-10.3703
▁sh	-10.3711
▁Israeli	-10.3725
▁Edi	-10.3727
taff	-10.3727
▁literal	-10.3728
▁police	-10.3748
/10/200	-10.3753
eel	-10.376
▁Cent	-10.3763
▁Br	-10.3763
▁bother	-10.3772
TA	-10.3776
▁substantial	-10.3776
▁remove	-10.379
▁load	-10.3793
▁Z	-10.3794
▁submit	-10.3804
▁nest	-10.3805
▁score	-10.3809
▁coal	-10.381
▁SO	-10.382
▁degrees	-10.3822
▁diplomat	-10.3829
▁Part	-10.383
AL	-10.3833
▁summar	-10.3835
▁Sue	-10.3835
▁Shi	-10.3841
▁heel	-10.385
ke	-10.385
▁attenti	-10.3866
▁describe	-10.3877
eep	-10.3884
▁Wil	-10.3885
▁west	-10.3889
▁Fe	-10.3892
aba	-10.3895
HR	-10.3901
▁carri	-10.3904
OUL	-10.3921
▁German	-10.3922
ual	-10.3924
▁46	-10.3964
▁Note	-10.3969
▁Associate	-10.3971
▁purchas	-10.3975
▁ball	-10.3977
▁Medic	-10.399
ellows	-10.4003
eclar	-10.4013
nsive	-10.4014
6-1.	-10.4042
bio	-10.4054
view	-10.4061
▁ver	-10.4066
▁str	-10.4078
▁Fri	-10.4083
ill	-10.4087
▁Er	-10.4092
hair	-10.4101
aurie	-10.4106
▁addresse	-10.4111
▁sp	-10.4112
▁assur	-10.4124
▁execut	-10.4141
7/200	-10.4146
ality	-10.4146
orie	-10.4151
▁share	-10.4167
een	-10.4172
▁mate	-10.4188
27	-10.4198
▁Edw	-10.4204
▁cla	-10.4205
▁IP	-10.4208
AN	-10.4212
________________	-10.4248
0,000	-10.4259
28	-10.4267
▁41	-10.428
▁Ni	-10.4288
ibility	-10.4312
▁round	-10.4322
ver	-10.4332
▁avail	-10.4336
.5	-10.437
pite	-10.4374
▁Franc	-10.4399
▁forms	-10.4402
▁Jer	-10.4414
▁mission	-10.4418
▁rang	-10.442
fighting	-10.4426
▁shed	-10.4437
▁creativ	-10.444
wi	-10.4444
▁spa	-10.4447
CA	-10.4457
▁Ch	-10.4474
▁Mont	-10.4483
era	-10.4506
enter	-10.4512
▁defin	-10.4516
▁posting	-10.4524
▁Us	-10.4531
ef	-10.4532
▁gallo	-10.4532
▁generate	-10.4537
▁brea	-10.4538
▁mix	-10.4539
▁promot	-10.4548
▁degree	-10.4552
▁gene	-10.4566
craft	-10.4571
▁sen	-10.4572
29	-10.4577
load	-10.4581
▁movement	-10.4583
Q	-10.4586
ool	-10.4587
payment	-10.4588
sheet	-10.4591
entity	-10.4593
nstruction	-10.4601
guy	-10.4601
word	-10.4602
care	-10.4603
▁substanti	-10.4606
▁Price	-10.4606
▁king	-10.4619
▁cu	-10.4653
11	-10.4656
▁forth	-10.4657
▁sat	-10.4665
▁Too	-10.467
ague	-10.4671
▁critic	-10.4675
▁70	-10.4676
ab	-10.4678
▁Pre	-10.4695
▁08	-10.4712
tta	-10.4733
KE	-10.4737
▁Pen	-10.4741
▁10/2	-10.4743
▁cru	-10.4746
▁artist	-10.4747
ino	-10.475
▁exception	-10.4755
nts	-10.4758
dity	-10.477
right	-10.4776
▁regret	-10.4777
▁mu	-10.4778
▁commit	-10.4789
▁seri	-10.4797
▁Christ	-10.4801
▁cultur	-10.4805
▁Con	-10.4809
32	-10.4809
unk	-10.4812
un	-10.4814
ated	-10.4837
ugh	-10.4844
▁sale	-10.4859
▁politic	-10.4871
▁Dea	-10.4871
▁rock	-10.4887
pa	-10.4891
▁McCa	-10.4897
obby	-10.4898
▁express	-10.491
▁detect	-10.491
ncil	-10.4918
ILL	-10.4918
ransaction	-10.4918
▁confident	-10.4919
▁Analysis	-10.492
▁Immigra	-10.492
▁Dasovich	-10.492
▁Jordan	-10.492
▁exposure	-10.492
▁extremist	-10.492
▁routine	-10.492
▁volume	-10.492
▁favour	-10.492
▁sponsor	-10.492
▁Doctor	-10.492
▁Picture	-10.492
▁license	-10.492
▁Earth	-10.492
▁Family	-10.492
▁honor	-10.492
▁surface	-10.492
▁invasi	-10.492
▁guilt	-10.492
▁debt	-10.492
▁screw	-10.492
▁milk	-10.492
▁laptop	-10.492
▁mutual	-10.492
▁branch	-10.492
▁minister	-10.492
▁suspicio	-10.492
plain	-10.4921
▁yoga	-10.4921
▁wealth	-10.4921
▁participant	-10.4921
rtney	-10.4921
render	-10.4921
▁representative	-10.4921
▁fundamentalist	-10.4921
▁pledge	-10.4921
▁Metro	-10.4921
▁Bank	-10.4921
▁categor	-10.4921
corp	-10.4921
▁studio	-10.4922
▁reservation	-10.4922
▁Rude	-10.4922
▁Rock	-10.4922
▁Under	-10.4922
▁1980	-10.4923
▁Jack	-10.4923
▁Board	-10.4923
▁harm	-10.4923
▁counsel	-10.4924
▁cheek	-10.4924
▁Sanders	-10.4924
▁gear	-10.4924
▁Corporat	-10.4924
▁barrel	-10.4924
▁provision	-10.4924
▁gross	-10.4925
▁insurgen	-10.4925
▁pub	-10.4925
▁commission	-10.4925
▁Camp	-10.4925
▁grip	-10.4926
▁cooperat	-10.4926
▁Wood	-10.4926
▁incite	-10.4927
77	-10.4927
▁qualifi	-10.4927
▁**	-10.4927
▁RAP	-10.4927
▁extradit	-10.4929
▁dro	-10.4929
▁stress	-10.493
▁ripp	-10.493
▁brain	-10.493
▁Park	-10.4931
▁ob	-10.4931
▁conc	-10.4931
ronaut	-10.4932
▁chee	-10.4932
▁Agenc	-10.4932
▁laugh	-10.4933
▁execution	-10.4933
▁200,000	-10.4936
▁elsewhere	-10.4937
bsite	-10.4937
▁Anton	-10.4938
▁organiz	-10.494
▁flood	-10.4941
▁hole	-10.4945
▁religion	-10.495
▁shut	-10.4951
▁hur	-10.4952
▁:(	-10.4952
▁embarrass	-10.4953
▁resource	-10.4953
▁Pass	-10.4953
▁virtual	-10.4954
▁Fish	-10.4954
▁attract	-10.4955
byl	-10.4957
▁section	-10.4959
▁Talk	-10.4959
stair	-10.4959
▁tame	-10.4962
▁GM	-10.4963
▁Today	-10.4964
ventur	-10.4964
▁inquir	-10.4964
▁independent	-10.4966
▁EC	-10.4968
▁shoe	-10.4968
▁Ram	-10.497
1.	-10.4972
▁Allow	-10.4974
▁Nice	-10.4975
fra	-10.4976
▁Force	-10.4978
▁scar	-10.4979
▁pig	-10.498
over	-10.4981
▁compress	-10.4984
usiness	-10.4987
95	-10.4988
▁ALL	-10.4989
ari	-10.499
▁misc	-10.4991
▁sl	-10.4992
▁multiple	-10.4994
▁suck	-10.4995
▁Spani	-10.4996
▁Kenne	-10.4996
VB	-10.4997
▁route	-10.5001
enos	-10.5001
▁crowd	-10.5002
▁christ	-10.5002
▁phase	-10.5002
▁spiritual	-10.5003
▁inspect	-10.5003
▁dust	-10.5011
▁threaten	-10.5011
▁mad	-10.5014
lena	-10.5015
▁Nav	-10.5022
▁v	-10.5024
▁Li	-10.5038
ushi	-10.504
▁Deal	-10.5043
ray	-10.5048
▁rein	-10.5051
▁ANY	-10.5055
▁Carn	-10.5055
▁Mou	-10.5059
▁guard	-10.5063
▁controll	-10.5073
▁determin	-10.5074
ISCO	-10.5083
▁tent	-10.5084
LEAS	-10.5095
▁Col	-10.5096
▁nerv	-10.5099
▁Dent	-10.51
▁amend	-10.511
ates	-10.5117
rongs	-10.512
par	-10.5138
▁wind	-10.5139
▁designer	-10.5141
Read	-10.5174
▁litter	-10.5186
titude	-10.5188
▁entr	-10.5195
read	-10.5198
▁dri	-10.52
map	-10.5217
lin	-10.5218
CH	-10.5227
▁65	-10.5254
▁burn	-10.5259
▁AL	-10.5272
▁Out	-10.5274
▁factor	-10.5276
▁visitor	-10.5292
37	-10.5299
▁climb	-10.5301
orrible	-10.5312
tual	-10.5317
▁Got	-10.5331
▁Live	-10.5333
30	-10.5338
▁Hot	-10.5351
bos	-10.536
ler	-10.5362
▁vari	-10.5374
▁minim	-10.5399
rv	-10.5401
▁Suss	-10.5403
▁gri	-10.5403
zu	-10.5426
▁muscles	-10.5428
nc	-10.5428
▁numero	-10.543
▁shipp	-10.5437
▁freez	-10.5447
min	-10.5456
TE	-10.5462
q	-10.5488
tone	-10.5493
uff	-10.5502
▁initiat	-10.5503
AS	-10.5506
▁wear	-10.5511
▁revis	-10.5513
adian	-10.5517
oke	-10.553
▁belong	-10.5536
spot	-10.5538
▁minor	-10.5539
tie	-10.5559
▁beard	-10.5566
▁functional	-10.5568
sump	-10.558
▁Yea	-10.5606
33	-10.5613
▁islands	-10.5614
▁Red	-10.5618
cer	-10.5638
ero	-10.5638
700	-10.5644
top	-10.5658
ola	-10.566
▁welcom	-10.5676
▁bras	-10.5686
▁entit	-10.5688
▁hid	-10.5689
EAT	-10.5692
1:00	-10.5693
▁Web	-10.5695
cial	-10.5695
000	-10.5698
72	-10.5701
raw	-10.5703
▁Trade	-10.5704
▁Hug	-10.5708
und	-10.5712
▁receiv	-10.5712
▁guid	-10.5725
ga	-10.5728
▁fac	-10.5734
odge	-10.5735
CE	-10.5747
ook	-10.575
▁RE	-10.5756
▁goal	-10.5757
▁Ki	-10.5762
▁welcome	-10.5762
▁Mu	-10.5765
▁partners	-10.5777
▁---------	-10.5779
▁01/1	-10.5787
-1.	-10.579
▁Gar	-10.5825
▁pan	-10.5829
05	-10.5839
ac	-10.5883
▁communicat	-10.5893
▁sa	-10.5912
▁Nam	-10.5916
65	-10.5918
mith	-10.5923
▁accounts	-10.5927
come	-10.5932
van	-10.5951
66	-10.5983
CO	-10.5988
▁god	-10.599
ff	-10.5991
ear	-10.5993
▁appli	-10.5993
HA	-10.6013
ag	-10.6024
ignoff	-10.6026
race	-10.6026
▁function	-10.603
▁Kan	-10.6038
▁sto	-10.6058
awa	-10.6061
▁publish	-10.6061
ssa	-10.6082
gue	-10.61
IG	-10.6114
▁11:	-10.6118
▁horr	-10.612
▁acquir	-10.6122
▁dam	-10.6132
▁Google	-10.6162
SA	-10.6173
▁News	-10.6175
OT	-10.6187
,	-10.6188
mend	-10.6188
▁hous	-10.6192
▁PA	-10.6201
lent	-10.6217
▁hop	-10.6217
▁photograph	-10.622
bodi	-10.6232
▁hall	-10.6238
ations	-10.6238
bon	-10.6241
burn	-10.6248
▁bi	-10.6249
▁ignore	-10.6257
inea	-10.6257
limit	-10.6261
usual	-10.6274
anic	-10.6282
life	-10.6294
▁Bra	-10.6304
ground	-10.6308
llis	-10.6309
▁invite	-10.6316
91	-10.6323
con	-10.6332
spect	-10.634
▁origin	-10.6342
CK	-10.6349
8/200	-10.6374
inal	-10.6381
YN	-10.6401
oui	-10.641
▁signing	-10.641
▁conclud	-10.6411
ccess	-10.6426
▁proceed	-10.643
▁communicati	-10.6433
▁bio	-10.6437
,500	-10.6438
▁PO	-10.6439
▁Accord	-10.644
consumers	-10.6455
▁repeat	-10.6459
▁Administrat	-10.6468
pp	-10.6475
▁confus	-10.6479
put	-10.6495
▁Pric	-10.6509
▁VI	-10.6509
▁format	-10.6511
member	-10.6513
▁03/1	-10.6513
AM	-10.6525
▁biolog	-10.6526
▁pho	-10.6535
row	-10.6537
healthy	-10.6545
▁belie	-10.6561
▁bull	-10.6562
pecialist	-10.6566
▁strength	-10.6566
▁Para	-10.6567
▁facilit	-10.6567
incident	-10.657
ontinue	-10.6572
ontrol	-10.6572
ountain	-10.6572
▁Calcul	-10.6572
ompaq	-10.6577
onscious	-10.658
graphic	-10.6581
rovince	-10.6582
▁Cap	-10.6583
===	-10.6584
▁democra	-10.6585
▁grab	-10.6585
▁vict	-10.6585
▁fundamental	-10.6585
▁ARCHI	-10.6587
▁asymmetric	-10.6587
▁registra	-10.6587
stitute	-10.6587
▁Argentin	-10.6587
▁Provide	-10.6587
▁Richmond	-10.6587
▁SERVICE	-10.6587
▁System	-10.6587
▁Taiwan	-10.6587
▁character	-10.6587
▁consequence	-10.6587
▁devote	-10.6587
▁ingredient	-10.6587
▁knock	-10.6587
▁migrant	-10.6587
▁pocket	-10.6587
▁rescue	-10.6587
▁Barclay	-10.6587
▁dismiss	-10.6587
▁frustrat	-10.6587
▁imprison	-10.6587
▁increasing	-10.6587
▁scream	-10.6587
▁surprising	-10.6587
▁ultimate	-10.6587
▁TIME	-10.6587
▁prize	-10.6587
▁profit	-10.6587
MUNI	-10.6587
▁indefinite	-10.6587
▁steak	-10.6587
▁!!!!!!	-10.6587
▁flavor	-10.6587
▁circular	-10.6587
▁identify	-10.6587
▁farrier	-10.6587
▁trash	-10.6587
▁PRICE	-10.6587
▁demonstrate	-10.6587
▁succeed	-10.6587
delphi	-10.6587
▁concept	-10.6587
▁discourag	-10.6587
▁***	-10.6587
▁Secretary	-10.6587
bul	-10.6587
▁spawn	-10.6587
▁exceed	-10.6587
▁ridicul	-10.6587
3736	-10.6587
▁smell	-10.6587
▁accurate	-10.6587
▁kitchen	-10.6587
▁alarm	-10.6587
▁tactic	-10.6587
▁Foreign	-10.6587
▁conduct	-10.6587
▁_______	-10.6587
▁Short	-10.6587
▁Abdul	-10.6587
▁Ryan	-10.6587
▁Grand	-10.6587
▁congre	-10.6587
▁Friend	-10.6587
▁radical	-10.6587
▁Parm	-10.6587
▁discount	-10.6587
▁dwarf	-10.6588
▁calendar	-10.6588
▁ruin	-10.6588
▁annoy	-10.6588
▁Danny	-10.6588
▁Liber	-10.6588
▁entertain	-10.6588
▁identity	-10.6588
▁Louisian	-10.6588
▁narrow	-10.6588
▁micro	-10.6588
▁blame	-10.6588
▁refund	-10.6588
▁MOR	-10.6588
▁cruel	-10.6589
▁juic	-10.6589
▁subsequent	-10.6589
▁strip	-10.6589
▁Rome	-10.6589
ocol	-10.6589
▁1,	-10.6589
▁instance	-10.6589
▁decor	-10.6589
▁pump	-10.659
▁expla	-10.659
▁failure	-10.659
▁destination	-10.659
▁pound	-10.659
html	-10.659
▁tele	-10.659
▁insert	-10.659
▁seize	-10.659
▁trillion	-10.6591
cious	-10.6591
▁neg	-10.6591
▁pray	-10.6591
▁pursu	-10.6591
▁oh	-10.6591
▁Missi	-10.6591
▁opposit	-10.6591
▁preparation	-10.6592
▁leadership	-10.6592
▁lap	-10.6592
▁rise	-10.6592
▁download	-10.6593
▁Manager	-10.6593
▁science	-10.6593
▁curb	-10.6593
eriod	-10.6593
▁Philip	-10.6594
▁tip	-10.6594
▁protest	-10.6594
▁chain	-10.6595
▁chose	-10.6596
ippi	-10.6596
▁collective	-10.6596
▁Wol	-10.6596
▁operative	-10.6596
onym	-10.6597
▁coz	-10.6597
▁Parisian	-10.6597
▁cock	-10.6598
▁Earl	-10.6598
▁Compaq	-10.6598
▁obligat	-10.66
▁bug	-10.66
▁Marri	-10.66
▁EVERY	-10.66
▁bl	-10.6601
▁Sound	-10.6603
▁Dale	-10.6603
▁pure	-10.6606
▁club	-10.6608
▁rank	-10.6608
toxic	-10.6608
▁Mean	-10.661
▁defend	-10.661
SHE	-10.6611
▁approximate	-10.6611
▁wound	-10.6613
fault	-10.6614
▁retir	-10.6615
▁Var	-10.6616
▁introduc	-10.6617
▁hire	-10.6617
▁historical	-10.6619
▁55	-10.662
▁disease	-10.6622
▁inspir	-10.6622
▁integr	-10.6622
▁signature	-10.6623
▁Moslem	-10.6623
▁Sir	-10.6623
▁default	-10.6625
▁valid	-10.6625
44	-10.6628
▁fold	-10.6628
▁adjustment	-10.663
▁semi	-10.6632
▁Super	-10.6632
rude	-10.6634
oxi	-10.6634
▁Add	-10.6634
▁acupunctur	-10.6635
▁explor	-10.6635
▁Barb	-10.6635
▁?!	-10.6636
mic	-10.6636
▁2:30	-10.6636
▁programme	-10.6639
▁expose	-10.6639
▁setting	-10.6641
IR	-10.6645
EPC	-10.6646
▁PG	-10.6646
▁chir	-10.6648
▁fellow	-10.6652
▁Ball	-10.6654
▁Los	-10.6655
▁36	-10.6656
▁averag	-10.6656
▁Gray	-10.666
▁lad	-10.6661
▁hesitat	-10.6661
▁consult	-10.6662
▁Trust	-10.6666
▁Brad	-10.6667
▁Additional	-10.6667
▁deploy	-10.6668
35	-10.6672
▁GR	-10.6675
oursel	-10.6676
mature	-10.6676
igi	-10.6677
▁Paula	-10.6684
▁essential	-10.6684
▁sky	-10.6685
▁seal	-10.6685
▁luna	-10.6686
▁Jana	-10.6686
▁layer	-10.6688
▁cris	-10.6689
▁Coa	-10.6689
▁tend	-10.6692
▁gar	-10.6692
▁Philippines	-10.6694
▁Light	-10.6702
▁Care	-10.6703
▁Mail	-10.6703
hman	-10.6703
▁76	-10.6704
kri	-10.6707
▁centre	-10.6712
▁Inter	-10.6715
LOI	-10.6716
▁authoriz	-10.6723
ect	-10.6726
▁Mill	-10.6731
▁Satan	-10.6731
▁pinkie	-10.6731
▁bin	-10.6733
▁convince	-10.6735
▁talent	-10.6749
▁Las	-10.6753
off	-10.6755
entic	-10.6758
▁Clim	-10.6761
▁dial	-10.6764
▁Jen	-10.6769
▁Cop	-10.6774
vant	-10.6778
▁wake	-10.6782
▁investigat	-10.6785
▁ignor	-10.6793
▁desire	-10.6795
▁enable	-10.68
▁divers	-10.6801
▁LI	-10.6803
ple	-10.6804
▁Ris	-10.6806
▁assum	-10.6809
▁hu	-10.681
▁planet	-10.6811
▁ma	-10.6818
sonic	-10.6822
5/200	-10.6839
▁Mil	-10.6846
▁Clin	-10.6853
▁environmental	-10.6867
▁chap	-10.6868
explore	-10.6875
oshi	-10.6879
▁RI	-10.6893
RC	-10.6894
▁GI	-10.6902
▁Pew	-10.6904
▁Works	-10.6905
,000,000	-10.6917
▁Pers	-10.6923
▁Bran	-10.6938
▁photos	-10.6943
▁joint	-10.6952
▁propos	-10.6953
▁tre	-10.6968
cher	-10.6969
▁continu	-10.698
per	-10.7016
▁Shann	-10.7021
times	-10.703
▁craft	-10.7041
▁comb	-10.7045
▁Age	-10.7046
▁Kee	-10.7052
▁goals	-10.7057
▁wan	-10.7068
astic	-10.707
▁Bend	-10.7089
lor	-10.7091
▁Hub	-10.7101
▁poster	-10.711
overt	-10.7114
cc	-10.7121
▁02	-10.7126
▁reputa	-10.7128
▁Sand	-10.7129
olla	-10.7129
▁cr	-10.714
▁que	-10.7145
09	-10.7146
raig	-10.7146
unch	-10.7158
mbali	-10.717
▁WH	-10.7173
▁applie	-10.7189
the	-10.7193
AGE	-10.7205
ane	-10.7209
88	-10.7221
15	-10.7222
▁sold	-10.7226
▁meter	-10.7246
▁fl	-10.7251
▁Sid	-10.7253
▁Fee	-10.7255
nce	-10.7266
▁fam	-10.7273
enni	-10.7273
ura	-10.7295
▁primar	-10.73
CATION	-10.7307
▁Harr	-10.7316
GE	-10.7316
▁Ay	-10.7347
till	-10.7364
ments	-10.7368
cus	-10.7388
▁citizens	-10.7399
▁Ex	-10.7402
▁Dub	-10.7431
lf	-10.7433
▁produc	-10.7435
:32	-10.7436
ged	-10.7443
gg	-10.7448
▁YE	-10.7462
▁reviewer	-10.7463
kly	-10.7474
VA	-10.7482
asis	-10.7488
▁45	-10.7503
.2	-10.7507
ka	-10.7507
mbo	-10.7513
2001	-10.7523
▁eliminate	-10.7531
▁Chan	-10.7534
vi	-10.7536
▁comfort	-10.7537
lation	-10.7538
▁WHE	-10.754
gation	-10.7562
▁Os	-10.7581
▁Da	-10.7581
ev	-10.7588
▁Cli	-10.7599
▁surviv	-10.7606
▁Turk	-10.7606
what	-10.7614
ace	-10.7615
hin	-10.7621
▁Thu	-10.7628
▁probab	-10.7634
▁Cam	-10.7656
▁cure	-10.7686
▁author	-10.7687
▁abs	-10.7705
lause	-10.7707
now	-10.7714
▁bust	-10.7721
▁pe	-10.7727
▁LA	-10.7729
▁90	-10.7735
lly	-10.7767
▁revise	-10.7768
▁Medi	-10.7772
▁ST	-10.7784
▁34	-10.7785
▁initiate	-10.7801
▁complet	-10.7809
dan	-10.7819
▁experiences	-10.7829
94	-10.7848
▁offering	-10.7863
▁compare	-10.7873
▁aim	-10.7876
▁constructi	-10.7882
▁primari	-10.7895
abilit	-10.7903
20	-10.7908
▁Law	-10.7914
li	-10.7932
her	-10.7937
▁raci	-10.7938
▁Pr	-10.7948
▁Develop	-10.795
nan	-10.7963
udi	-10.7964
▁35	-10.7982
▁UN	-10.7993
orn	-10.7993
▁Arabi	-10.8026
ump	-10.803
▁taxe	-10.8045
120	-10.8048
BLE	-10.8053
ANT	-10.8062
▁WA	-10.8077
ambit	-10.8086
▁Ted	-10.8092
ifi	-10.81
▁Tr	-10.8109
ction	-10.8116
=	-10.8125
▁MA	-10.8125
▁CR	-10.8127
▁accident	-10.813
▁compensat	-10.8139
VE	-10.8159
▁mm	-10.8167
els	-10.8186
hurch	-10.8193
▁Cu	-10.8198
62	-10.8211
▁photo	-10.8211
▁Work	-10.8212
▁33	-10.8225
▁improve	-10.8233
quarter	-10.8233
▁strange	-10.8236
47	-10.8237
stream	-10.8244
code	-10.8249
▁Mac	-10.8249
blog	-10.8253
RI	-10.8254
Jones	-10.8256
ribb	-10.8256
field	-10.8256
▁sw	-10.826
box	-10.8261
pool	-10.8261
lio	-10.8262
place	-10.8271
wide	-10.8272
▁smok	-10.8272
▁LOC	-10.8274
▁pot	-10.829
▁09:	-10.8294
▁Manso	-10.8297
▁BU	-10.8301
avig	-10.8306
▁Kind	-10.8307
hes	-10.8308
cation	-10.8313
ria	-10.8313
legal	-10.8313
06	-10.8321
▁BA	-10.8326
▁multi	-10.8332
coal	-10.8339
▁Bil	-10.8345
iya	-10.8347
16	-10.835
▁sole	-10.8373
fall	-10.8374
▁cit	-10.8388
ott	-10.8405
ttorney	-10.8421
▁Bi	-10.8439
▁Real	-10.8449
▁secret	-10.8454
void	-10.8463
zi	-10.8465
▁Travel	-10.848
▁ro	-10.848
ization	-10.8482
▁exam	-10.8486
▁patien	-10.8489
itary	-10.8503
▁buil	-10.8515
gun	-10.8517
▁Off	-10.8537
▁reduc	-10.8539
HC	-10.8541
PA	-10.8545
▁Ten	-10.8546
▁object	-10.8553
▁GRE	-10.856
▁occur	-10.8561
▁Sala	-10.8565
▁corre	-10.8568
omprehensi	-10.8569
▁Rob	-10.857
nformation	-10.8576
▁react	-10.8576
ON	-10.8578
4/200	-10.8578
▁plot	-10.8582
enovat	-10.8582
▁auth	-10.8583
ospital	-10.8584
sex	-10.8586
▁sympath	-10.8586
/25/200	-10.8586
▁spirit	-10.8586
eligious	-10.8586
iqui	-10.8587
▁prosecut	-10.8587
believabl	-10.8587
▁Absolute	-10.8587
▁Appropriations	-10.8587
▁Bangladesh	-10.8587
▁District	-10.8587
▁Jamaica	-10.8587
▁Montgomery	-10.8587
▁Program	-10.8587
▁Venezuela	-10.8587
▁Yahoo	-10.8587
▁accumulat	-10.8587
▁advantage	-10.8587
▁controvers	-10.8587
▁fabulous	-10.8587
▁lifeboat	-10.8587
▁principle	-10.8587
▁scholars	-10.8587
▁HIGH	-10.8587
▁Rachel	-10.8587
▁circulate	-10.8587
▁debate	-10.8587
▁laundr	-10.8587
▁monitor	-10.8587
▁pattern	-10.8587
▁reimburs	-10.8587
▁scratch	-10.8587
▁silver	-10.8587
▁symbol	-10.8587
▁Fuel	-10.8587
▁Management	-10.8587
▁PERE	-10.8587
▁penalt	-10.8587
▁adapt	-10.8587
▁Africa	-10.8587
▁Design	-10.8587
▁Percell	-10.8587
▁universal	-10.8587
▁explosive	-10.8587
▁speech	-10.8587
▁strict	-10.8587
▁veteran	-10.8587
▁Kuwait	-10.8587
▁shelter	-10.8587
▁Fusion	-10.8587
▁defeat	-10.8587
▁jerk	-10.8587
▁Moore	-10.8587
▁disrupt	-10.8587
▁uniform	-10.8587
▁silent	-10.8587
▁mineral	-10.8587
yndham	-10.8587
▁Abb	-10.8587
▁thorough	-10.8587
▁reptile	-10.8587
▁concert	-10.8587
▁excuse	-10.8587
▁deteriorat	-10.8587
▁Type	-10.8587
▁shock	-10.8587
▁poison	-10.8587
▁ab	-10.8587
▁absorb	-10.8587
▁saving	-10.8587
▁reject	-10.8587
▁forecast	-10.8587
▁solve	-10.8587
▁smuggl	-10.8587
▁Polic	-10.8587
▁awful	-10.8587
htm	-10.8587
▁rapid	-10.8587
▁Min	-10.8587
▁legislat	-10.8587
▁empt	-10.8587
▁neighbourhood	-10.8587
▁tension	-10.8587
▁diagnose	-10.8587
▁timing	-10.8588
▁guerrilla	-10.8588
▁crop	-10.8588
▁addict	-10.8588
▁unemploy	-10.8588
erkeley	-10.8588
▁renew	-10.8588
▁Happ	-10.8588
▁divid	-10.8588
▁habitat	-10.8588
▁Network	-10.8588
yahoo	-10.8588
▁Angel	-10.8588
▁sister	-10.8588
▁Alito	-10.8588
▁Frank	-10.8588
▁replie	-10.8588
▁McG	-10.8588
▁Sullivan	-10.8588
▁Equi	-10.8589
▁conclusion	-10.8589
▁adher	-10.8589
▁kick	-10.8589
▁Limit	-10.8589
▁newspaper	-10.8589
▁instant	-10.8589
▁description	-10.8589
▁sensor	-10.8589
▁accommodation	-10.8589
▁sudden	-10.8589
▁WHO	-10.8589
▁boot	-10.8589
▁merit	-10.859
▁boast	-10.859
▁auto	-10.859
▁Grill	-10.859
▁notifi	-10.859
▁loot	-10.859
▁Brown	-10.859
▁chew	-10.859
▁flee	-10.859
dental	-10.8591
▁isolat	-10.8591
BAL	-10.8591
▁rumor	-10.8591
▁resort	-10.8591
▁Murph	-10.8591
▁Eastern	-10.8591
▁haha	-10.8592
▁cafe	-10.8592
▁Leigh	-10.8592
▁hunt	-10.8592
▁GA	-10.8592
▁leak	-10.8592
▁haul	-10.8593
▁unlike	-10.8593
▁assess	-10.8593
▁roof	-10.8593
▁feather	-10.8593
kii	-10.8593
▁swap	-10.8594
▁jur	-10.8594
▁Walk	-10.8594
▁chor	-10.8594
▁Que	-10.8595
▁sentence	-10.8595
pologize	-10.8595
▁highlight	-10.8596
▁deny	-10.8596
▁revenue	-10.8596
940	-10.8596
▁Back	-10.8597
▁gang	-10.8597
▁angel	-10.8597
▁Patty	-10.8598
▁Baba	-10.8598
▁peaceful	-10.8599
▁Forster	-10.8599
▁Bang	-10.8599
▁delight	-10.8599
nut	-10.86
▁dozen	-10.86
▁strik	-10.86
▁bike	-10.86
▁100,000	-10.86
▁Jean	-10.8601
▁domin	-10.8601
▁expression	-10.8602
▁bright	-10.8602
▁float	-10.8602
▁Thai	-10.8603
▁NW	-10.8603
testimony	-10.8603
▁pretend	-10.8604
nning	-10.8604
▁proposal	-10.8606
▁overwhelming	-10.8606
▁curren	-10.8606
▁conscious	-10.8606
tenant	-10.8607
▁Roll	-10.861
▁2006	-10.861
dominant	-10.861
▁Question	-10.8611
▁spell	-10.8611
▁tribe	-10.8611
static	-10.8612
▁bottle	-10.8612
▁Space	-10.8612
▁lobby	-10.8612
ISI	-10.8612
▁.......	-10.8612
▁objection	-10.8614
▁shame	-10.8615
▁wang	-10.8616
▁fabric	-10.8618
▁paw	-10.8618
▁Intelligence	-10.8618
▁stall	-10.8619
▁Senator	-10.8619
▁motion	-10.8619
▁acr	-10.8621
▁specialist	-10.8621
▁edit	-10.8621
▁68	-10.8623
▁admit	-10.8623
▁Agr	-10.8625
lgar	-10.8627
▁fashion	-10.8631
▁convention	-10.8631
▁priest	-10.8631
▁Further	-10.8633
▁Opera	-10.8633
index	-10.8637
▁Islamist	-10.8638
▁biologi	-10.8638
▁mosque	-10.8639
▁reaction	-10.8642
marry	-10.8644
▁Jew	-10.8645
▁neat	-10.8645
▁root	-10.8645
▁compari	-10.8645
ham	-10.8646
▁Rule	-10.8646
▁Bow	-10.8652
▁envelope	-10.8654
Speak	-10.866
▁consideration	-10.8661
▁bur	-10.8661
▁dig	-10.8664
▁Nail	-10.8666
▁apart	-10.8666
▁reconcil	-10.8672
▁publication	-10.8673
obil	-10.8674
▁convenient	-10.8675
▁tasting	-10.8677
▁commander	-10.868
▁caps	-10.868
▁soul	-10.8681
▁overse	-10.8682
▁List	-10.8685
arian	-10.8687
▁joke	-10.8691
▁abuse	-10.8691
▁extensi	-10.8691
▁Release	-10.8694
▁rear	-10.8696
▁FA	-10.8698
▁OVER	-10.8708
▁DSL	-10.8709
▁Travell	-10.8714
▁Mur	-10.8714
▁Pop	-10.8714
▁bondad	-10.8718
▁345-	-10.8723
name	-10.8724
▁Perv	-10.8724
▁tail	-10.8737
math	-10.8744
▁mold	-10.8754
▁stu	-10.8755
▁Virg	-10.8756
▁foreigner	-10.8759
▁scary	-10.8761
DG	-10.8762
▁rele	-10.8766
▁Rod	-10.877
▁STAR	-10.8776
▁baker	-10.8778
quest	-10.8778
▁proceeding	-10.8781
lawi	-10.8794
▁chase	-10.8802
▁launcher	-10.8803
▁buck	-10.8805
▁Ali	-10.8806
▁Though	-10.8811
▁urge	-10.8812
▁para	-10.8815
MAN	-10.8815
▁signal	-10.8822
▁Form	-10.8824
lem	-10.8836
▁Hor	-10.8839
▁button	-10.885
▁Ellis	-10.8854
▁consumer	-10.8854
▁74	-10.8858
▁Char	-10.8861
▁Financ	-10.8862
RV	-10.8873
Civet	-10.8875
▁collected	-10.8875
▁Current	-10.8875
ette	-10.8881
▁latte	-10.8883
ator	-10.8888
▁speaker	-10.8893
ki	-10.8901
▁Bad	-10.8904
▁Laur	-10.8914
▁Bas	-10.8919
▁Hami	-10.8927
ja	-10.8931
▁Lim	-10.8937
hange	-10.8937
▁Hind	-10.8939
▁quarter	-10.8953
▁improv	-10.8953
▁Infinit	-10.8954
pers	-10.896
ocation	-10.897
7.	-10.8973
LIN	-10.8975
lick	-10.898
▁identifie	-10.8985
▁evident	-10.8986
▁smoke	-10.8986
▁intention	-10.8988
▁47	-10.8993
key	-10.9004
▁Dai	-10.9017
▁Giv	-10.9023
▁gener	-10.9032
▁Need	-10.9033
own	-10.9033
/27/200	-10.9045
pping	-10.9047
▁ten	-10.9049
▁29	-10.9051
▁Bre	-10.9056
▁Buy	-10.9058
achi	-10.9061
rab	-10.9064
▁04:1	-10.907
▁Ever	-10.9092
▁examin	-10.91
▁dep	-10.91
bra	-10.9104
▁aid	-10.9105
--------	-10.911
rete	-10.9115
▁interviewer	-10.9119
▁Hoo	-10.9121
ole	-10.9125
▁height	-10.9125
mike	-10.9137
omin	-10.9147
▁disclose	-10.915
▁provider	-10.9154
▁marked	-10.9165
gi	-10.9166
▁movements	-10.917
▁noon	-10.9179
▁stepp	-10.9181
▁calculat	-10.919
▁Prices	-10.9191
/16/200	-10.9201
wn	-10.9203
torm	-10.9219
ue	-10.9225
▁gate	-10.9226
▁founder	-10.9227
zz	-10.9229
▁wash	-10.9237
iling	-10.9246
▁flu	-10.9248
▁cleaner	-10.926
▁arrange	-10.9261
▁concentrat	-10.9286
ends	-10.9288
▁sla	-10.9303
50	-10.9309
▁somewh	-10.9317
lett	-10.9327
57	-10.9327
ID	-10.9333
ound	-10.9339
RAC	-10.9341
6:00	-10.9356
▁Pro	-10.9359
uce	-10.9367
▁Phy	-10.9391
ngle	-10.9404
▁plays	-10.9408
ric	-10.9418
▁Had	-10.9419
▁fanc	-10.9422
▁supporter	-10.9422
mmy	-10.943
CU	-10.9431
elect	-10.9433
agan	-10.945
king	-10.9476
▁broker	-10.9477
▁Bar	-10.9495
▁Win	-10.9495
▁doors	-10.9502
▁FR	-10.9507
▁wid	-10.952
▁56	-10.9527
plan	-10.9592
▁pipe	-10.9594
old	-10.9594
▁Lyn	-10.9604
▁visib	-10.9617
▁Pl	-10.9637
umara	-10.9643
nted	-10.9658
▁HE	-10.9661
▁hal	-10.9663
inia	-10.9671
▁Hill	-10.9675
USE	-10.9677
▁dine	-10.9686
>	-10.9687
842	-10.9693
▁Lea	-10.9694
ana	-10.9698
▁tea	-10.9704
▁Grac	-10.9705
▁announc	-10.9708
▁accus	-10.972
▁10:5	-10.9724
enny	-10.974
br	-10.9741
mayur	-10.9751
▁EN	-10.9788
▁Fan	-10.9791
▁accuse	-10.9799
▁Tur	-10.9803
▁646-	-10.9813
ange	-10.9828
▁announce	-10.9832
egg	-10.9852
ap	-10.9852
/03/200	-10.9858
▁Cre	-10.9877
▁sample	-10.9879
▁considerabl	-10.9883
AU	-10.9884
erson	-10.9889
DEC	-10.9909
▁Bri	-10.9909
lla	-10.9933
▁Ve	-10.9934
85	-10.9934
▁schedul	-10.995
/01/200	-10.9958
36	-10.9973
▁IN	-10.9977
▁250	-10.9983
scal	-10.9984
olf	-11.0008
ommunist	-11.0013
MA	-11.0016
▁415	-11.0016
▁bu	-11.004
▁winn	-11.0041
▁spo	-11.0053
▁04:	-11.0107
▁radi	-11.0125
▁Only	-11.0131
oul	-11.0143
mini	-11.0144
▁Cra	-11.0158
oper	-11.0174
▁Tenn	-11.0179
pur	-11.0197
▁Pur	-11.0205
cho	-11.022
cular	-11.0236
NLI	-11.0238
exp	-11.024
OP	-11.0256
▁shar	-11.0269
▁dresse	-11.0277
▁sum	-11.0297
46	-11.0318
▁propert	-11.0324
▁SU	-11.0325
leading	-11.0342
▁Wonder	-11.0345
/16/	-11.035
mber	-11.036
82	-11.0365
▁rac	-11.0365
▁je	-11.0367
gh	-11.0379
:14	-11.0392
ST	-11.0399
▁Va	-11.042
▁Wall	-11.0422
▁Lu	-11.0446
effe	-11.0448
▁Act	-11.0455
▁3.	-11.0467
▁lea	-11.0482
▁El	-11.0484
gus	-11.0488
▁fro	-11.049
ano	-11.0492
▁quot	-11.0502
rk	-11.0505
OA	-11.052
▁Hall	-11.0542
49	-11.0552
▁ARE	-11.0557
ark	-11.0564
ang	-11.0568
oud	-11.0606
▁20,000	-11.063
ancy	-11.0631
▁vot	-11.0632
POS	-11.064
▁destructi	-11.0648
▁Shu	-11.0653
cca	-11.0664
▁pi	-11.0667
▁reccom	-11.0667
tial	-11.0675
him	-11.0701
odd	-11.0705
ential	-11.0707
hear	-11.0708
ference	-11.0715
ked	-11.0716
▁ENE	-11.0719
▁Wild	-11.0721
ester	-11.0721
▁prop	-11.0733
▁Regard	-11.0736
comfort	-11.074
▁Em	-11.0741
broad	-11.0749
▁rul	-11.0751
▁crit	-11.0753
▁tradition	-11.0754
spring	-11.0754
wear	-11.076
consider	-11.0765
power	-11.0767
week	-11.0772
▁desir	-11.0773
▁cutt	-11.0782
▁condo	-11.0794
010	-11.0797
▁crim	-11.0814
phone	-11.0829
hal	-11.0832
▁scare	-11.0837
stan	-11.0838
addle	-11.0856
▁convinc	-11.0859
▁pink	-11.0864
▁PR	-11.0868
▁LO	-11.088
AST	-11.0882
▁court	-11.089
loss	-11.0893
KED	-11.0896
news	-11.0897
source	-11.0902
PR	-11.0903
▁Gen	-11.0919
SS	-11.092
curr	-11.0923
mazing	-11.0927
▁prim	-11.0929
▁google	-11.0931
39	-11.0948
ack	-11.0959
mi	-11.0964
▁bou	-11.0965
▁appropriat	-11.0965
ampa	-11.0969
sort	-11.0974
▁temp	-11.0979
▁surve	-11.0979
hief	-11.0979
▁lope	-11.0982
▁expir	-11.0984
raz	-11.0996
▁verif	-11.1021
Comm	-11.1021
ardo	-11.1021
24	-11.1035
▁11/0	-11.1036
▁07:	-11.1039
▁SS	-11.1048
▁43	-11.1049
mem	-11.1049
▁Tel	-11.1055
ival	-11.1058
▁educat	-11.1059
▁Trav	-11.1062
ario	-11.1071
▁Michel	-11.1076
ience	-11.1078
ector	-11.1079
▁fri	-11.1081
rish	-11.1081
ology	-11.1082
reakfast	-11.1084
ENI	-11.1084
▁liq	-11.1084
mmuniti	-11.1086
cific	-11.1086
Leopold	-11.1087
▁Representati	-11.1087
▁kilomet	-11.1087
FINAL	-11.1087
▁202.456.1	-11.1087
▁apprehensi	-11.1087
▁vulnerab	-11.1087
automatic	-11.1087
▁Application	-11.1087
▁Christopher	-11.1087
▁Experience	-11.1087
▁HORRIBLE	-11.1087
▁Hubbard	-11.1087
▁Kaminski	-11.1087
▁Kaufman	-11.1087
▁Microsoft	-11.1087
▁Norwegian	-11.1087
▁Packard	-11.1087
▁Pennsylvania	-11.1087
▁Rosalee	-11.1087
▁adequate	-11.1087
▁aggravat	-11.1087
▁colleague	-11.1087
▁compliment	-11.1087
▁corporation	-11.1087
▁deregulat	-11.1087
▁distinguish	-11.1087
▁giraffe	-11.1087
▁grateful	-11.1087
▁hijacker	-11.1087
▁inevitabl	-11.1087
▁precise	-11.1087
▁recieve	-11.1087
▁regulation	-11.1087
▁sculpt	-11.1087
▁struggl	-11.1087
▁unexpected	-11.1087
▁vegetable	-11.1087
ElPaso	-11.1087
▁Alexand	-11.1087
▁DEAL	-11.1087
▁Marianne	-11.1087
▁Visualiz	-11.1087
▁budgie	-11.1087
▁contradict	-11.1087
▁scoop	-11.1087
▁Belgi	-11.1087
▁Follow	-11.1087
▁desperate	-11.1087
▁distinct	-11.1087
▁neurolog	-11.1087
▁punish	-11.1087
▁substance	-11.1087
▁trigger	-11.1087
▁06/01/200	-11.1087
▁Daniel	-11.1087
▁volunteer	-11.1087
▁Dallas	-11.1087
▁Malaysia	-11.1087
▁advertis	-11.1087
▁713-654-	-11.1087
▁censor	-11.1087
▁collapse	-11.1087
▁dream	-11.1087
▁frighten	-11.1087
▁Pioneer	-11.1087
▁hibernat	-11.1087
▁patron	-11.1087
▁Answer	-11.1087
▁nutri	-11.1087
▁eligib	-11.1087
▁flakes	-11.1087
8-7	-11.1087
▁Steak	-11.1087
▁database	-11.1087
▁postpone	-11.1087
▁channel	-11.1087
▁extraordinar	-11.1087
▁Help	-11.1087
▁Garcia	-11.1087
▁migrate	-11.1087
▁zoo	-11.1087
▁Link	-11.1087
▁resolution	-11.1087
▁Cross	-11.1087
▁Bosnia	-11.1087
▁abandon	-11.1087
EXA	-11.1087
▁freight	-11.1087
:39:	-11.1087
▁shoot	-11.1087
▁AMAZING	-11.1087
▁Electric	-11.1087
▁crack	-11.1087
▁overflow	-11.1087
▁atroph	-11.1087
▁dentist	-11.1087
nvoy	-11.1087
▁Abd	-11.1087
ordstrom	-11.1087
▁harsh	-11.1087
▁Circ	-11.1087
▁withdraw	-11.1087
▁exhibit	-11.1087
▁trademark	-11.1087
▁delicate	-11.1087
▁cousin	-11.1087
▁Express	-11.1087
▁scammer	-11.1087
▁python	-11.1087
870	-11.1087
▁Clean	-11.1087
▁Description	-11.1087
▁WAIT	-11.1087
▁Contract	-11.1087
▁curtain	-11.1088
ykman	-11.1088
▁length	-11.1088
▁northeast	-11.1088
▁revolution	-11.1088
▁shift	-11.1088
▁scene	-11.1088
.782	-11.1088
▁incompeten	-11.1088
▁EGM	-11.1088
▁Little	-11.1088
▁Roger	-11.1088
jpg	-11.1088
▁household	-11.1088
▁accent	-11.1088
▁Personal	-11.1088
▁device	-11.1088
▁Levi	-11.1088
▁resident	-11.1088
▁motor	-11.1088
▁epi	-11.1088
▁intuitive	-11.1088
▁aggressive	-11.1088
▁Crim	-11.1089
▁Assistan	-11.1089
▁spoil	-11.1089
▁16.3	-11.1089
▁Swift	-11.1089
▁Radi	-11.1089
▁Revolution	-11.1089
ecruit	-11.1089
6939	-11.1089
▁superior	-11.1089
▁CAME	-11.1089
▁Gonzales	-11.1089
▁Visa	-11.1089
▁!!!!!	-11.1089
▁grandmother	-11.1089
▁spike	-11.1089
▁grind	-11.1089
▁jack	-11.109
▁liberal	-11.109
▁Tollis	-11.109
▁Balochi	-11.109
pdf	-11.109
▁Democrat	-11.109
▁universit	-11.109
▁Room	-11.109
▁Hmmm	-11.109
▁embass	-11.109
▁polite	-11.109
▁NEW	-11.109
shire	-11.109
▁Jacob	-11.1091
▁superb	-11.1091
▁Chick	-11.1091
▁unfortunate	-11.1091
▁rebel	-11.1091
▁declar	-11.1091
▁fyi	-11.1091
▁overcharge	-11.1091
▁cabinet	-11.1091
▁Support	-11.1091
▁Auto	-11.1091
▁01/19/	-11.1092
!!!!!!!!!!!!!!!!	-11.1092
▁flash	-11.1092
▁TRY	-11.1092
▁remark	-11.1092
▁bask	-11.1092
▁sharp	-11.1092
witz	-11.1092
5-02	-11.1092
▁collage	-11.1092
.71	-11.1092
▁groom	-11.1093
▁politician	-11.1093
▁Nancy	-11.1093
▁faithful	-11.1093
▁trap	-11.1093
▁keen	-11.1094
▁iron	-11.1094
▁discre	-11.1094
▁gda	-11.1094
▁Horrible	-11.1094
apor	-11.1094
▁respectful	-11.1094
gov	-11.1094
▁clock	-11.1094
lar	-11.1095
▁Customer	-11.1095
▁executive	-11.1095
▁HOW	-11.1095
▁optim	-11.1096
▁jaw	-11.1096
▁glass	-11.1096
▁Sacr	-11.1096
▁grabb	-11.1096
▁spore	-11.1096
▁thankful	-11.1096
ruit	-11.1097
▁civilian	-11.1097
▁alert	-11.1098
▁Sub	-11.1099
▁Shri	-11.1099
▁temple	-11.1099
unga	-11.1099
▁GW	-11.11
▁contribution	-11.11
▁mild	-11.11
▁combine	-11.11
▁CST	-11.11
▁loud	-11.11
▁blackline	-11.11
river	-11.1101
SHI	-11.1101
▁scrap	-11.1101
▁funeral	-11.1101
▁Lab	-11.1102
▁Proposal	-11.1102
▁square	-11.1102
▁sympathizer	-11.1102
▁outlet	-11.1103
▁Eric	-11.1103
▁Gov	-11.1103
▁explode	-11.1103
▁smile	-11.1103
▁Robbi	-11.1104
▁scam	-11.1104
▁Disp	-11.1104
▁reschedul	-11.1105
ulous	-11.1105
▁earthquake	-11.1105
nch	-11.1106
▁respective	-11.1106
ign	-11.1109
▁offend	-11.1109
▁Shady	-11.111
▁Water	-11.1112
inni	-11.1113
▁Ope	-11.1113
▁spur	-11.1113
▁PST	-11.1113
onald	-11.1114
otic	-11.1114
▁Walker	-11.1115
▁forbid	-11.1115
▁Report	-11.1116
▁stole	-11.1116
▁modif	-11.1116
▁Noble	-11.1116
▁wire	-11.1118
▁topic	-11.1118
▁belt	-11.1119
ograph	-11.1119
▁spin	-11.112
▁deck	-11.112
▁gentle	-11.1121
etail	-11.1121
▁1.5	-11.1121
IC	-11.1122
▁Labor	-11.1123
▁battle	-11.1124
▁Trad	-11.1124
▁NEP	-11.1124
▁quiz	-11.1125
▁ranch	-11.1125
precede	-11.1126
▁coupon	-11.1127
▁10,000	-11.1127
osario	-11.1128
shore	-11.1128
▁gre	-11.1128
bine	-11.1129
▁libert	-11.1132
▁Turn	-11.1132
▁MK	-11.1134
▁BO	-11.1134
▁outcome	-11.1134
922	-11.1135
▁ego	-11.1136
▁hint	-11.1136
ecker	-11.1138
▁Gold	-11.1138
▁soup	-11.1138
pid	-11.1139
▁SW	-11.114
eopard	-11.114
▁plate	-11.114
▁advisor	-11.1141
▁Max	-11.1141
▁Find	-11.1143
AIL	-11.1143
▁gap	-11.1145
▁Meeting	-11.1146
▁sexual	-11.1146
▁dramatic	-11.1146
▁Think	-11.1147
▁gallery	-11.1148
▁fries	-11.1149
▁conservative	-11.1149
rocket	-11.1149
▁diar	-11.115
▁teeth	-11.115
▁Liz	-11.115
▁panic	-11.1152
▁Kath	-11.1153
▁bond	-11.1153
▁colon	-11.1153
▁dys	-11.1155
▁perceiv	-11.1155
▁impression	-11.1157
▁owe	-11.1158
rising	-11.1159
▁AW	-11.1159
▁Worker	-11.1159
▁NC	-11.1162
▁Van	-11.1162
▁label	-11.1162
▁Was	-11.1164
▁FY	-11.1165
minate	-11.117
ullen	-11.1172
▁vest	-11.1172
9/200	-11.1177
▁fuss	-11.118
CC	-11.118
▁Baff	-11.1184
ament	-11.1184
istani	-11.1184
▁weird	-11.1186
ERS	-11.1186
▁spice	-11.1187
▁bankruptc	-11.1188
pot	-11.119
ado	-11.1191
vern	-11.1196
▁Cure	-11.1196
actions	-11.1197
▁transferr	-11.1198
-------------	-11.12
▁bal	-11.1201
▁preferr	-11.1203
▁scent	-11.1203
▁gathering	-11.1203
▁!?	-11.1211
▁engineer	-11.1212
▁edge	-11.1212
cari	-11.1216
▁cop	-11.1217
lton	-11.122
-6	-11.1222
▁container	-11.1225
▁Money	-11.1227
▁Night	-11.1227
▁USD	-11.1227
▁skin	-11.1228
OUT	-11.1229
?!?	-11.123
▁native	-11.123
▁entre	-11.1231
▁Up	-11.1232
▁53	-11.1236
▁dire	-11.1237
rist	-11.124
ilot	-11.124
▁Set	-11.1242
▁Jr	-11.1242
doo	-11.1244
▁tar	-11.1245
ville	-11.1247
▁Pet	-11.1248
▁pixel	-11.1248
▁definition	-11.1254
▁confuse	-11.1258
cast	-11.1258
▁fell	-11.1263
▁infect	-11.1264
Unitary	-11.1268
▁Gla	-11.127
▁eight	-11.1272
▁Administrati	-11.1274
▁Steven	-11.1276
ggl	-11.1277
▁rubb	-11.128
▁281-4	-11.1282
bbe	-11.1286
▁ador	-11.1288
ounding	-11.1288
ept	-11.1288
▁desp	-11.1289
▁LIKE	-11.1292
▁Dow	-11.1294
▁Highl	-11.1294
creat	-11.1295
▁audio	-11.1296
roll	-11.1296
weaponize	-11.1296
3/200	-11.1296
▁AA	-11.1297
▁tap	-11.1301
▁spine	-11.1304
▁logic	-11.1309
▁essen	-11.1311
▁compel	-11.1314
▁fur	-11.132
▁Carolin	-11.1321
droom	-11.1322
▁roman	-11.1322
▁master	-11.1324
xpect	-11.1324
OFF	-11.1331
wer	-11.134
▁corresponden	-11.1342
▁spay	-11.1354
▁im	-11.1356
▁hum	-11.1356
▁contractor	-11.1361
ail	-11.1362
▁Bit	-11.1365
▁blan	-11.1368
▁conclude	-11.1368
rance	-11.1373
▁lbs	-11.1378
▁financ	-11.1383
▁11:3	-11.1385
▁maint	-11.1386
▁predict	-11.1388
TEN	-11.1392
NK	-11.1394
▁6.	-11.1396
ingham	-11.1398
▁fift	-11.1402
▁paste	-11.1405
▁09:4	-11.1424
▁farm	-11.1429
▁ruler	-11.1435
▁42	-11.1438
bru	-11.1443
▁traveler	-11.1444
pher	-11.1445
▁enc	-11.1447
▁theater	-11.1447
english	-11.1452
▁Rate	-11.1463
arge	-11.1465
▁core	-11.1486
▁Word	-11.1489
▁equ	-11.1501
corn	-11.1502
ving	-11.1505
▁Roy	-11.1508
▁becom	-11.151
▁01:5	-11.1523
▁mon	-11.1525
00.	-11.1543
▁Qua	-11.1551
▁invoic	-11.1552
BM	-11.1561
egon	-11.1562
bek	-11.1568
▁shad	-11.1573
▁Plant	-11.1575
▁suppl	-11.1581
▁___________	-11.1583
▁combat	-11.1586
atisfactory	-11.1595
6933	-11.1599
▁Sah	-11.1604
▁Kurd	-11.1605
▁zi	-11.1608
▁Carri	-11.1621
▁Propos	-11.1625
▁Ask	-11.1636
▁EES	-11.1642
▁imm	-11.1643
▁pee	-11.1649
rice	-11.1659
erform	-11.1659
like	-11.1666
▁Sat	-11.1667
▁heav	-11.1679
▁Lot	-11.1686
erivative	-11.1697
2009	-11.1701
umn	-11.1701
ahar	-11.1702
▁accidental	-11.1704
nia	-11.171
▁Entr	-11.1711
ayment	-11.1716
ails	-11.1719
count	-11.1719
Tub	-11.1725
chi	-11.1729
▁Termina	-11.1739
▁coat	-11.174
▁Ye	-11.1747
▁11:0	-11.1751
ellow	-11.1752
▁manufactur	-11.177
▁BS	-11.1774
night	-11.1788
oral	-11.1805
UV	-11.1809
▁occasional	-11.1811
▁wis	-11.1811
▁inno	-11.1812
▁lett	-11.1813
NER	-11.1818
▁define	-11.1839
▁terminat	-11.184
▁Mad	-11.184
auce	-11.1846
alliance	-11.1846
▁Oka	-11.1857
▁acquire	-11.186
lamp	-11.1864
och	-11.1872
▁Loo	-11.1885
BS	-11.1891
elpe	-11.1897
▁79	-11.1901
Internet	-11.1904
▁abou	-11.1905
ade	-11.1907
▁bodi	-11.1928
uts	-11.1932
dg	-11.195
▁ED	-11.1951
OLY	-11.1955
200	-11.1955
yatt	-11.1964
nstead	-11.1965
mark	-11.1966
▁publishe	-11.1969
▁Ital	-11.197
▁Falls	-11.1985
▁Francis	-11.1993
▁Devi	-11.2016
▁Sale	-11.2017
aragraph	-11.2034
▁reassure	-11.2039
▁Fo	-11.204
DB	-11.2042
▁Ran	-11.2048
/17/	-11.2058
▁Gra	-11.2058
▁brow	-11.2064
ogic	-11.2069
▁shu	-11.2083
710	-11.2091
cale	-11.2091
het	-11.21
143	-11.2109
onic	-11.2111
love	-11.2121
▁Exi	-11.2143
erce	-11.2146
▁stab	-11.2151
7-1.	-11.2153
nic	-11.2158
▁forum	-11.2166
ntana	-11.2171
▁158	-11.2171
ES	-11.2174
ode	-11.2192
▁j	-11.2203
▁rely	-11.2206
▁713-853-	-11.2208
ATE	-11.2211
▁Broo	-11.2227
poly	-11.2229
▁Vict	-11.2231
pair	-11.2238
cot	-11.2249
eath	-11.225
▁Barn	-11.2257
▁trainer	-11.2302
▁Car	-11.2302
sure	-11.2304
igh	-11.2305
rap	-11.2331
▁priorit	-11.234
▁economical	-11.2353
▁Heal	-11.2355
▁Laun	-11.2373
ju	-11.2382
▁THA	-11.2387
▁Use	-11.2391
lute	-11.2396
▁subt	-11.2411
▁sc	-11.2428
grace	-11.244
ionist	-11.2451
▁Idea	-11.2466
▁sampl	-11.2469
▁02:1	-11.2483
▁armament	-11.2487
posed	-11.2493
ire	-11.25
oo	-11.2503
▁cou	-11.2504
▁partner	-11.2505
▁sca	-11.2505
▁realiz	-11.2505
▁survive	-11.2507
▁Yog	-11.2513
----	-11.2526
ense	-11.2536
awi	-11.2544
Mart	-11.2548
.7	-11.2572
▁Fun	-11.2576
▁communicate	-11.2577
span	-11.2579
ung	-11.258
▁va	-11.2607
▁Og	-11.2612
▁Sp	-11.2618
▁east	-11.2625
▁eliminat	-11.2626
▁750	-11.2629
▁Shar	-11.2634
ota	-11.2637
dry	-11.2657
bell	-11.266
agon	-11.2664
▁ECT	-11.2695
ivet	-11.2716
▁198	-11.273
▁Post	-11.273
ati	-11.2775
▁hamm	-11.2781
▁Arie	-11.2784
lue	-11.2788
2007	-11.2796
▁assure	-11.2814
nz	-11.2832
gle	-11.2835
▁permit	-11.2838
▁Leav	-11.2846
azi	-11.2855
gs	-11.2864
nel	-11.2868
gant	-11.2883
oso	-11.2895
26	-11.2909
▁perfection	-11.2942
qu	-11.295
ops	-11.2986
▁appreciat	-11.2991
▁CP	-11.3001
agg	-11.301
wel	-11.301
TRE	-11.3016
▁Andre	-11.303
eaten	-11.3034
▁03:	-11.3052
ination	-11.3055
▁Pan	-11.3065
▁sti	-11.3067
tah	-11.3076
43	-11.3124
earch	-11.3125
▁magn	-11.3178
▁Plac	-11.3182
merge	-11.3193
metic	-11.3204
hren	-11.3206
owing	-11.3207
ption	-11.3212
▁11:4	-11.3239
▁157	-11.3253
▁subm	-11.3255
▁grav	-11.3259
▁SA	-11.326
beginner	-11.3264
419	-11.3264
rene	-11.3287
▁mount	-11.3296
east	-11.3312
▁61	-11.3329
▁cle	-11.3336
▁Shop	-11.3346
orms	-11.3361
SO	-11.3383
63	-11.339
ux	-11.3398
WO	-11.3399
▁reintroduc	-11.3432
TIONS	-11.3439
▁Ea	-11.344
▁observ	-11.345
kan	-11.3469
spective	-11.3492
▁Spo	-11.3495
erie	-11.3517
azar	-11.3538
▁manufacture	-11.354
▁supp	-11.3549
kinaw	-11.3573
▁Term	-11.358
grade	-11.3593
▁Cou	-11.3595
▁brave	-11.3602
ural	-11.3607
SI	-11.3607
▁Cr	-11.3607
NO	-11.3614
ci	-11.3621
rid	-11.3631
version	-11.3631
eigh	-11.3642
▁fr	-11.3656
umor	-11.3665
mb	-11.3674
98	-11.3675
▁MI	-11.3677
lic	-11.3684
▁04:3	-11.3693
42	-11.3694
bus	-11.3713
mmmm	-11.3726
▁02:	-11.3745
▁BB	-11.3751
▁satisfact	-11.3754
13	-11.3755
▁gl	-11.3758
▁litera	-11.3761
0/200	-11.3762
RO	-11.3786
lotte	-11.3788
temporar	-11.3801
▁examine	-11.3809
aimed	-11.3814
▁VC	-11.3837
▁ill	-11.3837
▁equi	-11.3852
CHE	-11.3853
▁log	-11.3854
1/01	-11.389
▁replac	-11.3893
600	-11.3894
▁51	-11.3902
▁Gua	-11.3903
▁heave	-11.3939
bel	-11.3942
tagon	-11.3945
ashi	-11.3956
EA	-11.3963
pical	-11.397
▁Iron	-11.3971
▁tast	-11.3971
▁amaze	-11.3975
▁Str	-11.3989
NU	-11.3996
tish	-11.4005
▁Bh	-11.4008
▁victim	-11.4011
▁Skin	-11.4012
▁sn	-11.4013
▁undermin	-11.4014
asp	-11.4034
▁DIS	-11.4039
OWN	-11.4046
Donald	-11.4046
illo	-11.4054
59	-11.4055
after	-11.4058
angle	-11.4058
▁blad	-11.406
functional	-11.4062
lka	-11.4075
buck	-11.4081
secure	-11.4087
ANY	-11.4087
generate	-11.4089
plus	-11.4092
graduate	-11.4092
COM	-11.4093
▁Ti	-11.4095
hold	-11.4097
hill	-11.4098
regard	-11.41
quality	-11.4101
system	-11.4101
compan	-11.4102
▁trans	-11.4103
market	-11.4104
India	-11.4105
▁Rum	-11.4109
turn	-11.411
▁lb	-11.4111
conference	-11.4115
shall	-11.4115
▁Exp	-11.4116
giv	-11.412
change	-11.412
person	-11.4121
writ	-11.4124
half	-11.4127
just	-11.4127
talent	-11.4129
made	-11.4132
▁abundan	-11.4136
▁Stor	-11.4136
order	-11.4142
happ	-11.4144
▁-----	-11.4147
note	-11.4147
core	-11.4154
cook	-11.4156
meet	-11.416
▁circl	-11.4163
umble	-11.4175
▁prepar	-11.4179
usa	-11.4189
into	-11.419
▁Prot	-11.4192
page	-11.4202
▁donat	-11.4207
hol	-11.4216
articula	-11.4218
rin	-11.4219
call	-11.4219
▁?????	-11.422
guard	-11.422
▁translate	-11.4221
alia	-11.4223
act	-11.4226
▁vita	-11.4227
ikh	-11.4234
▁jok	-11.4246
▁insult	-11.4252
ATO	-11.426
bove	-11.4261
▁teen	-11.4269
unity	-11.427
kers	-11.4276
btu	-11.4279
▁bankrupt	-11.4281
▁Tar	-11.4287
▁Moon	-11.4287
▁technic	-11.4289
▁Indo	-11.429
▁Rev	-11.4294
diction	-11.4295
▁efficien	-11.4297
▁Cat	-11.4298
quir	-11.4301
▁Profess	-11.4307
▁GU	-11.4316
itten	-11.4317
crease	-11.432
INT	-11.4323
▁Iris	-11.4323
▁offe	-11.4327
dependent	-11.4329
▁disa	-11.4332
ternal	-11.4349
▁gather	-11.4351
▁pollut	-11.4356
▁Hus	-11.4358
ssert	-11.4365
rty	-11.437
▁Stra	-11.4374
TL	-11.4378
▁prote	-11.4379
▁wrap	-11.4385
▁Penn	-11.4388
under	-11.4391
GHT	-11.4392
▁06:0	-11.4394
anasi	-11.4398
itical	-11.4398
quare	-11.4399
merican	-11.4399
183	-11.44
ocate	-11.44
▁Sinh	-11.4401
olution	-11.4401
▁Bir	-11.4401
▁journ	-11.4402
▁kitt	-11.4404
▁Prop	-11.4405
structur	-11.4406
▁airline	-11.4407
▁appeti	-11.4408
▁accomplish	-11.4408
bie	-11.4408
▁populat	-11.4409
▁Sign	-11.4409
ontact	-11.441
xpansion	-11.441
ffective	-11.4413
▁3,	-11.4413
avorite	-11.4413
ducation	-11.4413
erior	-11.4414
iologist	-11.4414
lamist	-11.4415
▁bake	-11.4415
evolution	-11.4415
PUC	-11.4416
UCT	-11.4416
▁commo	-11.4416
onzales	-11.4416
ollege	-11.4417
▁consist	-11.4417
scribe	-11.4418
erfect	-11.4419
▁Aero	-11.4419
▁!!!!!!!!!!	-11.4419
tique	-11.442
▁Dorsey	-11.442
▁QUES	-11.442
................	-11.442
franchise	-11.442
▁..........	-11.442
▁1774	-11.442
▁416-865-370	-11.442
▁Advance	-11.442
▁Aquariu	-11.442
▁Civil	-11.442
▁Comfort	-11.442
▁EXPERIENCE	-11.442
▁Juggernaut	-11.442
▁Netherlands	-11.442
▁Phillip	-11.442
▁Trouble	-11.442
▁Whipple	-11.442
▁Workshop	-11.442
▁affirm	-11.442
▁alcohol	-11.442
▁brainwash	-11.442
▁butterfly	-11.442
▁confiscat	-11.442
▁conspira	-11.442
▁deliberate	-11.442
▁district	-11.442
▁divorce	-11.442
▁exclud	-11.442
▁grenade	-11.442
▁incomplete	-11.442
▁marvelous	-11.442
▁motivation	-11.442
▁phrase	-11.442
▁platform	-11.442
▁principal	-11.442
▁professor	-11.442
▁recognize	-11.442
▁regulate	-11.442
▁republic	-11.442
▁retrieve	-11.442
▁scenario	-11.442
▁seperate	-11.442
▁simultaneous	-11.442
▁squeeze	-11.442
▁trauma	-11.442
▁Consider	-11.442
▁Enjoy	-11.442
▁dilemma	-11.442
▁drunk	-11.442
▁evacuate	-11.442
▁manipulat	-11.442
▁neuter	-11.442
▁pepper	-11.442
▁perfume	-11.442
▁pregnan	-11.442
TRANS	-11.442
trathmann	-11.442
▁Giovanni	-11.442
▁Russell	-11.442
▁Tourist	-11.442
▁cheque	-11.442
▁disturb	-11.442
▁stylist	-11.442
▁ventilat	-11.442
▁Sicily	-11.442
▁mysterious	-11.442
▁retreat	-11.442
▁streak	-11.442
▁Figur	-11.442
▁Kathleen	-11.442
▁WEEK	-11.442
▁WELL	-11.442
▁flicker	-11.442
▁rhythm	-11.442
▁warlord	-11.442
▁Gib	-11.442
▁revive	-11.442
▁supervis	-11.442
▁BRING	-11.442
▁martyr	-11.442
▁Abramo	-11.442
▁pride	-11.442
▁workshop	-11.442
▁1-800-	-11.442
▁620-294-	-11.442
▁Bailey	-11.442
▁Nepal	-11.442
▁SCI	-11.442
▁endanger	-11.442
▁slip	-11.442
▁accompan	-11.442
▁Libya	-11.442
▁flexib	-11.442
▁intellectual	-11.442
▁threshold	-11.442
▁crash	-11.442
▁depart	-11.442
▁disseminat	-11.442
▁witness	-11.442
rhea	-11.442
▁anticipate	-11.442
▁steam	-11.442
tutorial	-11.442
▁column	-11.442
▁Nichol	-11.442
▁enclos	-11.442
▁incubati	-11.442
keeper	-11.442
▁extinct	-11.442
▁flesh	-11.442
▁confine	-11.442
▁Account	-11.442
atriot	-11.442
▁proliferat	-11.442
▁cease	-11.442
dslr	-11.442
handelier	-11.442
bvious	-11.442
▁Remove	-11.442
▁defect	-11.442
▁Dollar	-11.442
▁snack	-11.442
▁blurr	-11.442
▁burden	-11.442
▁attribut	-11.442
▁assault	-11.442
▁domain	-11.442
▁Alaska	-11.442
nburg	-11.442
▁pheno	-11.442
▁Margar	-11.442
▁SCAM	-11.442
▁guild	-11.442
▁Algeria	-11.442
▁undertake	-11.442
▁suprem	-11.4421
pulation	-11.4421
PLE	-11.4421
▁Living	-11.4421
▁Broad	-11.4421
▁passenger	-11.4421
▁distance	-11.4421
▁falter	-11.4421
▁notebook	-11.4421
▁Creek	-11.4421
▁maxim	-11.4421
▁SMS	-11.4421
▁burger	-11.4421
▁fifteen	-11.4421
▁reveal	-11.4421
▁tattoo	-11.4421
▁quantit	-11.4421
▁regulator	-11.4421
▁Window	-11.4421
▁monarch	-11.4421
▁!!!!!!!	-11.4421
▁Depend	-11.4421
beauty	-11.4421
▁chrom	-11.4421
▁stifle	-11.4421
▁appetizers	-11.4421
▁enthusiastic	-11.4421
▁KNOW	-11.4421
▁Definite	-11.4421
▁Anti	-11.4421
▁govern	-11.4421
▁Wildwood	-11.4421
▁inexpe	-11.4421
▁forgive	-11.4421
▁Broke	-11.4421
▁Specifi	-11.4421
▁MIL	-11.4421
▁garden	-11.4421
▁01/25/200	-11.4421
utan	-11.4421
▁dispute	-11.4421
haka	-11.4422
▁Wayne	-11.4422
▁atrocit	-11.4422
KERS	-11.4422
▁Liquidweb	-11.4422
enberg	-11.4422
ZZ	-11.4422
▁dislike	-11.4422
▁muni	-11.4422
▁Financial	-11.4422
▁Reason	-11.4422
▁Baathist	-11.4422
▁Recommend	-11.4422
jones	-11.4422
▁Reserv	-11.4422
▁budd	-11.4422
▁dictators	-11.4422
▁Point	-11.4422
▁Index	-11.4422
▁penetrate	-11.4422
▁SUP	-11.4423
▁infant	-11.4423
▁dispers	-11.4423
▁Antique	-11.4423
▁03:5	-11.4423
▁Portug	-11.4423
▁Baath	-11.4423
▁adventur	-11.4423
uerrilla	-11.4423
hibit	-11.4424
▁slide	-11.4424
▁STEA	-11.4424
▁perception	-11.4424
▁contrast	-11.4424
elanie	-11.4424
▁democratic	-11.4424
▁NEED	-11.4424
▁SPAR	-11.4424
MIT	-11.4424
▁resist	-11.4425
================	-11.4425
▁Moro	-11.4425
▁genetic	-11.4425
▁stretch	-11.4425
▁Horton	-11.4425
▁sufficient	-11.4425
▁Clark	-11.4425
▁Conf	-11.4425
▁Load	-11.4425
▁Croa	-11.4425
diot	-11.4426
▁bridge	-11.4426
▁Founder	-11.4426
▁Dula	-11.4426
▁pup	-11.4426
▁sanct	-11.4426
▁stamp	-11.4426
imien	-11.4426
▁prepayment	-11.4427
urric	-11.4427
▁pyr	-11.4427
▁Drink	-11.4427
▁liqu	-11.4427
▁grandson	-11.4427
▁Hizb	-11.4427
▁preference	-11.4427
▁HOT	-11.4427
ecomm	-11.4428
▁Lewis	-11.4428
▁steer	-11.4429
▁scientist	-11.4429
▁Simpl	-11.4429
▁puff	-11.4429
▁Nash	-11.4429
▁loom	-11.4429
▁Courtney	-11.4429
▁organis	-11.443
▁bound	-11.443
▁aquari	-11.443
▁Charles	-11.443
▁ownership	-11.4431
▁Approval	-11.4431
6-9	-11.4432
▁accomplishment	-11.4432
allerina	-11.4432
▁dude	-11.4432
▁conscien	-11.4432
▁Lora	-11.4432
▁detaine	-11.4433
EM	-11.4433
rival	-11.4433
▁fulfill	-11.4433
▁plotter	-11.4433
▁DAY	-11.4433
▁Taur	-11.4433
IRS	-11.4434
▁Human	-11.4434
▁Colo	-11.4434
▁cork	-11.4434
▁trace	-11.4434
▁jihad	-11.4435
EP	-11.4435
▁hyp	-11.4435
▁slack	-11.4435
▁foster	-11.4436
▁paradi	-11.4436
▁Cash	-11.4436
▁consen	-11.4436
▁lieu	-11.4436
▁Fred	-11.4437
frey	-11.4437
scop	-11.4438
▁pasture	-11.4439
▁Ranger	-11.4439
▁Sinhal	-11.4439
▁gro	-11.444
▁preach	-11.444
▁rode	-11.444
▁Ric	-11.4441
▁shit	-11.4441
athan	-11.4441
▁musician	-11.4441
▁crush	-11.4442
ovan	-11.4442
▁Emb	-11.4442
▁trend	-11.4442
▁Lav	-11.4443
ounge	-11.4443
▁lift	-11.4444
▁radio	-11.4444
▁ETA	-11.4444
483	-11.4445
▁Louis	-11.4445
▁upset	-11.4446
▁hook	-11.4446
▁mechani	-11.4447
CHS	-11.4447
▁clash	-11.4448
▁EXCEL	-11.4448
▁RU	-11.4448
▁humm	-11.4449
916	-11.4451
▁pour	-11.4451
url	-11.4451
▁Calcu	-11.4451
▁Raw	-11.4453
▁Cho	-11.4453
▁Fei	-11.4453
essive	-11.4454
▁afterward	-11.4455
specta	-11.4455
▁flopp	-11.4455
▁Hand	-11.4455
▁innovation	-11.4455
drian	-11.4456
ollaborat	-11.4456
oji	-11.4456
▁assumption	-11.4457
▁rail	-11.4457
sponse	-11.4457
▁Delight	-11.4458
▁flipp	-11.4458
ROC	-11.4458
▁Latin	-11.4459
▁FIT	-11.4459
▁leaf	-11.4461
▁upper	-11.4461
rigade	-11.4461
retta	-11.4461
▁Nord	-11.4462
▁Treat	-11.4462
hilad	-11.4463
▁Fill	-11.4463
▁OR	-11.4464
3.8	-11.4464
▁Mak	-11.4464
gam	-11.4465
▁realise	-11.4465
pco	-11.4465
athist	-11.4465
▁insist	-11.4466
▁rally	-11.4468
▁detector	-11.4469
▁inspector	-11.4469
▁Wolf	-11.447
▁UCA	-11.4471
▁rack	-11.4471
▁picket	-11.4473
▁PUT	-11.4475
▁rain	-11.4475
▁tur	-11.4476
▁Bash	-11.4477
▁glow	-11.4477
▁jam	-11.4477
▁emit	-11.4478
▁silkie	-11.4479
▁remo	-11.448
▁golf	-11.448
▁dragg	-11.448
▁Swed	-11.4482
▁residence	-11.4482
immigrate	-11.4482
▁Ltd	-11.4483
▁referral	-11.4483
▁viru	-11.4484
▁polluter	-11.4484
▁prisoner	-11.4484
▁FIR	-11.4485
▁Waz	-11.4486
ertain	-11.4488
▁Emer	-11.4488
arine	-11.449
mnest	-11.4493
▁83	-11.4494
▁Barc	-11.4495
▁Roos	-11.4495
▁cup	-11.4495
▁teach	-11.4496
therapist	-11.4496
▁percentage	-11.4498
▁ele	-11.4499
▁eco	-11.4499
▁charm	-11.4502
▁preserv	-11.4502
▁reap	-11.4503
▁comprehensi	-11.4505
▁arrogant	-11.4505
▁Eco	-11.4505
▁Data	-11.4506
▁resolve	-11.4506
▁sensitiv	-11.4506
979	-11.4506
▁bidd	-11.4507
▁Kell	-11.4507
▁motive	-11.4508
▁Award	-11.4508
▁Deli	-11.4509
IOUS	-11.451
▁Teh	-11.451
▁peak	-11.451
▁bless	-11.451
▁won	-11.4512
▁judgment	-11.4513
▁sap	-11.4519
▁dear	-11.4522
▁PHO	-11.4522
▁Taco	-11.4523
uct	-11.4525
duct	-11.4529
rofessional	-11.4531
▁Haz	-11.4531
▁alternate	-11.4532
ctic	-11.4533
▁1.8	-11.4534
▁brid	-11.4534
▁Commo	-11.4536
▁Scho	-11.4537
▁Heav	-11.4538
▁STOR	-11.4538
▁HATE	-11.4538
▁Dama	-11.4538
HILL	-11.4541
▁Bird	-11.4541
301	-11.4543
▁practical	-11.4544
NCH	-11.4545
eeze	-11.4545
▁appropriation	-11.4545
▁08:2	-11.455
▁twist	-11.4552
▁BLA	-11.4553
▁chlorin	-11.4555
▁Beard	-11.4556
▁retak	-11.4559
pulsi	-11.4559
▁Band	-11.4562
▁intent	-11.4562
▁app	-11.4564
▁expire	-11.4564
ional	-11.4566
▁mega	-11.4566
eterinar	-11.4567
▁verifie	-11.4569
RUE	-11.457
▁exten	-11.4571
▁TH	-11.4575
▁Authorit	-11.4579
▁Lotte	-11.4582
▁FREE	-11.4583
▁Mexican	-11.4584
▁incorporate	-11.4584
▁dancer	-11.4585
▁AB	-11.4586
▁Pea	-11.4589
▁insulting	-11.4591
▁soak	-11.4591
▁carrier	-11.4592
elia	-11.4593
CUR	-11.4596
▁Jenn	-11.4597
/21/200	-11.4599
▁SUC	-11.4599
▁sand	-11.46
cuse	-11.4601
▁Atta	-11.4604
▁(:	-11.4605
entation	-11.4607
ICE	-11.4607
▁WOR	-11.4608
▁assembl	-11.4609
▁jet	-11.4609
zak	-11.461
▁Ara	-11.4611
▁bald	-11.4612
▁Offer	-11.4612
▁thro	-11.4613
▁Peters	-11.4614
▁introduction	-11.4614
▁cred	-11.4616
▁assert	-11.4617
KS	-11.4618
▁alter	-11.4619
▁acknowledge	-11.4623
▁survey	-11.4626
:20	-11.4626
▁Sti	-11.4626
▁complicat	-11.4633
▁Parad	-11.4636
▁appal	-11.4639
▁......	-11.4641
▁Fuj	-11.4645
ganda	-11.4646
▁Luc	-11.4649
▁Leach	-11.465
▁Warn	-11.465
▁prov	-11.4656
▁continent	-11.4658
oga	-11.4658
▁Kid	-11.4659
▁secretar	-11.4661
▁Rent	-11.4661
▁Tre	-11.468
ask	-11.4681
▁circu	-11.4682
logo	-11.4682
lash	-11.469
pad	-11.4695
etin	-11.4696
3-	-11.4699
▁pend	-11.4699
▁relie	-11.4699
mach	-11.4708
AY	-11.4712
▁ignoran	-11.4712
▁Dance	-11.4713
▁Tig	-11.4713
▁112	-11.4718
▁bomber	-11.4718
llage	-11.4719
▁cow	-11.4721
▁Tree	-11.4722
▁cycle	-11.4722
obble	-11.4722
cache	-11.4724
▁memo	-11.4726
▁province	-11.4727
nual	-11.4731
penetra	-11.4731
OPE	-11.4734
uddl	-11.4735
NITE	-11.4742
gal	-11.4742
NTER	-11.4743
ception	-11.4744
▁SP	-11.4756
▁SOL	-11.4766
▁propa	-11.4774
▁Lie	-11.479
▁Libr	-11.479
TT	-11.4795
▁regrett	-11.4797
haz	-11.4804
888.	-11.4811
▁Haw	-11.4814
▁cancell	-11.4819
erland	-11.4822
▁wal	-11.4822
▁Donald	-11.4823
WW	-11.4829
▁disc	-11.4831
▁journalist	-11.4832
▁colla	-11.4848
▁incorporates	-11.4849
▁victims	-11.485
omni	-11.4853
▁grade	-11.4856
rive	-11.4859
▁traffick	-11.4862
▁Ana	-11.4865
arma	-11.4868
▁uni	-11.4874
▁hill	-11.4876
▁Pape	-11.4877
▁corn	-11.488
▁600	-11.4882
hnic	-11.4882
etic	-11.4882
▁Protect	-11.4884
▁string	-11.4886
▁wil	-11.4887
TER	-11.4898
▁Dud	-11.4902
▁Judicia	-11.4904
▁sour	-11.4906
1600	-11.491
▁Nel	-11.4911
▁Haven	-11.4914
▁arrangement	-11.4914
▁feas	-11.4918
▁exclusi	-11.492
317	-11.4928
cin	-11.4928
▁clo	-11.4934
▁exceptional	-11.4936
▁tolerat	-11.4938
▁UT	-11.4939
▁Kindl	-11.4942
▁rider	-11.4944
DU	-11.4947
lev	-11.4947
rink	-11.4961
▁underst	-11.4964
▁willow	-11.4968
sfe	-11.497
rose	-11.4972
▁inde	-11.4973
▁Elect	-11.4973
▁Bud	-11.4973
▁Gl	-11.4983
ssembl	-11.4988
atio	-11.4999
▁immigra	-11.5004
▁OWN	-11.5011
▁geni	-11.5014
itch	-11.502
▁contribute	-11.5021
▁limb	-11.5037
Smart	-11.504
▁COME	-11.5042
▁sad	-11.505
▁Die	-11.505
logg	-11.5051
utch	-11.5052
▁cater	-11.5078
tom	-11.5084
▁lick	-11.5086
▁Reg	-11.5102
use	-11.5106
ayee	-11.5107
▁01:	-11.5114
▁Ac	-11.5118
295	-11.5119
▁Stu	-11.513
▁tablet	-11.5136
▁developer	-11.5145
▁territori	-11.5154
tia	-11.5157
ield	-11.518
▁Sherr	-11.521
▁lone	-11.5212
▁consol	-11.5223
▁SAM	-11.5239
nie	-11.5239
▁sex	-11.5243
▁Driv	-11.5245
luster	-11.525
▁cry	-11.5253
▁raiser	-11.5255
ida	-11.5259
ompensation	-11.5272
▁weak	-11.5273
▁yea	-11.5278
mpl	-11.5281
▁Bru	-11.5282
ttag	-11.5282
ape	-11.5303
NIO	-11.5304
ldernes	-11.5306
▁SH	-11.5307
NATION	-11.5308
part	-11.5311
▁landlo	-11.5336
sumption	-11.5338
▁fever	-11.5351
▁Kent	-11.5354
ENT	-11.5363
AMI	-11.5368
ache	-11.5371
.3	-11.5377
▁Core	-11.5384
▁CAR	-11.5412
▁Boy	-11.5419
▁glo	-11.5424
▁avia	-11.5426
▁beside	-11.5426
▁Brita	-11.5427
mani	-11.5436
▁bm	-11.5438
▁sch	-11.5443
▁Sk	-11.545
▁Medit	-11.5452
erspective	-11.5452
estival	-11.5453
▁shrin	-11.5456
acy	-11.5459
vel	-11.5462
▁Fir	-11.5467
▁37	-11.5472
▁Boi	-11.5483
igation	-11.5485
OVE	-11.5489
▁observe	-11.5493
▁scru	-11.5497
effects	-11.5499
▁jea	-11.5511
onderful	-11.552
tho	-11.5521
▁bre	-11.5546
▁swi	-11.5546
shed	-11.5558
▁Pott	-11.5559
▁intermedia	-11.5561
itis	-11.5584
cosm	-11.5584
hopp	-11.5615
agic	-11.5628
▁Mah	-11.5631
PY	-11.5641
▁05:	-11.5644
▁gall	-11.5656
evelopment	-11.5663
030	-11.5671
NJ	-11.5678
ndra	-11.5696
▁bloody	-11.5696
▁Say	-11.5697
▁criticis	-11.5698
ASS	-11.5712
▁sus	-11.5716
af	-11.5727
odern	-11.5736
rton	-11.5738
▁lodg	-11.5743
▁whi	-11.5757
22	-11.5771
▁Lia	-11.5784
▁def	-11.5789
▁subp	-11.5794
▁Mon	-11.5823
▁biochemi	-11.5839
:15	-11.5859
value	-11.5864
metre	-11.5888
▁eater	-11.5898
DE	-11.5903
▁ham	-11.5905
▁JO	-11.5922
upi	-11.5928
EN	-11.594
▁div	-11.5944
▁Amen	-11.595
▁Leit	-11.5959
▁finaliz	-11.596
ssignment	-11.5967
▁nationalis	-11.5968
▁amus	-11.5972
radian	-11.5972
2,000	-11.5974
lair	-11.5975
202.6	-11.5983
▁ult	-11.5984
▁Bart	-11.5999
lator	-11.6
TS	-11.6016
:35	-11.6041
REE	-11.6043
▁Swi	-11.6045
56	-11.6056
1/200	-11.6057
▁10:4	-11.608
doors	-11.6092
finite	-11.6121
▁Bro	-11.6127
▁Emm	-11.6131
▁sail	-11.6135
ND	-11.614
▁grave	-11.6147
smith	-11.6152
▁Williams	-11.6157
▁Te	-11.6158
---->	-11.6163
2-	-11.6165
▁Dev	-11.6169
nnes	-11.6199
▁Romani	-11.6199
umm	-11.6206
▁ji	-11.6211
▁Cay	-11.622
icular	-11.6229
▁preferabl	-11.6271
1530	-11.6276
▁Mia	-11.6312
eather	-11.6329
oxy	-11.6357
▁04:0	-11.6362
▁Leave	-11.6363
▁Ban	-11.6365
▁Art	-11.6379
bay	-11.6387
▁gen	-11.639
ogan	-11.6402
▁achiev	-11.6418
even	-11.6425
▁phil	-11.643
▁Cl	-11.6434
▁03:1	-11.6435
warf	-11.6435
flag	-11.6443
▁Must	-11.6447
hose	-11.6463
40	-11.6503
▁resid	-11.6504
▁flaw	-11.6506
▁05:3	-11.6512
▁interfere	-11.6531
teral	-11.6542
egetarian	-11.6556
▁dual	-11.6559
▁gi	-11.6566
▁AD	-11.657
anu	-11.6582
paper	-11.6583
▁Freema	-11.6593
IS	-11.6654
▁STA	-11.6654
▁rem	-11.6661
▁Increase	-11.6663
getarian	-11.6677
▁12:3	-11.6683
▁manne	-11.6687
▁ram	-11.6713
▁Jaz	-11.6717
▁Tri	-11.6737
▁Nas	-11.6762
▁UV	-11.6776
▁indoor	-11.6802
▁lose	-11.6811
▁Come	-11.683
▁Wed	-11.6835
homa	-11.686
▁Ash	-11.6873
▁pip	-11.6883
991	-11.6892
liance	-11.6911
▁ze	-11.6932
ild	-11.6932
▁graduat	-11.6945
oon	-11.6952
▁citizen	-11.6977
▁PLA	-11.6979
▁pit	-11.6979
6,000	-11.7004
liver	-11.7011
ital	-11.7013
ourtesy	-11.7018
bble	-11.7028
rass	-11.703
▁brun	-11.7038
▁150	-11.7056
▁fran	-11.7079
31	-11.7098
▁73	-11.711
▁Roman	-11.7114
▁09:2	-11.7123
▁courte	-11.7127
▁ph	-11.7127
▁associat	-11.7141
organ	-11.7144
uz	-11.715
chemical	-11.7152
▁tolera	-11.7164
▁Rat	-11.7184
505	-11.7186
17	-11.7187
pact	-11.7213
lawless	-11.7213
▁Ke	-11.7216
avy	-11.7241
nkman	-11.7268
omposition	-11.7292
▁testif	-11.7296
fortunate	-11.7305
▁si	-11.7332
OUR	-11.7346
▁paris	-11.7347
MP	-11.7354
NCE	-11.7361
▁Associat	-11.7369
▁absen	-11.7378
▁merg	-11.738
▁parti	-11.7386
▁Nic	-11.7401
▁clarif	-11.7411
▁MM	-11.7445
indi	-11.7449
phy	-11.7468
rett	-11.749
▁beg	-11.7491
▁numer	-11.7521
/18	-11.7543
fi	-11.7547
▁spi	-11.7549
esse	-11.756
Germany	-11.7563
COR	-11.7577
▁bon	-11.7581
stri	-11.7599
OB	-11.7607
435	-11.761
▁mini	-11.7623
ntil	-11.7624
asia	-11.7646
▁Blan	-11.7654
form	-11.766
▁Ob	-11.7671
rown	-11.7672
▁starv	-11.7674
▁fli	-11.7681
▁infinit	-11.7683
adow	-11.7735
▁03:4	-11.7759
▁refu	-11.7776
ritis	-11.7778
▁Mag	-11.778
▁compet	-11.7822
▁fin	-11.7825
pat	-11.7838
▁04:4	-11.7838
▁damag	-11.7849
▁calcul	-11.789
TNA	-11.7908
▁diploma	-11.7926
▁festiv	-11.7939
▁Temp	-11.7939
▁UP	-11.7957
oster	-11.7963
▁7:3	-11.799
▁veg	-11.7992
▁Blai	-11.8006
▁ensur	-11.8027
SSI	-11.8027
rift	-11.8032
racle	-11.8035
IM	-11.8038
41	-11.806
maker	-11.8065
▁consum	-11.8065
▁Roberts	-11.8068
▁Gall	-11.8083
▁Gro	-11.8085
-5	-11.8109
▁11/2	-11.813
lou	-11.8136
▁deriv	-11.8158
ltra	-11.8159
▁Tro	-11.8159
:50	-11.8169
▁Main	-11.8173
emed	-11.8189
▁pressur	-11.8228
laz	-11.8233
▁inten	-11.8247
cide	-11.8255
cic	-11.8257
▁explo	-11.8266
oth	-11.8299
▁reta	-11.8305
▁Fran	-11.8308
clusion	-11.832
▁Page	-11.8321
lon	-11.8346
▁identifi	-11.835
▁Parti	-11.8359
itude	-11.8366
▁experienc	-11.8406
uk	-11.8408
LO	-11.8417
▁phon	-11.8421
ETS	-11.8423
▁sel	-11.8437
EED	-11.8447
▁rif	-11.8458
RY	-11.8472
quisit	-11.848
▁contribut	-11.8482
position	-11.8484
adi	-11.8491
ourage	-11.8501
▁Bond	-11.8519
▁trott	-11.8525
▁159	-11.854
zb	-11.8557
/15/	-11.858
WAR	-11.8588
▁thieve	-11.8607
▁bac	-11.8617
▁Phe	-11.8631
▁Fil	-11.8645
▁Regen	-11.8649
▁Sec	-11.8667
lock	-11.8672
▁VO	-11.8679
▁electro	-11.8692
▁AR	-11.8695
▁intelligen	-11.8703
▁Elli	-11.8705
▁investigate	-11.8709
▁skip	-11.8711
▁cl	-11.8727
atable	-11.873
▁12/2	-11.8734
PC	-11.8739
744	-11.8767
▁Capit	-11.8768
▁bla	-11.878
aw	-11.8781
ork	-11.8805
▁urg	-11.8809
▁journal	-11.8812
▁Curr	-11.8825
ASI	-11.8841
US	-11.8844
▁Edm	-11.8858
bed	-11.8876
▁Gri	-11.8876
aint	-11.8881
val	-11.8899
▁MO	-11.8901
▁impe	-11.8912
23	-11.8921
▁Desp	-11.8932
▁Tod	-11.8937
▁coincide	-11.8938
▁provinc	-11.8959
▁slave	-11.896
zing	-11.8968
elieve	-11.8978
NTO	-11.8988
▁110	-11.9002
▁Juli	-11.9002
tractor	-11.9005
cred	-11.9011
▁rub	-11.9015
BY	-11.9017
pent	-11.9019
76	-11.9023
▁var	-11.9025
▁82	-11.9041
cycle	-11.9044
continent	-11.9044
▁Vir	-11.9046
parent	-11.9047
▁Philippine	-11.9048
▁Fin	-11.9049
tte	-11.9054
raiser	-11.9054
1.8	-11.9055
heav	-11.9058
▁Ul	-11.9068
cris	-11.9068
▁TRA	-11.9069
DSL	-11.9073
arrange	-11.9076
luna	-11.9078
OVER	-11.908
▁practic	-11.908
crowd	-11.9083
phase	-11.9085
trans	-11.9086
bondad	-11.9088
appropriate	-11.9089
TION	-11.909
pixel	-11.9091
route	-11.9092
mouth	-11.9093
screen	-11.9094
bott	-11.9094
GCP	-11.9095
christ	-11.9096
building	-11.9096
God	-11.9096
birth	-11.9097
▁acknowledg	-11.9097
▁ang	-11.9098
defens	-11.91
August	-11.91
CIA	-11.9101
necessar	-11.9101
national	-11.9101
correct	-11.9101
human	-11.9102
predict	-11.9102
weapon	-11.9103
approve	-11.9104
suit	-11.9104
reported	-11.9105
group	-11.9105
understand	-11.9105
people	-11.9106
$	-11.9106
think	-11.9108
home	-11.9108
personal	-11.9112
ART	-11.9112
UCK	-11.9112
▁Anth	-11.9114
throw	-11.9116
charge	-11.9116
fair	-11.912
essential	-11.9121
TW	-11.9122
▁54	-11.9123
willing	-11.9124
child	-11.9124
book	-11.9125
step	-11.9126
ployment	-11.913
holder	-11.913
break	-11.9134
manager	-11.9138
▁quo	-11.9148
rul	-11.9149
STIC	-11.915
sourc	-11.9155
▁consul	-11.9156
EE	-11.9156
pression	-11.916
ular	-11.9162
wait	-11.9163
▁Arma	-11.9168
▁enabl	-11.917
uixot	-11.9171
fire	-11.9175
pend	-11.9178
fund	-11.9178
style	-11.918
look	-11.9181
weight	-11.9182
▁judg	-11.9183
MY	-11.9185
face	-11.9185
clusive	-11.9189
▁utili	-11.9198
mmm	-11.9203
centre	-11.9204
rison	-11.9208
revision	-11.9209
affle	-11.9217
urniture	-11.9218
▁703	-11.9224
NG	-11.9229
jah	-11.923
structure	-11.9231
spiritual	-11.9241
▁hack	-11.9246
issa	-11.925
cupunctur	-11.925
▁Scot	-11.9252
-80	-11.9253
decide	-11.9255
WI	-11.9259
dvice	-11.926
bear	-11.9265
Wh	-11.9265
▁EI	-11.9272
anna	-11.9273
hou	-11.9277
RAW	-11.9277
JM	-11.9277
ffair	-11.9279
▁arrogan	-11.9283
raise	-11.9285
ntity	-11.9287
fluent	-11.9291
▁convenien	-11.9292
bid	-11.9293
ctivit	-11.9297
▁frequen	-11.9299
▁qui	-11.9304
anim	-11.9304
▁excellen	-11.9305
master	-11.9305
claim	-11.9305
▁importan	-11.9306
▁choos	-11.9307
VEL	-11.9311
RT	-11.9312
stein	-11.9313
▁col	-11.9315
▁92	-11.9317
▁prison	-11.9321
BRE	-11.9322
2.1	-11.9323
▁silk	-11.9325
apolog	-11.9328
▁differ	-11.9329
tail	-11.9333
▁divin	-11.9334
portion	-11.9339
▁Bloo	-11.9339
▁cult	-11.9341
▁Euro	-11.9344
▁galler	-11.9348
▁suppose	-11.9349
▁Fl	-11.9352
▁trai	-11.9356
erator	-11.9359
touch	-11.9361
▁guarant	-11.9362
calculati	-11.9363
▁shri	-11.9365
cape	-11.9365
orato	-11.9367
▁historic	-11.9376
▁flip	-11.9376
becu	-11.9377
imm	-11.9378
▁Wat	-11.9381
▁11:2	-11.9386
▁sympathize	-11.9386
dict	-11.9389
???	-11.9392
cience	-11.9392
▁flop	-11.9394
▁NAM	-11.9394
▁uncomm	-11.9394
ketch	-11.9396
▁Lou	-11.9399
▁chick	-11.9401
ubstanti	-11.9401
eason	-11.9401
▁Approv	-11.9401
▁custo	-11.9401
itizen	-11.9402
sume	-11.9402
ARD	-11.9403
▁certifi	-11.9403
zzin	-11.9404
echanic	-11.9404
▁archi	-11.9404
ounsel	-11.9405
script	-11.9405
▁CHI	-11.9405
edu	-11.9406
▁MU	-11.9407
▁Connecti	-11.9407
onflict	-11.9408
TOR	-11.9408
ntercept	-11.9408
mportant	-11.9409
ndustr	-11.9409
▁destin	-11.9409
▁psycho	-11.941
2.9	-11.9411
exican	-11.9413
vident	-11.9413
conciliat	-11.9413
▁jun	-11.9413
▁techni	-11.9414
▁innovati	-11.9414
ajor	-11.9415
raduate	-11.9415
▁Micro	-11.9415
avor	-11.9415
▁08:5	-11.9415
▁Range	-11.9415
rmal	-11.9416
▁confid	-11.9416
articipant	-11.9416
urchase	-11.9416
/8/	-11.9417
evel	-11.9417
▁Direct	-11.9417
▁Palestin	-11.9417
▁intima	-11.9417
link	-11.9417
NDI	-11.9417
dicate	-11.9417
uci	-11.9418
▁calend	-11.9418
Stip	-11.9418
▁prob	-11.9418
▁enthusias	-11.9418
-20-	-11.9418
▁Lind	-11.9418
tuna	-11.9418
▁excel	-11.9418
▁Speci	-11.9419
egulator	-11.9419
AAAA	-11.9419
undred	-11.9419
▁01/2	-11.9419
▁unknow	-11.9419
▁Furn	-11.9419
▁experi	-11.942
cient	-11.942
wikipedia	-11.942
ligence	-11.942
▁425-415-30	-11.942
▁Bumrung	-11.942
▁CONFIDENTIAL	-11.942
▁Confirm	-11.942
▁Environment	-11.942
▁PEREGRIN	-11.942
▁eyewitness	-11.942
▁legitima	-11.942
/11/2004	-11.942
9819602175	-11.942
AAAAAG	-11.942
Bockius	-11.942
McDermott	-11.942
PLICATION	-11.942
RIFIE	-11.942
eanutjak	-11.942
etcalfe	-11.942
exercise	-11.942
otorua	-11.942
▁**********	-11.942
▁11/7/08	-11.942
▁202.456.2461	-11.942
▁281-518-	-11.942
▁315-460-334	-11.942
▁510-642-	-11.942
▁713/853-	-11.942
▁718-780-0	-11.942
▁94720-	-11.942
▁APPROV	-11.942
▁Beautiful	-11.942
▁CHRIS	-11.942
▁Coordinator	-11.942
▁EnronOnLine	-11.942
▁Exercise	-11.942
▁Exocet	-11.942
▁GROUP	-11.942
▁Hikmet	-11.942
▁INSULT	-11.942
▁Lihaib	-11.942
▁Methodi	-11.942
▁OVERALL	-11.942
▁Opportunity	-11.942
▁Original	-11.942
▁Pacheco	-11.942
▁Pashtun	-11.942
▁Piccadill	-11.942
▁Practice	-11.942
▁Project	-11.942
▁ROADHOUSE	-11.942
▁Record	-11.942
▁Restaurant	-11.942
▁Rothko	-11.942
▁Seleznov	-11.942
▁Shakespeare	-11.942
▁Smartwol	-11.942
▁Stephen	-11.942
▁Woodinville	-11.942
▁affiliate	-11.942
▁airlift	-11.942
▁burglar	-11.942
▁capsules	-11.942
▁catastroph	-11.942
▁conceivabl	-11.942
▁discriminat	-11.942
▁dissatisf	-11.942
▁emperor	-11.942
▁exhaust	-11.942
▁instinct	-11.942
▁intrigue	-11.942
▁neglect	-11.942
▁precaution	-11.942
▁proficien	-11.942
▁punctua	-11.942
▁reaffirm	-11.942
▁reprisal	-11.942
▁reproduce	-11.942
▁responsive	-11.942
▁secessionist	-11.942
▁solicit	-11.942
▁sporadic	-11.942
▁synthe	-11.942
▁uncertain	-11.942
▁unpleasant	-11.942
▁Concern	-11.942
▁suitcase	-11.942
▁10/31/	-11.942
▁Benefit	-11.942
▁ENJOY	-11.942
▁Photograph	-11.942
▁Public	-11.942
▁Reuters	-11.942
▁Teresa	-11.942
▁Video	-11.942
▁analyze	-11.942
▁conquer	-11.942
▁craving	-11.942
▁distort	-11.942
▁exterminat	-11.942
▁homosexual	-11.942
▁instigate	-11.942
▁intruder	-11.942
▁kaplan	-11.942
▁mitigat	-11.942
▁monoton	-11.942
▁napkin	-11.942
▁oppress	-11.942
▁pacify	-11.942
▁scandal	-11.942
▁scheme	-11.942
▁shrewd	-11.942
▁surpass	-11.942
▁swallow	-11.942
▁typo	-11.942
▁unprofessional	-11.942
ABUL	-11.942
cipal	-11.942
▁832.676.	-11.942
▁Fernand	-11.942
▁Maitra	-11.942
▁Orlando	-11.942
▁compromis	-11.942
▁sacrifice	-11.942
▁stooge	-11.942
EQU	-11.942
▁713-793-	-11.942
▁Politic	-11.942
▁Prince	-11.942
▁restrict	-11.942
Connell	-11.942
esthetic	-11.942
▁Dharma	-11.942
▁Flip	-11.942
▁Maureen	-11.942
▁Physio	-11.942
▁Rib	-11.942
▁commence	-11.942
▁psychi	-11.942
▁shirt	-11.942
▁973-	-11.942
▁abolish	-11.942
▁encounter	-11.942
▁whistle	-11.942
▁Delainey	-11.942
▁Animal	-11.942
▁Incredibl	-11.942
▁component	-11.942
▁Alpha	-11.942
▁OPEN	-11.942
juven	-11.942
parallel	-11.942
▁lamb	-11.942
▁fanatic	-11.942
▁OMG	-11.942
6:5	-11.942
borenste	-11.942
▁bypass	-11.942
▁cascade	-11.942
▁subsidi	-11.942
▁reopen	-11.942
crumbl	-11.942
▁Picas	-11.942
▁Through	-11.942
▁oblivio	-11.942
▁profile	-11.942
▁Jorge	-11.942
▁holler	-11.942
▁adopt	-11.942
▁gesture	-11.942
▁massacr	-11.942
▁vessel	-11.942
▁cartoon	-11.942
▁nurture	-11.942
▁Perkins	-11.942
828-	-11.942
ECES	-11.942
▁nickname	-11.942
▁shatter	-11.942
▁Factor	-11.942
mpowerment	-11.942
▁IMPO	-11.942
▁worship	-11.942
▁Rip	-11.942
▁Rosem	-11.942
▁manifest	-11.942
harmad	-11.942
cogni	-11.942
▁jeju	-11.942
▁recip	-11.942
ocre	-11.942
ALITY	-11.942
▁reneg	-11.942
▁joy	-11.942
▁modul	-11.942
frig	-11.942
▁Bolivia	-11.942
▁Tajik	-11.942
▁instrumenta	-11.942
6867	-11.942
▁psycholog	-11.942
▁SHOCK	-11.942
▁ecolog	-11.942
/2011/09/	-11.942
clip	-11.942
▁BALL	-11.942
▁interrupt	-11.942
niversa	-11.942
▁Visit	-11.942
▁activist	-11.942
▁colour	-11.942
▁equival	-11.942
antifraud	-11.942
▁Explor	-11.942
▁*****	-11.9421
▁incentive	-11.9421
ustria	-11.9421
▁laud	-11.9421
▁sham	-11.9421
▁vintage	-11.9421
orneby	-11.9421
inski	-11.9421
▁Command	-11.9421
▁Cruise	-11.9421
▁bruise	-11.9421
descend	-11.9421
▁carrot	-11.9421
▁misinform	-11.9421
▁01:09	-11.9421
ransformation	-11.9421
▁Trivia	-11.9421
▁Motor	-11.9421
▁Surge	-11.9421
SWER	-11.9421
▁chamber	-11.9421
▁vani	-11.9421
▁hysteri	-11.9421
▁Carlos	-11.9421
▁harbour	-11.9421
▁annex	-11.9421
▁Flex	-11.9421
▁grocer	-11.9421
▁ribbon	-11.9421
▁Killi	-11.9421
▁sweep	-11.9421
▁cotton	-11.9421
▁Strong	-11.9421
▁depict	-11.9421
▁bundl	-11.9421
▁Ineos	-11.9421
▁demons	-11.9421
▁belittl	-11.9421
LGG	-11.9421
▁Clay	-11.9421
▁Print	-11.9421
▁furnish	-11.9421
▁978	-11.9421
▁contend	-11.9421
▁Clear	-11.9421
▁Holocaust	-11.9421
BERT	-11.9421
▁creep	-11.9421
▁railway	-11.9421
▁Team	-11.9422
▁shred	-11.9422
▁pedicure	-11.9422
▁****	-11.9422
▁prud	-11.9422
▁Quick	-11.9422
▁Honest	-11.9422
ethics	-11.9422
▁persuasi	-11.9422
▁plunge	-11.9422
53-3	-11.9422
cfm	-11.9422
▁12-20-	-11.9422
▁roast	-11.9422
▁invad	-11.9422
▁FRIE	-11.9422
MISSI	-11.9422
trospect	-11.9422
UFF	-11.9422
▁uneas	-11.9422
▁armature	-11.9422
▁retard	-11.9422
cussion	-11.9422
▁violat	-11.9423
▁Clayton	-11.9423
▁freak	-11.9423
▁snows	-11.9423
▁Bridge	-11.9423
:29	-11.9423
▁202.7	-11.9423
▁symp	-11.9423
▁giant	-11.9423
▁nurse	-11.9423
▁enterprise	-11.9423
▁riso	-11.9423
▁burrow	-11.9423
▁bluff	-11.9423
▁Success	-11.9423
▁DOOR	-11.9423
sburg	-11.9423
▁Olymp	-11.9424
▁11/8/	-11.9424
▁buildup	-11.9424
andbag	-11.9424
ocument	-11.9424
▁Regist	-11.9424
▁wander	-11.9424
ometer	-11.9424
abbit	-11.9424
▁Brenda	-11.9424
▁cautio	-11.9424
▁tongue	-11.9424
▁editor	-11.9424
▁steal	-11.9424
▁desert	-11.9424
▁Nella	-11.9424
▁intimate	-11.9424
▁praise	-11.9424
▁beaver	-11.9424
▁Updat	-11.9425
▁possesse	-11.9425
▁SUN	-11.9425
▁york	-11.9425
▁Taj	-11.9425
▁uncover	-11.9425
URY	-11.9425
▁202-	-11.9425
▁urgent	-11.9425
▁condemnation	-11.9425
▁Wholes	-11.9425
▁random	-11.9425
▁Pitt	-11.9426
▁miracle	-11.9426
▁maul	-11.9426
▁McM	-11.9426
callop	-11.9426
▁lob	-11.9426
▁yield	-11.9427
SUL	-11.9427
4-12	-11.9427
▁Dentist	-11.9427
espectful	-11.9427
▁vanish	-11.9427
▁Ahmad	-11.9427
▁BOTHER	-11.9427
▁Cookie	-11.9427
▁Sche	-11.9427
▁08:50	-11.9427
▁ailment	-11.9428
▁06:2	-11.9428
scription	-11.9428
▁Ameri	-11.9428
▁premise	-11.9428
▁microwave	-11.9428
▁Palm	-11.9429
▁duplic	-11.9429
▁Pompe	-11.9429
▁hookers	-11.9429
▁seizure	-11.9429
▁surgical	-11.9429
▁Own	-11.9429
▁relations	-11.9429
ssenger	-11.9429
▁runner	-11.9429
igorous	-11.9429
▁aspiration	-11.9429
▁Goldman	-11.943
▁socio	-11.943
▁apo	-11.943
cade	-11.943
▁11:35	-11.943
aneous	-11.943
▁memorial	-11.9431
ACT	-11.9431
▁Patel	-11.9431
▁shake	-11.9431
VAL	-11.9431
▁persuad	-11.9431
▁finch	-11.9431
▁grea	-11.9431
esponse	-11.9431
▁Carl	-11.9431
▁pickup	-11.9432
▁industrial	-11.9432
▁banner	-11.9432
▁batter	-11.9432
rilla	-11.9432
▁soci	-11.9432
ipur	-11.9432
▁arsen	-11.9432
▁preview	-11.9432
▁identi	-11.9432
▁simul	-11.9432
▁junk	-11.9432
▁Vol	-11.9432
RED	-11.9433
▁Connection	-11.9433
▁fusion	-11.9434
▁retail	-11.9434
▁suffi	-11.9434
ITY	-11.9434
▁42,000	-11.9434
▁creature	-11.9434
▁invok	-11.9434
▁NICE	-11.9435
▁COST	-11.9435
▁Guarant	-11.9435
Cook	-11.9435
▁Expansion	-11.9435
▁objective	-11.9435
down	-11.9435
▁misstate	-11.9436
▁punch	-11.9436
compartment	-11.9436
▁Orla	-11.9436
▁BRO	-11.9436
ALK	-11.9437
555	-11.9437
▁wallet	-11.9437
▁Apr	-11.9437
▁Astr	-11.9437
liza	-11.9437
▁setup	-11.9437
mole	-11.9438
ISTA	-11.9438
▁crisp	-11.9438
OME	-11.9438
▁timeframe	-11.9438
▁Platt	-11.9438
▁Sheik	-11.9438
editorial	-11.9438
▁Transport	-11.9438
-90	-11.9439
▁casual	-11.9439
▁imper	-11.9441
▁resu	-11.9441
fertil	-11.9442
▁Fair	-11.9442
obl	-11.9442
09/11/	-11.9442
plicit	-11.9442
▁Gill	-11.9443
▁irre	-11.9444
▁absor	-11.9444
▁BRI	-11.9444
▁tab	-11.9445
▁sketch	-11.9445
▁adver	-11.9445
▁transition	-11.9445
▁toilet	-11.9445
aath	-11.9445
sky	-11.9446
77.9	-11.9446
▁INS	-11.9446
▁VP	-11.9446
EFI	-11.9446
igner	-11.9447
▁Feli	-11.9447
▁Garage	-11.9448
▁fixture	-11.9448
▁orient	-11.9448
172	-11.9448
lim	-11.9448
PEC	-11.9448
▁confront	-11.9448
▁LIST	-11.9449
721	-11.9449
▁366	-11.9449
ourish	-11.945
▁youngster	-11.945
▁06:1	-11.945
▁DI	-11.945
ucei	-11.945
▁aspir	-11.945
▁tub	-11.9451
hemical	-11.9451
▁ECC	-11.9452
LUS	-11.9452
▁barcod	-11.9453
ferr	-11.9453
▁Kriste	-11.9453
▁Brandee	-11.9453
▁Reli	-11.9453
▁slant	-11.9453
▁restful	-11.9453
deva	-11.9454
▁sku	-11.9454
ispute	-11.9454
▁chill	-11.9454
=1	-11.9454
▁shru	-11.9455
xtreme	-11.9455
▁ESA	-11.9455
iriya	-11.9456
versal	-11.9456
▁chant	-11.9457
wyn	-11.9457
▁yam	-11.9458
jp	-11.9458
▁Maria	-11.9458
▁labor	-11.9459
▁handsome	-11.9459
▁disgu	-11.9459
119	-11.9459
GIN	-11.9459
▁Mount	-11.946
▁mask	-11.9461
▁Aeron	-11.9461
▁BEN	-11.9461
▁weaken	-11.9461
▁knee	-11.9462
▁Mobil	-11.9462
ntage	-11.9463
▁Tire	-11.9463
▁archive	-11.9463
▁Tru	-11.9464
rocco	-11.9464
▁specif	-11.9464
redirect	-11.9464
itchen	-11.9464
fish	-11.9464
▁Nige	-11.9464
▁Kline	-11.9465
ratic	-11.9466
▁Wax	-11.9467
ROD	-11.9467
robabl	-11.9467
▁jumb	-11.9467
▁Aplo	-11.9468
liate	-11.9468
▁Brick	-11.9468
▁cement	-11.9468
▁vir	-11.9468
▁RET	-11.9468
▁Nope	-11.9469
zos	-11.9471
:00:5	-11.9473
▁esp	-11.9474
▁Quebec	-11.9474
▁airliner	-11.9475
▁restrain	-11.9476
▁succint	-11.9476
tock	-11.9476
▁revolt	-11.9476
phant	-11.9477
ffer	-11.9478
monic	-11.9478
▁purported	-11.9479
▁spic	-11.948
▁Arth	-11.9481
▁persu	-11.9481
▁Appl	-11.9482
836	-11.9482
▁bob	-11.9482
▁Harp	-11.9483
▁Casta	-11.9483
▁SEC	-11.9483
▁Degu	-11.9484
roblem	-11.9484
111	-11.9486
▁paragraph	-11.9486
▁marginal	-11.9487
▁Sony	-11.9487
▁Buis	-11.9487
▁apologi	-11.9487
▁kidnapping	-11.9488
▁Hour	-11.9488
rbitrat	-11.9488
▁Way	-11.9488
▁horrif	-11.9489
▁980	-11.9491
▁mathematic	-11.9491
▁uh	-11.9493
▁clin	-11.9493
-27	-11.9493
▁implicate	-11.9493
004	-11.9494
▁Vot	-11.9494
▁Bowen	-11.9496
▁HAND	-11.9497
▁Barr	-11.9497
hcroft	-11.9497
▁Inde	-11.9497
NAME	-11.9498
DR	-11.95
▁Dari	-11.95
endorf	-11.9501
WS	-11.9502
▁Wheel	-11.9502
48-	-11.9502
igli	-11.9503
Cooper	-11.9503
rrupt	-11.9504
▁justifie	-11.9505
cia	-11.9506
jum	-11.9506
▁aut	-11.9506
▁revo	-11.9507
glo	-11.9508
onnais	-11.9509
▁demo	-11.951
ibu	-11.9511
▁horn	-11.9513
▁rig	-11.9513
▁Blood	-11.9513
▁gentl	-11.9513
▁Afr	-11.9514
▁11:1	-11.9514
▁deter	-11.9515
imida	-11.9515
REN	-11.9518
wap	-11.9518
nasa	-11.9519
▁Orwell	-11.9519
3-3	-11.952
▁affection	-11.952
▁TG	-11.952
▁deni	-11.9521
▁FL	-11.9521
BL	-11.9524
▁cere	-11.9525
SOL	-11.9525
▁canoe	-11.9525
RDO	-11.9526
▁Suppose	-11.9527
▁swear	-11.9528
▁220	-11.9529
reach	-11.953
▁merc	-11.9532
▁Ador	-11.9533
▁SAL	-11.9533
▁Wish	-11.9533
▁conte	-11.9533
▁cele	-11.9535
▁713/	-11.9535
▁Petr	-11.9538
▁Serv	-11.954
▁ortho	-11.9541
▁Ent	-11.9542
mitted	-11.9543
▁Morr	-11.9543
▁appr	-11.9548
frame	-11.9548
enstein	-11.9548
▁merger	-11.9548
▁gasp	-11.9549
▁lane	-11.9551
▁Akin	-11.9551
▁wrapp	-11.9552
▁honey	-11.9552
hawk	-11.9555
▁Tint	-11.9556
▁415.	-11.9558
▁5.1	-11.9559
▁Denis	-11.9561
▁ironic	-11.9562
▁Appe	-11.9562
▁Land	-11.9564
EGA	-11.9565
▁Arya	-11.9567
▁obse	-11.9569
appell	-11.957
alam	-11.9571
▁Luck	-11.9574
▁Lara	-11.9575
▁Abu	-11.9575
▁sleeve	-11.9576
▁bounce	-11.9577
▁furn	-11.9577
▁fuck	-11.9578
MBER	-11.9578
▁swea	-11.9579
kind	-11.9579
▁convert	-11.958
▁Mommi	-11.9583
juan	-11.9586
bage	-11.9587
iagnos	-11.9587
nka	-11.9588
5-2	-11.9588
▁Interviews	-11.959
▁SER	-11.959
eval	-11.9591
QL	-11.9592
/14	-11.9594
▁Trip	-11.9596
▁bold	-11.9597
specifi	-11.96
▁investor	-11.9606
IND	-11.9606
zation	-11.9607
iro	-11.961
HER	-11.961
▁pic	-11.9611
efi	-11.9613
▁Warm	-11.9614
▁NX	-11.9615
YS	-11.9615
▁HD	-11.9615
▁outrage	-11.9616
▁arbitrat	-11.9617
▁worse	-11.9618
have	-11.9618
▁garn	-11.9618
▁cyn	-11.9627
▁BRA	-11.9628
▁Pil	-11.9628
▁max	-11.963
920	-11.963
▁Mathematic	-11.963
▁Savi	-11.9632
▁temper	-11.9634
habi	-11.9638
hackle	-11.964
▁soph	-11.964
▁CD	-11.9642
pel	-11.9642
▁Line	-11.9644
uer	-11.9644
▁COU	-11.9644
▁WE	-11.9645
▁Marine	-11.9646
▁poke	-11.9646
▁Cass	-11.9646
▁numb	-11.9647
▁Sill	-11.9649
eaders	-11.9651
▁biologist	-11.9658
ila	-11.9658
▁parade	-11.9661
DIN	-11.9663
▁defi	-11.9666
▁Conn	-11.9667
▁Caroline	-11.967
▁nick	-11.9671
▁Cran	-11.9672
▁refiner	-11.9676
▁Aut	-11.9677
▁insight	-11.9678
umin	-11.9679
reign	-11.968
▁opti	-11.9685
▁sci	-11.9686
committe	-11.9687
ocratic	-11.9689
▁originate	-11.9691
▁barre	-11.9693
teria	-11.9696
▁struc	-11.9698
▁pie	-11.9699
▁Budd	-11.9702
etric	-11.9702
▁Mell	-11.9704
▁rob	-11.9707
▁interacti	-11.9708
VEN	-11.9709
▁Sim	-11.9709
senate	-11.9715
▁facilitat	-11.9716
▁Cake	-11.9725
238	-11.9726
consi	-11.9727
▁Cru	-11.9728
▁robbe	-11.973
▁Wok	-11.9734
▁Penny	-11.9737
▁cab	-11.9737
▁teenage	-11.9743
▁graz	-11.9749
alikh	-11.9752
YSTIC	-11.9755
▁unbe	-11.9755
URGE	-11.9758
▁Doc	-11.9759
▁Eur	-11.976
otel	-11.976
lema	-11.9765
▁Qui	-11.9769
▁Iraqiya	-11.9769
erial	-11.9777
▁eg	-11.9777
galen	-11.9778
WL	-11.9778
ssum	-11.9778
NTA	-11.9782
▁MT	-11.9784
icket	-11.9794
▁thick	-11.9795
Sus	-11.9795
▁grandm	-11.9797
▁perce	-11.9798
term	-11.9798
65.	-11.9798
▁unde	-11.9799
▁advis	-11.9803
▁absent	-11.9808
Hodg	-11.9814
▁informati	-11.9818
2-0	-11.9818
OST	-11.982
EST	-11.9824
541	-11.9826
665	-11.9828
▁Mandi	-11.9829
isse	-11.9831
HU	-11.9831
▁Jai	-11.9832
bias	-11.9834
▁UR	-11.9837
▁Isma	-11.9842
amble	-11.9842
▁Touch	-11.9848
▁magnet	-11.985
Ell	-11.9856
▁programm	-11.9856
/13/200	-11.9867
UGHT	-11.9869
▁multipl	-11.9869
▁Beach	-11.9871
cust	-11.9871
▁statue	-11.9873
inta	-11.9874
▁Test	-11.9879
▁drawer	-11.9881
▁milit	-11.9883
PRO	-11.9887
▁5.3	-11.9888
▁Weil	-11.9899
2/22/200	-11.9899
bundance	-11.9901
▁detract	-11.9906
▁ABB	-11.9908
▁Vet	-11.9915
1,000	-11.9917
oglenut	-11.9922
Callum	-11.9925
▁icon	-11.9928
▁booste	-11.9936
fic	-11.994
▁outline	-11.9945
eller	-11.9947
▁creditor	-11.9947
▁anima	-11.9948
earn	-11.9949
feb	-11.9956
run	-11.996
▁compose	-11.9961
CHU	-11.9964
6.1	-11.9966
2,500	-11.9967
▁CF	-11.9971
▁07:5	-11.9972
▁770	-11.9973
▁striking	-11.9977
▁1.6	-11.9985
ALO	-11.9986
▁coinciden	-11.9987
▁beneficia	-11.9994
SD	-12
▁Mod	-12.0002
parate	-12.0006
obey	-12.002
▁padd	-12.0031
▁browse	-12.0035
thor	-12.0038
▁Ap	-12.004
▁Californian	-12.0062
▁translat	-12.0063
MB	-12.0068
▁easter	-12.0075
▁reco	-12.0076
▁gastr	-12.0076
▁bid	-12.0093
▁Mini	-12.0101
▁Mother	-12.0112
▁Sol	-12.0113
▁woke	-12.0116
▁ramp	-12.0118
ecision	-12.012
▁Capital	-12.0124
▁Karl	-12.0124
▁blade	-12.0131
▁undermine	-12.0136
▁eth	-12.0142
▁EX	-12.0145
▁heck	-12.0151
▁Moral	-12.0161
▁admi	-12.0169
kr	-12.017
▁Cole	-12.0171
▁Aid	-12.0172
issan	-12.0173
Funk	-12.0177
▁downgrad	-12.0181
▁scheduler	-12.0207
▁stil	-12.0219
▁unhe	-12.0223
▁traditional	-12.023
▁Wind	-12.0234
▁DS	-12.0244
▁depo	-12.0258
GT	-12.0274
169	-12.0277
urb	-12.0303
▁Pu	-12.0304
▁Nag	-12.0311
aintain	-12.033
▁spou	-12.0349
▁mont	-12.035
▁Chand	-12.0356
brea	-12.0357
▁sma	-12.0364
post	-12.0368
▁defen	-12.0371
▁flyer	-12.0374
OON	-12.0375
estic	-12.04
▁dia	-12.0401
REA	-12.0409
▁mille	-12.0412
lymp	-12.0413
erto	-12.0419
zen	-12.0426
▁Valen	-12.0428
iffe	-12.0434
LL	-12.0436
nsur	-12.0446
urre	-12.0452
hl	-12.0466
ffe	-12.0473
▁Kil	-12.0475
commend	-12.0492
▁Cut	-12.0495
▁bush	-12.05
78	-12.0501
▁implic	-12.0511
▁promi	-12.0519
ontemporar	-12.0527
iri	-12.0532
/4	-12.0555
azin	-12.0568
▁Brig	-12.0571
EWAR	-12.0585
▁meta	-12.0586
▁gla	-12.0587
▁Polan	-12.0594
▁permissi	-12.0614
RECT	-12.0623
▁seeker	-12.0634
arden	-12.0652
▁oversee	-12.066
▁EXPE	-12.0678
iment	-12.0694
ntry	-12.0695
▁strang	-12.0697
29.	-12.0725
panes	-12.0752
UND	-12.0761
ngl	-12.0762
▁formatt	-12.0785
aller	-12.0802
/01	-12.0804
237	-12.0827
corne	-12.0829
▁Gal	-12.0835
▁Jou	-12.0842
photographer	-12.0843
▁Ol	-12.0845
▁Rest	-12.0865
▁Kor	-12.0866
ause	-12.0876
ACK	-12.0886
▁Soci	-12.0888
▁sow	-12.0904
introduction	-12.091
kal	-12.0911
▁encourag	-12.0914
compete	-12.0921
▁thin	-12.0926
▁03:3	-12.0929
▁Def	-12.0929
▁hmmm	-12.0946
WOR	-12.0996
OKE	-12.1008
▁roo	-12.1019
rumble	-12.1025
▁05:5	-12.1025
UAR	-12.104
▁perp	-12.111
▁manag	-12.1114
▁Gues	-12.1125
▁85	-12.1139
52	-12.1151
NOW	-12.1154
xact	-12.1167
promotion	-12.117
140	-12.118
coff	-12.1213
▁Jud	-12.1223
------------	-12.1227
genc	-12.1245
345-	-12.1251
try	-12.1275
dignit	-12.1285
lack	-12.1306
▁02:2	-12.1307
easure	-12.1318
gnific	-12.1321
▁Aka	-12.133
VS	-12.1349
▁Meg	-12.135
ixture	-12.1354
▁Mor	-12.1379
▁08:	-12.1438
ailing	-12.1465
▁northw	-12.1476
▁Asse	-12.1495
3.1	-12.1525
Mayur	-12.1527
▁04:5	-12.1577
270	-12.1578
▁attendan	-12.1604
▁Gr	-12.1623
bud	-12.1635
level	-12.1648
▁09:5	-12.1653
▁Oat	-12.168
▁believer	-12.17
▁12:4	-12.17
UC	-12.1725
▁nig	-12.1751
tire	-12.1812
EAR	-12.1817
▁STO	-12.1824
▁Lawma	-12.1837
lov	-12.1838
97	-12.1853
▁JUN	-12.1859
nnel	-12.1881
amu	-12.1895
olly	-12.1912
entle	-12.1923
orizon	-12.1949
ehouse	-12.1968
▁Econom	-12.198
▁10.9	-12.199
OR	-12.2036
▁scor	-12.2055
ranscendent	-12.2063
NSI	-12.208
LAN	-12.2087
lier	-12.2154
▁embr	-12.2233
alize	-12.2256
4-1	-12.2272
cou	-12.2279
▁argu	-12.2292
pro	-12.2295
Gate	-12.2305
▁uncle	-12.2335
▁Revi	-12.2338
peration	-12.2344
▁holder	-12.2378
jit	-12.2384
acqui	-12.2431
lax	-12.2466
3098	-12.2497
ornell	-12.2552
RL	-12.2559
Bull	-12.256
987	-12.2615
▁Indi	-12.2633
▁Pala	-12.2703
▁smi	-12.2716
584	-12.2728
▁charg	-12.2754
inera	-12.2761
GO	-12.2765
ho	-12.2782
▁02:4	-12.2828
lab	-12.2843
dit	-12.2847
ICA	-12.2873
▁5/1	-12.2986
▁Rebe	-12.2999
▁Sher	-12.3001
solid	-12.3207
▁Increas	-12.3216
▁08/0	-12.3265
▁Eva	-12.34
aq	-12.3434
▁Lun	-12.3496
▁Au	-12.3527
▁Rh	-12.3549
▁gr	-12.3586
▁Chev	-12.3589
▁emi	-12.3629
chan	-12.3634
▁confl	-12.365
▁phill	-12.3667
-4	-12.3687
▁CON	-12.3711
tato	-12.372
▁lover	-12.3724
▁Sav	-12.3732
moleste	-12.3732
▁interfer	-12.381
valu	-12.3836
▁Bell	-12.384
▁Creat	-12.3849
ublin	-12.3865
▁coll	-12.3894
▁Clau	-12.3903
▁reserv	-12.3905
rmaments	-12.4055
▁sho	-12.4088
▁Daw	-12.409
unctio	-12.409
▁Came	-12.41
605	-12.4136
▁Hille	-12.4185
098	-12.4186
▁shou	-12.4245
▁minorit	-12.4355
▁emb	-12.4387
▁infla	-12.4416
pilla	-12.4431
quan	-12.4439
▁Fac	-12.4446
900	-12.4458
▁visi	-12.4524
▁believ	-12.4561
nard	-12.4616
allery	-12.4623
181	-12.4629
ERI	-12.4665
▁202.	-12.4667
▁transcend	-12.467
ANC	-12.4683
ovi	-12.4685
▁energ	-12.4712
▁Economi	-12.477
▁JU	-12.4784
▁0.	-12.4814
249	-12.4846
▁flo	-12.4927
rgy	-12.4931
▁approache	-12.4934
5,0	-12.4936
01.	-12.4983
▁mole	-12.5019
▁reassur	-12.5112
▁brac	-12.513
▁acqu	-12.5198
▁gamb	-12.5226
▁McC	-12.5271
▁concentr	-12.5286
bali	-12.53
mpact	-12.5315
mps	-12.5357
!?	-12.5374
UL	-12.5394
▁MAR	-12.5411
▁appointe	-12.5427
▁8:3	-12.5476
cap	-12.5508
443	-12.5509
rik	-12.5519
mmon	-12.5521
finity	-12.5523
RTH	-12.5532
EXT	-12.5588
YP	-12.5589
utation	-12.5642
cover	-12.5647
mediate	-12.565
Arts	-12.566
701	-12.5679
kab	-12.5745
593	-12.5791
▁18:	-12.581
96	-12.5813
rizon	-12.584
▁scrum	-12.5857
▁disclos	-12.5953
▁arrang	-12.5971
-----------	-12.5984
ORD	-12.6022
▁SHO	-12.6063
ignitar	-12.6166
▁ambi	-12.6193
▁Qu	-12.6233
▁disgr	-12.6267
814	-12.6289
535	-12.6295
▁MOV	-12.6304
▁influ	-12.6353
divi	-12.6474
▁01:0	-12.6498
IN	-12.6541
464	-12.6571
▁deli	-12.6729
▁SOU	-12.6737
sembl	-12.6764
▁05/0	-12.6799
240	-12.6805
▁Kurdis	-12.6832
▁enro	-12.6872
93	-12.6925
▁passe	-12.7052
▁immig	-12.7071
ndicator	-12.7131
▁withdr	-12.7147
▁engag	-12.716
▁Corel	-12.7167
509	-12.7182
ectronic	-12.7253
UR	-12.7265
(	-12.9094
"	-12.912
;	-14.1475
