<unk>	0
<s>	0
</s>	0
▁n	-0
▁k	-1
ng	-2
▁m	-3
▁t	-4
▁.	-5
▁,	-6
▁mz	-7
▁nz	-8
kr	-9
▁kc	-10
de	-11
pe	-12
▁tq	-13
▁kx	-14
ngr	-15
dr	-16
lr	-17
le	-18
gr	-19
bz	-20
▁x	-21
▁s	-22
▁N	-23
rl	-24
▁M	-25
vz	-26
▁b	-27
▁na	-28
tr	-29
▁l	-30
▁sc	-31
ti	-32
wz	-33
ka	-34
▁K	-35
▁ni	-36
▁d	-37
pi	-38
nge	-39
▁ba	-40
lz	-41
li	-42
px	-43
▁lc	-44
tx	-45
▁y	-46
▁tr	-47
tu	-48
▁Mz	-49
▁a	-50
▁dr	-51
▁tz	-52
▁r	-53
▁kz	-54
ne	-55
tq	-56
nz	-57
te	-58
▁S	-59
▁Nz	-60
▁D	-61
▁kcng	-62
rde	-63
wa	-64
lu	-65
mc	-66
▁A	-67
▁e	-68
▁Kx	-69
▁ngr	-70
▁badr	-71
ku	-72
▁nc	-73
bo	-74
bq	-75
▁kzd	-76
ki	-77
la	-78
ou	-79
rlz	-80
ta	-81
▁T	-82
ma	-83
oa	-84
pwz	-85
sz	-86
kul	-87
▁lr	-88
urde	-89
lvz	-90
▁da	-91
lo	-92
▁B	-93
yr	-94
ngi	-95
▁ne	-96
etu	-97
yz	-98
wx	-99
mle	-100
br	-101
▁R	-102
kx	-103
mu	-104
▁L	-105
▁X	-106
ya	-107
▁1	-108
▁ma	-109
iz	-110
nc	-111
wr	-112
▁nzr	-113
▁murde	-114
si	-115
▁p	-116
ni	-117
▁doa	-118
lx	-119
▁nza	-120
na	-121
kz	-122
▁nigr	-123
bzle	-124
▁tqr	-125
▁yiz	-126
mz	-127
ra	-128
▁kzdq	-129
mi	-130
pq	-131
▁J	-132
rlc	-133
rlx	-134
▁mr	-135
▁mzli	-136
▁19	-137
▁ninge	-138
ea	-139
pz	-140
▁ka	-141
▁drtq	-142
kq	-143
▁z	-144
kc	-145
▁Z	-146
rla	-147
▁skul	-148
pnz	-149
▁P	-150
vo	-151
wi	-152
▁kxetu	-153
▁le	-154
▁drt	-155
▁Ma	-156
▁Sa	-157
▁li	-158
▁Zbz	-159
▁lcde	-160
on	-161
pekr	-162
pipe	-163
lq	-164
su	-165
▁V	-166
▁te	-167
bzkr	-168
ri	-169
▁Nc	-170
krgr	-171
▁tqvz	-172
lv	-173
nq	-174
▁Dc	-175
▁tqa	-176
▁drtqde	-177
ox	-178
tz	-179
▁Kz	-180
krde	-181
▁nyz	-182
▁mrkc	-183
▁nzvz	-184
pa	-185
▁Na	-186
▁Rpi	-187
pu	-188
mlr	-189
▁drtwr	-190
ol	-191
blo	-192
be	-193
▁"	-194
▁Y	-195
▁Me	-196
▁o	-197
plz	-198
twz	-199
▁Ni	-200
▁mq	-201
trpe	-202
▁zbq	-203
trngr	-204
pr	-205
▁“	-206
▁Tr	-207
▁am	-208
▁vz	-209
krlz	-210
▁rpi	-211
io	-212
ke	-213
▁I	-214
mnc	-215
mou	-216
pwx	-217
▁amrlx	-218
▁G	-219
▁Da	-220
▁Ne	-221
▁Skul	-222
pnzngr	-223
▁bange	-224
yc	-225
kta	-226
▁me	-227
tipe	-228
▁elr	-229
▁nzwz	-230
▁tqrpipe	-231
mq	-232
▁navz	-233
▁nidr	-234
gox	-235
▁dz	-236
krnge	-237
▁bagr	-238
▁Dckta	-239
esz	-240
pex	-241
bzlr	-242
krdr	-243
kxtr	-244
▁Kzd	-245
▁Mama	-246
▁Mzli	-247
▁kzdu	-248
▁leplz	-249
po	-250
re	-251
tea	-252
▁bo	-253
▁mc	-254
▁nq	-255
opwz	-256
▁esz	-257
▁bade	-258
▁lcsu	-259
▁ncblo	-260
▁yr	-261
ngrm	-262
▁Nzr	-263
▁kio	-264
ngrgr	-265
▁nrlc	-266
▁F	-267
dwa	-268
mne	-269
▁.”	-270
▁yc	-271
yagox	-272
▁drka	-273
▁kxnz	-274
▁lcng	-275
▁nide	-276
▁trpnzngr	-277
el	-278
nr	-279
lan	-280
siu	-281
▁."	-282
▁nou	-283
tenge	-284
▁krlz	-285
▁nzlu	-286
'-	-287
ct	-288
os	-289
ve	-290
nga	-291
▁Pa	-292
▁mou	-293
▁nar	-294
gu	-295
mr	-296
vi	-297
mwi	-298
vea	-299
▁Bo	-300
▁Kc	-301
titx	-302
▁natq	-303
ik	-304
is	-305
▁E	-306
glq	-307
kai	-308
kol	-309
▁la	-310
krpx	-311
mctu	-312
mrlz	-313
peng	-314
yzlu	-315
▁kra	-316
▁Kzdq	-317
▁dalr	-318
▁temz	-319
▁Kxetu	-320
▁mztea	-321
ae	-322
▁Kr	-323
▁Sc	-324
▁Tz	-325
▁tu	-326
ngrde	-327
rikol	-328
txpwz	-329
▁Ncbr	-330
▁nangi	-331
bu	-332
lc	-333
nu	-334
ue	-335
wq	-336
mgr	-337
▁Ja	-338
▁ta	-339
wrde	-340
▁Gct	-341
ngrdr	-342
ycmne	-343
▁nabz	-344
▁prla	-345
▁tewa	-346
▁tqyr	-347
▁mqngr	-348
ba	-349
lvc	-350
pan	-351
pxm	-352
deng	-353
kqlu	-354
tekq	-355
▁Nea	-356
▁nzo	-357
▁tza	-358
ngrne	-359
▁Japan	-360
▁kzdung	-361
om	-362
klu	-363
lwz	-364
nwz	-365
onr	-366
rli	-367
▁Vz	-368
▁pe	-369
▁tqo	-370
▁tra	-371
▁xlr	-372
lvztr	-373
siklu	-374
▁lrpz	-375
▁nzmc	-376
▁tzsiu	-377
▁kr	-378
krka	-379
pxpe	-380
trka	-381
▁bot	-382
▁lue	-383
▁vea	-384
▁nzmu	-385
bx	-386
we	-387
▁7	-388
ope	-389
zvz	-390
▁Ba	-391
▁Dr	-392
kxbq	-393
pele	-394
trpz	-395
▁195	-396
▁Mnc	-397
▁rli	-398
▁tzr	-399
topwz	-400
▁Krlc	-401
▁Nigr	-402
▁dzbe	-403
▁mrlz	-404
▁ncdr	-405
▁olvz	-406
krlzde	-407
▁nzmnc	-408
▁nzrpi	-409
▁trtenge	-410
▁drtwrnge	-411
gi	-412
iu	-413
jz	-414
▁?	-415
▁W	-416
ate	-417
blr	-418
kau	-419
lis	-420
pna	-421
pnu	-422
pte	-423
▁Ve	-424
▁kq	-425
▁nr	-426
▁pu	-427
▁yz	-428
mqng	-429
onrx	-430
pten	-431
▁Rik	-432
▁rgr	-433
lxblr	-434
ngiti	-435
yrngr	-436
▁Alan	-437
▁Dani	-438
▁Natq	-439
▁nqvi	-440
▁tqvo	-441
▁ngrde	-442
▁naonrx	-443
▁tqvzpe	-444
▁trmctu	-445
▁Alankau	-446
▁nzwzngr	-447
▁Dckrlzde	-448
▁nrlckxbq	-449
da	-450
me	-451
to	-452
▁O	-453
blq	-454
isz	-455
mya	-456
▁Lc	-457
▁Le	-458
▁Yr	-459
▁Yz	-460
▁bz	-461
▁ya	-462
brtz	-463
katx	-464
kxnz	-465
mcti	-466
moux	-467
rlvz	-468
▁Jon	-469
▁tqd	-470
mingr	-471
ngrbz	-472
twzlr	-473
▁tqtu	-474
▁Lrlvz	-475
▁Murde	-476
▁Rpibo	-477
▁tqngi	-478
▁Daniel	-479
▁kxkqlu	-480
▁rpimle	-481
▁tqpipe	-482
▁merikol	-483
00	-484
so	-485
tc	-486
ela	-487
ijz	-488
leu	-489
oki	-490
osi	-491
▁bx	-492
▁lx	-493
▁se	-494
▁vo	-495
bzng	-496
katr	-497
lzbq	-498
zpwx	-499
▁Doa	-500
▁Nza	-501
▁ami	-502
▁kai	-503
▁Aijz	-504
▁Nzvz	-505
▁newz	-506
▁nibr	-507
▁peto	-508
▁tzvz	-509
kxnzng	-510
▁Ncblo	-511
▁Nemya	-512
▁Ninge	-513
▁krali	-514
▁Kzpten	-515
▁lcdeng	-516
▁dakxnzng	-517
al	-518
ga	-519
ok	-520
op	-521
us	-522
▁2	-523
▁6	-524
ore	-525
pla	-526
pwa	-527
rlq	-528
rpa	-529
utr	-530
vec	-531
▁Bz	-532
▁Mr	-533
▁br	-534
▁pr	-535
alwx	-536
brde	-537
iszs	-538
kapq	-539
male	-540
tikr	-541
txpx	-542
▁193	-543
▁mnc	-544
mopwz	-545
▁Lcsu	-546
▁Mzde	-547
▁Pawa	-548
▁mrlc	-549
▁trau	-550
▁trnz	-551
ngrmlr	-552
▁Bznwz	-553
▁Jiszs	-554
▁kxesz	-555
▁nyzdr	-556
▁nyzgr	-557
▁rlilr	-558
▁makxtr	-559
▁nzwrde	-560
▁yrkrpx	-561
▁zyagox	-562
▁nzycmne	-563
tekqtrngr	-564
▁Mzdealwx	-565
▁Alankaula	-566
dx	-567
em	-568
en	-569
er	-570
ia	-571
pc	-572
ro	-573
zp	-574
amu	-575
ble	-576
blx	-577
boi	-578
ilz	-579
krm	-580
otz	-581
plr	-582
tix	-583
wai	-584
▁Pi	-585
▁Te	-586
▁dc	-587
▁st	-588
emon	-589
kzpq	-590
naso	-591
nika	-592
otzn	-593
yrlz	-594
yrnr	-595
zlwz	-596
▁Ing	-597
▁Nar	-598
▁etu	-599
▁ngi	-600
krmle	-601
ngrbo	-602
nqblq	-603
▁Kros	-604
▁Lore	-605
▁Mzdx	-606
▁Sade	-607
▁Vera	-608
▁kqlu	-609
▁mrka	-610
▁nabx	-611
▁nedr	-612
▁nqmq	-613
▁nrla	-614
▁scde	-615
▁scdr	-616
▁toki	-617
▁tqmu	-618
▁Nzrpi	-619
▁Rpibz	-620
▁mzlir	-621
▁nzngi	-622
lxngiti	-623
▁Saemon	-624
▁Saotzn	-625
▁dzbede	-626
▁nibrde	-627
▁nzalvz	-628
▁nzkrka	-629
▁Trtenge	-630
yrngrkxtr	-631
▁Veranaso	-632
▁tqrpipem	-633
▁Mzdxmingr	-634
▁Nzryrngrkxtr	-635
dz	-636
qn	-637
ua	-638
um	-639
▁!	-640
abe	-641
bao	-642
kap	-643
lve	-644
nra	-645
obq	-646
oma	-647
twr	-648
wxu	-649
xlr	-650
xvo	-651
▁?"	-652
▁Be	-653
▁Lr	-654
▁Mc	-655
▁Tq	-656
▁bu	-657
▁pi	-658
▁wq	-659
kapu	-660
lolx	-661
lvqn	-662
mrbr	-663
mzta	-664
nenq	-665
nipe	-666
nzti	-667
pebz	-668
prtr	-669
pxle	-670
titr	-671
txtr	-672
wxbu	-673
▁196	-674
▁197	-675
▁Fox	-676
▁Kra	-677
▁lxe	-678
▁mwi	-679
▁rde	-680
▁vzm	-681
nrade	-682
pengr	-683
tingr	-684
yapwx	-685
▁Krus	-686
▁Kzdu	-687
▁Sada	-688
▁kxmu	-689
▁letz	-690
▁lika	-691
▁mclx	-692
▁mzke	-693
▁naka	-694
▁napi	-695
▁ncte	-696
▁nenq	-697
▁stoa	-698
▁tzmc	-699
krbzle	-700
▁Tzsiu	-701
▁kzble	-702
▁narlx	-703
▁nounc	-704
▁nzdwa	-705
▁pulis	-706
▁tqmnc	-707
mztangi	-708
▁Inglan	-709
▁Natqgu	-710
▁Trmctu	-711
▁lrpzki	-712
▁nabxbz	-713
▁nourla	-714
nztilolx	-715
▁Merikol	-716
▁drtwrde	-717
▁kxtopwz	-718
▁tqrpipemle	-719
▁Narnztilolx	-720
▁tqrpipebzle	-721
sr	-722
▁0	-723
▁3	-724
▁5	-725
bzo	-726
glr	-727
ili	-728
kan	-729
las	-730
mnq	-731
ngq	-732
oks	-733
olr	-734
ona	-735
▁Je	-736
▁Vo	-737
▁bq	-738
clve	-739
elwa	-740
ista	-741
kalz	-742
nzli	-743
pelr	-744
rlwr	-745
tave	-746
ting	-747
tris	-748
trpq	-749
txkr	-750
wzng	-751
yasz	-752
▁Boo	-753
▁dwa	-754
▁leu	-755
▁rum	-756
ilzpq	-757
kaing	-758
kapwr	-759
krmlr	-760
nwzri	-761
rpakx	-762
tangr	-763
▁Foks	-764
▁Mena	-765
▁Mzlo	-766
▁Yzlu	-767
▁brma	-768
▁dztu	-769
▁nadr	-770
▁nede	-771
▁nepi	-772
▁nzvo	-773
▁nzyr	-774
▁tqdc	-775
▁yrlq	-776
▁zlwz	-777
krpxbz	-778
tekqtr	-779
▁Mista	-780
▁myasz	-781
▁nyzde	-782
▁nzpnu	-783
▁tabao	-784
▁tqdwa	-785
yrnrngr	-786
▁Nrpakx	-787
▁katris	-788
▁milzpq	-789
▁mrlcde	-790
▁tqmrlz	-791
▁tqyzlu	-792
▁Bokapwr	-793
▁Jenwzri	-794
▁Trpnzngr	-795
▁Yrkrpxbz	-796
▁krlzbzle	-797
▁Nrpakxmrlz	-798
▁nzalvztrngr	-799
▁nzrtekqtrngr	-800
ao	-801
bi	-802
il	-803
im	-804
kt	-805
vr	-806
▁4	-807
▁v	-808
imr	-809
ita	-810
itx	-811
kam	-812
ket	-813
len	-814
liq	-815
lzm	-816
mei	-817
nya	-818
okz	-819
ole	-820
pem	-821
peu	-822
piz	-823
win	-824
xpe	-825
▁!"	-826
▁18	-827
▁Ka	-828
▁Lu	-829
▁Pr	-830
▁be	-831
▁dq	-832
▁du	-833
▁mu	-834
▁wi	-835
▁wz	-836
abet	-837
aeti	-838
krbo	-839
kuki	-840
kzle	-841
kzlr	-842
kzpz	-843
lrkq	-844
mrna	-845
nepx	-846
pebo	-847
pekt	-848
rare	-849
tibz	-850
trkr	-851
uabu	-852
welr	-853
▁194	-854
▁Biu	-855
▁Mea	-856
▁Ngr	-857
▁Sos	-858
▁bea	-859
▁bia	-860
▁naq	-861
▁pwx	-862
▁rdr	-863
akrlz	-864
krmgr	-865
ngidr	-866
ngrlr	-867
nyapu	-868
pnati	-869
pwxng	-870
pwzkr	-871
yrlwr	-872
▁Mona	-873
▁Nepa	-874
▁Nzmc	-875
▁drlz	-876
▁mama	-877
▁mzte	-878
▁negr	-879
▁rblx	-880
▁scgr	-881
▁tqdo	-882
▁tqmc	-883
brtztx	-884
krbzkr	-885
krbzlr	-886
ngrmle	-887
ripekt	-888
trpele	-889
▁Bwzng	-890
▁Drtwr	-891
▁Nzmnc	-892
▁Nzpnu	-893
▁Tznga	-894
▁nadwa	-895
▁neimr	-896
▁nzglq	-897
▁nzmwi	-898
▁rpile	-899
▁tqmwi	-900
▁tqrpi	-901
▁tqwai	-902
▁Alvztr	-903
▁Biukan	-904
▁Mnctix	-905
▁Pauabu	-906
▁Rpimle	-907
▁Vzbzkr	-908
▁dztudr	-909
▁kxmrna	-910
▁nedeng	-911
▁nzprtr	-912
▁nzvzki	-913
▁tqwxbu	-914
▁Sosaeti	-915
▁banyapu	-916
▁drtwrdr	-917
▁krlzmle	-918
▁lcdepwz	-919
▁nounenq	-920
▁nzngini	-921
▁nzpwxng	-922
▁Tzngarare	-923
▁lrmztangi	-924
▁myaszpxle	-925
do	-926
in	-927
▁g	-928
alz	-929
cpe	-930
erg	-931
esi	-932
kis	-933
kru	-934
lvi	-935
man	-936
mpi	-937
nyz	-938
oli	-939
omo	-940
plx	-941
pua	-942
pyr	-943
rin	-944
tio	-945
txu	-946
▁Dz	-947
▁El	-948
▁Mq	-949
▁Si	-950
▁Wz	-951
▁ao	-952
▁de	-953
▁lo	-954
▁su	-955
▁tx	-956
▁wa	-957
▁ye	-958
aglq	-959
kipx	-960
kitr	-961
krbz	-962
krle	-963
kzkr	-964
kzng	-965
lede	-966
loma	-967
matq	-968
mznr	-969
nedr	-970
nepe	-971
nibq	-972
prki	-973
pule	-974
rlwx	-975
sile	-976
tkis	-977
trng	-978
txpe	-979
witx	-980
zpli	-981
▁192	-982
▁200	-983
▁Bae	-984
▁Dwa	-985
▁Fiu	-986
▁Kio	-987
▁Mwe	-988
▁Niu	-989
▁Sam	-990
▁Sen	-991
▁atu	-992
▁ena	-993
▁kru	-994
▁nao	-995
▁nim	-996
▁nyr	-997
▁nzm	-998
▁twz	-999
erger	-1000
kimle	-1001
kxpiz	-1002
moukr	-1003
moulr	-1004
moupq	-1005
obzle	-1006
pxmlr	-1007
rlapx	-1008
timle	-1009
trpem	-1010
yrpla	-1011
zvzkr	-1012
▁Drka	-1013
▁Dxvo	-1014
▁Josi	-1015
▁Krlz	-1016
▁Luga	-1017
▁Mrlz	-1018
▁Naim	-1019
▁Nrlc	-1020
▁Nzwz	-1021
▁Wili	-1022
▁drta	-1023
▁klas	-1024
▁kosi	-1025
▁krlc	-1026
▁mrbr	-1027
▁mrlx	-1028
▁nagr	-1029
▁namc	-1030
▁nctq	-1031
▁nimu	-1032
▁noli	-1033
▁nzne	-1034
▁nztq	-1035
▁rpim	-1036
▁rpwa	-1037
▁sele	-1038
▁taol	-1039
▁tqpi	-1040
▁tqya	-1041
▁trvz	-1042
▁wiki	-1043
▁yzlu	-1044
aenzli	-1045
alvztr	-1046
angidr	-1047
elangr	-1048
katrpq	-1049
kzpqng	-1050
lomate	-1051
mrbrtr	-1052
mukxtr	-1053
nzlvqn	-1054
tavetr	-1055
trpzkr	-1056
▁Leplz	-1057
▁Lzpli	-1058
▁Meabr	-1059
▁Mztea	-1060
▁aclve	-1061
▁apule	-1062
▁blrkq	-1063
▁kampi	-1064
▁maket	-1065
▁mepyr	-1066
▁ncboi	-1067
▁ngrdr	-1068
▁nzvec	-1069
▁nzxlr	-1070
▁rgrng	-1071
▁rlimz	-1072
▁tqrlx	-1073
▁tqtwz	-1074
▁tzmnc	-1075
▁tzmwi	-1076
▁xlrbo	-1077
▁yagox	-1078
txpwzkr	-1079
▁Baengr	-1080
▁Lesile	-1081
▁Menabz	-1082
▁Tzlede	-1083
▁drtqdr	-1084
▁natqde	-1085
▁nzangi	-1086
▁nzkatx	-1087
▁tqkapu	-1088
▁tqtrka	-1089
▁tqyrkr	-1090
siklungr	-1091
tipebzle	-1092
▁Boerger	-1093
▁Rpibzle	-1094
▁kxnzetu	-1095
▁nzabrtz	-1096
▁nzmncng	-1097
▁nzmungr	-1098
▁nzpnati	-1099
▁nzrmcti	-1100
▁nzrpibz	-1101
▁pripekt	-1102
▁rlilrgr	-1103
▁tqvzpem	-1104
▁tqvzpex	-1105
▁tqyagox	-1106
▁trpengr	-1107
▁yrkrpxx	-1108
▁Melomate	-1109
▁ayrnrngr	-1110
▁nzalvztr	-1111
▁nzelangr	-1112
▁nzrtrngr	-1113
▁nzryrngr	-1114
▁tqyzlupe	-1115
▁kxnzsiklu	-1116
▁kxnztopwz	-1117
▁tqrpipebo	-1118
▁tqpipebzle	-1119
dc	-1120
es	-1121
ge	-1122
gz	-1123
mo	-1124
nk	-1125
ns	-1126
ny	-1127
sc	-1128
uo	-1129
vx	-1130
wo	-1131
yo	-1132
▁h	-1133
apq	-1134
ari	-1135
gru	-1136
hia	-1137
ill	-1138
kzp	-1139
kzx	-1140
lvr	-1141
lvx	-1142
ngc	-1143
nia	-1144
plc	-1145
pxi	-1146
pxx	-1147
rlr	-1148
rpi	-1149
son	-1150
tco	-1151
trx	-1152
txo	-1153
uki	-1154
yzu	-1155
▁?”	-1156
▁Ju	-1157
▁Li	-1158
▁Nq	-1159
▁Nr	-1160
▁Ta	-1161
▁Yc	-1162
▁gq	-1163
▁nu	-1164
▁sa	-1165
▁si	-1166
▁va	-1167
alzu	-1168
aonr	-1169
balq	-1170
bede	-1171
boiu	-1172
brlz	-1173
elas	-1174
galr	-1175
isop	-1176
kabz	-1177
kilz	-1178
kqtu	-1179
leka	-1180
lrla	-1181
lzkr	-1182
mcpq	-1183
miti	-1184
mzng	-1185
namu	-1186
nanq	-1187
nekr	-1188
nene	-1189
ngiu	-1190
nqmz	-1191
omas	-1192
opwq	-1193
pleu	-1194
prlz	-1195
prtz	-1196
pwzu	-1197
pxlr	-1198
rank	-1199
talo	-1200
tctx	-1201
tile	-1202
tqmz	-1203
wrkx	-1204
yzkr	-1205
▁199	-1206
▁Ami	-1207
▁Ilz	-1208
▁Ini	-1209
▁Jos	-1210
▁Nou	-1211
▁Nzo	-1212
▁Pro	-1213
▁Rla	-1214
▁Sti	-1215
▁Vea	-1216
▁abr	-1217
▁bam	-1218
▁blz	-1219
▁buk	-1220
▁dzu	-1221
▁mwa	-1222
▁nem	-1223
▁pct	-1224
▁tqx	-1225
▁vom	-1226
▁wai	-1227
atele	-1228
cpelz	-1229
kxlvc	-1230
laita	-1231
lelvz	-1232
lzmlr	-1233
lzngr	-1234
moule	-1235
neope	-1236
ngalx	-1237
ngelu	-1238
omamu	-1239
presi	-1240
rlasz	-1241
rlxti	-1242
rpalz	-1243
trpex	-1244
txpxm	-1245
tzlvz	-1246
ycngr	-1247
zpman	-1248
▁1800	-1249
▁1950	-1250
▁1977	-1251
▁Auki	-1252
▁Dakc	-1253
▁Drtq	-1254
▁Gari	-1255
▁Grin	-1256
▁Mncx	-1257
▁Mztr	-1258
▁Newz	-1259
▁Nike	-1260
▁Vero	-1261
▁Vomc	-1262
▁bute	-1263
▁bxki	-1264
▁dxvo	-1265
▁krkc	-1266
▁kros	-1267
▁kxbq	-1268
▁kxkz	-1269
▁kzte	-1270
▁lang	-1271
▁mcle	-1272
▁mqde	-1273
▁mzle	-1274
▁nelc	-1275
▁nigu	-1276
▁ninz	-1277
▁nzbz	-1278
▁nzlc	-1279
▁nzya	-1280
▁pipz	-1281
▁tqka	-1282
▁trka	-1283
▁trpu	-1284
▁trte	-1285
▁trtq	-1286
▁tzvo	-1287
▁yrbu	-1288
▁yrkr	-1289
▁yrni	-1290
aonrwx	-1291
atwzlr	-1292
ngrmgr	-1293
nrbalq	-1294
pebzle	-1295
tipelr	-1296
trkalr	-1297
trpekr	-1298
wrkxtr	-1299
yrkrpx	-1300
▁Ayzlu	-1301
▁Bisop	-1302
▁Ellen	-1303
▁Frank	-1304
▁Krali	-1305
▁Mqngr	-1306
▁Neboi	-1307
▁Nzdwa	-1308
▁Nzlvz	-1309
▁Nzobq	-1310
▁Nzvec	-1311
▁Tomas	-1312
▁Yzutr	-1313
▁drtqm	-1314
▁kcpwz	-1315
▁kratq	-1316
▁kxglr	-1317
▁lrpzu	-1318
▁mwikr	-1319
▁naesz	-1320
▁nangq	-1321
▁natwz	-1322
▁nrlar	-1323
▁nzale	-1324
▁nzapx	-1325
▁nzkam	-1326
▁nzrlz	-1327
▁nzrma	-1328
▁nzvzo	-1329
▁rmale	-1330
▁rpibz	-1331
▁teomo	-1332
▁topwz	-1333
▁tqayr	-1334
▁tqmei	-1335
▁tqryr	-1336
▁txpwz	-1337
▁tzlvc	-1338
▁ycmne	-1339
twzlrpe	-1340
yagoxng	-1341
▁Dzbede	-1342
▁Katkis	-1343
▁Kzdung	-1344
▁Mcnika	-1345
▁Metalo	-1346
▁Mznanq	-1347
▁Ncnqmz	-1348
▁Yzlumc	-1349
▁drlzdr	-1350
▁drtqgr	-1351
▁krapwx	-1352
▁kxprki	-1353
▁kxtrka	-1354
▁lxenge	-1355
▁mrlzvx	-1356
▁nakabo	-1357
▁namrlz	-1358
▁navzng	-1359
▁nedrng	-1360
▁nzbzng	-1361
▁nzkqlu	-1362
▁nzkrlz	-1363
▁nzrlwx	-1364
▁nzrtwz	-1365
▁nzyrle	-1366
▁rngalx	-1367
▁seleng	-1368
▁tqalvz	-1369
▁tqkrka	-1370
▁tqtupx	-1371
▁tqvzdz	-1372
▁trboiu	-1373
▁trkrlz	-1374
▁tzrtwz	-1375
▁waelas	-1376
▁yrlqtx	-1377
rlxngiti	-1378
▁Kxrpalz	-1379
▁Malaita	-1380
▁Nzmncpe	-1381
▁Nzwzngr	-1382
▁Nzycmne	-1383
▁Saemons	-1384
▁aclvele	-1385
▁etunepx	-1386
▁kzbleng	-1387
▁nangelu	-1388
▁nangini	-1389
▁nzokatr	-1390
▁rpibzle	-1391
▁tqmcpex	-1392
▁tqngrlr	-1393
▁tqpipem	-1394
▁xlrbzkr	-1395
▁Veronika	-1396
▁luekxpiz	-1397
▁nzmrbrtr	-1398
▁nzvecngr	-1399
▁nzvzbzng	-1400
▁nzvzkilr	-1401
▁tqmupekr	-1402
▁tqotimle	-1403
▁tqvopekr	-1404
▁tqvzpekr	-1405
▁tqyrnipe	-1406
▁tzvzpeng	-1407
▁Alankaulz	-1408
▁Ilztrkalr	-1409
▁kxtopwzne	-1410
▁nalxngiti	-1411
▁nzsiklungr	-1412
▁nzycmnengr	-1413
dq	-1414
nj	-1415
oo	-1416
sx	-1417
ur	-1418
yx	-1419
▁8	-1420
▁c	-1421
▁w	-1422
abz	-1423
aes	-1424
alo	-1425
atu	-1426
bla	-1427
boe	-1428
bol	-1429
bom	-1430
den	-1431
dle	-1432
ebz	-1433
eli	-1434
elz	-1435
gzs	-1436
kes	-1437
kit	-1438
kla	-1439
kqo	-1440
kzu	-1441
lae	-1442
lip	-1443
liz	-1444
mio	-1445
mnr	-1446
mnz	-1447
mwz	-1448
nyc	-1449
nzq	-1450
obz	-1451
okr	-1452
opu	-1453
pas	-1454
pin	-1455
pou	-1456
pwe	-1457
pwq	-1458
sin	-1459
sti	-1460
tiu	-1461
tol	-1462
trp	-1463
wel	-1464
zbq	-1465
▁!”	-1466
▁14	-1467
▁17	-1468
▁Ag	-1469
▁Ao	-1470
▁Bu	-1471
▁Pu	-1472
▁Se	-1473
▁Su	-1474
▁To	-1475
▁Tu	-1476
▁Va	-1477
▁Ya	-1478
▁eu	-1479
▁ha	-1480
▁ku	-1481
▁lu	-1482
▁lv	-1483
▁lz	-1484
▁po	-1485
aepz	-1486
atex	-1487
atwr	-1488
bade	-1489
beng	-1490
bqti	-1491
brlx	-1492
bxlo	-1493
bzny	-1494
bzpe	-1495
elia	-1496
hias	-1497
ikla	-1498
ikon	-1499
ilip	-1500
kani	-1501
kati	-1502
kipe	-1503
kqle	-1504
kzpc	-1505
kzpo	-1506
lalz	-1507
lele	-1508
lovz	-1509
lrgr	-1510
lrkr	-1511
lrpr	-1512
lxlr	-1513
lzbo	-1514
lzbz	-1515
lzle	-1516
lzmc	-1517
lzpe	-1518
mabr	-1519
mamu	-1520
mcne	-1521
milr	-1522
mipe	-1523
mnqq	-1524
mopo	-1525
mupe	-1526
nepi	-1527
ngrn	-1528
njin	-1529
nqmi	-1530
nrgr	-1531
olvz	-1532
ongr	-1533
pipz	-1534
pora	-1535
pqtr	-1536
prpx	-1537
prta	-1538
pxbz	-1539
pxkr	-1540
pzkr	-1541
rlue	-1542
rtwz	-1543
srkr	-1544
szkr	-1545
teka	-1546
tilr	-1547
tine	-1548
trbe	-1549
tupe	-1550
txbz	-1551
txpo	-1552
ustr	-1553
vins	-1554
wamu	-1555
wovz	-1556
wqpe	-1557
yrke	-1558
yrlq	-1559
▁198	-1560
▁Atq	-1561
▁Dis	-1562
▁Eke	-1563
▁Gwa	-1564
▁Ilr	-1565
▁Mat	-1566
▁Omi	-1567
▁Oti	-1568
▁Pau	-1569
▁Pol	-1570
▁Sel	-1571
▁Vom	-1572
▁Wes	-1573
▁Wzx	-1574
▁Xlr	-1575
▁Yiz	-1576
▁Zbq	-1577
▁alo	-1578
▁ata	-1579
▁ate	-1580
▁bao	-1581
▁bom	-1582
▁bxn	-1583
▁glq	-1584
▁kri	-1585
▁kxr	-1586
▁kzu	-1587
▁nra	-1588
▁nrc	-1589
▁nrz	-1590
▁nua	-1591
▁nya	-1592
▁nzx	-1593
▁obq	-1594
▁pim	-1595
▁plc	-1596
▁pna	-1597
▁pnz	-1598
▁pxi	-1599
▁rla	-1600
▁rtq	-1601
▁set	-1602
▁trr	-1603
▁wop	-1604
abeth	-1605
aelwa	-1606
apqbz	-1607
bzokr	-1608
desin	-1609
enzli	-1610
etune	-1611
kaikr	-1612
kaile	-1613
kzamu	-1614
kzngr	-1615
kzplr	-1616
lvctr	-1617
lvxti	-1618
lvzlr	-1619
lvzti	-1620
lzmgr	-1621
lzmle	-1622
mopwq	-1623
moupo	-1624
mwelr	-1625
mwzlo	-1626
nepwz	-1627
ngrlx	-1628
nyzdr	-1629
opekr	-1630
openg	-1631
pekru	-1632
pelru	-1633
plxsr	-1634
pnang	-1635
pwxti	-1636
pwzle	-1637
pwzlr	-1638
rbrlz	-1639
rlaki	-1640
tipex	-1641
trkla	-1642
tupua	-1643
wrngr	-1644
wzpeu	-1645
zvzle	-1646
zvzng	-1647
▁1900	-1648
▁1938	-1649
▁1943	-1650
▁1954	-1651
▁1956	-1652
▁1958	-1653
▁1962	-1654
▁1963	-1655
▁1972	-1656
▁2006	-1657
▁Bade	-1658
▁Balo	-1659
▁Balq	-1660
▁Elis	-1661
▁Eliz	-1662
▁Gela	-1663
▁Kwin	-1664
▁Kxnz	-1665
▁Letz	-1666
▁Mclx	-1667
▁Mepa	-1668
▁Mzjz	-1669
▁Nabz	-1670
▁Neke	-1671
▁Nepr	-1672
▁Nqvi	-1673
▁Nzpi	-1674
▁Nzvo	-1675
▁Pibz	-1676
▁Prtz	-1677
▁Savo	-1678
▁Srpi	-1679
▁Temz	-1680
▁Vzbo	-1681
▁Yrlz	-1682
▁Yzuo	-1683
▁abzo	-1684
▁aoti	-1685
▁belo	-1686
▁bona	-1687
▁dakc	-1688
▁dapu	-1689
▁delc	-1690
▁drtc	-1691
▁dzbi	-1692
▁dzbr	-1693
▁kang	-1694
▁kcma	-1695
▁kcpe	-1696
▁krla	-1697
▁kxpo	-1698
▁lrdr	-1699
▁lxkq	-1700
▁mqgr	-1701
▁nadq	-1702
▁napr	-1703
▁narm	-1704
▁navo	-1705
▁nawz	-1706
▁nayc	-1707
▁nike	-1708
▁nivz	-1709
▁nqni	-1710
▁nrtq	-1711
▁nrwx	-1712
▁nzdc	-1713
▁nzli	-1714
▁nzmq	-1715
▁nzsu	-1716
▁nzta	-1717
▁nzte	-1718
▁nztu	-1719
▁olvi	-1720
▁opxm	-1721
▁peao	-1722
▁pepz	-1723
▁prki	-1724
▁raes	-1725
▁rglq	-1726
▁scgu	-1727
▁sokz	-1728
▁suti	-1729
▁tqab	-1730
▁tqli	-1731
▁tqwz	-1732
▁tqyc	-1733
▁trak	-1734
▁trni	-1735
▁trsu	-1736
▁tuti	-1737
▁tzka	-1738
▁tzya	-1739
▁vaol	-1740
▁vzbz	-1741
▁vztr	-1742
▁vztx	-1743
▁yane	-1744
▁yclz	-1745
▁ycpq	-1746
▁yrlz	-1747
aepztr	-1748
amingr	-1749
bzlrle	-1750
bznyon	-1751
elwapx	-1752
kipxle	-1753
kqtxkr	-1754
kuking	-1755
lekana	-1756
lzbqgr	-1757
lzbqpe	-1758
malepc	-1759
mznrpe	-1760
ngrlvz	-1761
pxbzkr	-1762
pxpekr	-1763
pxpelr	-1764
pxpeng	-1765
tibzle	-1766
tibzme	-1767
tipekr	-1768
tipeng	-1769
titrpe	-1770
titxkr	-1771
titxne	-1772
titxpo	-1773
titxpx	-1774
trkati	-1775
trpelr	-1776
trpeng	-1777
trpzng	-1778
txbzle	-1779
ycmnem	-1780
zlwzkr	-1781
▁Akani	-1782
▁Anika	-1783
▁Aogzs	-1784
▁Austr	-1785
▁Badle	-1786
▁Bolen	-1787
▁Filip	-1788
▁Ilovz	-1789
▁Josip	-1790
▁Josis	-1791
▁Julae	-1792
▁Kratq	-1793
▁Lwovz	-1794
▁Meleu	-1795
▁Ncnia	-1796
▁Ncokz	-1797
▁Ncole	-1798
▁Pulis	-1799
▁Rpile	-1800
▁Samwi	-1801
▁Silan	-1802
▁aolvz	-1803
▁boitx	-1804
▁bomle	-1805
▁ckrle	-1806
▁dckta	-1807
▁enjin	-1808
▁enqmi	-1809
▁kamle	-1810
▁kxplc	-1811
▁lcpwz	-1812
▁lozbq	-1813
▁mcpxm	-1814
▁mnrgr	-1815
▁mrlxm	-1816
▁namwi	-1817
▁nanyc	-1818
▁nqlvi	-1819
▁nyzgu	-1820
▁nzmwa	-1821
▁nzoka	-1822
▁nzrmc	-1823
▁otxpx	-1824
▁prtrx	-1825
▁rmcti	-1826
▁rpibo	-1827
▁takes	-1828
▁tqale	-1829
▁tqama	-1830
▁tqawi	-1831
▁tqobq	-1832
▁tqrlr	-1833
▁tqvea	-1834
▁tqxlr	-1835
▁trmwi	-1836
▁tzpnz	-1837
▁tztwz	-1838
▁tzxpe	-1839
▁vomle	-1840
▁yrpla	-1841
▁yzutr	-1842
abzbzlr	-1843
atebzkr	-1844
kapxmlr	-1845
lrprkru	-1846
lxblrkr	-1847
mcpelru	-1848
mnztrng	-1849
mopwzle	-1850
mopwzng	-1851
moupqle	-1852
ngrbzme	-1853
nyzdeng	-1854
plrkqtu	-1855
rtwzwxu	-1856
stimcne	-1857
tekangr	-1858
trpengr	-1859
txpwzlr	-1860
txpwzng	-1861
veatipe	-1862
yrlwrpx	-1863
yrplapx	-1864
▁Disebz	-1865
▁Gzpman	-1866
▁Krlcng	-1867
▁Metrkr	-1868
▁Nzkrka	-1869
▁Nzyrlz	-1870
▁Samwel	-1871
▁Selwin	-1872
▁Stipin	-1873
▁Takitr	-1874
▁Tqyrke	-1875
▁Trkrlz	-1876
▁Trngiu	-1877
▁Zyagox	-1878
▁abrelz	-1879
▁atwzlr	-1880
▁kalrla	-1881
▁kraesz	-1882
▁krikit	-1883
▁krlcng	-1884
▁krlzbo	-1885
▁kxbqgr	-1886
▁kxpipz	-1887
▁kzpora	-1888
▁kzpten	-1889
▁loprta	-1890
▁nakabz	-1891
▁namnqq	-1892
▁narlue	-1893
▁navzkr	-1894
▁navzne	-1895
▁nesrkr	-1896
▁nibrgr	-1897
▁nzalvc	-1898
▁nzbzti	-1899
▁nzlvqn	-1900
▁nzmulr	-1901
▁nzoliq	-1902
▁nzprtz	-1903
▁nzrpwa	-1904
▁nzrtco	-1905
▁nzvzdz	-1906
▁nzvzkr	-1907
▁nzvzne	-1908
▁nzwzkr	-1909
▁nzyrlz	-1910
▁nzyzlu	-1911
▁scdeng	-1912
▁sikapu	-1913
▁tqbzpe	-1914
▁tqkuki	-1915
▁tqmatq	-1916
▁tqmcti	-1917
▁tqnepe	-1918
▁tqrpna	-1919
▁tqrpwa	-1920
▁tqtuom	-1921
▁tqvobe	-1922
▁tqwqpe	-1923
▁tqyrlz	-1924
▁trgalr	-1925
▁trpulu	-1926
▁tzmcpe	-1927
▁tzvzpe	-1928
▁vzkipe	-1929
▁yctitx	-1930
angidrkr	-1931
apqbzngr	-1932
lvztrngr	-1933
malebzlr	-1934
ngalelvz	-1935
tavetrlr	-1936
tipebzkr	-1937
zpwxbzle	-1938
▁Lrtzlvz	-1939
▁Mathias	-1940
▁Mnctikr	-1941
▁Mwekati	-1942
▁Nounenq	-1943
▁Nzpnang	-1944
▁Nzrlasz	-1945
▁Nzrpibz	-1946
▁Provins	-1947
▁Rlaszkr	-1948
▁abrtztx	-1949
▁blrkqgr	-1950
▁drtwrgr	-1951
▁kxetubz	-1952
▁kxyagox	-1953
▁lemwzlo	-1954
▁letzlvz	-1955
▁medesin	-1956
▁mrlzvxi	-1957
▁mwatipe	-1958
▁nangipe	-1959
▁naokatr	-1960
▁natqnge	-1961
▁ngrdeng	-1962
▁nibrnge	-1963
▁nzamcti	-1964
▁nzangio	-1965
▁nzdwasz	-1966
▁nzmncpe	-1967
▁nzmwelr	-1968
▁nzrkatx	-1969
▁nzrnibq	-1970
▁nzrpilr	-1971
▁okatrpq	-1972
▁prcpelz	-1973
▁tqayzlu	-1974
▁tqetune	-1975
▁tqycmne	-1976
▁tqyrpla	-1977
▁trayzlu	-1978
▁trtingr	-1979
▁tzmwipx	-1980
▁tzrpipe	-1981
▁tzrtctx	-1982
▁tzsiklu	-1983
▁tzyrlwr	-1984
▁xlrbzle	-1985
▁yapwxti	-1986
yapwxtipe	-1987
▁Akanipua	-1988
▁Ayrnrngr	-1989
▁Drtwrnge	-1990
▁Elisabet	-1991
▁Mzjzbxlo	-1992
▁Nzrpimlr	-1993
▁Nzvzbzng	-1994
▁Nzvzmqng	-1995
▁blrkqnge	-1996
▁kzbznyon	-1997
▁mzledeng	-1998
▁nabznepi	-1999
▁nartrkla	-2000
▁natekqtr	-2001
▁nawrkxtr	-2002
▁ngitxpwz	-2003
▁nzarlapx	-2004
▁nzmcpxlr	-2005
▁nznemilr	-2006
▁nzrmalvz	-2007
▁nzrtangr	-2008
▁tqaenzli	-2009
▁tqasiklu	-2010
▁tqdcpxpe	-2011
▁tqkaputr	-2012
▁tqpipebo	-2013
▁tqryapwx	-2014
▁tqvzkilz	-2015
▁tqvzkipx	-2016
▁tqwxbupx	-2017
▁tqyapxpe	-2018
▁tqyrkrpe	-2019
▁tzvopeng	-2020
▁yrkrpxbz	-2021
▁Austrelia	-2022
▁Elizabeth	-2023
▁Gwalekana	-2024
▁Paumalepc	-2025
▁kxnzakrlz	-2026
▁lcsukxlvc	-2027
▁nanginibo	-2028
▁nzabrtzkr	-2029
▁nzangiolr	-2030
▁nzmnclzbz	-2031
▁nzrlwxngr	-2032
▁nzrmctilr	-2033
▁tqrpipebz	-2034
▁tqtutxpxm	-2035
▁trlrprkru	-2036
▁tzvzopeng	-2037
▁Ilrmztangi	-2038
▁Metrkrbade	-2039
▁nrlckxbqpe	-2040
▁nzrtrngrti	-2041
▁tqatwzlrpe	-2042
▁tqvzdzpekr	-2043
▁tzmcpxpelr	-2044
▁kxnzmnztrng	-2045
▁kxnzsiklung	-2046
▁kxnztopwzng	-2047
▁nalxngitile	-2048
▁tqetunepxpe	-2049
▁tqotipebzle	-2050
▁trnzmcpelru	-2051
▁trpnzngrpwz	-2052
▁yctitxpwzle	-2053
▁tqrlxtipebzkr	-2054
ayo	-2055
bir	-2056
cil	-2057
hur	-2058
oot	-2059
oro	-2060
urm	-2061
▁04	-2062
▁07	-2063
▁08	-2064
▁23	-2065
▁26	-2066
▁29	-2067
▁32	-2068
▁33	-2069
▁34	-2070
▁35	-2071
▁39	-2072
▁45	-2073
▁47	-2074
▁52	-2075
▁53	-2076
▁54	-2077
▁58	-2078
▁60	-2079
▁62	-2080
▁65	-2081
▁66	-2082
▁67	-2083
▁68	-2084
▁82	-2085
▁in	-2086
▁vc	-2087
aoti	-2088
dolz	-2089
dutr	-2090
dwin	-2091
dzkr	-2092
dzre	-2093
ebir	-2094
ecil	-2095
enne	-2096
enol	-2097
hill	-2098
hurc	-2099
igi	-2100
mas	-2101
nda	-2102
qki	-2103
scu	-2104
tan	-2105
▁Ol	-2106
ablq	-2107
dati	-2108
datr	-2109
dcpx	-2110
dmas	-2111
gekr	-2112
koro	-2113
krme	-2114
losx	-2115
lxge	-2116
memc	-2117
mibi	-2118
mipc	-2119
mnqu	-2120
mrge	-2121
musr	-2122
nbol	-2123
ngan	-2124
okia	-2125
oman	-2126
onar	-2127
oodo	-2128
pgru	-2129
puro	-2130
pusr	-2131
sabe	-2132
sqki	-2133
stol	-2134
sxpx	-2135
tclz	-2136
vrmi	-2137
waga	-2138
wzso	-2139
zman	-2140
zpct	-2141
▁Ben	-2142
▁Buk	-2143
▁Iwo	-2144
▁Mou	-2145
▁Mwa	-2146
▁Nrr	-2147
▁Nrz	-2148
▁Obq	-2149
▁Rok	-2150
▁Tag	-2151
▁Yao	-2152
▁bzo	-2153
▁glr	-2154
▁hou	-2155
▁lvc	-2156
▁lzm	-2157
▁nuz	-2158
▁poi	-2159
▁prc	-2160
▁sek	-2161
▁vec	-2162
▁wis	-2163
aolvz	-2164
aprpx	-2165
apuro	-2166
ayrnr	-2167
bingr	-2168
blqki	-2169
blqng	-2170
bomkr	-2171
brlzm	-2172
bxplc	-2173
bzong	-2174
clvex	-2175
cnene	-2176
dotxo	-2177
edmas	-2178
enned	-2179
enols	-2180
ikzkr	-2181
ilzne	-2182
itxbz	-2183
katxm	-2184
kiokr	-2185
kitru	-2186
kqtio	-2187
krpou	-2188
kukir	-2189
kzple	-2190
kzpng	-2191
lasti	-2192
letio	-2193
likan	-2194
liqti	-2195
lxget	-2196
lxlvr	-2197
mabru	-2198
mcleu	-2199
ly	-2200
biz	-2201
gou	-2202
rbr	-2203
▁02	-2204
▁Al	-2205
▁Dx	-2206
▁ol	-2207
ibiz	-2208
mily	-2209
nemc	-2210
tulr	-2211
weng	-2212
▁Dxi	-2213
▁Ima	-2214
▁Jim	-2215
▁Mae	-2216
▁bwa	-2217
▁hat	-2218
▁lcg	-2219
▁ncu	-2220
▁tro	-2221
▁tzo	-2222
ateng	-2223
lweng	-2224
meiti	-2225
mitin	-2226
mnqtx	-2227
ngcne	-2228
ngisc	-2229
ngqba	-2230
ngrla	-2231
nuatu	-2232
olvzu	-2233
omson	-2234
opebz	-2235
opuri	-2236
osboe	-2237
peamu	-2238
pepwq	-2239
petix	-2240
pizpx	-2241
plosx	-2242
prlzm	-2243
pxpwq	-2244
pxxng	-2245
qbeng	-2246
rlrni	-2247
rmnqu	-2248
sabel	-2249
siden	-2250
tanle	-2251
teson	-2252
tolwa	-2253
trbex	-2254
txpxx	-2255
waisz	-2256
xpepx	-2257
zlwzu	-2258
zpwxu	-2259
zpwxx	-2260
▁1921	-2261
▁1924	-2262
▁1928	-2263
▁1930	-2264
▁1934	-2265
▁1936	-2266
▁1939	-2267
▁1940	-2268
▁1967	-2269
▁1974	-2270
▁1978	-2271
▁1989	-2272
▁1993	-2273
▁1996	-2274
▁Abzo	-2275
▁Agne	-2276
▁Dwao	-2277
▁Elsi	-2278
▁Kosi	-2279
▁Kxli	-2280
▁Lclr	-2281
▁Lika	-2282
▁Loki	-2283
▁Lrmz	-2284
▁Mclq	-2285
▁Mutr	-2286
▁Mznz	-2287
▁Mzte	-2288
▁Naba	-2289
▁Nqmq	-2290
▁Nzlu	-2291
▁Pita	-2292
▁Pitx	-2293
▁Resi	-2294
▁Rkam	-2295
▁Rmnr	-2296
▁Rpix	-2297
▁Seka	-2298
▁Seve	-2299
ede	-2300
esa	-2301
kxe	-2302
lux	-2303
pia	-2304
pis	-2305
pli	-2306
puo	-2307
utc	-2308
yrm	-2309
zli	-2310
▁As	-2311
▁dx	-2312
drka	-2313
misi	-2314
opem	-2315
opia	-2316
pibz	-2317
scdr	-2318
tuku	-2319
xede	-2320
xngr	-2321
▁Asd	-2322
▁Dik	-2323
▁Ita	-2324
▁utc	-2325
aepis	-2326
alokr	-2327
glrpe	-2328
omisi	-2329
pxngr	-2330
rlalz	-2331
▁1952	-2332
▁Sore	-2333
▁Suti	-2334
▁Tena	-2335
▁Tewa	-2336
▁Toba	-2337
▁Tqya	-2338
▁Tulz	-2339
▁Tutr	-2340
▁Wurm	-2341
▁Yati	-2342
▁Yrbq	-2343
▁Yrlq	-2344
▁aglr	-2345
▁bele	-2346
▁bqpe	-2347
▁bqtc	-2348
▁bxli	-2349
▁bxtr	-2350
▁bztx	-2351
▁dcbz	-2352
▁dela	-2353
▁digi	-2354
▁dwao	-2355
▁dxbu	-2356
▁inyx	-2357
▁kans	-2358
▁kuli	-2359
▁kxtq	-2360
▁kxtr	-2361
▁kzdo	-2362
▁lule	-2363
▁mrvr	-2364
▁mukr	-2365
▁mule	-2366
▁muli	-2367
▁muvi	-2368
▁mzbq	-2369
▁nali	-2370
▁ncvr	-2371
▁nrpq	-2372
▁nzka	-2373
▁nzlz	-2374
▁obla	-2375
▁rkam	-2376
▁rlwx	-2377
▁rnge	-2378
▁rtco	-2379
▁ryrm	-2380
▁stol	-2381
▁supe	-2382
▁tosi	-2383
▁trdo	-2384
▁twzx	-2385
▁txne	-2386
▁vcmc	-2387
▁vomi	-2388
▁waea	-2389
▁wxbu	-2390
▁wzkr	-2391
▁wztx	-2392
▁xplr	-2393
▁zmio	-2394
▁zpwx	-2395
alvctr	-2396
alzung	-2397
alzupq	-2398
atwrnr	-2399
avz	-2400
gas	-2401
lqw	-2402
lue	-2403
por	-2404
rim	-2405
sil	-2406
tiv	-2407
▁to	-2408
kalr	-2409
lqwc	-2410
lrng	-2411
peku	-2412
port	-2413
sumi	-2414
wqkr	-2415
▁Imz	-2416
▁Kam	-2417
▁Nzm	-2418
▁Vox	-2419
▁bla	-2420
▁gas	-2421
▁pre	-2422
kqopq	-2423
ngavz	-2424
pwzli	-2425
retiv	-2426
rimiz	-2427
▁1988	-2428
▁Avea	-2429
▁Mate	-2430
▁Napr	-2431
▁nade	-2432
▁nape	-2433
▁nave	-2434
▁popz	-2435
▁tqwx	-2436
▁tryc	-2437
▁tzve	-2438
▁yapi	-2439
atwrnz	-2440
avzmle	-2441
ayrpla	-2442
bxlzle	-2443
ennedy	-2444
entxkr	-2445
ikopia	-2446
itange	-2447
kaiamu	-2448
kakrbz	-2449
kalzmq	-2450
kalzpe	-2451
kapqkr	-2452
katxkr	-2453
katxpe	-2454
kilzmc	-2455
kipxlr	-2456
kititr	-2457
kitxpx	-2458
kqtuti	-2459
krbzmu	-2460
krdrle	-2461
krmamu	-2462
krmqng	-2463
kxenga	-2464
kxpele	-2465
kzpqgr	-2466
lalztq	-2467
lalztx	-2468
latitr	-2469
lepele	-2470
lrkqtu	-2471
lzbqng	-2472
memcle	-2473
mitxtr	-2474
mnetiu	-2475
mupeku	-2476
musrti	-2477
mwrngr	-2478
ngiolr	-2479
ngipeu	-2480
nikoro	-2481
nqblqm	-2482
nqtxtr	-2483
ondzre	-2484
opuria	-2485
paswxu	-2486
pctikr	-2487
pebzkr	-2488
pelzle	-2489
pqtrle	-2490
presin	-2491
prtzlr	-2492
putrpq	-2493
pwrngr	-2494
pwzleu	-2495
pxmqng	-2496
rlwrpx	-2497
rmabru	-2498
singan	-2499
kra	-2500
kya	-2501
neb	-2502
txc	-2503
▁40	-2504
▁Do	-2505
▁Ke	-2506
▁No	-2507
grng	-2508
lapx	-2509
rapo	-2510
wapc	-2511
▁Fre	-2512
▁Iny	-2513
▁Mak	-2514
▁Sio	-2515
▁but	-2516
▁voo	-2517
awitx	-2518
mouku	-2519
mqngq	-2520
nebwr	-2521
ngrme	-2522
sablq	-2523
txcng	-2524
▁1700	-2525
▁2008	-2526
▁Dora	-2527
▁Inyx	-2528
▁Nove	-2529
▁Olvx	-2530
▁Rblx	-2531
▁Trna	-2532
▁nzti	-2533
▁rmnr	-2534
▁tupx	-2535
mitxpx	-2536
rapolo	-2537
supebz	-2538
tanley	-2539
tinetr	-2540
tiomgr	-2541
titrle	-2542
tqnepx	-2543
trpqgr	-2544
trtxkr	-2545
tubqti	-2546
twzobz	-2547
txbzkr	-2548
txtrkr	-2549
txtrku	-2550
witxbo	-2551
wxlrng	-2552
xlrope	-2553
yonepe	-2554
yqbeng	-2555
yrlqbz	-2556
yrnipe	-2557
yzkrng	-2558
yzlupe	-2559
yzprlz	-2560
zlwzpe	-2561
zpwxka	-2562
▁Agnes	-2563
▁Bomio	-2564
▁Bunga	-2565
▁Bwapc	-2566
▁Dcpwe	-2567
▁Dikso	-2568
▁Dwakr	-2569
▁Edwin	-2570
▁Elsie	-2571
▁Emily	-2572
▁Fredr	-2573
▁Imanu	-2574
▁Imztq	-2575
▁Ituku	-2576
▁Ketea	-2577
▁Krlzu	-2578
▁Menai	-2579
▁Menzq	-2580
▁Mqnge	-2581
▁Mrnzq	-2582
▁Mwele	-2583
▁Nabzn	-2584
▁Nounc	-2585
▁Nzvea	-2586
▁Olzbo	-2587
▁Poodo	-2588
▁Roman	-2589
▁Rtctx	-2590
▁Rtqmz	-2591
▁Seven	-2592
▁Sikai	-2593
▁Silas	-2594
▁Siota	-2595
▁Taglc	-2596
▁Tenar	-2597
▁Teomo	-2598
▁Tqrpi	-2599
rn	-2600
wei	-2601
▁75	-2602
▁81	-2603
▁An	-2604
bepq	-2605
rlwz	-2606
taki	-2607
▁Ina	-2608
▁tin	-2609
▁trl	-2610
▁vau	-2611
mcwxu	-2612
nrlwz	-2613
▁1965	-2614
▁Andr	-2615
▁Badr	-2616
▁Dapq	-2617
▁Dztu	-2618
▁Mewz	-2619
▁Mztq	-2620
▁Oliq	-2621
▁Tele	-2622
▁Vzne	-2623
▁mrla	-2624
▁nwei	-2625
▁nzbr	-2626
▁nzbx	-2627
▁nzpi	-2628
▁trlo	-2629
▁trwz	-2630
▁yalu	-2631
aterin	-2632
nckzpo	-2633
opwqkr	-2634
zlwzle	-2635
▁Andru	-2636
▁Ayrnr	-2637
▁Basil	-2638
▁Inaox	-2639
▁Nrrle	-2640
▁Pilip	-2641
▁Tupxm	-2642
▁Vxngr	-2643
▁Xlrbo	-2644
▁Yrlzx	-2645
▁Zmatq	-2646
▁abrtr	-2647
▁atulz	-2648
▁baone	-2649
▁bzamu	-2650
▁dcplx	-2651
▁dcpwe	-2652
▁drlve	-2653
▁etutx	-2654
▁ezpct	-2655
▁glqtx	-2656
▁houkr	-2657
▁kxmya	-2658
▁legou	-2659
▁legru	-2660
▁lvabe	-2661
▁lxede	-2662
▁lxlvr	-2663
▁lzokr	-2664
▁maboi	-2665
▁mailz	-2666
▁meitx	-2667
▁mibiz	-2668
▁mncne	-2669
▁mwelr	-2670
▁mwitr	-2671
▁mwitx	-2672
▁naomi	-2673
▁narde	-2674
▁narya	-2675
▁navex	-2676
▁navzm	-2677
▁naxpe	-2678
▁nenge	-2679
▁nengq	-2680
▁ngipe	-2681
▁ngrgu	-2682
▁ngrlr	-2683
▁nubla	-2684
▁nuzmu	-2685
▁nzama	-2686
▁nzasu	-2687
▁nzbao	-2688
▁nzkqo	-2689
▁nztes	-2690
▁nzyrm	-2691
▁obqki	-2692
▁obqpx	-2693
▁prckr	-2694
▁prnge	-2695
▁prtrp	-2696
▁rdrng	-2697
▁rtclz	-2698
▁rtqlr	-2699
SE	-2700
pxu	-2701
tzr	-2702
▁..	-2703
▁16	-2704
▁27	-2705
▁61	-2706
▁al	-2707
▁eb	-2708
inga	-2709
neng	-2710
pxmc	-2711
rlru	-2712
wzle	-2713
▁...	-2714
▁Mwi	-2715
▁SSE	-2716
▁Sop	-2717
▁aya	-2718
▁blq	-2719
▁kau	-2720
▁nai	-2721
▁nzn	-2722
▁scm	-2723
ingar	-2724
krpex	-2725
lvzpe	-2726
ngalr	-2727
renda	-2728
szpex	-2729
▁Krla	-2730
▁Navo	-2731
▁Nebr	-2732
▁Nenq	-2733
▁Nzyr	-2734
▁Poly	-2735
▁bqnc	-2736
▁dekc	-2737
▁ebio	-2738
▁mqgu	-2739
▁trpx	-2740
pqpebo	-2741
rlapxq	-2742
tzrpna	-2743
▁Mwakr	-2744
▁awitx	-2745
▁naipq	-2746
▁nzmei	-2747
▁rtqmz	-2748
▁ryzkr	-2749
▁sinia	-2750
▁sport	-2751
▁tokir	-2752
▁tonga	-2753
▁tqayz	-2754
▁tqela	-2755
▁tqlux	-2756
▁tqlvr	-2757
▁tqngq	-2758
▁tqngr	-2759
▁tqrke	-2760
▁trpnz	-2761
▁trrlr	-2762
▁trscu	-2763
▁tulzm	-2764
▁twztr	-2765
▁tzaki	-2766
▁tzetu	-2767
▁tzpxi	-2768
▁tzvec	-2769
▁voomc	-2770
▁wisol	-2771
▁wzngr	-2772
▁ycngr	-2773
▁yctxo	-2774
▁yzlum	-2775
▁zbrlx	-2776
abrtztx	-2777
aelwati	-2778
alvztrx	-2779
awitxne	-2780
ayrkrpx	-2781
bletilr	-2782
blxpwzu	-2783
blxtile	-2784
bompeng	-2785
brtzngr	-2786
clvengr	-2787
cpebzlr	-2788
dotxopq	-2789
edmastz	-2790
glqtikr	-2791
iklapwz	-2792
kaipzkr	-2793
kalzmlr	-2794
katxngr	-2795
krpepwq	-2796
lolvzpe	-2797
lvznepx	-2798
lvzting	-2799
15	-2800
va	-2801
cpr	-2802
osa	-2803
sto	-2804
▁15	-2805
▁49	-2806
▁Ki	-2807
krmc	-2808
lala	-2809
nare	-2810
oklc	-2811
sosa	-2812
tqpe	-2813
txki	-2814
vaio	-2815
▁Bei	-2816
▁Twz	-2817
▁Wis	-2818
▁lon	-2819
▁ncb	-2820
alztq	-2821
lvcne	-2822
oklck	-2823
tupeu	-2824
witxm	-2825
▁1915	-2826
▁Jose	-2827
▁Kira	-2828
▁Nide	-2829
▁Rnge	-2830
▁kxmc	-2831
▁lclr	-2832
▁lons	-2833
▁tcpr	-2834
▁tqne	-2835
brtqpe	-2836
resosa	-2837
trwamu	-2838
▁Ivaio	-2839
▁Josep	-2840
▁Pasto	-2841
▁Wisol	-2842
▁kxnzr	-2843
▁ncblc	-2844
▁noude	-2845
▁nzmco	-2846
▁nzoti	-2847
▁rkrlz	-2848
▁scnge	-2849
▁tqali	-2850
blqking	-2851
ilznede	-2852
lxblrng	-2853
lxobzle	-2854
lxomamu	-2855
lzbqngr	-2856
lzpemgr	-2857
mnqtxng	-2858
moupqng	-2859
mrgengr	-2860
neopebz	-2861
neopelr	-2862
nepwzkr	-2863
netrpex	-2864
ngcneom	-2865
ngctikr	-2866
ngrbole	-2867
ngrlrpx	-2868
ngrnamu	-2869
ngrneng	-2870
ngrpleu	-2871
nibqleu	-2872
nipenge	-2873
nqblqle	-2874
nqblqlr	-2875
nqblqpe	-2876
obqnene	-2877
omisina	-2878
palelvz	-2879
petixng	-2880
plitipe	-2881
plxsrgr	-2882
poretiv	-2883
presinu	-2884
prlzpem	-2885
rlalzkr	-2886
rlimzng	-2887
takitru	-2888
tipxmlr	-2889
titxpxx	-2890
trngrti	-2891
trpemlr	-2892
txlzmle	-2893
txpxpex	-2894
txpxpnz	-2895
wrnebwr	-2896
ycblqng	-2897
yrtingr	-2898
yzutxtr	-2899
▁9	-2900
ini	-2901
luu	-2902
ret	-2903
▁44	-2904
▁78	-2905
inii	-2906
lrpi	-2907
opeu	-2908
yzlo	-2909
▁Esu	-2910
▁Tum	-2911
▁ela	-2912
▁nzb	-2913
rlzkr	-2914
▁Esuz	-2915
▁Lipz	-2916
▁Menr	-2917
▁bret	-2918
▁kuma	-2919
▁mzkr	-2920
▁rtwz	-2921
mrlzkr	-2922
tinebe	-2923
▁Binii	-2924
▁Dikon	-2925
▁Maluu	-2926
▁Menrq	-2927
▁Pokia	-2928
▁kxnza	-2929
▁tzglq	-2930
apqbzle	-2931
lvzopeu	-2932
ngrmqng	-2933
tipelru	-2934
vongrgr	-2935
zlwzngr	-2936
▁Aveati	-2937
▁Brenda	-2938
▁Drtqgr	-2939
▁Drvrmi	-2940
▁Isabel	-2941
▁Itange	-2942
▁Krapwx	-2943
▁Lalztq	-2944
▁Leonar	-2945
▁Maekol	-2946
▁Matelq	-2947
▁Mclxng	-2948
▁Melzmc	-2949
▁Menaip	-2950
▁Mepalu	-2951
▁Mwelea	-2952
▁Nebrnz	-2953
▁Novebz	-2954
▁Nzaglq	-2955
▁Nzikla	-2956
▁Nzlqwc	-2957
▁Nzmcpe	-2958
▁Nzpipx	-2959
▁Nzprtr	-2960
▁Nzrpim	-2961
▁Nzryzu	-2962
▁Nzvzne	-2963
▁Nzwqkr	-2964
▁Nzwzkr	-2965
▁Nzyrbz	-2966
▁Obqobz	-2967
▁Otiamu	-2968
▁Prlzkr	-2969
▁Renols	-2970
▁Rlapxx	-2971
▁Sikaia	-2972
▁Taepis	-2973
▁Tekatr	-2974
▁Telena	-2975
▁Trgalr	-2976
▁Trlaki	-2977
▁Tulzgi	-2978
▁Tznbol	-2979
▁Vztrkr	-2980
▁Yabzkr	-2981
▁Ycbepq	-2982
▁Yrbqoa	-2983
▁Yzlumi	-2984
▁Yzutrx	-2985
▁Zbqkra	-2986
▁aglrkr	-2987
▁angidr	-2988
▁blaopu	-2989
▁blxget	-2990
▁bzpekr	-2991
▁bztipe	-2992
▁drlzde	-2993
▁dwaplr	-2994
▁dzbedr	-2995
▁dzbrde	-2996
▁dzbrdr	-2997
▁esablq	-2998
▁gzpman	-2999
dou	-3000
lzo	-3001
pro	-3002
xng	-3003
▁05	-3004
▁64	-3005
▁mg	-3006
drng	-3007
lrmq	-3008
tibo	-3009
yrng	-3010
▁Man	-3011
▁Rli	-3012
glqpz	-3013
kaiki	-3014
lrngr	-3015
ngrng	-3016
ngrpe	-3017
pilvz	-3018
plrkr	-3019
txlzm	-3020
yrngz	-3021
▁1929	-3022
▁1968	-3023
▁Dalr	-3024
▁Sens	-3025
▁Susi	-3026
▁mztr	-3027
▁nzma	-3028
▁tzyc	-3029
▁vzne	-3030
krpxpe	-3031
nipegr	-3032
tavelr	-3033
trpebz	-3034
▁Iwxbu	-3035
▁Nzxpe	-3036
▁Rlimz	-3037
▁lxegr	-3038
▁mgngr	-3039
▁namnc	-3040
▁tqope	-3041
▁tqpro	-3042
▁trdou	-3043
kxlrngr	-3044
ngrbzlr	-3045
plxsrle	-3046
presinq	-3047
tangrne	-3048
yzutrpe	-3049
▁Joseph	-3050
▁Nekeng	-3051
▁Samson	-3052
▁aglqpz	-3053
▁bingar	-3054
▁kansrl	-3055
▁katkis	-3056
▁kcmiti	-3057
▁kcngpe	-3058
▁kqlupe	-3059
▁kqlutx	-3060
▁kqtitx	-3061
▁krlcde	-3062
▁krlzle	-3063
▁krlzlz	-3064
▁krlztx	-3065
▁krnedr	-3066
▁krscdr	-3067
▁kumara	-3068
▁kxbqng	-3069
▁kxmule	-3070
▁kxsqki	-3071
▁kxwzle	-3072
▁kxyrlz	-3073
▁kxyzlo	-3074
▁kztede	-3075
▁kztegr	-3076
▁litxtr	-3077
▁matxbz	-3078
▁mclrgr	-3079
▁mclrla	-3080
▁mclxle	-3081
▁mclzkr	-3082
▁mcpzkr	-3083
▁mctrpz	-3084
▁melrmq	-3085
▁mncpex	-3086
▁mrbrpe	-3087
▁mrbrtx	-3088
▁mrgekr	-3089
▁mrtupe	-3090
▁mztupe	-3091
▁naaglq	-3092
▁nakatx	-3093
▁namckr	-3094
▁namcle	-3095
▁namclx	-3096
▁namrbr	-3097
▁nanibq	-3098
▁napeti	-3099
ale	-3100
red	-3101
▁09	-3102
▁Bq	-3103
▁px	-3104
brtr	-3105
bzpx	-3106
lvzq	-3107
lvzx	-3108
mung	-3109
omle	-3110
▁Ate	-3111
▁Blz	-3112
▁Rmi	-3113
▁ayz	-3114
▁eke	-3115
▁nzg	-3116
▁opx	-3117
▁pwz	-3118
krgru	-3119
nemle	-3120
ngitr	-3121
nzlvz	-3122
tipxm	-3123
▁1937	-3124
▁1949	-3125
▁2005	-3126
▁Napi	-3127
▁Nzmu	-3128
▁Rpwx	-3129
▁dril	-3130
▁krde	-3131
▁line	-3132
▁lrde	-3133
▁nabr	-3134
▁tuom	-3135
▁yrmq	-3136
kelvzq	-3137
kqtipe	-3138
lvzngr	-3139
tibzkr	-3140
tipxpe	-3141
▁Lxede	-3142
▁Matea	-3143
▁asumi	-3144
▁ayzpr	-3145
▁mangr	-3146
▁narlr	-3147
▁ngrmu	-3148
▁nzglx	-3149
▁nzrpz	-3150
▁nztwz	-3151
atutrpz	-3152
malewxu	-3153
mqngitr	-3154
ngidati	-3155
pnzbzlr	-3156
tangrpe	-3157
▁Mateas	-3158
▁Menapi	-3159
▁Nzwrde	-3160
▁Primiz	-3161
▁Rpwxmz	-3162
▁kqomle	-3163
▁nakrka	-3164
▁napipx	-3165
▁napitr	-3166
▁naprom	-3167
▁nartwz	-3168
▁natqgr	-3169
▁natrka	-3170
▁navope	-3171
▁navztx	-3172
▁naycpq	-3173
▁nayrlz	-3174
▁nemung	-3175
▁nibqti	-3176
▁nrlanc	-3177
▁nrpqde	-3178
▁nyznge	-3179
▁nzamnq	-3180
▁nzangc	-3181
▁nzaobq	-3182
▁nzbrlc	-3183
▁nzbxli	-3184
▁nzdwao	-3185
▁nzkalz	-3186
▁nzkqle	-3187
▁nzlala	-3188
▁nzleka	-3189
▁nzmabr	-3190
▁nzmctr	-3191
▁nzmznr	-3192
▁nzrmnq	-3193
▁nzrpla	-3194
▁nzrplx	-3195
▁nztabr	-3196
▁nztami	-3197
▁nztqng	-3198
▁nzvolr	-3199
ksi	-3200
ncu	-3201
zmz	-3202
▁10	-3203
▁12	-3204
▁38	-3205
▁56	-3206
▁69	-3207
▁pc	-3208
bzni	-3209
kzpe	-3210
leni	-3211
mcpc	-3212
wrki	-3213
▁Esz	-3214
▁Myx	-3215
▁Tra	-3216
▁biz	-3217
▁lni	-3218
▁oda	-3219
▁rni	-3220
ksing	-3221
ngrbe	-3222
zmzne	-3223
▁1948	-3224
▁Ikai	-3225
▁Trau	-3226
▁dalc	-3227
▁drvr	-3228
▁krka	-3229
▁nabo	-3230
▁nayr	-3231
▁trna	-3232
▁tzwz	-3233
▁tzyr	-3234
▁yrvi	-3235
▁yzuo	-3236
kapqlr	-3237
pxpleu	-3238
szbzle	-3239
szpekr	-3240
▁Mancu	-3241
▁Prtrx	-3242
▁alele	-3243
▁mwakr	-3244
▁nzavz	-3245
▁nzrka	-3246
▁pwrki	-3247
▁tqrmc	-3248
▁tzobq	-3249
epelzle	-3250
etrtxkr	-3251
prkilzm	-3252
▁Itopwz	-3253
▁Jzmzne	-3254
▁Kiraki	-3255
▁Kzbzni	-3256
▁Lapuro	-3257
▁Pileni	-3258
▁kapxmc	-3259
▁mqngrm	-3260
▁nrlade	-3261
▁nzsuti	-3262
▁nzvong	-3263
▁nzvzng	-3264
▁nzwrkx	-3265
▁nzyane	-3266
▁petikr	-3267
▁pistol	-3268
▁plasti	-3269
▁rblxtx	-3270
▁rglqkr	-3271
▁rlwxkr	-3272
▁rnipex	-3273
▁rnzlvz	-3274
▁rtwztx	-3275
▁ryapwx	-3276
▁sezman	-3277
▁srlrni	-3278
▁stoaki	-3279
▁sutitx	-3280
▁takitr	-3281
▁tatxpx	-3282
▁tqalvc	-3283
▁tqaokz	-3284
▁tqbrlx	-3285
▁tqdcpe	-3286
▁tqdopx	-3287
▁tqdotr	-3288
▁tqkqle	-3289
▁tqkrlz	-3290
▁tqlipe	-3291
▁tqmrbr	-3292
▁tqmupe	-3293
▁tqoliq	-3294
▁tqpibo	-3295
▁tqrpnu	-3296
▁tqtutx	-3297
▁tqvomi	-3298
▁tqvzne	-3299
aea	-3300
izm	-3301
nre	-3302
peq	-3303
pzn	-3304
▁73	-3305
kqtx	-3306
lawi	-3307
ncbr	-3308
pnzu	-3309
pqgr	-3310
pzng	-3311
wilx	-3312
▁Anu	-3313
▁Epr	-3314
▁Mas	-3315
▁Pwx	-3316
▁otx	-3317
mimle	-3318
▁Enre	-3319
▁Mzke	-3320
▁Nabo	-3321
▁Nevi	-3322
▁Prpx	-3323
▁Rpim	-3324
▁kabo	-3325
▁nzkc	-3326
▁olta	-3327
▁rpnz	-3328
▁tawa	-3329
▁tqmr	-3330
▁tqta	-3331
▁tzpx	-3332
kapqle	-3333
kqtxom	-3334
kxtrng	-3335
mopqgr	-3336
ngrdeu	-3337
pznizm	-3338
txpeng	-3339
▁Anuta	-3340
▁Eprol	-3341
▁Nzpnz	-3342
▁Otibz	-3343
▁Yrnga	-3344
▁atrka	-3345
▁draea	-3346
▁ikzkr	-3347
▁lcglz	-3348
▁tqpnz	-3349
kaipzng	-3350
krngeng	-3351
lxblrpe	-3352
ngrlrlz	-3353
▁Abzokr	-3354
▁Nzyzlu	-3355
▁Yrngao	-3356
▁akiokr	-3357
▁nrkrdr	-3358
▁tqlawi	-3359
▁tqmrtu	-3360
▁tqmukr	-3361
▁tqrpnz	-3362
▁tqwxli	-3363
▁tqxngi	-3364
▁tqxpex	-3365
▁tqxplr	-3366
▁tqycom	-3367
▁tqyrpu	-3368
▁trkaku	-3369
▁trkrle	-3370
▁trlaki	-3371
▁trmatq	-3372
▁trngiu	-3373
▁trnzpi	-3374
▁tropxu	-3375
▁trrpwa	-3376
▁trsuka	-3377
▁tulzmc	-3378
▁tutipx	-3379
▁tutrng	-3380
▁tutrpq	-3381
▁tzakya	-3382
▁tzkabz	-3383
▁tzkrlz	-3384
▁tzmcpx	-3385
▁tzmupe	-3386
▁tzprtr	-3387
▁tztave	-3388
▁tztulr	-3389
▁tzvope	-3390
▁tzwzng	-3391
▁vomikr	-3392
▁vznekr	-3393
▁vztrpz	-3394
▁vztxpe	-3395
▁waipnz	-3396
▁wxbupx	-3397
▁yaluli	-3398
▁yapxkr	-3399
mix	-3400
▁70	-3401
▁Eu	-3402
pusz	-3403
tilz	-3404
tqde	-3405
yrni	-3406
▁mnq	-3407
pnzle	-3408
▁1935	-3409
▁1955	-3410
▁Mrtu	-3411
▁bagu	-3412
▁nrpa	-3413
▁nzlx	-3414
▁trpq	-3415
▁trtx	-3416
krgrle	-3417
krlzpo	-3418
lzpekr	-3419
peleng	-3420
▁Ncmix	-3421
▁ayzlu	-3422
▁naobq	-3423
▁rlapx	-3424
▁tqata	-3425
▁tqvzo	-3426
▁tzapu	-3427
▁tzayo	-3428
ngrbzkr	-3429
▁Mrtutx	-3430
▁Nzyrlq	-3431
▁Satqde	-3432
▁Sophia	-3433
▁Tenaru	-3434
▁Tomson	-3435
▁Yrpusz	-3436
▁mrkcpe	-3437
▁nabzng	-3438
▁navzbz	-3439
▁nzling	-3440
▁tqmibi	-3441
▁tqvzbo	-3442
▁tqvzmi	-3443
▁tqvztr	-3444
▁tqvztx	-3445
▁tzpipe	-3446
▁yctxbz	-3447
▁yrlqtr	-3448
▁yrvitx	-3449
▁yzlumc	-3450
▁yzutrx	-3451
▁zpwxtx	-3452
aglqbzlr	-3453
aglqpekr	-3454
alvztrng	-3455
amingrti	-3456
ayrkrpxx	-3457
ebirpeng	-3458
hurchill	-3459
kalzmqgr	-3460
kaputrpe	-3461
katrpqlr	-3462
kilzmclr	-3463
kipxlele	-3464
kititrlr	-3465
kqopqleu	-3466
kqtiongr	-3467
mctipelr	-3468
mipebzlr	-3469
mrbrtrlr	-3470
mukxtrtx	-3471
mznrpele	-3472
ngaletio	-3473
ngqbangr	-3474
ngrlalvz	-3475
ngrlxope	-3476
ngrmlrle	-3477
ngrpwzkr	-3478
nqtxtrpo	-3479
oklatitr	-3480
olvzbzlr	-3481
olxomamu	-3482
oporetiv	-3483
plrkqtuu	-3484
rlrupeng	-3485
rlxtimlr	-3486
titrpwzu	-3487
trpeleng	-3488
twzlrpwz	-3489
txpxbzle	-3490
wztrpelr	-3491
xlropelr	-3492
yrngzpxm	-3493
yrnipewq	-3494
zliopekr	-3495
zlwzpele	-3496
zpwxbzkr	-3497
zpwxmamu	-3498
▁Abrtztx	-3499
▁50	-3500
▁72	-3501
▁74	-3502
brgr	-3503
lvco	-3504
pupe	-3505
▁Nim	-3506
isket	-3507
mncne	-3508
moung	-3509
ngatx	-3510
plztx	-3511
twzti	-3512
▁1932	-3513
▁1991	-3514
▁Krka	-3515
▁Merl	-3516
▁Nagu	-3517
▁Namc	-3518
▁Olvz	-3519
▁Toke	-3520
▁Trnz	-3521
▁mepz	-3522
▁mqbq	-3523
▁mqdr	-3524
▁rpio	-3525
▁vzkr	-3526
▁ycpx	-3527
krdelr	-3528
netrpe	-3529
tipele	-3530
trpebo	-3531
zpwxkr	-3532
▁Mnckr	-3533
▁Stiba	-3534
▁Ycmne	-3535
▁blzmr	-3536
▁mqnge	-3537
▁nzplz	-3538
▁nzrlx	-3539
▁tqlvc	-3540
aprpxbo	-3541
mopwzlr	-3542
txpwzmu	-3543
▁Iwongr	-3544
▁Medrka	-3545
▁Merlve	-3546
▁Nibrgr	-3547
▁Roklip	-3548
▁Rtrngr	-3549
▁Stibad	-3550
▁bisket	-3551
▁drtwrm	-3552
▁nabztr	-3553
▁nadrvr	-3554
▁nakrlz	-3555
▁nzwzti	-3556
▁nzwztr	-3557
▁rkatxm	-3558
▁yrpupe	-3559
ngrngatx	-3560
▁Aglikan	-3561
▁Alvztrx	-3562
▁Asdikon	-3563
▁Awitxbo	-3564
▁Bongavz	-3565
▁Bungana	-3566
▁Drtwrdr	-3567
▁Drtwrgr	-3568
▁Gresosa	-3569
▁Imanuel	-3570
▁Ipqpebo	-3571
▁Katerin	-3572
▁Kennedy	-3573
▁Kopuria	-3574
▁Krlzmle	-3575
▁Kxakrlz	-3576
▁Kxnzetu	-3577
▁Leonard	-3578
▁Menrlwz	-3579
▁Mepapna	-3580
▁Nabzlue	-3581
▁Naplosx	-3582
▁Nepwzli	-3583
▁Ngrlrkr	-3584
▁Nzadolz	-3585
▁Nzamcti	-3586
▁Nzmingr	-3587
▁Nzmncng	-3588
▁Nzrkalz	-3589
▁Nzrlalz	-3590
▁Nzrlxti	-3591
▁Nztwzlr	-3592
▁Nzveckr	-3593
▁Nzvecng	-3594
▁Nzycngr	-3595
▁Pingalr	-3596
▁Pitxmle	-3597
▁Polykap	-3598
▁Prcpelz	-3599
omq	-3600
bukr	-3601
gung	-3602
kaix	-3603
krgi	-3604
krgu	-3605
mupa	-3606
vepx	-3607
▁Are	-3608
▁Jun	-3609
▁Lea	-3610
▁Neo	-3611
▁Nyz	-3612
▁boi	-3613
kaipo	-3614
lzpex	-3615
mneti	-3616
mrlzu	-3617
pxpex	-3618
vingr	-3619
▁1951	-3620
▁Aglq	-3621
▁Bapo	-3622
▁Kcng	-3623
▁Krkc	-3624
▁Scdr	-3625
▁Vokr	-3626
▁Vzox	-3627
▁lape	-3628
▁mckr	-3629
▁plan	-3630
▁tqpo	-3631
▁xpex	-3632
▁ycpe	-3633
atepex	-3634
dwaope	-3635
ninepe	-3636
nipele	-3637
▁Lvepx	-3638
▁Trdwa	-3639
▁kxrtc	-3640
▁lapwz	-3641
▁mcomq	-3642
▁narpz	-3643
▁nqesa	-3644
▁nzesz	-3645
▁nzpas	-3646
▁tebol	-3647
▁waile	-3648
▁ycpwz	-3649
▁yrole	-3650
datrpwz	-3651
glqpekr	-3652
lwztrpe	-3653
mwelrng	-3654
tengeng	-3655
yagoxle	-3656
▁Kcmiti	-3657
▁Nzlvqn	-3658
▁Nzmcpx	-3659
▁dabukr	-3660
▁kxnzng	-3661
▁narnge	-3662
▁narpnz	-3663
▁natqdr	-3664
▁navzki	-3665
▁navzpx	-3666
▁nawzpe	-3667
▁negung	-3668
▁tqvzbz	-3669
▁trtqvz	-3670
▁trvzou	-3671
▁tztekq	-3672
nrbalqbo	-3673
▁Meamupa	-3674
▁Nzyagox	-3675
▁Pripekt	-3676
▁Residen	-3677
▁Stanley	-3678
▁Tikopia	-3679
▁Tobaita	-3680
▁Tqrpibo	-3681
▁Tqyamgr	-3682
▁Tqyrkex	-3683
▁Trmcwxu	-3684
▁Trtingr	-3685
▁Vanuatu	-3686
▁Xlrbzkr	-3687
▁Yrlztix	-3688
▁abrtrpo	-3689
▁aelwapx	-3690
▁amrlxpe	-3691
▁aolvzbz	-3692
▁apqtrle	-3693
▁belenga	-3694
▁boksing	-3695
▁bxpizpx	-3696
▁bztxpnz	-3697
▁drtqnge	-3698
▁dwasxpx	-3699
nur	-3700
▁20	-3701
▁71	-3702
▁76	-3703
▁DO	-3704
▁Kru	-3705
▁Lue	-3706
▁Nrc	-3707
▁Vzx	-3708
▁agz	-3709
▁vri	-3710
peleu	-3711
pxpem	-3712
rlipu	-3713
zvzbo	-3714
▁1953	-3715
▁Bagr	-3716
▁Jane	-3717
▁Mznr	-3718
▁Vzkr	-3719
▁Vztr	-3720
▁kalo	-3721
▁neke	-3722
▁nzwq	-3723
▁taea	-3724
▁teox	-3725
▁tutr	-3726
▁tzma	-3727
▁xlrx	-3728
elwati	-3729
mipele	-3730
ngrneu	-3731
trpzlr	-3732
zvzmle	-3733
zvzmlr	-3734
▁Bange	-3735
▁Nzlvc	-3736
▁nznur	-3737
▁nzobq	-3738
▁tqyrm	-3739
▁tzang	-3740
kalzpem	-3741
lalztxm	-3742
lvztrng	-3743
lxblrbz	-3744
mopwzkr	-3745
siklube	-3746
topwzbe	-3747
txpwzle	-3748
zvzbzkr	-3749
▁Inglis	-3750
▁brtitx	-3751
▁mrlzpe	-3752
▁nabzdr	-3753
▁nzmcpx	-3754
▁nzvzmi	-3755
▁rtangr	-3756
▁tqtwzx	-3757
▁trlipu	-3758
▁trloka	-3759
▁tutrpz	-3760
▁tzrpnz	-3761
▁tzwrkx	-3762
akxlrngr	-3763
txpxpnzx	-3764
▁Fredrik	-3765
▁ekqtxkr	-3766
▁emwrngr	-3767
▁haosboe	-3768
▁kaomamu	-3769
▁krlzmgr	-3770
▁krnyzdr	-3771
▁kxakrlz	-3772
▁kxngrlx	-3773
▁leuwaga	-3774
▁lrtzlvz	-3775
▁mailzle	-3776
▁mqngrde	-3777
▁mrbrlzm	-3778
▁mrbrpxm	-3779
▁mrnyzdr	-3780
▁myaszpx	-3781
▁mzlenge	-3782
▁mzlweng	-3783
▁nabomlr	-3784
▁nangqdr	-3785
▁nangqkr	-3786
▁nanycde	-3787
▁naomimc	-3788
▁narncbr	-3789
▁nartwzm	-3790
▁naryakr	-3791
▁naryzkr	-3792
▁natwzle	-3793
▁navzmgr	-3794
▁navzngr	-3795
▁nayapwx	-3796
▁naycngr	-3797
▁ngrlrkr	-3798
▁nrlargr	-3799
▁Luk	-3800
▁Vex	-3801
▁abz	-3802
▁wqq	-3803
atekr	-3804
atelr	-3805
▁scgi	-3806
▁nzopx	-3807
▁nzrpna	-3808
▁nzabrtr	-3809
▁nzabzpx	-3810
▁nzadcpx	-3811
▁nzaelwa	-3812
▁nzalebz	-3813
▁nzalelr	-3814
▁nzapqtr	-3815
▁nzaprpx	-3816
▁nzapusr	-3817
▁nzasung	-3818
▁nzataki	-3819
▁nzdwatr	-3820
▁nzglqlz	-3821
▁nzglrpe	-3822
▁nzglxpe	-3823
▁nzmitin	-3824
▁nzmnclr	-3825
▁nzmneti	-3826
▁nzmwipe	-3827
▁nzngikr	-3828
▁nznurde	-3829
▁nzotilr	-3830
▁nzotipe	-3831
▁nzplzpx	-3832
▁nzrkabz	-3833
▁nzrlasz	-3834
▁nzrlxti	-3835
▁nzrmale	-3836
▁nzsiklu	-3837
▁nzteslr	-3838
▁nztulzm	-3839
▁nztungr	-3840
▁nzveckr	-3841
▁nzvzngr	-3842
▁nzxlrbz	-3843
▁nzxpepx	-3844
▁nzyagox	-3845
▁nzyrlwr	-3846
▁nzyrpuo	-3847
▁obqkimc	-3848
▁odatitx	-3849
▁oszbzle	-3850
▁otibzle	-3851
▁otitxne	-3852
▁plastik	-3853
▁plctitx	-3854
▁plrkqtu	-3855
▁pnatikr	-3856
▁rkatrpq	-3857
▁rkqtxkr	-3858
▁rlilrdr	-3859
▁rlilrmu	-3860
▁rmctile	-3861
▁rpitrpq	-3862
▁rtqlrdr	-3863
▁rtqlrgr	-3864
▁skulboe	-3865
▁topwzne	-3866
▁tqablzo	-3867
▁tqabrtz	-3868
▁tqalekr	-3869
▁tqamrbr	-3870
▁tqamrlz	-3871
▁tqawrkx	-3872
▁tqbxplc	-3873
▁tqdcpxm	-3874
▁tqlxlvr	-3875
▁tqmeipe	-3876
▁tqmeipx	-3877
▁tqmrlzx	-3878
▁tqmwelr	-3879
▁tqnepex	-3880
▁tqngilo	-3881
▁tqngrli	-3882
▁tqopxpe	-3883
▁tqpoope	-3884
▁tqrkabz	-3885
▁tqrlrpe	-3886
▁tqrpibo	-3887
▁tqrpirn	-3888
▁tqrtqmz	-3889
▁tqrwzso	-3890
▁tqtingr	-3891
▁tqtupxm	-3892
▁tqtwzle	-3893
▁tqtwzpe	-3894
▁tqvongr	-3895
▁tqvopex	-3896
▁tqvopwz	-3897
▁tqyangr	-3898
▁tqycngr	-3899
▁trmcleu	-3900
▁trmncne	-3901
▁trnzayo	-3902
▁trsutiu	-3903
▁trtupeu	-3904
▁trvzkru	-3905
▁trvzkzu	-3906
▁trwzpeu	-3907
▁tryrpla	-3908
▁tunepwz	-3909
▁tutxpwz	-3910
▁tutxpxm	-3911
▁twztrkr	-3912
▁twztrle	-3913
▁twztxpo	-3914
▁tzapulr	-3915
▁tzayoti	-3916
▁tzayrni	-3917
▁tzayzlu	-3918
▁tzetung	-3919
▁tzkamlr	-3920
▁tzkukir	-3921
▁tzmcngr	-3922
▁tzmncng	-3923
▁tzmncpe	-3924
▁tzodutr	-3925
▁tzpnati	-3926
▁tzrpibz	-3927
▁tzwaisz	-3928
▁tzycmne	-3929
▁veakapq	-3930
▁veamrlz	-3931
▁vzkimle	-3932
▁vzobzle	-3933
▁vztrngr	-3934
▁xlrbole	-3935
▁xlrkrle	-3936
▁xlrlele	-3937
▁yagoxtx	-3938
▁ycmnepe	-3939
▁yrkrtxo	-3940
▁yrlwrpx	-3941
▁yrlztix	-3942
▁yzlumgr	-3943
▁yzprlzm	-3944
▁zbqkxtr	-3945
▁zbrlxkz	-3946
abrtztxpo	-3947
aelwatibz	-3948
aenzlimgr	-3949
alzupwzlr	-3950
angidrpex	-3951
angidrxng	-3952
aolvzpwzu	-3953
kalzpemgr	-3954
krlzpwzkr	-3955
krmopwqkr	-3956
lxblrbzle	-3957
lxblrbzlr	-3958
lxblrpeng	-3959
lxngitikr	-3960
netrpemgr	-3961
netrpexng	-3962
ngrpebzlr	-3963
ngrpwzleu	-3964
ngrtipekr	-3965
ngrtxbzle	-3966
nqblqnene	-3967
nqblqpelr	-3968
presinqng	-3969
titrpemle	-3970
trngrtiox	-3971
trpengrkr	-3972
twztimqng	-3973
yrkrpxpou	-3974
zpwxpekru	-3975
▁Alvztrle	-3976
▁Alvztrtx	-3977
▁Bwrnebwr	-3978
▁Dwalzmgr	-3979
▁Dwaobzkr	-3980
▁Inaoxngr	-3981
▁Kirakira	-3982
▁Komisina	-3983
▁Krlcdeng	-3984
▁Krlzbzkr	-3985
▁Krlzbzle	-3986
▁Kxaonrwx	-3987
▁Kzpznizm	-3988
▁Luekxpiz	-3989
▁Menckzpo	-3990
▁Mznzmipc	-3991
▁Namznrpe	-3992
▁Navobzkr	-3993
▁Nrlckxbq	-3994
▁Nzalvztr	-3995
▁Nzdwalzm	-3996
▁Nzmcpxlr	-3997
▁Nzmncngr	-3998
▁Nzoliqti	-3999
▁Nzpibzlr	-4000
▁Nzrtangr	-4001
▁Nzvomqng	-4002
▁Nzvztrng	-4003
▁Nzxpepem	-4004
▁Oliqlzkr	-4005
▁Olvxtile	-4006
▁Parapolo	-4007
▁Prtzting	-4008
▁Rlxngiti	-4009
▁Rpiobzle	-4010
▁Sikaiana	-4011
▁Telenapo	-4012
▁Tzycmnem	-4013
▁Vanikoro	-4014
▁Vopxbzkr	-4015
▁Vzpxbzkr	-4016
▁Wztitxkr	-4017
▁Wztitxpo	-4018
▁Yrbqoamu	-4019
▁Yrkrbzkr	-4020
▁Yrlqbzle	-4021
▁Yzlumitx	-4022
▁Yzlutxpe	-4023
▁Yzutrpnz	-4024
▁angctikr	-4025
▁angidati	-4026
▁atulzngr	-4027
▁ayrplapx	-4028
▁ayzlumle	-4029
▁bztipede	-4030
▁dckrlzde	-4031
▁drlzdrng	-4032
▁dwalzmgr	-4033
▁elalztxm	-4034
▁glqlzmle	-4035
▁glqtxole	-4036
▁inyxdeng	-4037
▁kaputrpq	-4038
▁katitxpx	-4039
▁kilznede	-4040
▁kqlepele	-4041
▁kqlutxpe	-4042
▁krlzbzkr	-4043
▁krlzlzbo	-4044
▁krlzpebo	-4045
▁krlzpekr	-4046
▁kxalvztr	-4047
▁kxaonrwx	-4048
▁kxnzkqlu	-4049
▁kztedeng	-4050
▁makxpele	-4051
▁masingan	-4052
▁matinetr	-4053
▁matqnepx	-4054
▁mctrpzle	-4055
▁mncpwzkr	-4056
▁mrvrtipe	-4057
▁mulzpekr	-4058
▁naatwzlr	-4059
▁nakabzkr	-4060
▁nakqtxom	-4061
▁namncpwz	-4062
▁namupeku	-4063
▁namwingr	-4064
▁naokatrx	-4065
▁napibzkr	-4066
▁napinemc	-4067
▁napitxpo	-4068
▁napitxtr	-4069
▁naprtzlr	-4070
▁narbingr	-4071
▁narlapxq	-4072
▁natwzpex	-4073
▁navopekr	-4074
▁navzbzkr	-4075
▁navzbzng	-4076
▁navzdzkr	-4077
▁navzpelr	-4078
▁nrkrdrtq	-4079
▁nutitxkr	-4080
▁nzabzokr	-4081
▁nzabzong	-4082
▁nzangcti	-4083
▁nzapxngr	-4084
▁nzatolwa	-4085
▁nzawitxm	-4086
▁nzdwaope	-4087
▁nzglqolr	-4088
▁nzkatxpe	-4089
▁nzkatxpx	-4090
▁nzkqtuti	-4091
▁nzkrlzlr	-4092
▁nzkuking	-4093
▁nzlalztq	-4094
▁nzmcomlr	-4095
▁nzmncngr	-4096
▁nzmnctrp	-4097
▁nzmqlrpi	-4098
▁nzmrlzkr	-4099
▁nzmwingr	-4100
▁nzmwipxm	-4101
▁nznepeng	-4102
▁nzoliqkr	-4103
▁nzolvxti	-4104
▁nzotrngr	-4105
▁nzpctikr	-4106
▁nzprtrng	-4107
▁nzpwrngr	-4108
▁nzrbomkr	-4109
▁nzrkzngr	-4110
▁nzrlzngr	-4111
▁nzrmangr	-4112
▁nzrngisc	-4113
▁nzrpimlr	-4114
▁nzrpzngr	-4115
▁nzrvingr	-4116
▁nzryapwx	-4117
▁nzsutipe	-4118
▁nztavelr	-4119
▁nztavetr	-4120
▁nztekqtr	-4121
▁nzvzdzpe	-4122
▁nzvzmqng	-4123
▁nzvzpeng	-4124
▁nzxlrmlr	-4125
▁nzxpengr	-4126
▁nzxplrkr	-4127
▁nzyrlekr	-4128
▁nzyrleti	-4129
▁nzyrlqbz	-4130
▁nzyrlzng	-4131
▁pawitxne	-4132
▁presiden	-4133
▁pwrkilvc	-4134
▁rglqpxkr	-4135
▁rlxngiti	-4136
▁stoakipz	-4137
▁tqaclvex	-4138
▁tqalepeq	-4139
▁tqalvctr	-4140
▁tqamaope	-4141
▁tqayzutr	-4142
▁tqdolapx	-4143
▁tqdotrbe	-4144
▁tqkabzkr	-4145
▁tqkapebo	-4146
▁tqkukipe	-4147
▁tqmcpekr	-4148
▁tqmcpele	-4149
▁tqmeitio	-4150
▁tqmncpex	-4151
▁tqmrlzpe	-4152
▁tqmwipex	-4153
▁tqmznrpe	-4154
▁tqolvxti	-4155
▁tqopilvz	-4156
▁tqoszpex	-4157
▁tqpibzkr	-4158
▁tqpipebz	-4159
▁tqrlxplz	-4160
▁tqrpimle	-4161
▁tqrpipex	-4162
▁tqrtangr	-4163
▁tqrtrngr	-4164
▁tqryrnge	-4165
▁tqtatipe	-4166
▁tqtrkami	-4167
▁tqtrkape	-4168
▁tqtutrpq	-4169
▁tqveapem	-4170
▁tqvolzpe	-4171
▁tqvopxpe	-4172
▁tqvzbzkr	-4173
▁tqvzdzpe	-4174
▁tqvznekr	-4175
▁tqvzopex	-4176
▁tqvzpebo	-4177
▁tqvzpebz	-4178
▁tqvzpxpe	-4179
▁tqwaipex	-4180
▁tqwrkxtr	-4181
▁tqxlrpex	-4182
▁tqycongr	-4183
▁tqyrwilx	-4184
▁tqyzlumi	-4185
▁tqyzprlz	-4186
▁traolvzu	-4187
▁trkrlebq	-4188
▁trnipgru	-4189
▁trnzkqlu	-4190
▁trpaswxu	-4191
▁trtegrng	-4192
▁trtzrpna	-4193
▁tryrkrpx	-4194
▁tzatwzlr	-4195
▁tzkatxpe	-4196
▁tzkrlzpe	-4197
▁tzkuking	-4198
▁tztavetr	-4199
▁tztwzmlr	-4200
▁tzvzbeng	-4201
▁tzycmnem	-4202
▁tzyzlupe	-4203
▁vecomamu	-4204
▁xpetixng	-4205
▁yrkrpxbo	-4206
▁yrlqbzkr	-4207
▁yrlqtxbo	-4208
▁yrlztile	-4209
aenzlitxki	-4210
kapqpxpeng	-4211
krpepwqgru	-4212
ngalelvzkr	-4213
ngrlvznedr	-4214
nrbalqnekr	-4215
▁Ayzlubzle	-4216
▁Diksonare	-4217
▁Dwatrpzkr	-4218
▁Kranzlvqn	-4219
▁Kxnzakrlz	-4220
▁Lcsukxlvc	-4221
▁Manyzdeng	-4222
▁Mnctiomgr	-4223
▁Mweitange	-4224
▁Nartwzobz	-4225
▁Nrzkakrbz	-4226
▁Nzabrtztx	-4227
▁Nzamukxtr	-4228
▁Nzapresin	-4229
▁Nzatrkati	-4230
▁Nzkalzmlr	-4231
▁Nzkapxmlr	-4232
▁Nzmwxlrng	-4233
▁Nzngrlrpx	-4234
▁Nzobqbzng	-4235
▁Nzobqpxbz	-4236
▁Nzrpibzlr	-4237
▁Nzveaneng	-4238
▁Nzycmnekr	-4239
▁Pokiabzkr	-4240
▁Rmikatxkr	-4241
▁Testimcne	-4242
▁Tqobqnene	-4243
▁Tqvongrgr	-4244
▁Trkrlzwxu	-4245
▁Trnzsiklu	-4246
▁Yolxomamu	-4247
▁aclvebzle	-4248
▁amukxtrtx	-4249
▁asumipebo	-4250
▁atrkatitx	-4251
▁atubxlzle	-4252
▁atulztxkr	-4253
▁atutrpele	-4254
▁ayamemcle	-4255
▁ayzprtilz	-4256
▁bxplitipe	-4257
▁bxtrtxpwz	-4258
▁bzprlzpem	-4259
▁dcplxtipe	-4260
▁dwamitxtr	-4261
▁esablqpxm	-4262
▁glrtipeng	-4263
▁katxlzmle	-4264
▁kctitxpxx	-4265
▁kranzlvqn	-4266
▁kxetuting	-4267
▁kxmyapxbz	-4268
▁kxnzetung	-4269
▁kxrtekqtr	-4270
▁kxtrmrlzu	-4271
▁kztengeng	-4272
▁mangrkxnz	-4273
▁manyzdeng	-4274
▁mnqtipele	-4275
▁mrlzvxitx	-4276
▁naaglqamu	-4277
▁naalvztrx	-4278
▁nadotxopq	-4279
▁nadwapekr	-4280
▁nadwatitx	-4281
▁nadwatrkr	-4282
▁nangelubo	-4283
▁nangelune	-4284
▁nangqnamu	-4285
▁napilvzti	-4286
▁narlalzkr	-4287
▁narlxtibo	-4288
▁narlxtitx	-4289
▁natwzbzlr	-4290
▁nayagoxng	-4291
▁nayctipxm	-4292
▁nayzutrpe	-4293
▁nzaelwapx	-4294
▁nzalvzngr	-4295
▁nzamukxtr	-4296
▁nzatrkati	-4297
▁nzatubqti	-4298
▁nzayonepe	-4299
▁nzblqking	-4300
▁nzdwaongr	-4301
▁nzdwaszbz	-4302
▁nzdwaszdr	-4303
▁nziklapwz	-4304
▁nzkrlzmlr	-4305
▁nzlxngiti	-4306
▁nzlxplztx	-4307
▁nzmeitrpz	-4308
▁nzmncpeng	-4309
▁nzmrgengr	-4310
▁nzmwelrng	-4311
▁nzokatrkr	-4312
▁nzokatrpe	-4313
▁nzoliqngr	-4314
▁nzotrpzng	-4315
▁nzpnatilr	-4316
▁nzpnutitx	-4317
▁nzpnzbzlr	-4318
▁nzrlimzng	-4319
▁nzrmusrti	-4320
▁nzrtekqtr	-4321
▁nzrtwzngr	-4322
▁nztelvzlr	-4323
▁nzvzkiolr	-4324
▁nzvzkiope	-4325
▁nzycblqng	-4326
▁nzyrlzngr	-4327
▁planteson	-4328
▁pnatibzkr	-4329
▁rkalzmqgr	-4330
▁rmctipekr	-4331
▁rnzlvzole	-4332
▁sekondzre	-4333
▁taplxsrgr	-4334
▁tcprtrngr	-4335
▁testimcne	-4336
▁tqabcnene	-4337
▁tqamukxtr	-4338
▁tqasupebz	-4339
▁tqawipebo	-4340
▁tqayrnipe	-4341
▁tqdotrpex	-4342
▁tqdwapxpe	-4343
▁tqdwatrpe	-4344
▁tqelapebz	-4345
▁tqlolvzpe	-4346
▁tqlxngiti	-4347
▁tqmctiamu	-4348
▁tqmncpeku	-4349
▁tqmnctikr	-4350
▁tqmwipekr	-4351
▁tqmwitxpe	-4352
▁tqngcneom	-4353
▁tqngqnamu	-4354
▁tqobqtrpe	-4355
▁tqplrkqtu	-4356
▁tqprkilzm	-4357
▁tqrkqtipe	-4358
▁tqrpibzle	-4359
▁tqryrpebz	-4360
▁tqsiklube	-4361
▁tqtopwzbe	-4362
▁tqtrkangr	-4363
▁tqtunepwz	-4364
▁tqveapebz	-4365
▁tqvzopekr	-4366
▁tqvzpemgr	-4367
▁tqwaipele	-4368
▁tqwxbupxm	-4369
▁tqwztrbex	-4370
▁tqxlrpekr	-4371
▁tqyagoxpe	-4372
▁tqyrlwrpx	-4373
▁trkrlzkru	-4374
▁trkrlzleu	-4375
▁trkrlzwxu	-4376
▁trmalewxu	-4377
▁trtakitru	-4378
▁trtqwzpeu	-4379
▁trvzpxpwq	-4380
▁trwzpeleu	-4381
▁tzaelwati	-4382
▁tzangiolr	-4383
▁tzangrlvz	-4384
▁tzlvcmqng	-4385
▁tzmctxpwz	-4386
▁tzmwelrng	-4387
▁tzngrlrlz	-4388
▁tzrpipelr	-4389
▁tzryzkrng	-4390
▁tzsiklupx	-4391
▁tzsikluti	-4392
▁tztwznedr	-4393
▁tzveatipe	-4394
▁tzvecpeng	-4395
▁tzveopebz	-4396
▁tzxpetrpq	-4397
▁tzycpengr	-4398
▁vzkipemle	-4399
▁wztxpwzkr	-4400
▁ycpqtxpxx	-4401
▁yctrpengr	-4402
aenzlipwzlr	-4403
ayrplapxxng	-4404
lxlrtxpwzmu	-4405
lxngitikalr	-4406
palelvzpelr	-4407
rlxngitingr	-4408
▁Aglqtrpqgr	-4409
▁Kcoporetiv	-4410
▁Mnctxpwzkr	-4411
▁Nabakxenga	-4412
▁Nzabrtzngr	-4413
▁Nzdwatxcng	-4414
▁Nzrkatxngr	-4415
▁Nzrmnqtxng	-4416
▁Nzrpilzngr	-4417
▁Nzrtekangr	-4418
▁Nzsiklungr	-4419
▁Nzveclzmlr	-4420
▁Nzycmnengr	-4421
▁Prtztxbzkr	-4422
▁Sekaentxkr	-4423
▁Sevenoklck	-4424
▁Tqyrkelvzx	-4425
▁Trkrlzwamu	-4426
▁Tryrnipewq	-4427
▁amnqtxtrpo	-4428
▁ataplxsrle	-4429
▁drtwrngele	-4430
▁krlzlzbzkr	-4431
▁kxnzaonrwx	-4432
▁kxyrngzpxm	-4433
▁kzporapekr	-4434
▁lxlvrkimle	-4435
▁melrmqdrng	-4436
▁mrbrtitrpe	-4437
▁nabzkxtrng	-4438
▁nabzmipele	-4439
▁naipqpxngr	-4440
▁nakatxbzle	-4441
▁namrbrtitr	-4442
▁nangelungr	-4443
▁nangininge	-4444
▁naobqlvzti	-4445
▁naoklatitr	-4446
▁narbompeng	-4447
▁narlxngiti	-4448
▁natekqtrle	-4449
▁netxpxpnzx	-4450
▁ngrlrmimle	-4451
▁ngrlxobzle	-4452
▁nzaclvengr	-4453
▁nzalvzting	-4454
▁nzalvztrlr	-4455
▁nzarlapxkr	-4456
▁nzayrlwrpx	-4457
▁nzayrplapx	-4458
▁nzdwatrngr	-4459
▁nzglqlzmlr	-4460
▁nzglqpxmlr	-4461
▁nzglqtrpem	-4462
▁nzkctitxpx	-4463
▁nzkqlupeng	-4464
▁nzkrlztrpz	-4465
▁nzlalatikr	-4466
▁nzmalebzlr	-4467
▁nzngqbangr	-4468
▁nzokatrngr	-4469
▁nzpibzlrle	-4470
▁nzrnibqngr	-4471
▁nzrpilzmlr	-4472
▁nzrpilzngr	-4473
▁nzrtangrti	-4474
▁nzrtcolzbq	-4475
▁nzrtekangr	-4476
▁nzryrtingr	-4477
▁nztamititr	-4478
▁nztavetrlr	-4479
▁nzvzdzmqng	-4480
▁nzvzpxmqng	-4481
▁nzyrkrmqng	-4482
▁prngeitxbz	-4483
▁rblxtxpele	-4484
▁rlxngitile	-4485
▁rtrngrtiox	-4486
▁tqaenzlikr	-4487
▁tqaenzliti	-4488
▁tqaglqpekr	-4489
▁tqalilvcne	-4490
▁tqamqngitr	-4491
▁tqayagoxle	-4492
▁tqayrkrpex	-4493
▁tqayzutxtr	-4494
▁tqdwatimle	-4495
▁tqkaputrpe	-4496
▁tqlitrpebz	-4497
▁tqmctipekr	-4498
▁tqmwitxlzm	-4499
▁tqngrlxope	-4500
▁tqobqlzpex	-4501
▁tqrblxtile	-4502
▁tqrdatrpwz	-4503
▁tqrglqtikr	-4504
▁tqrmctipex	-4505
▁tqrtangrne	-4506
▁tqtutxpekr	-4507
▁tqvzkipxkr	-4508
▁tqvzpebzkr	-4509
▁tqvztrpebo	-4510
▁tqvztrpekr	-4511
▁tqyapxpebz	-4512
▁tqyapxpekr	-4513
▁tqyrkelvzq	-4514
▁tqyrkrpxpe	-4515
▁tqyrninepe	-4516
▁tqyzlumipe	-4517
▁tqyzlupemc	-4518
▁trkqopqleu	-4519
▁trmwipekru	-4520
▁trnangipeu	-4521
▁trnikapqle	-4522
▁trnzmnetiu	-4523
▁trplrkqtuu	-4524
▁trrblxpwzu	-4525
▁trtqdwaope	-4526
▁trtxpnzngr	-4527
▁tzalvztrng	-4528
▁tzatwzlrpe	-4529
▁tzaveatipe	-4530
▁tzglqtrpem	-4531
▁tzkaputrpe	-4532
▁tzmalebzlr	-4533
▁tzmnctxpwz	-4534
▁tzngrlalvz	-4535
▁tzpipebzlr	-4536
▁tzpxyqbeng	-4537
▁tzrkalzpem	-4538
▁tzrlxngiti	-4539
▁tzrlxtimlr	-4540
▁tzrpipemlr	-4541
▁tzrtangrpe	-4542
▁tzrtctxngr	-4543
▁tzrtwzting	-4544
▁tzrtwztipe	-4545
▁tztavetrlr	-4546
▁tzvzkipxlr	-4547
▁tzxlropelr	-4548
▁tzyapxpeng	-4549
▁vzkipebzkr	-4550
▁ycmnekimle	-4551
▁ycpqtipekr	-4552
▁yrbutipeng	-4553
▁yrkrmitxpx	-4554
▁yrkrtxtrku	-4555
▁yrlqtxtrkr	-4556
▁yrplatrngr	-4557
ngalelvzpekr	-4558
yapwxtipemle	-4559
▁Drvrminemle	-4560
▁Nzalvztrngr	-4561
▁Nzryzutrngr	-4562
▁Omitxpxbzle	-4563
▁Takitrtxpwz	-4564
▁Trdwatrwamu	-4565
▁Trnanibqleu	-4566
▁Twzkipxlele	-4567
▁Ycmnetrpzkr	-4568
▁abrtztxpekr	-4569
▁kxnzakrlzng	-4570
▁kxnzrtekqtr	-4571
▁kxnzyagoxng	-4572
▁kxtopwzting	-4573
▁nadwaszpekr	-4574
▁nadwatrpzkr	-4575
▁nanginipegr	-4576
▁naokatrpqlr	-4577
▁naprtxpxpex	-4578
▁narlxtibzme	-4579
▁narlxtitxpo	-4580
▁narlxtrpzkr	-4581
▁natekqtrngr	-4582
▁nzakititrlr	-4583
▁nzaolvzbzlr	-4584
▁nzatwzlrpwz	-4585
▁nzbrkapxmlr	-4586
▁nzlutxpwzng	-4587
▁nzmctrpemlr	-4588
▁nzrmctinedr	-4589
▁nzrplameiti	-4590
▁nztekqtrngr	-4591
▁nzwrkxtrngr	-4592
▁nzxlrbzlrle	-4593
▁nzyrlwrmqng	-4594
▁sikaputxpwz	-4595
▁tqalvzpxpex	-4596
▁tqalvztrpex	-4597
▁tqamznrpele	-4598
▁tqatatrpele	-4599
▁tqawipebzkr	-4600
▁tqayrnipele	-4601
▁tqayzlupele	-4602
▁tqbxplcopem	-4603
▁tqdwatibzle	-4604
▁tqdwatrpekr	-4605
▁tqkaputrpem	-4606
▁tqlxlvrkipx	-4607
▁tqmwelrpekr	-4608
▁tqngrlrpekr	-4609
▁tqrlrpebzle	-4610
▁tqryapwxpem	-4611
▁tqtwzpebzle	-4612
▁tqvzkilzmle	-4613
▁tqyrkrpengr	-4614
▁tqyrplatrpe	-4615
▁trayzlupleu	-4616
▁trnzpresinu	-4617
▁tryclvzopeu	-4618
▁tzamrbrtrlr	-4619
▁tzawztrpelr	-4620
▁tzkukirpelr	-4621
▁tzmnctxpeng	-4622
▁tzpnatibzlr	-4623
▁tzpresinqng	-4624
▁tzrmctipelr	-4625
▁tztulrtrpem	-4626
▁tzyapwxtipe	-4627
▁tzycmnetrpe	-4628
▁yapilwztrpe	-4629
▁yrnineopebz	-4630
▁yrplabrtqpe	-4631
▁Nzrkalzmqngq	-4632
▁Nzrtekqtrngr	-4633
▁Nzrtwztimqng	-4634
▁Nzyrlqtrpzlr	-4635
▁Rtrngrtitrle	-4636
▁Tekatrtxbzle	-4637
▁Zbqkranzlvqn	-4638
▁kxngrlxobzle	-4639
▁kxnzalvzting	-4640
▁kxnzalvztrng	-4641
▁lvabetxpwzkr	-4642
▁nzabrtzlvzlr	-4643
▁nzalxngitikr	-4644
▁nzamnqlvzngr	-4645
▁nzlcapqbzngr	-4646
▁nzmnctipxmlr	-4647
▁nzmwibletilr	-4648
▁nzrtrngrtibz	-4649
▁nzrtrngrtitr	-4650
▁nztqlvztrngr	-4651
▁nzyangrngatx	-4652
▁tqdwalzpemgr	-4653
▁tqkakilzmclr	-4654
▁tqkqlepebzle	-4655
▁tqlawititxne	-4656
▁tqmnctxpwzkr	-4657
▁tqnginipenge	-4658
▁tqngrlrpxpem	-4659
▁tqotitrpemle	-4660
▁tqrkalzpemgr	-4661
▁tqryapwxpebz	-4662
▁tqvomitrpekr	-4663
▁tqvzkilzpekr	-4664
▁tqwxlikitxpx	-4665
▁tqycmnepeamu	-4666
▁tqyrkrkipxle	-4667
▁tqyrplatrngr	-4668
▁tqyrputipxpe	-4669
▁trayrkrpxpou	-4670
▁tzangcpebzlr	-4671
▁tzrpnztrpzng	-4672
▁tztavetrpelr	-4673
▁tztekqtrpeng	-4674
▁tzwrkxtrpeng	-4675
▁tzyamipebzlr	-4676
▁Nziklatxpwzng	-4677
▁Nzrtangrtingr	-4678
▁navzkitxpwzlr	-4679
▁nzangrlvznedr	-4680
▁nzbrlclvznepx	-4681
▁nzrlxkqtiongr	-4682
▁nzrlxngitingr	-4683
▁nzrtangrtingr	-4684
▁nzrtrngrtiolr	-4685
▁takitrtxpwzle	-4686
▁tqamrbrtrpele	-4687
▁tqatwzlrpemle	-4688
▁tqawrkxtrpele	-4689
▁tqngrlrpxpekr	-4690
▁tqrlxtipebzle	-4691
▁tqrtangrtipex	-4692
▁trayzlupxpleu	-4693
▁trnzaolvzpwzu	-4694
▁tzveatipebzlr	-4695
▁tzyrlwrtinebe	-4696
▁tqasiklupeleng	-4697
▁tqmncnetrpemgr	-4698
▁tqoliqtipebzle	-4699
▁tqrtrngrtibzme	-4700
▁tqvzmitrpeleng	-4701
▁tqyapwxtipemle	-4702
▁trnzayotipelru	-4703
▁tqalvznetrpexng	-4704
▁trnzlxngitikalr	-4705
▁tryrplatitrpwzu	-4706
▁tzyapwxtipebzlr	-4707
▁tzyrpalelvzpelr	-4708
!"	-4709
.”	-4710
08	-4711
43	-4712
44	-4713
An	-4714
Ar	-4715
Ay	-4716
Dc	-4717
Dw	-4718
Kx	-4719
La	-4720
Nz	-4721
Pr	-4722
Tz	-4723
Yr	-4724
Zm	-4725
ay	-4726
cb	-4727
cn	-4728
ez	-4729
hi	-4730
lw	-4731
ml	-4732
my	-4733
ob	-4734
oe	-4735
oi	-4736
py	-4737
qp	-4738
rg	-4739
ud	-4740
xo	-4741
xu	-4742
005	-4743
006	-4744
200	-4745
700	-4746
800	-4747
Blz	-4748
Epr	-4749
Gwa	-4750
Ilz	-4751
Itu	-4752
Mrl	-4753
Obq	-4754
Oli	-4755
Olz	-4756
Omi	-4757
Rla	-4758
Rli	-4759
Rng	-4760
Zbq	-4761
Zma	-4762
abo	-4763
aka	-4764
alr	-4765
alu	-4766
ama	-4767
amr	-4768
ang	-4769
api	-4770
apx	-4771
atq	-4772
bqk	-4773
bqo	-4774
bru	-4775
bzk	-4776
cmc	-4777
cmi	-4778
cne	-4779
cpx	-4780
ctx	-4781
dri	-4782
ebi	-4783
emc	-4784
enq	-4785
epx	-4786
eta	-4787
etx	-4788
ewa	-4789
ger	-4790
glz	-4791
gne	-4792
grm	-4793
gzp	-4794
ibq	-4795
iki	-4796
ine	-4797
ipx	-4798
jin	-4799
ab	-4800
hu	-4801
Ika	-4802
Twz	-4803
ael	-4804
ayr	-4805
clz	-4806
ctq	-4807
eka	-4808
eke	-4809
eti	-4810
ika	-4811
iti	-4812
kak	-4813
kim	-4814
lca	-4815
lem	-4816
lep	-4817
lia	-4818
lil	-4819
lim	-4820
lio	-4821
lqa	-4822
lqo	-4823
lta	-4824
lum	-4825
lxo	-4826
lzg	-4827
lzt	-4828
lzu	-4829
mal	-4830
mar	-4831
mcl	-4832
mco	-4833
mcp	-4834
mop	-4835
mwa	-4836
mzn	-4837
nbo	-4838
ned	-4839
nem	-4840
nen	-4841
nie	-4842
nrb	-4843
nte	-4844
ntx	-4845
nza	-4846
nzk	-4847
nzm	-4848
nzr	-4849
nzs	-4850
oam	-4851
odo	-4852
ogz	-4853
oph	-4854
opx	-4855
ota	-4856
otr	-4857
otx	-4858
oux	-4859
pea	-4860
pek	-4861
pib	-4862
pip	-4863
pir	-4864
pxb	-4865
qbo	-4866
qdr	-4867
qlu	-4868
qne	-4869
qpx	-4870
qtc	-4871
qti	-4872
qtx	-4873
ren	-4874
rik	-4875
rka	-4876
rnz	-4877
rta	-4878
rtu	-4879
sis	-4880
tal	-4881
tap	-4882
tel	-4883
ten	-4884
ter	-4885
tes	-4886
tib	-4887
til	-4888
tin	-4889
tit	-4890
tql	-4891
tri	-4892
tub	-4893
tuk	-4894
tun	-4895
tuo	-4896
txp	-4897
udr	-4898
uku	-4899
12	-4900
36	-4901
Mc	-4902
Po	-4903
ax	-4904
lb	-4905
ms	-4906
za	-4907
Prl	-4908
Yrl	-4909
abr	-4910
ckr	-4911
ctr	-4912
gli	-4913
ile	-4914
imc	-4915
ipe	-4916
ise	-4917
itr	-4918
ivz	-4919
kia	-4920
kip	-4921
kli	-4922
lal	-4923
lbo	-4924
nck	-4925
ovz	-4926
pxq	-4927
srl	-4928
sta	-4929
tek	-4930
trk	-4931
uli	-4932
une	-4933
ung	-4934
urc	-4935
vxi	-4936
vzk	-4937
vzn	-4938
vzo	-4939
vzp	-4940
vzu	-4941
vzx	-4942
wap	-4943
wrn	-4944
wzo	-4945
wzx	-4946
xbq	-4947
xka	-4948
xki	-4949
xne	-4950
xti	-4951
xtr	-4952
yam	-4953
ycm	-4954
yrw	-4955
zbo	-4956
zbx	-4957
zka	-4958
zki	-4959
▁Ab	-4960
▁Am	-4961
▁Kw	-4962
▁Lz	-4963
▁Sk	-4964
▁So	-4965
▁Sr	-4966
▁ae	-4967
▁ag	-4968
▁as	-4969
▁do	-4970
▁ez	-4971
▁ko	-4972
▁ln	-4973
▁rg	-4974
▁rk	-4975
▁rl	-4976
▁rm	-4977
▁rp	-4978
▁ru	-4979
▁ry	-4980
▁yi	-4981
Olvz	-4982
Prlz	-4983
Yrlz	-4984
aepi	-4985
apwz	-4986
blqm	-4987
bqgr	-4988
bqki	-4989
bqle	-4990
bqng	-4991
bzme	-4992
bzne	-4993
bztr	-4994
bztx	-4995
cpwz	-4996
deal	-4997
drlz	-4998
eape	-4999
73	-5000
94	-5001
97	-5002
Ao	-5003
Ny	-5004
Pi	-5005
Rl	-5006
Va	-5007
co	-5008
zj	-5009
zt	-5010
zx	-5011
Krl	-5012
Lrl	-5013
Sti	-5014
bza	-5015
bzb	-5016
bzl	-5017
bzn	-5018
cbz	-5019
dra	-5020
erl	-5021
grl	-5022
ibz	-5023
ikz	-5024
iny	-5025
kio	-5026
let	-5027
mrl	-5028
nzt	-5029
ola	-5030
pgr	-5031
pit	-5032
qbz	-5033
rbq	-5034
rbz	-5035
tim	-5036
tki	-5037
tqd	-5038
upe	-5039
url	-5040
vzt	-5041
zbz	-5042
zpx	-5043
zrl	-5044
ztu	-5045
▁pn	-5046
▁sk	-5047
▁sp	-5048
▁sr	-5049
brtx	-5050
bzbz	-5051
bzdr	-5052
entx	-5053
esin	-5054
grlr	-5055
ikso	-5056
ilas	-5057
inge	-5058
inia	-5059
inyx	-5060
kabo	-5061
kaen	-5062
kaki	-5063
kape	-5064
kapx	-5065
kilr	-5066
krtx	-5067
labr	-5068
lame	-5069
lasz	-5070
latr	-5071
latx	-5072
lebq	-5073
legr	-5074
leti	-5075
lika	-5076
likr	-5077
ling	-5078
litx	-5079
llen	-5080
lubo	-5081
lubz	-5082
lutx	-5083
lvex	-5084
lwzu	-5085
lxsr	-5086
lxtx	-5087
lzlr	-5088
lztq	-5089
lztr	-5090
lztx	-5091
lzwa	-5092
mcle	-5093
mcpx	-5094
mctx	-5095
nabz	-5096
nani	-5097
napi	-5098
nebe	-5099
06	-5100
18	-5101
62	-5102
90	-5103
95	-5104
98	-5105
Am	-5106
Au	-5107
Ep	-5108
Fr	-5109
Il	-5110
Lz	-5111
Pw	-5112
Yz	-5113
ad	-5114
ak	-5115
aq	-5116
eq	-5117
gq	-5118
mw	-5119
qw	-5120
qy	-5121
xn	-5122
zl	-5123
zq	-5124
Abz	-5125
Eli	-5126
adr	-5127
ara	-5128
cti	-5129
dik	-5130
lai	-5131
law	-5132
lrb	-5133
lwa	-5134
lxb	-5135
mil	-5136
ple	-5137
qle	-5138
qwz	-5139
rlv	-5140
rtq	-5141
tqm	-5142
upx	-5143
xtx	-5144
yrp	-5145
▁Mu	-5146
▁ac	-5147
▁bl	-5148
agox	-5149
ange	-5150
bqoa	-5151
drkr	-5152
enga	-5153
king	-5154
lebz	-5155
lepe	-5156
liki	-5157
lrbo	-5158
lrle	-5159
mate	-5160
nede	-5161
neki	-5162
nemi	-5163
netr	-5164
ngrb	-5165
niel	-5166
nizm	-5167
nyon	-5168
nzkq	-5169
nzle	-5170
nzlv	-5171
nzng	-5172
ogzs	-5173
okli	-5174
ondz	-5175
osip	-5176
osis	-5177
oude	-5178
ouku	-5179
oune	-5180
pepx	-5181
petr	-5182
pile	-5183
pine	-5184
pipx	-5185
pitr	-5186
pitx	-5187
pqde	-5188
prkr	-5189
prom	-5190
pwzb	-5191
pzle	-5192
pzlr	-5193
qnge	-5194
qobq	-5195
rblx	-5196
rlxp	-5197
rlzx	-5198
roni	-5199
30	-5200
Ba	-5201
Bi	-5202
Bo	-5203
Bw	-5204
Ek	-5205
Gz	-5206
Mi	-5207
Si	-5208
Vz	-5209
Wz	-5210
cp	-5211
cw	-5212
ei	-5213
ex	-5214
ji	-5215
kl	-5216
ks	-5217
mg	-5218
or	-5219
pn	-5220
pw	-5221
qm	-5222
ru	-5223
sp	-5224
up	-5225
xk	-5226
xv	-5227
Atq	-5228
akc	-5229
asi	-5230
avo	-5231
blz	-5232
bzt	-5233
drt	-5234
ele	-5235
get	-5236
ikr	-5237
lek	-5238
los	-5239
lrm	-5240
lup	-5241
mcw	-5242
nzx	-5243
ryz	-5244
tip	-5245
wzb	-5246
wzl	-5247
wzn	-5248
wzs	-5249
xli	-5250
zpi	-5251
▁Mw	-5252
▁mo	-5253
▁od	-5254
enwz	-5255
lipe	-5256
lrbz	-5257
lrlz	-5258
lupx	-5259
lxng	-5260
lzdr	-5261
nibo	-5262
nzmc	-5263
ourl	-5264
pegr	-5265
rlzm	-5266
rovi	-5267
srle	-5268
srti	-5269
sukx	-5270
swxu	-5271
tang	-5272
tegr	-5273
tekr	-5274
tele	-5275
telr	-5276
teng	-5277
tepe	-5278
tika	-5279
timc	-5280
tipx	-5281
tqlr	-5282
tqvz	-5283
trlr	-5284
trwa	-5285
tubq	-5286
tubz	-5287
tupu	-5288
tupx	-5289
tuti	-5290
txbo	-5291
txlz	-5292
ulis	-5293
utrx	-5294
vabe	-5295
vzkz	-5296
vzle	-5297
vzlr	-5298
vzmq	-5299
02	-5300
07	-5301
20	-5302
50	-5303
Al	-5304
Bz	-5305
DO	-5306
Im	-5307
In	-5308
Jo	-5309
Lo	-5310
No	-5311
Pa	-5312
Sc	-5313
So	-5314
Tr	-5315
We	-5316
Ya	-5317
Yc	-5318
ar	-5319
au	-5320
eu	-5321
ib	-5322
ko	-5323
ls	-5324
ov	-5325
pl	-5326
pm	-5327
se	-5328
st	-5329
zg	-5330
zm	-5331
zr	-5332
zv	-5333
cte	-5334
eng	-5335
kal	-5336
krk	-5337
lap	-5338
lel	-5339
lrn	-5340
mib	-5341
one	-5342
pel	-5343
prl	-5344
qde	-5345
rlu	-5346
tam	-5347
tav	-5348
ulz	-5349
wam	-5350
yrl	-5351
zpe	-5352
ztr	-5353
▁no	-5354
bqpe	-5355
drle	-5356
kakr	-5357
kitx	-5358
lzne	-5359
ngrp	-5360
nztr	-5361
pemc	-5362
pilr	-5363
rana	-5364
suti	-5365
tatr	-5366
trtx	-5367
vzne	-5368
vzou	-5369
vzpe	-5370
vzpx	-5371
vzti	-5372
vztr	-5373
waea	-5374
wale	-5375
walz	-5376
wami	-5377
wrgr	-5378
wrnr	-5379
wrnz	-5380
wzbz	-5381
wzli	-5382
wzlo	-5383
wzlr	-5384
wzpe	-5385
wztr	-5386
wztx	-5387
xitx	-5388
xplr	-5389
xpwz	-5390
yame	-5391
ycom	-5392
yrpu	-5393
yrti	-5394
yrwi	-5395
znge	-5396
zngr	-5397
zpma	-5398
▁Abz	-5399
14	-5400
28	-5401
56	-5402
93	-5403
Be	-5404
Do	-5405
Dz	-5406
Ge	-5407
Gr	-5408
Gw	-5409
Ju	-5410
Ki	-5411
Lu	-5412
Ng	-5413
Ni	-5414
Tu	-5415
Ve	-5416
ai	-5417
et	-5418
gl	-5419
ig	-5420
ip	-5421
nl	-5422
qd	-5423
rm	-5424
rt	-5425
sq	-5426
th	-5427
uk	-5428
xm	-5429
yi	-5430
zo	-5431
zu	-5432
Emi	-5433
Fra	-5434
Ipq	-5435
ala	-5436
cgr	-5437
enz	-5438
lub	-5439
nao	-5440
nep	-5441
nyx	-5442
nzl	-5443
oun	-5444
peb	-5445
pre	-5446
qgr	-5447
rki	-5448
rlw	-5449
tex	-5450
trt	-5451
uta	-5452
xkr	-5453
▁ab	-5454
▁bw	-5455
▁em	-5456
angr	-5457
krki	-5458
lati	-5459
lqpe	-5460
lrde	-5461
olta	-5462
oukr	-5463
rlzu	-5464
tudr	-5465
txng	-5466
tzlr	-5467
witr	-5468
wzri	-5469
yami	-5470
zsiu	-5471
▁Aka	-5472
▁Ala	-5473
▁Boe	-5474
▁Dcp	-5475
▁Fok	-5476
▁Gzp	-5477
▁Iva	-5478
▁Kat	-5479
▁Krl	-5480
▁Kxa	-5481
▁Kxe	-5482
▁Leo	-5483
▁Lwo	-5484
▁Lzp	-5485
▁Mrl	-5486
▁Mzd	-5487
▁Mzj	-5488
▁Mzn	-5489
▁Mzt	-5490
▁Nrl	-5491
▁Nzd	-5492
▁Nzl	-5493
▁Nzp	-5494
▁Nzy	-5495
▁Oli	-5496
▁Olz	-5497
▁Poo	-5498
▁Prc	-5499
16	-5500
91	-5501
96	-5502
Ag	-5503
Ak	-5504
Br	-5505
Ed	-5506
Fi	-5507
Ka	-5508
Mn	-5509
Re	-5510
Ri	-5511
av	-5512
cl	-5513
cs	-5514
ek	-5515
go	-5516
ky	-5517
no	-5518
qv	-5519
rx	-5520
xl	-5521
xp	-5522
ali	-5523
amc	-5524
awz	-5525
bzm	-5526
emz	-5527
ide	-5528
ila	-5529
lab	-5530
lea	-5531
nqb	-5532
oti	-5533
pet	-5534
pim	-5535
qkr	-5536
sbo	-5537
str	-5538
tre	-5539
tuu	-5540
ubz	-5541
ude	-5542
uti	-5543
xde	-5544
xle	-5545
zox	-5546
zti	-5547
▁It	-5548
▁Mo	-5549
▁St	-5550
▁ki	-5551
▁ob	-5552
bqpx	-5553
bupx	-5554
cngr	-5555
delr	-5556
luti	-5557
nzpi	-5558
oulr	-5559
oxpe	-5560
pakx	-5561
pibo	-5562
qngi	-5563
szbz	-5564
vzbz	-5565
vzki	-5566
vzkr	-5567
wakr	-5568
wape	-5569
▁Ren	-5570
▁Rka	-5571
▁Rlx	-5572
▁Rtc	-5573
▁Rtr	-5574
▁Sku	-5575
▁Sta	-5576
▁Trl	-5577
▁Ver	-5578
▁Wur	-5579
▁Yzu	-5580
▁ael	-5581
▁ale	-5582
▁ang	-5583
▁bag	-5584
▁bza	-5585
▁dcp	-5586
▁dri	-5587
▁drl	-5588
▁drv	-5589
▁enj	-5590
▁enq	-5591
▁ezp	-5592
▁gzp	-5593
▁kan	-5594
▁kap	-5595
▁kcm	-5596
▁kct	-5597
▁kla	-5598
▁krl	-5599
33	-5600
66	-5601
?"	-5602
Ai	-5603
As	-5604
Da	-5605
Dr	-5606
Ja	-5607
Ko	-5608
Mq	-5609
Nc	-5610
Ne	-5611
ac	-5612
aw	-5613
cv	-5614
eb	-5615
gn	-5616
ir	-5617
qo	-5618
rk	-5619
tk	-5620
ul	-5621
wc	-5622
xd	-5623
xt	-5624
zk	-5625
zs	-5626
Aka	-5627
Bwz	-5628
akr	-5629
asu	-5630
dep	-5631
ekr	-5632
ete	-5633
krp	-5634
lle	-5635
lwx	-5636
pew	-5637
pio	-5638
qpe	-5639
qyr	-5640
rkr	-5641
rtc	-5642
tia	-5643
uka	-5644
vzq	-5645
wao	-5646
zyc	-5647
▁Bw	-5648
▁Lv	-5649
▁Ny	-5650
▁nw	-5651
▁pa	-5652
▁rb	-5653
bqkr	-5654
bzkx	-5655
bzti	-5656
krpe	-5657
ncne	-5658
pxbo	-5659
tati	-5660
tutr	-5661
twzx	-5662
▁Mzl	-5663
▁Nzi	-5664
▁atr	-5665
▁blr	-5666
▁kxa	-5667
▁kxe	-5668
▁kxm	-5669
▁kxn	-5670
▁kxs	-5671
▁kzb	-5672
▁kzp	-5673
▁lcs	-5674
▁lep	-5675
▁mai	-5676
▁mei	-5677
▁mep	-5678
▁mrl	-5679
▁mzl	-5680
▁naa	-5681
▁nab	-5682
▁nae	-5683
▁nak	-5684
▁nan	-5685
▁nap	-5686
▁nav	-5687
▁nax	-5688
▁ncv	-5689
▁nel	-5690
▁nib	-5691
▁nik	-5692
▁nin	-5693
▁nrl	-5694
▁nub	-5695
▁nzi	-5696
▁nzk	-5697
▁nzl	-5698
▁nzp	-5699
04	-5700
19	-5701
45	-5702
71	-5703
?”	-5704
Ab	-5705
Bl	-5706
Bq	-5707
Kc	-5708
Lr	-5709
Nr	-5710
Om	-5711
Sk	-5712
am	-5713
cd	-5714
ck	-5715
di	-5716
ew	-5717
ie	-5718
lt	-5719
mk	-5720
qk	-5721
qt	-5722
qx	-5723
rd	-5724
xb	-5725
xe	-5726
zb	-5727
zn	-5728
Ate	-5729
cdr	-5730
lam	-5731
lir	-5732
lzw	-5733
nze	-5734
ong	-5735
png	-5736
ria	-5737
tqg	-5738
txk	-5739
▁Di	-5740
▁Gr	-5741
▁La	-5742
▁My	-5743
▁el	-5744
▁rt	-5745
▁xp	-5746
bzlu	-5747
ckta	-5748
liti	-5749
lrpe	-5750
lrpx	-5751
lrtx	-5752
luli	-5753
lupe	-5754
mikr	-5755
ngli	-5756
ngrt	-5757
oliq	-5758
pepe	-5759
tune	-5760
ungr	-5761
watx	-5762
▁kcp	-5763
▁kxb	-5764
▁kxp	-5765
▁nek	-5766
▁nig	-5767
▁oka	-5768
▁pet	-5769
▁pis	-5770
▁prl	-5771
▁rka	-5772
▁rkq	-5773
▁rkr	-5774
▁rma	-5775
▁rmc	-5776
▁rta	-5777
▁rtr	-5778
▁ryz	-5779
▁scg	-5780
▁teo	-5781
▁tqy	-5782
▁trb	-5783
▁trg	-5784
▁trn	-5785
▁trp	-5786
▁trs	-5787
▁try	-5788
▁tzg	-5789
▁tzk	-5790
▁tzm	-5791
▁tzp	-5792
▁tzt	-5793
▁tzw	-5794
▁tzx	-5795
▁xpe	-5796
▁yrb	-5797
▁yro	-5798
▁yzu	-5799
."	-5800
17	-5801
23	-5802
40	-5803
54	-5804
60	-5805
At	-5806
Aw	-5807
Mz	-5808
Rt	-5809
Su	-5810
Yi	-5811
Zy	-5812
an	-5813
cg	-5814
ch	-5815
cx	-5816
dl	-5817
dy	-5818
eo	-5819
iv	-5820
qb	-5821
qe	-5822
rc	-5823
rw	-5824
sd	-5825
tw	-5826
ub	-5827
uz	-5828
vc	-5829
vq	-5830
xi	-5831
Esu	-5832
ake	-5833
ati	-5834
bel	-5835
cbr	-5836
drk	-5837
igr	-5838
imz	-5839
kil	-5840
lit	-5841
mrg	-5842
olo	-5843
ove	-5844
pur	-5845
pxp	-5846
qlr	-5847
rmc	-5848
rpx	-5849
rtr	-5850
veo	-5851
wzr	-5852
zma	-5853
▁Aw	-5854
▁Dw	-5855
▁Ti	-5856
▁Vx	-5857
▁dw	-5858
▁kl	-5859
▁mw	-5860
bqlz	-5861
bxlz	-5862
enge	-5863
jzbx	-5864
kilv	-5865
kiti	-5866
lelr	-5867
lrti	-5868
lumc	-5869
ngis	-5870
ngla	-5871
rlzv	-5872
yrkr	-5873
▁Ipq	-5874
▁aki	-5875
▁lrt	-5876
▁nzd	-5877
▁tqn	-5878
abrtz	-5879
akitr	-5880
baita	-5881
bleng	-5882
bleti	-5883
blqne	-5884
blqpe	-5885
blxti	-5886
blxtx	-5887
bqleu	-5888
bqlvz	-5889
bqngr	-5890
bqobz	-5891
bupxm	-5892
bzngr	-5893
chill	-5894
ckrlz	-5895
cnika	-5896
ctrpe	-5897
drpex	-5898
dwalz	-5899
10	-5900
21	-5901
29	-5902
32	-5903
34	-5904
35	-5905
37	-5906
49	-5907
53	-5908
55	-5909
61	-5910
64	-5911
65	-5912
82	-5913
88	-5914
89	-5915
92	-5916
Kr	-5917
Ma	-5918
Mu	-5919
ci	-5920
dw	-5921
eg	-5922
ii	-5923
iq	-5924
ln	-5925
pt	-5926
sl	-5927
008	-5928
bzp	-5929
csu	-5930
ias	-5931
ilx	-5932
lew	-5933
mwr	-5934
nek	-5935
ngp	-5936
nzu	-5937
qtr	-5938
rpu	-5939
tik	-5940
txb	-5941
txm	-5942
ukr	-5943
ule	-5944
umi	-5945
xlv	-5946
xpx	-5947
zne	-5948
zpz	-5949
▁Ko	-5950
▁ay	-5951
brti	-5952
drtq	-5953
eati	-5954
grdr	-5955
kqti	-5956
litr	-5957
lxti	-5958
lzng	-5959
mcwx	-5960
nsrl	-5961
osae	-5962
rmnq	-5963
wapx	-5964
wati	-5965
wzkr	-5966
▁Bwa	-5967
▁dap	-5968
▁let	-5969
▁mwe	-5970
▁mzb	-5971
▁pri	-5972
ekatr	-5973
elape	-5974
elwin	-5975
emons	-5976
esinq	-5977
gengr	-5978
glqlz	-5979
glrkr	-5980
ikapu	-5981
itrpz	-5982
iukan	-5983
kaula	-5984
kaulz	-5985
kilzm	-5986
kiolr	-5987
kqtuu	-5988
krlzp	-5989
krmop	-5990
krtxo	-5991
lalvz	-5992
lapwz	-5993
lapxx	-5994
lcapq	-5995
lenge	-5996
lipwz	-5997
liqkr	-5998
liqlz	-5999
48	-6000
72	-6001
78	-6002
Av	-6003
Em	-6004
Es	-6005
Eu	-6006
Ik	-6007
Ip	-6008
It	-6009
Iv	-6010
Iw	-6011
Lx	-6012
My	-6013
Ol	-6014
Rk	-6015
Rm	-6016
ag	-6017
cu	-6018
mn	-6019
nb	-6020
nw	-6021
od	-6022
ph	-6023
qq	-6024
rq	-6025
rv	-6026
ug	-6027
uw	-6028
xs	-6029
xw	-6030
ze	-6031
zi	-6032
zy	-6033
Bwa	-6034
Esz	-6035
Rtq	-6036
Zbz	-6037
ade	-6038
atx	-6039
bql	-6040
cle	-6041
ctu	-6042
del	-6043
dru	-6044
era	-6045
hil	-6046
ndr	-6047
nle	-6048
nrl	-6049
ose	-6050
rbo	-6051
tru	-6052
utx	-6053
wib	-6054
xma	-6055
▁Ay	-6056
▁Lw	-6057
▁bi	-6058
▁ny	-6059
▁tc	-6060
▁ti	-6061
▁zl	-6062
kami	-6063
lrmz	-6064
mckr	-6065
neti	-6066
pqtx	-6067
tami	-6068
trku	-6069
tung	-6070
vztx	-6071
wiki	-6072
wzki	-6073
yapu	-6074
zlvz	-6075
▁ban	-6076
▁loz	-6077
▁nam	-6078
▁tqm	-6079
▁tqs	-6080
▁trk	-6081
▁yrl	-6082
isebz	-6083
klube	-6084
lqpxm	-6085
lrmlr	-6086
lungr	-6087
lvele	-6088
lxoma	-6089
malep	-6090
maope	-6091
mastz	-6092
mcngr	-6093
mcpex	-6094
mctia	-6095
meipe	-6096
meipx	-6097
mncng	-6098
mwipe	-6099
75	-6100
El	-6101
En	-6102
Ga	-6103
Me	-6104
Nq	-6105
Rn	-6106
Te	-6107
Ti	-6108
Tq	-6109
Xl	-6110
Zb	-6111
aa	-6112
bc	-6113
ca	-6114
ey	-6115
gc	-6116
gp	-6117
ha	-6118
mp	-6119
nt	-6120
pg	-6121
qa	-6122
qs	-6123
rs	-6124
sb	-6125
sk	-6126
sw	-6127
uv	-6128
xa	-6129
xq	-6130
▁i	-6131
▁u	-6132
Fre	-6133
Rpi	-6134
bex	-6135
epe	-6136
ewz	-6137
ing	-6138
krg	-6139
lik	-6140
lzp	-6141
mkr	-6142
ngl	-6143
rlo	-6144
rne	-6145
rti	-6146
vzb	-6147
wqq	-6148
yon	-6149
zng	-6150
zta	-6151
▁Au	-6152
▁We	-6153
▁mi	-6154
▁ng	-6155
▁pl	-6156
grde	-6157
iske	-6158
lqtx	-6159
ngrk	-6160
okir	-6161
rnge	-6162
tede	-6163
tqdr	-6164
tqng	-6165
vobz	-6166
vzng	-6167
▁Kxr	-6168
▁krs	-6169
▁nwe	-6170
▁nze	-6171
dwasz	-6172
mlrle	-6173
mungr	-6174
mwipx	-6175
myapx	-6176
ncpex	-6177
nengr	-6178
ngcpe	-6179
ngele	-6180
ngeng	-6181
ngini	-6182
ngipe	-6183
ngqkr	-6184
ngqna	-6185
ngrti	-6186
ngrtx	-6187
nipua	-6188
nycde	-6189
nzngr	-6190
obqne	-6191
obqpx	-6192
odutr	-6193
okatr	-6194
oklip	-6195
olzbq	-6196
onard	-6197
onepe	-6198
opelr	-6199
!”	-6200
Di	-6201
Ji	-6202
Jz	-6203
Li	-6204
Mo	-6205
Ot	-6206
Pu	-6207
Rp	-6208
Sa	-6209
Ta	-6210
Vx	-6211
Wu	-6212
bw	-6213
rr	-6214
xr	-6215
Trl	-6216
apo	-6217
arl	-6218
cde	-6219
dek	-6220
des	-6221
drv	-6222
hou	-6223
idr	-6224
krl	-6225
krt	-6226
leb	-6227
mpe	-6228
peg	-6229
pep	-6230
pix	-6231
pxy	-6232
qtu	-6233
rgr	-6234
rpe	-6235
rte	-6236
rtx	-6237
ula	-6238
wzt	-6239
wzu	-6240
xkz	-6241
xmi	-6242
zbr	-6243
zde	-6244
zdr	-6245
zlr	-6246
▁Av	-6247
▁ak	-6248
▁my	-6249
▁tw	-6250
krng	-6251
leng	-6252
lqpx	-6253
mine	-6254
ngel	-6255
onga	-6256
oule	-6257
pede	-6258
suka	-6259
tqwz	-6260
vong	-6261
▁190	-6262
▁Nzt	-6263
▁kxk	-6264
▁kzt	-6265
▁lrm	-6266
▁mak	-6267
▁neg	-6268
▁tqe	-6269
▁tqk	-6270
▁tql	-6271
▁tqp	-6272
▁tqv	-6273
▁trt	-6274
cpxpe	-6275
dwati	-6276
ophia	-6277
pepem	-6278
pipex	-6279
plabr	-6280
plati	-6281
prkru	-6282
pwxma	-6283
pwxpe	-6284
pwzmu	-6285
pwzng	-6286
qbzkr	-6287
qtipe	-6288
qtitx	-6289
rikit	-6290
rkipx	-6291
rlcde	-6292
rlqbz	-6293
rlqtr	-6294
rlqtx	-6295
rlxkq	-6296
rlzbo	-6297
rlzbz	-6298
rlzle	-6299
51	-6300
80	-6301
Fo	-6302
Le	-6303
Se	-6304
Sr	-6305
ij	-6306
oz	-6307
rb	-6308
rz	-6309
xy	-6310
ye	-6311
zw	-6312
Ilo	-6313
Ngr	-6314
Rka	-6315
Xlr	-6316
apr	-6317
drx	-6318
edr	-6319
elr	-6320
grg	-6321
ipq	-6322
kab	-6323
kat	-6324
leg	-6325
lrg	-6326
lrt	-6327
lrx	-6328
mus	-6329
nne	-6330
ond	-6331
oup	-6332
pma	-6333
rdr	-6334
rle	-6335
rmu	-6336
tab	-6337
trb	-6338
tup	-6339
ulr	-6340
uma	-6341
was	-6342
zgr	-6343
zlu	-6344
zwz	-6345
▁Ai	-6346
▁Mn	-6347
Rnge	-6348
apwx	-6349
bole	-6350
dotx	-6351
drpe	-6352
eabr	-6353
gngr	-6354
kaku	-6355
lekr	-6356
lrdr	-6357
ngrg	-6358
putr	-6359
pwxu	-6360
qngr	-6361
rngr	-6362
sinq	-6363
wrmq	-6364
wxtx	-6365
▁Nzv	-6366
▁mya	-6367
▁tqb	-6368
▁trd	-6369
lenga	-6370
ngida	-6371
ngrkr	-6372
ngrli	-6373
ngrmq	-6374
otipe	-6375
pilwz	-6376
rlzng	-6377
rlzpe	-6378
rlzti	-6379
rlztx	-6380
rmabr	-6381
rpibo	-6382
stimc	-6383
sutiu	-6384
taplx	-6385
telvz	-6386
tepex	-6387
thias	-6388
tiolr	-6389
tixng	-6390
tqdwa	-6391
tqlvz	-6392
tqnge	-6393
treli	-6394
tulzm	-6395
tungr	-6396
twrdr	-6397
twrgr	-6398
twrnr	-6399
09	-6400
76	-6401
99	-6402
Je	-6403
Ima	-6404
Imz	-6405
asz	-6406
bwr	-6407
dma	-6408
ilo	-6409
kae	-6410
krd	-6411
lco	-6412
lol	-6413
mab	-6414
nii	-6415
nzy	-6416
osz	-6417
plo	-6418
qvi	-6419
rtz	-6420
szs	-6421
toa	-6422
uel	-6423
xlo	-6424
ycb	-6425
ztx	-6426
▁Fi	-6427
alvz	-6428
clvz	-6429
delc	-6430
elvz	-6431
epwz	-6432
grle	-6433
krma	-6434
lokr	-6435
lqle	-6436
lrtr	-6437
lvzo	-6438
lvzu	-6439
mclr	-6440
mqgr	-6441
ngid	-6442
ngpe	-6443
osbo	-6444
pilz	-6445
qlvz	-6446
sona	-6447
szdr	-6448
szpe	-6449
szpx	-6450
tilo	-6451
wasz	-6452
witi	-6453
wrti	-6454
wzne	-6455
znga	-6456
▁Aus	-6457
▁dak	-6458
▁dal	-6459
depwz	-6460
ilzle	-6461
krpxp	-6462
kulbo	-6463
langr	-6464
laopu	-6465
lolvz	-6466
lrpwz	-6467
lvzkr	-6468
malvz	-6469
mangr	-6470
mncpe	-6471
ngrna	-6472
nurde	-6473
pwxtx	-6474
pwzti	-6475
trpwz	-6476
twrnz	-6477
twzbz	-6478
twzpe	-6479
txngr	-6480
txopq	-6481
txpnz	-6482
tzngr	-6483
utitx	-6484
utxtr	-6485
veane	-6486
veati	-6487
veckr	-6488
veclz	-6489
vomle	-6490
vopex	-6491
vxitx	-6492
vzkru	-6493
vzngr	-6494
vzpwz	-6495
waela	-6496
waile	-6497
waplr	-6498
weita	-6499
27	-6500
Gc	-6501
Na	-6502
To	-6503
dm	-6504
ix	-6505
Eke	-6506
Iwx	-6507
aio	-6508
aki	-6509
ani	-6510
awa	-6511
ayz	-6512
bai	-6513
ibr	-6514
kza	-6515
mwx	-6516
opr	-6517
rni	-6518
rwx	-6519
ryr	-6520
wag	-6521
wxm	-6522
xbz	-6523
xpi	-6524
yrk	-6525
yrn	-6526
yzg	-6527
▁Br	-6528
▁Lo	-6529
▁ga	-6530
angi	-6531
bqne	-6532
imle	-6533
lzpx	-6534
lzwx	-6535
ngin	-6536
ngio	-6537
pqlr	-6538
rngi	-6539
wrpx	-6540
wxkr	-6541
wxlr	-6542
wxng	-6543
wzwx	-6544
xngi	-6545
yrle	-6546
yrpe	-6547
yzgr	-6548
▁Ayz	-6549
▁Bwz	-6550
▁Yrl	-6551
▁ayr	-6552
▁blx	-6553
▁nei	-6554
▁nen	-6555
▁nes	-6556
▁ryr	-6557
▁vzo	-6558
abzkr	-6559
etubz	-6560
etung	-6561
glqpx	-6562
glqti	-6563
glqtr	-6564
goxtx	-6565
lumle	-6566
mnetr	-6567
ngikr	-6568
nzetu	-6569
pemle	-6570
pimlr	-6571
plapx	-6572
tangi	-6573
wipex	-6574
wongr	-6575
wrneb	-6576
wxngr	-6577
wzngr	-6578
xlrbz	-6579
ycblq	-6580
yrkex	-6581
yrnge	-6582
zabet	-6583
zbzkr	-6584
ztitx	-6585
▁Agli	-6586
▁Basi	-6587
▁Bini	-6588
▁Boer	-6589
▁Boka	-6590
▁Bomi	-6591
▁Dckr	-6592
▁Drvr	-6593
▁Dzbe	-6594
▁Fili	-6595
▁Japa	-6596
▁Jisz	-6597
▁Jzmz	-6598
▁Kcmi	-6599
24	-6600
74	-6601
ho	-6602
nd	-6603
ql	-6604
uu	-6605
Zya	-6606
akx	-6607
ane	-6608
apa	-6609
bre	-6610
brt	-6611
dea	-6612
ebr	-6613
ekx	-6614
epq	-6615
ipu	-6616
kxl	-6617
nes	-6618
qba	-6619
rkx	-6620
rpq	-6621
swx	-6622
ukx	-6623
wae	-6624
wxx	-6625
zlz	-6626
zmu	-6627
▁Rb	-6628
▁Ri	-6629
▁Rl	-6630
▁Rm	-6631
▁Rp	-6632
▁Rt	-6633
▁wx	-6634
amle	-6635
bqkx	-6636
brdr	-6637
brnz	-6638
brpe	-6639
brpx	-6640
brtq	-6641
bzmu	-6642
kxlr	-6643
kxpe	-6644
kxpi	-6645
lewx	-6646
lqti	-6647
mukx	-6648
mule	-6649
mulr	-6650
oamu	-6651
pqti	-6652
resi	-6653
sung	-6654
tabr	-6655
wipx	-6656
wxbz	-6657
wxka	-6658
wxli	-6659
wxma	-6660
wxpe	-6661
wxti	-6662
zabe	-6663
znwz	-6664
▁Abr	-6665
▁Emi	-6666
▁Iwx	-6667
▁Nab	-6668
▁amu	-6669
▁kxy	-6670
▁tzy	-6671
brnge	-6672
katrx	-6673
pimle	-6674
rlade	-6675
twzle	-6676
txmle	-6677
vzmle	-6678
wrnge	-6679
▁Kopu	-6680
▁Lesi	-6681
▁Medr	-6682
▁Mele	-6683
▁Melo	-6684
▁Meri	-6685
▁Metr	-6686
▁Mrnz	-6687
▁Ncni	-6688
▁Ncnq	-6689
▁Nrpa	-6690
▁Nzka	-6691
▁Nzmi	-6692
▁Nzpr	-6693
▁Nzrl	-6694
▁Nzyz	-6695
▁Paua	-6696
▁Pili	-6697
▁Poki	-6698
▁Prim	-6699
47	-6700
70	-6701
Kw	-6702
Mr	-6703
Ro	-6704
qg	-6705
zd	-6706
Yiz	-6707
anc	-6708
aya	-6709
deu	-6710
enc	-6711
kon	-6712
lrp	-6713
miz	-6714
ncx	-6715
opi	-6716
pct	-6717
pwr	-6718
qnc	-6719
rnc	-6720
rwz	-6721
rya	-6722
tzn	-6723
uri	-6724
wis	-6725
wrm	-6726
yag	-6727
yap	-6728
zlo	-6729
zya	-6730
▁Wi	-6731
▁aw	-6732
lrmi	-6733
lune	-6734
lzde	-6735
mqdr	-6736
mukr	-6737
nclr	-6738
nclz	-6739
ncng	-6740
ncpe	-6741
nctr	-6742
nctx	-6743
ounc	-6744
peti	-6745
pqbz	-6746
reti	-6747
trle	-6748
wrdr	-6749
wrne	-6750
yakr	-6751
yapx	-6752
▁Bwr	-6753
▁Lrl	-6754
▁Tqr	-6755
▁ekq	-6756
▁lrp	-6757
▁mnr	-6758
▁rya	-6759
ctitx	-6760
klupx	-6761
nangi	-6762
ncngr	-6763
ncpwz	-6764
plame	-6765
tange	-6766
yangr	-6767
▁Kate	-6768
▁Lalz	-6769
▁Nzya	-6770
▁Prtr	-6771
▁Roma	-6772
▁Saem	-6773
▁Sams	-6774
▁Samw	-6775
▁Stan	-6776
▁Toma	-6777
▁Tqyr	-6778
▁Trga	-6779
▁Trla	-6780
▁Trte	-6781
▁Vanu	-6782
▁Vopx	-6783
▁Vzpx	-6784
▁Yrkr	-6785
▁abre	-6786
▁bxpi	-6787
▁dakx	-6788
▁dwas	-6789
▁haos	-6790
▁kalr	-6791
▁kapu	-6792
▁kati	-6793
▁kcmi	-6794
▁krsc	-6795
▁kxng	-6796
▁kxyr	-6797
▁kzpo	-6798
▁legr	-6799
77	-6800
Ob	-6801
Rb	-6802
Wi	-6803
bl	-6804
Ini	-6805
alx	-6806
awi	-6807
awr	-6808
clx	-6809
cni	-6810
ebo	-6811
glx	-6812
isi	-6813
kxm	-6814
lsi	-6815
lxg	-6816
lxl	-6817
lxp	-6818
neu	-6819
ngz	-6820
nik	-6821
nip	-6822
nzp	-6823
olx	-6824
oni	-6825
ora	-6826
qni	-6827
sie	-6828
sik	-6829
sip	-6830
uga	-6831
usi	-6832
uvi	-6833
wzk	-6834
xnz	-6835
zkr	-6836
▁Ga	-6837
▁Ge	-6838
▁Re	-6839
lrni	-6840
lxle	-6841
lxpe	-6842
ngrl	-6843
nine	-6844
nzlx	-6845
nzsi	-6846
okla	-6847
omlr	-6848
side	-6849
sing	-6850
timq	-6851
unga	-6852
wipe	-6853
yane	-6854
▁Pri	-6855
▁nzs	-6856
▁pla	-6857
▁plr	-6858
▁pwr	-6859
blrbz	-6860
ninge	-6861
pqleu	-6862
▁Nzad	-6863
▁kxkq	-6864
▁kxyz	-6865
▁litx	-6866
▁lopr	-6867
▁lrmz	-6868
▁lrtz	-6869
▁lxlv	-6870
▁mabo	-6871
▁makx	-6872
▁masi	-6873
▁matq	-6874
▁matx	-6875
▁mclr	-6876
▁mcpx	-6877
▁mcpz	-6878
▁mede	-6879
▁milz	-6880
▁mrge	-6881
▁mztu	-6882
▁nado	-6883
▁nakr	-6884
▁nalx	-6885
▁namu	-6886
▁nani	-6887
▁narl	-6888
▁nate	-6889
▁natr	-6890
▁nawr	-6891
▁naya	-6892
▁nayz	-6893
▁ncbo	-6894
▁nemu	-6895
▁neng	-6896
▁netx	-6897
▁ngrg	-6898
▁ngrl	-6899
05	-6900
38	-6901
52	-6902
xx	-6903
Ina	-6904
Pwx	-6905
ena	-6906
ira	-6907
lzb	-6908
lzn	-6909
nai	-6910
nan	-6911
nap	-6912
nar	-6913
nas	-6914
ols	-6915
omc	-6916
opq	-6917
pil	-6918
qmi	-6919
qmz	-6920
qpz	-6921
ran	-6922
rap	-6923
rar	-6924
rau	-6925
rmz	-6926
rna	-6927
zle	-6928
▁Ed	-6929
bqbz	-6930
kana	-6931
kira	-6932
kxlv	-6933
lena	-6934
limz	-6935
lqkr	-6936
mara	-6937
mcpe	-6938
mika	-6939
mztq	-6940
nang	-6941
nati	-6942
oung	-6943
rade	-6944
raki	-6945
ratq	-6946
sina	-6947
tiba	-6948
tipi	-6949
vitx	-6950
▁Mzk	-6951
▁nad	-6952
▁nqe	-6953
▁sku	-6954
blqlr	-6955
ebzle	-6956
eside	-6957
mnekr	-6958
otrpe	-6959
qbzle	-6960
rtitx	-6961
twztx	-6962
▁Mzna	-6963
▁Rpio	-6964
▁ngrm	-6965
▁nibq	-6966
▁ning	-6967
▁nyzg	-6968
▁nzac	-6969
▁nzad	-6970
▁nzal	-6971
▁nzam	-6972
▁nzao	-6973
▁nzap	-6974
▁nzas	-6975
▁nzat	-6976
▁nzaw	-6977
▁nzay	-6978
▁nzba	-6979
▁nzik	-6980
▁nzkq	-6981
▁nzkr	-6982
▁nzku	-6983
▁nzle	-6984
▁nzme	-6985
▁nzmz	-6986
▁nzng	-6987
▁nzpa	-6988
▁nzpc	-6989
▁nzrk	-6990
▁nzrl	-6991
▁nzrm	-6992
▁nzrp	-6993
▁nzrt	-6994
▁nzrv	-6995
▁nzsi	-6996
▁nzwr	-6997
▁nzyz	-6998
▁plas	-6999
Dx	-7000
qu	-7001
ry	-7002
Vea	-7003
ami	-7004
ckx	-7005
cpq	-7006
eam	-7007
elo	-7008
ipz	-7009
krb	-7010
mip	-7011
oka	-7012
omi	-7013
qng	-7014
rkc	-7015
rmi	-7016
rpz	-7017
txn	-7018
ulu	-7019
upq	-7020
zmi	-7021
▁Ji	-7022
▁Jo	-7023
▁di	-7024
▁ek	-7025
bqtr	-7026
brlc	-7027
dekc	-7028
eaka	-7029
eamu	-7030
eane	-7031
krmi	-7032
lqbz	-7033
lzpq	-7034
mimc	-7035
mitr	-7036
mitx	-7037
mrlx	-7038
mzne	-7039
nzmi	-7040
oupq	-7041
pepz	-7042
pqkr	-7043
pqle	-7044
pqng	-7045
pwxx	-7046
pztr	-7047
rlxk	-7048
rlxm	-7049
rpnz	-7050
twzm	-7051
vzmi	-7052
▁Nzw	-7053
▁apq	-7054
▁kat	-7055
▁kxt	-7056
▁mrb	-7057
▁mrg	-7058
▁mrk	-7059
▁mrv	-7060
▁nzv	-7061
▁nzw	-7062
▁rlx	-7063
▁tqt	-7064
▁tze	-7065
amcti	-7066
ctikr	-7067
esinu	-7068
etrpe	-7069
lxpwz	-7070
rlckx	-7071
rlcng	-7072
rlimz	-7073
rlxkz	-7074
rlxpe	-7075
rlxtr	-7076
wzmlr	-7077
yzutr	-7078
▁katx	-7079
▁mrtu	-7080
▁namr	-7081
▁narb	-7082
▁prtr	-7083
▁rnga	-7084
▁srlr	-7085
▁taba	-7086
▁taki	-7087
▁tebo	-7088
▁teom	-7089
▁tqac	-7090
▁tqag	-7091
▁tqao	-7092
▁tqbx	-7093
▁tqbz	-7094
▁tqkr	-7095
▁tqku	-7096
▁tqlo	-7097
▁tqlu	-7098
▁tqlv	-7099
..	-7100
Mw	-7101
ana	-7102
ape	-7103
dwi	-7104
epa	-7105
kir	-7106
lrk	-7107
lwi	-7108
mon	-7109
opz	-7110
qvo	-7111
usz	-7112
uwa	-7113
vom	-7114
voo	-7115
wzw	-7116
▁Ar	-7117
▁Mi	-7118
▁ra	-7119
▁zp	-7120
ipnz	-7121
kcpe	-7122
kcti	-7123
kipz	-7124
kqgr	-7125
kqtr	-7126
mqlr	-7127
nzya	-7128
pnzx	-7129
rlar	-7130
volr	-7131
volz	-7132
vomi	-7133
vopx	-7134
vzbo	-7135
wikr	-7136
wxmz	-7137
ykap	-7138
▁Awi	-7139
▁Drv	-7140
▁Kwi	-7141
▁Zma	-7142
▁Zya	-7143
▁awi	-7144
▁bok	-7145
▁kam	-7146
▁kao	-7147
▁lem	-7148
▁mas	-7149
▁zmi	-7150
▁zya	-7151
brpxm	-7152
ckrle	-7153
kqnge	-7154
ngcti	-7155
nipex	-7156
pemlr	-7157
pnztr	-7158
pxpnz	-7159
pzngr	-7160
rlanc	-7161
rlzlz	-7162
vongr	-7163
vopwz	-7164
wingr	-7165
▁Prlz	-7166
▁Teom	-7167
▁Tqvo	-7168
▁Trti	-7169
▁Vani	-7170
▁kapx	-7171
▁katr	-7172
▁krne	-7173
▁kxpr	-7174
▁mati	-7175
▁tqam	-7176
▁tqkq	-7177
▁tqlx	-7178
▁tqma	-7179
▁tqme	-7180
▁tqmi	-7181
▁tqmz	-7182
▁tqpr	-7183
▁tqrb	-7184
▁tqrd	-7185
▁tqrg	-7186
▁tqrk	-7187
▁tqsi	-7188
▁tqti	-7189
▁tqtr	-7190
▁tqwa	-7191
▁tqwq	-7192
▁tqwr	-7193
▁tqyz	-7194
▁trga	-7195
▁trkq	-7196
▁trkr	-7197
▁trla	-7198
▁trlr	-7199
68	-7200
Lv	-7201
ed	-7202
ux	-7203
xg	-7204
yq	-7205
alq	-7206
aol	-7207
aon	-7208
clq	-7209
ibo	-7210
klc	-7211
lqm	-7212
lro	-7213
neo	-7214
ons	-7215
rmq	-7216
rvz	-7217
suz	-7218
vri	-7219
wzm	-7220
▁Gc	-7221
ilan	-7222
lqbo	-7223
lqki	-7224
lqlr	-7225
lqlz	-7226
lqne	-7227
lqtr	-7228
mctr	-7229
mrtu	-7230
nckz	-7231
neom	-7232
supe	-7233
telq	-7234
watr	-7235
▁Dck	-7236
▁Gri	-7237
▁Ken	-7238
▁Sad	-7239
▁Sae	-7240
▁Sao	-7241
▁Tik	-7242
▁asu	-7243
▁leg	-7244
▁sez	-7245
▁tes	-7246
dikon	-7247
glqtx	-7248
lante	-7249
lilvc	-7250
obzkr	-7251
pemgr	-7252
penge	-7253
pipem	-7254
qpekr	-7255
rlilr	-7256
rpipe	-7257
rtipe	-7258
veope	-7259
zpekr	-7260
▁Mala	-7261
▁Malu	-7262
▁Manc	-7263
▁Menc	-7264
▁Nzlq	-7265
▁Nzsi	-7266
▁Satq	-7267
▁drtw	-7268
▁nakq	-7269
▁naon	-7270
▁nesr	-7271
▁spor	-7272
▁trma	-7273
▁trmc	-7274
▁trng	-7275
▁trpe	-7276
▁trsc	-7277
▁trta	-7278
▁trti	-7279
▁trtu	-7280
▁tryr	-7281
▁tune	-7282
▁tutx	-7283
▁tzak	-7284
▁tzay	-7285
▁tzkr	-7286
▁tzku	-7287
▁tzmu	-7288
▁tzpi	-7289
▁tzpr	-7290
▁tzrl	-7291
▁tzrt	-7292
▁tzsi	-7293
▁tzte	-7294
▁tztu	-7295
▁tzwa	-7296
▁tzwr	-7297
▁tzyz	-7298
▁vzki	-7299
Lw	-7300
SS	-7301
Tw	-7302
cm	-7303
du	-7304
nn	-7305
ut	-7306
Fox	-7307
Gri	-7308
Ilr	-7309
Olv	-7310
alv	-7311
clv	-7312
eri	-7313
lvq	-7314
nqq	-7315
nqu	-7316
olv	-7317
qlv	-7318
stz	-7319
trm	-7320
trw	-7321
wop	-7322
▁Gz	-7323
▁mn	-7324
kimc	-7325
lilv	-7326
lxlv	-7327
mopq	-7328
naox	-7329
nqng	-7330
nqti	-7331
oxle	-7332
oxng	-7333
oxtx	-7334
pelz	-7335
pwzm	-7336
riki	-7337
ripe	-7338
teri	-7339
tiox	-7340
tzti	-7341
tztx	-7342
vebz	-7343
vope	-7344
ycpe	-7345
ycpq	-7346
zokr	-7347
▁Kzp	-7348
▁Ncb	-7349
▁Nco	-7350
▁bzp	-7351
▁pea	-7352
▁rng	-7353
▁trm	-7354
▁tzl	-7355
blqle	-7356
blrng	-7357
dwatr	-7358
kamlr	-7359
oxngr	-7360
pwxkr	-7361
rapwx	-7362
▁Kzbz	-7363
▁Kzpz	-7364
▁Lrtz	-7365
▁Ncmi	-7366
▁Nzlv	-7367
▁drlv	-7368
▁mclz	-7369
▁nang	-7370
▁nzae	-7371
▁nzve	-7372
▁tqae	-7373
▁tqat	-7374
▁trtz	-7375
▁tzlv	-7376
▁yapx	-7377
balqbo	-7378
balqne	-7379
blqpxm	-7380
blxpwz	-7381
bqbzng	-7382
bqtrpe	-7383
brlxkz	-7384
brtrpe	-7385
brtzkr	-7386
butipe	-7387
bzkxtr	-7388
bzpekr	-7389
clvele	-7390
dealwx	-7391
dmastz	-7392
dwalzm	-7393
dzpekr	-7394
eatipe	-7395
esiden	-7396
glqamu	-7397
glqolr	-7398
itxpwz	-7399
ll	-7400
rp	-7401
Rtr	-7402
Wis	-7403
apu	-7404
bet	-7405
cbe	-7406
etr	-7407
ilr	-7408
kuk	-7409
nol	-7410
pap	-7411
pus	-7412
qbe	-7413
rae	-7414
rol	-7415
sol	-7416
zbe	-7417
▁Jz	-7418
▁Ro	-7419
▁Yo	-7420
▁en	-7421
abel	-7422
bedr	-7423
betx	-7424
iuka	-7425
lqng	-7426
lube	-7427
nipu	-7428
olwa	-7429
pale	-7430
palu	-7431
palz	-7432
pulr	-7433
pulu	-7434
puri	-7435
puti	-7436
putx	-7437
tqgu	-7438
vobe	-7439
vzbe	-7440
wqgr	-7441
yrpa	-7442
▁191	-7443
▁Men	-7444
▁Mis	-7445
▁Nag	-7446
▁Nai	-7447
▁Nap	-7448
▁Rtq	-7449
▁Trd	-7450
▁apu	-7451
▁osz	-7452
bomlr	-7453
dwatx	-7454
etuti	-7455
lvzne	-7456
ngqdr	-7457
nrngr	-7458
pwzbe	-7459
rtekq	-7460
timlr	-7461
twzwx	-7462
vzmlr	-7463
▁Melz	-7464
▁Menz	-7465
▁Meta	-7466
▁Namz	-7467
▁Ycbe	-7468
▁angc	-7469
▁kxmr	-7470
▁trpa	-7471
jzbxlo	-7472
kabzkr	-7473
kakilz	-7474
kapebo	-7475
kapqpx	-7476
kaputr	-7477
katrkr	-7478
katrpe	-7479
katrtx	-7480
katxpx	-7481
krlzkr	-7482
krlzlr	-7483
krlzng	-7484
krlzwa	-7485
krlzwx	-7486
krpxbo	-7487
krtxtr	-7488
kukipe	-7489
kxbqpe	-7490
kxtrpe	-7491
latikr	-7492
latrpe	-7493
ledeng	-7494
liqngr	-7495
lisabe	-7496
litipe	-7497
lqbzlr	-7498
lqpekr	-7499
26	-7500
67	-7501
81	-7502
Is	-7503
at	-7504
un	-7505
Oti	-7506
atr	-7507
bio	-7508
epr	-7509
epz	-7510
oke	-7511
oly	-7512
qbq	-7513
▁Iw	-7514
▁Lx	-7515
atwz	-7516
engr	-7517
eplz	-7518
iota	-7519
keng	-7520
mnem	-7521
nzpr	-7522
oaki	-7523
opex	-7524
prol	-7525
prti	-7526
prtx	-7527
pzki	-7528
tqne	-7529
trpo	-7530
twzo	-7531
yzpr	-7532
▁Nik	-7533
▁Nzx	-7534
▁Trg	-7535
▁kxg	-7536
▁kxw	-7537
▁mqg	-7538
▁mzt	-7539
▁nzt	-7540
▁oti	-7541
▁tzs	-7542
atitx	-7543
kelvz	-7544
lxngi	-7545
lxplz	-7546
mncti	-7547
rpelr	-7548
twzne	-7549
utrpe	-7550
xdeng	-7551
▁Nzik	-7552
▁Trkr	-7553
▁Trmc	-7554
▁Tryr	-7555
▁amnq	-7556
▁angi	-7557
▁atwz	-7558
▁make	-7559
▁nzlv	-7560
▁nzpr	-7561
▁trbo	-7562
▁yctx	-7563
kqtrpe	-7564
krlebq	-7565
krlzpe	-7566
krlztr	-7567
litrpe	-7568
lqtrpe	-7569
lrbzkr	-7570
lrbzle	-7571
lrbzlr	-7572
lrkqgr	-7573
lrmzta	-7574
lrpekr	-7575
lrpeng	-7576
lrpxpe	-7577
lrtipe	-7578
lrtrpe	-7579
lubzle	-7580
lupeng	-7581
lvengr	-7582
lvzole	-7583
lvzope	-7584
lvzpwz	-7585
lwzngr	-7586
lxtipe	-7587
lzbzkr	-7588
lzmqng	-7589
lztxkr	-7590
malewx	-7591
mcpekr	-7592
mcpele	-7593
mcpelr	-7594
mcpxpe	-7595
mctile	-7596
mctilr	-7597
mctine	-7598
mctrpe	-7599
ev	-7600
Ita	-7601
anz	-7602
aos	-7603
cmq	-7604
drl	-7605
egr	-7606
etz	-7607
kex	-7608
lru	-7609
ovi	-7610
qmq	-7611
ske	-7612
ute	-7613
yco	-7614
yka	-7615
zmq	-7616
ztq	-7617
▁In	-7618
▁Is	-7619
▁Iv	-7620
brka	-7621
dela	-7622
ipex	-7623
lrmu	-7624
lzmq	-7625
moup	-7626
nrba	-7627
pxmq	-7628
veco	-7629
vomq	-7630
xpex	-7631
ycde	-7632
ycti	-7633
▁Ika	-7634
▁Ilo	-7635
▁Itu	-7636
▁Nem	-7637
▁Nev	-7638
▁Tae	-7639
▁Tes	-7640
▁dra	-7641
▁dzb	-7642
▁mzk	-7643
ateri	-7644
goxle	-7645
goxng	-7646
goxpe	-7647
kangr	-7648
lrpex	-7649
mnclr	-7650
mnclz	-7651
mnctr	-7652
mnctx	-7653
mpeng	-7654
mqngi	-7655
nepex	-7656
plrkq	-7657
pwxka	-7658
pwxmz	-7659
raesz	-7660
tiamu	-7661
tupxm	-7662
utipe	-7663
wqgru	-7664
yclvz	-7665
▁Nebo	-7666
▁Nibr	-7667
▁Nzyc	-7668
▁kxwz	-7669
▁melr	-7670
▁meri	-7671
▁nzla	-7672
▁nzyc	-7673
▁tatx	-7674
bzbzlr	-7675
bztipe	-7676
kipxkr	-7677
mctipe	-7678
meitio	-7679
mikatx	-7680
mipebo	-7681
misina	-7682
mititr	-7683
mitrpe	-7684
mncpex	-7685
mncpwz	-7686
mnengr	-7687
mnqlvz	-7688
mqdrng	-7689
mrbrti	-7690
mrlzpe	-7691
mupekr	-7692
mwible	-7693
mwingr	-7694
mwipex	-7695
mwipxm	-7696
nanibq	-7697
natikr	-7698
ngeitx	-7699
58	-7700
69	-7701
id	-7702
ot	-7703
agr	-7704
anu	-7705
cng	-7706
cpz	-7707
ipo	-7708
mup	-7709
nka	-7710
nrq	-7711
opo	-7712
poo	-7713
qlz	-7714
res	-7715
xkq	-7716
▁Fo	-7717
▁Po	-7718
cmne	-7719
dwao	-7720
elwi	-7721
etea	-7722
lumi	-7723
napo	-7724
ngao	-7725
polo	-7726
pore	-7727
ranz	-7728
redr	-7729
rpwa	-7730
teas	-7731
wzti	-7732
▁Ani	-7733
▁Bre	-7734
▁Fra	-7735
▁Gre	-7736
▁Lve	-7737
▁Olv	-7738
▁bre	-7739
▁mco	-7740
▁nal	-7741
▁nat	-7742
▁nqv	-7743
▁nzy	-7744
▁rtc	-7745
▁spo	-7746
▁yrp	-7747
▁yrv	-7748
lanka	-7749
limgr	-7750
mneki	-7751
mnepe	-7752
ngilo	-7753
nglan	-7754
nzmne	-7755
papna	-7756
rkrdr	-7757
▁Nzrm	-7758
▁Pile	-7759
▁kcti	-7760
▁kxya	-7761
▁nqlv	-7762
▁nzmr	-7763
▁tqrp	-7764
▁ycti	-7765
▁yrpu	-7766
datitx	-7767
krdrtq	-7768
kxtrtx	-7769
lebzlr	-7770
ngidrx	-7771
ngrpwz	-7772
nikapq	-7773
nqtipe	-7774
nzlikr	-7775
nzliti	-7776
nzlitx	-7777
nzmipc	-7778
nztrng	-7779
obqlvz	-7780
opwzbe	-7781
opwzkr	-7782
opwzle	-7783
opwzlr	-7784
opwzne	-7785
opwzti	-7786
osaeti	-7787
otrngr	-7788
ounenq	-7789
pebzlr	-7790
petrpq	-7791
pibzkr	-7792
pibzle	-7793
pibzlr	-7794
pipebo	-7795
pipebz	-7796
pipelr	-7797
pitxtr	-7798
plamei	-7799
ap	-7800
ec	-7801
ep	-7802
brl	-7803
eve	-7804
gng	-7805
iko	-7806
iks	-7807
iso	-7808
lao	-7809
lrl	-7810
lxs	-7811
nua	-7812
oms	-7813
rng	-7814
sos	-7815
ven	-7816
vex	-7817
vin	-7818
vzd	-7819
vzm	-7820
wxb	-7821
▁Bi	-7822
▁En	-7823
▁es	-7824
▁ve	-7825
bzmi	-7826
drik	-7827
glqa	-7828
isol	-7829
lzmr	-7830
mclx	-7831
mwib	-7832
nckr	-7833
ngar	-7834
ngrd	-7835
pqpe	-7836
rali	-7837
rape	-7838
rlve	-7839
rnga	-7840
upxm	-7841
veam	-7842
velr	-7843
vetr	-7844
weka	-7845
yzde	-7846
▁Bis	-7847
▁Eli	-7848
▁Kco	-7849
▁Pas	-7850
▁bis	-7851
▁lcp	-7852
▁nay	-7853
▁rnz	-7854
▁tab	-7855
kaipz	-7856
mwitx	-7857
ngale	-7858
ngana	-7859
ngara	-7860
ourla	-7861
plzpx	-7862
singa	-7863
veaka	-7864
veape	-7865
▁Bole	-7866
▁Nzkr	-7867
▁Nzve	-7868
▁Para	-7869
▁aglq	-7870
▁negu	-7871
▁scng	-7872
▁tzta	-7873
katitx	-7874
kctitx	-7875
krlzle	-7876
ngrnga	-7877
plcope	-7878
pqbzle	-7879
pqtxpx	-7880
prpxbo	-7881
prtrng	-7882
prtxpx	-7883
putrpe	-7884
pwqgru	-7885
pxbzle	-7886
pxlele	-7887
ranaso	-7888
rapekr	-7889
rkimle	-7890
rlclvz	-7891
rlwrti	-7892
rlwxkr	-7893
rlxngi	-7894
rlxplz	-7895
rlzmle	-7896
rlzngr	-7897
rlzpem	-7898
rlztix	-7899
Ke	-7900
Kz	-7901
St	-7902
Vo	-7903
yk	-7904
Ing	-7905
abu	-7906
blc	-7907
glc	-7908
lck	-7909
mam	-7910
xbu	-7911
▁ap	-7912
▁so	-7913
▁zb	-7914
aenz	-7915
ekol	-7916
glqo	-7917
ikai	-7918
kaia	-7919
krmq	-7920
manu	-7921
nuel	-7922
nuta	-7923
omgr	-7924
pewq	-7925
sinu	-7926
thia	-7927
tulz	-7928
txne	-7929
uekx	-7930
yrbz	-7931
▁mrn	-7932
▁naw	-7933
▁olv	-7934
▁rae	-7935
▁tqw	-7936
▁tuo	-7937
aengr	-7938
ayzlu	-7939
cpeng	-7940
glqkr	-7941
ipele	-7942
krpxx	-7943
lxope	-7944
mrlzx	-7945
rkrpx	-7946
rpeng	-7947
upeng	-7948
yamgr	-7949
yzlup	-7950
yznge	-7951
▁Nzwq	-7952
▁Tzle	-7953
▁Tzyc	-7954
▁Yrpu	-7955
▁dabu	-7956
▁kzbz	-7957
▁naok	-7958
▁nznu	-7959
▁nzrn	-7960
▁tqng	-7961
▁tulz	-7962
kxmrlz	-7963
lastik	-7964
lctitx	-7965
mncngr	-7966
nepeng	-7967
nutitx	-7968
ronika	-7969
rtrngr	-7970
sutipe	-7971
szpxle	-7972
takitr	-7973
tatipe	-7974
tatrpe	-7975
tebzkr	-7976
tedeng	-7977
tibzlr	-7978
tilolx	-7979
timqng	-7980
tiongr	-7981
tipebz	-7982
tipede	-7983
titrlr	-7984
tqlrgr	-7985
trelia	-7986
trkape	-7987
trkrba	-7988
trmrlz	-7989
tutrpe	-7990
twrnge	-7991
twzmlr	-7992
twzngr	-7993
twzpex	-7994
twzwxu	-7995
txpekr	-7996
txpele	-7997
txtrpo	-7998
tzting	-7999
Lc	-8000
as	-8001
sa	-8002
amz	-8003
bad	-8004
ens	-8005
eom	-8006
epi	-8007
oba	-8008
qna	-8009
qya	-8010
rma	-8011
ros	-8012
▁at	-8013
▁rn	-8014
alvc	-8015
bakx	-8016
cpxm	-8017
desi	-8018
dzpe	-8019
krba	-8020
ngei	-8021
nrpe	-8022
pqpx	-8023
tebz	-8024
tuom	-8025
tutx	-8026
txom	-8027
tzkr	-8028
upwz	-8029
yoti	-8030
yzdr	-8031
zpxm	-8032
▁Ayr	-8033
▁Tom	-8034
▁Tzn	-8035
▁bxp	-8036
▁dab	-8037
▁tap	-8038
▁tzv	-8039
▁yzp	-8040
kilvc	-8041
klung	-8042
klupe	-8043
kluti	-8044
lumgr	-8045
lvcmq	-8046
lvzbz	-8047
lwzkr	-8048
lwzle	-8049
lwzpe	-8050
lzpwz	-8051
onrwx	-8052
txole	-8053
▁Alvz	-8054
▁Jula	-8055
▁kxpi	-8056
▁mctr	-8057
▁nqes	-8058
▁nzmi	-8059
▁peti	-8060
▁take	-8061
▁tqla	-8062
▁trao	-8063
▁trli	-8064
klungr	-8065
lvztrx	-8066
nipewq	-8067
nzkqlu	-8068
opwzng	-8069
utrngr	-8070
utrpnz	-8071
veapem	-8072
vecngr	-8073
vecoma	-8074
vetrpe	-8075
vobzkr	-8076
vopekr	-8077
vopeng	-8078
vrmine	-8079
vrtipe	-8080
vzbzkr	-8081
vzbzng	-8082
vzmqng	-8083
vzpekr	-8084
vzpeng	-8085
waipex	-8086
waipnz	-8087
waleka	-8088
wapekr	-8089
watipe	-8090
watrpe	-8091
watrpz	-8092
welrng	-8093
wipebo	-8094
wipekr	-8095
wititx	-8096
witxne	-8097
wrmqng	-8098
wxbupx	-8099
39	-8100
63	-8101
Bu	-8102
Yo	-8103
it	-8104
og	-8105
xc	-8106
ata	-8107
bxp	-8108
clr	-8109
ley	-8110
lwe	-8111
mao	-8112
mwe	-8113
niz	-8114
nok	-8115
olz	-8116
pzu	-8117
qvz	-8118
slr	-8119
vob	-8120
xlz	-8121
yzp	-8122
zre	-8123
zsi	-8124
▁SS	-8125
▁Wu	-8126
bxbz	-8127
bxli	-8128
gipe	-8129
ingr	-8130
lape	-8131
lisa	-8132
lqpz	-8133
lzgi	-8134
ncti	-8135
nzbz	-8136
srgr	-8137
tqgr	-8138
tubx	-8139
wele	-8140
▁Bad	-8141
▁Drt	-8142
▁Ncn	-8143
▁krn	-8144
▁man	-8145
atrka	-8146
bangr	-8147
blrkr	-8148
blrpe	-8149
dwapx	-8150
kiope	-8151
lcope	-8152
lrope	-8153
lvzpx	-8154
nqlvz	-8155
pnzbz	-8156
poope	-8157
pwzne	-8158
qtrpz	-8159
trpnz	-8160
umale	-8161
vecng	-8162
▁kilz	-8163
▁mulz	-8164
▁tqrl	-8165
lztrka	-8166
nepxpe	-8167
nrpele	-8168
pxpebz	-8169
trkami	-8170
trpzle	-8171
tutrpz	-8172
vopxpe	-8173
wxbzkr	-8174
wxbzle	-8175
wxpekr	-8176
wzpele	-8177
wztrbe	-8178
wztrkr	-8179
wztrpe	-8180
xlrmlr	-8181
xlrpex	-8182
xmingr	-8183
xpengr	-8184
xpepem	-8185
yamemc	-8186
yamipe	-8187
yapxpe	-8188
yaszpx	-8189
ycongr	-8190
yotipe	-8191
yrlzng	-8192
yrpebz	-8193
yxdeng	-8194
yzdeng	-8195
yzlumi	-8196
yzlupx	-8197
zpwxma	-8198
▁Abrtz	-8199
qr	-8200
avea	-8201
lung	-8202
nqtx	-8203
rpna	-8204
▁Nzs	-8205
▁kqo	-8206
nglis	-8207
ngrkx	-8208
zmqng	-8209
▁kqle	-8210
dzmqng	-8211
lankau	-8212
vomqng	-8213
▁Awitx	-8214
▁Boerg	-8215
▁Bokap	-8216
▁Bonga	-8217
▁Dwalz	-8218
▁Isabe	-8219
▁Jenwz	-8220
▁Kenne	-8221
▁Kranz	-8222
▁Kxrpa	-8223
▁Kzpte	-8224
▁Kzpzn	-8225
▁Leona	-8226
▁Manyz	-8227
▁Meamu	-8228
▁Mncti	-8229
▁Mweka	-8230
▁Narnz	-8231
▁Nepwz	-8232
▁Ngrlr	-8233
▁Nrzka	-8234
▁Nzado	-8235
▁Nzamu	-8236
▁Nzapr	-8237
▁Nzlqw	-8238
▁Nzmwx	-8239
▁Nzngr	-8240
▁Nzpna	-8241
▁Nzrka	-8242
▁Nzrla	-8243
▁Nzrlx	-8244
▁Nzrta	-8245
▁Nzrte	-8246
▁Nzryr	-8247
▁Nzryz	-8248
▁Nztwz	-8249
▁Pinga	-8250
▁Prcpe	-8251
▁Provi	-8252
▁Renol	-8253
▁Rlasz	-8254
▁Saotz	-8255
▁Stipi	-8256
▁Testi	-8257
▁Tqobq	-8258
▁Trngi	-8259
▁Trpnz	-8260
▁Zbqkr	-8261
▁abrtz	-8262
▁aelwa	-8263
▁apqtr	-8264
▁atubx	-8265
▁ayrnr	-8266
▁banya	-8267
▁binga	-8268
▁blxge	-8269
▁boksi	-8270
▁bxpiz	-8271
▁bxpli	-8272
▁dwalz	-8273
▁dwami	-8274
▁dwasx	-8275
▁elalz	-8276
▁etune	-8277
▁glqlz	-8278
▁kaoma	-8279
▁kranz	-8280
▁krlzm	-8281
▁krnyz	-8282
▁kxngr	-8283
▁kxnzm	-8284
▁kxnzt	-8285
▁kzpte	-8286
▁lemwz	-8287
▁leuwa	-8288
▁luekx	-8289
▁manyz	-8290
▁mrlzv	-8291
▁mrnyz	-8292
▁nadrv	-8293
▁namnq	-8294
▁nange	-8295
▁naonr	-8296
▁narbi	-8297
▁narbo	-8298
▁narla	-8299
▁narnc	-8300
▁nartr	-8301
▁naryz	-8302
▁navzd	-8303
▁nayzu	-8304
▁ngrlx	-8305
▁noune	-8306
▁nzabr	-8307
▁nzabz	-8308
▁nzadc	-8309
▁nzael	-8310
▁nzaki	-8311
▁nzalv	-8312
▁nzalx	-8313
▁nzamc	-8314
▁nzamu	-8315
▁nzang	-8316
▁nzapq	-8317
▁nzapr	-8318
▁nzapu	-8319
▁nzarl	-8320
▁nzata	-8321
▁nzatr	-8322
▁nzatu	-8323
▁nzawi	-8324
▁nzayo	-8325
▁nzayr	-8326
▁nzblq	-8327
▁nzela	-8328
▁nzglr	-8329
▁nzmne	-8330
▁nzngq	-8331
▁nzoli	-8332
▁nzolv	-8333
▁nzotr	-8334
▁nzpna	-8335
▁nzpnz	-8336
▁nzpwx	-8337
▁nzrbo	-8338
▁nzrkz	-8339
▁nzrla	-8340
▁nzrli	-8341
▁nzrmu	-8342
▁nzrni	-8343
▁nzrta	-8344
▁nzrtc	-8345
▁nzrte	-8346
▁nzrtr	-8347
▁nzrvi	-8348
▁nzrya	-8349
▁nzryr	-8350
▁nzvzd	-8351
▁nzvzm	-8352
▁nzxpe	-8353
▁okatr	-8354
▁otitx	-8355
▁plrkq	-8356
▁pnati	-8357
▁prcpe	-8358
▁rkalz	-8359
▁rkatr	-8360
▁rkatx	-8361
▁rpitr	-8362
▁sekon	-8363
▁taplx	-8364
▁testi	-8365
▁tqabc	-8366
▁tqabr	-8367
▁tqalv	-8368
▁tqamq	-8369
▁tqamr	-8370
▁tqamu	-8371
▁tqamz	-8372
▁tqasi	-8373
▁tqasu	-8374
▁tqawr	-8375
▁tqaya	-8376
▁tqetu	-8377
▁tqngc	-8378
▁tqoli	-8379
▁tqolv	-8380
▁tqopi	-8381
▁tqopx	-8382
▁tqosz	-8383
▁tqoti	-8384
▁tqplr	-8385
▁tqrda	-8386
▁tqrka	-8387
▁tqrkq	-8388
▁tqrta	-8389
▁tqrtq	-8390
▁tqrtr	-8391
▁tqrwz	-8392
▁tqrya	-8393
▁tqvzd	-8394
▁tqyrp	-8395
▁trayr	-8396
▁trkqo	-8397
▁trmnc	-8398
▁trngi	-8399
▁trnip	-8400
▁trnza	-8401
▁tropx	-8402
▁trpas	-8403
▁trplr	-8404
▁trtzr	-8405
▁twztx	-8406
▁tzael	-8407
▁tzamr	-8408
▁tzawz	-8409
▁tzayr	-8410
▁tzngr	-8411
▁tzpna	-8412
▁tzrka	-8413
▁tzrlx	-8414
▁tzrmc	-8415
▁tzrpi	-8416
▁tzrta	-8417
▁tzrtc	-8418
▁tzryz	-8419
▁tzvea	-8420
▁tzvzo	-8421
▁tzxlr	-8422
▁veaka	-8423
▁waela	-8424
▁xlrkr	-8425
▁xlrle	-8426
▁yapwx	-8427
▁yrlwr	-8428
▁zbqkx	-8429
ablqpxm	-8430
aglqamu	-8431
akrlzng	-8432
alzupwz	-8433
angidrx	-8434
anzlvqn	-8435
betxpwz	-8436
birpeng	-8437
blrbzle	-8438
blrbzlr	-8439
blrpeng	-8440
brtzlvz	-8441
ckrlzde	-8442
dwapekr	-8443
dwapxpe	-8444
dwatitx	-8445
dwatrkr	-8446
dwatrpe	-8447
dwatrpz	-8448
dxmingr	-8449
elapebz	-8450
enzlikr	-8451
enzliti	-8452
gitxpwz	-8453
glqbzlr	-8454
glqpxkr	-8455
glqtrpe	-8456
glqtrpq	-8457
glrtipe	-8458
kanipua	-8459
katrngr	-8460
kilzmle	-8461
kipemle	-8462
kitxpwz	-8463
kqtrngr	-8464
krlzkru	-8465
krlzleu	-8466
krlzmlr	-8467
krlzpwz	-8468
krlzwxu	-8469
krmopwq	-8470
krpengr	-8471
kxtrngr	-8472
latrngr	-8473
latxpwz	-8474
lelvzkr	-8475
lilvcne	-8476
liopekr	-8477
liqlzkr	-8478
liqtipe	-8479
lisabet	-8480
lizabet	-8481
lrkqnge	-8482
lrtrpem	-8483
lrtxpwz	-8484
lvcmqng	-8485
lvebzle	-8486
lvrkipx	-8487
lvxtile	-8488
lvzbzlr	-8489
lvznedr	-8490
lvzpekr	-8491
lvzpelr	-8492
lvzpwzu	-8493
lvztipe	-8494
lvztrle	-8495
lvztrlr	-8496
lvztrpe	-8497
lvztrtx	-8498
lwzpele	-8499
mctiamu	-8500
mctipex	-8501
mctxpwz	-8502
meitrpz	-8503
mingrti	-8504
mncpeng	-8505
mnctikr	-8506
mnetrpe	-8507
mnetrpz	-8508
mwipekr	-8509
myapxbz	-8510
nctxpwz	-8511
ngarare	-8512
ngelubo	-8513
ngelune	-8514
ngidrkr	-8515
ngitika	-8516
ngitikr	-8517
ngitile	-8518
ngqnamu	-8519
ngrkxnz	-8520
ngrkxtr	-8521
ngrtipe	-8522
nibqngr	-8523
nineope	-8524
nqblqne	-8525
nzakrlz	-8526
nzlimgr	-8527
nzlipwz	-8528
nzsiklu	-8529
nzyagox	-8530
obqbzng	-8531
pipemle	-8532
pipemlr	-8533
platitr	-8534
platrpe	-8535
plxtipe	-8536
pnatilr	-8537
pnutitx	-8538
pnztrpz	-8539
pqpxngr	-8540
prtrngr	-8541
putxpwz	-8542
pwxbzkr	-8543
pwxbzle	-8544
pwxpebz	-8545
pwxpekr	-8546
pwxtipe	-8547
residen	-8548
rlapxkr	-8549
rlcdeng	-8550
rlckxbq	-8551
rlqbzkr	-8552
rlqbzle	-8553
rlqtrpz	-8554
rlqtxtr	-8555
rlwxngr	-8556
rlxtipe	-8557
rlxtitx	-8558
rlxtrpz	-8559
rlzbzkr	-8560
rlzbzle	-8561
rlzpekr	-8562
rlztile	-8563
rtekqtr	-8564
siklung	-8565
siklupe	-8566
siklupx	-8567
sikluti	-8568
tangrti	-8569
tcolzbq	-8570
tctxngr	-8571
telvzlr	-8572
tipemle	-8573
titrpwz	-8574
titxpwz	-8575
topwzne	-8576
topwzng	-8577
topwzti	-8578
trkangr	-8579
trpemgr	-8580
trpemle	-8581
trpexng	-8582
trtxpwz	-8583
twzbzlr	-8584
twznedr	-8585
twzting	-8586
twztipe	-8587
uekxpiz	-8588
veamrlz	-8589
veapebz	-8590
vecpeng	-8591
veopebz	-8592
vztrngr	-8593
waipele	-8594
watrngr	-8595
wrkilvc	-8596
wxbupxm	-8597
wztxpwz	-8598
xlrbzlr	-8599
xlrpekr	-8600
xpetrpq	-8601
yagoxpe	-8602
yapwxpe	-8603
ycmnekr	-8604
ycmnepe	-8605
ycpengr	-8606
yrkelvz	-8607
yrkrpxp	-8608
yrkrpxx	-8609
yrlwrti	-8610
yrlzngr	-8611
yzlumle	-8612
▁Dckrlz	-8613
▁Kenned	-8614
▁Komisi	-8615
▁Kopuri	-8616
▁Kxaonr	-8617
▁Lcsukx	-8618
▁Meloma	-8619
▁Mnctio	-8620
▁Mweita	-8621
▁Nabakx	-8622
▁Nabzlu	-8623
▁Namznr	-8624
▁Nartwz	-8625
▁Nzalvz	-8626
▁Nzkalz	-8627
▁Nzoliq	-8628
▁Nzrmnq	-8629
▁Nzrtwz	-8630
▁Nzvztr	-8631
▁Parapo	-8632
▁Prtztx	-8633
▁Sekaen	-8634
▁Stanle	-8635
▁Wztitx	-8636
▁Yrkrpx	-8637
▁Yzlutx	-8638
▁ataplx	-8639
▁ayrpla	-8640
▁bzprlz	-8641
▁dakxnz	-8642
▁katitx	-8643
▁kctitx	-8644
▁kilzne	-8645
▁krlzpe	-8646
▁kxaonr	-8647
▁kxnzkq	-8648
▁kxnzsi	-8649
▁kxyrng	-8650
▁kzbzny	-8651
▁lcsukx	-8652
▁lrmzta	-8653
▁matine	-8654
▁mncpwz	-8655
▁mrbrlz	-8656
▁mrbrti	-8657
▁nabzmi	-8658
▁nabzne	-8659
▁nakqtx	-8660
▁namupe	-8661
▁napine	-8662
▁napitx	-8663
▁naprtz	-8664
▁narbom	-8665
▁natekq	-8666
▁navzdz	-8667
▁navzpe	-8668
▁naycti	-8669
▁netxpx	-8670
▁nrlckx	-8671
▁nutitx	-8672
▁nzabzo	-8673
▁nzangr	-8674
▁nzarla	-8675
▁nzatol	-8676
▁nzatwz	-8677
▁nzikla	-8678
▁nzkqtu	-8679
▁nzkuki	-8680
▁nzlalz	-8681
▁nzlutx	-8682
▁nzmale	-8683
▁nzmiti	-8684
▁nzmqlr	-8685
▁nzmrbr	-8686
▁nzmrge	-8687
▁nzmrlz	-8688
▁nznemi	-8689
▁nzolvx	-8690
▁nzrbom	-8691
▁nzrngi	-8692
▁nztave	-8693
▁nztekq	-8694
▁nzvzbz	-8695
▁nzvzmq	-8696
▁nzvzpe	-8697
▁nzvzpx	-8698
▁nzxplr	-8699
▁nzyrkr	-8700
▁nzyrlq	-8701
▁nzyrpu	-8702
▁pawitx	-8703
▁rtrngr	-8704
▁skulbo	-8705
▁tqablz	-8706
▁tqaglq	-8707
▁tqatwz	-8708
▁tqayzu	-8709
▁tqdola	-8710
▁tqmznr	-8711
▁tqolvx	-8712
▁tqprki	-8713
▁tqrblx	-8714
▁tqrglq	-8715
▁tqrpir	-8716
▁tqtune	-8717
▁tqtutr	-8718
▁tqvolz	-8719
▁tqvzki	-8720
▁tqvzpx	-8721
▁tqyapx	-8722
▁tqyrke	-8723
▁tqyrni	-8724
▁tqyrwi	-8725
▁trlrpr	-8726
▁trmale	-8727
▁trnzao	-8728
▁trnzlx	-8729
▁trnzmc	-8730
▁trnzpr	-8731
▁trrblx	-8732
▁trtegr	-8733
▁trtqwz	-8734
▁trvzkz	-8735
▁trvzpx	-8736
▁tzalvz	-8737
▁tzangi	-8738
▁tzangr	-8739
▁tzatwz	-8740
▁tzavea	-8741
▁tzkapu	-8742
▁tzkatx	-8743
▁tzkuki	-8744
▁tzmale	-8745
▁tzvzbe	-8746
▁tzvzki	-8747
▁tzyapx	-8748
▁tzyzlu	-8749
▁xpetix	-8750
▁ycpqti	-8751
▁yctrpe	-8752
▁yrkrmi	-8753
▁yzprlz	-8754
abetxpwz	-8755
aenzlitx	-8756
alvzting	-8757
balqnekr	-8758
brtztxpo	-8759
bxplcope	-8760
clvebzle	-8761
cprtrngr	-8762
dwatrngr	-8763
elwatibz	-8764
glqtrpem	-8765
kalzmqng	-8766
katxbzle	-8767
kctitxpx	-8768
kilzpekr	-8769
kipebzkr	-8770
kqlupeng	-8771
krlztrpz	-8772
krlzwamu	-8773
kxtrpele	-8774
lalatikr	-8775
lanteson	-8776
lepebzle	-8777
likitxpx	-8778
lizabeth	-8779
lrmqdrng	-8780
lrpebzle	-8781
lvrkimle	-8782
lvzneope	-8783
lvztrpex	-8784
mctinedr	-8785
mctipekr	-8786
mikatxkr	-8787
mitrpekr	-8788
mitrpele	-8789
mnctxpwz	-8790
mnekimle	-8791
mrbrtitr	-8792
mrbrtrpe	-8793
mwipekru	-8794
nangipeu	-8795
ngeitxbz	-8796
ngelungr	-8797
ngidrpex	-8798
ngitingr	-8799
ngrtingr	-8800
nzlvzole	-8801
obqlvzti	-8802
okiabzkr	-8803
pepwqgru	-8804
pibzlrle	-8805
pipebzle	-8806
pipebzlr	-8807
plameiti	-8808
platrngr	-8809
porapekr	-8810
putipxpe	-8811
pxyqbeng	-8812
rlwrmqng	-8813
rlxkqtio	-8814
sablqpxm	-8815
sumipebo	-8816
tatrpele	-8817
tavetrpe	-8818
tekqtrle	-8819
tekqtrpe	-8820
tipebzlr	-8821
trkatitx	-8822
trkrbade	-8823
tutrpele	-8824
txpnzngr	-8825
ustrelia	-8826
veclzmlr	-8827
vecomamu	-8828
welrpekr	-8829
wititxne	-8830
wrkxtrpe	-8831
wzkipxle	-8832
yamemcle	-8833
yapwxpem	-8834
yaszpxle	-8835
ycmnengr	-8836
yotipelr	-8837
yrlqtrpz	-8838
yrplapxx	-8839
yzlubzle	-8840
yzlupele	-8841
yzlupleu	-8842
yzutrngr	-8843
zpwxpekr	-8844
▁Diksona	-8845
▁Dwatrpz	-8846
▁Gwaleka	-8847
▁Ilztrka	-8848
▁Nabakxe	-8849
▁Narnzti	-8850
▁Nzabrtz	-8851
▁Nzatrka	-8852
▁Nzdwatx	-8853
▁Nzngrlr	-8854
▁Nzobqpx	-8855
▁Nzrkatx	-8856
▁Nzrpilz	-8857
▁Nzrteka	-8858
▁Nzrtekq	-8859
▁Nzsiklu	-8860
▁Nzveane	-8861
▁Omitxpx	-8862
▁Paumale	-8863
▁Sevenok	-8864
▁Tzycmne	-8865
▁amukxtr	-8866
▁ayzprti	-8867
▁elalztx	-8868
▁kxetuti	-8869
▁kxnzmnz	-8870
▁kxyrngz	-8871
▁kztenge	-8872
▁mnqtipe	-8873
▁nadotxo	-8874
▁nadwasz	-8875
▁napilvz	-8876
▁narlapx	-8877
▁narlxti	-8878
▁nayagox	-8879
▁ngrlrmi	-8880
▁nzaclve	-8881
▁nzaolvz	-8882
▁nzatrka	-8883
▁nzawitx	-8884
▁nzblqki	-8885
▁nzglqpx	-8886
▁nzlcapq	-8887
▁nzlxplz	-8888
▁nzmnclz	-8889
▁nzmncti	-8890
▁nzmnctr	-8891
▁nzngqba	-8892
▁nzotrpz	-8893
▁nzrmusr	-8894
▁nzrpilz	-8895
▁nzrteka	-8896
▁nzrtekq	-8897
▁nztqlvz	-8898
▁nzyangr	-8899
▁rkalzmq	-8900
▁taplxsr	-8901
▁tqaclve	-8902
▁tqalepe	-8903
▁tqamznr	-8904
▁tqawipe	-8905
▁tqayrkr	-8906
▁tqayrni	-8907
▁tqdwalz	-8908
▁tqdwati	-8909
▁tqdwatr	-8910
▁tqmncne	-8911
▁tqmncpe	-8912
▁tqmwitx	-8913
▁tqngcne	-8914
▁tqngini	-8915
▁tqngrlx	-8916
▁tqobqlz	-8917
▁tqotipe	-8918
▁tqrdatr	-8919
▁tqrkalz	-8920
▁tqsiklu	-8921
▁tqtopwz	-8922
▁tqyapwx	-8923
▁tqyrlwr	-8924
▁traolvz	-8925
▁trkqopq	-8926
▁trnzmne	-8927
▁trtqdwa	-8928
▁tryclvz	-8929
▁tzaelwa	-8930
▁tzamrbr	-8931
▁tzmnctx	-8932
▁tzmwelr	-8933
▁tzngrla	-8934
▁tzngrlr	-8935
▁tzpresi	-8936
▁tzrkalz	-8937
▁tzrlxti	-8938
▁tzryzkr	-8939
▁tzyapwx	-8940
▁wztxpwz	-8941
▁yapilwz	-8942
▁yrplabr	-8943
aenzlipwz	-8944
ayotipelr	-8945
brkapxmlr	-8946
bxplcopem	-8947
dwatrwamu	-8948
etunepxpe	-8949
glqtrpqgr	-8950
glrtipeng	-8951
iklatxpwz	-8952
kalzmqngq	-8953
kaputrpem	-8954
kaputxpwz	-8955
kitrtxpwz	-8956
kitxpwzlr	-8957
kranzlvqn	-8958
kukirpelr	-8959
kxnzyagox	-8960
lelvzpekr	-8961
lelvzpelr	-8962
lrmztangi	-8963
lvztipelr	-8964
lxlrtxpwz	-8965
lxlvrkipx	-8966
lxngitika	-8967
lxngitile	-8968
mnetrpzkr	-8969
mnqlvzngr	-8970
mwelrpekr	-8971
ngcpebzlr	-8972
ngrlrpekr	-8973
ngrlrpxpe	-8974
pnatibzlr	-8975
pnzngrpwz	-8976
pnztrpzng	-8977
rpakxmrlz	-8978
siklupele	-8979
tangrtipe	-8980
titxpwzle	-8981
trngrtibz	-8982
trngrtitr	-8983
tulrtrpem	-8984
wrkxtrngr	-8985
yapwxpebz	-8986
ycmnetrpe	-8987
yrlwrmqng	-8988
yrlwrtine	-8989
yrpalelvz	-8990
yrplatitr	-8991
▁Drvrmine	-8992
▁Mnctxpwz	-8993
▁Nzapresi	-8994
▁Nzdwatxc	-8995
▁Nzrmnqtx	-8996
▁Nzrtwzti	-8997
▁Nzryrngr	-8998
▁Trnanibq	-8999
▁Tryrnipe	-9000
▁amnqtxtr	-9001
▁ataplxsr	-9002
▁kxnzaonr	-9003
▁kxtrmrlz	-9004
▁naalvztr	-9005
▁nabzkxtr	-9006
▁naprtxpx	-9007
▁nzalvzti	-9008
▁nzatwzlr	-9009
▁nzayrlwr	-9010
▁nzayrpla	-9011
▁nzmctrpe	-9012
▁nzmwible	-9013
▁rtrngrti	-9014
▁tqalvzne	-9015
▁tqalvzpx	-9016
▁tqatwzlr	-9017
▁tqayagox	-9018
▁tqdotrpe	-9019
▁tqkakilz	-9020
▁tqlitrpe	-9021
▁tqvztrpe	-9022
▁tqwztrbe	-9023
▁tqyrkrki	-9024
▁tqyrkrpx	-9025
▁trnikapq	-9026
▁trwzpele	-9027
▁tzalvztr	-9028
▁tzmcpxpe	-9029
▁tzrtangr	-9030
▁tzvzkipx	-9031
▁tzxlrope	-9032
▁tzyamipe	-9033
▁ycpqtxpx	-9034
▁yrbutipe	-9035
▁yrkrtxtr	-9036
▁yrlqtxtr	-9037
abetxpwzkr	-9038
ayotipelru	-9039
brtztxpekr	-9040
katrtxbzle	-9041
kqlepebzle	-9042
lawititxne	-9043
mrbrtrpele	-9044
ngrlxobzle	-9045
rlclvznepx	-9046
rlxngitile	-9047
tangrtingr	-9048
tangrtipex	-9049
tavetrpelr	-9050
tekqtrpeng	-9051
twzlrpemle	-9052
wrkxtrpele	-9053
wrkxtrpeng	-9054
yrplapxxng	-9055
▁Sevenoklc	-9056
▁Tqyrkelvz	-9057
▁Twzkipxle	-9058
▁kxnzyagox	-9059
▁kxtopwzti	-9060
▁nadwatrpz	-9061
▁nanginipe	-9062
▁naokatrpq	-9063
▁narlxtibz	-9064
▁narlxtrpz	-9065
▁netxpxpnz	-9066
▁nzakititr	-9067
▁nzangrlvz	-9068
▁nzglqtrpe	-9069
▁nzlcapqbz	-9070
▁nzlutxpwz	-9071
▁nzxlrbzlr	-9072
▁tqdwalzpe	-9073
▁tqnginipe	-9074
▁tqngrlrpx	-9075
▁tqotitrpe	-9076
▁tqrkalzpe	-9077
▁tqrlxtipe	-9078
▁tqycmnepe	-9079
▁trayrkrpx	-9080
▁trayzlupx	-9081
▁trnzaolvz	-9082
▁trnzpresi	-9083
▁trplrkqtu	-9084
▁tzamrbrtr	-9085
▁tzpresinq	-9086
▁yrnineope	-9087
iklatxpwzng	-9088
kxnzyagoxng	-9089
liqtipebzle	-9090
ngrlvzneope	-9091
rlxkqtiongr	-9092
trngrtibzme	-9093
trngrtitrle	-9094
veatipebzlr	-9095
▁Nzyrlqtrpz	-9096
▁kxnzalvztr	-9097
▁nzabrtzlvz	-9098
▁nzalxngiti	-9099
▁nzrlxngiti	-9100
▁tqkakilzmc	-9101
▁tqmnctxpwz	-9102
▁takitrtxpwz	-9103
▁tqmncnetrpe	-9104
▁tqngrlrpxpe	-9105
▁tqyapwxtipe	-9106
▁trnzlxngiti	-9107
▁tzyrlwrtine	-9108
▁tzyrpalelvz	-9109
ngrlvzneopelr	-9110
yapwxtipebzlr	-9111
yrplatitrpwzu	-9112
▁tqasiklupele	-9113
▁tqvzmitrpele	-9114
ngrlalvztipelr	-9115
▁tqalvznetrpex	-9116
▁	-9117
r	-9118
z	-9119
n	-9120
e	-9121
k	-9122
a	-9123
l	-9124
t	-9125
m	-9126
i	-9127
x	-9128
g	-9129
c	-9130
p	-9131
d	-9132
q	-9133
b	-9134
u	-9135
o	-9136
.	-9137
s	-9138
-	-9139
,	-9140
w	-9141
v	-9142
y	-9143
N	-9144
M	-9145
'	-9146
K	-9147
S	-9148
D	-9149
A	-9150
T	-9151
B	-9152
1	-9153
R	-9154
L	-9155
X	-9156
"	-9157
9	-9158
J	-9159
Z	-9160
P	-9161
V	-9162
0	-9163
Y	-9164
“	-9165
7	-9166
I	-9167
5	-9168
G	-9169
”	-9170
6	-9171
2	-9172
3	-9173
8	-9174
4	-9175
F	-9176
E	-9177
j	-9178
?	-9179
O	-9180
W	-9181
h	-9182
!	-9183
