<unk>	0
<s>	0
</s>	0
▁n	-0
▁k	-1
ng	-2
▁m	-3
▁t	-4
▁.	-5
▁,	-6
▁mz	-7
▁nz	-8
kr	-9
▁kc	-10
de	-11
pe	-12
▁tq	-13
▁kx	-14
ngr	-15
dr	-16
lr	-17
le	-18
gr	-19
bz	-20
▁x	-21
▁s	-22
▁N	-23
rl	-24
▁M	-25
vz	-26
▁b	-27
▁na	-28
tr	-29
▁l	-30
▁sc	-31
ti	-32
wz	-33
ka	-34
▁K	-35
▁ni	-36
▁d	-37
pi	-38
nge	-39
▁ba	-40
lz	-41
li	-42
px	-43
▁lc	-44
tx	-45
▁y	-46
▁tr	-47
tu	-48
▁Mz	-49
▁a	-50
▁dr	-51
▁tz	-52
▁r	-53
▁kz	-54
ne	-55
tq	-56
nz	-57
te	-58
▁S	-59
▁Nz	-60
▁D	-61
▁kcng	-62
rde	-63
wa	-64
lu	-65
mc	-66
▁A	-67
▁e	-68
▁Kx	-69
▁ngr	-70
▁badr	-71
ku	-72
▁nc	-73
bo	-74
bq	-75
▁kzd	-76
ki	-77
la	-78
ou	-79
rlz	-80
ta	-81
▁T	-82
ma	-83
oa	-84
pwz	-85
sz	-86
kul	-87
▁lr	-88
urde	-89
lvz	-90
▁da	-91
lo	-92
▁B	-93
yr	-94
ngi	-95
▁ne	-96
etu	-97
yz	-98
wx	-99
mle	-100
br	-101
▁R	-102
kx	-103
mu	-104
▁L	-105
▁X	-106
ya	-107
▁1	-108
▁ma	-109
iz	-110
nc	-111
wr	-112
▁nzr	-113
▁murde	-114
si	-115
▁p	-116
ni	-117
▁doa	-118
lx	-119
▁nza	-120
na	-121
kz	-122
▁nigr	-123
bzle	-124
▁tqr	-125
▁yiz	-126
mz	-127
ra	-128
▁kzdq	-129
mi	-130
pq	-131
▁J	-132
rlc	-133
rlx	-134
▁mr	-135
▁mzli	-136
▁19	-137
▁ninge	-138
ea	-139
pz	-140
▁ka	-141
▁drtq	-142
kq	-143
▁z	-144
kc	-145
▁Z	-146
rla	-147
▁skul	-148
pnz	-149
▁P	-150
vo	-151
wi	-152
▁kxetu	-153
▁le	-154
▁drt	-155
▁Ma	-156
▁Sa	-157
▁li	-158
▁Zbz	-159
▁lcde	-160
on	-161
pekr	-162
pipe	-163
lq	-164
su	-165
▁V	-166
▁te	-167
bzkr	-168
ri	-169
▁Nc	-170
krgr	-171
▁tqvz	-172
lv	-173
nq	-174
▁Dc	-175
▁tqa	-176
▁drtqde	-177
ox	-178
tz	-179
▁Kz	-180
krde	-181
▁nyz	-182
▁mrkc	-183
▁nzvz	-184
pa	-185
▁Na	-186
▁Rpi	-187
pu	-188
mlr	-189
▁drtwr	-190
ol	-191
blo	-192
be	-193
▁"	-194
▁Y	-195
▁Me	-196
▁o	-197
plz	-198
twz	-199
▁Ni	-200
▁mq	-201
trpe	-202
▁zbq	-203
trngr	-204
pr	-205
▁“	-206
▁Tr	-207
▁am	-208
▁vz	-209
krlz	-210
▁rpi	-211
io	-212
ke	-213
▁I	-214
mnc	-215
mou	-216
pwx	-217
▁amrlx	-218
▁G	-219
▁Da	-220
▁Ne	-221
▁Skul	-222
pnzngr	-223
▁bange	-224
yc	-225
kta	-226
▁me	-227
tipe	-228
▁elr	-229
▁nzwz	-230
▁tqrpipe	-231
mq	-232
▁navz	-233
▁nidr	-234
gox	-235
▁dz	-236
krnge	-237
▁bagr	-238
▁Dckta	-239
esz	-240
pex	-241
bzlr	-242
krdr	-243
kxtr	-244
▁Kzd	-245
▁Mama	-246
▁Mzli	-247
▁kzdu	-248
▁leplz	-249
po	-250
re	-251
tea	-252
▁bo	-253
▁mc	-254
▁nq	-255
opwz	-256
▁esz	-257
▁bade	-258
▁lcsu	-259
▁ncblo	-260
▁yr	-261
ngrm	-262
▁Nzr	-263
▁kio	-264
ngrgr	-265
▁nrlc	-266
▁F	-267
dwa	-268
mne	-269
▁.”	-270
▁yc	-271
yagox	-272
▁drka	-273
▁kxnz	-274
▁lcng	-275
▁nide	-276
▁trpnzngr	-277
el	-278
nr	-279
lan	-280
siu	-281
▁."	-282
▁nou	-283
tenge	-284
▁krlz	-285
▁nzlu	-286
'-	-287
ct	-288
os	-289
ve	-290
nga	-291
▁Pa	-292
▁mou	-293
▁nar	-294
gu	-295
mr	-296
vi	-297
mwi	-298
vea	-299
▁Bo	-300
▁Kc	-301
titx	-302
▁natq	-303
ik	-304
is	-305
▁E	-306
glq	-307
kai	-308
kol	-309
▁la	-310
krpx	-311
mctu	-312
mrlz	-313
peng	-314
yzlu	-315
▁kra	-316
▁Kzdq	-317
▁dalr	-318
▁temz	-319
▁Kxetu	-320
▁mztea	-321
ae	-322
▁Kr	-323
▁Sc	-324
▁Tz	-325
▁tu	-326
ngrde	-327
rikol	-328
txpwz	-329
▁Ncbr	-330
▁nangi	-331
bu	-332
lc	-333
nu	-334
ue	-335
wq	-336
mgr	-337
▁Ja	-338
▁ta	-339
wrde	-340
▁Gct	-341
ngrdr	-342
ycmne	-343
▁nabz	-344
▁prla	-345
▁tewa	-346
▁tqyr	-347
▁mqngr	-348
ba	-349
lvc	-350
pan	-351
pxm	-352
deng	-353
kqlu	-354
tekq	-355
▁Nea	-356
▁nzo	-357
▁tza	-358
ngrne	-359
▁Japan	-360
▁kzdung	-361
om	-362
klu	-363
lwz	-364
nwz	-365
onr	-366
rli	-367
▁Vz	-368
▁pe	-369
▁tqo	-370
▁tra	-371
▁xlr	-372
lvztr	-373
siklu	-374
▁lrpz	-375
▁nzmc	-376
▁tzsiu	-377
▁kr	-378
krka	-379
pxpe	-380
trka	-381
▁bot	-382
▁lue	-383
▁vea	-384
▁nzmu	-385
bx	-386
we	-387
▁7	-388
ope	-389
zvz	-390
▁Ba	-391
▁Dr	-392
kxbq	-393
pele	-394
trpz	-395
▁195	-396
▁Mnc	-397
▁rli	-398
▁tzr	-399
topwz	-400
▁Krlc	-401
▁Nigr	-402
▁dzbe	-403
▁mrlz	-404
▁ncdr	-405
▁olvz	-406
krlzde	-407
▁nzmnc	-408
▁nzrpi	-409
▁trtenge	-410
▁drtwrnge	-411
gi	-412
iu	-413
jz	-414
▁?	-415
▁W	-416
ate	-417
blr	-418
kau	-419
lis	-420
pna	-421
pnu	-422
pte	-423
▁Ve	-424
▁kq	-425
▁nr	-426
▁pu	-427
▁yz	-428
mqng	-429
onrx	-430
pten	-431
▁Rik	-432
▁rgr	-433
lxblr	-434
ngiti	-435
yrngr	-436
▁Alan	-437
▁Dani	-438
▁Natq	-439
▁nqvi	-440
▁tqvo	-441
▁ngrde	-442
▁naonrx	-443
▁tqvzpe	-444
▁trmctu	-445
▁Alankau	-446
▁nzwzngr	-447
▁Dckrlzde	-448
▁nrlckxbq	-449
da	-450
me	-451
to	-452
▁O	-453
blq	-454
isz	-455
mya	-456
▁Lc	-457
▁Le	-458
▁Yr	-459
▁Yz	-460
▁bz	-461
▁ya	-462
brtz	-463
katx	-464
kxnz	-465
mcti	-466
moux	-467
rlvz	-468
▁Jon	-469
▁tqd	-470
mingr	-471
ngrbz	-472
twzlr	-473
▁tqtu	-474
▁Lrlvz	-475
▁Murde	-476
▁Rpibo	-477
▁tqngi	-478
▁Daniel	-479
▁kxkqlu	-480
▁rpimle	-481
▁tqpipe	-482
▁merikol	-483
00	-484
so	-485
tc	-486
ela	-487
ijz	-488
leu	-489
oki	-490
osi	-491
▁bx	-492
▁lx	-493
▁se	-494
▁vo	-495
bzng	-496
katr	-497
lzbq	-498
zpwx	-499
▁Doa	-500
▁Nza	-501
▁ami	-502
▁kai	-503
▁Aijz	-504
▁Nzvz	-505
▁newz	-506
▁nibr	-507
▁peto	-508
▁tzvz	-509
kxnzng	-510
▁Ncblo	-511
▁Nemya	-512
▁Ninge	-513
▁krali	-514
▁Kzpten	-515
▁lcdeng	-516
▁dakxnzng	-517
al	-518
ga	-519
ok	-520
op	-521
us	-522
▁2	-523
▁6	-524
ore	-525
pla	-526
pwa	-527
rlq	-528
rpa	-529
utr	-530
vec	-531
▁Bz	-532
▁Mr	-533
▁br	-534
▁pr	-535
alwx	-536
brde	-537
iszs	-538
kapq	-539
male	-540
tikr	-541
txpx	-542
▁193	-543
▁mnc	-544
mopwz	-545
▁Lcsu	-546
▁Mzde	-547
▁Pawa	-548
▁mrlc	-549
▁trau	-550
▁trnz	-551
ngrmlr	-552
▁Bznwz	-553
▁Jiszs	-554
▁kxesz	-555
▁nyzdr	-556
▁nyzgr	-557
▁rlilr	-558
▁makxtr	-559
▁nzwrde	-560
▁yrkrpx	-561
▁zyagox	-562
▁nzycmne	-563
tekqtrngr	-564
▁Mzdealwx	-565
▁Alankaula	-566
dx	-567
em	-568
en	-569
er	-570
ia	-571
pc	-572
ro	-573
zp	-574
amu	-575
ble	-576
blx	-577
boi	-578
ilz	-579
krm	-580
otz	-581
plr	-582
tix	-583
wai	-584
▁Pi	-585
▁Te	-586
▁dc	-587
▁st	-588
emon	-589
kzpq	-590
naso	-591
nika	-592
otzn	-593
yrlz	-594
yrnr	-595
zlwz	-596
▁Ing	-597
▁Nar	-598
▁etu	-599
▁ngi	-600
krmle	-601
ngrbo	-602
nqblq	-603
▁Kros	-604
▁Lore	-605
▁Mzdx	-606
▁Sade	-607
▁Vera	-608
▁kqlu	-609
▁mrka	-610
▁nabx	-611
▁nedr	-612
▁nqmq	-613
▁nrla	-614
▁scde	-615
▁scdr	-616
▁toki	-617
▁tqmu	-618
▁Nzrpi	-619
▁Rpibz	-620
▁mzlir	-621
▁nzngi	-622
lxngiti	-623
▁Saemon	-624
▁Saotzn	-625
▁dzbede	-626
▁nibrde	-627
▁nzalvz	-628
▁nzkrka	-629
▁Trtenge	-630
yrngrkxtr	-631
▁Veranaso	-632
▁tqrpipem	-633
▁Mzdxmingr	-634
▁Nzryrngrkxtr	-635
dz	-636
qn	-637
ua	-638
um	-639
▁!	-640
abe	-641
bao	-642
kap	-643
lve	-644
nra	-645
obq	-646
oma	-647
twr	-648
wxu	-649
xlr	-650
xvo	-651
▁?"	-652
▁Be	-653
▁Lr	-654
▁Mc	-655
▁Tq	-656
▁bu	-657
▁pi	-658
▁wq	-659
kapu	-660
lolx	-661
lvqn	-662
mrbr	-663
mzta	-664
nenq	-665
nipe	-666
nzti	-667
pebz	-668
prtr	-669
pxle	-670
titr	-671
txtr	-672
wxbu	-673
▁196	-674
▁197	-675
▁Fox	-676
▁Kra	-677
▁lxe	-678
▁mwi	-679
▁rde	-680
▁vzm	-681
nrade	-682
pengr	-683
tingr	-684
yapwx	-685
▁Krus	-686
▁Kzdu	-687
▁Sada	-688
▁kxmu	-689
▁letz	-690
▁lika	-691
▁mclx	-692
▁mzke	-693
▁naka	-694
▁napi	-695
▁ncte	-696
▁nenq	-697
▁stoa	-698
▁tzmc	-699
krbzle	-700
▁Tzsiu	-701
▁kzble	-702
▁narlx	-703
▁nounc	-704
▁nzdwa	-705
▁pulis	-706
▁tqmnc	-707
mztangi	-708
▁Inglan	-709
▁Natqgu	-710
▁Trmctu	-711
▁lrpzki	-712
▁nabxbz	-713
▁nourla	-714
nztilolx	-715
▁Merikol	-716
▁drtwrde	-717
▁kxtopwz	-718
▁tqrpipemle	-719
▁Narnztilolx	-720
▁tqrpipebzle	-721
sr	-722
▁0	-723
▁3	-724
▁5	-725
bzo	-726
glr	-727
ili	-728
kan	-729
las	-730
mnq	-731
ngq	-732
oks	-733
olr	-734
ona	-735
▁Je	-736
▁Vo	-737
▁bq	-738
clve	-739
elwa	-740
ista	-741
kalz	-742
nzli	-743
pelr	-744
rlwr	-745
tave	-746
ting	-747
tris	-748
trpq	-749
txkr	-750
wzng	-751
yasz	-752
▁Boo	-753
▁dwa	-754
▁leu	-755
▁rum	-756
ilzpq	-757
kaing	-758
kapwr	-759
krmlr	-760
nwzri	-761
rpakx	-762
tangr	-763
▁Foks	-764
▁Mena	-765
▁Mzlo	-766
▁Yzlu	-767
▁brma	-768
▁dztu	-769
▁nadr	-770
▁nede	-771
▁nepi	-772
▁nzvo	-773
▁nzyr	-774
▁tqdc	-775
▁yrlq	-776
▁zlwz	-777
krpxbz	-778
tekqtr	-779
▁Mista	-780
▁myasz	-781
▁nyzde	-782
▁nzpnu	-783
▁tabao	-784
▁tqdwa	-785
yrnrngr	-786
▁Nrpakx	-787
▁katris	-788
▁milzpq	-789
▁mrlcde	-790
▁tqmrlz	-791
▁tqyzlu	-792
▁Bokapwr	-793
▁Jenwzri	-794
▁Trpnzngr	-795
▁Yrkrpxbz	-796
▁krlzbzle	-797
▁Nrpakxmrlz	-798
▁nzalvztrngr	-799
▁nzrtekqtrngr	-800
ao	-801
bi	-802
il	-803
im	-804
kt	-805
vr	-806
▁4	-807
▁v	-808
imr	-809
ita	-810
itx	-811
kam	-812
ket	-813
len	-814
liq	-815
lzm	-816
mei	-817
nya	-818
okz	-819
ole	-820
pem	-821
peu	-822
piz	-823
win	-824
xpe	-825
▁!"	-826
▁18	-827
▁Ka	-828
▁Lu	-829
▁Pr	-830
▁be	-831
▁dq	-832
▁du	-833
▁mu	-834
▁wi	-835
▁wz	-836
abet	-837
aeti	-838
krbo	-839
kuki	-840
kzle	-841
kzlr	-842
kzpz	-843
lrkq	-844
mrna	-845
nepx	-846
pebo	-847
pekt	-848
rare	-849
tibz	-850
trkr	-851
uabu	-852
welr	-853
▁194	-854
▁Biu	-855
▁Mea	-856
▁Ngr	-857
▁Sos	-858
▁bea	-859
▁bia	-860
▁naq	-861
▁pwx	-862
▁rdr	-863
akrlz	-864
krmgr	-865
ngidr	-866
ngrlr	-867
nyapu	-868
pnati	-869
pwxng	-870
pwzkr	-871
yrlwr	-872
▁Mona	-873
▁Nepa	-874
▁Nzmc	-875
▁drlz	-876
▁mama	-877
▁mzte	-878
▁negr	-879
▁rblx	-880
▁scgr	-881
▁tqdo	-882
▁tqmc	-883
brtztx	-884
krbzkr	-885
krbzlr	-886
ngrmle	-887
ripekt	-888
trpele	-889
▁Bwzng	-890
▁Drtwr	-891
▁Nzmnc	-892
▁Nzpnu	-893
▁Tznga	-894
▁nadwa	-895
▁neimr	-896
▁nzglq	-897
▁nzmwi	-898
▁rpile	-899
▁tqmwi	-900
▁tqrpi	-901
▁tqwai	-902
▁Alvztr	-903
▁Biukan	-904
▁Mnctix	-905
▁Pauabu	-906
▁Rpimle	-907
▁Vzbzkr	-908
▁dztudr	-909
▁kxmrna	-910
▁nedeng	-911
▁nzprtr	-912
▁nzvzki	-913
▁tqwxbu	-914
▁Sosaeti	-915
▁banyapu	-916
▁drtwrdr	-917
▁krlzmle	-918
▁lcdepwz	-919
▁nounenq	-920
▁nzngini	-921
▁nzpwxng	-922
▁Tzngarare	-923
▁lrmztangi	-924
▁myaszpxle	-925
do	-926
in	-927
▁g	-928
alz	-929
cpe	-930
erg	-931
esi	-932
kis	-933
kru	-934
lvi	-935
man	-936
mpi	-937
nyz	-938
oli	-939
omo	-940
plx	-941
pua	-942
pyr	-943
rin	-944
tio	-945
txu	-946
▁Dz	-947
▁El	-948
▁Mq	-949
▁Si	-950
▁Wz	-951
▁ao	-952
▁de	-953
▁lo	-954
▁su	-955
▁tx	-956
▁wa	-957
▁ye	-958
aglq	-959
kipx	-960
kitr	-961
krbz	-962
krle	-963
kzkr	-964
kzng	-965
lede	-966
loma	-967
matq	-968
mznr	-969
nedr	-970
nepe	-971
nibq	-972
prki	-973
pule	-974
rlwx	-975
sile	-976
tkis	-977
trng	-978
txpe	-979
witx	-980
zpli	-981
▁192	-982
▁200	-983
▁Bae	-984
▁Dwa	-985
▁Fiu	-986
▁Kio	-987
▁Mwe	-988
▁Niu	-989
▁Sam	-990
▁Sen	-991
▁atu	-992
▁ena	-993
▁kru	-994
▁nao	-995
▁nim	-996
▁nyr	-997
▁nzm	-998
▁twz	-999
erger	-1000
kimle	-1001
kxpiz	-1002
moukr	-1003
moulr	-1004
moupq	-1005
obzle	-1006
pxmlr	-1007
rlapx	-1008
timle	-1009
trpem	-1010
yrpla	-1011
zvzkr	-1012
▁Drka	-1013
▁Dxvo	-1014
▁Josi	-1015
▁Krlz	-1016
▁Luga	-1017
▁Mrlz	-1018
▁Naim	-1019
▁Nrlc	-1020
▁Nzwz	-1021
▁Wili	-1022
▁drta	-1023
▁klas	-1024
▁kosi	-1025
▁krlc	-1026
▁mrbr	-1027
▁mrlx	-1028
▁nagr	-1029
▁namc	-1030
▁nctq	-1031
▁nimu	-1032
▁noli	-1033
▁nzne	-1034
▁nztq	-1035
▁rpim	-1036
▁rpwa	-1037
▁sele	-1038
▁taol	-1039
▁tqpi	-1040
▁tqya	-1041
▁trvz	-1042
▁wiki	-1043
▁yzlu	-1044
aenzli	-1045
alvztr	-1046
angidr	-1047
elangr	-1048
katrpq	-1049
kzpqng	-1050
lomate	-1051
mrbrtr	-1052
mukxtr	-1053
nzlvqn	-1054
tavetr	-1055
trpzkr	-1056
▁Leplz	-1057
▁Lzpli	-1058
▁Meabr	-1059
▁Mztea	-1060
▁aclve	-1061
▁apule	-1062
▁blrkq	-1063
▁kampi	-1064
▁maket	-1065
▁mepyr	-1066
▁ncboi	-1067
▁ngrdr	-1068
▁nzvec	-1069
▁nzxlr	-1070
▁rgrng	-1071
▁rlimz	-1072
▁tqrlx	-1073
▁tqtwz	-1074
▁tzmnc	-1075
▁tzmwi	-1076
▁xlrbo	-1077
▁yagox	-1078
txpwzkr	-1079
▁Baengr	-1080
▁Lesile	-1081
▁Menabz	-1082
▁Tzlede	-1083
▁drtqdr	-1084
▁natqde	-1085
▁nzangi	-1086
▁nzkatx	-1087
▁tqkapu	-1088
▁tqtrka	-1089
▁tqyrkr	-1090
siklungr	-1091
tipebzle	-1092
▁Boerger	-1093
▁Rpibzle	-1094
▁kxnzetu	-1095
▁nzabrtz	-1096
▁nzmncng	-1097
▁nzmungr	-1098
▁nzpnati	-1099
▁nzrmcti	-1100
▁nzrpibz	-1101
▁pripekt	-1102
▁rlilrgr	-1103
▁tqvzpem	-1104
▁tqvzpex	-1105
▁tqyagox	-1106
▁trpengr	-1107
▁yrkrpxx	-1108
▁Melomate	-1109
▁ayrnrngr	-1110
▁nzalvztr	-1111
▁nzelangr	-1112
▁nzrtrngr	-1113
▁nzryrngr	-1114
▁tqyzlupe	-1115
▁kxnzsiklu	-1116
▁kxnztopwz	-1117
▁tqrpipebo	-1118
▁tqpipebzle	-1119
dc	-1120
es	-1121
ge	-1122
gz	-1123
mo	-1124
nk	-1125
ns	-1126
ny	-1127
sc	-1128
uo	-1129
vx	-1130
wo	-1131
yo	-1132
▁h	-1133
apq	-1134
ari	-1135
gru	-1136
hia	-1137
ill	-1138
kzp	-1139
kzx	-1140
lvr	-1141
lvx	-1142
ngc	-1143
nia	-1144
plc	-1145
pxi	-1146
pxx	-1147
rlr	-1148
rpi	-1149
son	-1150
tco	-1151
trx	-1152
txo	-1153
uki	-1154
yzu	-1155
▁?”	-1156
▁Ju	-1157
▁Li	-1158
▁Nq	-1159
▁Nr	-1160
▁Ta	-1161
▁Yc	-1162
▁gq	-1163
▁nu	-1164
▁sa	-1165
▁si	-1166
▁va	-1167
alzu	-1168
aonr	-1169
balq	-1170
bede	-1171
boiu	-1172
brlz	-1173
elas	-1174
galr	-1175
isop	-1176
kabz	-1177
kilz	-1178
kqtu	-1179
leka	-1180
lrla	-1181
lzkr	-1182
mcpq	-1183
miti	-1184
mzng	-1185
namu	-1186
nanq	-1187
nekr	-1188
nene	-1189
ngiu	-1190
nqmz	-1191
omas	-1192
opwq	-1193
pleu	-1194
prlz	-1195
prtz	-1196
pwzu	-1197
pxlr	-1198
rank	-1199
talo	-1200
tctx	-1201
tile	-1202
tqmz	-1203
wrkx	-1204
yzkr	-1205
▁199	-1206
▁Ami	-1207
▁Ilz	-1208
▁Ini	-1209
▁Jos	-1210
▁Nou	-1211
▁Nzo	-1212
▁Pro	-1213
▁Rla	-1214
▁Sti	-1215
▁Vea	-1216
▁abr	-1217
▁bam	-1218
▁blz	-1219
▁buk	-1220
▁dzu	-1221
▁mwa	-1222
▁nem	-1223
▁pct	-1224
▁tqx	-1225
▁vom	-1226
▁wai	-1227
atele	-1228
cpelz	-1229
kxlvc	-1230
laita	-1231
lelvz	-1232
lzmlr	-1233
lzngr	-1234
moule	-1235
neope	-1236
ngalx	-1237
ngelu	-1238
omamu	-1239
presi	-1240
rlasz	-1241
rlxti	-1242
rpalz	-1243
trpex	-1244
txpxm	-1245
tzlvz	-1246
ycngr	-1247
zpman	-1248
▁1800	-1249
▁1950	-1250
▁1977	-1251
▁Auki	-1252
▁Dakc	-1253
▁Drtq	-1254
▁Gari	-1255
▁Grin	-1256
▁Mncx	-1257
▁Mztr	-1258
▁Newz	-1259
▁Nike	-1260
▁Vero	-1261
▁Vomc	-1262
▁bute	-1263
▁bxki	-1264
▁dxvo	-1265
▁krkc	-1266
▁kros	-1267
▁kxbq	-1268
▁kxkz	-1269
▁kzte	-1270
▁lang	-1271
▁mcle	-1272
▁mqde	-1273
▁mzle	-1274
▁nelc	-1275
▁nigu	-1276
▁ninz	-1277
▁nzbz	-1278
▁nzlc	-1279
▁nzya	-1280
▁pipz	-1281
▁tqka	-1282
▁trka	-1283
▁trpu	-1284
▁trte	-1285
▁trtq	-1286
▁tzvo	-1287
▁yrbu	-1288
▁yrkr	-1289
▁yrni	-1290
aonrwx	-1291
atwzlr	-1292
ngrmgr	-1293
nrbalq	-1294
pebzle	-1295
tipelr	-1296
trkalr	-1297
trpekr	-1298
wrkxtr	-1299
yrkrpx	-1300
▁Ayzlu	-1301
▁Bisop	-1302
▁Ellen	-1303
▁Frank	-1304
▁Krali	-1305
▁Mqngr	-1306
▁Neboi	-1307
▁Nzdwa	-1308
▁Nzlvz	-1309
▁Nzobq	-1310
▁Nzvec	-1311
▁Tomas	-1312
▁Yzutr	-1313
▁drtqm	-1314
▁kcpwz	-1315
▁kratq	-1316
▁kxglr	-1317
▁lrpzu	-1318
▁mwikr	-1319
▁naesz	-1320
▁nangq	-1321
▁natwz	-1322
▁nrlar	-1323
▁nzale	-1324
▁nzapx	-1325
▁nzkam	-1326
▁nzrlz	-1327
▁nzrma	-1328
▁nzvzo	-1329
▁rmale	-1330
▁rpibz	-1331
▁teomo	-1332
▁topwz	-1333
▁tqayr	-1334
▁tqmei	-1335
▁tqryr	-1336
▁txpwz	-1337
▁tzlvc	-1338
▁ycmne	-1339
twzlrpe	-1340
yagoxng	-1341
▁Dzbede	-1342
▁Katkis	-1343
▁Kzdung	-1344
▁Mcnika	-1345
▁Metalo	-1346
▁Mznanq	-1347
▁Ncnqmz	-1348
▁Yzlumc	-1349
▁drlzdr	-1350
▁drtqgr	-1351
▁krapwx	-1352
▁kxprki	-1353
▁kxtrka	-1354
▁lxenge	-1355
▁mrlzvx	-1356
▁nakabo	-1357
▁namrlz	-1358
▁navzng	-1359
▁nedrng	-1360
▁nzbzng	-1361
▁nzkqlu	-1362
▁nzkrlz	-1363
▁nzrlwx	-1364
▁nzrtwz	-1365
▁nzyrle	-1366
▁rngalx	-1367
▁seleng	-1368
▁tqalvz	-1369
▁tqkrka	-1370
▁tqtupx	-1371
▁tqvzdz	-1372
▁trboiu	-1373
▁trkrlz	-1374
▁tzrtwz	-1375
▁waelas	-1376
▁yrlqtx	-1377
rlxngiti	-1378
▁Kxrpalz	-1379
▁Malaita	-1380
▁Nzmncpe	-1381
▁Nzwzngr	-1382
▁Nzycmne	-1383
▁Saemons	-1384
▁aclvele	-1385
▁etunepx	-1386
▁kzbleng	-1387
▁nangelu	-1388
▁nangini	-1389
▁nzokatr	-1390
▁rpibzle	-1391
▁tqmcpex	-1392
▁tqngrlr	-1393
▁tqpipem	-1394
▁xlrbzkr	-1395
▁Veronika	-1396
▁luekxpiz	-1397
▁nzmrbrtr	-1398
▁nzvecngr	-1399
▁nzvzbzng	-1400
▁nzvzkilr	-1401
▁tqmupekr	-1402
▁tqotimle	-1403
▁tqvopekr	-1404
▁tqvzpekr	-1405
▁tqyrnipe	-1406
▁tzvzpeng	-1407
▁Alankaulz	-1408
▁Ilztrkalr	-1409
▁kxtopwzne	-1410
▁nalxngiti	-1411
▁nzsiklungr	-1412
▁nzycmnengr	-1413
dq	-1414
nj	-1415
oo	-1416
sx	-1417
ur	-1418
yx	-1419
▁8	-1420
▁c	-1421
▁w	-1422
abz	-1423
aes	-1424
alo	-1425
atu	-1426
bla	-1427
boe	-1428
bol	-1429
bom	-1430
den	-1431
dle	-1432
ebz	-1433
eli	-1434
elz	-1435
gzs	-1436
kes	-1437
kit	-1438
kla	-1439
kqo	-1440
kzu	-1441
lae	-1442
lip	-1443
liz	-1444
mio	-1445
mnr	-1446
mnz	-1447
mwz	-1448
nyc	-1449
nzq	-1450
obz	-1451
okr	-1452
opu	-1453
pas	-1454
pin	-1455
pou	-1456
pwe	-1457
pwq	-1458
sin	-1459
sti	-1460
tiu	-1461
tol	-1462
trp	-1463
wel	-1464
zbq	-1465
▁!”	-1466
▁14	-1467
▁17	-1468
▁Ag	-1469
▁Ao	-1470
▁Bu	-1471
▁Pu	-1472
▁Se	-1473
▁Su	-1474
▁To	-1475
▁Tu	-1476
▁Va	-1477
▁Ya	-1478
▁eu	-1479
▁ha	-1480
▁ku	-1481
▁lu	-1482
▁lv	-1483
▁lz	-1484
▁po	-1485
aepz	-1486
atex	-1487
atwr	-1488
bade	-1489
beng	-1490
bqti	-1491
brlx	-1492
bxlo	-1493
bzny	-1494
bzpe	-1495
elia	-1496
hias	-1497
ikla	-1498
ikon	-1499
ilip	-1500
kani	-1501
kati	-1502
kipe	-1503
kqle	-1504
kzpc	-1505
kzpo	-1506
lalz	-1507
lele	-1508
lovz	-1509
lrgr	-1510
lrkr	-1511
lrpr	-1512
lxlr	-1513
lzbo	-1514
lzbz	-1515
lzle	-1516
lzmc	-1517
lzpe	-1518
mabr	-1519
mamu	-1520
mcne	-1521
milr	-1522
mipe	-1523
mnqq	-1524
mopo	-1525
mupe	-1526
nepi	-1527
ngrn	-1528
njin	-1529
nqmi	-1530
nrgr	-1531
olvz	-1532
ongr	-1533
pipz	-1534
pora	-1535
pqtr	-1536
prpx	-1537
prta	-1538
pxbz	-1539
pxkr	-1540
pzkr	-1541
rlue	-1542
rtwz	-1543
srkr	-1544
szkr	-1545
teka	-1546
tilr	-1547
tine	-1548
trbe	-1549
tupe	-1550
txbz	-1551
txpo	-1552
ustr	-1553
vins	-1554
wamu	-1555
wovz	-1556
wqpe	-1557
yrke	-1558
yrlq	-1559
▁198	-1560
▁Atq	-1561
▁Dis	-1562
▁Eke	-1563
▁Gwa	-1564
▁Ilr	-1565
▁Mat	-1566
▁Omi	-1567
▁Oti	-1568
▁Pau	-1569
▁Pol	-1570
▁Sel	-1571
▁Vom	-1572
▁Wes	-1573
▁Wzx	-1574
▁Xlr	-1575
▁Yiz	-1576
▁Zbq	-1577
▁alo	-1578
▁ata	-1579
▁ate	-1580
▁bao	-1581
▁bom	-1582
▁bxn	-1583
▁glq	-1584
▁kri	-1585
▁kxr	-1586
▁kzu	-1587
▁nra	-1588
▁nrc	-1589
▁nrz	-1590
▁nua	-1591
▁nya	-1592
▁nzx	-1593
▁obq	-1594
▁pim	-1595
▁plc	-1596
▁pna	-1597
▁pnz	-1598
▁pxi	-1599
▁rla	-1600
▁rtq	-1601
▁set	-1602
▁trr	-1603
▁wop	-1604
abeth	-1605
aelwa	-1606
apqbz	-1607
bzokr	-1608
desin	-1609
enzli	-1610
etune	-1611
kaikr	-1612
kaile	-1613
kzamu	-1614
kzngr	-1615
kzplr	-1616
lvctr	-1617
lvxti	-1618
lvzlr	-1619
lvzti	-1620
lzmgr	-1621
lzmle	-1622
mopwq	-1623
moupo	-1624
mwelr	-1625
mwzlo	-1626
nepwz	-1627
ngrlx	-1628
nyzdr	-1629
opekr	-1630
openg	-1631
pekru	-1632
pelru	-1633
plxsr	-1634
pnang	-1635
pwxti	-1636
pwzle	-1637
pwzlr	-1638
rbrlz	-1639
rlaki	-1640
tipex	-1641
trkla	-1642
tupua	-1643
wrngr	-1644
wzpeu	-1645
zvzle	-1646
zvzng	-1647
▁1900	-1648
▁1938	-1649
▁1943	-1650
▁1954	-1651
▁1956	-1652
▁1958	-1653
▁1962	-1654
▁1963	-1655
▁1972	-1656
▁2006	-1657
▁Bade	-1658
▁Balo	-1659
▁Balq	-1660
▁Elis	-1661
▁Eliz	-1662
▁Gela	-1663
▁Kwin	-1664
▁Kxnz	-1665
▁Letz	-1666
▁Mclx	-1667
▁Mepa	-1668
▁Mzjz	-1669
▁Nabz	-1670
▁Neke	-1671
▁Nepr	-1672
▁Nqvi	-1673
▁Nzpi	-1674
▁Nzvo	-1675
▁Pibz	-1676
▁Prtz	-1677
▁Savo	-1678
▁Srpi	-1679
▁Temz	-1680
▁Vzbo	-1681
▁Yrlz	-1682
▁Yzuo	-1683
▁abzo	-1684
▁aoti	-1685
▁belo	-1686
▁bona	-1687
▁dakc	-1688
▁dapu	-1689
▁delc	-1690
▁drtc	-1691
▁dzbi	-1692
▁dzbr	-1693
▁kang	-1694
▁kcma	-1695
▁kcpe	-1696
▁krla	-1697
▁kxpo	-1698
▁lrdr	-1699
▁lxkq	-1700
▁mqgr	-1701
▁nadq	-1702
▁napr	-1703
▁narm	-1704
▁navo	-1705
▁nawz	-1706
▁nayc	-1707
▁nike	-1708
▁nivz	-1709
▁nqni	-1710
▁nrtq	-1711
▁nrwx	-1712
▁nzdc	-1713
▁nzli	-1714
▁nzmq	-1715
▁nzsu	-1716
▁nzta	-1717
▁nzte	-1718
▁nztu	-1719
▁olvi	-1720
▁opxm	-1721
▁peao	-1722
▁pepz	-1723
▁prki	-1724
▁raes	-1725
▁rglq	-1726
▁scgu	-1727
▁sokz	-1728
▁suti	-1729
▁tqab	-1730
▁tqli	-1731
▁tqwz	-1732
▁tqyc	-1733
▁trak	-1734
▁trni	-1735
▁trsu	-1736
▁tuti	-1737
▁tzka	-1738
▁tzya	-1739
▁vaol	-1740
▁vzbz	-1741
▁vztr	-1742
▁vztx	-1743
▁yane	-1744
▁yclz	-1745
▁ycpq	-1746
▁yrlz	-1747
aepztr	-1748
amingr	-1749
bzlrle	-1750
bznyon	-1751
elwapx	-1752
kipxle	-1753
kqtxkr	-1754
kuking	-1755
lekana	-1756
lzbqgr	-1757
lzbqpe	-1758
malepc	-1759
mznrpe	-1760
ngrlvz	-1761
pxbzkr	-1762
pxpekr	-1763
pxpelr	-1764
pxpeng	-1765
tibzle	-1766
tibzme	-1767
tipekr	-1768
tipeng	-1769
titrpe	-1770
titxkr	-1771
titxne	-1772
titxpo	-1773
titxpx	-1774
trkati	-1775
trpelr	-1776
trpeng	-1777
trpzng	-1778
txbzle	-1779
ycmnem	-1780
zlwzkr	-1781
▁Akani	-1782
▁Anika	-1783
▁Aogzs	-1784
▁Austr	-1785
▁Badle	-1786
▁Bolen	-1787
▁Filip	-1788
▁Ilovz	-1789
▁Josip	-1790
▁Josis	-1791
▁Julae	-1792
▁Kratq	-1793
▁Lwovz	-1794
▁Meleu	-1795
▁Ncnia	-1796
▁Ncokz	-1797
▁Ncole	-1798
▁Pulis	-1799
▁Rpile	-1800
▁Samwi	-1801
▁Silan	-1802
▁aolvz	-1803
▁boitx	-1804
▁bomle	-1805
▁ckrle	-1806
▁dckta	-1807
▁enjin	-1808
▁enqmi	-1809
▁kamle	-1810
▁kxplc	-1811
▁lcpwz	-1812
▁lozbq	-1813
▁mcpxm	-1814
▁mnrgr	-1815
▁mrlxm	-1816
▁namwi	-1817
▁nanyc	-1818
▁nqlvi	-1819
▁nyzgu	-1820
▁nzmwa	-1821
▁nzoka	-1822
▁nzrmc	-1823
▁otxpx	-1824
▁prtrx	-1825
▁rmcti	-1826
▁rpibo	-1827
▁takes	-1828
▁tqale	-1829
▁tqama	-1830
▁tqawi	-1831
▁tqobq	-1832
▁tqrlr	-1833
▁tqvea	-1834
▁tqxlr	-1835
▁trmwi	-1836
▁tzpnz	-1837
▁tztwz	-1838
▁tzxpe	-1839
▁vomle	-1840
▁yrpla	-1841
▁yzutr	-1842
abzbzlr	-1843
atebzkr	-1844
kapxmlr	-1845
lrprkru	-1846
lxblrkr	-1847
mcpelru	-1848
mnztrng	-1849
mopwzle	-1850
mopwzng	-1851
moupqle	-1852
ngrbzme	-1853
nyzdeng	-1854
plrkqtu	-1855
rtwzwxu	-1856
stimcne	-1857
tekangr	-1858
trpengr	-1859
txpwzlr	-1860
txpwzng	-1861
veatipe	-1862
yrlwrpx	-1863
yrplapx	-1864
▁Disebz	-1865
▁Gzpman	-1866
▁Krlcng	-1867
▁Metrkr	-1868
▁Nzkrka	-1869
▁Nzyrlz	-1870
▁Samwel	-1871
▁Selwin	-1872
▁Stipin	-1873
▁Takitr	-1874
▁Tqyrke	-1875
▁Trkrlz	-1876
▁Trngiu	-1877
▁Zyagox	-1878
▁abrelz	-1879
▁atwzlr	-1880
▁kalrla	-1881
▁kraesz	-1882
▁krikit	-1883
▁krlcng	-1884
▁krlzbo	-1885
▁kxbqgr	-1886
▁kxpipz	-1887
▁kzpora	-1888
▁kzpten	-1889
▁loprta	-1890
▁nakabz	-1891
▁namnqq	-1892
▁narlue	-1893
▁navzkr	-1894
▁navzne	-1895
▁nesrkr	-1896
▁nibrgr	-1897
▁nzalvc	-1898
▁nzbzti	-1899
▁nzlvqn	-1900
▁nzmulr	-1901
▁nzoliq	-1902
▁nzprtz	-1903
▁nzrpwa	-1904
▁nzrtco	-1905
▁nzvzdz	-1906
▁nzvzkr	-1907
▁nzvzne	-1908
▁nzwzkr	-1909
▁nzyrlz	-1910
▁nzyzlu	-1911
▁scdeng	-1912
▁sikapu	-1913
▁tqbzpe	-1914
▁tqkuki	-1915
▁tqmatq	-1916
▁tqmcti	-1917
▁tqnepe	-1918
▁tqrpna	-1919
▁tqrpwa	-1920
▁tqtuom	-1921
▁tqvobe	-1922
▁tqwqpe	-1923
▁tqyrlz	-1924
▁trgalr	-1925
▁trpulu	-1926
▁tzmcpe	-1927
▁tzvzpe	-1928
▁vzkipe	-1929
▁yctitx	-1930
angidrkr	-1931
apqbzngr	-1932
lvztrngr	-1933
malebzlr	-1934
ngalelvz	-1935
tavetrlr	-1936
tipebzkr	-1937
zpwxbzle	-1938
▁Lrtzlvz	-1939
▁Mathias	-1940
▁Mnctikr	-1941
▁Mwekati	-1942
▁Nounenq	-1943
▁Nzpnang	-1944
▁Nzrlasz	-1945
▁Nzrpibz	-1946
▁Provins	-1947
▁Rlaszkr	-1948
▁abrtztx	-1949
▁blrkqgr	-1950
▁drtwrgr	-1951
▁kxetubz	-1952
▁kxyagox	-1953
▁lemwzlo	-1954
▁letzlvz	-1955
▁medesin	-1956
▁mrlzvxi	-1957
▁mwatipe	-1958
▁nangipe	-1959
▁naokatr	-1960
▁natqnge	-1961
▁ngrdeng	-1962
▁nibrnge	-1963
▁nzamcti	-1964
▁nzangio	-1965
▁nzdwasz	-1966
▁nzmncpe	-1967
▁nzmwelr	-1968
▁nzrkatx	-1969
▁nzrnibq	-1970
▁nzrpilr	-1971
▁okatrpq	-1972
▁prcpelz	-1973
▁tqayzlu	-1974
▁tqetune	-1975
▁tqycmne	-1976
▁tqyrpla	-1977
▁trayzlu	-1978
▁trtingr	-1979
▁tzmwipx	-1980
▁tzrpipe	-1981
▁tzrtctx	-1982
▁tzsiklu	-1983
▁tzyrlwr	-1984
▁xlrbzle	-1985
▁yapwxti	-1986
yapwxtipe	-1987
▁Akanipua	-1988
▁Ayrnrngr	-1989
▁Drtwrnge	-1990
▁Elisabet	-1991
▁Mzjzbxlo	-1992
▁Nzrpimlr	-1993
▁Nzvzbzng	-1994
▁Nzvzmqng	-1995
▁blrkqnge	-1996
▁kzbznyon	-1997
▁mzledeng	-1998
▁nabznepi	-1999
▁nartrkla	-2000
▁natekqtr	-2001
▁nawrkxtr	-2002
▁ngitxpwz	-2003
▁nzarlapx	-2004
▁nzmcpxlr	-2005
▁nznemilr	-2006
▁nzrmalvz	-2007
▁nzrtangr	-2008
▁tqaenzli	-2009
▁tqasiklu	-2010
▁tqdcpxpe	-2011
▁tqkaputr	-2012
▁tqpipebo	-2013
▁tqryapwx	-2014
▁tqvzkilz	-2015
▁tqvzkipx	-2016
▁tqwxbupx	-2017
▁tqyapxpe	-2018
▁tqyrkrpe	-2019
▁tzvopeng	-2020
▁yrkrpxbz	-2021
▁Austrelia	-2022
▁Elizabeth	-2023
▁Gwalekana	-2024
▁Paumalepc	-2025
▁kxnzakrlz	-2026
▁lcsukxlvc	-2027
▁nanginibo	-2028
▁nzabrtzkr	-2029
▁nzangiolr	-2030
▁nzmnclzbz	-2031
▁nzrlwxngr	-2032
▁nzrmctilr	-2033
▁tqrpipebz	-2034
▁tqtutxpxm	-2035
▁trlrprkru	-2036
▁tzvzopeng	-2037
▁Ilrmztangi	-2038
▁Metrkrbade	-2039
▁nrlckxbqpe	-2040
▁nzrtrngrti	-2041
▁tqatwzlrpe	-2042
▁tqvzdzpekr	-2043
▁tzmcpxpelr	-2044
▁kxnzmnztrng	-2045
▁kxnzsiklung	-2046
▁kxnztopwzng	-2047
▁nalxngitile	-2048
▁tqetunepxpe	-2049
▁tqotipebzle	-2050
▁trnzmcpelru	-2051
▁trpnzngrpwz	-2052
▁yctitxpwzle	-2053
▁tqrlxtipebzkr	-2054
..	-2055
15	-2056
SE	-2057
ch	-2058
dy	-2059
ec	-2060
ed	-2061
ep	-2062
ib	-2063
ip	-2064
ko	-2065
ly	-2066
od	-2067
rd	-2068
rn	-2069
rt	-2070
ru	-2071
sd	-2072
sq	-2073
va	-2074
wc	-2075
xe	-2076
xi	-2077
yq	-2078
▁9	-2079
▁i	-2080
▁u	-2081
ale	-2082
avz	-2083
bio	-2084
bwr	-2085
ckr	-2086
cmc	-2087
cng	-2088
cpr	-2089
dou	-2090
epe	-2091
eph	-2092
etr	-2093
gas	-2094
glz	-2095
gou	-2096
iko	-2097
ini	-2098
ira	-2099
sa	-2100
akx	-2101
dru	-2102
ipq	-2103
izm	-2104
kon	-2105
kra	-2106
kxe	-2107
kya	-2108
lea	-2109
ley	-2110
lue	-2111
luu	-2112
lux	-2113
lzo	-2114
mas	-2115
miz	-2116
mwx	-2117
nes	-2118
ngz	-2119
nre	-2120
nrl	-2121
oka	-2122
olx	-2123
omc	-2124
opx	-2125
ora	-2126
osa	-2127
peq	-2128
pia	-2129
pis	-2130
pli	-2131
plo	-2132
pzn	-2133
rbr	-2134
ren	-2135
rle	-2136
scu	-2137
sie	-2138
slr	-2139
suz	-2140
tan	-2141
tik	-2142
tiv	-2143
txm	-2144
tzr	-2145
xbu	-2146
xng	-2147
yrm	-2148
zka	-2149
zli	-2150
zmu	-2151
▁02	-2152
▁05	-2153
▁07	-2154
▁08	-2155
▁09	-2156
▁10	-2157
▁12	-2158
▁15	-2159
▁16	-2160
▁26	-2161
▁32	-2162
▁33	-2163
▁34	-2164
▁35	-2165
▁44	-2166
▁54	-2167
▁58	-2168
▁60	-2169
▁72	-2170
▁73	-2171
▁74	-2172
▁78	-2173
▁Al	-2174
▁An	-2175
▁Bq	-2176
▁DO	-2177
▁Ed	-2178
▁Eu	-2179
▁Is	-2180
▁Ke	-2181
▁Ko	-2182
▁La	-2183
▁No	-2184
▁Ol	-2185
▁Vx	-2186
▁al	-2187
▁bi	-2188
▁di	-2189
▁em	-2190
▁mg	-2191
▁ol	-2192
▁pa	-2193
▁pc	-2194
▁px	-2195
▁to	-2196
alvz	-2197
bepq	-2198
bqoa	-2199
aea	-2200
ana	-2201
glx	-2202
ksi	-2203
mix	-2204
ncu	-2205
rau	-2206
ret	-2207
sil	-2208
zmz	-2209
▁71	-2210
brgr	-2211
brlc	-2212
brnz	-2213
brtq	-2214
brtr	-2215
bukr	-2216
bxli	-2217
bzni	-2218
bzpx	-2219
datr	-2220
dolz	-2221
drka	-2222
drng	-2223
dzre	-2224
enne	-2225
enol	-2226
grng	-2227
inyx	-2228
iota	-2229
kalr	-2230
kimc	-2231
king	-2232
kipz	-2233
kira	-2234
kqtx	-2235
krmc	-2236
krpe	-2237
kzpe	-2238
lala	-2239
lapx	-2240
lena	-2241
leni	-2242
liki	-2243
limz	-2244
lrdr	-2245
lrmi	-2246
lrng	-2247
lrpi	-2248
luli	-2249
lvco	-2250
lvzq	-2251
lvzx	-2252
manu	-2253
mara	-2254
mcle	-2255
mclr	-2256
mikr	-2257
mimc	-2258
mine	-2259
misi	-2260
mitx	-2261
mnqu	-2262
mqgr	-2263
mrge	-2264
mung	-2265
mupa	-2266
mztq	-2267
naox	-2268
naru	-2269
nbol	-2270
ncbr	-2271
nede	-2272
nemc	-2273
neng	-2274
neom	-2275
niko	-2276
nsrl	-2277
nzmi	-2278
omle	-2279
omlr	-2280
oodo	-2281
opex	-2282
opxu	-2283
oukr	-2284
peku	-2285
peti	-2286
pgru	-2287
pibz	-2288
pnzx	-2289
pore	-2290
pqde	-2291
pqgr	-2292
prti	-2293
pupe	-2294
pusz	-2295
puti	-2296
pxmc	-2297
pxyq	-2298
pzng	-2299
ons	-2300
puo	-2301
ria	-2302
sol	-2303
▁20	-2304
lawi	-2305
nqng	-2306
nuta	-2307
pnzu	-2308
prol	-2309
pulr	-2310
redr	-2311
resi	-2312
sqki	-2313
srti	-2314
sumi	-2315
sung	-2316
taki	-2317
tclz	-2318
teas	-2319
telq	-2320
tibo	-2321
tiox	-2322
tqde	-2323
trle	-2324
tuku	-2325
tulr	-2326
tutx	-2327
txki	-2328
txng	-2329
vepx	-2330
waga	-2331
wakr	-2332
weng	-2333
wilx	-2334
wrki	-2335
wrne	-2336
wzle	-2337
wzso	-2338
yakr	-2339
ykap	-2340
yrbz	-2341
yrni	-2342
yrpa	-2343
yzlo	-2344
zman	-2345
▁Ate	-2346
▁Blz	-2347
▁Buk	-2348
▁Bwa	-2349
▁Dxi	-2350
▁Emi	-2351
▁Gre	-2352
▁Iny	-2353
▁Lea	-2354
▁Lue	-2355
▁Luk	-2356
▁Mae	-2357
▁Mak	-2358
▁Man	-2359
▁Mas	-2360
▁Mou	-2361
▁Mwi	-2362
▁Neo	-2363
▁Nim	-2364
▁Nrc	-2365
▁Nyz	-2366
▁Pri	-2367
▁Pwx	-2368
▁Rmi	-2369
▁Rok	-2370
▁SSE	-2371
▁Sop	-2372
▁Tae	-2373
▁Tom	-2374
▁Tum	-2375
▁Twz	-2376
▁Vox	-2377
▁Vzx	-2378
▁abz	-2379
▁aki	-2380
▁aya	-2381
▁ayz	-2382
▁bis	-2383
▁biz	-2384
▁bla	-2385
▁blq	-2386
▁blx	-2387
▁but	-2388
▁bwa	-2389
▁eke	-2390
▁ela	-2391
▁kau	-2392
▁lni	-2393
▁mco	-2394
▁mnq	-2395
▁mzl	-2396
▁ncb	-2397
▁ncu	-2398
▁nwe	-2399
oot	-2400
pro	-2401
lrmq	-2402
okia	-2403
polo	-2404
rlve	-2405
scdr	-2406
trpo	-2407
twzm	-2408
▁Ipq	-2409
▁Ita	-2410
▁Kru	-2411
▁Yao	-2412
▁ezp	-2413
▁nzn	-2414
▁nzp	-2415
▁opx	-2416
▁osz	-2417
▁otx	-2418
▁pis	-2419
▁pwz	-2420
▁rni	-2421
▁rnz	-2422
▁scm	-2423
▁spo	-2424
▁trl	-2425
▁utc	-2426
▁wqq	-2427
▁xpe	-2428
baita	-2429
blqng	-2430
bomlr	-2431
bqobz	-2432
clvex	-2433
dotxo	-2434
dwatr	-2435
etung	-2436
glqpz	-2437
glrpe	-2438
ipqpx	-2439
itxbz	-2440
kitru	-2441
kqopq	-2442
kqtio	-2443
krgru	-2444
krpex	-2445
ksing	-2446
kzpng	-2447
lalvz	-2448
lante	-2449
likan	-2450
lilvc	-2451
liqti	-2452
lolvz	-2453
lrngr	-2454
lxlvr	-2455
lxplz	-2456
lzpex	-2457
mabru	-2458
mcleu	-2459
mncne	-2460
mouku	-2461
moung	-2462
mqngi	-2463
nangi	-2464
nepex	-2465
ngalr	-2466
ngisc	-2467
ngrbe	-2468
ngrli	-2469
ngrng	-2470
ngrpe	-2471
obzkr	-2472
odutr	-2473
onard	-2474
osboe	-2475
peamu	-2476
pemgr	-2477
pilvz	-2478
pilwz	-2479
plzpx	-2480
pnzle	-2481
poope	-2482
pwxmz	-2483
pwxtx	-2484
pwzli	-2485
pxpex	-2486
pzngr	-2487
rlalz	-2488
rlrni	-2489
rlzkr	-2490
szpex	-2491
tolwa	-2492
twzti	-2493
twztx	-2494
txmle	-2495
txole	-2496
txpnz	-2497
wongr	-2498
yclvz	-2499
nrq	-2500
red	-2501
ven	-2502
vex	-2503
▁45	-2504
gung	-2505
inii	-2506
isol	-2507
kaix	-2508
krgu	-2509
mrtu	-2510
nare	-2511
ngan	-2512
ngao	-2513
ngar	-2514
okla	-2515
oman	-2516
vebz	-2517
vitx	-2518
▁Are	-2519
▁Dik	-2520
▁Esz	-2521
▁Kco	-2522
▁Pas	-2523
▁boi	-2524
kaiki	-2525
kaipo	-2526
lenga	-2527
meiti	-2528
mneti	-2529
mrlzu	-2530
ngale	-2531
ngana	-2532
ngatx	-2533
ngavz	-2534
ngqba	-2535
ngrme	-2536
veati	-2537
venok	-2538
vingr	-2539
zlwzu	-2540
zpwxx	-2541
zvzbo	-2542
▁1700	-2543
▁1921	-2544
▁1929	-2545
▁1934	-2546
▁1935	-2547
▁1936	-2548
▁1937	-2549
▁1955	-2550
▁1974	-2551
▁1991	-2552
▁1993	-2553
▁Abzo	-2554
▁Aglq	-2555
▁Bagr	-2556
▁Bapo	-2557
▁Bren	-2558
▁Dalr	-2559
▁Dapq	-2560
▁Dora	-2561
▁Gres	-2562
▁Ikai	-2563
▁Inyx	-2564
▁Kcng	-2565
▁Kira	-2566
▁Kosi	-2567
▁Krka	-2568
▁Krla	-2569
▁Kxli	-2570
▁Lclr	-2571
▁Lipz	-2572
▁Lrmz	-2573
▁Menc	-2574
▁Mewz	-2575
▁Mzke	-2576
▁Mznr	-2577
▁Mzte	-2578
▁Mztq	-2579
▁Naba	-2580
▁Nabo	-2581
▁Nagu	-2582
▁Namc	-2583
▁Napi	-2584
▁Napr	-2585
▁Navo	-2586
▁Nenq	-2587
▁Nevi	-2588
▁Nide	-2589
▁Nqmq	-2590
▁Nzlq	-2591
▁Nzlu	-2592
▁Nzmu	-2593
▁Oliq	-2594
▁Para	-2595
▁Rblx	-2596
▁Rkam	-2597
▁Rnge	-2598
▁Rpim	-2599
bad	-2600
ebi	-2601
glc	-2602
lck	-2603
nur	-2604
▁04	-2605
▁67	-2606
▁70	-2607
▁75	-2608
▁76	-2609
ebir	-2610
opem	-2611
opeu	-2612
urch	-2613
wqkr	-2614
▁Wur	-2615
hurch	-2616
opelr	-2617
pxpem	-2618
rlipu	-2619
tipxm	-2620
upeng	-2621
veope	-2622
yamgr	-2623
▁1948	-2624
▁Esuz	-2625
▁Jane	-2626
▁Krkc	-2627
▁Rpix	-2628
▁Scdr	-2629
▁Sens	-2630
▁Sore	-2631
▁Susi	-2632
▁Toke	-2633
▁Tqvo	-2634
▁Trmc	-2635
▁Trna	-2636
▁Trnz	-2637
▁Tryr	-2638
▁Vanu	-2639
▁Vzkr	-2640
▁Vzne	-2641
▁Vzox	-2642
▁Vztr	-2643
▁Wurm	-2644
▁Yrlq	-2645
▁aglr	-2646
▁amnq	-2647
▁angi	-2648
▁bagu	-2649
▁bqnc	-2650
▁bqtc	-2651
▁bret	-2652
▁bxtr	-2653
▁dalc	-2654
▁dcbz	-2655
▁digi	-2656
▁dwao	-2657
▁dxbu	-2658
▁ebio	-2659
▁inyx	-2660
▁kabo	-2661
▁kalo	-2662
▁kapu	-2663
▁katx	-2664
▁kqle	-2665
▁krde	-2666
▁krka	-2667
▁kxmc	-2668
▁kxtq	-2669
▁kxtr	-2670
▁kxyr	-2671
▁kzdo	-2672
▁lape	-2673
▁lclr	-2674
▁line	-2675
▁lons	-2676
▁lrde	-2677
▁lule	-2678
▁makx	-2679
▁masi	-2680
▁matq	-2681
▁mckr	-2682
▁mepz	-2683
▁mqbq	-2684
▁mqdr	-2685
▁mqgu	-2686
▁mrge	-2687
▁mrla	-2688
▁mukr	-2689
▁mule	-2690
▁mulz	-2691
▁muvi	-2692
▁mzbq	-2693
▁mzkr	-2694
▁mztr	-2695
▁nabr	-2696
▁nade	-2697
▁nali	-2698
▁nayr	-2699
dati	-2700
ecil	-2701
krgi	-2702
krme	-2703
lzgi	-2704
▁Jun	-2705
▁Vex	-2706
▁bzo	-2707
▁oda	-2708
atekr	-2709
atelr	-2710
ateng	-2711
katxm	-2712
krpou	-2713
mqngq	-2714
peleu	-2715
txpxx	-2716
waisz	-2717
▁1951	-2718
▁1952	-2719
▁1953	-2720
▁2008	-2721
▁Badr	-2722
▁Kate	-2723
▁Mclq	-2724
▁Olvz	-2725
▁Pita	-2726
▁Seka	-2727
▁drvr	-2728
▁neke	-2729
▁nrpa	-2730
▁nwei	-2731
▁nzbr	-2732
▁nzka	-2733
▁nzkc	-2734
▁nzlz	-2735
▁nzma	-2736
▁nzpc	-2737
▁nzpi	-2738
▁nzti	-2739
▁nzwq	-2740
▁nzyc	-2741
▁olta	-2742
▁popz	-2743
▁rkam	-2744
▁rmnr	-2745
▁rnge	-2746
▁rpio	-2747
▁rpnz	-2748
▁ryrm	-2749
▁scgi	-2750
▁supe	-2751
▁taea	-2752
▁tawa	-2753
▁tcpr	-2754
▁teox	-2755
▁tqbx	-2756
▁tqmi	-2757
▁tqta	-2758
▁tqwx	-2759
▁tqyz	-2760
▁trdo	-2761
▁trpq	-2762
▁trpx	-2763
▁trta	-2764
▁trtu	-2765
▁trtx	-2766
▁trwz	-2767
▁tuom	-2768
▁tupx	-2769
▁tutr	-2770
▁tzma	-2771
▁tzwz	-2772
▁tzyc	-2773
▁vzkr	-2774
▁vzne	-2775
▁wzkr	-2776
▁wztx	-2777
▁xlrx	-2778
▁xpex	-2779
▁ycpe	-2780
▁ycpx	-2781
▁yrmq	-2782
▁zmio	-2783
atepex	-2784
atwrnz	-2785
ayrpla	-2786
blqpxm	-2787
brlxkz	-2788
brtqpe	-2789
dwaope	-2790
entxkr	-2791
esiden	-2792
ikopia	-2793
kaiamu	-2794
katxkr	-2795
katxpe	-2796
kipxlr	-2797
kititr	-2798
kqtipe	-2799
▁23	-2800
▁27	-2801
▁29	-2802
▁61	-2803
▁62	-2804
▁64	-2805
▁65	-2806
▁66	-2807
▁68	-2808
▁69	-2809
mcpc	-2810
puro	-2811
▁Ben	-2812
▁Iva	-2813
▁Lxe	-2814
▁vec	-2815
ayrnr	-2816
ilzle	-2817
plrkr	-2818
tixng	-2819
yzutr	-2820
zpwxu	-2821
▁1930	-2822
▁1932	-2823
▁1939	-2824
▁Jzmz	-2825
▁Loki	-2826
▁Mutr	-2827
▁Tewa	-2828
▁Tutr	-2829
▁bxli	-2830
▁kilz	-2831
▁stol	-2832
▁tosi	-2833
▁xplr	-2834
kapqkr	-2835
kapqle	-2836
kapqlr	-2837
kqtxom	-2838
krdelr	-2839
krdrle	-2840
krdrtq	-2841
krgrle	-2842
krlebq	-2843
krlzpe	-2844
krlzpo	-2845
krmamu	-2846
krmqng	-2847
krpxpe	-2848
kxtrng	-2849
kzpqgr	-2850
lvzngr	-2851
lzbqng	-2852
lzbzkr	-2853
lztxkr	-2854
mipele	-2855
mitxpx	-2856
mitxtr	-2857
mncpwz	-2858
mopqgr	-2859
mrlzkr	-2860
musrti	-2861
netrpe	-2862
ngrdeu	-2863
ngrneu	-2864
ngrpwz	-2865
nikoro	-2866
ninepe	-2867
nipegr	-2868
nipele	-2869
nipewq	-2870
opuria	-2871
opwqkr	-2872
paswxu	-2873
pebzkr	-2874
peleng	-2875
prpxbo	-2876
prtilz	-2877
pwqgru	-2878
pxmqng	-2879
pxpleu	-2880
szpekr	-2881
tavelr	-2882
tibzkr	-2883
tinetr	-2884
tiomgr	-2885
tipede	-2886
tipele	-2887
titrle	-2888
trpebo	-2889
trpebz	-2890
trpzle	-2891
trpzlr	-2892
twzobz	-2893
txbzkr	-2894
txpekr	-2895
txpele	-2896
txpeng	-2897
txtrku	-2898
vrmine	-2899
▁38	-2900
▁39	-2901
▁50	-2902
▁52	-2903
▁53	-2904
▁56	-2905
abel	-2906
dzkr	-2907
pusr	-2908
▁Bei	-2909
▁glr	-2910
bzong	-2911
enols	-2912
▁1965	-2913
▁1967	-2914
▁1968	-2915
▁1978	-2916
▁Olvx	-2917
▁dril	-2918
▁nqes	-2919
▁plas	-2920
▁wxbu	-2921
alzung	-2922
alzupq	-2923
mititr	-2924
nqblqm	-2925
supebz	-2926
txtrkr	-2927
txtrpo	-2928
vrtipe	-2929
witxbo	-2930
xpepem	-2931
yzlupe	-2932
zlwzle	-2933
zlwzpe	-2934
zpwxka	-2935
zpwxkr	-2936
zvzmle	-2937
zvzmlr	-2938
▁Agnes	-2939
▁Andru	-2940
▁Anuta	-2941
▁Ayrnr	-2942
▁Bange	-2943
▁Basil	-2944
▁Binii	-2945
▁Elsie	-2946
▁Eprol	-2947
▁Imztq	-2948
▁Inaox	-2949
▁Ituku	-2950
▁Iwxbu	-2951
▁Kenne	-2952
▁Ketea	-2953
▁Kzpzn	-2954
▁Menrl	-2955
▁Mnckr	-2956
▁Mqnge	-2957
▁Mrnzq	-2958
▁Naplo	-2959
▁Ncmix	-2960
▁Nounc	-2961
▁Nrrle	-2962
▁Nrzka	-2963
▁Nzlvc	-2964
▁Nzmwx	-2965
▁Nzpnz	-2966
▁Nzvea	-2967
▁Olzbo	-2968
▁Pasto	-2969
▁Poodo	-2970
▁Prtrx	-2971
▁Roman	-2972
▁Rtctx	-2973
▁Silas	-2974
▁Siota	-2975
▁Teomo	-2976
▁Tqobq	-2977
▁Vxngr	-2978
▁Wisol	-2979
▁Zmatq	-2980
▁alele	-2981
▁atrka	-2982
▁awitx	-2983
▁ayzlu	-2984
▁baone	-2985
▁bzamu	-2986
▁dcpwe	-2987
▁draea	-2988
▁drlve	-2989
▁dwasx	-2990
▁etutx	-2991
▁ezpct	-2992
▁houkr	-2993
▁ikzkr	-2994
▁kxmya	-2995
▁kxnzr	-2996
▁lapwz	-2997
▁lcglz	-2998
▁lxede	-2999
▁40	-3000
▁47	-3001
▁49	-3002
aoti	-3003
▁Jim	-3004
▁Kam	-3005
▁vri	-3006
aolvz	-3007
bingr	-3008
kukir	-3009
pizpx	-3010
prlzm	-3011
txlzm	-3012
xpepx	-3013
▁1940	-3014
▁1949	-3015
▁1996	-3016
▁Prpx	-3017
▁Vokr	-3018
▁bqpe	-3019
▁muli	-3020
▁ncvr	-3021
elwati	-3022
itange	-3023
lrkqtu	-3024
lvzole	-3025
misina	-3026
ngiolr	-3027
prtzlr	-3028
rlwrpx	-3029
trpqgr	-3030
▁Otibz	-3031
▁lxegr	-3032
▁maboi	-3033
▁mangr	-3034
▁meitx	-3035
▁mgngr	-3036
▁mncne	-3037
▁mqnge	-3038
▁mwelr	-3039
▁mwitr	-3040
▁mwitx	-3041
▁naobq	-3042
▁narde	-3043
▁narla	-3044
▁narlr	-3045
▁narpz	-3046
▁navzm	-3047
▁naxpe	-3048
▁nenge	-3049
▁nengq	-3050
▁ngipe	-3051
▁ngrgu	-3052
▁ngrlx	-3053
▁ngrmu	-3054
▁noude	-3055
▁nqesa	-3056
▁nubla	-3057
▁nuzmu	-3058
▁nzama	-3059
▁nzatu	-3060
▁nzavz	-3061
▁nzayo	-3062
▁nzbao	-3063
▁nzblq	-3064
▁nzesz	-3065
▁nzmei	-3066
▁nzobq	-3067
▁nzopx	-3068
▁nzoti	-3069
▁nzpas	-3070
▁nzpnz	-3071
▁nzrka	-3072
▁nzrli	-3073
▁nzrlx	-3074
▁nzryr	-3075
▁nztwz	-3076
▁nzyrm	-3077
▁prnge	-3078
▁pwrki	-3079
▁rdrng	-3080
▁rkalz	-3081
▁rkrlz	-3082
▁rtqmz	-3083
▁scnge	-3084
▁sekon	-3085
▁tokir	-3086
▁tqabc	-3087
▁tqata	-3088
▁tqela	-3089
▁tqlvc	-3090
▁tqngq	-3091
▁tqope	-3092
▁tqpnz	-3093
▁tqrke	-3094
▁tqrmc	-3095
▁tqrta	-3096
▁tqyrm	-3097
▁trnza	-3098
▁trpnz	-3099
▁gas	-3100
▁tin	-3101
alztq	-3102
ngcpe	-3103
trbex	-3104
txcng	-3105
witxm	-3106
▁1924	-3107
▁1928	-3108
▁2005	-3109
▁Dztu	-3110
▁dekc	-3111
▁dela	-3112
▁rlwx	-3113
▁twzx	-3114
▁txne	-3115
▁waea	-3116
krbzmu	-3117
rlapxq	-3118
witxne	-3119
▁Dwakr	-3120
▁Krlzu	-3121
▁Mwakr	-3122
▁Sikai	-3123
▁atubx	-3124
▁dcplx	-3125
▁legou	-3126
▁rlapx	-3127
▁ryzkr	-3128
▁sport	-3129
▁tulzm	-3130
▁tzaki	-3131
▁tzawz	-3132
▁tzayo	-3133
▁tzglq	-3134
▁tzngr	-3135
▁tzobq	-3136
▁tzpxi	-3137
▁tzrmc	-3138
▁tzvec	-3139
▁tzxlr	-3140
▁voomc	-3141
▁waile	-3142
▁wzngr	-3143
▁ycngr	-3144
▁ycpwz	-3145
▁yctxo	-3146
▁yrole	-3147
▁yzlum	-3148
abrtztx	-3149
aelwati	-3150
aglqamu	-3151
alvztrx	-3152
aprpxbo	-3153
bletilr	-3154
bompeng	-3155
brtzngr	-3156
clvengr	-3157
dotxopq	-3158
epelzle	-3159
glqpekr	-3160
glqtikr	-3161
kalzmlr	-3162
kalzpem	-3163
katxngr	-3164
krngeng	-3165
lvznepx	-3166
lvztrng	-3167
lxblrbz	-3168
lxblrng	-3169
lxblrpe	-3170
lzbqngr	-3171
lzpemgr	-3172
malewxu	-3173
mopwzkr	-3174
mopwzlr	-3175
moupqng	-3176
mqngitr	-3177
mrgengr	-3178
neopebz	-3179
nepwzkr	-3180
ngcneom	-3181
ngrbole	-3182
ngrbzkr	-3183
ngrbzlr	-3184
ngrlrlz	-3185
ngrlrpx	-3186
ngrmqng	-3187
ngrneng	-3188
ngrpleu	-3189
nibqleu	-3190
nipenge	-3191
nqblqle	-3192
nqblqlr	-3193
nqblqpe	-3194
plcopem	-3195
plxsrgr	-3196
plxsrle	-3197
poretiv	-3198
prkilzm	-3199
get	-3200
dcpx	-3201
▁Myx	-3202
▁agz	-3203
▁poi	-3204
▁vau	-3205
brlzm	-3206
kzple	-3207
mitin	-3208
ngcti	-3209
pxxng	-3210
rpibo	-3211
▁Lika	-3212
▁angc	-3213
▁rtco	-3214
▁yzuo	-3215
kqtuti	-3216
memcle	-3217
presin	-3218
yzkrng	-3219
▁Pilip	-3220
▁Rtqmz	-3221
▁Ycmne	-3222
▁blzmr	-3223
▁legru	-3224
▁lxlvr	-3225
▁mwakr	-3226
▁nayzu	-3227
▁sinia	-3228
▁tqlvr	-3229
▁trrlr	-3230
apqbzle	-3231
ayrkrpx	-3232
blxpwzu	-3233
blxtile	-3234
neopelr	-3235
netrpex	-3236
ngrnamu	-3237
presinu	-3238
prlzpem	-3239
residen	-3240
siklube	-3241
tangrpe	-3242
tengeng	-3243
tipelru	-3244
tipxmlr	-3245
titxpxx	-3246
topwzbe	-3247
trpemlr	-3248
txpwzle	-3249
txpwzmu	-3250
txpxpex	-3251
veopebz	-3252
wrnebwr	-3253
yagoxle	-3254
yzutxtr	-3255
zlwzngr	-3256
zvzbzkr	-3257
▁Abzokr	-3258
▁Drtqgr	-3259
▁Inglis	-3260
▁Itange	-3261
▁Itopwz	-3262
▁Joseph	-3263
▁Jzmzne	-3264
▁Kcmiti	-3265
▁Krapwx	-3266
▁Mateas	-3267
▁Matelq	-3268
▁Mclxng	-3269
▁Menaip	-3270
▁Menapi	-3271
▁Mepalu	-3272
▁Nebrnz	-3273
▁Nekeng	-3274
▁Nibrgr	-3275
▁Nzaglq	-3276
▁Nzlqwc	-3277
▁Nzlvqn	-3278
▁Nzmcpe	-3279
▁Nzmcpx	-3280
▁Nzprtr	-3281
▁Nzrmnq	-3282
▁Nzrpim	-3283
▁Nzryzu	-3284
▁Nzvzne	-3285
▁Nzwqkr	-3286
▁Nzwrde	-3287
▁Nzwzkr	-3288
▁Nzyzlu	-3289
▁Obqobz	-3290
▁Otiamu	-3291
▁Pileni	-3292
▁Prlzkr	-3293
▁Renols	-3294
▁Rlapxx	-3295
▁Rtrngr	-3296
▁Samson	-3297
▁Sophia	-3298
▁Tekatr	-3299
▁81	-3300
▁82	-3301
▁hat	-3302
▁lvc	-3303
▁lzm	-3304
alokr	-3305
bomkr	-3306
olvzu	-3307
pxpwq	-3308
▁1988	-3309
▁1989	-3310
▁Rmnr	-3311
▁Suti	-3312
▁Yati	-3313
▁kuli	-3314
▁obla	-3315
alvctr	-3316
atwrnr	-3317
lalztq	-3318
mnetiu	-3319
mupeku	-3320
pqtrle	-3321
redrik	-3322
rmabru	-3323
tinebe	-3324
yrlqbz	-3325
▁Bomio	-3326
▁Dcpwe	-3327
▁Dikon	-3328
▁Imanu	-3329
▁Menrq	-3330
▁Menzq	-3331
▁Tupxm	-3332
▁Xlrbo	-3333
▁elalz	-3334
▁kxrtc	-3335
▁lvabe	-3336
▁lzokr	-3337
▁nzkqo	-3338
▁obqpx	-3339
▁prtrp	-3340
▁tebol	-3341
atutrpz	-3342
iklapwz	-3343
kaipzkr	-3344
mwelrng	-3345
▁Melzmc	-3346
▁Nzikla	-3347
▁Nzyrlq	-3348
▁Telena	-3349
▁Tomson	-3350
▁Trgalr	-3351
▁Trlaki	-3352
▁Tulzgi	-3353
▁Tznbol	-3354
▁Vztrkr	-3355
▁Yabzkr	-3356
▁Ycbepq	-3357
▁Yrbqoa	-3358
▁Yrngao	-3359
▁Yrpusz	-3360
▁Yzutrx	-3361
▁aglqpz	-3362
▁akiokr	-3363
▁angidr	-3364
▁bisket	-3365
▁blaopu	-3366
▁brtitx	-3367
▁bzpekr	-3368
▁dabukr	-3369
▁drlzde	-3370
▁drtwrm	-3371
▁dwaplr	-3372
▁dzbedr	-3373
▁dzbrde	-3374
▁gzpman	-3375
▁kapxmc	-3376
▁katkis	-3377
▁kcmiti	-3378
▁kcngpe	-3379
▁kqlupe	-3380
▁kqlutx	-3381
▁kqtitx	-3382
▁krlcde	-3383
▁krlzle	-3384
▁krlztx	-3385
▁krnedr	-3386
▁krscdr	-3387
▁kumara	-3388
▁kxbqng	-3389
▁kxmule	-3390
▁kxnzng	-3391
▁kxyrlz	-3392
▁kztede	-3393
▁kztegr	-3394
▁litxtr	-3395
▁matxbz	-3396
▁mclrgr	-3397
▁mclrla	-3398
▁mclxle	-3399
ibiz	-3400
▁...	-3401
▁Asd	-3402
▁esa	-3403
▁1915	-3404
▁vcmc	-3405
avzmle	-3406
kxenga	-3407
▁Edwin	-3408
▁Maluu	-3409
▁Nabzn	-3410
▁Yrlzx	-3411
▁mcomq	-3412
▁mibiz	-3413
▁prckr	-3414
▁trdou	-3415
etrtxkr	-3416
▁Mwelea	-3417
▁Nzpipx	-3418
▁Zbqkra	-3419
▁dzbrdr	-3420
▁mclzkr	-3421
▁mcpzkr	-3422
▁melrmq	-3423
▁mncpex	-3424
▁mqngrm	-3425
▁mrbrpe	-3426
▁mrbrtx	-3427
▁mrkcpe	-3428
▁mrlzpe	-3429
▁mrtupe	-3430
▁mztupe	-3431
▁nabzdr	-3432
▁nabzng	-3433
▁nabztr	-3434
▁nadrvr	-3435
▁nakatx	-3436
▁nakrka	-3437
▁nakrlz	-3438
▁namckr	-3439
▁namcle	-3440
▁namclx	-3441
▁namrbr	-3442
▁nanibq	-3443
▁naokla	-3444
▁napeti	-3445
▁napipx	-3446
▁napitr	-3447
▁naprom	-3448
▁narnge	-3449
▁narpnz	-3450
▁natqdr	-3451
▁natqgr	-3452
▁natrka	-3453
▁navope	-3454
▁navzbz	-3455
▁navzki	-3456
▁navzpx	-3457
▁navztx	-3458
▁nawzpe	-3459
▁naycpq	-3460
▁nayrlz	-3461
▁negung	-3462
▁netxpx	-3463
▁nibqti	-3464
▁nrlade	-3465
▁nrlanc	-3466
▁nyznge	-3467
▁nzamnq	-3468
▁nzaobq	-3469
▁nzdwao	-3470
▁nzkalz	-3471
▁nzkqle	-3472
▁nzlala	-3473
▁nzleka	-3474
▁nzling	-3475
▁nzmabr	-3476
▁nzmcpx	-3477
▁nzmctr	-3478
▁nzmznr	-3479
▁nzrmnq	-3480
▁nzrpla	-3481
▁nzrplx	-3482
▁nzrpna	-3483
▁nzsuti	-3484
▁nztabr	-3485
▁nztqng	-3486
▁nzvolr	-3487
▁nzvong	-3488
▁nzvzmi	-3489
▁nzvzng	-3490
▁nzwrkx	-3491
▁nzwzti	-3492
▁nzwztr	-3493
▁nzyane	-3494
▁petikr	-3495
▁pistol	-3496
▁plante	-3497
▁rglqkr	-3498
▁rlwxkr	-3499
edmas	-3500
glxpe	-3501
rmnqu	-3502
▁Enre	-3503
▁Stan	-3504
▁Trau	-3505
▁Yolx	-3506
kelvzq	-3507
ngzpxm	-3508
nzmipc	-3509
tzrpna	-3510
▁Bwapc	-3511
▁Emily	-3512
▁Lvepx	-3513
▁Mancu	-3514
▁Pokia	-3515
▁Rlimz	-3516
▁asumi	-3517
▁bxpli	-3518
▁ncblc	-3519
▁rtclz	-3520
▁tonga	-3521
▁tqlux	-3522
▁tqpro	-3523
▁trscu	-3524
▁wisol	-3525
datrpwz	-3526
edmastz	-3527
kaipzng	-3528
lrmimle	-3529
▁Kzbzni	-3530
▁Maekol	-3531
▁Medrka	-3532
▁Merlve	-3533
▁Mrtutx	-3534
▁Nzyrbz	-3535
▁Primiz	-3536
▁Roklip	-3537
▁Rpwxmz	-3538
▁Satqde	-3539
▁Taepis	-3540
▁Tenaru	-3541
▁kansrl	-3542
▁kqomle	-3543
▁kxsqki	-3544
▁kxwzle	-3545
▁kxyzlo	-3546
▁nemung	-3547
▁nrpqde	-3548
▁nzbrlc	-3549
▁nzbxli	-3550
▁rnipex	-3551
▁rtangr	-3552
▁rtrngr	-3553
▁rtwztx	-3554
▁ryapwx	-3555
▁sezman	-3556
▁srlrni	-3557
▁sutitx	-3558
▁takitr	-3559
▁tatxpx	-3560
▁tqalvc	-3561
▁tqaokz	-3562
▁tqbrlx	-3563
▁tqdcpe	-3564
▁tqdopx	-3565
▁tqdotr	-3566
▁tqkqle	-3567
▁tqkrlz	-3568
▁tqlawi	-3569
▁tqlipe	-3570
▁tqmibi	-3571
▁tqmrbr	-3572
▁tqmrtu	-3573
▁tqmukr	-3574
▁tqmupe	-3575
▁tqoliq	-3576
▁tqpibo	-3577
▁tqrpnu	-3578
▁tqrpnz	-3579
▁tqtwzx	-3580
▁tqvomi	-3581
▁tqvzbo	-3582
▁tqvzbz	-3583
▁tqvzmi	-3584
▁tqvzne	-3585
▁tqvztr	-3586
▁tqvztx	-3587
▁tqxngi	-3588
▁tqxpex	-3589
▁tqxplr	-3590
▁tqycom	-3591
▁trkaku	-3592
▁trlaki	-3593
▁trloka	-3594
▁trmatq	-3595
▁trngiu	-3596
▁trnzpi	-3597
▁tropxu	-3598
▁trrpwa	-3599
sonare	-3600
▁Ivaio	-3601
▁Lxede	-3602
▁Taglc	-3603
▁navex	-3604
▁nznur	-3605
lilvcne	-3606
lolvzpe	-3607
lxplztx	-3608
▁Aveati	-3609
▁Brenda	-3610
▁Isabel	-3611
▁Iwongr	-3612
▁Lapuro	-3613
▁Novebz	-3614
▁Stibad	-3615
▁aglrkr	-3616
▁bingar	-3617
▁mrgekr	-3618
▁rkatxm	-3619
▁trlipu	-3620
▁trsuka	-3621
▁trtqvz	-3622
▁trvzou	-3623
▁tulzmc	-3624
▁tutipx	-3625
▁tutrng	-3626
▁tutrpq	-3627
▁tutrpz	-3628
▁tzakya	-3629
▁tzkabz	-3630
▁tzkapu	-3631
▁tzmcpx	-3632
▁tzmupe	-3633
▁tzpipe	-3634
▁tzprtr	-3635
▁tzpxyq	-3636
▁tzrpnz	-3637
▁tztave	-3638
▁tztekq	-3639
▁tztulr	-3640
▁tzvope	-3641
▁tzwrkx	-3642
▁tzwzng	-3643
▁tzyrpa	-3644
▁vomikr	-3645
▁vznekr	-3646
▁vztrpz	-3647
▁vztxpe	-3648
▁waipnz	-3649
▁wxbupx	-3650
▁yaluli	-3651
▁yapxkr	-3652
▁yctxbz	-3653
▁yrlqtr	-3654
▁yrpupe	-3655
▁yrvitx	-3656
▁yzlumc	-3657
▁yzutrx	-3658
▁zpwxtx	-3659
aglqbzlr	-3660
aglqpekr	-3661
akxlrngr	-3662
alvzting	-3663
alvztrng	-3664
amingrti	-3665
ebirpeng	-3666
hurchill	-3667
ipqpxngr	-3668
katrpqlr	-3669
kilzmclr	-3670
kipxlele	-3671
kititrlr	-3672
kqopqleu	-3673
kqtiongr	-3674
likitxpx	-3675
mipebzlr	-3676
mrbrtrlr	-3677
mukxtrtx	-3678
mznrpele	-3679
nangipeu	-3680
ngaletio	-3681
ngqbangr	-3682
ngrlxope	-3683
ngrmlrle	-3684
ngrngatx	-3685
ngrpwzkr	-3686
nrbalqbo	-3687
olvzbzlr	-3688
plrkqtuu	-3689
putipxpe	-3690
rlrupeng	-3691
rlxtimlr	-3692
titrpwzu	-3693
trpeleng	-3694
twzlrpwz	-3695
txpxbzle	-3696
venoklck	-3697
zliopekr	-3698
zlwzpele	-3699
▁Lalztq	-3700
▁blxget	-3701
ayrkrpxx	-3702
zpwxbzkr	-3703
zpwxmamu	-3704
▁Abrtztx	-3705
▁Aglikan	-3706
▁Alvztrx	-3707
▁Asdikon	-3708
▁Awitxbo	-3709
▁Bongavz	-3710
▁Bungana	-3711
▁Drtwrdr	-3712
▁Drtwrgr	-3713
▁Fredrik	-3714
▁Gresosa	-3715
▁Imanuel	-3716
▁Ipqpebo	-3717
▁Katerin	-3718
▁Kennedy	-3719
▁Kopuria	-3720
▁Krlzmle	-3721
▁Kxakrlz	-3722
▁Kxnzetu	-3723
▁Leonard	-3724
▁Meamupa	-3725
▁Menrlwz	-3726
▁Mepapna	-3727
▁Nabzlue	-3728
▁Naplosx	-3729
▁Nepwzli	-3730
▁Ngrlrkr	-3731
▁Nzadolz	-3732
▁Nzamcti	-3733
▁Nzmingr	-3734
▁Nzmncng	-3735
▁Nzrkalz	-3736
▁Nzrlalz	-3737
▁Nzrlxti	-3738
▁Nztwzlr	-3739
▁Nzveckr	-3740
▁Nzvecng	-3741
▁Nzyagox	-3742
▁Nzycngr	-3743
▁Pingalr	-3744
▁Pitxmle	-3745
▁Polykap	-3746
▁Prcpelz	-3747
▁Pripekt	-3748
▁Residen	-3749
▁Stanley	-3750
▁Tikopia	-3751
▁Tobaita	-3752
▁Tqrpibo	-3753
▁Tqyamgr	-3754
▁Tqyrkex	-3755
▁Trdwatr	-3756
▁Trmcwxu	-3757
▁Trtingr	-3758
▁Vanuatu	-3759
▁Xlrbzkr	-3760
▁Yrlztix	-3761
▁abrtrpo	-3762
▁aelwapx	-3763
▁amrlxpe	-3764
▁aolvzbz	-3765
▁apqtrle	-3766
▁belenga	-3767
▁boksing	-3768
▁bxpizpx	-3769
▁bztxpnz	-3770
▁drtqnge	-3771
▁dwasxpx	-3772
▁ekqtxkr	-3773
▁emwrngr	-3774
▁haosboe	-3775
▁kaomamu	-3776
▁krlzmgr	-3777
▁krnyzdr	-3778
▁kxakrlz	-3779
▁kxngrlx	-3780
▁leuwaga	-3781
▁lrtzlvz	-3782
▁mailzle	-3783
▁mqngrde	-3784
▁mrbrlzm	-3785
▁mrbrpxm	-3786
▁mrnyzdr	-3787
▁myaszpx	-3788
▁mzlenge	-3789
▁mzlweng	-3790
▁nabomlr	-3791
▁nangqdr	-3792
▁nangqkr	-3793
▁nanycde	-3794
▁naomimc	-3795
▁narncbr	-3796
▁nartwzm	-3797
▁naryakr	-3798
▁naryzkr	-3799
▁natwzle	-3800
▁navzmgr	-3801
▁navzngr	-3802
▁nayapwx	-3803
▁naycngr	-3804
▁ngrlrkr	-3805
▁nrlargr	-3806
▁nzabrtr	-3807
▁nzabzpx	-3808
▁nzadcpx	-3809
▁nzaelwa	-3810
▁nzalebz	-3811
▁nzalelr	-3812
▁nzapqtr	-3813
▁nzaprpx	-3814
▁nzapusr	-3815
▁nzasung	-3816
▁nzataki	-3817
▁nzdwatr	-3818
▁nzglqlz	-3819
▁nzglrpe	-3820
▁nzglxpe	-3821
▁nzmitin	-3822
▁nzmnclr	-3823
▁nzmneti	-3824
▁nzmwipe	-3825
▁nzngikr	-3826
▁nznurde	-3827
▁nzotilr	-3828
▁nzotipe	-3829
▁nzplzpx	-3830
▁nzrkabz	-3831
▁nzrlasz	-3832
▁nzrlxti	-3833
▁nzrmale	-3834
▁nzsiklu	-3835
▁nzteslr	-3836
▁nztulzm	-3837
▁nztungr	-3838
▁nzveckr	-3839
▁nzvzngr	-3840
▁nzxlrbz	-3841
▁nzxpepx	-3842
▁nzyagox	-3843
▁nzyrlwr	-3844
▁nzyrpuo	-3845
▁obqkimc	-3846
▁odatitx	-3847
▁oszbzle	-3848
▁otibzle	-3849
▁otitxne	-3850
▁plastik	-3851
▁plctitx	-3852
▁plrkqtu	-3853
▁pnatikr	-3854
▁rkatrpq	-3855
▁rkqtxkr	-3856
▁rlilrdr	-3857
▁rlilrmu	-3858
▁rmctile	-3859
▁rpitrpq	-3860
▁rtqlrdr	-3861
▁rtqlrgr	-3862
▁skulboe	-3863
▁topwzne	-3864
▁tqablzo	-3865
▁tqabrtz	-3866
▁tqalekr	-3867
▁tqamrbr	-3868
▁tqamrlz	-3869
▁tqawrkx	-3870
▁tqdcpxm	-3871
▁tqlxlvr	-3872
▁tqmeipe	-3873
▁tqmeipx	-3874
▁tqmrlzx	-3875
▁tqmwelr	-3876
▁tqnepex	-3877
▁tqngilo	-3878
▁tqngrli	-3879
▁tqopxpe	-3880
▁tqpoope	-3881
▁tqrkabz	-3882
▁tqrkalz	-3883
▁tqrlrpe	-3884
▁tqrpibo	-3885
▁tqrpirn	-3886
▁tqrtqmz	-3887
▁tqrwzso	-3888
▁tqtingr	-3889
▁tqtupxm	-3890
▁tqtwzle	-3891
▁tqtwzpe	-3892
▁tqvongr	-3893
▁tqvopex	-3894
▁tqvopwz	-3895
▁tqyangr	-3896
▁tqycngr	-3897
▁trmcleu	-3898
▁trmncne	-3899
▁trnzayo	-3900
▁trsutiu	-3901
▁trtupeu	-3902
▁trvzkru	-3903
▁trvzkzu	-3904
▁trwzpeu	-3905
▁tryclvz	-3906
▁tryrpla	-3907
▁tunepwz	-3908
▁tutxpwz	-3909
▁tutxpxm	-3910
▁twztrkr	-3911
▁twztrle	-3912
▁twztxpo	-3913
▁tzapulr	-3914
▁tzayoti	-3915
▁tzayrni	-3916
▁tzayzlu	-3917
▁tzetung	-3918
▁tzkamlr	-3919
▁tzkukir	-3920
▁tzmcngr	-3921
▁tzmncng	-3922
▁tzmncpe	-3923
▁tzodutr	-3924
▁tzpnati	-3925
▁tzpresi	-3926
▁tzrpibz	-3927
▁tzwaisz	-3928
▁tzycmne	-3929
▁veakapq	-3930
▁veamrlz	-3931
▁vzkimle	-3932
▁vzobzle	-3933
▁vztrngr	-3934
▁xlrbole	-3935
▁xlrkrle	-3936
▁xlrlele	-3937
▁yagoxtx	-3938
▁yapilwz	-3939
▁ycmnepe	-3940
▁yrkrtxo	-3941
▁yrlwrpx	-3942
▁yrlztix	-3943
▁yzlumgr	-3944
▁yzprlzm	-3945
▁zbqkxtr	-3946
▁zbrlxkz	-3947
abrtztxpo	-3948
aelwatibz	-3949
aenzlimgr	-3950
alzupwzlr	-3951
angidrpex	-3952
angidrxng	-3953
aolvzpwzu	-3954
krlzpwzkr	-3955
krmopwqkr	-3956
lelvzpelr	-3957
lxblrbzle	-3958
lxblrbzlr	-3959
lxblrpeng	-3960
lxngitikr	-3961
netrpemgr	-3962
netrpexng	-3963
ngcpebzlr	-3964
ngrpebzlr	-3965
ngrpwzleu	-3966
ngrtipekr	-3967
ngrtxbzle	-3968
nqblqnene	-3969
nqblqpelr	-3970
titrpemle	-3971
trpengrkr	-3972
twztimqng	-3973
vrminemle	-3974
yrkrpxpou	-3975
zpwxpekru	-3976
▁Alvztrle	-3977
▁Alvztrtx	-3978
▁Bwrnebwr	-3979
▁Dwalzmgr	-3980
▁Dwaobzkr	-3981
▁Inaoxngr	-3982
▁Kirakira	-3983
▁Komisina	-3984
▁Krlcdeng	-3985
▁Krlzbzkr	-3986
▁Krlzbzle	-3987
▁Kxaonrwx	-3988
▁Kzpznizm	-3989
▁Luekxpiz	-3990
▁Menckzpo	-3991
▁Mznzmipc	-3992
▁Namznrpe	-3993
▁Navobzkr	-3994
▁Nrlckxbq	-3995
▁Nzalvztr	-3996
▁Nzdwalzm	-3997
▁Nzmcpxlr	-3998
▁Nzmncngr	-3999
▁Nzoliqti	-4000
▁Nzpibzlr	-4001
▁Nzrtangr	-4002
▁Nzvomqng	-4003
▁Nzvztrng	-4004
▁Nzxpepem	-4005
▁Oliqlzkr	-4006
▁Olvxtile	-4007
▁Parapolo	-4008
▁Prtzting	-4009
▁Rlxngiti	-4010
▁Rpiobzle	-4011
▁Sikaiana	-4012
▁Telenapo	-4013
▁Tzycmnem	-4014
▁Vanikoro	-4015
▁Vopxbzkr	-4016
▁Vzpxbzkr	-4017
▁Wztitxkr	-4018
▁Wztitxpo	-4019
▁Yrbqoamu	-4020
▁Yrkrbzkr	-4021
▁Yrlqbzle	-4022
▁Yzlumitx	-4023
▁Yzlutxpe	-4024
▁Yzutrpnz	-4025
▁angctikr	-4026
▁angidati	-4027
▁atulzngr	-4028
▁ayrplapx	-4029
▁ayzlumle	-4030
▁bztipede	-4031
▁dckrlzde	-4032
▁drlzdrng	-4033
▁dwalzmgr	-4034
▁elalztxm	-4035
▁glqlzmle	-4036
▁glqtxole	-4037
▁inyxdeng	-4038
▁kaputrpq	-4039
▁katitxpx	-4040
▁kilznede	-4041
▁kqlepele	-4042
▁kqlutxpe	-4043
▁krlzbzkr	-4044
▁krlzlzbo	-4045
▁krlzpebo	-4046
▁krlzpekr	-4047
▁kxalvztr	-4048
▁kxaonrwx	-4049
▁kxnzkqlu	-4050
▁kztedeng	-4051
▁makxpele	-4052
▁masingan	-4053
▁matinetr	-4054
▁matqnepx	-4055
▁mctrpzle	-4056
▁mncpwzkr	-4057
▁mrvrtipe	-4058
▁mulzpekr	-4059
▁naatwzlr	-4060
▁nakabzkr	-4061
▁nakqtxom	-4062
▁namncpwz	-4063
▁namupeku	-4064
▁namwingr	-4065
▁naokatrx	-4066
▁napibzkr	-4067
▁napinemc	-4068
▁napitxpo	-4069
▁napitxtr	-4070
▁naprtzlr	-4071
▁narbingr	-4072
▁narlapxq	-4073
▁natwzpex	-4074
▁navopekr	-4075
▁navzbzkr	-4076
▁navzbzng	-4077
▁navzdzkr	-4078
▁navzpelr	-4079
▁nrkrdrtq	-4080
▁nutitxkr	-4081
▁nzabzokr	-4082
▁nzabzong	-4083
▁nzangcti	-4084
▁nzapxngr	-4085
▁nzatolwa	-4086
▁nzawitxm	-4087
▁nzdwaope	-4088
▁nzglqolr	-4089
▁nzkatxpe	-4090
▁nzkatxpx	-4091
▁nzkqtuti	-4092
▁nzkrlzlr	-4093
▁nzkuking	-4094
▁nzlalztq	-4095
▁nzmcomlr	-4096
▁nzmncngr	-4097
▁nzmnctrp	-4098
▁nzmqlrpi	-4099
▁nzmrlzkr	-4100
▁nzmwingr	-4101
▁nzmwipxm	-4102
▁nznepeng	-4103
▁nzoliqkr	-4104
▁nzolvxti	-4105
▁nzotrngr	-4106
▁nzpctikr	-4107
▁nzprtrng	-4108
▁nzpwrngr	-4109
▁nzrbomkr	-4110
▁nzrkzngr	-4111
▁nzrlzngr	-4112
▁nzrmangr	-4113
▁nzrngisc	-4114
▁nzrpimlr	-4115
▁nzrpzngr	-4116
▁nzrvingr	-4117
▁nzryapwx	-4118
▁nzsutipe	-4119
▁nztavelr	-4120
▁nztavetr	-4121
▁nztekqtr	-4122
▁nzvzdzpe	-4123
▁nzvzmqng	-4124
▁nzvzpeng	-4125
▁nzxlrmlr	-4126
▁nzxpengr	-4127
▁nzxplrkr	-4128
▁nzyrlekr	-4129
▁nzyrleti	-4130
▁nzyrlqbz	-4131
▁nzyrlzng	-4132
▁pawitxne	-4133
▁presiden	-4134
▁pwrkilvc	-4135
▁rglqpxkr	-4136
▁rlxngiti	-4137
▁stoakipz	-4138
▁tqaclvex	-4139
▁tqalepeq	-4140
▁tqalvctr	-4141
▁tqamaope	-4142
▁tqayzutr	-4143
▁tqdolapx	-4144
▁tqdotrbe	-4145
▁tqkabzkr	-4146
▁tqkapebo	-4147
▁tqkukipe	-4148
▁tqmcpekr	-4149
▁tqmcpele	-4150
▁tqmeitio	-4151
▁tqmncpex	-4152
▁tqmrlzpe	-4153
▁tqmwipex	-4154
▁tqmznrpe	-4155
▁tqolvxti	-4156
▁tqopilvz	-4157
▁tqoszpex	-4158
▁tqpibzkr	-4159
▁tqpipebz	-4160
▁tqrlxplz	-4161
▁tqrpimle	-4162
▁tqrpipex	-4163
▁tqrtangr	-4164
▁tqrtrngr	-4165
▁tqryrnge	-4166
▁tqtatipe	-4167
▁tqtrkami	-4168
▁tqtrkape	-4169
▁tqtutrpq	-4170
▁tqveapem	-4171
▁tqvolzpe	-4172
▁tqvopxpe	-4173
▁tqvzbzkr	-4174
▁tqvzdzpe	-4175
▁tqvznekr	-4176
▁tqvzopex	-4177
▁tqvzpebo	-4178
▁tqvzpebz	-4179
▁tqvzpxpe	-4180
▁tqwaipex	-4181
▁tqwrkxtr	-4182
▁tqxlrpex	-4183
▁tqycongr	-4184
▁tqyrwilx	-4185
▁tqyzlumi	-4186
▁tqyzprlz	-4187
▁traolvzu	-4188
▁trkrlebq	-4189
▁trnipgru	-4190
▁trnzkqlu	-4191
▁trpaswxu	-4192
▁trtegrng	-4193
▁trtzrpna	-4194
▁tryrkrpx	-4195
▁tzatwzlr	-4196
▁tzkatxpe	-4197
▁tzkrlzpe	-4198
▁tzkuking	-4199
▁tztavetr	-4200
▁tztwzmlr	-4201
▁tzvzbeng	-4202
▁tzycmnem	-4203
▁tzyzlupe	-4204
▁vecomamu	-4205
▁xpetixng	-4206
▁yrkrpxbo	-4207
▁yrlqbzkr	-4208
▁yrlqtxbo	-4209
▁yrlztile	-4210
aenzlitxki	-4211
kapqpxpeng	-4212
krpepwqgru	-4213
ngalelvzkr	-4214
ngrlvznedr	-4215
nrbalqnekr	-4216
▁Ayzlubzle	-4217
▁Diksonare	-4218
▁Dwatrpzkr	-4219
▁Kranzlvqn	-4220
▁Kxnzakrlz	-4221
▁Lcsukxlvc	-4222
▁Manyzdeng	-4223
▁Mnctiomgr	-4224
▁Mweitange	-4225
▁Nartwzobz	-4226
▁Nrzkakrbz	-4227
▁Nzabrtztx	-4228
▁Nzamukxtr	-4229
▁Nzapresin	-4230
▁Nzatrkati	-4231
▁Nzkalzmlr	-4232
▁Nzkapxmlr	-4233
▁Nzmwxlrng	-4234
▁Nzngrlrpx	-4235
▁Nzobqbzng	-4236
▁Nzobqpxbz	-4237
▁Nzrpibzlr	-4238
▁Nzveaneng	-4239
▁Nzycmnekr	-4240
▁Pokiabzkr	-4241
▁Rmikatxkr	-4242
▁Testimcne	-4243
▁Tqobqnene	-4244
▁Tqvongrgr	-4245
▁Trkrlzwxu	-4246
▁Trnzsiklu	-4247
▁Yolxomamu	-4248
▁aclvebzle	-4249
▁amukxtrtx	-4250
▁asumipebo	-4251
▁atrkatitx	-4252
▁atubxlzle	-4253
▁atulztxkr	-4254
▁atutrpele	-4255
▁ayamemcle	-4256
▁ayzprtilz	-4257
▁bxplitipe	-4258
▁bxtrtxpwz	-4259
▁bzprlzpem	-4260
▁dcplxtipe	-4261
▁dwamitxtr	-4262
▁esablqpxm	-4263
▁glrtipeng	-4264
▁katxlzmle	-4265
▁kctitxpxx	-4266
▁kranzlvqn	-4267
▁kxetuting	-4268
▁kxmyapxbz	-4269
▁kxnzetung	-4270
▁kxrtekqtr	-4271
▁kxtrmrlzu	-4272
▁kztengeng	-4273
▁mangrkxnz	-4274
▁manyzdeng	-4275
▁mnqtipele	-4276
▁mrlzvxitx	-4277
▁naaglqamu	-4278
▁naalvztrx	-4279
▁nadotxopq	-4280
▁nadwapekr	-4281
▁nadwatitx	-4282
▁nadwatrkr	-4283
▁nangelubo	-4284
▁nangelune	-4285
▁nangqnamu	-4286
▁napilvzti	-4287
▁narlalzkr	-4288
▁narlxtibo	-4289
▁narlxtitx	-4290
▁natwzbzlr	-4291
▁nayagoxng	-4292
▁nayctipxm	-4293
▁nayzutrpe	-4294
▁nzaelwapx	-4295
▁nzalvzngr	-4296
▁nzamukxtr	-4297
▁nzatrkati	-4298
▁nzatubqti	-4299
▁nzayonepe	-4300
▁nzblqking	-4301
▁nzdwaongr	-4302
▁nzdwaszbz	-4303
▁nzdwaszdr	-4304
▁nziklapwz	-4305
▁nzkrlzmlr	-4306
▁nzlxngiti	-4307
▁nzlxplztx	-4308
▁nzmeitrpz	-4309
▁nzmncpeng	-4310
▁nzmrgengr	-4311
▁nzmwelrng	-4312
▁nzokatrkr	-4313
▁nzokatrpe	-4314
▁nzoliqngr	-4315
▁nzotrpzng	-4316
▁nzpnatilr	-4317
▁nzpnutitx	-4318
▁nzpnzbzlr	-4319
▁nzrlimzng	-4320
▁nzrmusrti	-4321
▁nzrtekqtr	-4322
▁nzrtwzngr	-4323
▁nztelvzlr	-4324
▁nzvzkiolr	-4325
▁nzvzkiope	-4326
▁nzycblqng	-4327
▁nzyrlzngr	-4328
▁planteson	-4329
▁pnatibzkr	-4330
▁rkalzmqgr	-4331
▁rmctipekr	-4332
▁rnzlvzole	-4333
▁sekondzre	-4334
▁taplxsrgr	-4335
▁tcprtrngr	-4336
▁testimcne	-4337
▁tqabcnene	-4338
▁tqamukxtr	-4339
▁tqasupebz	-4340
▁tqawipebo	-4341
▁tqayrnipe	-4342
▁tqdotrpex	-4343
▁tqdwapxpe	-4344
▁tqdwatrpe	-4345
▁tqelapebz	-4346
▁tqlolvzpe	-4347
▁tqlxngiti	-4348
▁tqmctiamu	-4349
▁tqmncpeku	-4350
▁tqmnctikr	-4351
▁tqmwipekr	-4352
▁tqmwitxpe	-4353
▁tqngcneom	-4354
▁tqngqnamu	-4355
▁tqobqtrpe	-4356
▁tqplrkqtu	-4357
▁tqprkilzm	-4358
▁tqrkqtipe	-4359
▁tqrpibzle	-4360
▁tqryrpebz	-4361
▁tqsiklube	-4362
▁tqtopwzbe	-4363
▁tqtrkangr	-4364
▁tqtunepwz	-4365
▁tqveapebz	-4366
▁tqvzopekr	-4367
▁tqvzpemgr	-4368
▁tqwaipele	-4369
▁tqwxbupxm	-4370
▁tqwztrbex	-4371
▁tqxlrpekr	-4372
▁tqyagoxpe	-4373
▁tqyrlwrpx	-4374
▁trkrlzkru	-4375
▁trkrlzleu	-4376
▁trkrlzwxu	-4377
▁trmalewxu	-4378
▁trtakitru	-4379
▁trtqwzpeu	-4380
▁trvzpxpwq	-4381
▁trwzpeleu	-4382
▁tzaelwati	-4383
▁tzangiolr	-4384
▁tzangrlvz	-4385
▁tzlvcmqng	-4386
▁tzmctxpwz	-4387
▁tzmwelrng	-4388
▁tzngrlrlz	-4389
▁tzrpipelr	-4390
▁tzryzkrng	-4391
▁tzsiklupx	-4392
▁tzsikluti	-4393
▁tztwznedr	-4394
▁tzveatipe	-4395
▁tzvecpeng	-4396
▁tzveopebz	-4397
▁tzxpetrpq	-4398
▁tzycpengr	-4399
▁vzkipemle	-4400
▁wztxpwzkr	-4401
▁ycpqtxpxx	-4402
▁yctrpengr	-4403
aenzlipwzlr	-4404
ayrplapxxng	-4405
lalvztipelr	-4406
lxlrtxpwzmu	-4407
lxngitikalr	-4408
rlxngitingr	-4409
▁Aglqtrpqgr	-4410
▁Kcoporetiv	-4411
▁Mnctxpwzkr	-4412
▁Nabakxenga	-4413
▁Nzabrtzngr	-4414
▁Nzdwatxcng	-4415
▁Nzrkatxngr	-4416
▁Nzrmnqtxng	-4417
▁Nzrpilzngr	-4418
▁Nzrtekangr	-4419
▁Nzsiklungr	-4420
▁Nzveclzmlr	-4421
▁Nzycmnengr	-4422
▁Prtztxbzkr	-4423
▁Sekaentxkr	-4424
▁Sevenoklck	-4425
▁Tqyrkelvzx	-4426
▁Trkrlzwamu	-4427
▁Tryrnipewq	-4428
▁amnqtxtrpo	-4429
▁ataplxsrle	-4430
▁drtwrngele	-4431
▁krlzlzbzkr	-4432
▁kxnzaonrwx	-4433
▁kxyrngzpxm	-4434
▁kzporapekr	-4435
▁lxlvrkimle	-4436
▁melrmqdrng	-4437
▁mrbrtitrpe	-4438
▁nabzkxtrng	-4439
▁nabzmipele	-4440
▁naipqpxngr	-4441
▁nakatxbzle	-4442
▁namrbrtitr	-4443
▁nangelungr	-4444
▁nangininge	-4445
▁naobqlvzti	-4446
▁naoklatitr	-4447
▁narbompeng	-4448
▁narlxngiti	-4449
▁natekqtrle	-4450
▁netxpxpnzx	-4451
▁ngrlrmimle	-4452
▁ngrlxobzle	-4453
▁nzaclvengr	-4454
▁nzalvzting	-4455
▁nzalvztrlr	-4456
▁nzarlapxkr	-4457
▁nzayrlwrpx	-4458
▁nzayrplapx	-4459
▁nzdwatrngr	-4460
▁nzglqlzmlr	-4461
▁nzglqpxmlr	-4462
▁nzglqtrpem	-4463
▁nzkctitxpx	-4464
▁nzkqlupeng	-4465
▁nzkrlztrpz	-4466
▁nzlalatikr	-4467
▁nzmalebzlr	-4468
▁nzngqbangr	-4469
▁nzokatrngr	-4470
▁nzpibzlrle	-4471
▁nzrnibqngr	-4472
▁nzrpilzmlr	-4473
▁nzrpilzngr	-4474
▁nzrtangrti	-4475
▁nzrtcolzbq	-4476
▁nzrtekangr	-4477
▁nzryrtingr	-4478
▁nztamititr	-4479
▁nztavetrlr	-4480
▁nzvzdzmqng	-4481
▁nzvzpxmqng	-4482
▁nzyrkrmqng	-4483
▁prngeitxbz	-4484
▁rblxtxpele	-4485
▁rlxngitile	-4486
▁rtrngrtiox	-4487
▁tqaenzlikr	-4488
▁tqaenzliti	-4489
▁tqaglqpekr	-4490
▁tqalilvcne	-4491
▁tqamqngitr	-4492
▁tqayagoxle	-4493
▁tqayrkrpex	-4494
▁tqayzutxtr	-4495
▁tqdwatimle	-4496
▁tqkaputrpe	-4497
▁tqlitrpebz	-4498
▁tqmctipekr	-4499
▁tqmwitxlzm	-4500
▁tqngrlxope	-4501
▁tqobqlzpex	-4502
▁tqrblxtile	-4503
▁tqrdatrpwz	-4504
▁tqrglqtikr	-4505
▁tqrmctipex	-4506
▁tqrtangrne	-4507
▁tqtutxpekr	-4508
▁tqvzkipxkr	-4509
▁tqvzpebzkr	-4510
▁tqvztrpebo	-4511
▁tqvztrpekr	-4512
▁tqyapxpebz	-4513
▁tqyapxpekr	-4514
▁tqyrkelvzq	-4515
▁tqyrkrpxpe	-4516
▁tqyrninepe	-4517
▁tqyzlumipe	-4518
▁tqyzlupemc	-4519
▁trkqopqleu	-4520
▁trmwipekru	-4521
▁trnangipeu	-4522
▁trnikapqle	-4523
▁trnzmnetiu	-4524
▁trplrkqtuu	-4525
▁trrblxpwzu	-4526
▁trtqdwaope	-4527
▁trtxpnzngr	-4528
▁tzalvztrng	-4529
▁tzatwzlrpe	-4530
▁tzaveatipe	-4531
▁tzglqtrpem	-4532
▁tzkaputrpe	-4533
▁tzmalebzlr	-4534
▁tzmnctxpwz	-4535
▁tzpipebzlr	-4536
▁tzpxyqbeng	-4537
▁tzrkalzpem	-4538
▁tzrlxngiti	-4539
▁tzrlxtimlr	-4540
▁tzrpipemlr	-4541
▁tzrtangrpe	-4542
▁tzrtctxngr	-4543
▁tzrtwzting	-4544
▁tzrtwztipe	-4545
▁tztavetrlr	-4546
▁tzvzkipxlr	-4547
▁tzxlropelr	-4548
▁tzyapxpeng	-4549
▁vzkipebzkr	-4550
▁ycmnekimle	-4551
▁ycpqtipekr	-4552
▁yrbutipeng	-4553
▁yrkrmitxpx	-4554
▁yrkrtxtrku	-4555
▁yrlqtxtrkr	-4556
▁yrplatrngr	-4557
ngalelvzpekr	-4558
yapwxtipemle	-4559
▁Drvrminemle	-4560
▁Nzalvztrngr	-4561
▁Nzryzutrngr	-4562
▁Omitxpxbzle	-4563
▁Takitrtxpwz	-4564
▁Trdwatrwamu	-4565
▁Trnanibqleu	-4566
▁Twzkipxlele	-4567
▁Ycmnetrpzkr	-4568
▁abrtztxpekr	-4569
▁kxnzakrlzng	-4570
▁kxnzrtekqtr	-4571
▁kxnzyagoxng	-4572
▁kxtopwzting	-4573
▁nadwaszpekr	-4574
▁nadwatrpzkr	-4575
▁nanginipegr	-4576
▁naokatrpqlr	-4577
▁naprtxpxpex	-4578
▁narlxtibzme	-4579
▁narlxtitxpo	-4580
▁narlxtrpzkr	-4581
▁natekqtrngr	-4582
▁nzakititrlr	-4583
▁nzaolvzbzlr	-4584
▁nzatwzlrpwz	-4585
▁nzbrkapxmlr	-4586
▁nzlutxpwzng	-4587
▁nzmctrpemlr	-4588
▁nzrmctinedr	-4589
▁nzrplameiti	-4590
▁nztekqtrngr	-4591
▁nzwrkxtrngr	-4592
▁nzxlrbzlrle	-4593
▁nzyrlwrmqng	-4594
▁sikaputxpwz	-4595
▁tqalvzpxpex	-4596
▁tqalvztrpex	-4597
▁tqamznrpele	-4598
▁tqatatrpele	-4599
▁tqawipebzkr	-4600
▁tqayrnipele	-4601
▁tqayzlupele	-4602
▁tqbxplcopem	-4603
▁tqdwatibzle	-4604
▁tqdwatrpekr	-4605
▁tqkaputrpem	-4606
▁tqlxlvrkipx	-4607
▁tqmwelrpekr	-4608
▁tqngrlrpekr	-4609
▁tqrlrpebzle	-4610
▁tqryapwxpem	-4611
▁tqtwzpebzle	-4612
▁tqvzkilzmle	-4613
▁tqyrkrpengr	-4614
▁tqyrplatrpe	-4615
▁trayzlupleu	-4616
▁trnzpresinu	-4617
▁tryclvzopeu	-4618
▁tzamrbrtrlr	-4619
▁tzawztrpelr	-4620
▁tzkukirpelr	-4621
▁tzmnctxpeng	-4622
▁tzpnatibzlr	-4623
▁tzpresinqng	-4624
▁tzrmctipelr	-4625
▁tztulrtrpem	-4626
▁tzyapwxtipe	-4627
▁tzycmnetrpe	-4628
▁yapilwztrpe	-4629
▁yrnineopebz	-4630
▁yrplabrtqpe	-4631
▁Nzrkalzmqngq	-4632
▁Nzrtekqtrngr	-4633
▁Nzrtwztimqng	-4634
▁Nzyrlqtrpzlr	-4635
▁Rtrngrtitrle	-4636
▁Tekatrtxbzle	-4637
▁Zbqkranzlvqn	-4638
▁kxngrlxobzle	-4639
▁kxnzalvzting	-4640
▁kxnzalvztrng	-4641
▁lvabetxpwzkr	-4642
▁nzabrtzlvzlr	-4643
▁nzalxngitikr	-4644
▁nzamnqlvzngr	-4645
▁nzlcapqbzngr	-4646
▁nzmnctipxmlr	-4647
▁nzmwibletilr	-4648
▁nzrtrngrtibz	-4649
▁nzrtrngrtitr	-4650
▁nztqlvztrngr	-4651
▁nzyangrngatx	-4652
▁tqdwalzpemgr	-4653
▁tqkakilzmclr	-4654
▁tqkqlepebzle	-4655
▁tqlawititxne	-4656
▁tqmnctxpwzkr	-4657
▁tqnginipenge	-4658
▁tqngrlrpxpem	-4659
▁tqotitrpemle	-4660
▁tqrkalzpemgr	-4661
▁tqryapwxpebz	-4662
▁tqvomitrpekr	-4663
▁tqvzkilzpekr	-4664
▁tqwxlikitxpx	-4665
▁tqycmnepeamu	-4666
▁tqyrkrkipxle	-4667
▁tqyrplatrngr	-4668
▁tqyrputipxpe	-4669
▁trayrkrpxpou	-4670
▁tzangcpebzlr	-4671
▁tzrpnztrpzng	-4672
▁tztavetrpelr	-4673
▁tztekqtrpeng	-4674
▁tzwrkxtrpeng	-4675
▁tzyamipebzlr	-4676
▁Nziklatxpwzng	-4677
▁Nzrtangrtingr	-4678
▁navzkitxpwzlr	-4679
▁nzangrlvznedr	-4680
▁nzbrlclvznepx	-4681
▁nzrlxkqtiongr	-4682
▁nzrlxngitingr	-4683
▁nzrtangrtingr	-4684
▁nzrtrngrtiolr	-4685
▁takitrtxpwzle	-4686
▁tqamrbrtrpele	-4687
▁tqatwzlrpemle	-4688
▁tqawrkxtrpele	-4689
▁tqngrlrpxpekr	-4690
▁tqrlxtipebzle	-4691
▁tqrtangrtipex	-4692
▁trayzlupxpleu	-4693
▁trnzaolvzpwzu	-4694
▁tzveatipebzlr	-4695
▁tzyrlwrtinebe	-4696
▁tqasiklupeleng	-4697
▁tqmncnetrpemgr	-4698
▁tqoliqtipebzle	-4699
▁tqrtrngrtibzme	-4700
▁tqvzmitrpeleng	-4701
▁tqyapwxtipemle	-4702
▁trnzayotipelru	-4703
▁tqalvznetrpexng	-4704
▁trnzlxngitikalr	-4705
▁tryrplatitrpwzu	-4706
▁tzyapwxtipebzlr	-4707
▁tzyrpalelvzpelr	-4708
!"	-4709
!”	-4710
."	-4711
.”	-4712
06	-4713
14	-4714
16	-4715
18	-4716
19	-4717
20	-4718
27	-4719
32	-4720
34	-4721
35	-4722
38	-4723
40	-4724
43	-4725
45	-4726
47	-4727
50	-4728
51	-4729
53	-4730
54	-4731
55	-4732
56	-4733
62	-4734
63	-4735
64	-4736
66	-4737
69	-4738
70	-4739
71	-4740
72	-4741
73	-4742
76	-4743
77	-4744
78	-4745
80	-4746
81	-4747
88	-4748
90	-4749
93	-4750
94	-4751
95	-4752
96	-4753
97	-4754
98	-4755
99	-4756
?"	-4757
?”	-4758
Ai	-4759
Ak	-4760
Al	-4761
Am	-4762
An	-4763
Ao	-4764
Ar	-4765
As	-4766
At	-4767
Au	-4768
Av	-4769
Aw	-4770
Ay	-4771
Ba	-4772
Be	-4773
Bi	-4774
Bl	-4775
Bo	-4776
Bu	-4777
Bw	-4778
Bz	-4779
Da	-4780
Dc	-4781
Di	-4782
Do	-4783
Dr	-4784
Dx	-4785
Dz	-4786
Ed	-4787
Ek	-4788
El	-4789
Em	-4790
Fi	-4791
Fo	-4792
Fr	-4793
Ga	-4794
Gc	-4795
Ge	-4796
Gr	-4797
Gw	-4798
Gz	-4799
02	-4800
04	-4801
05	-4802
07	-4803
08	-4804
09	-4805
10	-4806
12	-4807
17	-4808
21	-4809
23	-4810
24	-4811
28	-4812
29	-4813
30	-4814
36	-4815
37	-4816
49	-4817
58	-4818
75	-4819
91	-4820
92	-4821
Ik	-4822
Il	-4823
In	-4824
Ip	-4825
Is	-4826
Iw	-4827
Ja	-4828
Je	-4829
Ji	-4830
Jo	-4831
Ju	-4832
Ka	-4833
Kc	-4834
Ki	-4835
Kr	-4836
Kw	-4837
Kx	-4838
Kz	-4839
La	-4840
Lc	-4841
Le	-4842
Li	-4843
Lo	-4844
Lr	-4845
Lu	-4846
Lw	-4847
Lz	-4848
Ma	-4849
Mc	-4850
Me	-4851
Mi	-4852
Mn	-4853
Mo	-4854
Mq	-4855
Mr	-4856
Mu	-4857
Mw	-4858
My	-4859
Mz	-4860
Na	-4861
Nc	-4862
Ne	-4863
Ng	-4864
Ni	-4865
No	-4866
Nq	-4867
Nr	-4868
Nz	-4869
Ol	-4870
Om	-4871
Ot	-4872
Pa	-4873
Pi	-4874
Pr	-4875
Pu	-4876
Rb	-4877
Ri	-4878
Rl	-4879
Rp	-4880
Rt	-4881
SS	-4882
Sa	-4883
Sc	-4884
Se	-4885
Si	-4886
Sk	-4887
So	-4888
Sr	-4889
St	-4890
Su	-4891
Te	-4892
To	-4893
Tr	-4894
Tz	-4895
Va	-4896
Ve	-4897
Vo	-4898
Vx	-4899
26	-4900
33	-4901
39	-4902
44	-4903
48	-4904
52	-4905
60	-4906
61	-4907
65	-4908
67	-4909
68	-4910
74	-4911
82	-4912
89	-4913
Ab	-4914
Ag	-4915
Bq	-4916
Br	-4917
DO	-4918
Dw	-4919
En	-4920
Ep	-4921
Es	-4922
Eu	-4923
Im	-4924
It	-4925
Iv	-4926
Jz	-4927
Ke	-4928
Ko	-4929
Vz	-4930
We	-4931
Wi	-4932
Wz	-4933
Yc	-4934
Yi	-4935
Yr	-4936
Yz	-4937
Zb	-4938
Zy	-4939
aa	-4940
ab	-4941
ac	-4942
ad	-4943
ag	-4944
ai	-4945
ak	-4946
am	-4947
an	-4948
ap	-4949
aq	-4950
ar	-4951
as	-4952
at	-4953
au	-4954
av	-4955
aw	-4956
ay	-4957
bc	-4958
bl	-4959
bw	-4960
ca	-4961
cb	-4962
cd	-4963
cg	-4964
ck	-4965
cl	-4966
cm	-4967
cn	-4968
co	-4969
cp	-4970
cs	-4971
cv	-4972
cx	-4973
di	-4974
dl	-4975
dm	-4976
du	-4977
dw	-4978
eb	-4979
eg	-4980
ei	-4981
ek	-4982
eo	-4983
eq	-4984
et	-4985
eu	-4986
ev	-4987
ew	-4988
ex	-4989
ey	-4990
gl	-4991
gn	-4992
go	-4993
gq	-4994
ha	-4995
hi	-4996
ho	-4997
hu	-4998
id	-4999
Lv	-5000
Lx	-5001
Ny	-5002
Ob	-5003
Po	-5004
Pw	-5005
Re	-5006
Rk	-5007
Rm	-5008
Rn	-5009
Ro	-5010
Ta	-5011
Ti	-5012
Tq	-5013
Tu	-5014
Tw	-5015
Wu	-5016
Xl	-5017
Ya	-5018
Yo	-5019
Zm	-5020
ax	-5021
cu	-5022
cw	-5023
ez	-5024
gc	-5025
gp	-5026
ie	-5027
ig	-5028
ii	-5029
ij	-5030
iq	-5031
ir	-5032
it	-5033
iv	-5034
ix	-5035
ji	-5036
kl	-5037
ks	-5038
ky	-5039
ll	-5040
ln	-5041
ls	-5042
lt	-5043
lw	-5044
mg	-5045
mk	-5046
ml	-5047
mn	-5048
mp	-5049
ms	-5050
mw	-5051
my	-5052
nb	-5053
nd	-5054
nl	-5055
nn	-5056
no	-5057
nt	-5058
nw	-5059
ob	-5060
oe	-5061
og	-5062
oi	-5063
or	-5064
ot	-5065
ov	-5066
oz	-5067
ph	-5068
pl	-5069
pm	-5070
pn	-5071
pt	-5072
pw	-5073
py	-5074
qa	-5075
qb	-5076
qd	-5077
qe	-5078
qg	-5079
qk	-5080
ql	-5081
qm	-5082
qo	-5083
qp	-5084
qq	-5085
qr	-5086
qs	-5087
qt	-5088
qv	-5089
qw	-5090
qx	-5091
qy	-5092
rb	-5093
rc	-5094
rg	-5095
rk	-5096
rm	-5097
rp	-5098
rq	-5099
ci	-5100
lb	-5101
pg	-5102
qu	-5103
rr	-5104
rs	-5105
rv	-5106
rw	-5107
rx	-5108
ry	-5109
rz	-5110
sb	-5111
se	-5112
sk	-5113
sl	-5114
sp	-5115
st	-5116
sw	-5117
th	-5118
tk	-5119
tw	-5120
ub	-5121
ud	-5122
ug	-5123
uk	-5124
ul	-5125
un	-5126
up	-5127
ut	-5128
uu	-5129
uv	-5130
uw	-5131
ux	-5132
uz	-5133
vc	-5134
vq	-5135
xa	-5136
xb	-5137
xc	-5138
xd	-5139
xg	-5140
xk	-5141
xl	-5142
xm	-5143
xn	-5144
xo	-5145
xp	-5146
xq	-5147
xr	-5148
xs	-5149
xt	-5150
xu	-5151
xv	-5152
xw	-5153
xx	-5154
xy	-5155
ye	-5156
yi	-5157
yk	-5158
za	-5159
zb	-5160
zd	-5161
ze	-5162
zg	-5163
zi	-5164
zj	-5165
zk	-5166
zl	-5167
zm	-5168
zn	-5169
zo	-5170
zq	-5171
zr	-5172
zs	-5173
zt	-5174
zu	-5175
zv	-5176
zw	-5177
zx	-5178
zy	-5179
005	-5180
008	-5181
200	-5182
800	-5183
Aka	-5184
Blz	-5185
Fox	-5186
Gri	-5187
Ilo	-5188
Ilr	-5189
Ilz	-5190
Ina	-5191
Ing	-5192
Itu	-5193
Krl	-5194
Olv	-5195
Pwx	-5196
Rng	-5197
Rtq	-5198
Trl	-5199
Twz	-5200
Xlr	-5201
Zbz	-5202
ade	-5203
adr	-5204
ake	-5205
aki	-5206
akr	-5207
alu	-5208
amc	-5209
ami	-5210
amr	-5211
anc	-5212
ane	-5213
ang	-5214
ape	-5215
api	-5216
apx	-5217
arl	-5218
asi	-5219
asu	-5220
asz	-5221
atr	-5222
avo	-5223
bql	-5224
bre	-5225
bru	-5226
bza	-5227
bzb	-5228
bzp	-5229
cbr	-5230
cbz	-5231
cde	-5232
cdr	-5233
clq	-5234
clz	-5235
cmi	-5236
cne	-5237
cni	-5238
cte	-5239
ctq	-5240
ctu	-5241
dea	-5242
dek	-5243
del	-5244
dep	-5245
des	-5246
deu	-5247
dra	-5248
dri	-5249
drk	-5250
drl	-5251
drt	-5252
drv	-5253
dwi	-5254
ede	-5255
egr	-5256
eke	-5257
ekr	-5258
enc	-5259
eng	-5260
enq	-5261
enz	-5262
eom	-5263
epi	-5264
era	-5265
erl	-5266
eta	-5267
ete	-5268
etx	-5269
etz	-5270
ewz	-5271
gli	-5272
gne	-5273
gng	-5274
grm	-5275
ias	-5276
ide	-5277
ika	-5278
iki	-5279
ikr	-5280
ilx	-5281
imc	-5282
ing	-5283
ipe	-5284
ipu	-5285
ise	-5286
isi	-5287
iso	-5288
kab	-5289
kal	-5290
kim	-5291
kli	-5292
krb	-5293
krd	-5294
krg	-5295
krk	-5296
krl	-5297
krp	-5298
krt	-5299
agr	-5300
alr	-5301
cle	-5302
clr	-5303
drx	-5304
edr	-5305
ele	-5306
elr	-5307
ena	-5308
idr	-5309
igr	-5310
ile	-5311
ilr	-5312
kil	-5313
kza	-5314
lal	-5315
lap	-5316
leb	-5317
leg	-5318
lek	-5319
lel	-5320
lem	-5321
lep	-5322
let	-5323
lew	-5324
lik	-5325
lim	-5326
lio	-5327
lir	-5328
lit	-5329
lle	-5330
lqo	-5331
lrb	-5332
lrg	-5333
lrk	-5334
lrl	-5335
lrm	-5336
lrn	-5337
lro	-5338
lrp	-5339
lrt	-5340
lru	-5341
lrx	-5342
lub	-5343
lxg	-5344
lzg	-5345
mab	-5346
mco	-5347
mcp	-5348
mkr	-5349
mpe	-5350
nan	-5351
nao	-5352
ncx	-5353
ndr	-5354
neb	-5355
ned	-5356
nem	-5357
nep	-5358
ngl	-5359
ngp	-5360
nii	-5361
nle	-5362
nol	-5363
nte	-5364
nze	-5365
nzk	-5366
nzl	-5367
nzs	-5368
nzu	-5369
oba	-5370
ola	-5371
ond	-5372
ong	-5373
opr	-5374
opz	-5375
oro	-5376
otx	-5377
oup	-5378
pea	-5379
peb	-5380
peg	-5381
pek	-5382
pel	-5383
pep	-5384
pet	-5385
pew	-5386
pil	-5387
pim	-5388
pio	-5389
pip	-5390
ple	-5391
png	-5392
poo	-5393
prl	-5394
pur	-5395
pxb	-5396
qbe	-5397
qbq	-5398
qde	-5399
Abz	-5400
Lrl	-5401
Mrl	-5402
Ngr	-5403
Zbq	-5404
ael	-5405
anz	-5406
atq	-5407
bzk	-5408
bzl	-5409
bzm	-5410
bzn	-5411
bzt	-5412
cgr	-5413
epx	-5414
grg	-5415
grl	-5416
ibo	-5417
ibz	-5418
ine	-5419
itr	-5420
kae	-5421
lup	-5422
mrl	-5423
nqb	-5424
olz	-5425
pgr	-5426
pxp	-5427
qbz	-5428
qdr	-5429
qgr	-5430
qkr	-5431
qle	-5432
qlr	-5433
qmi	-5434
qmq	-5435
qna	-5436
qne	-5437
qng	-5438
qpe	-5439
qtr	-5440
qtu	-5441
qvo	-5442
qya	-5443
qyr	-5444
rbz	-5445
rdr	-5446
rgr	-5447
rik	-5448
rim	-5449
rkc	-5450
rkr	-5451
rkx	-5452
rlu	-5453
rlv	-5454
rmc	-5455
rmz	-5456
rnc	-5457
rne	-5458
rng	-5459
rni	-5460
ros	-5461
rpe	-5462
rpq	-5463
rpx	-5464
rti	-5465
rtq	-5466
rtx	-5467
rwx	-5468
rwz	-5469
ryz	-5470
sbo	-5471
sip	-5472
swx	-5473
szs	-5474
tab	-5475
tap	-5476
tav	-5477
tek	-5478
ten	-5479
ter	-5480
tia	-5481
tib	-5482
toa	-5483
tql	-5484
tqm	-5485
trb	-5486
tre	-5487
tri	-5488
trm	-5489
trt	-5490
tuk	-5491
tun	-5492
tuo	-5493
tuu	-5494
txp	-5495
ubz	-5496
ude	-5497
udr	-5498
uka	-5499
Prl	-5500
Rtr	-5501
Yrl	-5502
aio	-5503
brl	-5504
ctr	-5505
elo	-5506
iti	-5507
ivz	-5508
lil	-5509
nik	-5510
nne	-5511
ovz	-5512
pib	-5513
qnc	-5514
qvz	-5515
rlo	-5516
rlw	-5517
rtr	-5518
rvz	-5519
srl	-5520
str	-5521
trk	-5522
trw	-5523
ukr	-5524
ukx	-5525
ula	-5526
ule	-5527
uli	-5528
ulr	-5529
ung	-5530
upe	-5531
upq	-5532
url	-5533
usi	-5534
utc	-5535
ute	-5536
utx	-5537
uwa	-5538
vri	-5539
vzb	-5540
vzd	-5541
vzk	-5542
vzm	-5543
vzn	-5544
vzo	-5545
vzp	-5546
vzq	-5547
vzt	-5548
vzu	-5549
vzx	-5550
wag	-5551
wib	-5552
wxb	-5553
wzm	-5554
wzo	-5555
wzr	-5556
wzs	-5557
wzw	-5558
wzx	-5559
xbz	-5560
xde	-5561
xkq	-5562
xkr	-5563
xkz	-5564
xle	-5565
xli	-5566
xlo	-5567
xlv	-5568
xma	-5569
xmi	-5570
xne	-5571
xnz	-5572
xpx	-5573
xti	-5574
xtr	-5575
xtx	-5576
yag	-5577
ycb	-5578
yrl	-5579
yrn	-5580
yrp	-5581
yzg	-5582
zbz	-5583
zde	-5584
zdr	-5585
zgr	-5586
zkr	-5587
zle	-5588
zlr	-5589
zlu	-5590
zlz	-5591
zng	-5592
zpe	-5593
zpx	-5594
zpz	-5595
zre	-5596
zrl	-5597
zsi	-5598
ztq	-5599
Bwz	-5600
Ika	-5601
Ipq	-5602
Iwx	-5603
Oti	-5604
Sti	-5605
ati	-5606
awz	-5607
cpz	-5608
cti	-5609
ctx	-5610
eka	-5611
eti	-5612
kat	-5613
los	-5614
lvq	-5615
nka	-5616
ota	-5617
oti	-5618
otr	-5619
qki	-5620
qti	-5621
qwz	-5622
rae	-5623
rka	-5624
tel	-5625
til	-5626
tim	-5627
tin	-5628
tip	-5629
tit	-5630
tru	-5631
uri	-5632
uti	-5633
wae	-5634
wzb	-5635
wzk	-5636
wzl	-5637
wzn	-5638
wzt	-5639
wzu	-5640
yon	-5641
yrk	-5642
zti	-5643
ztr	-5644
ztx	-5645
zwz	-5646
zya	-5647
zyc	-5648
▁..	-5649
▁Ai	-5650
▁As	-5651
▁Ay	-5652
▁Br	-5653
▁Dw	-5654
▁Dx	-5655
▁Iv	-5656
▁Iw	-5657
▁Jo	-5658
▁Ki	-5659
▁Kw	-5660
▁Lv	-5661
▁Lw	-5662
▁Lz	-5663
▁Mi	-5664
▁Mn	-5665
▁Mo	-5666
▁Mu	-5667
▁Mw	-5668
▁My	-5669
▁Ny	-5670
▁Ri	-5671
▁Rl	-5672
▁Rm	-5673
▁Ro	-5674
▁Rp	-5675
▁Rt	-5676
▁SS	-5677
▁So	-5678
▁St	-5679
▁Ti	-5680
▁ab	-5681
▁ac	-5682
▁ag	-5683
▁ak	-5684
▁aw	-5685
▁bl	-5686
▁bw	-5687
▁do	-5688
▁dx	-5689
▁el	-5690
▁es	-5691
▁ki	-5692
▁kl	-5693
▁ko	-5694
▁ln	-5695
▁mi	-5696
▁mn	-5697
▁mo	-5698
▁mw	-5699
Epr	-5700
Olz	-5701
Rka	-5702
Rpi	-5703
aka	-5704
aon	-5705
ata	-5706
bet	-5707
kak	-5708
lai	-5709
lao	-5710
lsi	-5711
lxl	-5712
lxs	-5713
lzb	-5714
lzn	-5715
lzp	-5716
lzt	-5717
lzu	-5718
lzw	-5719
oph	-5720
opi	-5721
pir	-5722
pit	-5723
pix	-5724
qlz	-5725
rte	-5726
rya	-5727
sta	-5728
tqd	-5729
ulu	-5730
ulz	-5731
wrn	-5732
xka	-5733
xlz	-5734
xpi	-5735
yka	-5736
zpi	-5737
▁Lo	-5738
▁dw	-5739
▁ga	-5740
▁my	-5741
▁ng	-5742
▁no	-5743
▁nw	-5744
▁ny	-5745
▁pl	-5746
▁rg	-5747
▁rk	-5748
▁rl	-5749
▁rm	-5750
▁rn	-5751
▁rp	-5752
▁ru	-5753
▁ry	-5754
▁sk	-5755
▁so	-5756
▁sp	-5757
▁sr	-5758
▁tc	-5759
▁ti	-5760
▁tw	-5761
▁wx	-5762
▁xp	-5763
▁yi	-5764
Rnge	-5765
amle	-5766
ange	-5767
angi	-5768
angr	-5769
apwx	-5770
atwz	-5771
blqm	-5772
bqle	-5773
bqtr	-5774
brdr	-5775
brpe	-5776
bxlz	-5777
bzbz	-5778
bzdr	-5779
bzkx	-5780
bzlu	-5781
bzme	-5782
bzmu	-5783
bzne	-5784
bzti	-5785
bztr	-5786
cngr	-5787
cpwz	-5788
delr	-5789
desi	-5790
dotx	-5791
drkr	-5792
drle	-5793
drlz	-5794
drpe	-5795
drtq	-5796
dutr	-5797
dwao	-5798
dwin	-5799
Ate	-5800
Eli	-5801
Oli	-5802
Rli	-5803
ali	-5804
atx	-5805
blz	-5806
cpx	-5807
eam	-5808
ipx	-5809
lia	-5810
lqm	-5811
lum	-5812
ntx	-5813
nzm	-5814
nzr	-5815
pxq	-5816
pxu	-5817
pxy	-5818
qlu	-5819
qpx	-5820
qtx	-5821
tam	-5822
tex	-5823
txb	-5824
txc	-5825
txk	-5826
txn	-5827
upx	-5828
ztu	-5829
▁Ab	-5830
▁ae	-5831
brtx	-5832
bztx	-5833
eamu	-5834
eane	-5835
enge	-5836
engr	-5837
entx	-5838
eplz	-5839
gipe	-5840
gngr	-5841
grde	-5842
grdr	-5843
grle	-5844
grlr	-5845
inge	-5846
ingr	-5847
inia	-5848
ipex	-5849
kaki	-5850
kakr	-5851
kana	-5852
kape	-5853
kapx	-5854
kilr	-5855
kqgr	-5856
kqtr	-5857
krng	-5858
krtx	-5859
kxpe	-5860
kxpi	-5861
labr	-5862
lasz	-5863
lebz	-5864
legr	-5865
lekr	-5866
lelr	-5867
leng	-5868
lepe	-5869
leti	-5870
lika	-5871
likr	-5872
ling	-5873
lipe	-5874
liti	-5875
litr	-5876
litx	-5877
lqkr	-5878
lqlz	-5879
lqng	-5880
lqpe	-5881
lqpx	-5882
lqti	-5883
lrbz	-5884
lrde	-5885
lrle	-5886
lrlz	-5887
lrmz	-5888
lrpe	-5889
lrpx	-5890
lrti	-5891
lrtr	-5892
lrtx	-5893
lubo	-5894
lubz	-5895
lumc	-5896
lumi	-5897
lung	-5898
lupe	-5899
Atq	-5900
lxo	-5901
mam	-5902
nas	-5903
nek	-5904
nen	-5905
neo	-5906
neu	-5907
nza	-5908
nzt	-5909
nzy	-5910
oke	-5911
one	-5912
por	-5913
rnz	-5914
rtu	-5915
tqg	-5916
tub	-5917
tup	-5918
une	-5919
zne	-5920
▁ap	-5921
▁as	-5922
▁at	-5923
▁ay	-5924
▁ra	-5925
▁rb	-5926
▁rt	-5927
bole	-5928
kqti	-5929
lqtx	-5930
lube	-5931
lutx	-5932
lxpe	-5933
lxtx	-5934
lzde	-5935
lzdr	-5936
lzlr	-5937
lzne	-5938
lzng	-5939
lzpx	-5940
lztq	-5941
lztr	-5942
lztx	-5943
mclx	-5944
mitr	-5945
mrlx	-5946
mwib	-5947
nabz	-5948
nang	-5949
nani	-5950
nckr	-5951
nclr	-5952
ncne	-5953
ncti	-5954
neti	-5955
netr	-5956
ngei	-5957
ngel	-5958
ngin	-5959
ngli	-5960
ngpe	-5961
ngrb	-5962
ngrd	-5963
ngrg	-5964
ngrk	-5965
ngrl	-5966
ngrp	-5967
ngrt	-5968
nrba	-5969
nzkq	-5970
nzle	-5971
nzlx	-5972
nzmc	-5973
nzng	-5974
nzpr	-5975
nztr	-5976
okli	-5977
olta	-5978
olwa	-5979
onga	-5980
osbo	-5981
oule	-5982
oune	-5983
oxle	-5984
oxng	-5985
oxpe	-5986
palu	-5987
palz	-5988
pede	-5989
pegr	-5990
pelz	-5991
pepe	-5992
pepx	-5993
pepz	-5994
petr	-5995
pile	-5996
pilr	-5997
pilz	-5998
pine	-5999
Bwa	-6000
Gwa	-6001
aol	-6002
awa	-6003
emc	-6004
ewa	-6005
ila	-6006
lwa	-6007
mcl	-6008
mcw	-6009
mwa	-6010
nap	-6011
nzp	-6012
nzx	-6013
olv	-6014
pma	-6015
pre	-6016
ryr	-6017
tes	-6018
wam	-6019
wao	-6020
wap	-6021
was	-6022
▁Am	-6023
▁Ar	-6024
▁Au	-6025
▁Di	-6026
▁Do	-6027
▁Gz	-6028
▁Sk	-6029
▁Sr	-6030
▁zp	-6031
Prlz	-6032
alvc	-6033
dzpe	-6034
lune	-6035
lupx	-6036
luti	-6037
lxti	-6038
lzwa	-6039
mckr	-6040
mcpe	-6041
mcpx	-6042
mctr	-6043
mctx	-6044
mukx	-6045
mulr	-6046
napo	-6047
nclz	-6048
nzbz	-6049
nzpi	-6050
pakx	-6051
pemc	-6052
pipx	-6053
pitr	-6054
pitx	-6055
pqbz	-6056
pqkr	-6057
pqti	-6058
pqtx	-6059
prtx	-6060
pulu	-6061
putx	-6062
pwxx	-6063
pwzm	-6064
pxbo	-6065
pzlr	-6066
qlvz	-6067
qnge	-6068
qngi	-6069
qngr	-6070
qobq	-6071
rali	-6072
rana	-6073
ranz	-6074
ratq	-6075
rblx	-6076
rlwz	-6077
rlxm	-6078
rlzm	-6079
rlzv	-6080
rnge	-6081
rngi	-6082
rngr	-6083
roni	-6084
sina	-6085
sing	-6086
supe	-6087
suti	-6088
swxu	-6089
szbz	-6090
szdr	-6091
tebz	-6092
tede	-6093
tegr	-6094
tekr	-6095
tele	-6096
telr	-6097
teng	-6098
tepe	-6099
Obq	-6100
abo	-6101
bqk	-6102
bqo	-6103
ebo	-6104
eri	-6105
ibq	-6106
kia	-6107
kir	-6108
kuk	-6109
kxl	-6110
lbo	-6111
mzn	-6112
nbo	-6113
qbo	-6114
rbo	-6115
rbq	-6116
rki	-6117
tki	-6118
uku	-6119
uta	-6120
xbq	-6121
xki	-6122
yco	-6123
zbo	-6124
zki	-6125
zmq	-6126
▁Av	-6127
▁Aw	-6128
▁Bw	-6129
▁eb	-6130
▁ek	-6131
▁en	-6132
▁ez	-6133
bqbz	-6134
bqgr	-6135
bqkr	-6136
bqlz	-6137
bqne	-6138
bqng	-6139
bqpe	-6140
bqpx	-6141
kabo	-6142
kaku	-6143
lebq	-6144
lrbo	-6145
lvzo	-6146
nemi	-6147
ngla	-6148
pibo	-6149
pzki	-6150
tami	-6151
tika	-6152
tilo	-6153
tilz	-6154
timc	-6155
timq	-6156
tipi	-6157
tipx	-6158
tqdr	-6159
tqgr	-6160
tqlr	-6161
tqne	-6162
tqng	-6163
tqpe	-6164
tqvz	-6165
tqwz	-6166
trku	-6167
trlr	-6168
trtx	-6169
trwa	-6170
tubq	-6171
tubz	-6172
tudr	-6173
tulz	-6174
tune	-6175
tung	-6176
tuom	-6177
tupu	-6178
tupx	-6179
tuti	-6180
tutr	-6181
txbo	-6182
txlz	-6183
txne	-6184
tzkr	-6185
tzti	-6186
tztx	-6187
ungr	-6188
vobe	-6189
volr	-6190
volz	-6191
vomi	-6192
vomq	-6193
vope	-6194
vrmi	-6195
vzbo	-6196
vzbz	-6197
vzki	-6198
vzkr	-6199
Ima	-6200
Ita	-6201
Rla	-6202
Zma	-6203
ala	-6204
alx	-6205
ama	-6206
epr	-6207
hou	-6208
kex	-6209
kio	-6210
kip	-6211
lab	-6212
lam	-6213
law	-6214
lqw	-6215
lta	-6216
mal	-6217
mar	-6218
oun	-6219
oux	-6220
pus	-6221
ran	-6222
rma	-6223
rpz	-6224
rta	-6225
sik	-6226
tal	-6227
uma	-6228
wrm	-6229
zta	-6230
Yrlz	-6231
bqki	-6232
dela	-6233
hill	-6234
kiti	-6235
kitx	-6236
krki	-6237
krma	-6238
lape	-6239
lati	-6240
latr	-6241
latx	-6242
mate	-6243
neki	-6244
oaki	-6245
oude	-6246
ouku	-6247
oulr	-6248
oung	-6249
ourl	-6250
rade	-6251
rlzu	-6252
rlzx	-6253
tang	-6254
tati	-6255
tatr	-6256
vzle	-6257
vzlr	-6258
vzmq	-6259
vzne	-6260
vzng	-6261
vzou	-6262
vzpe	-6263
vzpx	-6264
vzti	-6265
vztr	-6266
vztx	-6267
wale	-6268
walz	-6269
wape	-6270
wapx	-6271
wati	-6272
watr	-6273
watx	-6274
weka	-6275
wipx	-6276
witi	-6277
wrgr	-6278
wrnr	-6279
wrpx	-6280
wrti	-6281
wxbz	-6282
wxkr	-6283
wxli	-6284
wxlr	-6285
wxma	-6286
wxmz	-6287
wxng	-6288
wxti	-6289
wzbz	-6290
wzki	-6291
wzkr	-6292
wzli	-6293
wzlr	-6294
wzne	-6295
wzpe	-6296
wzti	-6297
wztr	-6298
wztx	-6299
Esz	-6300
ayr	-6301
clx	-6302
dma	-6303
ilo	-6304
lol	-6305
lqa	-6306
mao	-6307
oam	-6308
olo	-6309
osz	-6310
usz	-6311
voo	-6312
yrw	-6313
zlo	-6314
zma	-6315
zmi	-6316
▁Bi	-6317
▁Fi	-6318
▁zl	-6319
Olvz	-6320
apwz	-6321
clvz	-6322
elvz	-6323
epwz	-6324
kilv	-6325
lokr	-6326
lvzu	-6327
ngid	-6328
ngio	-6329
ngis	-6330
ounc	-6331
pwzb	-6332
szpe	-6333
szpx	-6334
upwz	-6335
veam	-6336
wasz	-6337
wzlo	-6338
xngi	-6339
xngr	-6340
xpwz	-6341
yami	-6342
yane	-6343
yapx	-6344
ycde	-6345
ycpq	-6346
yrkr	-6347
yrle	-6348
yrng	-6349
yrpe	-6350
yrti	-6351
yrwi	-6352
yzde	-6353
yzgr	-6354
yzpr	-6355
zlvz	-6356
znge	-6357
zngr	-6358
znwz	-6359
zpma	-6360
zpxm	-6361
zsiu	-6362
▁190	-6363
▁Abr	-6364
▁Abz	-6365
▁Aka	-6366
▁Ala	-6367
▁Ani	-6368
▁Awi	-6369
▁Ayr	-6370
▁Ayz	-6371
▁Bre	-6372
▁Bwz	-6373
▁Drt	-6374
▁Drv	-6375
▁Fre	-6376
▁Gri	-6377
▁Imz	-6378
▁Ina	-6379
▁Iwx	-6380
▁Krl	-6381
▁Kxa	-6382
▁Kxe	-6383
▁Kxr	-6384
▁Kzp	-6385
▁Men	-6386
▁Mis	-6387
▁Mrl	-6388
▁Mwa	-6389
▁Mzd	-6390
▁Mzj	-6391
▁Mzk	-6392
▁Mzl	-6393
▁Mzn	-6394
▁Mzt	-6395
▁Nag	-6396
▁Nai	-6397
▁Nap	-6398
▁Ncb	-6399
Omi	-6400
abr	-6401
ayz	-6402
brt	-6403
ckx	-6404
ebr	-6405
ekx	-6406
ibr	-6407
kxm	-6408
lwx	-6409
mon	-6410
mup	-6411
mus	-6412
rap	-6413
rmu	-6414
vob	-6415
wxm	-6416
wxx	-6417
yzp	-6418
zbr	-6419
▁Rb	-6420
▁Re	-6421
▁Wu	-6422
bqkx	-6423
brka	-6424
brpx	-6425
brti	-6426
imle	-6427
iuka	-6428
kxlr	-6429
lewx	-6430
lrmu	-6431
lzwx	-6432
mcwx	-6433
mukr	-6434
mule	-6435
ncpe	-6436
nctx	-6437
nzya	-6438
oamu	-6439
oupq	-6440
prkr	-6441
tabr	-6442
wxka	-6443
wxpe	-6444
wxtx	-6445
wzwx	-6446
yzdr	-6447
▁Dcp	-6448
▁Nem	-6449
▁Nev	-6450
▁Nik	-6451
▁Nrl	-6452
▁Nrz	-6453
▁Nzd	-6454
▁Nzi	-6455
▁Nzl	-6456
▁Nzm	-6457
▁Nzp	-6458
▁Nzs	-6459
▁Nzt	-6460
▁Nzv	-6461
▁Nzw	-6462
▁Nzx	-6463
▁Nzy	-6464
▁Oli	-6465
▁Olv	-6466
▁Poo	-6467
▁Ren	-6468
▁Rka	-6469
▁Rli	-6470
▁Rtq	-6471
▁Rtr	-6472
▁Sad	-6473
▁Sae	-6474
▁Sku	-6475
▁Sta	-6476
▁Tra	-6477
▁Trd	-6478
▁Trl	-6479
▁Tzn	-6480
▁Yrl	-6481
▁Yzu	-6482
▁Zma	-6483
▁Zya	-6484
▁ale	-6485
▁amu	-6486
▁ang	-6487
▁apq	-6488
▁apu	-6489
▁asu	-6490
▁atr	-6491
▁ayr	-6492
▁bag	-6493
▁ban	-6494
▁blr	-6495
▁bok	-6496
▁dab	-6497
▁dak	-6498
▁dal	-6499
Imz	-6500
Ini	-6501
Yiz	-6502
Zya	-6503
ani	-6504
awr	-6505
aya	-6506
biz	-6507
ger	-6508
imz	-6509
lxb	-6510
mwr	-6511
nck	-6512
nie	-6513
nip	-6514
niz	-6515
oni	-6516
ose	-6517
pwr	-6518
qni	-6519
sis	-6520
uga	-6521
yam	-6522
yap	-6523
▁En	-6524
▁Lx	-6525
▁pn	-6526
avea	-6527
kxlv	-6528
lrni	-6529
lxle	-6530
lxng	-6531
ncng	-6532
nctr	-6533
nibo	-6534
nine	-6535
nzsi	-6536
oxtx	-6537
puri	-6538
rpnz	-6539
side	-6540
wrdr	-6541
wrnz	-6542
yrpu	-6543
▁Bwr	-6544
▁Kwi	-6545
▁Lrl	-6546
▁Rlx	-6547
▁dap	-6548
▁dcp	-6549
▁dra	-6550
▁dri	-6551
▁drl	-6552
▁drv	-6553
▁ekq	-6554
▁enj	-6555
▁kao	-6556
▁kap	-6557
▁kcm	-6558
▁kcp	-6559
▁kct	-6560
▁kla	-6561
▁krl	-6562
▁krn	-6563
▁kxa	-6564
▁kxb	-6565
▁kxe	-6566
▁kxg	-6567
▁kxk	-6568
▁kxm	-6569
▁kxn	-6570
▁kxp	-6571
▁kxs	-6572
▁kxt	-6573
▁kxw	-6574
▁kxy	-6575
▁kzb	-6576
▁kzp	-6577
▁kzt	-6578
▁lcg	-6579
▁lcp	-6580
▁lcs	-6581
▁lem	-6582
▁lrm	-6583
▁lrp	-6584
▁lrt	-6585
▁mai	-6586
▁mak	-6587
▁man	-6588
▁mas	-6589
▁mep	-6590
▁mrb	-6591
▁mrg	-6592
▁mrl	-6593
▁mrn	-6594
▁mya	-6595
▁mzb	-6596
▁mzk	-6597
▁mzt	-6598
▁naa	-6599
Emi	-6600
Fra	-6601
alv	-6602
amz	-6603
ara	-6604
cmq	-6605
emz	-6606
epa	-6607
ikz	-6608
lxp	-6609
mib	-6610
mil	-6611
mip	-6612
nai	-6613
nar	-6614
omi	-6615
qmz	-6616
rar	-6617
rmi	-6618
rna	-6619
umi	-6620
▁In	-6621
bzmi	-6622
eape	-6623
kami	-6624
krmi	-6625
lzpq	-6626
mika	-6627
mzne	-6628
napi	-6629
nati	-6630
nckz	-6631
pqle	-6632
pqng	-6633
pqpe	-6634
raki	-6635
rape	-6636
sinq	-6637
txom	-6638
vzkz	-6639
vzmi	-6640
wami	-6641
▁Tqr	-6642
▁lep	-6643
▁nab	-6644
▁nad	-6645
▁nae	-6646
▁nai	-6647
▁nak	-6648
▁nal	-6649
▁nam	-6650
▁nan	-6651
▁nap	-6652
▁nat	-6653
▁nav	-6654
▁naw	-6655
▁nax	-6656
▁nay	-6657
▁ncv	-6658
▁neg	-6659
▁nei	-6660
▁nek	-6661
▁nel	-6662
▁nen	-6663
▁nes	-6664
▁nib	-6665
▁nig	-6666
▁nik	-6667
▁nin	-6668
▁nrl	-6669
▁nzb	-6670
▁nzd	-6671
▁nze	-6672
▁nzg	-6673
▁nzi	-6674
▁nzk	-6675
▁nzl	-6676
▁nzs	-6677
▁nzt	-6678
▁nzv	-6679
▁nzw	-6680
▁nzy	-6681
▁olv	-6682
▁pla	-6683
▁plr	-6684
▁prl	-6685
▁pwr	-6686
▁rka	-6687
▁rkr	-6688
▁rlx	-6689
▁rma	-6690
▁rmc	-6691
▁rng	-6692
▁rta	-6693
▁rtr	-6694
▁rya	-6695
▁ryr	-6696
▁ryz	-6697
▁scg	-6698
▁sku	-6699
Vea	-6700
akc	-6701
awi	-6702
cpq	-6703
epq	-6704
epz	-6705
ipz	-6706
lwi	-6707
opq	-6708
pzu	-6709
qpz	-6710
vom	-6711
wqq	-6712
zbe	-6713
▁Ji	-6714
▁Jz	-6715
▁Po	-6716
▁zb	-6717
bxbz	-6718
dekc	-6719
eabr	-6720
eaka	-6721
eati	-6722
glqa	-6723
ipnz	-6724
kcpe	-6725
kcti	-6726
lxlv	-6727
nqti	-6728
osae	-6729
pqlr	-6730
pqpx	-6731
pzle	-6732
pztr	-6733
rlar	-6734
rlxk	-6735
rlxp	-6736
rpna	-6737
vobz	-6738
vong	-6739
vopx	-6740
waea	-6741
wiki	-6742
wikr	-6743
wipe	-6744
witr	-6745
zabe	-6746
▁191	-6747
▁Ncn	-6748
▁awi	-6749
▁kam	-6750
▁kan	-6751
▁kat	-6752
▁mrk	-6753
▁mrv	-6754
▁rkq	-6755
▁tab	-6756
▁tap	-6757
▁tqb	-6758
▁tqe	-6759
▁tqk	-6760
▁tql	-6761
▁tqm	-6762
▁tqn	-6763
▁tqp	-6764
▁tqs	-6765
▁tqt	-6766
▁tqv	-6767
▁tqw	-6768
▁tqy	-6769
▁trb	-6770
▁trd	-6771
▁trg	-6772
▁trk	-6773
▁trm	-6774
▁trn	-6775
▁tro	-6776
▁trp	-6777
▁trs	-6778
▁trt	-6779
▁try	-6780
▁tze	-6781
▁tzg	-6782
▁tzk	-6783
▁tzl	-6784
▁tzm	-6785
▁tzo	-6786
▁tzp	-6787
▁tzs	-6788
▁tzt	-6789
▁tzv	-6790
▁tzw	-6791
▁tzx	-6792
▁tzy	-6793
▁voo	-6794
▁vzo	-6795
▁yrb	-6796
▁yrl	-6797
▁yrp	-6798
▁zmi	-6799
Esu	-6800
alq	-6801
clv	-6802
csu	-6803
nqq	-6804
nqu	-6805
qlv	-6806
wis	-6807
▁od	-6808
lilv	-6809
lqbo	-6810
lqbz	-6811
lqki	-6812
lqle	-6813
lqlr	-6814
lqne	-6815
lqpz	-6816
lqtr	-6817
nqtx	-6818
nyon	-6819
nzlv	-6820
riki	-6821
ripe	-6822
suka	-6823
sukx	-6824
teri	-6825
wzri	-6826
▁Dck	-6827
▁Ilo	-6828
▁Nco	-6829
▁Sao	-6830
▁enq	-6831
▁leg	-6832
▁let	-6833
▁lon	-6834
▁nub	-6835
▁pri	-6836
▁teo	-6837
▁tes	-6838
▁yrv	-6839
▁zya	-6840
abzkr	-6841
aepis	-6842
awitx	-6843
bleti	-6844
blqpe	-6845
blrng	-6846
blxtx	-6847
bqleu	-6848
bqlvz	-6849
bqngr	-6850
brnge	-6851
bzngr	-6852
ckrlz	-6853
ctikr	-6854
ctitx	-6855
depwz	-6856
drpex	-6857
dwapx	-6858
ebzle	-6859
elape	-6860
esinq	-6861
esinu	-6862
etrpe	-6863
etubz	-6864
etuti	-6865
glqlz	-6866
glqtr	-6867
glqtx	-6868
goxle	-6869
goxpe	-6870
isebz	-6871
isket	-6872
itrpz	-6873
kaipz	-6874
kamlr	-6875
kangr	-6876
kiolr	-6877
klube	-6878
kqnge	-6879
krlzp	-6880
krpxp	-6881
krpxx	-6882
kulbo	-6883
langr	-6884
lanka	-6885
laopu	-6886
lapwz	-6887
lasti	-6888
lenge	-6889
lipwz	-6890
liqkr	-6891
lqpxm	-6892
lrpwz	-6893
lumgr	-6894
lumle	-6895
lungr	-6896
lvzbz	-6897
lvzkr	-6898
lvzne	-6899
Eke	-6900
apa	-6901
apu	-6902
bel	-6903
bex	-6904
cbe	-6905
ols	-6906
oly	-6907
ove	-6908
pap	-6909
rol	-6910
rpu	-6911
rtz	-6912
stz	-6913
tzn	-6914
zox	-6915
▁Yo	-6916
▁ob	-6917
bedr	-6918
betx	-6919
lzmq	-6920
nebe	-6921
nipu	-6922
oliq	-6923
pale	-6924
putr	-6925
pwxu	-6926
srgr	-6927
twzo	-6928
twzx	-6929
tzlr	-6930
vzbe	-6931
yapu	-6932
▁Fra	-6933
▁Ika	-6934
▁Nab	-6935
▁mei	-6936
▁mqg	-6937
▁oka	-6938
▁oti	-6939
ctrpe	-6940
lrmlr	-6941
lvzpe	-6942
lvzpx	-6943
lxngi	-6944
lxope	-6945
lxpwz	-6946
lzpwz	-6947
malvz	-6948
mangr	-6949
maope	-6950
mcngr	-6951
meipx	-6952
mimle	-6953
mlrle	-6954
mnclr	-6955
mnclz	-6956
mncng	-6957
mnctr	-6958
mnepe	-6959
mungr	-6960
ncngr	-6961
ncpwz	-6962
nemle	-6963
nengr	-6964
ngara	-6965
ngcne	-6966
ngele	-6967
ngeng	-6968
ngikr	-6969
ngilo	-6970
ngini	-6971
ngipe	-6972
ngitr	-6973
ngrkr	-6974
ngrkx	-6975
ngrla	-6976
ngrna	-6977
ngrti	-6978
ngrtx	-6979
ninge	-6980
nipex	-6981
nqlvz	-6982
nurde	-6983
nycde	-6984
nzetu	-6985
nzlvz	-6986
nzngr	-6987
obqpx	-6988
onrwx	-6989
opuri	-6990
otipe	-6991
otrpe	-6992
ourla	-6993
oxngr	-6994
papna	-6995
pemle	-6996
pemlr	-6997
penge	-6998
pepem	-6999
apr	-7000
cil	-7001
hil	-7002
omq	-7003
qvi	-7004
rmq	-7005
ske	-7006
ycm	-7007
▁Ga	-7008
▁Gc	-7009
▁Ge	-7010
▁Gr	-7011
▁It	-7012
agox	-7013
ckta	-7014
keng	-7015
krmq	-7016
moup	-7017
mqdr	-7018
mqlr	-7019
pxmq	-7020
wapc	-7021
wrmq	-7022
ycpe	-7023
ycti	-7024
▁Ima	-7025
▁Itu	-7026
▁Sio	-7027
▁Trg	-7028
▁dzb	-7029
▁loz	-7030
▁yzp	-7031
emons	-7032
goxng	-7033
goxtx	-7034
kelvz	-7035
mcpex	-7036
mncpe	-7037
mncti	-7038
mnctx	-7039
ncpex	-7040
ngrmq	-7041
pepwq	-7042
pimle	-7043
pimlr	-7044
pipem	-7045
pipex	-7046
plapx	-7047
plati	-7048
plrkq	-7049
plztx	-7050
pnzbz	-7051
pnztr	-7052
pwxka	-7053
pwxkr	-7054
pwxma	-7055
pwxpe	-7056
pwzbe	-7057
pwzmu	-7058
pwzne	-7059
pwzng	-7060
pwzti	-7061
pxngr	-7062
pxpnz	-7063
qbzkr	-7064
qbzle	-7065
qpekr	-7066
qtipe	-7067
qtitx	-7068
raesz	-7069
rapwx	-7070
rikit	-7071
rkipx	-7072
rkrdr	-7073
rlade	-7074
rlanc	-7075
rlcde	-7076
rlckx	-7077
rlcng	-7078
rloka	-7079
rlqbz	-7080
rlqtr	-7081
rlxkq	-7082
rlxkz	-7083
rlxpe	-7084
rlxtr	-7085
rlzbo	-7086
rlzbz	-7087
rlzle	-7088
rlzlz	-7089
rlzng	-7090
rlzpe	-7091
rlzti	-7092
rlztx	-7093
rpipe	-7094
rtipe	-7095
stimc	-7096
sutiu	-7097
tange	-7098
tangi	-7099
Fre	-7100
apo	-7101
ipo	-7102
nrb	-7103
odo	-7104
opo	-7105
res	-7106
uel	-7107
vxi	-7108
▁Fo	-7109
cmne	-7110
elwi	-7111
etea	-7112
ilan	-7113
mnem	-7114
niel	-7115
nrpe	-7116
rapo	-7117
reti	-7118
rpwa	-7119
wele	-7120
xpex	-7121
▁ael	-7122
▁bre	-7123
▁mnr	-7124
▁nqe	-7125
▁nqv	-7126
▁pre	-7127
▁yro	-7128
blrbz	-7129
dwalz	-7130
dwasz	-7131
dwati	-7132
dwatx	-7133
lcope	-7134
lrpex	-7135
meipe	-7136
mneki	-7137
mnekr	-7138
mnetr	-7139
mnqtx	-7140
mpeng	-7141
nglan	-7142
nrngr	-7143
nzmne	-7144
ophia	-7145
telvz	-7146
tepex	-7147
tiamu	-7148
timlr	-7149
tqdwa	-7150
tqlvz	-7151
tqnge	-7152
treli	-7153
trpnz	-7154
trpwz	-7155
tulzm	-7156
tungr	-7157
twrdr	-7158
twrnr	-7159
twzbz	-7160
twzle	-7161
twzne	-7162
twzpe	-7163
twzwx	-7164
txngr	-7165
tzngr	-7166
utipe	-7167
utitx	-7168
utrpe	-7169
utxtr	-7170
veane	-7171
veape	-7172
veckr	-7173
vomle	-7174
vongr	-7175
vopex	-7176
vopwz	-7177
vzkru	-7178
vzmle	-7179
vzmlr	-7180
vzngr	-7181
vzpwz	-7182
waplr	-7183
wingr	-7184
wipex	-7185
wqgru	-7186
wrnge	-7187
wxngr	-7188
wzmlr	-7189
wzngr	-7190
xlrbz	-7191
yangr	-7192
yrkex	-7193
yrnge	-7194
yznge	-7195
zbzkr	-7196
zpekr	-7197
▁Agli	-7198
▁Agne	-7199
Wis	-7200
aos	-7201
dik	-7202
eve	-7203
iks	-7204
mrg	-7205
mwe	-7206
nua	-7207
ovi	-7208
pct	-7209
sos	-7210
uvi	-7211
veo	-7212
vin	-7213
▁ve	-7214
drik	-7215
enga	-7216
glqo	-7217
inga	-7218
iske	-7219
lame	-7220
lzmr	-7221
prom	-7222
rnga	-7223
tiba	-7224
tqgu	-7225
uekx	-7226
unga	-7227
velr	-7228
vetr	-7229
znga	-7230
▁Bis	-7231
▁Boe	-7232
▁Eli	-7233
▁Epr	-7234
▁Esu	-7235
▁Gzp	-7236
▁Lve	-7237
▁Tik	-7238
atitx	-7239
glqkr	-7240
glqpx	-7241
glqti	-7242
krmop	-7243
lwzpe	-7244
mwipe	-7245
mwipx	-7246
mwitx	-7247
rtitx	-7248
singa	-7249
twrgr	-7250
veaka	-7251
waela	-7252
ztitx	-7253
▁Alvz	-7254
▁Avea	-7255
▁Bini	-7256
▁Boka	-7257
▁Bole	-7258
▁Bomi	-7259
▁Dckr	-7260
▁Dwao	-7261
▁Dzbe	-7262
▁Jula	-7263
▁Kcmi	-7264
▁Kzbz	-7265
▁Kzpz	-7266
▁Mala	-7267
▁Malu	-7268
▁Manc	-7269
▁Mate	-7270
▁Medr	-7271
▁Mele	-7272
▁Melo	-7273
▁Melz	-7274
▁Menr	-7275
▁Menz	-7276
▁Meri	-7277
▁Merl	-7278
▁Meta	-7279
▁Metr	-7280
▁Mrtu	-7281
▁Mzna	-7282
▁Mznz	-7283
▁Namz	-7284
▁Ncmi	-7285
▁Ncni	-7286
▁Ncnq	-7287
▁Nebo	-7288
▁Nebr	-7289
▁Nibr	-7290
▁Nzik	-7291
▁Nzka	-7292
▁Nzkr	-7293
▁Nzlv	-7294
▁Nzmi	-7295
▁Nzpr	-7296
▁Nzrl	-7297
▁Nzrm	-7298
▁Nzsi	-7299
abu	-7300
anu	-7301
bai	-7302
blc	-7303
klc	-7304
lca	-7305
lco	-7306
ogz	-7307
qba	-7308
aenz	-7309
aepi	-7310
bakx	-7311
bupx	-7312
delc	-7313
ekol	-7314
ikai	-7315
kaia	-7316
krba	-7317
nuel	-7318
omgr	-7319
pewq	-7320
sinu	-7321
wqgr	-7322
▁Anu	-7323
▁rae	-7324
▁tuo	-7325
aengr	-7326
ayzlu	-7327
bangr	-7328
cpeng	-7329
ekatr	-7330
kaulz	-7331
kilvc	-7332
limgr	-7333
lvcmq	-7334
lvcne	-7335
mrlzx	-7336
plame	-7337
pqleu	-7338
rkrpx	-7339
rpeng	-7340
yzlup	-7341
▁Japa	-7342
▁Nzve	-7343
▁Nzwq	-7344
▁Nzya	-7345
▁Nzyc	-7346
▁Nzyr	-7347
▁Nzyz	-7348
▁Pile	-7349
▁Pili	-7350
▁Pitx	-7351
▁Poki	-7352
▁Prlz	-7353
▁Rpio	-7354
▁Rpwx	-7355
▁Saem	-7356
▁Satq	-7357
▁Tena	-7358
▁Teom	-7359
▁Toba	-7360
▁Tqya	-7361
▁Tqyr	-7362
▁Trkr	-7363
▁Trla	-7364
▁Trte	-7365
▁Trti	-7366
▁Tzle	-7367
▁Tzyc	-7368
▁Vopx	-7369
▁Vzpx	-7370
▁Ycbe	-7371
▁Yrkr	-7372
▁aglq	-7373
▁atwz	-7374
▁bele	-7375
▁bztx	-7376
▁dabu	-7377
▁dakx	-7378
▁drlv	-7379
▁drtw	-7380
▁dwas	-7381
▁haos	-7382
▁kalr	-7383
▁kapx	-7384
▁kati	-7385
▁katr	-7386
▁kcmi	-7387
▁kcti	-7388
▁krsc	-7389
▁kuma	-7390
▁kxkq	-7391
▁kxmr	-7392
▁kxng	-7393
▁kxpi	-7394
▁kxpr	-7395
▁kxwz	-7396
▁kxya	-7397
▁kxyz	-7398
▁kzbz	-7399
bxp	-7400
lwe	-7401
oms	-7402
wei	-7403
wop	-7404
zbx	-7405
cpxm	-7406
enwz	-7407
ilas	-7408
lwzu	-7409
tubx	-7410
upxm	-7411
ycom	-7412
▁Bad	-7413
▁krs	-7414
▁mwe	-7415
▁pea	-7416
▁pet	-7417
atrka	-7418
brpxm	-7419
bupxm	-7420
cpxpe	-7421
gengr	-7422
ipele	-7423
kiope	-7424
klung	-7425
klupe	-7426
klupx	-7427
kluti	-7428
lrope	-7429
lwzkr	-7430
lwzle	-7431
obqne	-7432
opebz	-7433
qtrpz	-7434
rlilr	-7435
rlimz	-7436
rtekq	-7437
tupxm	-7438
twrnz	-7439
xdeng	-7440
▁Basi	-7441
▁abre	-7442
▁krne	-7443
▁kzpo	-7444
▁legr	-7445
▁litx	-7446
▁lopr	-7447
▁lrmz	-7448
▁lrtz	-7449
▁mabo	-7450
▁make	-7451
▁mati	-7452
▁matx	-7453
▁mclr	-7454
▁mclz	-7455
▁mcpx	-7456
▁mcpz	-7457
▁mctr	-7458
▁mede	-7459
▁melr	-7460
▁meri	-7461
▁milz	-7462
▁mrtu	-7463
▁mztu	-7464
▁nabo	-7465
▁nado	-7466
▁nakq	-7467
▁nakr	-7468
▁nalx	-7469
▁namr	-7470
▁namu	-7471
▁nang	-7472
▁nani	-7473
▁naok	-7474
▁naon	-7475
▁nape	-7476
▁narb	-7477
▁narl	-7478
▁nate	-7479
▁natr	-7480
▁nave	-7481
▁nawr	-7482
▁naya	-7483
▁nayz	-7484
▁ncbo	-7485
▁negu	-7486
▁nemu	-7487
▁neng	-7488
▁netx	-7489
▁ngrg	-7490
▁ngrl	-7491
▁ngrm	-7492
▁nibq	-7493
▁ning	-7494
▁nqlv	-7495
▁nyzg	-7496
▁nzac	-7497
▁nzad	-7498
▁nzae	-7499
006	-7500
700	-7501
igi	-7502
nda	-7503
qtc	-7504
rtc	-7505
sto	-7506
▁We	-7507
▁Wi	-7508
ablq	-7509
ikso	-7510
jzbx	-7511
lisa	-7512
memc	-7513
musr	-7514
okir	-7515
osip	-7516
osis	-7517
sona	-7518
thia	-7519
ulis	-7520
yame	-7521
▁Leo	-7522
▁Obq	-7523
▁Olz	-7524
▁Rtc	-7525
▁Ver	-7526
▁Wis	-7527
▁bza	-7528
▁bzp	-7529
▁kqo	-7530
▁rtc	-7531
▁yzu	-7532
abrtz	-7533
amcti	-7534
ateri	-7535
blqki	-7536
blqle	-7537
blqlr	-7538
blqne	-7539
blrkr	-7540
blrpe	-7541
kaula	-7542
mctia	-7543
myapx	-7544
ngida	-7545
nglis	-7546
weita	-7547
ycblq	-7548
zmqng	-7549
▁Jisz	-7550
▁Lesi	-7551
▁Yrbq	-7552
▁Yrpu	-7553
▁bxpi	-7554
▁nrpq	-7555
▁nzal	-7556
▁nzam	-7557
▁nzao	-7558
▁nzap	-7559
▁nzas	-7560
▁nzat	-7561
▁nzaw	-7562
▁nzay	-7563
▁nzba	-7564
▁nzbx	-7565
▁nzik	-7566
▁nzkq	-7567
▁nzkr	-7568
▁nzku	-7569
▁nzla	-7570
▁nzle	-7571
▁nzlv	-7572
▁nzlx	-7573
▁nzme	-7574
▁nzmi	-7575
▁nzmr	-7576
▁nzmz	-7577
▁nzng	-7578
▁nznu	-7579
▁nzpa	-7580
▁nzpr	-7581
▁nzrk	-7582
▁nzrl	-7583
▁nzrm	-7584
▁nzrn	-7585
▁nzrp	-7586
▁nzrt	-7587
▁nzrv	-7588
▁nzsi	-7589
▁nzve	-7590
▁nzwr	-7591
▁nzyz	-7592
▁peti	-7593
▁plan	-7594
▁rnga	-7595
▁rtwz	-7596
▁scng	-7597
▁srlr	-7598
▁taba	-7599
ens	-7600
gzp	-7601
mop	-7602
nok	-7603
deal	-7604
edma	-7605
kaen	-7606
mipc	-7607
oklc	-7608
ondz	-7609
rovi	-7610
sabe	-7611
utrx	-7612
veco	-7613
xplr	-7614
zpct	-7615
▁Aus	-7616
▁Fok	-7617
▁Ken	-7618
▁Lzp	-7619
▁Tes	-7620
▁bxp	-7621
▁prc	-7622
▁sek	-7623
▁sez	-7624
bleng	-7625
blxti	-7626
cnika	-7627
eside	-7628
ilzne	-7629
iraki	-7630
katrx	-7631
malep	-7632
okatr	-7633
olzbq	-7634
onepe	-7635
petix	-7636
plabr	-7637
rlqtx	-7638
umale	-7639
veclz	-7640
vecng	-7641
waile	-7642
▁Boer	-7643
▁Mrnz	-7644
▁Nrpa	-7645
▁Nzad	-7646
▁Paua	-7647
▁Prtr	-7648
▁Tele	-7649
▁Trga	-7650
▁lxlv	-7651
▁prtr	-7652
▁take	-7653
▁taki	-7654
▁tatx	-7655
▁tebo	-7656
▁teom	-7657
▁tqac	-7658
▁tqae	-7659
▁tqag	-7660
▁tqam	-7661
▁tqao	-7662
▁tqat	-7663
▁tqbz	-7664
▁tqkq	-7665
▁tqkr	-7666
▁tqku	-7667
▁tqla	-7668
▁tqlo	-7669
▁tqlu	-7670
▁tqlv	-7671
▁tqlx	-7672
▁tqma	-7673
▁tqme	-7674
▁tqmr	-7675
▁tqmz	-7676
▁tqne	-7677
▁tqng	-7678
▁tqpo	-7679
▁tqpr	-7680
▁tqrb	-7681
▁tqrd	-7682
▁tqrg	-7683
▁tqrk	-7684
▁tqrl	-7685
▁tqrp	-7686
▁tqsi	-7687
▁tqti	-7688
▁tqtr	-7689
▁tqwa	-7690
▁tqwq	-7691
▁tqwr	-7692
▁trao	-7693
▁trbo	-7694
▁trga	-7695
▁trkq	-7696
▁trkr	-7697
▁trla	-7698
▁trli	-7699
jin	-7700
lvex	-7701
lxsr	-7702
onar	-7703
rmnq	-7704
srle	-7705
vabe	-7706
xitx	-7707
glrkr	-7708
ikapu	-7709
iukan	-7710
lvele	-7711
lxoma	-7712
mcwxu	-7713
ngqdr	-7714
ngqkr	-7715
ngqna	-7716
nipua	-7717
rpelr	-7718
tiolr	-7719
▁Fili	-7720
▁Jose	-7721
▁Lrtz	-7722
▁Roma	-7723
▁Toma	-7724
▁nesr	-7725
▁trlr	-7726
▁trma	-7727
▁trmc	-7728
▁trna	-7729
▁trng	-7730
▁trpa	-7731
▁trpe	-7732
▁trsc	-7733
▁trti	-7734
▁trtz	-7735
▁tryc	-7736
▁tryr	-7737
▁tulz	-7738
▁tune	-7739
▁tutx	-7740
▁tzak	-7741
▁tzay	-7742
▁tzkr	-7743
▁tzku	-7744
▁tzlv	-7745
▁tzmu	-7746
▁tzod	-7747
▁tzpi	-7748
▁tzpr	-7749
▁tzpx	-7750
▁tzrl	-7751
▁tzrt	-7752
▁tzsi	-7753
▁tzta	-7754
▁tzte	-7755
▁tztu	-7756
▁tzve	-7757
▁tzwa	-7758
▁tzwr	-7759
▁tzyr	-7760
▁tzyz	-7761
▁vomi	-7762
▁vzki	-7763
▁yalu	-7764
▁yapi	-7765
▁yapx	-7766
▁ycti	-7767
▁yctx	-7768
▁yrpu	-7769
▁yrvi	-7770
▁zpwx	-7771
aterin	-7772
balqbo	-7773
balqne	-7774
blxpwz	-7775
bqbzng	-7776
bqtrpe	-7777
brtrpe	-7778
brtzkr	-7779
butipe	-7780
bzbzlr	-7781
bzkxtr	-7782
bzpekr	-7783
bztipe	-7784
clvele	-7785
datitx	-7786
dealwx	-7787
dzmqng	-7788
dzpekr	-7789
eatipe	-7790
glqamu	-7791
glqolr	-7792
itxpwz	-7793
kabzkr	-7794
kakilz	-7795
kalzmq	-7796
kalzpe	-7797
kapqpx	-7798
kaputr	-7799
bir	-7800
iny	-7801
▁in	-7802
▁vc	-7803
esin	-7804
llen	-7805
mibi	-7806
xede	-7807
▁Kat	-7808
▁Prc	-7809
▁gzp	-7810
▁wis	-7811
akitr	-7812
ckrle	-7813
elwin	-7814
ikzkr	-7815
kilzm	-7816
lcapq	-7817
letio	-7818
liqlz	-7819
prkru	-7820
taplx	-7821
tupeu	-7822
zabet	-7823
▁Drvr	-7824
▁Elsi	-7825
▁Lalz	-7826
▁Resi	-7827
▁Tulz	-7828
▁mrvr	-7829
dwalzm	-7830
kakrbz	-7831
kapebo	-7832
katitx	-7833
katrkr	-7834
katrpe	-7835
katrtx	-7836
katxpx	-7837
kctitx	-7838
kipxkr	-7839
kitxpx	-7840
klungr	-7841
kqtrpe	-7842
krlzkr	-7843
krlzle	-7844
krlzlr	-7845
krlzng	-7846
krlztr	-7847
krlzwa	-7848
krlzwx	-7849
krpxbo	-7850
krtxtr	-7851
kukipe	-7852
kxbqpe	-7853
kxmrlz	-7854
kxpele	-7855
kxtrpe	-7856
kxtrtx	-7857
lankau	-7858
latikr	-7859
latitr	-7860
latrpe	-7861
lctitx	-7862
lebzlr	-7863
ledeng	-7864
lepele	-7865
liqngr	-7866
lisabe	-7867
litipe	-7868
litrpe	-7869
lqbzlr	-7870
lqpekr	-7871
lqtrpe	-7872
lrbzkr	-7873
lrbzle	-7874
lrbzlr	-7875
lrkqgr	-7876
lrmzta	-7877
lrpekr	-7878
lrpeng	-7879
lrpxpe	-7880
lrtipe	-7881
lrtrpe	-7882
lubzle	-7883
lupeng	-7884
lvengr	-7885
lvzope	-7886
lvzpwz	-7887
lvztrx	-7888
lwzngr	-7889
lxtipe	-7890
lzmqng	-7891
lzpekr	-7892
lztrka	-7893
malewx	-7894
mcpekr	-7895
mcpele	-7896
mcpelr	-7897
mcpxpe	-7898
mctile	-7899
ayo	-7900
esa	-7901
nyx	-7902
gekr	-7903
lxge	-7904
mopq	-7905
ndru	-7906
rlru	-7907
yoti	-7908
▁Iwo	-7909
▁Lwo	-7910
▁Nrr	-7911
▁Tag	-7912
▁hou	-7913
▁nuz	-7914
bxplc	-7915
cnene	-7916
kqtuu	-7917
krtxo	-7918
lapxx	-7919
omson	-7920
teson	-7921
txopq	-7922
vxitx	-7923
▁Sams	-7924
▁Samw	-7925
▁kans	-7926
kilzmc	-7927
mctilr	-7928
mctine	-7929
mctipe	-7930
mctrpe	-7931
meitio	-7932
mikatx	-7933
mipebo	-7934
mitrpe	-7935
mncngr	-7936
mncpex	-7937
mnengr	-7938
mnqlvz	-7939
mrbrti	-7940
mrlzpe	-7941
mupekr	-7942
mwible	-7943
mwingr	-7944
mwipex	-7945
mwipxm	-7946
nanibq	-7947
natikr	-7948
nepeng	-7949
nepxpe	-7950
ngeitx	-7951
ngidrx	-7952
ngipeu	-7953
ngrnga	-7954
nikapq	-7955
nqtipe	-7956
nqtxtr	-7957
nrpele	-7958
nutitx	-7959
nzkqlu	-7960
nzlikr	-7961
nzliti	-7962
nzlitx	-7963
nztrng	-7964
obqlvz	-7965
opwzbe	-7966
opwzkr	-7967
opwzle	-7968
opwzlr	-7969
opwzne	-7970
opwzng	-7971
opwzti	-7972
osaeti	-7973
otrngr	-7974
ounenq	-7975
pctikr	-7976
pebzlr	-7977
pelzle	-7978
petrpq	-7979
pibzkr	-7980
pibzle	-7981
pibzlr	-7982
pipebo	-7983
pipebz	-7984
pipelr	-7985
pitxtr	-7986
plamei	-7987
plcope	-7988
pqbzle	-7989
pqpebo	-7990
pqtxpx	-7991
prtrng	-7992
prtxpx	-7993
putrpe	-7994
putrpq	-7995
pwzleu	-7996
pxbzle	-7997
pxlele	-7998
pxpebz	-7999
hur	-8000
urc	-8001
urm	-8002
losx	-8003
ogzs	-8004
stol	-8005
sxpx	-8006
zokr	-8007
aprpx	-8008
dikon	-8009
kiokr	-8010
nuatu	-8011
oklip	-8012
opore	-8013
qbeng	-8014
rimiz	-8015
rmabr	-8016
siden	-8017
thias	-8018
▁Komi	-8019
▁Kopu	-8020
▁Poly	-8021
▁Seve	-8022
▁Vani	-8023
bxlzle	-8024
jzbxlo	-8025
lalztx	-8026
mwrngr	-8027
nckzpo	-8028
pwrngr	-8029
ranaso	-8030
rapekr	-8031
rapolo	-8032
rkimle	-8033
rlclvz	-8034
rlwrti	-8035
rlwxkr	-8036
rlxngi	-8037
rlxplz	-8038
rlzmle	-8039
rlzngr	-8040
rlzpem	-8041
rlztix	-8042
ronika	-8043
rtrngr	-8044
sutipe	-8045
szbzle	-8046
szpxle	-8047
takitr	-8048
tatipe	-8049
tatrpe	-8050
tebzkr	-8051
tedeng	-8052
tibzlr	-8053
tilolx	-8054
timqng	-8055
tiongr	-8056
tipebz	-8057
tipxpe	-8058
titrlr	-8059
tqlrgr	-8060
tqnepx	-8061
trelia	-8062
trkami	-8063
trkape	-8064
trkrba	-8065
trmrlz	-8066
trtxkr	-8067
trwamu	-8068
tubqti	-8069
tutrpe	-8070
tutrpz	-8071
twrnge	-8072
twzmlr	-8073
twzngr	-8074
twzpex	-8075
twzwxu	-8076
tzting	-8077
utrngr	-8078
utrpnz	-8079
veapem	-8080
vecngr	-8081
vecoma	-8082
vetrpe	-8083
vobzkr	-8084
vomqng	-8085
vopekr	-8086
vopeng	-8087
vopxpe	-8088
vzbzkr	-8089
vzbzng	-8090
vzmqng	-8091
vzpekr	-8092
vzpeng	-8093
waipex	-8094
waipnz	-8095
waleka	-8096
wapekr	-8097
watipe	-8098
watrpe	-8099
koro	-8100
lqwc	-8101
mily	-8102
nedy	-8103
nizm	-8104
nley	-8105
port	-8106
sosa	-8107
vaio	-8108
▁mib	-8109
akxlr	-8110
bakxe	-8111
chill	-8112
ikopi	-8113
kondz	-8114
lweng	-8115
mastz	-8116
mwxlr	-8117
nebwr	-8118
nrlwz	-8119
plosx	-8120
renda	-8121
retiv	-8122
sablq	-8123
yrngz	-8124
zmzne	-8125
▁Lapu	-8126
▁Nove	-8127
▁Tiko	-8128
▁kxsq	-8129
bqoamu	-8130
ennedy	-8131
kaiana	-8132
lastik	-8133
lenapo	-8134
manuel	-8135
mqdrng	-8136
pznizm	-8137
sdikon	-8138
singan	-8139
tanley	-8140
watrpz	-8141
welrng	-8142
wipebo	-8143
wipekr	-8144
wititx	-8145
wrmqng	-8146
wxbupx	-8147
wxbzkr	-8148
wxbzle	-8149
wxliki	-8150
wxpekr	-8151
wzpele	-8152
wztrbe	-8153
wztrkr	-8154
wztrpe	-8155
xlrmlr	-8156
xlrope	-8157
xlrpex	-8158
xmingr	-8159
xpengr	-8160
yamipe	-8161
yapxpe	-8162
yaszpx	-8163
ycongr	-8164
yonepe	-8165
yotipe	-8166
yqbeng	-8167
yrlzng	-8168
yrnipe	-8169
yrpebz	-8170
yxdeng	-8171
yzdeng	-8172
yzlumi	-8173
yzlupx	-8174
yzprlz	-8175
yzprti	-8176
zpwxma	-8177
▁Abrtz	-8178
▁Awitx	-8179
▁Boerg	-8180
▁Bokap	-8181
▁Bonga	-8182
▁Bunga	-8183
▁Bwrne	-8184
▁Dikso	-8185
▁Dwalz	-8186
▁Fredr	-8187
▁Isabe	-8188
▁Jenwz	-8189
▁Josep	-8190
▁Kranz	-8191
▁Kxrpa	-8192
▁Kzpte	-8193
▁Leona	-8194
▁Manyz	-8195
▁Matea	-8196
▁Meamu	-8197
▁Menai	-8198
▁Mncti	-8199
▁Mweka	-8200
▁Mwele	-8201
▁Narnz	-8202
▁Nepwz	-8203
▁Ngrlr	-8204
▁Nzado	-8205
▁Nzamu	-8206
▁Nzapr	-8207
▁Nzngr	-8208
▁Nzpna	-8209
▁Nzrka	-8210
▁Nzrla	-8211
▁Nzrlx	-8212
▁Nzrta	-8213
▁Nzrte	-8214
▁Nzryr	-8215
▁Nzryz	-8216
▁Nztwz	-8217
▁Nzxpe	-8218
▁Pinga	-8219
▁Prcpe	-8220
▁Provi	-8221
▁Renol	-8222
▁Rlasz	-8223
▁Saotz	-8224
▁Seven	-8225
▁Stiba	-8226
▁Stipi	-8227
▁Testi	-8228
▁Tqrpi	-8229
▁Trdwa	-8230
▁Trngi	-8231
▁Trpnz	-8232
▁Yrnga	-8233
▁Zbqkr	-8234
▁abrtr	-8235
▁abrtz	-8236
▁aelwa	-8237
▁apqtr	-8238
▁atulz	-8239
▁ayame	-8240
▁ayrnr	-8241
▁banya	-8242
▁binga	-8243
▁blxge	-8244
▁boksi	-8245
▁bxpiz	-8246
▁dwalz	-8247
▁dwami	-8248
▁etune	-8249
▁glqlz	-8250
▁glqtx	-8251
▁kaoma	-8252
▁kranz	-8253
▁krlzm	-8254
▁krnyz	-8255
▁kxngr	-8256
▁kxnza	-8257
▁kxnzm	-8258
▁kxnzt	-8259
▁kzpte	-8260
▁lemwz	-8261
▁leuwa	-8262
▁luekx	-8263
▁mailz	-8264
▁manyz	-8265
▁mrlzv	-8266
▁mrnyz	-8267
▁nadrv	-8268
▁naipq	-8269
▁namnc	-8270
▁namnq	-8271
▁nange	-8272
▁naomi	-8273
▁naonr	-8274
▁narbi	-8275
▁narbo	-8276
▁narnc	-8277
▁nartr	-8278
▁narya	-8279
▁naryz	-8280
▁navzd	-8281
▁ngrlr	-8282
▁noune	-8283
▁nzabr	-8284
▁nzabz	-8285
▁nzadc	-8286
▁nzael	-8287
▁nzaki	-8288
▁nzalv	-8289
▁nzalx	-8290
▁nzamc	-8291
▁nzamu	-8292
▁nzang	-8293
▁nzapq	-8294
▁nzapr	-8295
▁nzapu	-8296
▁nzarl	-8297
▁nzasu	-8298
▁nzata	-8299
▁nzatr	-8300
▁nzawi	-8301
▁nzayr	-8302
▁nzela	-8303
▁nzglr	-8304
▁nzglx	-8305
▁nzmco	-8306
▁nzmne	-8307
▁nzngq	-8308
▁nzoli	-8309
▁nzolv	-8310
▁nzotr	-8311
▁nzplz	-8312
▁nzpna	-8313
▁nzpwx	-8314
▁nzrbo	-8315
▁nzrkz	-8316
▁nzrla	-8317
▁nzrmu	-8318
▁nzrni	-8319
▁nzrpz	-8320
▁nzrta	-8321
▁nzrtc	-8322
▁nzrte	-8323
▁nzrtr	-8324
▁nzrvi	-8325
▁nzrya	-8326
▁nztes	-8327
▁nzvzd	-8328
▁nzvzm	-8329
▁nzxpe	-8330
▁obqki	-8331
▁okatr	-8332
▁otitx	-8333
▁plrkq	-8334
▁pnati	-8335
▁prcpe	-8336
▁presi	-8337
▁rkatr	-8338
▁rkatx	-8339
▁rpitr	-8340
▁rtqlr	-8341
▁taplx	-8342
▁testi	-8343
▁tqabr	-8344
▁tqali	-8345
▁tqalv	-8346
▁tqamq	-8347
▁tqamr	-8348
▁tqamu	-8349
▁tqamz	-8350
▁tqasi	-8351
▁tqasu	-8352
▁tqawr	-8353
▁tqaya	-8354
▁tqayz	-8355
▁tqetu	-8356
▁tqngc	-8357
▁tqngr	-8358
▁tqoli	-8359
▁tqolv	-8360
▁tqopi	-8361
▁tqopx	-8362
▁tqosz	-8363
▁tqoti	-8364
▁tqplr	-8365
▁tqrda	-8366
▁tqrka	-8367
▁tqrkq	-8368
▁tqrtq	-8369
▁tqrtr	-8370
▁tqrwz	-8371
▁tqrya	-8372
▁tqvzd	-8373
▁tqvzo	-8374
▁tqyrp	-8375
▁trayr	-8376
▁trkqo	-8377
▁trmnc	-8378
▁trngi	-8379
▁trnip	-8380
▁tropx	-8381
▁trpas	-8382
▁trplr	-8383
▁trtzr	-8384
▁twztr	-8385
▁twztx	-8386
▁tzael	-8387
▁tzamr	-8388
▁tzang	-8389
▁tzapu	-8390
▁tzayr	-8391
▁tzetu	-8392
▁tzpna	-8393
▁tzrka	-8394
▁tzrlx	-8395
▁tzrpi	-8396
▁tzrta	-8397
▁tzrtc	-8398
▁tzryz	-8399
▁tzvea	-8400
▁tzvzo	-8401
▁veaka	-8402
▁waela	-8403
▁xlrkr	-8404
▁xlrle	-8405
▁yapwx	-8406
▁yrlwr	-8407
▁zbqkx	-8408
▁zbrlx	-8409
akrlzng	-8410
alzupwz	-8411
angidrx	-8412
anzlvqn	-8413
betxpwz	-8414
blqking	-8415
blrbzle	-8416
blrbzlr	-8417
blrpeng	-8418
brlclvz	-8419
brtzlvz	-8420
ckrlzde	-8421
cpebzlr	-8422
dwapekr	-8423
dwapxpe	-8424
dwatitx	-8425
dwatrkr	-8426
dwatrpe	-8427
dwatrpz	-8428
dxmingr	-8429
elapebz	-8430
enzlikr	-8431
enzliti	-8432
gitxpwz	-8433
glqbzlr	-8434
glqpxkr	-8435
glqtrpe	-8436
glqtrpq	-8437
glrtipe	-8438
ilznede	-8439
irakira	-8440
kanipua	-8441
katrngr	-8442
kilzmle	-8443
kipemle	-8444
kitxpwz	-8445
kondzre	-8446
kqtrngr	-8447
krlzkru	-8448
krlzleu	-8449
krlzmlr	-8450
krlzpwz	-8451
krlzwxu	-8452
krmopwq	-8453
krpengr	-8454
krpepwq	-8455
kxtrngr	-8456
lalztxm	-8457
latrngr	-8458
latxpwz	-8459
lelvzkr	-8460
liopekr	-8461
liqlzkr	-8462
liqtipe	-8463
lisabet	-8464
lizabet	-8465
lrkqnge	-8466
lrtrpem	-8467
lrtxpwz	-8468
lvcmqng	-8469
lvebzle	-8470
lvrkipx	-8471
lvxtile	-8472
lvzbzlr	-8473
lvznedr	-8474
lvzpekr	-8475
lvzpelr	-8476
lvzpwzu	-8477
lvzting	-8478
lvztipe	-8479
lvztrle	-8480
lvztrlr	-8481
lvztrpe	-8482
lvztrtx	-8483
lwzpele	-8484
lwztrpe	-8485
lxobzle	-8486
lxomamu	-8487
mctiamu	-8488
mctipex	-8489
mctxpwz	-8490
meitrpz	-8491
minemle	-8492
mingrti	-8493
mncpeng	-8494
mnctikr	-8495
mnetrpe	-8496
mnetrpz	-8497
mnqtxng	-8498
mwipekr	-8499
mwxlrng	-8500
myapxbz	-8501
naoxngr	-8502
nctxpwz	-8503
ngarare	-8504
ngctikr	-8505
ngelubo	-8506
ngelune	-8507
ngidrkr	-8508
ngitika	-8509
ngitikr	-8510
ngitile	-8511
ngqnamu	-8512
ngrkxnz	-8513
ngrkxtr	-8514
ngrtipe	-8515
nibqngr	-8516
nineope	-8517
nqblqne	-8518
nzakrlz	-8519
nzlimgr	-8520
nzlipwz	-8521
nzsiklu	-8522
nzyagox	-8523
obqbzng	-8524
obqnene	-8525
palelvz	-8526
pipemle	-8527
pipemlr	-8528
platitr	-8529
platrpe	-8530
plitipe	-8531
plxtipe	-8532
pnatilr	-8533
pnutitx	-8534
pnzbzlr	-8535
pnztrpz	-8536
presinq	-8537
prtrngr	-8538
putxpwz	-8539
pwxbzkr	-8540
pwxbzle	-8541
pwxpebz	-8542
pwxpekr	-8543
pwxtipe	-8544
rlalzkr	-8545
rlapxkr	-8546
rlcdeng	-8547
rlckxbq	-8548
rlimzng	-8549
rlqbzkr	-8550
rlqbzle	-8551
rlqtrpz	-8552
rlqtxtr	-8553
rlwxngr	-8554
rlxtipe	-8555
rlxtitx	-8556
rlxtrpz	-8557
rlzbzkr	-8558
rlzbzle	-8559
rlzpekr	-8560
rlztile	-8561
rtekqtr	-8562
siklung	-8563
siklupe	-8564
siklupx	-8565
sikluti	-8566
takitru	-8567
tangrne	-8568
tangrti	-8569
tcolzbq	-8570
tctxngr	-8571
telvzlr	-8572
tipemle	-8573
titrpwz	-8574
titxpwz	-8575
topwzne	-8576
topwzng	-8577
topwzti	-8578
trkangr	-8579
trmrlzu	-8580
trngrti	-8581
trpemgr	-8582
trpemle	-8583
trpexng	-8584
trtxpwz	-8585
twzbzlr	-8586
twznedr	-8587
twzting	-8588
twztipe	-8589
txlzmle	-8590
txpxpnz	-8591
uekxpiz	-8592
urchill	-8593
veamrlz	-8594
veaneng	-8595
veapebz	-8596
vecpeng	-8597
venoklc	-8598
vongrgr	-8599
vztrngr	-8600
waipele	-8601
watrngr	-8602
wrkilvc	-8603
wxbupxm	-8604
wzpeleu	-8605
wztxpwz	-8606
xlrbzlr	-8607
xlrpekr	-8608
xpetrpq	-8609
yagoxpe	-8610
yapwxpe	-8611
ycblqng	-8612
ycmnekr	-8613
ycmnepe	-8614
ycpengr	-8615
yrkelvz	-8616
yrkrpxp	-8617
yrkrpxx	-8618
yrlwrti	-8619
yrlzngr	-8620
yrtingr	-8621
yzlumle	-8622
yzutrpe	-8623
zkakrbz	-8624
▁Dckrlz	-8625
▁Komisi	-8626
▁Kxaonr	-8627
▁Lcsukx	-8628
▁Meloma	-8629
▁Mnctio	-8630
▁Mweita	-8631
▁Mznzmi	-8632
▁Nabzlu	-8633
▁Namznr	-8634
▁Nartwz	-8635
▁Nzalvz	-8636
▁Nzkalz	-8637
▁Nzoliq	-8638
▁Nzrtwz	-8639
▁Nzvztr	-8640
▁Prtztx	-8641
▁Sekaen	-8642
▁Vaniko	-8643
▁Wztitx	-8644
▁Yrkrpx	-8645
▁Yzlumi	-8646
▁Yzlutx	-8647
▁angida	-8648
▁ataplx	-8649
▁ayrpla	-8650
▁bzprlz	-8651
▁bztipe	-8652
▁dakxnz	-8653
▁katitx	-8654
▁kctitx	-8655
▁krlzlz	-8656
▁krlzpe	-8657
▁kxaonr	-8658
▁kxnzkq	-8659
▁kxnzsi	-8660
▁kzbzny	-8661
▁lcsukx	-8662
▁lrmzta	-8663
▁matine	-8664
▁mctrpz	-8665
▁mncpwz	-8666
▁mrbrlz	-8667
▁mrbrti	-8668
▁naaglq	-8669
▁nabzmi	-8670
▁nabzne	-8671
▁nakqtx	-8672
▁namupe	-8673
▁napine	-8674
▁napitx	-8675
▁naprtz	-8676
▁narbom	-8677
▁nartwz	-8678
▁natekq	-8679
▁navzdz	-8680
▁navzpe	-8681
▁naycti	-8682
▁nrkrdr	-8683
▁nrlckx	-8684
▁nutitx	-8685
▁nzabzo	-8686
▁nzangc	-8687
▁nzangr	-8688
▁nzarla	-8689
▁nzatol	-8690
▁nzatwz	-8691
▁nzikla	-8692
▁nzkqtu	-8693
▁nzkuki	-8694
▁nzlalz	-8695
▁nzlutx	-8696
▁nzmale	-8697
▁nzmiti	-8698
▁nzmqlr	-8699
▁nzmrbr	-8700
▁nzmrge	-8701
▁nzmrlz	-8702
▁nznemi	-8703
▁nzolvx	-8704
▁nzrbom	-8705
▁nzrngi	-8706
▁nztami	-8707
▁nztave	-8708
▁nztekq	-8709
▁nzvzbz	-8710
▁nzvzmq	-8711
▁nzvzpe	-8712
▁nzvzpx	-8713
▁nzxplr	-8714
▁nzyrkr	-8715
▁nzyrlq	-8716
▁nzyrpu	-8717
▁pawitx	-8718
▁rblxtx	-8719
▁rnzlvz	-8720
▁skulbo	-8721
▁stoaki	-8722
▁tqablz	-8723
▁tqaglq	-8724
▁tqatwz	-8725
▁tqayzu	-8726
▁tqdola	-8727
▁tqmznr	-8728
▁tqolvx	-8729
▁tqprki	-8730
▁tqrblx	-8731
▁tqrglq	-8732
▁tqrpir	-8733
▁tqtune	-8734
▁tqtutr	-8735
▁tqtutx	-8736
▁tqvolz	-8737
▁tqvzki	-8738
▁tqvzpx	-8739
▁tqyapx	-8740
▁tqyrke	-8741
▁tqyrni	-8742
▁tqyrpu	-8743
▁tqyrwi	-8744
▁trkrle	-8745
▁trlrpr	-8746
▁trmale	-8747
▁trnzao	-8748
▁trnzlx	-8749
▁trnzmc	-8750
▁trnzpr	-8751
▁trrblx	-8752
▁trtegr	-8753
▁trtqwz	-8754
▁trvzkz	-8755
▁trvzpx	-8756
▁tzalvz	-8757
▁tzangi	-8758
▁tzangr	-8759
▁tzatwz	-8760
▁tzavea	-8761
▁tzkatx	-8762
▁tzkrlz	-8763
▁tzkuki	-8764
▁tzmale	-8765
▁tzvzbe	-8766
▁tzvzki	-8767
▁tzyapx	-8768
▁tzyzlu	-8769
▁xpetix	-8770
▁ycpqti	-8771
▁yctrpe	-8772
▁yrkrmi	-8773
▁yzprlz	-8774
abetxpwz	-8775
aenzlitx	-8776
balqnekr	-8777
brtztxpo	-8778
clvebzle	-8779
cprtrngr	-8780
dwatrngr	-8781
elwatibz	-8782
glqtrpem	-8783
inyxdeng	-8784
kalzmqgr	-8785
kalzmqng	-8786
kaputrpe	-8787
katxbzle	-8788
kctitxpx	-8789
kilzpekr	-8790
kipebzkr	-8791
kqlupeng	-8792
krlztrpz	-8793
krlzwamu	-8794
kxtrpele	-8795
lalatikr	-8796
lanteson	-8797
lepebzle	-8798
lizabeth	-8799
lrmqdrng	-8800
lrpebzle	-8801
lvrkimle	-8802
lvzneope	-8803
lvztrpex	-8804
mctinedr	-8805
mctipekr	-8806
mctipelr	-8807
mitrpekr	-8808
mitrpele	-8809
mnctxpwz	-8810
mnekimle	-8811
mrbrtitr	-8812
mrbrtrpe	-8813
mwipekru	-8814
ngeitxbz	-8815
ngelungr	-8816
ngidrpex	-8817
ngitingr	-8818
ngrlalvz	-8819
ngrtingr	-8820
obqlvzti	-8821
okiabzkr	-8822
oklatitr	-8823
olxomamu	-8824
pibzlrle	-8825
pipebzle	-8826
pipebzlr	-8827
plameiti	-8828
platrngr	-8829
porapekr	-8830
pxyqbeng	-8831
rlwrmqng	-8832
rlxkqtio	-8833
sablqpxm	-8834
sumipebo	-8835
tatrpele	-8836
tavetrpe	-8837
tekqtrle	-8838
tekqtrpe	-8839
tipebzlr	-8840
trkatitx	-8841
trkrbade	-8842
tutrpele	-8843
txpnzngr	-8844
txpxpnzx	-8845
ustrelia	-8846
veclzmlr	-8847
vecomamu	-8848
welrpekr	-8849
wititxne	-8850
wrkxtrpe	-8851
wzkipxle	-8852
wztrpelr	-8853
xlropelr	-8854
yapwxpem	-8855
yaszpxle	-8856
yclvzope	-8857
ycmnengr	-8858
yotipelr	-8859
yrlqtrpz	-8860
yrplapxx	-8861
yzlubzle	-8862
yzlupele	-8863
yzlupleu	-8864
yzutrngr	-8865
zpwxpekr	-8866
▁Dwatrpz	-8867
▁Gwaleka	-8868
▁Ilztrka	-8869
▁Kcopore	-8870
▁Nabakxe	-8871
▁Narnzti	-8872
▁Nzabrtz	-8873
▁Nzatrka	-8874
▁Nzdwatx	-8875
▁Nzngrlr	-8876
▁Nzobqpx	-8877
▁Nzrkatx	-8878
▁Nzrpilz	-8879
▁Nzrteka	-8880
▁Nzrtekq	-8881
▁Nzsiklu	-8882
▁Omitxpx	-8883
▁Paumale	-8884
▁Rmikatx	-8885
▁Sevenok	-8886
▁Tzycmne	-8887
▁amukxtr	-8888
▁ayzprti	-8889
▁kxetuti	-8890
▁kxnzmnz	-8891
▁kxyrngz	-8892
▁kztenge	-8893
▁mnqtipe	-8894
▁nadotxo	-8895
▁nadwasz	-8896
▁naipqpx	-8897
▁napilvz	-8898
▁narlapx	-8899
▁narlxti	-8900
▁nayagox	-8901
▁ngrlrmi	-8902
▁nzaclve	-8903
▁nzaolvz	-8904
▁nzatrka	-8905
▁nzawitx	-8906
▁nzglqpx	-8907
▁nzlcapq	-8908
▁nzlxplz	-8909
▁nzmnclz	-8910
▁nzmncti	-8911
▁nzmnctr	-8912
▁nzngqba	-8913
▁nzotrpz	-8914
▁nzrpilz	-8915
▁nzrteka	-8916
▁nzrtekq	-8917
▁nztqlvz	-8918
▁nzyangr	-8919
▁taplxsr	-8920
▁tqaclve	-8921
▁tqalepe	-8922
▁tqamznr	-8923
▁tqawipe	-8924
▁tqayrkr	-8925
▁tqayrni	-8926
▁tqbxplc	-8927
▁tqdwalz	-8928
▁tqdwati	-8929
▁tqdwatr	-8930
▁tqlolvz	-8931
▁tqmncne	-8932
▁tqmncpe	-8933
▁tqmwitx	-8934
▁tqngini	-8935
▁tqngrlx	-8936
▁tqobqlz	-8937
▁tqotipe	-8938
▁tqrdatr	-8939
▁tqsiklu	-8940
▁tqtopwz	-8941
▁tqyapwx	-8942
▁tqyrlwr	-8943
▁traolvz	-8944
▁trkqopq	-8945
▁trnangi	-8946
▁trnzmne	-8947
▁trtqdwa	-8948
▁tzaelwa	-8949
▁tzamrbr	-8950
▁tzmnctx	-8951
▁tzmwelr	-8952
▁tzngrlr	-8953
▁tzrkalz	-8954
▁tzrlxti	-8955
▁tzryzkr	-8956
▁tzveope	-8957
▁tzyapwx	-8958
▁wztxpwz	-8959
▁yrplabr	-8960
aenzlipwz	-8961
ayrplapxx	-8962
brkapxmlr	-8963
dwatrwamu	-8964
etunepxpe	-8965
glrtipeng	-8966
iklatxpwz	-8967
kalzmqngq	-8968
kalzpemgr	-8969
kaputrpem	-8970
kaputxpwz	-8971
kitrtxpwz	-8972
kitxpwzlr	-8973
kranzlvqn	-8974
kukirpelr	-8975
kxnzyagox	-8976
lelvzpekr	-8977
lrmztangi	-8978
lvztipelr	-8979
lxlrtxpwz	-8980
lxlvrkipx	-8981
lxngitika	-8982
lxngitile	-8983
mnetrpzkr	-8984
mnqlvzngr	-8985
mwelrpekr	-8986
ngrlrpekr	-8987
ngrlrpxpe	-8988
pilwztrpe	-8989
pnatibzlr	-8990
pnzngrpwz	-8991
pnztrpzng	-8992
presinqng	-8993
rpakxmrlz	-8994
siklupele	-8995
tangrtipe	-8996
titxpwzle	-8997
trngrtibz	-8998
trngrtiox	-8999
trngrtitr	-9000
tulrtrpem	-9001
wrkxtrngr	-9002
yapwxpebz	-9003
yclvzopeu	-9004
ycmnetrpe	-9005
yotipelru	-9006
yrlwrmqng	-9007
yrlwrtine	-9008
yrpalelvz	-9009
yrplatitr	-9010
▁Aglqtrpq	-9011
▁Drvrmine	-9012
▁Mnctxpwz	-9013
▁Nzapresi	-9014
▁Nzrtwzti	-9015
▁Nzryrngr	-9016
▁Trnanibq	-9017
▁Tryrnipe	-9018
▁amnqtxtr	-9019
▁ataplxsr	-9020
▁kxnzalvz	-9021
▁kxnzaonr	-9022
▁naalvztr	-9023
▁nabzkxtr	-9024
▁naprtxpx	-9025
▁nzalvzti	-9026
▁nzatwzlr	-9027
▁nzayrlwr	-9028
▁nzayrpla	-9029
▁nzmctrpe	-9030
▁nzmwible	-9031
▁tqalilvc	-9032
▁tqalvzne	-9033
▁tqalvzpx	-9034
▁tqamqngi	-9035
▁tqatwzlr	-9036
▁tqayagox	-9037
▁tqdotrpe	-9038
▁tqkakilz	-9039
▁tqlitrpe	-9040
▁tqvztrpe	-9041
▁tqwxliki	-9042
▁tqwztrbe	-9043
▁tqyrkrki	-9044
▁tqyrkrpx	-9045
▁tqyrputi	-9046
▁trnikapq	-9047
▁tzalvztr	-9048
▁tzangcpe	-9049
▁tzmcpxpe	-9050
▁tzrtangr	-9051
▁tzvzkipx	-9052
▁tzyamipe	-9053
▁ycpqtxpx	-9054
▁yrbutipe	-9055
▁yrkrtxtr	-9056
▁yrlqtxtr	-9057
abetxpwzkr	-9058
brtztxpekr	-9059
katrtxbzle	-9060
kqlepebzle	-9061
lawititxne	-9062
mrbrtrpele	-9063
ngrlxobzle	-9064
rlxngitile	-9065
tangrtingr	-9066
tangrtipex	-9067
tavetrpelr	-9068
tekqtrpeng	-9069
twzlrpemle	-9070
wrkxtrpele	-9071
wrkxtrpeng	-9072
yrlqtrpzlr	-9073
▁Tqyrkelvz	-9074
▁Twzkipxle	-9075
▁kxnzyagox	-9076
▁kxtopwzti	-9077
▁nadwatrpz	-9078
▁nanginipe	-9079
▁naokatrpq	-9080
▁narlxtibz	-9081
▁narlxtrpz	-9082
▁nzakititr	-9083
▁nzangrlvz	-9084
▁nzglqtrpe	-9085
▁nzlcapqbz	-9086
▁nzlutxpwz	-9087
▁nzxlrbzlr	-9088
▁tqdwalzpe	-9089
▁tqnginipe	-9090
▁tqngrlrpx	-9091
▁tqotitrpe	-9092
▁tqrlxtipe	-9093
▁tqycmnepe	-9094
▁trayrkrpx	-9095
▁trayzlupx	-9096
▁trnzaolvz	-9097
▁trnzpresi	-9098
▁trplrkqtu	-9099
▁tzamrbrtr	-9100
▁yrnineope	-9101
▁yrplabrtq	-9102
brlclvznepx	-9103
iklatxpwzng	-9104
kitrtxpwzle	-9105
kxnzyagoxng	-9106
liqtipebzle	-9107
ngrlvzneope	-9108
trngrtibzme	-9109
trngrtitrle	-9110
veatipebzlr	-9111
▁kxnzalvztr	-9112
▁nzabrtzlvz	-9113
▁nzalxngiti	-9114
▁nzrlxkqtio	-9115
▁nzrlxngiti	-9116
▁	-9117
r	-9118
z	-9119
n	-9120
e	-9121
k	-9122
a	-9123
l	-9124
t	-9125
m	-9126
i	-9127
x	-9128
g	-9129
c	-9130
p	-9131
d	-9132
q	-9133
b	-9134
u	-9135
o	-9136
.	-9137
s	-9138
-	-9139
,	-9140
w	-9141
v	-9142
y	-9143
N	-9144
M	-9145
'	-9146
K	-9147
S	-9148
D	-9149
A	-9150
T	-9151
B	-9152
1	-9153
R	-9154
L	-9155
X	-9156
"	-9157
9	-9158
J	-9159
Z	-9160
P	-9161
V	-9162
0	-9163
Y	-9164
“	-9165
7	-9166
I	-9167
5	-9168
G	-9169
”	-9170
6	-9171
2	-9172
3	-9173
8	-9174
4	-9175
F	-9176
E	-9177
j	-9178
?	-9179
O	-9180
W	-9181
h	-9182
!	-9183
