<unk>	0
<s>	0
</s>	0
,	-2.558
▁	-3.45145
▁nɔ́	-3.85896
▁gɛ	-3.9998
.	-4.02476
▁mɛ	-4.14165
▁pɛ	-4.26503
▁nɛ́	-4.3597
▁ko	-4.37529
▁sɛ	-4.38768
▁kɛlɛ	-4.46994
▁yɛ	-4.60529
▁blɔ	-4.61481
▁err	-4.62271
▁tsyɛ́	-4.81695
▁tɛ	-4.82971
▁bɔ	-4.84522
▁ɛ	-4.99482
ɛ́	-5.01973
ɛ	-5.02686
▁klɛ	-5.07817
▁ɔ	-5.14923
▁pétéé	-5.18752
ɔ	-5.26001
▁kɛ	-5.27317
▁a	-5.31651
▁alɛ	-5.32676
a	-5.34497
▁ba	-5.36125
▁so	-5.41445
▁b	-5.41789
▁wɔ	-5.42338
▁abha	-5.4529
▁lɛ	-5.49548
▁kɔ́	-5.5415
▁bu	-5.55729
nɔ	-5.58503
▁k	-5.60542
́	-5.62519
▁lɔkɔ	-5.64536
ɔ́	-5.67793
pɛ	-5.68767
...	-5.71693
ké	-5.74211
▁kibúí	-5.7445
▁ónú	-5.75884
▁be	-5.75951
▁shú	-5.75954
▁e	-5.77834
▁ahɔɛ	-5.78366
▁lɛ́	-5.78385
▁o	-5.78719
▁balɛ	-5.79498
▁nɛ	-5.8008
i	-5.83637
▁bulĩ́ɛ́	-5.89068
nú	-5.91488
▁alɔkɔ	-5.94072
▁kɛ́lɛ	-5.94361
▁otsíɛ́	-5.95072
ǔ	-5.95798
́,	-5.96659
▁ee	-5.97512
▁kana	-5.97671
▁anɔ	-6.03055
▁bɔdɔ̃	-6.03631
á	-6.0567
▁aba	-6.0606
▁bɔba	-6.0666
ã́	-6.07793
▁ga	-6.09566
o	-6.10116
▁koɔ	-6.1166
▁nɔ	-6.1174
▁G	-6.13394
▁flógo	-6.13449
mɔ	-6.15086
▁ki	-6.15874
▁otsí	-6.15976
▁ɔma	-6.20661
▁piapíí	-6.20726
▁ebú	-6.21248
▁Okú	-6.21411
vɔɛ	-6.24707
lɛ	-6.25084
▁baba	-6.2691
▁yoo	-6.28559
▁kliso	-6.28562
▁tilí	-6.28608
▁anyɛ́	-6.29201
▁ana	-6.29416
▁alɛ́	-6.29772
ŋa	-6.3106
▁y	-6.31407
▁Begbe	-6.32731
▁aló	-6.32743
u	-6.33793
▁akɔ́	-6.33914
▁ɔ́	-6.34917
é	-6.36924
▁Banyá	-6.37083
bú	-6.41351
▁asɛ	-6.42679
nu	-6.43683
?	-6.46337
ana	-6.46818
kú	-6.47344
lí	-6.47395
▁lo	-6.4855
▁ɔlɛ	-6.48812
▁bɔlɔ	-6.50269
lɛ́	-6.50574
▁batrugbu	-6.50691
▁klɛ́	-6.51063
▁salí	-6.51343
▁kishi	-6.51344
▁So	-6.51346
▁ansɛ	-6.51395
▁é	-6.51785
▁kpɛ́	-6.53358
▁ɔlɔ́	-6.55644
bhɛtɛ	-6.55903
▁lɔ	-6.55935
▁kɛpɔtɛ́	-6.56617
▁bɔwá	-6.56655
▁wonɔ	-6.56706
sɛ	-6.57153
alɛ	-6.59495
▁aa	-6.60615
-	-6.62156
▁bebe	-6.62239
▁kúnú	-6.6232
▁batrugbuɔ	-6.63021
▁álɛ́	-6.63978
▁telí	-6.64355
gã	-6.64596
▁A	-6.65637
▁obo	-6.67294
rr	-6.67692
▁ɛhɛ́ɛ	-6.68038
▁Kliso	-6.68039
▁bɔbhɛtɛ	-6.69365
kɔ́	-6.7032
▁soɔ	-6.70873
▁bɔlɛ	-6.71002
vɛ	-6.71433
▁ɔbɔ	-6.73046
▁kesí	-6.7356
▁aka	-6.73664
▁ŋa	-6.74041
ŋú	-6.74285
▁kóŋ́	-6.74288
▁tabha	-6.74347
ɖɔ	-6.74543
▁bunu	-6.74554
▁bekl	-6.74867
vɔbɔ́	-6.75127
▁abá	-6.7521
kpɛ́	-6.76412
mɛ	-6.76532
í	-6.76582
▁akpɛ́	-6.77487
wa	-6.78896
▁obúɔ́	-6.80977
wɛ̃	-6.80982
▁eyíɛ́	-6.81211
▁ɔlɛ́	-6.81237
▁olɔ	-6.8136
▁abhɛtɛ	-6.82805
▁ɔmɔ	-6.8363
bisi	-6.84432
▁K	-6.87165
▁t	-6.87614
▁kɔ	-6.87643
▁yenu	-6.88109
▁kibui	-6.88113
dě	-6.88196
▁babakɔ́	-6.88503
▁vɛnɔ	-6.8869
▁bunuɔ	-6.88975
lɔkɔ	-6.89205
▁oo	-6.89318
▁balɔkɔ	-6.90339
▁ɔlɔ	-6.90416
▁avɛ	-6.90558
▁B	-6.95632
▁E	-6.9579
▁anuvɔ	-6.9579
▁xɔ̃́nɔ́	-6.9579
▁kampɛ	-6.9581
▁ekusíɛ́	-6.96298
samɛ	-6.9669
▁ka	-6.96961
tɔ	-6.97114
bá	-6.9744
tɔɖɔ	-6.97828
yi	-6.97846
ú	-7.03185
▁ɛklɛ	-7.03871
▁tenikpó	-7.04124
plɛ́nɔ	-7.0413
▁Kumɛ	-7.04135
▁kibe	-7.0416
▁bawá	-7.04208
▁ɛklɛ́	-7.04611
▁to	-7.04904
▁buú	-7.04958
▁kã	-7.05386
▁ɔkɔ́	-7.06915
▁kibúíɛ́	-7.07856
▁osí	-7.07928
▁azɛ	-7.09136
▁wɔ́	-7.09777
tá	-7.11423
̃́	-7.11706
▁ewu	-7.12419
▁kú	-7.12755
bha	-7.12882
▁Tingbě	-7.13214
▁tsyámi	-7.13266
▁mana	-7.14079
▁anɛ	-7.14544
▁bɔɖɔ	-7.15419
lɔ	-7.16109
▁baá	-7.17361
tsyina	-7.18274
▁kɔ́ɛ	-7.18817
▁kɛlɛ́	-7.18895
wi	-7.19263
▁ɛlɛ́	-7.19267
▁f	-7.20899
▁bɔɔ́	-7.21385
ɖǐ	-7.22264
▁bhɛtɛ	-7.22762
dze	-7.22907
▁bɔpã́	-7.23095
▁watch	-7.23214
▁ɔbhíá	-7.23214
▁adzɛ̃̌	-7.23237
▁kɛklagbu	-7.23246
▁kɛgɔ	-7.23266
▁ɔkplɔ̃	-7.23293
▁adzɛ̃	-7.23313
▁befu	-7.23365
▁ɛhɔɛ	-7.2339
▁buvũɔ	-7.23437
▁nána	-7.23587
▁eé	-7.23595
eshe	-7.23737
▁bɔbakpɛ́	-7.23808
▁edzi	-7.24333
▁enu	-7.2445
alɛ́	-7.26149
▁bakpɛ́	-7.2635
r	-7.26453
▁basɛ	-7.2657
hĩá	-7.26621
ǐ	-7.28075
dzǔ	-7.28238
ɛ̃	-7.28342
ɖi	-7.28787
▁edě	-7.29261
▁ta	-7.29462
▁ɔkɔ	-7.3078
e	-7.30804
yɔ	-7.31063
osu	-7.32253
wl	-7.33247
xwɛ̃	-7.33477
▁egbogbǒ	-7.33905
▁bá	-7.34087
'	-7.34326
▁kesiakpá	-7.34326
▁ŋútɔ́ŋútɔ́	-7.34326
zhǐ	-7.34326
▁dé	-7.34406
sú	-7.34471
▁akasɛ́	-7.3456
▁dza	-7.34908
x	-7.34945
▁bukl	-7.3505
edě	-7.35143
▁gagãlĩ	-7.3529
▁kpasɛ	-7.35621
ũ	-7.35889
▁ti	-7.36344
▁i	-7.36657
telí	-7.36663
na	-7.37609
▁yálɛ	-7.37641
▁agã	-7.37915
ãk	-7.38771
lũ	-7.39482
▁kɛhĩ	-7.39557
́nɔ́	-7.41767
ó	-7.41839
ba	-7.42163
▁m	-7.42324
▁Bɔ	-7.42462
ɛmɔ	-7.43501
▁ebúí	-7.46633
▁tsɔ̃ɔ̃	-7.46826
▁ŋútɔ́	-7.46826
óto	-7.46827
▁tenukpó	-7.46831
▁riɖiɖiɖi	-7.4684
▁ɛyá	-7.4684
su	-7.46854
▁xɔ	-7.46903
▁okumɛ	-7.4692
▁ad	-7.46986
▁kɛɖaŋu	-7.47007
▁kɛdɔ̃	-7.47018
▁ma	-7.47107
▁ababá	-7.47373
toró	-7.47478
▁kifúɔ́	-7.47501
▁bababhɛtɛ	-7.47527
▁axwɛ̃	-7.47657
▁tɛbha	-7.47836
▁naálɛ	-7.48018
▁esí	-7.48212
▁anyá	-7.48285
zhĩá	-7.48354
▁elɛ́	-7.48489
▁kedě	-7.48841
tsǐ	-7.49171
tínyí	-7.49208
ɛgɛzã	-7.49329
kɔ	-7.49766
▁busí	-7.49824
▁amɔ́	-7.50059
▁etsyina	-7.50578
▁babhɛtɛ	-7.50679
▁batɛ́kaá	-7.5125
▁á	-7.51519
▁am	-7.54056
▁n	-7.54774
▁bɔɛ	-7.55482
▁kinyé	-7.55496
so	-7.55513
lú	-7.55901
▁kɛba	-7.56076
álɛ́	-7.56593
▁gã	-7.57009
bevũ	-7.57014
kányáka	-7.57129
▁tɔ	-7.57645
tsiɖí	-7.57693
sɛ̃́	-7.58686
ě	-7.58847
éwu	-7.59489
▁l	-7.59693
▁béke	-7.5991
▁anyɛ	-7.60826
ǒ	-7.61074
▁vɔvɔ	-7.61111
▁ɛɛ́ɖɔ	-7.61137
▁begi	-7.6114
▁buwí	-7.61146
múnɔ	-7.61193
▁kesi	-7.61317
▁bazɛ	-7.61322
án	-7.61553
▁ɔzãkɔ́	-7.62069
▁békeɛ	-7.62327
▁bɔwa	-7.62327
▁bayɛkɛ	-7.62369
▁azã	-7.62392
▁ɔwɛ̃	-7.62408
tóŋú	-7.62476
▁beé	-7.63254
▁agb	-7.63423
▁bɔzã	-7.63477
rá	-7.64839
kukɔ	-7.6501
▁ɛ́	-7.65652
▁mɛmɔ	-7.6598
▁dzi	-7.66009
ge	-7.66423
ewokú	-7.6729
▁alɔkɔɛ	-7.67737
ã	-7.68129
gɛ	-7.68991
▁dzyo	-7.69354
dzi	-7.69395
▁babatɔ	-7.70379
▁su	-7.72052
ɖo	-7.72065
▁ot	-7.73239
▁butukú	-7.73292
si	-7.73917
kp	-7.74296
▁anɔ́dz	-7.74528
v	-7.74875
ɔbhɛtɛ	-7.75748
nyáka	-7.76124
▁wo	-7.76573
▁dzy	-7.7666
té	-7.76975
ɔhɔɛ	-7.77167
▁eyí	-7.77525
▁Y	-7.77771
▁Máwú	-7.77778
▁budzyuɖí	-7.77778
▁méke	-7.77778
▁tinikpó	-7.77778
▁nobo	-7.77794
▁kitsu	-7.77804
ɖu	-7.77817
▁tsã́	-7.77885
▁ap	-7.78078
óé	-7.78129
▁abazã	-7.78254
▁bɔpã́mɛ	-7.78265
▁etsǐɛ	-7.78353
kr	-7.7851
▁nɛɛ́lɛ	-7.78994
gbã	-7.7908
▁ɔbha	-7.79104
vé	-7.79178
▁sɔlɛ	-7.7984
yikɛ	-7.80025
▁ɔlɔkɔ	-7.80104
▁bamɔ	-7.80318
bhlatɔ	-7.80518
▁g	-7.80611
lĩ́	-7.81166
▁bɔkpɛ́	-7.81302
▁sɛ̃́ɛ	-7.82079
dzy	-7.83472
▁wa	-7.8398
▁zɛ	-7.84046
awɛ̃	-7.8443
▁awɛ̃	-7.84839
fu	-7.84944
▁ɔɔ́	-7.8674
bamana	-7.86981
▁wu	-7.87707
kpɛ́kpɛ́	-7.88115
▁bɔkɔ	-7.88293
▁batɛ́	-7.88437
ts	-7.89136
nyɛ́	-7.90312
akpɛ́	-7.90762
seɖ	-7.92019
ekú	-7.92127
ka	-7.92266
▁kitsi	-7.92401
̌	-7.93227
▁O	-7.93756
nyá	-7.94289
▁besí	-7.94664
zã	-7.95125
ná	-7.9589
▁ozi	-7.95909
eɛ́	-7.96175
▁kifú	-7.96565
▁ilɛ	-7.9681
▁ekusí	-7.97118
ma	-7.97127
▁ɛlɛ	-7.97375
▁bulĩ	-7.97629
▁bakɔ	-7.97742
y	-7.97773
zurú	-7.97778
▁dawadáwá	-7.97778
ebolé	-7.97778
▁ashwĩ	-7.97778
▁tulí	-7.97784
▁plɛnɔ	-7.97792
▁ɔdɛ	-7.97865
▁kibéle	-7.97947
▁Kɛlɛ	-7.97971
▁abayikɛ	-7.97982
elí	-7.98004
ɔkpɛ́	-7.98159
po	-7.98233
▁ɛkɛlɛ	-7.98338
▁akpasɛ	-7.98367
▁búlí	-7.98445
▁egbogbǒɔ́	-7.98622
▁gbã́	-7.98842
▁oziɛ́	-7.9905
z	-7.99326
▁benu	-7.99403
bísi	-7.99415
▁sh	-7.99473
▁ɖotí	-7.99786
beté	-8.00034
▁bɔbá	-8.00438
▁adzɛ̃̌ɛ́	-8.00497
▁ed	-8.00667
▁bagba	-8.00677
́.	-8.009
▁beke	-8.01578
wɛ	-8.01772
▁bey	-8.01887
inyí	-8.02165
▁ɔgɛ	-8.02494
kpũ	-8.02655
▁kóéyi	-8.02706
li	-8.0293
ayɛ́	-8.03487
▁ada	-8.03506
tí	-8.0389
▁bɔka	-8.03993
elũ	-8.04006
▁aá	-8.04573
atɔɖɔ	-8.04814
yɔ́	-8.05251
▁nu	-8.06191
gb	-8.06408
nyéɛ́	-8.06683
▁babá	-8.0684
kóéyi	-8.06903
dɔ	-8.07026
▁yɔ́	-8.07458
yɛkɛ	-8.0761
dzí	-8.07675
▁atɔɖɔ	-8.07832
ra	-8.08714
▁ok	-8.09424
balɔkɔ	-8.09902
ɔ̃́	-8.09925
tsyɛ	-8.10026
baŋa	-8.10367
obisi	-8.10631
shw	-8.11076
ko	-8.1231
▁ab	-8.12509
▁vɛ	-8.12549
▁ots	-8.14117
pl	-8.14798
la	-8.16322
tsiɖi	-8.16454
▁bɔgb	-8.16591
nɛ	-8.16998
▁ké	-8.17151
babá	-8.17588
amɛ	-8.17973
badɛ	-8.18188
▁agɛ	-8.18291
lĩ	-8.185
▁p	-8.18556
▁ebe	-8.18942
tɔ̃	-8.18969
okú	-8.191
ɛ́bá	-8.1918
nɔ́	-8.1964
te	-8.19723
tu	-8.1988
▁bh	-8.19911
k	-8.20006
sí	-8.20642
▁nɛɛ́lɛ́	-8.20942
▁aká	-8.2098
zãkɔ́	-8.21626
béle	-8.21822
bakpɛ́	-8.21931
bazã	-8.22067
eté	-8.22333
▁bɔm	-8.22533
▁kpa	-8.22623
eleté	-8.22753
W	-8.22778
▁T	-8.22778
▁epidzy	-8.22778
▁kelĩkekpu	-8.22778
▁ketsukpu	-8.22778
▁áníí	-8.22778
gegéné	-8.22778
▁eféké	-8.22778
▁budz	-8.22779
shogo	-8.22779
epíɛ́	-8.2278
▁kɛwalɔ	-8.2278
yɔ̃́ɔ̃́	-8.22781
ingb	-8.22781
▁kidĩ	-8.22781
▁yǐyǐɛ	-8.22781
▁kelitú	-8.22783
▁kelitakpú	-8.22783
▁Yoo	-8.22789
fatɛ	-8.22799
▁oboyǐ	-8.22803
▁yiyiɛ	-8.22827
▁obopú	-8.2285
▁ɛzɛlɔkɔ	-8.22872
ishú	-8.22896
▁babasɛnɔ	-8.22898
▁kidzǒ	-8.22911
▁ozĩ	-8.22939
tsɛrɛ	-8.2296
▁bese	-8.23001
▁ɔnyɔ́	-8.23006
▁bushe	-8.23017
▁nɔɔ́lɛ	-8.23025
▁tsyá	-8.23039
▁ababalɛ	-8.23055
▁edé	-8.23073
▁bulĩ́	-8.23151
▁amɔ	-8.23165
▁shumɛ	-8.23179
▁Be	-8.23195
▁oli	-8.23255
▁shi	-8.23335
▁bulíɛ́	-8.23339
▁kɛfɔ	-8.23344
▁tɛwá	-8.23392
ɛwã	-8.23466
▁oziɛ	-8.23615
▁besh	-8.23618
▁kelĩ́	-8.23732
▁kibenyíbe	-8.2388
▁baka	-8.24248
gũ	-8.2434
▁ɛbatóŋú	-8.24627
▁butú	-8.24897
▁ayɛ̌	-8.25542
▁bage	-8.25556
plɛ	-8.25687
▁anyana	-8.25735
búí	-8.25782
ɛ́kpɛ́	-8.26053
kasɛ́	-8.26255
▁kesíɛ́	-8.2637
tíke	-8.26535
ya	-8.26667
▁gbe	-8.2675
onɔ	-8.26845
▁akaalɛ	-8.26865
▁bawɛ̃	-8.27011
▁olũ	-8.27018
▁ahĩ	-8.27329
safo	-8.2736
▁bezebe	-8.27826
kl	-8.27978
úlí	-8.28398
▁ká	-8.28892
ashɛ̃	-8.29499
▁ashɛ̃	-8.29678
ayɛkɛ	-8.2971
▁kɛb	-8.30823
▁mɛɛ	-8.30874
lu	-8.31693
kumɛ	-8.31861
▁eéɖ	-8.32255
má	-8.33211
etsyina	-8.33601
kpú	-8.33845
d	-8.33982
olṹ	-8.34106
ɛbaɖɔ	-8.34327
▁Avɛ	-8.34532
▁buny	-8.34771
shɛ̃	-8.35317
▁ɛbaba	-8.3567
▁tɛ́	-8.35931
bɔɛ	-8.3602
w	-8.36631
ákpɛ́	-8.37035
▁te	-8.37351
▁okol	-8.3844
síɛ́	-8.39229
▁kidz	-8.4112
▁betsí	-8.41922
▁lí	-8.42318
▁badɛ	-8.42602
tɛ	-8.43092
▁no	-8.43346
p	-8.43783
ewu	-8.44612
wu	-8.45674
▁ay	-8.45813
▁mi	-8.45844
err	-8.46569
..	-8.46661
bɔdɛ	-8.47201
le	-8.4749
▁kɛtakpúɔ	-8.47602
▁bad	-8.48049
ezĩ	-8.48331
ini	-8.48502
n	-8.49152
ká	-8.49435
hú	-8.49584
▁bɔnya	-8.49756
esi	-8.49823
bɔzã	-8.50123
kɛ	-8.50446
baba	-8.50453
aŋa	-8.5292
▁ɔbɔtɔ	-8.52963
▁butí	-8.53094
̃	-8.53296
bh	-8.53644
uku	-8.54046
▁bɔk	-8.5448
pu	-8.54889
tsí	-8.55049
lṹ	-8.5525
ɖaŋu	-8.55575
tukú	-8.55738
ɔkɔ̃	-8.55775
b	-8.55839
syámi	-8.55908
̃ɛ	-8.55921
zɛ̃̌	-8.55993
nyɛ́dɔ̃	-8.56091
▁biskwit	-8.56111
▁buplukpá	-8.56111
▁séƒoƒo	-8.56111
▁tútútú	-8.56111
▁beshopo	-8.56111
▁olũgbǔ	-8.56111
▁ɔgɔnɛ́	-8.56111
▁nɔhwa	-8.56112
▁nyimɔ	-8.56113
▁trǎ	-8.56114
▁kéɖe	-8.5612
zĩzĩ	-8.5612
▁tátá	-8.56134
▁ɔtɛt	-8.56144
▁hohoe	-8.56146
▁atɛ́ba	-8.56148
▁kpasí	-8.56159
hwi	-8.56193
▁akɔ́lɔ́	-8.56195
▁etití	-8.56202
zãzã	-8.56209
▁bɔtɔ̃́	-8.56226
▁Beg	-8.56228
▁kikũ	-8.56232
▁ebedz	-8.56239
▁alɔ́kɔ	-8.56256
▁kiplukpá	-8.56259
▁bulíí	-8.56279
▁asɛnɛ́	-8.56363
▁eletéɛ́	-8.56364
▁etsǐ	-8.56491
▁bɔdzya	-8.56494
▁sɔlɛmɛ	-8.56495
▁bebéle	-8.56573
▁ɔbɔbá	-8.56593
▁bɔpɛ̃	-8.56643
▁ebéle	-8.56689
▁kite	-8.5672
eɖi	-8.56743
▁asɔlɛ	-8.56838
▁ɔmaxwɛ̃	-8.56907
ezede	-8.57066
▁kishú	-8.57069
▁osi	-8.57086
▁butoró	-8.57104
▁kabha	-8.57154
nyí	-8.57161
▁gɔgɔ	-8.57246
▁ama	-8.5728
▁abhlatɔ	-8.57462
▁vev	-8.57573
▁bulitúɔ	-8.57622
iam	-8.57661
▁ápɛ	-8.57679
▁banyɛ́	-8.57799
▁Kl	-8.57909
sɔlɛ	-8.57912
babhɛtɛ	-8.57965
▁betī	-8.58092
▁beti	-8.58205
▁bulí	-8.58372
▁mɛayɛ́	-8.58374
▁akpâ	-8.585
▁yǐ	-8.58603
▁buba	-8.58999
▁betú	-8.59357
vũɔ	-8.59417
pú	-8.59419
▁atɔ	-8.59441
▁bɔbats	-8.59443
abakɔ́	-8.59766
▁bab	-8.61134
▁adá	-8.61164
▁elĩ	-8.61251
asɔkɛ́	-8.61945
enú	-8.6202
▁olṹ	-8.62654
ɛdɔ̃	-8.63077
wakɔ́	-8.64088
▁bagɛ	-8.64725
▁ohu	-8.65123
▁idzi	-8.6553
kpasɛ	-8.65606
▁kɛtakpú	-8.66057
pɛ̃	-8.66321
▁pl	-8.66399
▁ií	-8.66521
▁tɔ́	-8.66844
▁obot	-8.66957
anɔ	-8.67669
ɔd	-8.68049
wã	-8.69933
▁As	-8.70897
balɛ	-8.7109
▁toró	-8.71173
▁baág	-8.71365
▁ɔpɛ	-8.73394
she	-8.73795
tsyɔ	-8.74173
ɔ̃	-8.75232
ɔtɛ́	-8.7542
▁ɛdz	-8.75524
▁ɖǐ	-8.7624
▁elí	-8.76395
▁azɛa	-8.76962
tukúi	-8.77022
▁ekp	-8.78377
▁bebet	-8.79345
bakɔ́	-8.79713
▁tɔɖɔ	-8.80295
kũ	-8.81254
aábhɛtɛ	-8.82343
▁dz	-8.82901
▁yuyu	-8.82978
adalɔkɔ	-8.83072
dɛmɛ	-8.83127
bavɛ	-8.83706
tít	-8.83763
▁tí	-8.84152
▁bede	-8.84485
▁akaá	-8.85567
ɔmɔ	-8.86294
▁an	-8.8698
▁kɛsh	-8.87897
wokú	-8.88209
ɖa	-8.88548
▁ɛɖ	-8.8897
▁tsy	-8.8936
▁yi	-8.90806
batóŋú	-8.9133
▁butsiɖ	-8.92488
▁Ba	-8.92801
▁s	-8.93157
ɛpɛ̃	-8.93434
▁babaw	-8.93477
▁ɖɔ	-8.93713
▁ɔz	-8.9383
ugb	-8.9393
l	-8.95149
oshe	-8.96241
hui	-8.96816
íɛ́	-8.97551
gbe	-8.98123
bulĩ́ɛ́	-8.98438
▁idz	-8.98759
gagãlĩ	-8.99291
elĩ	-8.99511
agã	-9.00571
ɖotí	-9.00582
etsu	-9.00855
batɛ́	-9.00997
▁tɛw	-9.01265
ĩ	-9.01484
ĩ́	-9.01615
▁Bu	-9.02014
agb	-9.02046
zɛ	-9.02051
tsíɛ́	-9.0223
▁ekú	-9.03526
mú	-9.03554
edzi	-9.03582
naálɛ	-9.03936
takpú	-9.04223
zaa	-9.04303
yɛ̌	-9.04317
etī	-9.05219
ta	-9.05312
▁ɛbat	-9.05415
pã́mɛ	-9.05506
kplɔ̃	-9.05647
tɛ́kaá	-9.05651
▁abh	-9.05688
▁buvũ	-9.05693
dzɛ̃	-9.0593
dzǒ	-9.05966
▁ekus	-9.05966
ǎ	-9.05992
▁riɖiɖi	-9.06043
letéɛ́	-9.06073
nukpó	-9.06086
hũ̌	-9.06106
hókúí	-9.06111
▁aɖuƒ	-9.06111
▁egise	-9.06111
▁fine	-9.06111
▁kegbuɔ	-9.06111
▁kpóó	-9.06111
▁kɔshɔkɔ́	-9.06111
▁mahógani	-9.06111
▁ténúkpó	-9.06111
▁ɔfɔfuyã	-9.06111
▁ɛhɛ̃́ɛ̃	-9.06111
▁Kifúɔ	-9.06111
▁kɛlɔ̃́mɛ́	-9.06111
awɔ̃sɔ̃	-9.06111
▁buluhũ̌	-9.06111
▁ibói	-9.06111
▁kedul	-9.06111
fuyã	-9.06112
▁kɛtɛ́sɔlɛ	-9.06112
▁odukukɔ́é	-9.06112
▁edzebéle	-9.06112
dzã̌	-9.06112
bleoo	-9.06112
▁ezebe	-9.06116
ɛrɛ	-9.06116
▁Agbɔ	-9.06119
▁ezekóéyi	-9.06122
▁azǎ	-9.06126
▁bukus	-9.06139
▁Akumawú	-9.06153
mwɛ́	-9.06155
▁luhũ̌	-9.06156
dɔnyɛ́dɔ̃	-9.06159
▁kpɛkpɛ́	-9.06159
▁bhama	-9.06161
▁ef	-9.06175
▁kitití	-9.06186
▁Bebe	-9.06188
▁eblidě	-9.06191
▁akɔlɔ	-9.06193
odiwu	-9.06214
▁keli	-9.06217
hl	-9.06218
▁ebewokú	-9.06246
▁bukusí	-9.06288
▁eti	-9.063
▁ɛgɔnɛ́	-9.06314
▁ɔbhia	-9.0632
▁isí	-9.06357
▁awɔ̃	-9.06419
▁oduku	-9.06448
pɔtɔ	-9.06455
gbogbǒɔ	-9.06474
▁kifúɔ	-9.06496
gbagb	-9.06516
bagbagba	-9.06563
▁betsiɛ	-9.06564
▁ɔsa	-9.06612
▁akaka	-9.06701
▁kekóéyi	-9.06708
ayɛ̌	-9.06828
▁ogũ	-9.06897
▁elú	-9.06914
▁etsiɖi	-9.06918
▁butu	-9.07128
▁aápɛ	-9.07262
ɖiɛ	-9.07271
▁kɛbh	-9.07319
hǔ	-9.07461
baɖɔ	-9.07486
▁asafo	-9.07563
▁d	-9.07574
▁betoró	-9.07617
dzya	-9.07789
pá	-9.07915
▁vũnɔ	-9.07969
▁bɔwɛ	-9.08013
▁bada	-9.08123
▁aza	-9.08124
▁kashɛ̃	-9.08148
▁luhũ	-9.08236
▁ɔmana	-9.08326
▁aáwɛ̃	-9.08327
▁ash	-9.08396
▁dɔ̌	-9.08415
▁ŋlɔmɛ	-9.08722
▁babab	-9.08899
duku	-9.09054
▁bɔbavɛ	-9.09084
m	-9.09862
▁bama	-9.09868
adzɛ̃̌	-9.09923
▁ax	-9.10754
▁ɔzã	-9.10758
▁Kɛ	-9.10825
▁akála	-9.10851
▁bɔtɔ	-9.10867
▁kɛgɛ	-9.10951
kla	-9.10987
anyana	-9.11151
▁kɛtɛ́ba	-9.1116
▁bú	-9.11587
▁ɛba	-9.11955
ɛw	-9.12039
nyana	-9.12406
alɔkɔ	-9.12514
zĩ	-9.12561
túɔ́	-9.12573
▁ayɛ	-9.1259
▁bɔdz	-9.12706
lɔ̃́	-9.12888
yu	-9.13235
▁ɔyikɛ	-9.13415
ɛ̌	-9.14192
▁ho	-9.14505
fla	-9.14672
▁eyuyu	-9.14789
▁elɛ	-9.1509
▁ɔw	-9.15364
▁wá	-9.15874
▁ezĩ	-9.15936
▁noz	-9.16255
▁ɛbhɛtɛ	-9.16377
▁anɔny	-9.1734
hu	-9.17383
olũ	-9.18193
tsi	-9.18555
▁ak	-9.18563
lag	-9.19116
eéwu	-9.1914
ho	-9.19458
ezekú	-9.19496
▁kibúíɛ	-9.19531
▁ɔbá	-9.20376
rɔ	-9.20418
t	-9.21045
tú	-9.21863
▁ɛm	-9.2297
ɔɛ	-9.23349
▁bamɛ	-9.2347
▁bɔdɛ	-9.24486
▁ez	-9.26035
▁kpɛ́ɛ	-9.26258
wɔ̃	-9.26765
ɔshɛ̃	-9.27834
▁gag	-9.284
▁ababa	-9.28673
▁ɛzɛ	-9.28712
g	-9.288
ababhɛtɛ	-9.29343
▁ɔt	-9.29346
ét	-9.29868
▁badzɛ̃̌	-9.3068
▁ku	-9.31663
▁kalɛ	-9.31998
kedě	-9.32302
ɔnyana	-9.32618
▁ob	-9.33136
yɛ́	-9.33291
▁kányáka	-9.33312
▁baɖɔ	-9.33364
ekóéyi	-9.3404
lɛ̃	-9.34582
▁ew	-9.35214
▁bebedz	-9.35257
aka	-9.35813
ekl	-9.36057
wulɔ	-9.3686
blɔ	-9.38451
tr	-9.38661
▁batɛ́b	-9.38875
ɔ́dzy	-9.3954
atrugbu	-9.39949
dzɛ̃̌ɛ́	-9.4075
▁agɛba	-9.40845
tã	-9.45579
▁ɛk	-9.45597
yɛ	-9.45715
▁bekusí	-9.45977
́m	-9.46036
anyɛ́	-9.46884
akála	-9.47007
bashɔ	-9.47157
▁bebeb	-9.47211
amá	-9.47236
▁adany	-9.47731
iwu	-9.47795
ze	-9.48296
bɔ	-9.48318
trugbu	-9.48493
adza	-9.48627
akɔ́	-9.49144
▁ah	-9.49478
ese	-9.51355
▁wul	-9.52063
kúɔ́	-9.52309
azhĩ	-9.53314
bó	-9.56589
▁bɔɔ́kɔ	-9.56971
baka	-9.57569
tsyi	-9.57883
ábá	-9.58278
itsyi	-9.59618
etí	-9.60761
dzo	-9.61189
akpâ	-9.62457
mɛ́	-9.62748
▁apɛ	-9.62899
ga	-9.64547
ɛɖa	-9.65246
▁bag	-9.65436
▁me	-9.65468
▁édz	-9.67407
kaábhɛtɛ	-9.67482
▁babalɔ	-9.67946
abhɛtɛ	-9.68047
▁ɛz	-9.69461
om	-9.69866
awa	-9.70124
dã	-9.70705
hw	-9.70998
evũ	-9.72438
ɔɖɔ	-9.73013
aba	-9.74345
ah	-9.74569
bui	-9.74765
áwɛ̃	-9.74994
▁buts	-9.75724
ɛkɔ	-9.7613
gi	-9.76323
wɔ	-9.77401
mɛɛ́	-9.77489
ɔkpasɛ	-9.77589
▁beb	-9.78026
basɛnɔ	-9.78291
nyanya	-9.79097
ifu	-9.80138
▁ag	-9.80769
ɔsɔlɛ	-9.80824
go	-9.81416
s	-9.81851
▁bɔb	-9.82358
▁ɛb	-9.82965
▁bha	-9.84442
ɔx	-9.8448
▁ɛɛ	-9.84499
wá	-9.84505
▁bezebet	-9.84572
▁ákɔ	-9.85154
ɛwa	-9.85787
▁ɛtɛ́	-9.86554
avɔbɔ́	-9.86622
ak	-9.8683
bɔkasɛ́	-9.86959
▁bl	-9.87456
▁beze	-9.88039
▁ɔg	-9.89481
esí	-9.89681
ɔbɔ	-9.90125
▁ɛbab	-9.90584
takpúɔ	-9.90844
oró	-9.92218
▁ede	-9.92464
de	-9.92695
kɛtɛ́	-9.95521
ɔzɛ	-9.956
bɔdɔ̃	-9.95802
▁etí	-9.96646
tɔnɔ	-9.97233
▁bet	-9.98257
ɛsha	-9.9839
kaka	-9.98647
ede	-9.99147
nuvɔɛ	-9.99171
ŋlɔmɛ	-9.99723
bulitúɔ	-10.0003
kibenyíbe	-10.0006
betī	-10.0037
beti	-10.004
vev	-10.0044
▁ny	-10.0054
kó	-10.0072
bama	-10.0077
luhũ	-10.0078
yǐ	-10.009
▁tɛt	-10.0123
dɔ̌	-10.0138
▁az	-10.0143
amɔ	-10.0147
gɔgɔ	-10.0151
ɔkɔ́	-10.0259
fɔ̃	-10.03
akpa	-10.0323
nyé	-10.0332
▁ek	-10.0345
▁ewok	-10.0357
vũnɔ	-10.0365
oboh	-10.0387
fa	-10.0469
ɔbhla	-10.0474
ama	-10.0483
gbogbǒ	-10.0485
amp	-10.0506
ɔzãkɔ́	-10.0517
búíɛ́	-10.0522
iplukpá	-10.055
▁batrugb	-10.0559
▁ɛgɔnɛ	-10.056
bhia	-10.0562
klagbu	-10.0562
pɔtɛ́	-10.0577
▁S	-10.0583
́ɛ̃́	-10.0584
nána	-10.0592
blidě	-10.0592
mit	-10.0595
▁piapí	-10.0598
benyíbe	-10.0599
kumawú	-10.0601
▁hoho	-10.0601
▁bef	-10.0608
c	-10.0609
fú	-10.061
lélé	-10.0611
tsã́tsã́	-10.0611
ɔkplɔ	-10.0612
ch	-10.0614
▁ol	-10.0621
pɛ́pɛ́	-10.0626
yǎ	-10.0637
▁Adzɛ̃	-10.064
ɖí	-10.0649
eni	-10.0651
ló	-10.0651
ɖe	-10.0658
hɔɛ	-10.0673
▁egi	-10.0681
▁ipl	-10.07
xɔ̃	-10.0721
▁kan	-10.0733
▁kish	-10.0747
leté	-10.0751
koko	-10.0753
bhla	-10.0767
inyé	-10.0778
▁atɛ́	-10.0789
▁bɔbash	-10.0803
▁bets	-10.0807
ev	-10.084
lɔ́kɔ	-10.0882
▁nyɛ	-10.0891
▁babakɔ	-10.0902
ɛtɛ́ɛ́	-10.093
▁shu	-10.0995
kpá	-10.1033
babɔ	-10.1043
er	-10.1073
▁bek	-10.1076
gagãlĩɛ	-10.1076
▁ɛhɛ	-10.1082
tso	-10.1084
▁akp	-10.1089
▁alɔ́	-10.1114
▁akpa	-10.115
its	-10.1158
awɔ	-10.1161
▁bats	-10.117
um	-10.1171
ege	-10.1178
▁budzy	-10.1214
▁kɛv	-10.1248
▁betí	-10.1264
▁ɛbaɖ	-10.1272
▁aáw	-10.1351
ebeɖi	-10.1366
ána	-10.1366
úm	-10.1386
▁otí	-10.1399
ibúí	-10.14
ɛ́ɖ	-10.1521
dzɛ	-10.1551
▁kid	-10.1646
álɛ	-10.1678
▁otsíɛ	-10.1755
shumɛ	-10.182
▁ɛɛ́	-10.1826
idzi	-10.1829
uli	-10.1973
▁om	-10.2024
lɔ́	-10.2077
gba	-10.2099
▁yá	-10.2109
íp	-10.2226
ɔgã	-10.2245
▁od	-10.2257
▁obú	-10.2622
tití	-10.2658
▁kó	-10.2662
ɛtakpúɔ	-10.2682
kɛtɛ́bab	-10.2771
▁kɛts	-10.2908
▁vũ	-10.306
aman	-10.3167
dza	-10.331
▁gbã	-10.3318
zɛ́	-10.3408
al	-10.3666
▁adz	-10.3706
uma	-10.3833
▁kɛl	-10.3974
adzɛ̃̌ɛ́	-10.3996
anyanya	-10.4169
baá	-10.4248
ɔlɛ	-10.432
▁baáb	-10.4417
kpɛ	-10.4472
aɖɔ	-10.4531
▁kɛbl	-10.4613
ɔyikɛ	-10.4733
▁og	-10.4997
ni	-10.5061
▁bɔg	-10.5156
ón	-10.5267
▁eb	-10.5285
h	-10.5377
rɛ	-10.5598
ɛbatóŋú	-10.5626
▁abash	-10.5986
kpâ	-10.6103
aɖ	-10.6153
di	-10.6194
▁bɔl	-10.6242
vũ	-10.6249
bayɛkɛ	-10.6303
yuyuɔ	-10.6305
▁lu	-10.6578
▁tr	-10.6729
iíb	-10.6752
▁bɔɔ́k	-10.6771
ina	-10.6957
▁ɔɖ	-10.7095
ɔ́nɔ	-10.7143
▁nɔɔ́	-10.7268
uɔ	-10.738
▁bed	-10.7389
▁h	-10.756
▁ɔb	-10.7727
daw	-10.7767
bɔbhɛtɛ	-10.7928
pã́	-10.8191
íá	-10.8625
ɔdɔ̃	-10.8645
▁adal	-10.8702
▁ɔk	-10.8963
▁buk	-10.9049
▁tit	-10.9298
ɔnyɔ́	-10.9339
ɔ́kɔ́	-10.9465
ɔlɔ	-10.963
▁bé	-10.9681
atsy	-10.9926
ti	-11.0288
vɛnɔ	-11.0295
klɛ	-11.0425
zhĩ	-11.0511
kála	-11.0514
▁ó	-11.0607
az	-11.1695
▁baw	-11.2065
da	-11.218
dɔ̃	-11.2325
▁bat	-11.2828
avɛ	-11.2911
éɛ	-11.3044
ekusíɛ́	-11.3188
nyák	-11.3669
mi	-11.3683
ṹ	-11.3704
▁zã	-11.3726
▁bebets	-11.3742
ampɛ	-11.3881
▁bedz	-11.389
akaalɛ	-11.4133
â	-11.4204
ī	-11.4205
M	-11.4206
ƒ	-11.4207
Y	-11.4208
E	-11.4209
T	-11.421
S	-11.4211
G	-11.4212
A	-11.4213
O	-11.4214
K	-11.4215
B	-11.4216
f	-11.4217
ŋ	-11.4218
oyi	-11.4219
ɖ	-11.4219
