<unk>	0
<s>	0
</s>	0
▁b	-0
▁k	-1
ɛ́	-2
▁a	-3
ɔ́	-4
lɛ	-5
▁n	-6
▁e	-7
▁t	-8
▁ba	-9
▁bɔ	-10
lɔ	-11
▁ɔ	-12
▁s	-13
▁kɛ	-14
ba	-15
▁g	-16
▁p	-17
mɛ	-18
▁nɔ́	-19
▁o	-20
▁ɛ	-21
▁bu	-22
▁gɛ	-23
lɛ́	-24
▁y	-25
▁mɛ	-26
bh	-27
▁be	-28
kp	-29
▁ki	-30
▁ko	-31
kɔ	-32
▁pɛ	-33
dz	-34
ts	-35
▁sɛ	-36
▁nɛ́	-37
▁an	-38
yɛ́	-39
▁ts	-40
rr	-41
▁kɛlɛ	-42
ɛ̃	-43
gb	-44
lɔkɔ	-45
▁yɛ	-46
bú	-47
▁blɔ	-48
▁err	-49
na	-50
lí	-51
▁w	-52
▁tɛ	-53
nɔ	-54
ɔ̃	-55
íɛ́	-56
tɛ	-57
▁tsyɛ́	-58
té	-59
bha	-60
nú	-61
ny	-62
sɛ	-63
kɔ́	-64
..	-65
ɛtɛ	-66
sh	-67
ɔɛ	-68
nu	-69
kpɛ́	-70
ka	-71
kú	-72
bhɛtɛ	-73
lĩ	-74
▁B	-75
be	-76
ma	-77
▁ke	-78
yi	-79
▁klɛ	-80
▁so	-81
mɔ	-82
ã́	-83
téé	-84
▁pé	-85
▁aba	-86
▁pétéé	-87
▁ots	-88
ɖɔ	-89
▁ka	-90
li	-91
▁baba	-92
pɛ	-93
▁alɛ	-94
▁kɔ́	-95
bá	-96
tɔ	-97
zã	-98
wɛ̃	-99
sí	-100
vɛ	-101
hɔɛ	-102
▁sh	-103
▁wɔ	-104
▁abha	-105
ŋú	-106
▁kibú	-107
si	-108
▁K	-109
▁lɛ	-110
▁bat	-111
▁bɔba	-112
ku	-113
ló	-114
ɖi	-115
gbu	-116
lĩ́	-117
▁nɛ	-118
dɔ̃	-119
so	-120
ŋa	-121
▁lɔkɔ	-122
ké	-123
▁f	-124
dě	-125
▁kp	-126
kl	-127
vɔ	-128
▁l	-129
nyá	-130
▁lɛ́	-131
▁kibúí	-132
bo	-133
▁ó	-134
▁te	-135
▁ti	-136
ru	-137
...	-138
dzy	-139
liso	-140
▁shú	-141
▁ónú	-142
lĩ́ɛ́	-143
▁alɔkɔ	-144
gã	-145
wa	-146
wá	-147
▁i	-148
aké	-149
rugbu	-150
▁ahɔɛ	-151
▁balɛ	-152
kɛ	-153
yɛ	-154
tɛ́	-155
ɛ́lɛ	-156
▁nɔ	-157
▁batrugbu	-158
bɔ	-159
ke	-160
zɛ	-161
▁kã́	-162
▁ónúpɛ	-163
▁bulĩ́ɛ́	-164
go	-165
▁á	-166
dzɛ̃	-167
▁ebú	-168
tí	-169
▁aka	-170
▁otsíɛ́	-171
yá	-172
▁ee	-173
▁anɔ	-174
▁kana	-175
▁kɛ́lɛ	-176
oo	-177
▁Be	-178
hĩ	-179
ia	-180
▁O	-181
dzi	-182
lɔ́	-183
▁Ba	-184
▁ɔma	-185
▁bɔdɔ̃	-186
le	-187
wu	-188
íí	-189
▁sa	-190
▁koɔ	-191
gɛ	-192
gbe	-193
kpó	-194
▁kú	-195
▁bunu	-196
da	-197
▁A	-198
▁G	-199
gba	-200
ɔ̃́	-201
▁ɔ́	-202
lógo	-203
síɛ́	-204
▁obo	-205
▁bebe	-206
▁gaké	-207
▁otsí	-208
▁flógo	-209
vũ	-210
iap	-211
▁ɔbɔ	-212
▁piap	-213
▁é	-214
vɔɛ	-215
▁ta	-216
▁Okú	-217
▁akɔ́	-218
▁alɛ́	-219
▁piapíí	-220
tɔ́	-221
▁bh	-222
▁wo	-223
▁ana	-224
ŋútɔ́	-225
lũ	-226
ni	-227
tú	-228
nɔ́	-229
▁yoo	-230
núvɔɛ	-231
▁klɛ́	-232
▁tilí	-233
▁adzɛ̃	-234
▁anyɛ́	-235
▁kliso	-236
la	-237
mi	-238
▁ɛk	-239
▁aló	-240
▁asɛ	-241
▁kish	-242
▁kpɛ́	-243
▁Begbe	-244
▁Okúɔ́	-245
akp	-246
nyí	-247
she	-248
▁ey	-249
▁ma	-250
tsyi	-251
▁Banyá	-252
ze	-253
▁kó	-254
tɔɖɔ	-255
gbana	-256
▁anyɛ́núvɔɛ	-257
dɛ	-258
pɔ	-259
to	-260
tu	-261
▁S	-262
▁x	-263
klǔ	-264
umɛ	-265
▁lo	-266
▁ɛba	-267
hĩá	-268
éke	-269
▁So	-270
▁lɔ	-271
▁oz	-272
▁ɛh	-273
xwɛ̃	-274
▁bɔp	-275
▁eku	-276
▁kib	-277
▁ɔlɛ	-278
pɔtɛ́	-279
▁ansɛ	-280
▁bɔlɔ	-281
▁salí	-282
▁ɔlɔ́	-283
tsyina	-284
▁kishi	-285
fu	-286
bɔ́	-287
isi	-288
álɛ	-289
▁aa	-290
▁vɛ	-291
▁bɔwá	-292
▁wonɔ	-293
▁kɛpɔtɛ́	-294
fú	-295
ge	-296
ká	-297
ui	-298
̃́	-299
alɛ	-300
asɛ	-301
iɖi	-302
ɔlɛ	-303
▁wa	-304
▁baá	-305
nikpó	-306
▁kúnú	-307
▁telí	-308
▁álɛ́	-309
▁batrugbuɔ	-310
gɔ	-311
in	-312
lu	-313
ró	-314
wi	-315
gbǒ	-316
éle	-317
ɛ́ɛ	-318
▁Gɛ	-319
▁dz	-320
▁kɔ	-321
▁ŋa	-322
▁soɔ	-323
vɔbɔ́	-324
▁Kliso	-325
▁ŋútɔ́	-326
▁ɛhɛ́ɛ	-327
▁bɔbhɛtɛ	-328
su	-329
te	-330
óé	-331
ŋ́	-332
ɖa	-333
▁d	-334
gbo	-335
tsǐ	-336
▁am	-337
▁ɛ́	-338
bisi	-339
yɛkɛ	-340
▁abá	-341
▁obú	-342
▁bɔlɛ	-343
▁kesi	-344
▁kesí	-345
▁kibe	-346
▁kóŋ́	-347
▁ɔlɛ́	-348
gbogbǒ	-349
▁akpɛ́	-350
▁bɔpã́	-351
▁tabha	-352
ɖǐ	-353
▁T	-354
sɛ́	-355
▁eé	-356
▁to	-357
▁ye	-358
shɛ̃	-359
nyáka	-360
▁kifú	-361
▁tsyá	-362
▁batɛ́	-363
▁eyíɛ́	-364
▁obúɔ́	-365
▁abhɛtɛ	-366
▁adzɛ̃̌	-367
de	-368
ko	-369
ra	-370
ti	-371
tó	-372
ɖo	-373
dze	-374
okú	-375
ɛ̃́	-376
▁oo	-377
tóŋú	-378
yikɛ	-379
▁ada	-380
▁avɛ	-381
▁azɛ	-382
▁ebe	-383
▁olɔ	-384
▁ozi	-385
▁ɔmɔ	-386
▁béke	-387
▁vɛnɔ	-388
▁yalɛ	-389
▁yenu	-390
▁bunuɔ	-391
▁kibui	-392
▁balɔkɔ	-393
▁kɛlɛnu	-394
▁babakɔ́	-395
▁egbogbǒ	-396
tá	-397
zĩ	-398
ɖí	-399
▁E	-400
ana	-401
kla	-402
mpɛ	-403
tsu	-404
uvɔ	-405
akpú	-406
toró	-407
▁dzy	-408
▁wɔ́	-409
▁ɔkɔ	-410
▁ɔlɔ	-411
takpú	-412
▁bɔɔ́	-413
▁xɔ̃́	-414
▁anuvɔ	-415
▁kampɛ	-416
▁kɛlɛ́	-417
▁ekusíɛ́	-418
▁xɔ̃́nɔ́	-419
gi	-420
agã	-421
kɛ́	-422
lɔ̃	-423
tsi	-424
ána	-425
éɛ́	-426
▁bú	-427
▁no	-428
alɛ́	-429
béle	-430
nyɛ́	-431
plɛ́	-432
tukú	-433
wunɔ	-434
▁buú	-435
▁ɔbh	-436
agãlĩ	-437
zãkɔ́	-438
▁Gaké	-439
▁Kumɛ	-440
▁banɔ	-441
▁bawá	-442
▁buvũ	-443
▁dzyo	-444
▁ɔkɔ́	-445
▁ɛklɛ	-446
plɛ́nɔ	-447
▁ɛklɛ́	-448
▁kibúíɛ́	-449
▁tenikpó	-450
ch	-451
yɔ	-452
íá	-453
ŋu	-454
▁m	-455
▁r	-456
dzǔ	-457
gbě	-458
kaá	-459
shw	-460
▁Bɔ	-461
▁tɔ	-462
ɖaŋu	-463
▁Tin	-464
▁anɛ	-465
▁ɔkp	-466
▁ɛɛ́	-467
▁basɛ	-468
▁bedě	-469
▁bɔmɔ	-470
▁bɔɖɔ	-471
▁kɔ́ɛ	-472
▁kɛba	-473
▁mana	-474
▁samɛ	-475
▁ɛlɛ́	-476
klagbu	-477
▁beklǔ	-478
▁bhɛtɛ	-479
▁Tingbě	-480
▁dzyosu	-481
▁tsyámi	-482
mú	-483
sa	-484
wú	-485
yu	-486
▁Y	-487
klu	-488
kóé	-489
tch	-490
▁aá	-491
▁bá	-492
wokú	-493
álɛ́	-494
▁akp	-495
▁edě	-496
▁enu	-497
▁ɛrr	-498
iɖiɖi	-499
kóéyi	-500
nukpó	-501
▁befu	-502
▁bulí	-503
▁edzi	-504
▁keli	-505
▁kɛgɔ	-506
▁nána	-507
▁tolí	-508
▁ɛhɔɛ	-509
▁buvũɔ	-510
▁watch	-511
▁ɔbhíá	-512
▁bakpɛ́	-513
▁riɖiɖi	-514
▁ɔkplɔ̃	-515
▁bɔbakpɛ́	-516
▁kɛklagbu	-517
ho	-518
hũ	-519
hǐ	-520
lã	-521
sú	-522
vé	-523
yǐ	-524
hĩa	-525
wlã	-526
▁ké	-527
akpá	-528
balɛ	-529
latɔ	-530
leté	-531
sɔlɛ	-532
telí	-533
téŋú	-534
túɔ́	-535
▁agã	-536
▁aká	-537
▁bɔɛ	-538
▁dza	-539
▁beze	-540
▁etsǐ	-541
▁sɔlɛ	-542
wlãkɛ́	-543
▁kpasɛ	-544
▁akasɛ́	-545
▁betelí	-546
▁gagãlĩ	-547
▁kɛxwɛ̃	-548
▁kɛvɔbɔ́	-549
▁kesiakpá	-550
▁ŋútɔ́ŋútɔ́	-551
dá	-552
lé	-553
po	-554
se	-555
wã	-556
ɖu	-557
kpu	-558
kpá	-559
nɛ́	-560
óto	-561
▁Kɛ	-562
▁gã	-563
▁na	-564
▁wu	-565
gɛzã	-566
kumɛ	-567
zhĩá	-568
ɔ̃ɔ̃	-569
▁aku	-570
▁ekp	-571
▁esí	-572
▁kɛb	-573
▁oko	-574
▁xɔ́	-575
▁ɛmɔ	-576
▁ɛyá	-577
tínyí	-578
▁amɔ́	-579
▁anyá	-580
▁anɔ́	-581
▁bɔkɔ	-582
▁elɛ́	-583
▁fóto	-584
▁kedě	-585
▁kidz	-586
▁kiny	-587
▁kiwi	-588
▁yálɛ	-589
▁ababá	-590
▁axwɛ̃	-591
▁kɛdɔ̃	-592
▁naálɛ	-593
▁okumɛ	-594
▁tɛbha	-595
▁kifúɔ́	-596
▁kɛɖaŋu	-597
▁tsɔ̃ɔ̃	-598
▁xɔ́nɔ́	-599
▁ɔbhɛtɛ	-600
▁babhɛtɛ	-601
▁etsyina	-602
▁tenukpó	-603
▁batɛ́kaá	-604
▁riɖiɖiɖi	-605
▁bababhɛtɛ	-606
du	-607
dɔ	-608
lǔ	-609
lṹ	-610
nk	-611
rá	-612
wɛ	-613
plu	-614
yɛ̌	-615
zhǐ	-616
ánk	-617
ŋús	-618
▁ao	-619
▁dé	-620
▁ká	-621
▁lú	-622
▁su	-623
▁vɔ	-624
▁yi	-625
▁yǐ	-626
kɔlí	-627
múnɔ	-628
ramɛ	-629
raɖo	-630
ɖotí	-631
▁azã	-632
▁beé	-633
▁buw	-634
▁dzi	-635
▁eze	-636
▁kpa	-637
▁olũ	-638
▁osí	-639
▁ɛɖɔ	-640
▁ahĩá	-641
▁anyɛ	-642
▁bama	-643
▁bazɛ	-644
▁begi	-645
▁beke	-646
▁buba	-647
▁bɔwa	-648
▁bɔzã	-649
▁mɛmɔ	-650
▁oŋús	-651
▁tɛwã	-652
▁vɔvɔ	-653
▁ɔwɛ̃	-654
plukpá	-655
▁amánk	-656
▁békeɛ	-657
▁ewunɔ	-658
▁kɛhĩa	-659
▁ɛɛ́ɖɔ	-660
▁Klisoɔ	-661
▁alɔkɔɛ	-662
▁bayɛkɛ	-663
▁butukú	-664
▁ebúíɛ́	-665
▁ɔzãkɔ́	-666
▁akukɔlí	-667
▁oŋúsɛ̃́	-668
▁amánkraɖo	-669
▁tɛwãwlãkɛ́	-670
Má	-671
fo	-672
kũ	-673
pú	-674
rɛ	-675
tī	-676
vě	-677
ya	-678
ƒo	-679
gbã	-680
hũ̌	-681
nya	-682
sho	-683
wɔ̃	-684
xóé	-685
▁Má	-686
▁ap	-687
▁ed	-688
▁ef	-689
▁ep	-690
▁gb	-691
▁mi	-692
▁nu	-693
▁tu	-694
▁tí	-695
▁vé	-696
ayɛ́	-697
dzyu	-698
dzyɔ	-699
nyɔ́	-700
safo	-701
▁Err	-702
▁Klɛ	-703
▁agɛ	-704
▁mɛɛ	-705
▁ɔsɛ	-706
▁ɔɔ́	-707
▁ɛzɛ	-708
dzɛ̃̌	-709
nyana	-710
nyíbe	-711
tsiɖi	-712
tɛ́ba	-713
ɛ́lɛ́	-714
▁Máwú	-715
▁awɛ̃	-716
▁azɛa	-717
▁bada	-718
▁bagã	-719
▁bamɔ	-720
▁bekú	-721
▁buge	-722
▁busí	-723
▁buwí	-724
▁bɔka	-725
▁bɔsɛ	-726
▁ilɛ́	-727
▁méke	-728
▁nobo	-729
▁sɛ̃́	-730
▁tsã́	-731
▁vévě	-732
▁ɔbha	-733
▁ɔhɔɛ	-734
sheshe	-735
▁abazã	-736
▁buklǔ	-737
▁etsǐɛ	-738
▁kitsu	-739
▁osíɛ́	-740
▁ɔkpɛ́	-741
▁ɔlɔkɔ	-742
▁ɛgɛzã	-743
dzyramɛ	-744
▁agbana	-745
▁babatɔ	-746
▁batɔɖɔ	-747
▁bhlatɔ	-748
▁budzyu	-749
▁bɔkpɛ́	-750
▁bɔkɔ̃́	-751
▁kɔ́xóé	-752
▁adzɛ̃ɛ́	-753
▁bɔpã́mɛ	-754
▁kɛtakpú	-755
▁tinikpó	-756
▁anɔ́dzyramɛ	-757
▁batɛ́kaábhɛtɛ	-758
bó	-759
eɖ	-760
ga	-761
gũ	-762
hu	-763
lú	-764
má	-765
nɛ	-766
ro	-767
rú	-768
ve	-769
za	-770
zu	-771
ats	-772
dzǐ	-773
eɖé	-774
kpi	-775
mɛ́	-776
pɛ̃	-777
tsí	-778
tɔ̃	-779
uyu	-780
yɔ́	-781
éyi	-782
ísi	-783
▁da	-784
▁lu	-785
▁lí	-786
▁ny	-787
▁zɛ	-788
▁án	-789
bolé	-790
duku	-791
dzya	-792
dáwá	-793
gɛmɔ	-794
kɛlɛ	-795
lĩɛ́	-796
lɛnɔ	-797
shwĩ	-798
zurú	-799
▁abh	-800
▁eti	-801
▁ewu	-802
▁eyí	-803
▁ish	-804
▁kid	-805
▁osu	-806
▁tɛ́	-807
▁yɔ́	-808
▁ɔdɛ	-809
▁ɛkɔ	-810
▁ɛlɛ	-811
atsyɛ	-812
gɔnɛ́	-813
▁Kɛlɛ	-814
▁babá	-815
▁bakɔ	-816
▁benu	-817
▁beyi	-818
▁búlí	-819
▁bɔbá	-820
▁bɔmá	-821
▁dawa	-822
▁dénɔ	-823
▁ekpú	-824
▁gbã́	-825
▁kɔnú	-826
▁kɛgã	-827
▁nɔbá	-828
▁nɔɔ́	-829
▁otsi	-830
▁tatá	-831
▁tulí	-832
▁ɖotí	-833
tsikpi	-834
▁abaŋa	-835
▁ashwĩ	-836
▁atɔɖɔ	-837
▁beklu	-838
▁ekusí	-839
▁kóéyi	-840
▁kɛhĩá	-841
▁oziɛ́	-842
▁plɛnɔ	-843
▁tseɖé	-844
▁ɛkɛlɛ	-845
nyɛ́dɔ̃	-846
▁akpasɛ	-847
▁anyɛɛ́	-848
▁bamana	-849
▁bezebe	-850
▁kibéle	-851
▁nɛɛ́lɛ	-852
▁osubha	-853
▁abayikɛ	-854
▁bagbana	-855
▁bebedzǔ	-856
▁bɔbakɔ́	-857
▁edzidze	-858
▁nɛɛ́lɛ́	-859
▁obotóŋú	-860
safoatsyɛ	-861
▁adzɛ̃̌ɛ́	-862
▁bɔbatɔɖɔ	-863
▁dawadáwá	-864
▁kitsikpi	-865
▁bɔbabhɛtɛ	-866
▁egbogbǒɔ́	-867
▁bebetsyina	-868
?,	-869
Wo	-870
gé	-871
hó	-872
ná	-873
pu	-874
tũ	-875
yã	-876
ɔg	-877
ɖe	-878
atɛ	-879
dza	-880
gén	-881
hwa	-882
iɖí	-883
plɛ	-884
sha	-885
shɔ	-886
tro	-887
túɔ	-888
éké	-889
éwu	-890
úlí	-891
ɔ̃ɛ	-892
ɖiɛ	-893
▁Wo	-894
▁Yɛ	-895
▁ho	-896
▁tá	-897
▁yǔ	-898
babá	-899
dekú	-900
eshe	-901
fuyã	-902
idzy	-903
lĩke	-904
lɔ̃́	-905
shwí	-906
sɛnɔ	-907
walɔ	-908
yana	-909
zelũ	-910
ɛ́bá	-911
▁Asɛ	-912
▁Avɛ	-913
▁Kã́	-914
▁Yoo	-915
▁ama	-916
▁amɔ	-917
▁aŋa	-918
▁bha	-919
▁búí	-920
▁ede	-921
▁edé	-922
▁eɖi	-923
▁gbe	-924
▁kɛf	-925
▁lĩ́	-926
▁oli	-927
▁ozĩ	-928
▁shi	-929
▁ɔgɛ	-930
▁ɛma	-931
dawɛ̃	-932
eleté	-933
gbeɛ́	-934
gegén	-935
tsiɖí	-936
tsokú	-937
tsíɛ́	-938
ákpɛ́	-939
▁Bein	-940
▁Wonɔ	-941
▁alɔ́	-942
▁ayɛ̌	-943
▁badɛ	-944
▁bage	-945
▁baka	-946
▁bawa	-947
▁bese	-948
▁besí	-949
▁bevũ	-950
▁bezĩ	-951
▁budě	-952
▁buku	-953
▁bulĩ	-954
▁bísi	-955
▁bɔdě	-956
▁eéɖǐ	-957
▁hoho	-958
▁idzi	-959
▁ishú	-960
▁kidĩ	-961
▁kumɛ	-962
▁nyɛ́	-963
▁nɔɖɔ	-964
▁oziɛ	-965
▁tɛwá	-966
▁yiyi	-967
▁yǐyǐ	-968
▁áníí	-969
letéɛ́	-970
tsukpu	-971
ɔ̃́ɔ̃́	-972
▁ashɛ̃	-973
▁ayɛkɛ	-974
▁bawɛ̃	-975
▁bezhǐ	-976
▁beépo	-977
▁bhúlí	-978
▁budzǐ	-979
▁bulĩ́	-980
▁bushe	-981
▁buúbú	-982
▁bɔɖɔɔ	-983
▁eféké	-984
▁ewokú	-985
▁ezurú	-986
▁kidzo	-987
▁kidzǒ	-988
▁kinyé	-989
▁káplɛ	-990
▁kɛbɔɛ	-991
▁kɛtɛ́	-992
▁lɔkɔɛ	-993
▁nyéɛ́	-994
▁obopú	-995
▁oboyǐ	-996
▁oduku	-997
▁okolũ	-998
▁okolṹ	-999
▁shumɛ	-1000
▁tsiɖí	-1001
▁éwunɔ	-1002
▁ɔbɔzã	-1003
▁ɔnyɔ́	-1004
▁ɛbaɖɔ	-1005
kányáka	-1006
lĩkekpu	-1007
▁abakɔ́	-1008
▁adawɛ̃	-1009
▁anyana	-1010
▁babawa	-1011
▁bebebú	-1012
▁bebevũ	-1013
▁bubadɛ	-1014
▁bubéle	-1015
▁bulíɛ́	-1016
▁butúɔ́	-1017
▁bɔɔ́ŋa	-1018
▁epidzy	-1019
▁eébisi	-1020
▁kesíɛ́	-1021
▁kɛwalɔ	-1022
▁nobobú	-1023
▁nɔ́nɔ́	-1024
▁obotro	-1025
▁sheshe	-1026
▁takpɛ́	-1027
▁ɛzãkɔ́	-1028
▁ababalɛ	-1029
▁abalɔkɔ	-1030
▁butsiɖí	-1031
▁butínyí	-1032
▁buúshwí	-1033
▁bɔvɔbɔ́	-1034
▁ebetéŋú	-1035
▁kinyéɛ́	-1036
▁mɛɛɛ́bá	-1037
▁sɛ̃́ɛ̃́	-1038
▁tɛ́babá	-1039
▁ɛbatóŋú	-1040
▁ɛzɛlɔkɔ	-1041
▁akanyáka	-1042
▁babasɛnɔ	-1043
▁baábhɛtɛ	-1044
▁baágbana	-1045
▁befualɛ́	-1046
▁begizelũ	-1047
▁besheshe	-1048
▁betsyina	-1049
▁budzyuɖí	-1050
▁bɔɔ́kpɛ́	-1051
▁gagãlĩɛ́	-1052
▁ketsukpu	-1053
▁Beingbeɛ́	-1054
▁anyádawɛ̃	-1055
▁azɛagbana	-1056
▁bulĩ́ɛ́ko	-1057
▁kelitakpú	-1058
▁kelĩkekpu	-1059
▁kibenyíbe	-1060
▁kɛtakpúɔ́	-1061
▁Asafoatsyɛ	-1062
▁takpɛ́kpɛ́	-1063
▁ɔzãkɔ́eleté	-1064
bu	-1065
di	-1066
dǒ	-1067
hú	-1068
is	-1069
rǎ	-1070
sɔ	-1071
ta	-1072
wó	-1073
▁h	-1074
ahu	-1075
ami	-1076
enú	-1077
err	-1078
gbǔ	-1079
gɛ̃	-1080
hwi	-1081
isk	-1082
mɔ́	-1083
nyú	-1084
plǔ	-1085
syá	-1086
wit	-1087
zaa	-1088
zɛ̃	-1089
éƒo	-1090
íɖu	-1091
óɖǐ	-1092
útú	-1093
ŋlɔ	-1094
ɔdǒ	-1095
̃ɛ̃	-1096
▁Bu	-1097
▁Ko	-1098
▁ay	-1099
▁dɔ	-1100
▁ga	-1101
▁ií	-1102
▁le	-1103
▁lṹ	-1104
▁me	-1105
▁mɔ	-1106
▁té	-1107
▁ve	-1108
▁vũ	-1109
▁ɖǐ	-1110
▁ɖɔ	-1111
...,	-1112
baba	-1113
bágɛ	-1114
bɔdɛ	-1115
kɔlɔ	-1116
lidě	-1117
mawú	-1118
putɔ	-1119
píɛ́	-1120
súsú	-1121
tɔnɔ	-1122
tɔ̃́	-1123
vétɔ	-1124
vũɔ́	-1125
wónɔ	-1126
yuku	-1127
zãzã	-1128
zĩzĩ	-1129
zɛ̃̌	-1130
▁Blɔ	-1131
▁adá	-1132
▁atɔ	-1133
▁egi	-1134
▁ekú	-1135
▁elí	-1136
▁elĩ	-1137
▁esi	-1138
▁ewi	-1139
▁gɔg	-1140
▁krá	-1141
▁nyi	-1142
▁olṹ	-1143
▁osi	-1144
▁otu	-1145
▁plǔ	-1146
▁trǎ	-1147
▁tɔ́	-1148
▁ápɛ	-1149
▁áŋa	-1150
▁ésí	-1151
▁ɔpɛ	-1152
▁ɔtɛ	-1153
▁ɔvɛ	-1154
▁ɔzɛ	-1155
▁ɔŋa	-1156
ahuté	-1157
kasɛ́	-1158
keéwu	-1159
kpasɛ	-1160
nyúmú	-1161
shogo	-1162
shopo	-1163
syámi	-1164
sɔkɛ́	-1165
yɔ́yɔ	-1166
éƒoƒo	-1167
íɖuɖu	-1168
útútú	-1169
ŋlɔmɛ	-1170
▁Bege	-1171
▁Egɛ̃	-1172
▁Eɖiɛ	-1173
▁Kana	-1174
▁akpâ	-1175
▁awɔ̃	-1176
▁aámɔ	-1177
▁bazã	-1178
▁beti	-1179
▁beté	-1180
▁betī	-1181
▁bisi	-1182
▁bisk	-1183
▁bukũ	-1184
▁buli	-1185
▁butí	-1186
▁bɔli	-1187
▁bɔvɛ	-1188
▁ebúí	-1189
▁ebúɔ	-1190
▁eéɖi	-1191
▁genú	-1192
▁gɛnɛ	-1193
▁idzǔ	-1194
▁inyí	-1195
▁kelí	-1196
▁kikũ	-1197
▁kite	-1198
▁kéɖe	-1199
▁kɛts	-1200
▁kɛyɔ	-1201
▁oplǔ	-1202
▁susú	-1203
▁toró	-1204
▁tátá	-1205
▁títí	-1206
▁tɔɖɔ	-1207
▁yuyu	-1208
▁yɔdǒ	-1209
▁ɔtɛ́	-1210
▁ɖaŋu	-1211
trugbu	-1212
▁Avɛnɔ	-1213
▁Okúmɛ	-1214
▁ababa	-1215
▁apwɛ̃	-1216
▁asɔlɛ	-1217
▁bedzǔ	-1218
▁buklu	-1219
▁bulíí	-1220
▁butsǐ	-1221
▁bɔgbã	-1222
▁bɔkɔ́	-1223
▁bɔnya	-1224
▁bɔpɛ̃	-1225
▁ebisi	-1226
▁ebéle	-1227
▁ewulɔ	-1228
▁hohoe	-1229
▁kabha	-1230
▁kishú	-1231
▁kpasí	-1232
▁mayɛ́	-1233
▁nɔhwa	-1234
▁obisi	-1235
▁obobú	-1236
▁otoró	-1237
▁subha	-1238
▁tɛlɛ́	-1239
▁ɔbɔbá	-1240
▁ɔbɔgã	-1241
▁ɔɔ́ŋa	-1242
▁ɛyikɛ	-1243
dzɛ̃̌ɛ́	-1244
▁Tsyámi	-1245
▁alɔ́kɔ	-1246
▁asɛnɛ́	-1247
▁atɛ́ba	-1248
▁bageɛ́	-1249
▁bagɛmɔ	-1250
▁banyɛ́	-1251
▁bebeyi	-1252
▁bebolé	-1253
▁bebéle	-1254
▁begilũ	-1255
▁bekedě	-1256
▁betúɔ́	-1257
▁beyuku	-1258
▁bubatu	-1259
▁busíɛ́	-1260
▁butoró	-1261
▁buútsǐ	-1262
▁bɔbaɖi	-1263
▁bɔdzya	-1264
▁bɔlɔkɔ	-1265
▁bɔtɔ̃́	-1266
▁bɔyikɛ	-1267
▁bɔyɛkɛ	-1268
▁dzidze	-1269
▁gbã́tɔ	-1270
▁kepíɛ́	-1271
▁kivũɔ́	-1272
▁klisoɔ	-1273
▁kɛfɔ̃́	-1274
▁mɛayɛ́	-1275
▁noputɔ	-1276
▁olũgbǔ	-1277
▁otugba	-1278
▁séƒoƒo	-1279
▁sɔlɛmɛ	-1280
▁tsyáká	-1281
▁tútútú	-1282
▁tɛbaba	-1283
▁ɔgɔnɛ́	-1284
▁ɔkɔ̃ɛ̃	-1285
▁abashɛ̃	-1286
▁abhlatɔ	-1287
▁akaalɛ́	-1288
▁akaálɛ́	-1289
▁akɔ́lɔ́	-1290
▁babawɛ̃	-1291
▁beshopo	-1292
▁biskwit	-1293
▁bunyúmú	-1294
▁bushenu	-1295
▁butsiɖi	-1296
▁butukúi	-1297
▁bɔbagbã	-1298
▁bɔgbana	-1299
▁dzíɖuɖu	-1300
▁edewokú	-1301
▁eletéɛ́	-1302
▁kelĩ́ɛ́	-1303
▁kɛbhɛtɛ	-1304
▁obosúsú	-1305
▁tíkeéwu	-1306
▁yɔ̃́ɔ̃́	-1307
▁ɔmaxwɛ̃	-1308
▁ɛbakpɛ́	-1309
▁ɛɛ́kpɛ́	-1310
▁Begetéŋú	-1311
▁Eɖiɛwónɔ	-1312
▁ababhɛtɛ	-1313
▁akányáka	-1314
▁badakpɛ́	-1315
▁betétukú	-1316
▁bisibisi	-1317
▁buplukpá	-1318
▁kiplukpá	-1319
▁shúyɔ́yɔ	-1320
▁ɔtɛ́bɔdɛ	-1321
▁abaplɛ́nɔ	-1322
▁babaákpɛ́	-1323
▁batɛ́bágɛ	-1324
▁kɛdɔ̃nyɛ́dɔ̃	-1325
fɔ	-1326
hl	-1327
hǔ	-1328
mp	-1329
mw	-1330
rɔ	-1331
wo	-1332
wɔ	-1333
xo	-1334
xá	-1335
zi	-1336
zǎ	-1337
ã̌	-1338
óó	-1339
ĩ́	-1340
ɛr	-1341
ɛ̌	-1342
̌,	-1343
▁z	-1344
▁í	-1345
bhǒ	-1346
bói	-1347
deo	-1348
dzí	-1349
dzǒ	-1350
gbɔ	-1351
hlǒ	-1352
hĩã	-1353
ifú	-1354
ine	-1355
kpâ	-1356
kpũ	-1357
kúí	-1358
nyé	-1359
oso	-1360
pɛ́	-1361
ráá	-1362
sɔ̃	-1363
tso	-1364
tsá	-1365
ufu	-1366
urá	-1367
wla	-1368
wuu	-1369
wɛ̌	-1370
yié	-1371
ábá	-1372
ávɛ	-1373
íbú	-1374
úkú	-1375
ɖuƒ	-1376
ɛrɛ	-1377
̃́,	-1378
▁Aa	-1379
▁eb	-1380
▁li	-1381
▁nú	-1382
▁pɔ	-1383
▁si	-1384
▁wá	-1385
▁ɔt	-1386
▁ɛɛ	-1387
....	-1388
bagb	-1389
baɖɔ	-1390
bekú	-1391
bhla	-1392
bhui	-1393
diwu	-1394
fatɛ	-1395
galĩ	-1396
gani	-1397
hǐtá	-1398
kála	-1399
kɔlɛ	-1400
kɔ́é	-1401
leoo	-1402
lélé	-1403
mwɛ́	-1404
málɛ	-1405
mɛɛ́	-1406
samɛ	-1407
seɖǐ	-1408
shwɛ	-1409
tití	-1410
tsyu	-1411
tsyɔ	-1412
tsã́	-1413
títũ	-1414
tɛrɛ	-1415
xomɛ	-1416
yina	-1417
yɔrɔ	-1418
zhĩã	-1419
ã́mɛ	-1420
ŋaŋa	-1421
ɖíɛ́	-1422
ɛrɛ́	-1423
▁Aku	-1424
▁Anɔ	-1425
▁aná	-1426
▁apɛ	-1427
▁axá	-1428
▁ayɛ	-1429
▁aza	-1430
▁azǎ	-1431
▁aɖɔ	-1432
▁bla	-1433
▁blɛ	-1434
▁bɔ́	-1435
▁dzǐ	-1436
▁elú	-1437
▁elɛ	-1438
▁etí	-1439
▁etī	-1440
▁ezĩ	-1441
▁hoo	-1442
▁ihú	-1443
▁ilɛ	-1444
▁isí	-1445
▁kpɛ	-1446
▁lɔ́	-1447
▁ogi	-1448
▁ogũ	-1449
▁ohu	-1450
▁olu	-1451
▁oti	-1452
▁pɛ́	-1453
▁sɛɛ	-1454
▁sɛ́	-1455
▁wɛ̃	-1456
▁zɛ́	-1457
▁ɔbá	-1458
▁ɔfɔ	-1459
▁ɔgã	-1460
▁ɔsa	-1461
▁ɔzã	-1462
▁ɔɖa	-1463
▁ɛvɛ	-1464
▁ɛwa	-1465
▁ɛɖa	-1466
batɛ́	-1467
bhwɛ̃	-1468
elĩɛ́	-1469
hókúí	-1470
kaávɛ	-1471
luhũ̌	-1472
núkpó	-1473
tukúi	-1474
tɛ́ɛ́	-1475
uráte	-1476
wlago	-1477
yiami	-1478
ɛ̃́ɛ̃	-1479
▁Agbɔ	-1480
▁Kifú	-1481
▁Otsí	-1482
▁abhá	-1483
▁adza	-1484
▁ahĩa	-1485
▁asha	-1486
▁aápɛ	-1487
▁aɖuƒ	-1488
▁bamɛ	-1489
▁bavɛ	-1490
▁baŋa	-1491
▁baɖɔ	-1492
▁beku	-1493
▁belũ	-1494
▁busi	-1495
▁butu	-1496
▁bɔdɛ	-1497
▁bɔtɔ	-1498
▁bɔwɛ	-1499
▁déɛ́	-1500
▁ebhǒ	-1501
▁edze	-1502
▁efĩ́	-1503
▁ehwi	-1504
▁ekpũ	-1505
▁etsu	-1506
▁fatɛ	-1507
▁fine	-1508
▁fufu	-1509
▁gbea	-1510
▁ibói	-1511
▁kalɛ	-1512
▁kedu	-1513
▁kinu	-1514
▁kobu	-1515
▁kpóó	-1516
▁kɛgɛ	-1517
▁kɛzã	-1518
▁luhũ	-1519
▁mahó	-1520
▁odeo	-1521
▁olĩ́	-1522
▁oshe	-1523
▁ozĩ̌	-1524
▁pɛkɛ	-1525
▁tetí	-1526
▁tɛta	-1527
▁tɛtá	-1528
▁tɛwa	-1529
▁vũnɔ	-1530
▁wole	-1531
▁wulu	-1532
▁wunɔ	-1533
▁zhĩá	-1534
▁ɔnyá	-1535
▁ɛdɔ̃	-1536
▁ɛtɔ̃	-1537
bagbla	-1538
bakpɛ́	-1539
bhɛtɛɛ	-1540
gagãlĩ	-1541
gbagba	-1542
gegéné	-1543
kpɛ́na	-1544
shɔkɔ́	-1545
tsodzi	-1546
vɔbɔ́ɛ	-1547
▁Alɔkɔ	-1548
▁Buúkú	-1549
▁Bɔkɔ́	-1550
▁Oxomɛ	-1551
▁abadɔ	-1552
▁abamɔ	-1553
▁abaná	-1554
▁adámɛ	-1555
▁akaka	-1556
▁akála	-1557
▁akɔlɔ	-1558
▁apɔ̃́	-1559
▁ayɔrɔ	-1560
▁azhĩá	-1561
▁aáwɛ̃	-1562
▁babáá	-1563
▁bakla	-1564
▁bayɔ́	-1565
▁baámɔ	-1566
▁bedzí	-1567
▁betsi	-1568
▁betsí	-1569
▁bhama	-1570
▁bunyí	-1571
▁bɔkɔɔ	-1572
▁egise	-1573
▁ekusi	-1574
▁emúnɔ	-1575
▁eseɖǐ	-1576
▁etití	-1577
▁eyuyu	-1578
▁kegbu	-1579
▁kifúɔ	-1580
▁kplɔ̃	-1581
▁kpɛ́ɛ	-1582
▁kúráá	-1583
▁kɛgɔɔ	-1584
▁kɛpɛ̃	-1585
▁loyié	-1586
▁luhũ̌	-1587
▁meklu	-1588
▁minyí	-1589
▁miíbú	-1590
▁nɔlɛ́	-1591
▁obokú	-1592
▁omúnɔ	-1593
▁osiɛ́	-1594
▁oɖotí	-1595
▁pã́mɛ	-1596
▁tihlǒ	-1597
▁tsiɖi	-1598
▁tsɛrɛ	-1599
▁wakɔ́	-1600
▁yiyiɛ	-1601
▁yǐyǐɛ	-1602
▁ŋlɔmɛ	-1603
▁ɔbhia	-1604
▁ɔgɛná	-1605
▁ɔmana	-1606
▁ɔshɛ̃	-1607
▁ɔyikɛ	-1608
▁ɔzhĩá	-1609
▁ɔɔ́ba	-1610
▁ɛbaba	-1611
▁ɛdzyɔ	-1612
▁ɛlĩɛ́	-1613
▁ɛlɔkɔ	-1614
batɛ́gã	-1615
gbogbǒɔ	-1616
lɔ̃́mɛ́	-1617
▁Bamálɛ	-1618
▁Banyáá	-1619
▁abakpâ	-1620
▁akaalɛ	-1621
▁akaábá	-1622
▁avɔbɔ́	-1623
▁axátsá	-1624
▁babaɖɔ	-1625
▁bakɔnú	-1626
▁bashɛ̃	-1627
▁basɛnɔ	-1628
▁bazhĩã	-1629
▁bebekú	-1630
▁bebetũ	-1631
▁bedekú	-1632
▁bekeɛ́	-1633
▁besíɛ́	-1634
▁betoró	-1635
▁bladzǒ	-1636
▁blɛwuu	-1637
▁bukusi	-1638
▁bukusí	-1639
▁bátɔɖɔ	-1640
▁bɔbalũ	-1641
▁bɔbavɛ	-1642
▁bɔbaŋa	-1643
▁bɔsɔlɛ	-1644
▁bɔɔ́wa	-1645
▁eblidě	-1646
▁ekóéyi	-1647
▁etakpú	-1648
▁etsiɖi	-1649
▁etínyí	-1650
▁gagalĩ	-1651
▁gɔgɔ̃ɛ	-1652
▁idzini	-1653
▁kashɛ̃	-1654
▁kelitú	-1655
▁kibúíɛ	-1656
▁kitití	-1657
▁kizĩzĩ	-1658
▁kuráte	-1659
▁kɛbwɛ̌	-1660
▁kɛgɛzã	-1661
▁kɛlɛso	-1662
▁kɛshwɛ	-1663
▁lotítũ	-1664
▁lɔsɔlɛ	-1665
▁nyimɔ́	-1666
▁nɔɔ́lɛ	-1667
▁okóéyi	-1668
▁ozhǐtá	-1669
▁sɛ̃́ɛ́	-1670
▁titsyi	-1671
▁tɛzãzã	-1672
▁vevétɔ	-1673
▁yiyiɛ́	-1674
▁yǐyǐɛ́	-1675
▁ɔkɔkɔ́	-1676
▁ɔnyɔ́ɔ	-1677
▁ɔwlago	-1678
▁ɛbatɔ̃	-1679
▁ɛgɔnɛ́	-1680
gegénéɛ́	-1681
kpɛ́samɛ	-1682
▁Akumawú	-1683
▁Badzɛ̃̌	-1684
▁ababaka	-1685
▁abatóŋú	-1686
▁adakpɛ́	-1687
▁agɛfuyã	-1688
▁akakála	-1689
▁akáálɛ́	-1690
▁anɔnyɛ́	-1691
▁aplɛ́nɔ	-1692
▁awɔ̃hũ̌	-1693
▁bababɔ́	-1694
▁babalɔ́	-1695
▁badɛmɛ́	-1696
▁batɛ́wa	-1697
▁baábalɛ	-1698
▁betsíɛ́	-1699
▁buluhũ̌	-1700
▁butsíɛ́	-1701
▁bɔnyana	-1702
▁bɔɔ́kɔ́	-1703
▁ebewokú	-1704
▁elĩalɛ́	-1705
▁epidzyá	-1706
▁epidzyǎ	-1707
▁esheshe	-1708
▁gbagbla	-1709
▁kekóéyi	-1710
▁kelitúɔ	-1711
▁kibuiɛ́	-1712
▁kpɛkpɛ́	-1713
▁kányáka	-1714
▁kɛbaávɛ	-1715
▁kɛbhwɛ̃	-1716
▁kɛtɛ́ba	-1717
▁nɔɔ́lɛ́	-1718
▁ogimúnɔ	-1719
▁otsyina	-1720
▁tonukpó	-1721
▁tsyiami	-1722
▁ténúkpó	-1723
▁zɛ́zɛ̃̌	-1724
▁ɔbɔkpɛ́	-1725
▁ɔbɔtɔnɔ	-1726
▁ɔfɔfuyã	-1727
▁ɔplɛ́nɔ	-1728
▁ɔtɛtɛrɛ	-1729
▁ɛbabalɛ	-1730
▁ɛhɛ̃́ɛ̃	-1731
nyɛ́núvɔɛ	-1732
▁Batrugbu	-1733
▁adasɔkɛ́	-1734
▁anɔ́dzɛ̃	-1735
▁babadzyɔ	-1736
▁babakɔ́ɛ	-1737
▁babatɔɖɔ	-1738
▁babayɛkɛ	-1739
▁badalɔkɔ	-1740
▁banyɛ́ɛ́	-1741
▁baplɛ́nɔ	-1742
▁bavɔbɔ́ɛ	-1743
▁bezedekú	-1744
▁bulitúɔ́	-1745
▁bɔbalɔkɔ	-1746
▁bɔbatsyu	-1747
▁edzebéle	-1748
▁eyíelĩɛ́	-1749
▁ezekóéyi	-1750
▁kawlãkɛ́	-1751
▁kɔshɔkɔ́	-1752
▁kɛbatóŋú	-1753
▁kɛgɛdzyɔ	-1754
▁kɛtsɛrɛ́	-1755
▁mahógani	-1756
▁odeobisi	-1757
▁tigegéné	-1758
▁ɔbɔbhɛtɛ	-1759
kpɛ́naálɛ́	-1760
▁atɛ́banyá	-1761
▁badzɛ̃̌ɛ́	-1762
▁bɔbashogo	-1763
▁kigbogbǒɔ	-1764
▁kobulĩ́ɛ́	-1765
▁kɛklagbuɔ	-1766
▁kɛkányáka	-1767
▁kɛlɔ̃́mɛ́	-1768
▁kɛtɛ́sɔlɛ	-1769
▁odukukɔ́é	-1770
▁sɛbatɛ́gã	-1771
▁ɔzhĩázhĩá	-1772
▁babaplɛ́nɔ	-1773
▁budzyuɖíɛ́	-1774
▁kɛtɛ́kaávɛ	-1775
▁ozhǐtámɛɛ́	-1776
▁tegegénéɛ́	-1777
▁bezebetukúi	-1778
▁pɛkɛkányáka	-1779
▁titsyitsyina	-1780
▁kpɛ́kpɛ́naálɛ́	-1781
bí	-1782
co	-1783
dã	-1784
fa	-1785
fe	-1786
hã	-1787
hɔ	-1788
hɛ	-1789
ié	-1790
ki	-1791
kó	-1792
mu	-1793
mí	-1794
ne	-1795
nt	-1796
pp	-1797
xé	-1798
yí	-1799
yǎ	-1800
zh	-1801
zé	-1802
zɔ	-1803
éɛ	-1804
úɔ	-1805
ɖɛ	-1806
́á	-1807
▁̃	-1808
aka	-1809
amp	-1810
amɔ	-1811
anɔ	-1812
awɔ	-1813
baá	-1814
blɔ	-1815
bui	-1816
búí	-1817
com	-1818
dzɛ	-1819
ede	-1820
ege	-1821
ekú	-1822
esí	-1823
eve	-1824
fla	-1825
fɔ̃	-1826
gbé	-1827
gla	-1828
glɔ	-1829
goé	-1830
gɔg	-1831
hui	-1832
ikú	-1833
klɛ	-1834
kpɔ	-1835
kpɛ	-1836
kúu	-1837
luɔ	-1838
lɔ̌	-1839
lɛ̃	-1840
maa	-1841
mit	-1842
mpá	-1843
mpú	-1844
mɔɛ	-1845
nie	-1846
nts	-1847
ogo	-1848
plú	-1849
pps	-1850
pɔɛ	-1851
rɔ́	-1852
rɛ̌	-1853
tee	-1854
trɛ	-1855
tã́	-1856
uku	-1857
vié	-1858
wɔɛ	-1859
ábú	-1860
ánɔ	-1861
ãtɔ	-1862
éɖí	-1863
éɖǐ	-1864
ĩsɛ	-1865
ɔɔg	-1866
ɖɔɛ	-1867
▁Su	-1868
▁Tu	-1869
▁dã	-1870
▁dɛ	-1871
▁fa	-1872
▁gũ	-1873
▁kã	-1874
▁lá	-1875
▁lũ	-1876
▁ní	-1877
▁pú	-1878
▁yá	-1879
▁yé	-1880
▁zã	-1881
▁ɔx	-1882
▁ɖi	-1883
akpa	-1884
babɔ	-1885
bakú	-1886
bama	-1887
bavɛ	-1888
beti	-1889
betī	-1890
beyi	-1891
beyǐ	-1892
bhia	-1893
bobo	-1894
buli	-1895
bísi	-1896
bɔbɔ	-1897
bɔxé	-1898
chna	-1899
dewu	-1900
dizã	-1901
dzyi	-1902
dzã̌	-1903
dzɛ́	-1904
dɔdɔ	-1905
dɛmɛ	-1906
ekúi	-1907
ever	-1908
feké	-1909
gasí	-1910
gbɛ̃	-1911
gɔnɛ	-1912
hona	-1913
huiɛ	-1914
hĩ́á	-1915
hɔɛ́	-1916
kaka	-1917
kelí	-1918
kibe	-1919
koko	-1920
kplɔ	-1921
kpã́	-1922
kpúɔ	-1923
kúɔ́	-1924
mana	-1925
mpúá	-1926
neɛ́	-1927
ntsě	-1928
ogbe	-1929
puli	-1930
pɔtɔ	-1931
rugb	-1932
shɔ̃	-1933
sigũ	-1934
sɛ́m	-1935
temɛ	-1936
tswá	-1937
tsɛ́	-1938
téɛ́	-1939
tíbú	-1940
típú	-1941
tíɛ́	-1942
vlɔ̌	-1943
vũnɔ	-1944
woku	-1945
wole	-1946
wulu	-1947
wulú	-1948
wɔ̃ɛ	-1949
xɔ̃ɛ	-1950
yayǎ	-1951
yɛmɛ	-1952
zhwɛ	-1953
ziwu	-1954
ɛ́ɖɛ	-1955
́ɛ̃́	-1956
▁...	-1957
▁Abá	-1958
▁Afa	-1959
▁Agɛ	-1960
▁Aka	-1961
▁Soɔ	-1962
▁adɔ	-1963
▁ahã	-1964
▁amɛ	-1965
▁apa	-1966
▁ata	-1967
▁awa	-1968
▁aɖa	-1969
▁bui	-1970
▁com	-1971
▁dzǔ	-1972
▁dɔ̌	-1973
▁edi	-1974
▁edĩ	-1975
▁eke	-1976
▁elu	-1977
▁elũ	-1978
▁enú	-1979
▁esɛ	-1980
▁evũ	-1981
▁ewú	-1982
▁eyi	-1983
▁ezi	-1984
▁eɖǐ	-1985
▁fla	-1986
▁gbo	-1987
▁ibh	-1988
▁ifu	-1989
▁koa	-1990
▁kpũ	-1991
▁ndɔ	-1992
▁nya	-1993
▁nɛɛ	-1994
▁obó	-1995
▁ofu	-1996
▁ofú	-1997
▁omu	-1998
▁onu	-1999
▁osɛ	-2000
▁otɔ	-2001
▁oyi	-2002
▁pɛn	-2003
▁shu	-2004
▁shí	-2005
▁tsǐ	-2006
▁tɔ̃	-2007
▁yǐi	-2008
▁yɛ́	-2009
▁zhǐ	-2010
▁zɛa	-2011
▁ɔba	-2012
▁ɔts	-2013
▁ɔtã	-2014
▁ɔtɔ	-2015
▁ɔzɔ	-2016
▁ɛbá	-2017
▁ɛbú	-2018
▁ɛwɛ	-2019
▁ɛya	-2020
▁ɛze	-2021
alélé	-2022
ampro	-2023
ashɛ̃	-2024
bleoo	-2025
bísií	-2026
bɔdɔ̃	-2027
delɛ́	-2028
dzeni	-2029
dzini	-2030
dzyɛ̌	-2031
dzɛ̃́	-2032
dɛmɛ́	-2033
egent	-2034
fatɛe	-2035
fatɛi	-2036
gbána	-2037
hwana	-2038
iamɔ́	-2039
lɔ́mí	-2040
lɛkpɛ	-2041
lɛzaa	-2042
nuvɔɛ	-2043
rɔ́nɔ	-2044
tɛ́mɔ	-2045
viétɔ	-2046
wakɔ́	-2047
wɔ̃nɔ	-2048
yanya	-2049
yiesí	-2050
zeóɖǐ	-2051
zɛóɖǐ	-2052
íálɛ́	-2053
ómúnɔ	-2054
ɖiɛrr	-2055
▁Awɛ̃	-2056
▁Baba	-2057
▁Bɔlɔ	-2058
▁Bɔwa	-2059
▁Eklǔ	-2060
▁Yalɛ	-2061
▁Yálɛ	-2062
▁adzi	-2063
▁aglɔ	-2064
▁akpa	-2065
▁ampɛ	-2066
▁anɔɔ	-2067
▁atɛ́	-2068
▁ayɛɛ	-2069
▁azaa	-2070
▁aáɖɔ	-2071
▁babí	-2072
▁badã	-2073
▁badě	-2074
▁bagɛ	-2075
▁bali	-2076
▁batá	-2077
▁baté	-2078
▁bede	-2079
▁belí	-2080
▁besi	-2081
▁betí	-2082
▁betú	-2083
▁beyí	-2084
▁buhú	-2085
▁bukú	-2086
▁bulú	-2087
▁butú	-2088
▁buvɛ	-2089
▁béɖí	-2090
▁bɔpá	-2091
▁bɔya	-2092
▁bɔŋa	-2093
▁dikú	-2094
▁duku	-2095
▁dzã̌	-2096
▁ekpe	-2097
▁eplǔ	-2098
▁etíé	-2099
▁ezhǐ	-2100
▁ezĩɛ	-2101
▁eési	-2102
▁eéwu	-2103
▁gazé	-2104
▁gɔɔg	-2105
▁gɛsɛ	-2106
▁ibúí	-2107
▁inyé	-2108
▁iplú	-2109
▁iíbó	-2110
▁kaka	-2111
▁kidě	-2112
▁kifu	-2113
▁kábá	-2114
▁kókó	-2115
▁kɛbá	-2116
▁kɛdɔ	-2117
▁kɛfɔ	-2118
▁kɛwã	-2119
▁kɛwɛ	-2120
▁lewu	-2121
▁líɛ́	-2122
▁lɔlɛ	-2123
▁lɔnɛ	-2124
▁lɔtu	-2125
▁lɔtú	-2126
▁lɔzɛ	-2127
▁mapo	-2128
▁minú	-2129
▁mɛtɔ	-2130
▁mɛɛ́	-2131
▁nolũ	-2132
▁nɔbɔ	-2133
▁nɔmɔ	-2134
▁nɔpɛ	-2135
▁ogũɔ	-2136
▁olɔ́	-2137
▁olɛ́	-2138
▁onyí	-2139
▁otsu	-2140
▁pɔtɔ	-2141
▁sina	-2142
▁sisɛ	-2143
▁titi	-2144
▁tití	-2145
▁tsyɔ	-2146
▁télí	-2147
▁tɔtá	-2148
▁wokú	-2149
▁wulɔ	-2150
▁wɔnɔ	-2151
▁zurú	-2152
▁zãzã	-2153
▁zĩzĩ	-2154
▁zɛbá	-2155
▁zɛwa	-2156
▁áfɔ̃	-2157
▁ákɔ́	-2158
▁édze	-2159
▁édzi	-2160
▁ótsí	-2161
▁ɔdzɛ	-2162
▁ɔgla	-2163
▁ɔkɔɔ	-2164
▁ɔmɔɛ	-2165
▁ɔɖɔɛ	-2166
▁ɔ́lɛ	-2167
▁ɛhɛ̌	-2168
▁ɛpɛ̃	-2169
▁ɛsha	-2170
agãlĩɛ	-2171
balɔkɔ	-2172
baáwɛ̃	-2173
bobohɛ	-2174
dzidze	-2175
dzyíɛ́	-2176
dzɛ́kɛ	-2177
edekpũ	-2178
gɔgɔ̃ɛ	-2179
ketéŋú	-2180
mamwɛ́	-2181
mittee	-2182
nyanya	-2183
nyáklɛ	-2184
nyébui	-2185
nyíánɔ	-2186
nyɔ́kɔ	-2187
pɛ́pɛ́	-2188
pɛ̃pɛ̃	-2189
shɛ̃nɔ	-2190
takpúɔ	-2191
tsigoé	-2192
vevétɔ	-2193
wɔ̃sɔ̃	-2194
yagasí	-2195
zaapɔɛ	-2196
ɔzãkɔ́	-2197
▁Adzɛ̃	-2198
▁Bawɛ̃	-2199
▁Bayɛ̌	-2200
▁Buklǔ	-2201
▁Bɔdɔ̃	-2202
▁Kifúɔ	-2203
▁Kɛdɔ̃	-2204
▁Osigũ	-2205
▁Subha	-2206
▁abaka	-2207
▁abalɛ	-2208
▁abatɔ	-2209
▁abavɛ	-2210
▁abɔbɔ	-2211
▁adewu	-2212
▁adizã	-2213
▁adzya	-2214
▁agbɛ̃	-2215
▁agɛpɛ	-2216
▁ahĩ́á	-2217
▁akɔlɛ	-2218
▁asafo	-2219
▁asɛ́m	-2220
▁atoró	-2221
▁avɛnɔ	-2222
▁ayalɛ	-2223
▁ayĩsɛ	-2224
▁azaba	-2225
▁aáwɔɛ	-2226
▁badza	-2227
▁bafla	-2228
▁bakaá	-2229
▁bakɔ́	-2230
▁bamaɛ	-2231
▁banyá	-2232
▁baágã	-2233
▁baáka	-2234
▁baápɛ	-2235
▁baáɖɔ	-2236
▁baɖɔɔ	-2237
▁beébú	-2238
▁beétú	-2239
▁beéɖi	-2240
▁bhoso	-2241
▁bleoo	-2242
▁buúhǔ	-2243
▁búlíí	-2244
▁bɔbha	-2245
▁bɔdza	-2246
▁bɔlɛ́	-2247
▁bɔwɛ̃	-2248
▁bɔ́vɛ	-2249
▁ebekú	-2250
▁ebeɖi	-2251
▁edeɛ́	-2252
▁edziɛ	-2253
▁eeamɔ	-2254
▁ekúɔ́	-2255
▁epíɛ́	-2256
▁ewoku	-2257
▁ezekú	-2258
▁eékpũ	-2259
▁fakɔ́	-2260
▁fever	-2261
▁gbãtɔ	-2262
▁gbɔxé	-2263
▁gɔgɔɛ	-2264
▁iduku	-2265
▁isígũ	-2266
▁ivũnɔ	-2267
▁iwulu	-2268
▁iíklǔ	-2269
▁kaklǔ	-2270
▁kasɛ́	-2271
▁kedzi	-2272
▁kelĩ́	-2273
▁kibeɛ	-2274
▁kihwi	-2275
▁kikũɔ	-2276
▁kishu	-2277
▁kɛkpɔ	-2278
▁kɛlɔ́	-2279
▁kɛsha	-2280
▁kɛtsɔ	-2281
▁kɛ́ɖɛ	-2282
▁lalɛ́	-2283
▁leéɖǐ	-2284
▁loshe	-2285
▁lɔ́kɔ	-2286
▁lɛlɛ́	-2287
▁nyimɔ	-2288
▁nyɛmɛ	-2289
▁nɔkɔ́	-2290
▁obhia	-2291
▁obohǔ	-2292
▁odiwu	-2293
▁ohuiɛ	-2294
▁okúɔ́	-2295
▁oliɛ́	-2296
▁oluhũ	-2297
▁osigũ	-2298
▁otsíɛ	-2299
▁otíbú	-2300
▁phona	-2301
▁piapí	-2302
▁schna	-2303
▁shogo	-2304
▁sukúu	-2305
▁tramɛ	-2306
▁tumpá	-2307
▁tɛwáa	-2308
▁yedzi	-2309
▁yuyuɔ	-2310
▁yálɛ́	-2311
▁yɛawɔ	-2312
▁ábama	-2313
▁ákaka	-2314
▁ákɔlɛ	-2315
▁ánána	-2316
▁ípuli	-2317
▁ɔbɔba	-2318
▁ɔbɔmɔ	-2319
▁ɔbɔtɔ	-2320
▁ɔgɛmɔ	-2321
▁ɔyayǎ	-2322
▁ɔɔ́mɔ	-2323
▁ɔ́kɔ́	-2324
▁ɔ́tã́	-2325
▁ɛbabó	-2326
▁ɛbaɖi	-2327
▁ɛdɛmɛ	-2328
▁ɛgɔnɛ	-2329
▁ɛkpã́	-2330
▁ɛzɛmɔ	-2331
▁ɛŋaŋa	-2332
akaalɛ́	-2333
alélélé	-2334
bulitúɔ	-2335
dzyinie	-2336
kɛtɛ́ba	-2337
kɛtɛ́ɛ́	-2338
lɔkpasɛ	-2339
lɛzaazĩ	-2340
nyanakɔ	-2341
tsyiami	-2342
tɛ́ɛ́mɔ	-2343
éɛhókúí	-2344
ómúnɔkɔ	-2345
▁Bebekú	-2346
▁Bebeyǐ	-2347
▁Bɔbaɖɔ	-2348
▁Bɔbhla	-2349
▁Kifúɔ́	-2350
▁Kɛlɛso	-2351
▁abashɔ	-2352
▁abhama	-2353
▁adalɛ̃	-2354
▁ahwana	-2355
▁alɔkɔe	-2356
▁asɔkɛ́	-2357
▁ayakpa	-2358
▁azɛavɛ	-2359
▁babakɔ	-2360
▁batswá	-2361
▁bayikɛ	-2362
▁baáwɛ̃	-2363
▁befeké	-2364
▁bekusí	-2365
▁beseɖǐ	-2366
▁betsiɛ	-2367
▁bewole	-2368
▁bewulú	-2369
▁bezekú	-2370
▁bhɛtɛɛ	-2371
▁bubisi	-2372
▁bulĩɛ́	-2373
▁buwíɛ́	-2374
▁buziwu	-2375
▁bútípú	-2376
▁bɔbabú	-2377
▁bɔbazã	-2378
▁bɔbhla	-2379
▁bɔgɛmɔ	-2380
▁bɔhɔɛ́	-2381
▁bɔtɔɖɔ	-2382
▁bɔɔ́kɔ	-2383
▁drɔ́nɔ	-2384
▁dzogbe	-2385
▁dzyoró	-2386
▁ebedzǐ	-2387
▁ebelɛ́	-2388
▁ebetsǐ	-2389
▁ebezhǐ	-2390
▁efékéé	-2391
▁ewúlɛ́	-2392
▁eyuyuɔ	-2393
▁gbogbǒ	-2394
▁ibhoso	-2395
▁ishumɛ	-2396
▁kalɛlɛ	-2397
▁kantsě	-2398
▁kazhwɛ	-2399
▁kedulũ	-2400
▁kegbuɔ	-2401
▁kitelu	-2402
▁kitemɛ	-2403
▁kiteɖe	-2404
▁kitoró	-2405
▁kokoko	-2406
▁kéɖeso	-2407
▁kɔ́anɔ	-2408
▁kɛbazã	-2409
▁kɛkɔlɔ	-2410
▁kɛtoró	-2411
▁kɛvlɔ̌	-2412
▁kɛŋaŋa	-2413
▁kɛ́lɛ́	-2414
▁letéɛ́	-2415
▁mɛbavɛ	-2416
▁mɛlɔkɔ	-2417
▁ndɔgbe	-2418
▁nyamaa	-2419
▁nɔɔ́mɔ	-2420
▁nɔ́kɔ́	-2421
▁otínyí	-2422
▁pampro	-2423
▁regent	-2424
▁sɛmpúá	-2425
▁takpúɔ	-2426
▁titoró	-2427
▁tsyáló	-2428
▁tɔ́gbé	-2429
▁tɛlɔ̃́	-2430
▁tɛxɔ̃ɛ	-2431
▁woayɛ́	-2432
▁wɔayɛ́	-2433
▁zɛzɛ̃̌	-2434
▁ɔbɔtɔ̃	-2435
▁ɔkpasɛ	-2436
▁ɔkɔ́yɛ	-2437
▁ɔtsrɛ̌	-2438
▁ɔtɛtrɛ	-2439
▁ɔxlɔ̃́	-2440
▁ɛbashɔ	-2441
▁ɛbhɛtɛ	-2442
▁ɛfatɛi	-2443
▁ɛtɛ́mɔ	-2444
▁ɛ́kpɛ́	-2445
▁̃ŋlɔmɛ	-2446
tsã́tsã́	-2447
▁abatsɛ́	-2448
▁adalɔkɔ	-2449
▁adanyɔ́	-2450
▁agɛbaɖɔ	-2451
▁agɛtsyɔ	-2452
▁akumawú	-2453
▁alɔ́kɔɛ	-2454
▁amaneɛ́	-2455
▁anyanya	-2456
▁anyɛ́ɛ́	-2457
▁anɔdzɛ̃	-2458
▁awɔ̃sɔ̃	-2459
▁babayɛ̌	-2460
▁badayɛ̌	-2461
▁badzɛ̃̌	-2462
▁bakpasɛ	-2463
▁bakpɛ́ɛ	-2464
▁batrugb	-2465
▁batɛ́gã	-2466
▁baátɔɖɔ	-2467
▁bebedzi	-2468
▁bebetsu	-2469
▁benyíbe	-2470
▁betsiɛ́	-2471
▁betsokú	-2472
▁betínyí	-2473
▁bubísií	-2474
▁bukóéyi	-2475
▁bulitúɔ	-2476
▁bunuvɔɛ	-2477
▁butsokú	-2478
▁bɔbaábú	-2479
▁bɔdzyɛ̌	-2480
▁bɔgbána	-2481
▁bɔkasɛ́	-2482
▁bɔkpasɛ	-2483
▁edéwokú	-2484
▁ekebolé	-2485
▁etitíɛ́	-2486
▁eyíálɛ́	-2487
▁ezebekú	-2488
▁ezebeyi	-2489
▁ezewunɔ	-2490
▁eéshogo	-2491
▁idzidze	-2492
▁iplukpá	-2493
▁iplúkpá	-2494
▁kayiesí	-2495
▁keduluɔ	-2496
▁kegbuɔ́	-2497
▁kiblidě	-2498
▁kitsiɖi	-2499
▁koalɔkɔ	-2500
▁kɛbalɛ́	-2501
▁kɛnyáka	-2502
▁noboóɖǐ	-2503
▁nozeóɖǐ	-2504
▁nozɛóɖǐ	-2505
▁obodiwu	-2506
▁obolɔkɔ	-2507
▁olũgbǔɔ	-2508
▁omumwɛ́	-2509
▁shudzya	-2510
▁trǎdɔdɔ	-2511
▁tɛwɔ̃nɔ	-2512
▁tɛákpɛ́	-2513
▁veviétɔ	-2514
▁zɛakpɛ́	-2515
▁édzeéwu	-2516
▁íklagbu	-2517
▁ɔzɔkpɛ́	-2518
▁ɛbatéŋú	-2519
▁ɛbhɛtɛɛ	-2520
▁ɛbobohɛ	-2521
▁ɛdzɛ́kɛ	-2522
▁ɛtakpúɔ	-2523
▁ɛzebolé	-2524
▁ɛ́kasɛ́	-2525
kibenyíbe	-2526
kɛtɛ́babá	-2527
́ɛ̃́hókúí	-2528
▁Adzɛ̃̌ɛ́	-2529
▁Akanyáka	-2530
▁Bɔbakpɛ́	-2531
▁Tutrugbu	-2532
▁adanyana	-2533
▁alóbɔdɔ̃	-2534
▁atɛ́lɔkɔ	-2535
▁azanyana	-2536
▁babalɔkɔ	-2537
▁babamana	-2538
▁bagbagba	-2539
▁bamaleté	-2540
▁batébabɔ	-2541
▁bebebhui	-2542
▁bedebhui	-2543
▁bekusíɛ́	-2544
▁beshopoɔ	-2545
▁betíbeti	-2546
▁betībetī	-2547
▁bezebekú	-2548
▁bhɛtɛkɔ́	-2549
▁bɔbashɔ̃	-2550
▁bɔdɛbalɛ	-2551
▁bɔgagãlĩ	-2552
▁bɔgɔgɔ̃ɛ	-2553
▁bɔkabakú	-2554
▁bɔzaapɔɛ	-2555
▁dzã̌dzã̌	-2556
▁ebedzeni	-2557
▁ebedzini	-2558
▁ebewokúa	-2559
▁editsokú	-2560
▁ezedelɛ́	-2561
▁kidiamɔ́	-2562
▁kɛbatsyɔ	-2563
▁kɛblɔ́mí	-2564
▁kɛblɛkpɛ	-2565
▁kɛtakpúɔ	-2566
▁lɔzɛkpɛ́	-2567
▁mitsyina	-2568
▁nobotóŋú	-2569
▁nyɔ̃́ɔ̃́	-2570
▁obofatɛe	-2571
▁pɔtɔpɔtɔ	-2572
▁schnapps	-2573
▁tinikpóɔ	-2574
▁tɛpɛ̃pɛ̃	-2575
▁tɛ́dɛmɛ́	-2576
▁zɛplɛ́nɔ	-2577
▁ɔbɔkasɛ́	-2578
▁ɔgɔnɛ́ɛ́	-2579
▁ɔnyanakɔ	-2580
▁ɛshaálɛ́	-2581
▁ɛtɛ́ɛ́mɔ	-2582
▁ɛzɛlɔkɔɛ	-2583
▁ɛɛ́bhɛtɛ	-2584
▁Akumawúɔ́	-2585
▁abagbagba	-2586
▁adawɔ̃sɔ̃	-2587
▁adzyaalɛ́	-2588
▁agɛbaáwɛ̃	-2589
▁anɔnyíánɔ	-2590
▁apaletéɛ́	-2591
▁ashwĩálɛ́	-2592
▁azɛanyana	-2593
▁aɖatsigoé	-2594
▁batsyiami	-2595
▁bazɛashɛ̃	-2596
▁bebeɖiɛrr	-2597
▁bezebedzi	-2598
▁budzyinie	-2599
▁bɔbatsokú	-2600
▁bɔdzakpɛ́	-2601
▁committee	-2602
▁dɔnyɛ́dɔ̃	-2603
▁egiseekúi	-2604
▁esɛedekpũ	-2605
▁etíketéŋú	-2606
▁etíékóéyi	-2607
▁ezidzidze	-2608
▁ketsukpuɔ	-2609
▁kɔ́dzyíɛ́	-2610
▁kɛkpɔkplɔ	-2611
▁kɛtɛ́baba	-2612
▁mɛɛ́kasɛ́	-2613
▁olumamwɛ́	-2614
▁pɛ́pɛ́pɛ́	-2615
▁ɔbɔshɛ̃nɔ	-2616
▁ɔdzɛdzɛ̃́	-2617
▁ɔkɔnyɔ́kɔ	-2618
▁ɛzɛbalɔkɔ	-2619
kɛtɛ́ɛ́wɔ̃ɛ	-2620
▁adzɛ̃núvɔɛ	-2621
▁asafoatsyɛ	-2622
▁atɛ́batɔnɔ	-2623
▁axwɛ̃wakɔ́	-2624
▁azaabhɛtɛɛ	-2625
▁bakaábhɛtɛ	-2626
▁batrugbuma	-2627
▁bezetsodzi	-2628
▁bleoobleoo	-2629
▁blɔakaalɛ́	-2630
▁bɔbagagãlĩ	-2631
▁dzyalélélé	-2632
▁gɔɔgagãlĩɛ	-2633
▁kesiɔzãkɔ́	-2634
▁kititíayɛ́	-2635
▁koɔlɛzaazĩ	-2636
▁nɛ́bulitúɔ	-2637
▁titorótoró	-2638
▁ɛyáómúnɔkɔ	-2639
▁aɖuƒéɛhókúí	-2640
▁batrugbudzi	-2641
▁batɛ́bakpɛ́	-2642
▁kibuinyébui	-2643
▁kɛdɔnyɛ́dɔ̃	-2644
▁badzɛ̃̌nuvɔɛ	-2645
▁batrugbuɔblɔ	-2646
▁bezebetsodzi	-2647
▁dzogbenyáklɛ	-2648
▁tsã́tsã́tsã́	-2649
▁kɛtɛ́banyanya	-2650
▁phonanyɛ́núvɔɛ	-2651
▁piapííkibenyíbe	-2652
Ab	-2653
Ad	-2654
Ak	-2655
Aw	-2656
Bɔ	-2657
Ek	-2658
Kã	-2659
Kɛ	-2660
Os	-2661
Tu	-2662
Ya	-2663
az	-2664
aɛ	-2665
bǔ	-2666
bɛ	-2667
eo	-2668
eó	-2669
ha	-2670
hn	-2671
lá	-2672
ol	-2673
oƒ	-2674
ps	-2675
pw	-2676
pã	-2677
sr	-2678
sé	-2679
sě	-2680
uf	-2681
yĩ	-2682
áp	-2683
ãl	-2684
ãz	-2685
éy	-2686
éƒ	-2687
íg	-2688
ít	-2689
íé	-2690
ób	-2691
óɔ	-2692
úa	-2693
úk	-2694
úr	-2695
úá	-2696
ĩa	-2697
ũg	-2698
ƒé	-2699
.,	-2700
Aa	-2701
Al	-2702
Bu	-2703
Eg	-2704
Ki	-2705
Yá	-2706
ao	-2707
há	-2708
ik	-2709
iv	-2710
me	-2711
mé	-2712
ní	-2713
od	-2714
oh	-2715
om	-2716
or	-2717
ph	-2718
tt	-2719
um	-2720
uy	-2721
át	-2722
áv	-2723
áá	-2724
éé	-2725
íb	-2726
íe	-2727
óm	-2728
úh	-2729
úi	-2730
ĩã	-2731
īb	-2732
ũ̌	-2733
ǎd	-2734
ǐi	-2735
ǐɛ	-2736
ǒɔ	-2737
ɔe	-2738
ɔŋ	-2739
ɔɖ	-2740
ɔ̌	-2741
ɛb	-2742
ɛf	-2743
ɛi	-2744
ɛs	-2745
ɛz	-2746
ɛó	-2747
ɛŋ	-2748
ɛɖ	-2749
́?	-2750
́l	-2751
́s	-2752
́w	-2753
́y	-2754
́z	-2755
̃.	-2756
̃h	-2757
̃p	-2758
̃s	-2759
̃ŋ	-2760
̌d	-2761
̌ɛ	-2762
▁.	-2763
▁ɖ	-2764
Alɔ	-2765
Blɔ	-2766
Err	-2767
Ots	-2768
Tin	-2769
Yoo	-2770
aba	-2771
ago	-2772
ale	-2773
alé	-2774
ani	-2775
any	-2776
ayɛ	-2777
azĩ	-2778
bal	-2779
bap	-2780
bas	-2781
baŋ	-2782
bez	-2783
ble	-2784
bli	-2785
blɛ	-2786
bág	-2787
bɔb	-2788
bɔd	-2789
bɔx	-2790
das	-2791
daw	-2792
dew	-2793
dia	-2794
dɔd	-2795
dɔ̌	-2796
dɛm	-2797
ebú	-2798
elu	-2799
Ag	-2800
Ga	-2801
So	-2802
Su	-2803
Ti	-2804
al	-2805
at	-2806
ef	-2807
el	-2808
fó	-2809
lǒ	-2810
mm	-2811
ng	-2812
ob	-2813
on	-2814
oɖ	-2815
pl	-2816
uɔ	-2817
vl	-2818
wĩ	-2819
ye	-2820
zo	-2821
ía	-2822
ún	-2823
út	-2824
ĩɛ	-2825
ɔb	-2826
ɔf	-2827
ɔw	-2828
ɛh	-2829
ɛk	-2830
ɛl	-2831
́a	-2832
́h	-2833
Aku	-2834
Ekl	-2835
Eɖi	-2836
bɛ̃	-2837
elũ	-2838
elɛ	-2839
eni	-2840
eoo	-2841
eté	-2842
evé	-2843
eɖǐ	-2844
fua	-2845
geg	-2846
gen	-2847
gim	-2848
gũɔ	-2849
gɔn	-2850
gɔɔ	-2851
gɔɛ	-2852
hoo	-2853
hwɛ	-2854
hĩ́	-2855
iam	-2856
ibe	-2857
igo	-2858
ilɛ	-2859
ití	-2860
iwu	-2861
ize	-2862
izã	-2863
keé	-2864
keɛ	-2865
kok	-2866
kol	-2867
kũɔ	-2868
kɛk	-2869
kɛt	-2870
luh	-2871
lób	-2872
lĩa	-2873
lɔa	-2874
lɔk	-2875
lɔt	-2876
lɛk	-2877
lɛl	-2878
lɛs	-2879
maɛ	-2880
mɛɛ	-2881
ole	-2882
olí	-2883
olũ	-2884
olɔ	-2885
onɔ	-2886
opo	-2887
oró	-2888
osu	-2889
otí	-2890
oze	-2891
poɔ	-2892
pro	-2893
púá	-2894
raɖ	-2895
siɔ	-2896
sús	-2897
sɛn	-2898
teɖ	-2899
An	-2900
Av	-2901
Ka	-2902
ak	-2903
ax	-2904
aá	-2905
bl	-2906
bǒ	-2907
dĩ	-2908
ek	-2909
im	-2910
ií	-2911
oa	-2912
oe	-2913
ot	-2914
pũ	-2915
re	-2916
uk	-2917
ul	-2918
up	-2919
uú	-2920
xɔ	-2921
zǒ	-2922
ál	-2923
ãt	-2924
éd	-2925
éɖ	-2926
íɛ	-2927
úv	-2928
úy	-2929
úí	-2930
ĩs	-2931
ĩz	-2932
ǐt	-2933
ɔn	-2934
ɔp	-2935
́d	-2936
́é	-2937
̃̌	-2938
▁M	-2939
▁v	-2940
Agɛ	-2941
Klɛ	-2942
alɔ	-2943
ilũ	-2944
ish	-2945
kwi	-2946
kɔk	-2947
lɔs	-2948
lɛn	-2949
tit	-2950
tor	-2951
tte	-2952
tía	-2953
típ	-2954
tít	-2955
tíé	-2956
tút	-2957
tɛi	-2958
tɛɛ	-2959
uba	-2960
uhũ	-2961
ukl	-2962
uli	-2963
ulu	-2964
ulí	-2965
ulĩ	-2966
ulũ	-2967
umw	-2968
urú	-2969
usi	-2970
usí	-2971
uɔ́	-2972
ver	-2973
vev	-2974
vév	-2975
wul	-2976
xlɔ	-2977
yag	-2978
yay	-2979
yád	-2980
yák	-2981
yáó	-2982
yɔr	-2983
zed	-2984
zek	-2985
zeó	-2986
zhĩ	-2987
zãz	-2988
zĩz	-2989
zĩɛ	-2990
zɛa	-2991
zɛp	-2992
zɛz	-2993
ála	-2994
ány	-2995
ápɛ	-2996
áte	-2997
átá	-2998
áwú	-2999
Ok	-3000
am	-3001
av	-3002
ay	-3003
aŋ	-3004
ee	-3005
es	-3006
hw	-3007
hǒ	-3008
if	-3009
ig	-3010
of	-3011
pé	-3012
sá	-3013
zy	-3014
áf	-3015
ág	-3016
ãw	-3017
óg	-3018
ói	-3019
ĩá	-3020
ǔɔ	-3021
ɔd	-3022
ɔz	-3023
ɛa	-3024
ɛx	-3025
́e	-3026
́v	-3027
́x	-3028
̃w	-3029
̌n	-3030
▁c	-3031
amɛ	-3032
bab	-3033
ban	-3034
bay	-3035
edz	-3036
ilí	-3037
kak	-3038
kpú	-3039
lél	-3040
lɔm	-3041
lɔn	-3042
lɛm	-3043
mmi	-3044
see	-3045
sia	-3046
utɔ	-3047
vlɔ	-3048
áŋa	-3049
áɖɔ	-3050
éba	-3051
énú	-3052
épo	-3053
ésí	-3054
éɖi	-3055
íke	-3056
íkl	-3057
íny	-3058
ípu	-3059
ítí	-3060
óga	-3061
ómú	-3062
únú	-3063
únɔ	-3064
útí	-3065
úɔ́	-3066
ĩɛ́	-3067
ŋút	-3068
ǎdɔ	-3069
ǐtá	-3070
ǐyǐ	-3071
ǐɛ́	-3072
ǒɔ́	-3073
ɔba	-3074
ɔfu	-3075
ɔlɔ	-3076
ɔnú	-3077
ɔtá	-3078
ɔɔ́	-3079
ɔ́a	-3080
ɔ́b	-3081
ɔ́g	-3082
ɔ́k	-3083
ɔ́l	-3084
ɔ́m	-3085
ɔ́t	-3086
ɔ́w	-3087
ɔ́x	-3088
ɔ́ŋ	-3089
ɔ́ɔ	-3090
ɔ́ɛ	-3091
ɔ̃h	-3092
ɖaŋ	-3093
ɖiɖ	-3094
ɖɔɔ	-3095
ɛba	-3096
ɛhó	-3097
ɛlɔ	-3098
ɛlɛ	-3099
Be	-3100
Ts	-3101
ab	-3102
an	-3103
ap	-3104
aw	-3105
em	-3106
en	-3107
ey	-3108
ip	-3109
iz	-3110
iɔ	-3111
kw	-3112
op	-3113
oé	-3114
oó	-3115
pá	-3116
pâ	-3117
pí	-3118
sc	-3119
tr	-3120
vi	-3121
áw	-3122
ón	-3123
ót	-3124
úb	-3125
ɔa	-3126
ɔk	-3127
ɔv	-3128
ɔx	-3129
ɛg	-3130
ɛm	-3131
ɛp	-3132
̃k	-3133
̃ɔ	-3134
Osi	-3135
bav	-3136
baw	-3137
ebo	-3138
esh	-3139
iyi	-3140
káá	-3141
lɔz	-3142
lɛw	-3143
map	-3144
nuɔ	-3145
sɛe	-3146
ulɔ	-3147
wɔ́	-3148
zɛó	-3149
été	-3150
ónú	-3151
ɔtɔ	-3152
ɔɖɔ	-3153
ɔ́y	-3154
ɔ́é	-3155
ɛmɔ	-3156
ɛrr	-3157
ɛɛ́	-3158
ɛ́b	-3159
ɛ́g	-3160
ɛ́k	-3161
ɛ́m	-3162
ɛ́s	-3163
ɛ́w	-3164
ɛ́z	-3165
ɛ̃̌	-3166
́ɔ̃	-3167
́ɛ́	-3168
̃nɔ	-3169
̃ɛ́	-3170
̃́m	-3171
▁Af	-3172
▁As	-3173
▁Eg	-3174
▁Ku	-3175
▁Ox	-3176
▁ab	-3177
▁ad	-3178
▁ag	-3179
▁ak	-3180
▁al	-3181
▁as	-3182
▁at	-3183
▁aw	-3184
▁ax	-3185
▁az	-3186
▁aŋ	-3187
▁aɖ	-3188
▁bi	-3189
▁bl	-3190
▁bé	-3191
▁bí	-3192
▁co	-3193
▁dr	-3194
▁ek	-3195
▁el	-3196
▁em	-3197
▁en	-3198
▁er	-3199
Ba	-3200
Ku	-3201
Ox	-3202
Yɛ	-3203
ad	-3204
ag	-3205
as	-3206
bi	-3207
bé	-3208
eb	-3209
eg	-3210
eh	-3211
ei	-3212
et	-3213
fi	-3214
gl	-3215
hí	-3216
ib	-3217
kr	-3218
nd	-3219
pa	-3220
ub	-3221
ur	-3222
us	-3223
zǔ	-3224
ák	-3225
ám	-3226
án	-3227
ãk	-3228
óŋ	-3229
óɖ	-3230
ĩk	-3231
ũn	-3232
ũɔ	-3233
ɛe	-3234
ɛw	-3235
ɛɛ	-3236
́b	-3237
́m	-3238
́ŋ	-3239
̃ɛ	-3240
bam	-3241
bat	-3242
bol	-3243
bɔt	-3244
enu	-3245
eɛ́	-3246
gɛf	-3247
hɛ́	-3248
kpa	-3249
mɛt	-3250
tɔp	-3251
vũɔ	-3252
xɔ̃	-3253
ágã	-3254
ũɔ́	-3255
ɔkɔ	-3256
ɔwa	-3257
ɔ́e	-3258
ɔ́v	-3259
ɛ́p	-3260
▁eh	-3261
▁es	-3262
▁et	-3263
▁ew	-3264
▁ez	-3265
▁fi	-3266
▁fl	-3267
▁fó	-3268
▁ih	-3269
▁iv	-3270
▁iw	-3271
▁kl	-3272
▁kr	-3273
▁nd	-3274
▁ná	-3275
▁ob	-3276
▁od	-3277
▁of	-3278
▁on	-3279
▁ph	-3280
▁sc	-3281
▁sé	-3282
▁sɔ	-3283
▁tr	-3284
▁tú	-3285
▁ya	-3286
▁yo	-3287
▁yu	-3288
▁zu	-3289
▁zĩ	-3290
▁áf	-3291
▁ɔb	-3292
▁ɔg	-3293
▁ɔh	-3294
▁ɔl	-3295
▁ɔp	-3296
▁ɔs	-3297
▁ɔv	-3298
▁ɔy	-3299
As	-3300
Eɖ	-3301
ah	-3302
dr	-3303
dé	-3304
ev	-3305
ez	-3306
eé	-3307
fé	-3308
he	-3309
il	-3310
it	-3311
iɖ	-3312
pi	-3313
pó	-3314
ri	-3315
uh	-3316
uw	-3317
uɖ	-3318
wí	-3319
xl	-3320
xw	-3321
xó	-3322
yr	-3323
yǔ	-3324
áó	-3325
ék	-3326
él	-3327
ép	-3328
év	-3329
éŋ	-3330
íp	-3331
ís	-3332
úl	-3333
ǐy	-3334
ɛt	-3335
ɛy	-3336
́ɖ	-3337
̃,	-3338
▁W	-3339
Kã́	-3340
báá	-3341
ebh	-3342
ekl	-3343
kra	-3344
kɔl	-3345
plɔ	-3346
soɔ	-3347
sɛ̃	-3348
tsɔ	-3349
ukɔ	-3350
yuɔ	-3351
átɔ	-3352
ɛ́l	-3353
̌nu	-3354
̌ɛ́	-3355
▁ah	-3356
▁gɔ	-3357
▁ku	-3358
▁ɔz	-3359
▁ɔŋ	-3360
▁ɔɖ	-3361
▁ɖo	-3362
▁ɛd	-3363
▁ɛr	-3364
▁ɛt	-3365
▁ɛŋ	-3366
Eklǔ	-3367
Máwú	-3368
Wonɔ	-3369
Yalɛ	-3370
Yálɛ	-3371
anyá	-3372
atɛe	-3373
babú	-3374
badɛ	-3375
bakp	-3376
bakɔ	-3377
balɔ	-3378
bana	-3379
basɛ	-3380
bats	-3381
batu	-3382
bató	-3383
bedz	-3384
betu	-3385
beɖi	-3386
blɔ́	-3387
bohɛ	-3388
botó	-3389
bɔbá	-3390
bɔgã	-3391
bɔka	-3392
bɔsh	-3393
bɔzã	-3394
bɔ́ɛ	-3395
dalɛ	-3396
dawa	-3397
dayɛ	-3398
debh	-3399
Bl	-3400
Er	-3401
Ko	-3402
Ot	-3403
Yo	-3404
aɖ	-3405
ed	-3406
id	-3407
ie	-3408
iw	-3409
no	-3410
oy	-3411
oz	-3412
sk	-3413
sã	-3414
sǐ	-3415
tc	-3416
ua	-3417
ud	-3418
ug	-3419
ut	-3420
yé	-3421
yú	-3422
zǐ	-3423
áb	-3424
éb	-3425
ín	-3426
íɖ	-3427
ók	-3428
úm	-3429
ɔm	-3430
ɔs	-3431
ɔy	-3432
ɔɔ	-3433
́,	-3434
́n	-3435
́t	-3436
́ɛ	-3437
̃n	-3438
así	-3439
bey	-3440
emɛ	-3441
ets	-3442
ewu	-3443
kus	-3444
lĩk	-3445
mɛa	-3446
mɛm	-3447
obú	-3448
ona	-3449
oob	-3450
osh	-3451
usú	-3452
wɛ́	-3453
yik	-3454
zɛ́	-3455
ámɔ	-3456
ámɛ	-3457
ékp	-3458
ókú	-3459
úmɛ	-3460
ɔkp	-3461
ɛmɛ	-3462
́mɛ	-3463
▁Ka	-3464
▁eg	-3465
▁pa	-3466
▁pi	-3467
▁pl	-3468
▁ɔw	-3469
▁ɛg	-3470
awɛ̃	-3471
dekp	-3472
deɛ́	-3473
dulu	-3474
dulũ	-3475
dzeb	-3476
dzeé	-3477
dzin	-3478
dzyo	-3479
dzyɛ	-3480
dɛba	-3481
edzi	-3482
eklu	-3483
fúɔ́	-3484
gagã	-3485
gbag	-3486
gbla	-3487
gbǒɔ	-3488
gbǔɔ	-3489
gegé	-3490
gent	-3491
geté	-3492
gilũ	-3493
gimú	-3494
gise	-3495
gize	-3496
géné	-3497
gɔ̃ɛ	-3498
gɛba	-3499
aa	-3500
ih	-3501
iy	-3502
un	-3503
áɖ	-3504
és	-3505
ɛv	-3506
▁ŋ	-3507
abh	-3508
bad	-3509
bag	-3510
bhl	-3511
bho	-3512
bhu	-3513
bhw	-3514
bhá	-3515
bhí	-3516
bhɛ	-3517
boh	-3518
boó	-3519
dzo	-3520
gis	-3521
hɔ̃	-3522
ibh	-3523
inú	-3524
lit	-3525
nuv	-3526
omɛ	-3527
uma	-3528
ábh	-3529
étú	-3530
ũgb	-3531
ɔbh	-3532
ɔdz	-3533
ɛbh	-3534
ɛpɛ	-3535
▁fu	-3536
▁if	-3537
▁og	-3538
▁ol	-3539
▁op	-3540
▁os	-3541
▁ot	-3542
▁oy	-3543
▁pã	-3544
▁yɔ	-3545
▁ɔm	-3546
▁ɛf	-3547
▁ɛl	-3548
▁ɛm	-3549
▁ɛp	-3550
▁ɛs	-3551
▁ɛw	-3552
▁ɛy	-3553
▁ɛɖ	-3554
babh	-3555
dzyá	-3556
gãlĩ	-3557
gɛfu	-3558
gɛná	-3559
gɛpɛ	-3560
gɛts	-3561
hoho	-3562
huté	-3563
hóga	-3564
hókú	-3565
hĩáz	-3566
iapí	-3567
idzi	-3568
ifúɔ	-3569
ikpó	-3570
ilɛ́	-3571
ingb	-3572
isib	-3573
iétɔ	-3574
kaba	-3575
kakɛ	-3576
kebo	-3577
kedě	-3578
kekp	-3579
keté	-3580
keɛ́	-3581
klɛ́	-3582
kolũ	-3583
kpuɔ	-3584
kpóɔ	-3585
kukɔ	-3586
kuma	-3587
kusí	-3588
kúmɛ	-3589
kɔ̃́	-3590
kɛká	-3591
ladz	-3592
lago	-3593
litú	-3594
luhũ	-3595
lukp	-3596
luma	-3597
lóbɔ	-3598
lũgb	-3599
Kl	-3600
fĩ	-3601
pr	-3602
uu	-3603
yo	-3604
zí	-3605
ád	-3606
áŋ	-3607
úu	-3608
ɔl	-3609
́.	-3610
Adz	-3611
akɔ	-3612
baɖ	-3613
bhi	-3614
dzã	-3615
fúɔ	-3616
hna	-3617
hoh	-3618
idz	-3619
ikp	-3620
ina	-3621
iɛ́	-3622
kpe	-3623
kpã	-3624
kɔe	-3625
kɔɔ	-3626
kɔ̃	-3627
nap	-3628
núv	-3629
obo	-3630
odz	-3631
ubh	-3632
udz	-3633
uiɛ	-3634
ukp	-3635
yám	-3636
ákp	-3637
ákɔ	-3638
úkp	-3639
ɔ̃n	-3640
ɛdz	-3641
ɛkp	-3642
ɛwa	-3643
▁di	-3644
▁oɖ	-3645
▁ɖa	-3646
badz	-3647
bɔtɔ	-3648
dɔ̃n	-3649
gbuɔ	-3650
lɔkp	-3651
lɔlɛ	-3652
lɔtu	-3653
lɔtú	-3654
lɔzɛ	-3655
lɔ́m	-3656
lɛkp	-3657
lɛmɛ	-3658
lɛwu	-3659
lɛza	-3660
mamw	-3661
miny	-3662
mits	-3663
mpro	-3664
méke	-3665
mɛba	-3666
mɛlɔ	-3667
napp	-3668
ngbe	-3669
nkra	-3670
nukp	-3671
nyéb	-3672
nyíá	-3673
nána	-3674
núkp	-3675
núpɛ	-3676
odzi	-3677
ogbǒ	-3678
okúa	-3679
oshe	-3680
pɔ̃́	-3681
pɛ́p	-3682
pɛ̃p	-3683
riɖi	-3684
ráte	-3685
róto	-3686
rǎdɔ	-3687
sígũ	-3688
sɛ̃́	-3689
takp	-3690
teɖe	-3691
tsiɛ	-3692
tsrɛ	-3693
tsyɛ	-3694
tsǐɛ	-3695
támɛ	-3696
tétu	-3697
tíbe	-3698
tíke	-3699
af	-3700
bě	-3701
ea	-3702
fl	-3703
iɛ	-3704
og	-3705
ok	-3706
os	-3707
uƒ	-3708
áa	-3709
ét	-3710
ɔt	-3711
ɛá	-3712
Agb	-3713
Aka	-3714
agb	-3715
bet	-3716
beɖ	-3717
egb	-3718
gbl	-3719
gbá	-3720
hɛ̃	-3721
its	-3722
kéé	-3723
lɛz	-3724
ngb	-3725
ogb	-3726
tsw	-3727
tsy	-3728
tsɛ	-3729
tɛk	-3730
áka	-3731
édz	-3732
úts	-3733
ībe	-3734
ɔgb	-3735
ɔ́d	-3736
ɔ́n	-3737
ɔ̃k	-3738
ɔ̃ɔ	-3739
ɛnɔ	-3740
ɛ̃n	-3741
ɛ̃p	-3742
ɛ̃w	-3743
̌dz	-3744
▁ev	-3745
▁ok	-3746
▁oŋ	-3747
▁ɛb	-3748
dzyǎ	-3749
geɛ́	-3750
kɔny	-3751
minú	-3752
syɛ́	-3753
telu	-3754
téba	-3755
tíny	-3756
tútú	-3757
tībe	-3758
tɔpɔ	-3759
tɛtɛ	-3760
tɛ́b	-3761
tɛ́s	-3762
udzy	-3763
ugba	-3764
uhũ̌	-3765
uiny	-3766
uiɛ́	-3767
uklǔ	-3768
vevé	-3769
vévě	-3770
vɔvɔ	-3771
wadá	-3772
wúɔ́	-3773
wɔ̃s	-3774
xɔ̃́	-3775
yakp	-3776
yalɛ	-3777
yama	-3778
yini	-3779
yáda	-3780
yáló	-3781
yámi	-3782
yéɛ́	-3783
yíɛ́	-3784
yǐɛ́	-3785
yɔ̃́	-3786
yɛ́d	-3787
yɛ́n	-3788
zaap	-3789
zaba	-3790
zebe	-3791
zebo	-3792
zede	-3793
zekú	-3794
zets	-3795
zewu	-3796
zɛba	-3797
zɛbá	-3798
zɛmɔ	-3799
ew	-3800
ns	-3801
né	-3802
oɔ	-3803
ŋl	-3804
Anɔ	-3805
adz	-3806
alí	-3807
búɔ	-3808
elí	-3809
eny	-3810
gɔ̃	-3811
ibú	-3812
iny	-3813
kas	-3814
kúi	-3815
líí	-3816
nan	-3817
naá	-3818
núp	-3819
pɔ̃	-3820
saf	-3821
tsr	-3822
téŋ	-3823
tɛe	-3824
tɛt	-3825
unɔ	-3826
uté	-3827
yia	-3828
yie	-3829
yǐɛ	-3830
yɔ̃	-3831
ã́t	-3832
ébú	-3833
élí	-3834
énɔ	-3835
ónɔ	-3836
úbú	-3837
ũnɔ	-3838
ɔnɔ	-3839
ɔ̃s	-3840
ɛts	-3841
ɛ́d	-3842
ɛ́ɖ	-3843
▁Ts	-3844
▁ge	-3845
▁id	-3846
▁ɔf	-3847
▁ɔk	-3848
aálɛ	-3849
bamɔ	-3850
bany	-3851
baté	-3852
batɔ	-3853
búɔ́	-3854
dzyr	-3855
kusi	-3856
líɛ́	-3857
nɔkɔ	-3858
ubha	-3859
ukɔ́	-3860
wíɛ́	-3861
xáts	-3862
ágba	-3863
ákɔ́	-3864
álɛ̃	-3865
ányá	-3866
ãkɔ́	-3867
ãkɛ́	-3868
ãwlã	-3869
ã̌dz	-3870
édzi	-3871
ékeɛ	-3872
ékéé	-3873
ékóé	-3874
íkla	-3875
íklǔ	-3876
ísií	-3877
óéyi	-3878
úkpá	-3879
úlɛ́	-3880
ƒoƒo	-3881
ɔgbe	-3882
ɔgɔɛ	-3883
ɔgɔ̃	-3884
ɔkɔ́	-3885
ɔkɛ́	-3886
ɔlɛ́	-3887
ɔtɛ́	-3888
ɔ́ba	-3889
ɔ́dz	-3890
ɔ́gb	-3891
ɔ́kp	-3892
ɔ́kɔ	-3893
ɔ́lɛ	-3894
ɔ́mɔ	-3895
ɔ́nɔ	-3896
ɔ́yɔ	-3897
ɔ́ŋa	-3898
ɔ́ŋú	-3899
Af	-3900
Gɛ	-3901
lo	-3902
sy	-3903
tã	-3904
wl	-3905
ɖé	-3906
Asɛ	-3907
Okú	-3908
ash	-3909
bak	-3910
baz	-3911
bɔɛ	-3912
ele	-3913
elĩ	-3914
isɛ	-3915
kaa	-3916
kúa	-3917
kɔn	-3918
mií	-3919
níí	-3920
onu	-3921
rɛ́	-3922
shi	-3923
shu	-3924
shú	-3925
sib	-3926
tsě	-3927
ugb	-3928
ukú	-3929
ába	-3930
ãlĩ	-3931
ésh	-3932
íbó	-3933
óŋú	-3934
úsh	-3935
́ts	-3936
́ɛ̃	-3937
▁..	-3938
▁av	-3939
▁du	-3940
▁lĩ	-3941
▁ɔn	-3942
▁ɛv	-3943
Gaké	-3944
agba	-3945
akɔ́	-3946
bash	-3947
bɔba	-3948
enyá	-3949
fɔ̃́	-3950
hɛtɛ	-3951
kany	-3952
kɔ́e	-3953
kɔ́l	-3954
kɔ́y	-3955
kɔ́ɛ	-3956
lɛ́n	-3957
ɔ̃hũ	-3958
ɔ̃nɔ	-3959
ɔ̃́n	-3960
ɖats	-3961
ɖeso	-3962
ɖiɛw	-3963
ɖuƒé	-3964
ɖuɖu	-3965
ɛdzy	-3966
ɛdɔ̃	-3967
ɛlɛ́	-3968
ɛtɛɛ	-3969
ɛ́ba	-3970
ɛ́bh	-3971
ɛ́dɛ	-3972
ɛ́gã	-3973
ɛ́ka	-3974
ɛ́kp	-3975
ɛ́kɛ	-3976
ɛ́lɔ	-3977
ɛ́na	-3978
ɛ́wa	-3979
ɛ́ɖɔ	-3980
ɛ́ɛ́	-3981
ɛ̃nú	-3982
ɛ̃nɔ	-3983
ɛ̃ɛ́	-3984
ɛ̃́h	-3985
̃ŋlɔ	-3986
̃́ɛ́	-3987
̃́ɛ̃	-3988
▁Agb	-3989
▁Asa	-3990
▁Bam	-3991
▁Bat	-3992
▁Beg	-3993
▁Bei	-3994
▁Buú	-3995
▁Eɖi	-3996
▁Kli	-3997
▁Osi	-3998
▁Ots	-3999
bã	-4000
ep	-4001
kã	-4002
sw	-4003
uv	-4004
én	-4005
éw	-4006
úp	-4007
ús	-4008
ĩ̌	-4009
ɛn	-4010
aga	-4011
alĩ	-4012
ama	-4013
ayi	-4014
bea	-4015
bev	-4016
bew	-4017
beɛ	-4018
bã́	-4019
ebe	-4020
ekp	-4021
gɛn	-4022
kɔɛ	-4023
lĩɛ	-4024
mah	-4025
mam	-4026
man	-4027
maw	-4028
max	-4029
oyi	-4030
ozɛ	-4031
tét	-4032
tɛr	-4033
wáa	-4034
yim	-4035
yiɛ	-4036
áwá	-4037
íbe	-4038
íík	-4039
ƒoƒ	-4040
ɔmɔ	-4041
▁la	-4042
▁re	-4043
atɛi	-4044
bayi	-4045
bebh	-4046
bebú	-4047
beny	-4048
bets	-4049
beté	-4050
bham	-4051
lɔmɛ	-4052
lɛso	-4053
néɛ́	-4054
yaga	-4055
yany	-4056
yimɔ	-4057
yits	-4058
yiɛ́	-4059
ã́ts	-4060
étéé	-4061
ɛ́mɔ	-4062
▁Oxo	-4063
▁abɔ	-4064
▁ade	-4065
▁adi	-4066
▁adz	-4067
▁agb	-4068
▁ahĩ	-4069
▁akɔ	-4070
▁alɔ	-4071
▁amá	-4072
▁ans	-4073
▁anu	-4074
▁any	-4075
▁asa	-4076
▁ash	-4077
▁asɔ	-4078
▁ato	-4079
▁avɔ	-4080
▁ayĩ	-4081
▁ayɔ	-4082
▁aáw	-4083
▁aɖu	-4084
▁bab	-4085
▁bad	-4086
▁baf	-4087
▁bag	-4088
▁bak	-4089
▁bal	-4090
▁bam	-4091
▁ban	-4092
▁bap	-4093
▁bas	-4094
▁bav	-4095
▁bay	-4096
▁baŋ	-4097
▁baɖ	-4098
▁beb	-4099
er	-4100
eɛ	-4101
oŋ	-4102
pe	-4103
uz	-4104
ɔh	-4105
ɛd	-4106
́p	-4107
́ɔ	-4108
Abá	-4109
Avɛ	-4110
Kli	-4111
atɔ	-4112
avɛ	-4113
fló	-4114
isí	-4115
lid	-4116
lis	-4117
lóg	-4118
oku	-4119
sig	-4120
sií	-4121
síg	-4122
uɖí	-4123
yɛɛ	-4124
áts	-4125
ési	-4126
étɔ	-4127
óts	-4128
úmú	-4129
ɔbá	-4130
ɔka	-4131
ɔny	-4132
ɔpɛ	-4133
ɔzã	-4134
ɔɛ́	-4135
ɖuɖ	-4136
ɛbá	-4137
▁Ki	-4138
▁eɖ	-4139
▁om	-4140
▁ŋú	-4141
▁ɛz	-4142
Awɛ̃	-4143
abha	-4144
bazã	-4145
elɛ́	-4146
kɔnú	-4147
nakɔ	-4148
nyák	-4149
pwɛ̃	-4150
siɛ́	-4151
ulĩ́	-4152
vɛnɔ	-4153
wulɔ	-4154
wɛ̃w	-4155
zɛwa	-4156
áwɛ̃	-4157
ã́tɔ	-4158
útsǐ	-4159
▁bed	-4160
▁bef	-4161
▁beg	-4162
▁bek	-4163
▁bel	-4164
▁ben	-4165
▁bes	-4166
▁bet	-4167
▁bev	-4168
▁bew	-4169
▁bey	-4170
▁bez	-4171
▁bhl	-4172
▁bho	-4173
▁bhú	-4174
▁bis	-4175
▁ble	-4176
▁bub	-4177
▁bud	-4178
▁bug	-4179
▁buk	-4180
▁bul	-4181
▁bun	-4182
▁bup	-4183
▁bus	-4184
▁but	-4185
▁buv	-4186
▁buz	-4187
▁bɔb	-4188
▁bɔd	-4189
▁bɔg	-4190
▁bɔh	-4191
▁bɔk	-4192
▁bɔl	-4193
▁bɔm	-4194
▁bɔn	-4195
▁bɔs	-4196
▁bɔt	-4197
▁bɔv	-4198
▁bɔw	-4199
bw	-4200
hi	-4201
áz	-4202
ík	-4203
ɔr	-4204
́g	-4205
́k	-4206
awa	-4207
bob	-4208
bod	-4209
bof	-4210
bop	-4211
bos	-4212
bot	-4213
boy	-4214
edě	-4215
eké	-4216
eso	-4217
foa	-4218
fuy	-4219
hoe	-4220
mal	-4221
pã́	-4222
píí	-4223
tru	-4224
tsã	-4225
vɔb	-4226
vɔv	-4227
wad	-4228
xɔ́	-4229
yin	-4230
áló	-4231
ŋaŋ	-4232
ɔgã	-4233
ɔsh	-4234
ɛkɛ	-4235
ɛzã	-4236
ɛ́n	-4237
▁fe	-4238
▁ib	-4239
▁ip	-4240
▁oh	-4241
▁ɔd	-4242
agbu	-4243
baka	-4244
baɖi	-4245
bobú	-4246
bogb	-4247
bokú	-4248
bɔmɔ	-4249
dany	-4250
dziɛ	-4251
dámɛ	-4252
dɔ̃k	-4253
liɛ́	-4254
lɛlɛ	-4255
male	-4256
nyáá	-4257
ugbu	-4258
uyuɔ	-4259
wana	-4260
yáká	-4261
yɛɛ́	-4262
ɔdɔ̃	-4263
ɔ́vɛ	-4264
ɔ́wa	-4265
ɖiɖi	-4266
▁baw	-4267
▁baz	-4268
▁buh	-4269
▁bɔy	-4270
▁bɔz	-4271
▁bɔŋ	-4272
▁bɔɖ	-4273
▁dzo	-4274
▁dzã	-4275
▁dzí	-4276
▁ebh	-4277
▁edz	-4278
▁eea	-4279
▁efé	-4280
▁efĩ	-4281
▁egb	-4282
▁ele	-4283
▁emú	-4284
▁epi	-4285
▁ese	-4286
▁esh	-4287
▁ets	-4288
▁ewo	-4289
▁eyu	-4290
▁ezu	-4291
▁fin	-4292
▁fló	-4293
▁gaz	-4294
▁gba	-4295
▁gbã	-4296
▁gbɔ	-4297
▁gɛn	-4298
▁gɛs	-4299
▁ibó	-4300
▁ibú	-4301
▁idu	-4302
▁idz	-4303
▁iny	-4304
▁ivũ	-4305
▁iwu	-4306
▁kak	-4307
▁kam	-4308
▁kan	-4309
▁kas	-4310
▁kaw	-4311
▁kaz	-4312
▁ked	-4313
▁kek	-4314
▁kel	-4315
▁kep	-4316
▁kes	-4317
▁kif	-4318
▁kig	-4319
▁kih	-4320
▁kik	-4321
▁kin	-4322
▁kip	-4323
▁kis	-4324
▁kit	-4325
▁kiv	-4326
▁kiw	-4327
▁kiz	-4328
▁kli	-4329
▁kob	-4330
▁kok	-4331
▁kpó	-4332
▁káp	-4333
▁kéɖ	-4334
▁kók	-4335
▁kóé	-4336
▁kóŋ	-4337
▁kúr	-4338
▁kɛd	-4339
▁kɛg	-4340
▁kɛh	-4341
▁kɛk	-4342
▁kɛl	-4343
▁kɛn	-4344
▁kɛp	-4345
▁kɛs	-4346
▁kɛt	-4347
▁kɛv	-4348
▁kɛw	-4349
▁kɛx	-4350
▁kɛy	-4351
▁kɛz	-4352
▁kɛŋ	-4353
▁kɛɖ	-4354
▁kɛ́	-4355
▁leé	-4356
▁lɔn	-4357
▁lɔs	-4358
▁mah	-4359
▁map	-4360
▁mií	-4361
▁mɛa	-4362
▁mɛm	-4363
▁mɛt	-4364
▁nop	-4365
▁nyɛ	-4366
▁nɔb	-4367
▁nɔh	-4368
▁obh	-4369
▁ode	-4370
▁odi	-4371
▁odu	-4372
▁oku	-4373
▁okú	-4374
▁olĩ	-4375
▁omú	-4376
▁ony	-4377
▁osh	-4378
▁oto	-4379
▁otí	-4380
▁ozh	-4381
▁oŋú	-4382
▁oɖo	-4383
▁pho	-4384
▁pia	-4385
▁plɛ	-4386
▁pã́	-4387
▁pɛk	-4388
▁sch	-4389
▁she	-4390
▁sho	-4391
▁sɛm	-4392
▁sɛ̃	-4393
▁tat	-4394
▁teg	-4395
▁ten	-4396
▁tet	-4397
▁tig	-4398
▁tih	-4399
▁tin	-4400
▁tit	-4401
▁tra	-4402
▁tse	-4403
▁tsi	-4404
▁tsy	-4405
▁tsã	-4406
▁tsɔ	-4407
▁tsɛ	-4408
▁tum	-4409
▁tɛp	-4410
▁tɛt	-4411
▁tɛw	-4412
▁tɛx	-4413
▁tɛz	-4414
▁tɛá	-4415
▁vev	-4416
▁wat	-4417
▁woa	-4418
▁wɔa	-4419
▁yɔ̃	-4420
▁yɛa	-4421
▁zɛz	-4422
▁ába	-4423
▁áka	-4424
▁ákɔ	-4425
▁édz	-4426
▁éwu	-4427
▁ípu	-4428
▁óts	-4429
▁ŋlɔ	-4430
▁ɔdz	-4431
▁ɔgɔ	-4432
▁ɔny	-4433
▁ɔsh	-4434
▁ɔya	-4435
▁ɔyi	-4436
▁ɔ́t	-4437
▁ɛbh	-4438
▁ɛbo	-4439
▁ɛdz	-4440
▁ɛdɛ	-4441
▁ɛgɔ	-4442
▁ɛgɛ	-4443
▁ɛhɛ	-4444
▁ɛkp	-4445
▁ɛkɛ	-4446
▁ɛlĩ	-4447
▁ɛlɔ	-4448
▁ɛsh	-4449
▁ɛyi	-4450
▁ɛzã	-4451
▁ɛŋa	-4452
Adzɛ̃	-4453
Alɔkɔ	-4454
aalɛ́	-4455
adzɛ̃	-4456
akpúɔ	-4457
akpɛ́	-4458
aleté	-4459
alɔkɔ	-4460
anakɔ	-4461
anyɛ́	-4462
aálɛ́	-4463
bakɔ́	-4464
balɛ́	-4465
banya	-4466
banyá	-4467
bedze	-4468
bedzi	-4469
belɛ́	-4470
benyí	-4471
betsǐ	-4472
bhama	-4473
bhoso	-4474
blidě	-4475
bogbǒ	-4476
búíɛ́	-4477
commi	-4478
dayɛ̌	-4479
dekpũ	-4480
dzidz	-4481
dzyra	-4482
dzyuɖ	-4483
dɔgbe	-4484
dɔ̃kɛ	-4485
gbudz	-4486
gbuma	-4487
gbuɔ́	-4488
gbǒɔ́	-4489
gɛdzy	-4490
iapíí	-4491
idzyá	-4492
idzyǎ	-4493
ifúɔ́	-4494
ingbe	-4495
ingbě	-4496
iskwi	-4497
kanyá	-4498
kekpu	-4499
kplɔ̃	-4500
kpɔkp	-4501
kpɛ́s	-4502
kpɛ́ɛ	-4503
kukɔ́	-4504
kányá	-4505
kɔkɔ́	-4506
kɔ́yɛ	-4507
kɛtɛ́	-4508
ladzǒ	-4509
leoob	-4510
lisoɔ	-4511
litúɔ	-4512
lukpá	-4513
lãkɛ́	-4514
lúkpá	-4515
lɔkɔe	-4516
lɔkɔɛ	-4517
lɔ́kɔ	-4518
lɛlɛ́	-4519
lɛwuu	-4520
lɛ́nɔ	-4521
mayɛ́	-4522
minyí	-4523
mitte	-4524
napps	-4525
nyany	-4526
nyéɛ́	-4527
nyɔ́ɔ	-4528
nɛ́ɛ́	-4529
obisi	-4530
olɔkɔ	-4531
safoa	-4532
shenu	-4533
shesh	-4534
shumɛ	-4535
siakp	-4536
subha	-4537
sɛede	-4538
tsigo	-4539
tsikp	-4540
tsiɛ́	-4541
tsrɛ̌	-4542
tsukp	-4543
tsyia	-4544
tugba	-4545
tɔ́ŋú	-4546
tɛkɔ́	-4547
tɛ́bɔ	-4548
tɛ́gã	-4549
tɛ́ka	-4550
udzya	-4551
umwɛ́	-4552
wokúa	-4553
wúlɛ́	-4554
wɛ̃wa	-4555
xlɔ̃́	-4556
xátsá	-4557
yamaa	-4558
yimɔ́	-4559
yinie	-4560
yɛ́nú	-4561
yɛ́ɛ́	-4562
zaazĩ	-4563
zekóé	-4564
zhĩáz	-4565
zidzi	-4566
álɛ̃́	-4567
ánkra	-4568
átɔɖɔ	-4569
ébisi	-4570
éwokú	-4571
ĩálɛ́	-4572
ɔdzɛ̃	-4573
ɔfuyã	-4574
ɔgɔ̃ɛ	-4575
ɔkpɛ́	-4576
ɔlɛmɛ	-4577
ɔnyɛ́	-4578
ɔ́dzy	-4579
ɔ́kɔ́	-4580
ɔ́lɛ́	-4581
ɔ́nɔ́	-4582
ɔ̃hũ̌	-4583
ɔ̃́ɔ̃	-4584
ɖatsi	-4585
ɖiɛwó	-4586
ɛdzɛ̃	-4587
ɛkpɛ́	-4588
ɛlɔkɔ	-4589
ɛ́pɛ́	-4590
ɛ́wɔ̃	-4591
ɛ́zɛ̃	-4592
ɛ̃́hó	-4593
̃́mɛ́	-4594
̃́ɛ̃́	-4595
▁Bayɛ	-4596
▁Bebe	-4597
▁Begb	-4598
▁Bɔba	-4599
▁Bɔbh	-4600
▁Tsyá	-4601
▁abab	-4602
▁abad	-4603
▁abag	-4604
▁aban	-4605
▁abap	-4606
▁abat	-4607
▁abav	-4608
▁abaz	-4609
▁abaŋ	-4610
▁adas	-4611
▁adaw	-4612
▁adzy	-4613
▁agba	-4614
▁ahwa	-4615
▁akaa	-4616
▁akak	-4617
▁akas	-4618
▁akaá	-4619
▁aman	-4620
▁anya	-4621
▁anɔn	-4622
▁ashw	-4623
▁asɛn	-4624
▁asɛ́	-4625
▁babh	-4626
▁badz	-4627
▁bakl	-4628
▁bakp	-4629
▁balɔ	-4630
▁bany	-4631
▁bash	-4632
▁batr	-4633
▁bats	-4634
▁batɔ	-4635
▁bavɔ	-4636
▁bayi	-4637
▁bayɛ	-4638
▁bebo	-4639
▁bedz	-4640
▁befe	-4641
▁bekl	-4642
▁beny	-4643
▁besh	-4644
▁bete	-4645
▁beto	-4646
▁bets	-4647
▁bewo	-4648
▁bewu	-4649
▁beyu	-4650
▁bhla	-4651
▁blɔa	-4652
▁budz	-4653
▁bukl	-4654
▁bulu	-4655
▁buny	-4656
▁bush	-4657
▁buto	-4658
▁buts	-4659
▁buzi	-4660
▁buúh	-4661
▁bútí	-4662
▁bɔbh	-4663
▁bɔdz	-4664
▁bɔgb	-4665
▁bɔgɔ	-4666
▁bɔgɛ	-4667
▁bɔhɔ	-4668
▁bɔkp	-4669
▁bɔny	-4670
▁bɔvɔ	-4671
▁bɔyi	-4672
▁bɔyɛ	-4673
▁bɔza	-4674
▁drɔ́	-4675
▁dzya	-4676
▁ebew	-4677
▁ebez	-4678
▁egbo	-4679
▁ekóé	-4680
▁eshe	-4681
▁etit	-4682
▁eyíe	-4683
▁eyíá	-4684
▁eékp	-4685
▁eésh	-4686
▁feve	-4687
▁gaga	-4688
▁gagã	-4689
▁iplu	-4690
▁kakl	-4691
▁kash	-4692
▁kayi	-4693
▁kazh	-4694
▁kedz	-4695
▁kegb	-4696
▁kelĩ	-4697
▁kets	-4698
▁kibu	-4699
▁kibé	-4700
▁kigb	-4701
▁kiti	-4702
▁kito	-4703
▁kits	-4704
▁kivũ	-4705
▁kizĩ	-4706
▁koko	-4707
▁kplɔ	-4708
▁kurá	-4709
▁kúrá	-4710
▁kɔsh	-4711
▁kɔ́a	-4712
▁kɔ́x	-4713
▁kɛbh	-4714
▁kɛbw	-4715
▁kɛhĩ	-4716
▁kɛkl	-4717
▁kɛkp	-4718
▁kɛká	-4719
▁kɛkɔ	-4720
▁kɛlɔ	-4721
▁kɛny	-4722
▁kɛpɔ	-4723
▁kɛsh	-4724
▁kɛto	-4725
▁kɛvɔ	-4726
▁kɛwa	-4727
▁kɛŋa	-4728
▁kɛɖa	-4729
▁leté	-4730
▁lotí	-4731
▁loyi	-4732
▁mɛba	-4733
▁mɛlɔ	-4734
▁nopu	-4735
▁noze	-4736
▁nozɛ	-4737
▁nɔ́k	-4738
▁nɔ́n	-4739
▁nɛɛ́	-4740
▁nɛ́b	-4741
▁obod	-4742
▁obof	-4743
▁oboh	-4744
▁obop	-4745
▁obos	-4746
▁obot	-4747
▁oboy	-4748
▁ohui	-4749
▁okol	-4750
▁okóé	-4751
▁ozhǐ	-4752
▁pamp	-4753
▁rege	-4754
▁riɖi	-4755
▁shúy	-4756
▁sukú	-4757
▁séƒo	-4758
▁sɛba	-4759
▁takp	-4760
▁tege	-4761
▁teni	-4762
▁tenu	-4763
▁tige	-4764
▁tihl	-4765
▁tini	-4766
▁tito	-4767
▁tits	-4768
▁tonu	-4769
▁tseɖ	-4770
▁tsyi	-4771
▁tsɔ̃	-4772
▁tump	-4773
▁ténú	-4774
▁tíke	-4775
▁tútú	-4776
▁tɛba	-4777
▁tɛbh	-4778
▁tɛlɔ	-4779
▁tɛzã	-4780
▁vevé	-4781
▁yɔ̃́	-4782
▁ɔbhí	-4783
▁ɔbɔt	-4784
▁ɔkɔ̃	-4785
▁ɔmax	-4786
▁ɔtɛt	-4787
▁ɔwla	-4788
▁ɛbab	-4789
▁ɛbat	-4790
▁ɛdzy	-4791
▁ɛhɛ́	-4792
▁ɛhɛ̃	-4793
▁ɛtɛ́	-4794
▁ɛyáó	-4795
▁ɛ́ka	-4796
abhɛtɛ	-4797
agbana	-4798
akpúɔ́	-4799
anyana	-4800
batóŋú	-4801
betukú	-4802
bhlatɔ	-4803
bolɔkɔ	-4804
botóŋú	-4805
bɔkpɛ́	-4806
commit	-4807
dakpɛ́	-4808
dalɔkɔ	-4809
debhui	-4810
dewokú	-4811
dzeéwu	-4812
dzyuɖí	-4813
dzɛ̃nú	-4814
dzɛ̃ɛ́	-4815
dɔnyɛ́	-4816
dɛbalɛ	-4817
fualɛ́	-4818
fɔfuyã	-4819
gbenyá	-4820
getéŋú	-4821
gimúnɔ	-4822
généɛ́	-4823
gɛdzyɔ	-4824
hógani	-4825
hǐtámɛ	-4826
iskwit	-4827
itsokú	-4828
kaalɛ́	-4829
kebolé	-4830
kpɛ́kp	-4831
kpɛ́sa	-4832
kumawú	-4833
kusíɛ́	-4834
káálɛ́	-4835
kɔ́lɔ́	-4836
litúɔ́	-4837
lélélé	-4838
lĩalɛ́	-4839
lĩ́ɛ́k	-4840
maleté	-4841
mawúɔ́	-4842
mitsyi	-4843
mumwɛ́	-4844
múnɔkɔ	-4845
nanyɛ́	-4846
naálɛ́	-4847
nikpóɔ	-4848
nyɛ́ɛ́	-4849
plúkpá	-4850
pɛkpɛ́	-4851
rugbuɔ	-4852
shopoɔ	-4853
toróto	-4854
tsyits	-4855
tsã́ts	-4856
tébabɔ	-4857
tétukú	-4858
tíayɛ́	-4859
tíbeti	-4860
tɔpɔtɔ	-4861
tɛ́kaá	-4862
ulĩ́ɛ́	-4863
wadáwá	-4864
wɔ̃hũ̌	-4865
xwɛ̃wa	-4866
yɛ́dɔ̃	-4867
zebolé	-4868
zewunɔ	-4869
zãkɔ́e	-4870
zɔkpɛ́	-4871
zɛkpɛ́	-4872
zɛlɔkɔ	-4873
zɛplɛ́	-4874
ábhɛtɛ	-4875
ágbana	-4876
ányáka	-4877
ã̌dzã̌	-4878
ékóéyi	-4879
ŋúsɛ̃́	-4880
ɔbhɛtɛ	-4881
ɔ́dzɛ̃	-4882
ɔ́kpɛ́	-4883
ɔ̃́nɔ́	-4884
ɛhókúí	-4885
ɛtɛkɔ́	-4886
ɛ́kpɛ́	-4887
ɛ́lɔkɔ	-4888
ɛ́zɛ̃̌	-4889
̃ŋlɔmɛ	-4890
▁Asafo	-4891
▁abakp	-4892
▁abash	-4893
▁abats	-4894
▁abató	-4895
▁abayi	-4896
▁adalɛ	-4897
▁adany	-4898
▁adasɔ	-4899
▁agɛba	-4900
▁agɛfu	-4901
▁agɛts	-4902
▁akaká	-4903
▁akukɔ	-4904
▁akuma	-4905
▁alóbɔ	-4906
▁amane	-4907
▁anɔny	-4908
▁aplɛ́	-4909
▁awɔ̃s	-4910
▁ayakp	-4911
▁aɖuƒé	-4912
▁babab	-4913
▁babal	-4914
▁babap	-4915
▁babat	-4916
▁babaw	-4917
▁babay	-4918
▁babaá	-4919
▁bagba	-4920
▁batru	-4921
▁bazɛa	-4922
▁baába	-4923
▁bebet	-4924
▁bebev	-4925
▁benyí	-4926
▁beshe	-4927
▁besho	-4928
▁budzy	-4929
▁bukóé	-4930
▁bunuv	-4931
▁bunyú	-4932
▁buplu	-4933
▁butsi	-4934
▁buúsh	-4935
▁bɔbag	-4936
▁bɔbal	-4937
▁bɔbaá	-4938
▁bɔbaŋ	-4939
▁bɔbaɖ	-4940
▁bɔdzy	-4941
▁bɔgba	-4942
▁bɔgɔg	-4943
▁bɔzaa	-4944
▁dzíɖu	-4945
▁ebedz	-4946
▁ebeté	-4947
▁eleté	-4948
▁etsyi	-4949
▁etíke	-4950
▁ezebe	-4951
▁ezede	-4952
▁eésho	-4953
▁gbagb	-4954
▁kants	-4955
▁kawlã	-4956
▁kekóé	-4957
▁kesiɔ	-4958
▁ketsu	-4959
▁kibli	-4960
▁kidia	-4961
▁kigbo	-4962
▁kiplu	-4963
▁kitsi	-4964
▁koɔlɛ	-4965
▁kɔshɔ	-4966
▁kɔ́dz	-4967
▁kɛbaá	-4968
▁kɛblɛ	-4969
▁kɛbwɛ	-4970
▁kɛkla	-4971
▁kɛlɛn	-4972
▁kɛlɛs	-4973
▁kɛnyá	-4974
▁kɛshw	-4975
▁kɛtsɛ	-4976
▁mɛɛɛ́	-4977
▁noboó	-4978
▁nyɔ̃́	-4979
▁nɛ́bu	-4980
▁obodi	-4981
▁obosú	-4982
▁obotó	-4983
▁oluma	-4984
▁olũgb	-4985
▁otsyi	-4986
▁sɛmpú	-4987
▁trǎdɔ	-4988
▁tɔ́gb	-4989
▁tɛpɛ̃	-4990
▁tɛwɔ̃	-4991
▁tɛ́ba	-4992
▁tɛ́dɛ	-4993
▁vevié	-4994
▁zɛzɛ̃	-4995
▁ɔbɔka	-4996
▁ɔbɔsh	-4997
▁ɔkɔny	-4998
▁ɔplɛ́	-4999
▁ɔtɛtɛ	-5000
▁ɛbash	-5001
▁ɛbaté	-5002
▁ɛbató	-5003
▁ɛbobo	-5004
▁ɛdzɛ́	-5005
▁ɛfatɛ	-5006
▁ɛhɛ̃́	-5007
▁ɛzɛba	-5008
agãlĩɛ́	-5009
aletéɛ́	-5010
babhɛtɛ	-5011
benyíbe	-5012
bulĩ́ɛ́	-5013
bɔbhɛtɛ	-5014
chnapps	-5015
deobisi	-5016
dukukɔ́	-5017
dzakpɛ́	-5018
dzebéle	-5019
dzɛdzɛ̃	-5020
dzɛ̃̌nu	-5021
dɔ̃nyɛ́	-5022
gɔnɛ́ɛ́	-5023
ingbeɛ́	-5024
isibisi	-5025
iɖiɖiɖi	-5026
kanyáka	-5027
kaákpɛ́	-5028
klagbuɔ	-5029
kpɔkplɔ	-5030
litakpú	-5031
nyákakɛ	-5032
ogbenyá	-5033
rugbudz	-5034
rugbuma	-5035
safoats	-5036
shaálɛ́	-5037
takpúɔ́	-5038
tsukpuɔ	-5039
tɛ́baba	-5040
tɛ́babá	-5041
tɛ́batɔ	-5042
tɛ́bɔdɛ	-5043
tɛ́lɔkɔ	-5044
tɛ́sɔlɛ	-5045
utrugbu	-5046
zanyana	-5047
zekóéyi	-5048
ánkraɖo	-5049
ãwlãkɛ́	-5050
íklagbu	-5051
ŋútɔ́ŋú	-5052
ɔgagãlĩ	-5053
ɖiɛwónɔ	-5054
ɛ́bhɛtɛ	-5055
ɛ́kasɛ́	-5056
▁Adzɛ̃̌	-5057
▁Badzɛ̃	-5058
▁abagba	-5059
▁adawɔ̃	-5060
▁agɛbaá	-5061
▁akanyá	-5062
▁anyáda	-5063
▁anɔnyí	-5064
▁aɖatsi	-5065
▁aɖuƒéɛ	-5066
▁babadz	-5067
▁babama	-5068
▁babasɛ	-5069
▁babayɛ	-5070
▁badzɛ̃	-5071
▁baplɛ́	-5072
▁batsyi	-5073
▁bebebh	-5074
▁bebedz	-5075
▁bebets	-5076
▁bebeɖi	-5077
▁begize	-5078
▁betsyi	-5079
▁betībe	-5080
▁bezede	-5081
▁bezets	-5082
▁blɔaka	-5083
▁bubísi	-5084
▁budzyi	-5085
▁buúshw	-5086
▁bɔbagb	-5087
▁bɔbash	-5088
▁bɔbats	-5089
▁bɔbatɔ	-5090
▁bɔkaba	-5091
▁commit	-5092
▁ebedze	-5093
▁ebedzi	-5094
▁egisee	-5095
▁esɛede	-5096
▁ezidzi	-5097
▁kedulu	-5098
▁kelĩke	-5099
▁kɔ́dzy	-5100
▁kɛbats	-5101
▁kɛblɔ́	-5102
▁kɛlɔ̃́	-5103
▁kɛtsɛr	-5104
▁pɛ́pɛ́	-5105
▁shúyɔ́	-5106
▁tsã́ts	-5107
▁ɔnyana	-5108
▁ɛtakpú	-5109
▁ɛtɛ́ɛ́	-5110
dzyaalɛ́	-5111
dzɛdzɛ̃́	-5112
gbogbǒɔ́	-5113
hǐtámɛɛ́	-5114
kaábhɛtɛ	-5115
kpɛ́kpɛ́	-5116
mitsyina	-5117
shwĩálɛ́	-5118
titíayɛ́	-5119
torótoró	-5120
tsyitsyi	-5121
tɛ́banya	-5122
tɛ́banyá	-5123
tɛ́ɛ́wɔ̃	-5124
wãwlãkɛ́	-5125
yɛ́núvɔɛ	-5126
zaabhɛtɛ	-5127
zhĩázhĩá	-5128
zɛplɛ́nɔ	-5129
ɔnyɛ́dɔ̃	-5130
ɔɔgagãlĩ	-5131
ɛ̃́hókúí	-5132
▁abaplɛ́	-5133
▁anɔ́dzy	-5134
▁axwɛ̃wa	-5135
▁babadzy	-5136
▁batɛ́ba	-5137
▁batɛ́bá	-5138
▁batɛ́ka	-5139
▁bavɔbɔ́	-5140
▁bebeɖiɛ	-5141
▁bezetso	-5142
▁budzyuɖ	-5143
▁bɔbasho	-5144
▁kesiakp	-5145
▁kibenyí	-5146
▁kibuiny	-5147
▁nɛ́buli	-5148
▁obofatɛ	-5149
▁piapíík	-5150
▁sɛbatɛ́	-5151
▁tegegén	-5152
▁tigegén	-5153
▁ɔbɔshɛ̃	-5154
▁ɔkɔnyɔ́	-5155
▁ɔzãkɔ́e	-5156
dzɛ̃núvɔɛ	-5157
dɔnyɛ́dɔ̃	-5158
kɛkányáka	-5159
leoobleoo	-5160
nyɛ́dɔ̃kɛ	-5161
tɛ́batɔnɔ	-5162
tɛ́ɛ́wɔ̃ɛ	-5163
zaabhɛtɛɛ	-5164
▁babaplɛ́	-5165
▁bebetsyi	-5166
▁bezebets	-5167
▁bulĩ́ɛ́k	-5168
▁dzyalélé	-5169
▁egiseekú	-5170
▁kibuinyé	-5171
▁kigbogbǒ	-5172
▁koɔlɛzaa	-5173
▁kpɛ́kpɛ́	-5174
▁kɛtɛ́kaá	-5175
▁odukukɔ́	-5176
▁piapííki	-5177
▁tsã́tsã́	-5178
▁ɛyáómúnɔ	-5179
anyɛ́núvɔɛ	-5180
dzɛ̃̌nuvɔɛ	-5181
ogbenyáklɛ	-5182
tsyitsyina	-5183
ŋútɔ́ŋútɔ́	-5184
▁bezebetso	-5185
▁gɔɔgagãlĩ	-5186
▁kɛdɔ̃nyɛ́	-5187
nanyɛ́núvɔɛ	-5188
▁batrugbudz	-5189
▁batrugbuɔb	-5190
▁bezebetukú	-5191
▁kpɛ́kpɛ́na	-5192
▁kɛtɛ́banya	-5193
▁piapííkibe	-5194
nyákakɛtɛ́ba	-5195
honanyɛ́núvɔɛ	-5196
▁batɛ́kaákpɛ́	-5197
nyɛ́dɔ̃kɛtɛ́ɛ́	-5198
▁kɛnyákakɛtɛ́ba	-5199
▁	-5200
ɛ	-5201
ɔ	-5202
a	-5203
b	-5204
k	-5205
́	-5206
l	-5207
n	-5208
e	-5209
t	-5210
s	-5211
,	-5212
o	-5213
i	-5214
u	-5215
p	-5216
y	-5217
g	-5218
ú	-5219
í	-5220
h	-5221
m	-5222
é	-5223
á	-5224
r	-5225
w	-5226
d	-5227
.	-5228
z	-5229
̃	-5230
ó	-5231
ã	-5232
ɖ	-5233
v	-5234
ĩ	-5235
ŋ	-5236
f	-5237
ũ	-5238
B	-5239
ǐ	-5240
ě	-5241
K	-5242
x	-5243
̌	-5244
ǔ	-5245
O	-5246
ǒ	-5247
A	-5248
G	-5249
?	-5250
S	-5251
-	-5252
T	-5253
E	-5254
c	-5255
Y	-5256
ṹ	-5257
'	-5258
ƒ	-5259
ǎ	-5260
M	-5261
ī	-5262
â	-5263
W	-5264
