<unk>	0
<s>	0
</s>	0
▁@@	-2.71241
s	-3.24559
▁.	-3.53086
▁the	-3.5425
▁	-3.54987
▁,	-3.81214
▁to	-4.02064
▁and	-4.18858
ed	-4.21506
ing	-4.23497
▁a	-4.24758
t	-4.2982
▁I	-4.39014
y	-4.45483
▁of	-4.5189
▁in	-4.58517
e	-4.77019
▁be	-4.88304
ly	-4.94224
▁is	-4.94919
▁you	-5.01074
▁tha	-5.06565
▁have	-5.12545
▁for	-5.15084
▁'	-5.1637
▁it	-5.19917
er	-5.32402
▁-	-5.39897
d	-5.46107
▁on	-5.49156
▁was	-5.49489
▁with	-5.49964
.	-5.53511
▁The	-5.55199
▁do	-5.67319
n	-5.68782
▁"	-5.69143
▁are	-5.69301
▁n	-5.71296
▁not	-5.72529
this	-5.75908
ould	-5.79321
▁will	-5.8472
▁)	-5.86004
al	-5.86357
ion	-5.87898
▁?	-5.89756
▁(	-5.90569
▁w	-5.9862
▁my	-5.99991
'	-6.01414
▁he	-6.05914
en	-6.06256
▁or	-6.06286
▁at	-6.06566
▁as	-6.08226
▁me	-6.08413
▁we	-6.11354
▁your	-6.11592
▁:	-6.13532
from	-6.20204
▁an	-6.21207
▁can	-6.23424
▁but	-6.26611
▁one	-6.2906
▁by	-6.31532
▁!	-6.32047
▁go	-6.32671
▁re	-6.36382
▁some	-6.36578
▁out	-6.37646
m	-6.3911
▁so	-6.41408
▁A	-6.41882
▁any	-6.43725
▁like	-6.44248
▁m	-6.44897
if	-6.45943
▁up	-6.46774
▁get	-6.48448
▁all	-6.48833
▁time	-6.48979
f	-6.51597
ment	-6.52618
▁there	-6.52984
▁know	-6.57801
about	-6.59082
a	-6.60458
able	-6.64365
▁c	-6.64525
▁his	-6.68482
▁work	-6.70352
▁what	-6.72028
▁just	-6.73086
▁them	-6.74563
▁P	-6.77807
▁their	-6.77978
▁were	-6.78125
▁say	-6.78452
▁no	-6.80231
▁our	-6.83662
which	-6.83915
▁We	-6.84086
▁want	-6.85102
ation	-6.85197
▁It	-6.85303
▁him	-6.86556
▁when	-6.8733
▁who	-6.88587
r	-6.89095
very	-6.89326
one	-6.89391
/	-6.90327
▁other	-6.90802
thing	-6.91268
▁call	-6.91608
ity	-6.92637
ever	-6.93886
le	-6.94208
▁need	-6.95135
▁more	-6.95244
▁S	-6.95854
▁i	-6.97325
▁also	-6.9952
did	-7.00904
or	-7.01643
▁good	-7.02238
▁$	-7.0226
▁You	-7.02397
▁back	-7.02424
uch	-7.02853
▁take	-7.03724
▁He	-7.05538
▁am	-7.0641
re	-7.06816
▁over	-7.0702
ive	-7.07214
ve	-7.0798
▁un	-7.0938
▁see	-7.09982
▁year	-7.10332
▁place	-7.10852
▁has	-7.11084
▁new	-7.12888
▁us	-7.13025
o	-7.13876
▁...	-7.13948
▁C	-7.14359
had	-7.16568
▁day	-7.16755
▁use	-7.16925
ll	-7.17434
▁people	-7.17843
▁she	-7.19453
▁look	-7.19911
▁should	-7.20944
▁make	-7.2193
▁her	-7.22276
▁even	-7.22825
▁how	-7.23191
▁Bush	-7.23601
▁help	-7.23824
st	-7.24459
i	-7.24762
on	-7.25087
▁think	-7.25819
ic	-7.25911
ate	-7.26015
▁real	-7.26236
▁way	-7.2694
▁may	-7.2731
▁Thi	-7.27723
▁f	-7.28616
-	-7.29151
▁after	-7.29212
▁In	-7.29822
â	-7.3148
€	-7.3148
fore	-7.31878
ent	-7.34565
ld	-7.3476
▁F	-7.35355
▁now	-7.3536
▁give	-7.35472
th	-7.35859
▁L	-7.36137
cause	-7.36459
in	-7.37864
▁great	-7.38139
lease	-7.39794
▁service	-7.40036
▁every	-7.40436
▁let	-7.42684
▁again	-7.42696
▁2	-7.44529
day	-7.4454
se	-7.45053
▁E	-7.45726
▁try	-7.46356
ence	-7.46853
well	-7.48073
▁than	-7.48221
an	-7.49054
▁T	-7.49963
▁week	-7.50526
at	-7.53277
S	-7.5418
▁B	-7.54313
▁price	-7.5498
1	-7.55078
▁US	-7.55172
com	-7.55913
▁Thank	-7.56521
▁1	-7.56936
▁come	-7.57641
▁Do	-7.59373
▁food	-7.59715
@	-7.59922
ew	-7.6007
▁fir	-7.6032
▁--	-7.60406
▁change	-7.60717
ne	-7.61216
▁M	-7.61442
▁Al	-7.61496
▁l	-7.6159
▁al	-7.61861
age	-7.62487
▁3	-7.62953
▁down	-7.63214
&	-7.63674
ce	-7.63989
0	-7.64542
▁D	-7.65529
▁long	-7.6562
▁And	-7.67109
two	-7.67145
▁My	-7.67366
▁please	-7.67777
▁made	-7.67917
ful	-7.68196
▁most	-7.68795
▁here	-7.69594
to	-7.69606
▁U	-7.70133
ar	-7.70927
▁right	-7.71413
other	-7.71495
3	-7.72189
▁got	-7.72204
▁4	-7.72681
▁N	-7.72693
▁under	-7.73455
▁5	-7.73559
▁sam	-7.73894
▁How	-7.74027
us	-7.74163
▁PM	-7.74218
▁There	-7.74648
▁en	-7.75042
still	-7.75433
▁Iraq	-7.75511
▁office	-7.75529
▁put	-7.75805
▁So	-7.75839
▁car	-7.75892
ness	-7.75958
▁name	-7.76283
▁ask	-7.76927
round	-7.77318
▁off	-7.77441
▁own	-7.77621
▁friend	-7.78157
▁last	-7.78501
▁high	-7.79887
ist	-7.80524
▁find	-7.81261
▁though	-7.8132
ian	-7.81911
▁month	-7.82274
▁act	-7.82285
▁only	-7.82379
▁too	-7.83207
ext	-7.83307
▁On	-7.83432
es	-7.83642
▁sure	-7.83979
k	-7.84187
▁start	-7.84555
▁lot	-7.85157
ance	-7.85475
▁part	-7.85813
▁point	-7.86264
▁W	-7.86554
▁But	-7.87346
▁through	-7.88287
▁show	-7.88301
▁feel	-7.8831
▁What	-7.88338
many	-7.88508
▁thing	-7.89171
ous	-7.89625
ies	-7.89641
ge	-7.89655
▁world	-7.904
▁order	-7.90475
▁e	-7.90547
ch	-7.90863
ok	-7.91026
l	-7.91339
2	-7.92025
h	-7.92116
▁keep	-7.9255
▁meet	-7.92743
▁home	-7.93651
▁love	-7.93782
▁mean	-7.9422
▁problem	-7.95183
▁issue	-7.95802
▁deal	-7.96053
p	-7.96656
▁sai	-7.96721
▁those	-7.96919
▁<	-7.98558
▁10	-7.99623
TM	-7.99906
out	-8.00093
mail	-8.00275
▁end	-8.00787
▁since	-8.0153
▁Enron	-8.0153
▁famil	-8.01554
ial	-8.01648
▁litt	-8.01958
ther	-8.02355
▁question	-8.02372
▁No	-8.02574
ight	-8.03575
▁Re	-8.04256
▁night	-8.04615
▁where	-8.04662
▁experience	-8.05257
▁room	-8.05939
▁state	-8.06284
▁Iran	-8.06443
man	-8.0676
▁New	-8.07061
▁both	-8.07122
▁Th	-8.08063
▁per	-8.08457
▁hand	-8.08488
▁person	-8.08642
elf	-8.08781
▁AM	-8.08823
▁She	-8.0896
x	-8.0905
▁live	-8.09349
lway	-8.10368
▁whil	-8.10818
▁believe	-8.10889
▁interest	-8.11491
▁into	-8.12313
w	-8.12789
▁send	-8.12837
▁came	-8.13005
port	-8.13456
▁compan	-8.14228
▁Thanks	-8.14328
▁visit	-8.1469
▁talk	-8.15433
▁6	-8.15464
▁pay	-8.15551
▁form	-8.15676
▁date	-8.16033
▁read	-8.16355
twee	-8.16806
▁China	-8.16809
▁job	-8.16828
▁p	-8.17044
▁ca	-8.17503
▁sign	-8.17882
▁water	-8.18186
▁found	-8.18187
▁wait	-8.18256
▁nice	-8.18372
▁11	-8.18949
▁20	-8.19103
▁H	-8.19382
▁list	-8.1943
▁check	-8.19585
▁As	-8.21
▁200	-8.21013
▁May	-8.21146
D	-8.21873
g	-8.2201
▁care	-8.22042
est	-8.22253
▁treat	-8.22563
▁America	-8.22876
▁life	-8.23457
▁leas	-8.2347
▁plan	-8.2351
▁de	-8.2364
less	-8.24594
oney	-8.24695
ry	-8.25272
▁staff	-8.25418
▁tell	-8.25421
ant	-8.25443
ember	-8.25527
▁line	-8.25902
▁man	-8.26933
▁Be	-8.26951
▁eat	-8.27105
▁reason	-8.28311
▁St	-8.28705
▁else	-8.29206
▁away	-8.29252
▁follow	-8.29311
▁old	-8.30013
each	-8.30373
▁guy	-8.30502
▁hope	-8.30962
ough	-8.31072
▁!!	-8.31092
eft	-8.31111
▁hard	-8.31577
▁group	-8.31668
▁country	-8.31791
▁cat	-8.31841
▁play	-8.31949
▁G	-8.32324
ual	-8.32796
▁hear	-8.33712
til	-8.33843
side	-8.33935
c	-8.34147
▁add	-8.34193
▁John	-8.34801
▁move	-8.35165
▁open	-8.35797
▁post	-8.3606
went	-8.36443
_	-8.36467
▁cost	-8.36562
▁Dr	-8.36662
▁power	-8.3672
▁Wh	-8.36864
▁include	-8.36867
▁thre	-8.36895
cy	-8.37409
▁close	-8.3785
▁agree	-8.38091
▁answer	-8.38171
▁small	-8.38171
▁set	-8.38551
▁discuss	-8.38737
▁provide	-8.38747
▁bad	-8.39089
ow	-8.39104
▁whole	-8.39465
▁15	-8.39807
▁Qa	-8.39917
▁possibl	-8.40093
▁full	-8.40424
▁seem	-8.40506
▁attach	-8.40603
▁charge	-8.4097
F	-8.41038
line	-8.41277
u	-8.41574
▁request	-8.41635
▁oil	-8.41636
▁dis	-8.42091
▁dog	-8.42142
▁far	-8.42168
▁K	-8.42249
▁busy	-8.42974
ary	-8.43376
▁large	-8.43416
▁train	-8.43417
▁Sept	-8.43418
▁buy	-8.43479
▁clean	-8.43646
▁horse	-8.43896
view	-8.43919
▁head	-8.44465
▁Pakistan	-8.45092
▁rate	-8.45959
um	-8.46005
▁ga	-8.464
▁pass	-8.46432
▁case	-8.46438
▁comment	-8.47123
ready	-8.47135
ize	-8.4719
T	-8.47436
ty	-8.47638
▁base	-8.47705
low	-8.4786
▁free	-8.48575
▁test	-8.48576
commend	-8.48755
▁minute	-8.48944
▁Friday	-8.48952
▁must	-8.48956
▁R	-8.49013
▁Ju	-8.49062
be	-8.49129
▁lead	-8.49395
▁late	-8.49549
land	-8.49957
▁leave	-8.50018
▁To	-8.50064
▁war	-8.50392
▁big	-8.50491
E	-8.50998
▁years	-8.51293
▁For	-8.51738
▁message	-8.51839
▁numb	-8.52347
ia	-8.5257
▁walk	-8.52812
▁7	-8.53272
▁Can	-8.53281
▁phone	-8.53309
▁soon	-8.53427
▁response	-8.53813
<	-8.53911
ught	-8.54011
8	-8.54149
ton	-8.54726
▁Any	-8.54851
▁stay	-8.54926
▁probabl	-8.55009
▁bit	-8.55167
▁Let	-8.55403
▁receive	-8.55662
ite	-8.5625
▁final	-8.56839
▁kind	-8.5694
▁system	-8.56997
▁NOT	-8.57404
lso	-8.57938
▁offer	-8.57969
▁wh	-8.58114
▁pre	-8.58299
ible	-8.58637
is	-8.58878
▁Georg	-8.58902
▁militar	-8.58902
▁THE	-8.58907
▁process	-8.5895
form	-8.59103
son	-8.59285
▁Mar	-8.59353
long	-8.59648
▁warm	-8.60144
▁....	-8.60237
▁Afghan	-8.61019
▁girl	-8.61019
▁Jeff	-8.6102
▁>>	-8.6102
▁space	-8.61025
▁recent	-8.61073
▁sever	-8.61618
▁India	-8.61766
ard	-8.62672
▁doe	-8.62676
----------------	-8.62783
▁Not	-8.62869
▁support	-8.63181
▁etc	-8.63182
▁stop	-8.63228
▁At	-8.63263
▁market	-8.63372
▁wo	-8.63627
▁sent	-8.63738
▁!!!	-8.63942
ward	-8.65195
▁President	-8.65391
▁quick	-8.65391
▁2005	-8.65415
▁couple	-8.65464
▁O	-8.65533
▁>	-8.6556
▁Sara	-8.65693
:30	-8.65757
▁American	-8.65914
mount	-8.65951
▁idea	-8.65958
▁file	-8.66509
▁b	-8.66661
▁expect	-8.67249
come	-8.67546
▁draft	-8.67651
▁run	-8.67651
▁concern	-8.67654
▁house	-8.67671
ism	-8.67699
▁contact	-8.67784
▁An	-8.6789
▁mind	-8.68182
where	-8.68193
▁*	-8.68442
▁pret	-8.6864
▁inter	-8.69051
C	-8.6917
▁address	-8.69251
ship	-8.69443
▁IS	-8.69451
ese	-8.69493
▁decide	-8.69683
▁contract	-8.69862
el	-8.69909
▁simpl	-8.69963
▁deliver	-8.69965
▁near	-8.69977
▁number	-8.70017
▁certain	-8.70083
▁book	-8.70138
▁current	-8.70167
▁Nation	-8.70252
eda	-8.70305
▁force	-8.7035
▁word	-8.70513
▁met	-8.7094
▁develop	-8.70989
▁town	-8.71315
▁hap	-8.71772
▁fact	-8.71896
▁store	-8.71915
▁Hous	-8.72134
▁differ	-8.72203
▁result	-8.7233
▁second	-8.7233
▁After	-8.7233
▁attack	-8.7233
▁business	-8.72332
▁Monday	-8.72335
▁hotel	-8.7234
▁clear	-8.72368
ither	-8.72408
▁fine	-8.72617
▁complete	-8.72772
▁Whe	-8.72789
▁yet	-8.72914
stand	-8.73293
v	-8.73678
ern	-8.74105
▁member	-8.74197
due	-8.74557
▁Ka	-8.74591
▁Paul	-8.7461
▁quit	-8.74754
▁April	-8.74755
▁strong	-8.74755
▁Percent	-8.74757
▁restaurant	-8.7481
▁J	-8.75457
▁custom	-8.75502
7	-8.75658
ical	-8.75803
▁con	-8.76127
▁consider	-8.76149
▁air	-8.76207
most	-8.76887
▁fight	-8.76981
▁program	-8.77233
▁Great	-8.77239
▁entire	-8.77245
▁2004	-8.77325
▁hair	-8.77371
▁regard	-8.77445
▁turn	-8.77462
▁8	-8.77492
▁avail	-8.77552
▁Mr	-8.77575
▁terror	-8.78463
id	-8.78484
N	-8.78833
▁stand	-8.78993
▁h	-8.79255
▁fun	-8.79566
▁direct	-8.79594
▁project	-8.79787
▁school	-8.79787
▁position	-8.79805
il	-8.79889
ure	-8.79925
▁cage	-8.80284
ck	-8.80732
▁weapon	-8.80756
▁im	-8.80794
ish	-8.8115
P	-8.8196
▁door	-8.82307
▁Jan	-8.82364
▁pick	-8.82378
▁death	-8.82402
▁perfect	-8.82403
front	-8.82419
▁morn	-8.82436
▁arm	-8.82436
▁piece	-8.82463
▁Hi	-8.82693
doc	-8.82829
▁hold	-8.8284
▁Just	-8.83115
▁earl	-8.83263
ur	-8.83288
turn	-8.8335
Y	-8.83352
har	-8.83587
ally	-8.83644
▁extreme	-8.83735
▁already	-8.83819
▁All	-8.83885
▁co	-8.83942
▁continue	-8.84604
▁light	-8.84776
▁Have	-8.84781
it	-8.84797
▁suggest	-8.84798
▁less	-8.84894
▁recommend	-8.85028
▁De	-8.85104
▁bring	-8.85381
ma	-8.85912
▁Co	-8.86213
▁law	-8.86482
▁copy	-8.86578
▁produce	-8.86847
▁drive	-8.8705
▁Oct	-8.87956
▁above	-8.87957
▁2000	-8.8819
▁thank	-8.88202
▁vet	-8.88331
▁2001	-8.88385
way	-8.88397
5	-8.88488
▁gas	-8.88835
▁Are	-8.89058
▁event	-8.89225
▁apply	-8.8938
▁pro	-8.89687
ra	-8.89971
▁fee	-8.90257
▁report	-8.90461
▁12	-8.9064
▁quality	-8.90682
▁explain	-8.90687
▁Mike	-8.90712
later	-8.90747
im	-8.90777
though	-8.90802
▁bab	-8.90929
thra	-8.91006
▁value	-8.91243
▁days	-8.91817
▁30	-8.91914
▁By	-8.92371
▁public	-8.92384
▁cut	-8.9241
▁Un	-8.92607
▁past	-8.9295
▁side	-8.9297
▁16	-8.93353
▁manage	-8.93437
://	-8.93602
▁learn	-8.93604
▁Canada	-8.93642
ASA	-8.93877
▁th	-8.9404
▁paper	-8.94067
6	-8.94218
▁whe	-8.94333
ware	-8.94582
ney	-8.94689
▁ht	-8.95292
tp	-8.95311
▁animal	-8.95382
▁ever	-8.95729
▁top	-8.96166
▁ago	-8.96175
▁things	-8.96476
▁travel	-8.96528
▁wonder	-8.96563
▁remain	-8.96609
▁tank	-8.9661
▁claim	-8.96611
▁Good	-8.96614
▁:)	-8.9669
ENRON	-8.96748
▁return	-8.96811
▁kill	-8.96827
▁YOU	-8.97047
:00	-8.97062
b	-8.97143
▁face	-8.97169
▁hav	-8.97171
ie	-8.97298
▁young	-8.97488
▁peace	-8.98097
▁type	-8.98148
tic	-8.98214
▁approve	-8.9831
ory	-8.9844
▁serve	-8.98662
V	-8.98705
▁Every	-8.98793
▁fund	-8.98906
wa	-8.98912
▁pet	-8.99
4	-8.99029
ife	-8.99142
▁site	-8.99443
▁especial	-8.9971
▁short	-8.9971
▁region	-8.99711
stead	-8.99712
▁four	-8.9974
▁credit	-8.99753
▁worth	-8.99783
▁actual	-8.99791
▁Arab	-8.99845
▁Now	-8.9987
▁La	-9.00002
▁13	-9.00049
▁Za	-9.00086
▁require	-9.00578
▁Sh	-9.00831
▁present	-9.00872
▁refer	-9.01125
▁With	-9.01319
▁cap	-9.01508
▁review	-9.01903
▁customer	-9.01937
▁Israel	-9.02631
▁Texa	-9.0291
▁doctor	-9.0291
▁wrong	-9.0291
▁initial	-9.02911
▁detail	-9.02913
▁campaign	-9.02914
▁Attach	-9.02914
▁Mark	-9.02955
▁accept	-9.02984
▁course	-9.02984
angua	-9.0303
▁email	-9.03083
body	-9.03277
▁fall	-9.03427
▁questions	-9.03856
▁Chris	-9.04019
▁Tal	-9.04383
▁game	-9.04564
▁special	-9.04655
ru	-9.05667
▁tax	-9.05784
▁govern	-9.05996
▁notice	-9.06009
▁murder	-9.06216
▁snake	-9.06217
ww	-9.06264
▁watch	-9.06327
▁David	-9.06328
▁access	-9.06549
▁key	-9.06618
noon	-9.06668
▁Number	-9.06696
▁Her	-9.06826
▁usual	-9.06966
▁dur	-9.07083
z	-9.07121
▁main	-9.07154
▁Ga	-9.07317
▁cover	-9.07734
▁threat	-9.07802
▁period	-9.07917
▁trade	-9.08026
▁understand	-9.08092
ine	-9.08506
▁su	-9.08656
▁25	-9.08989
▁Numb	-9.09149
▁opt	-9.09416
joy	-9.09581
▁black	-9.09609
▁example	-9.09636
▁link	-9.09639
▁poor	-9.09663
▁trust	-9.09718
▁quote	-9.09723
▁human	-9.09833
▁half	-9.09943
▁elect	-9.10237
AND	-9.10245
▁legal	-9.10477
▁create	-9.10486
▁design	-9.10718
ease	-9.11075
ture	-9.11262
▁Kay	-9.11303
▁nation	-9.11364
R	-9.11759
▁relate	-9.11935
▁feed	-9.12003
member	-9.12285
end	-9.12298
▁sit	-9.12346
once	-9.12716
▁leg	-9.12826
ondon	-9.12846
▁trip	-9.13054
▁picture	-9.13176
▁North	-9.13177
▁matter	-9.13178
▁glob	-9.13178
▁major	-9.13186
▁Fax	-9.13198
enron	-9.13201
▁letter	-9.13217
▁Thur	-9.1325
morr	-9.13363
▁term	-9.13369
▁parent	-9.13376
▁histor	-9.13416
et	-9.13578
▁pm	-9.13638
▁Mus	-9.13647
ley	-9.13771
ri	-9.13941
▁Well	-9.13983
▁forward	-9.14124
raf	-9.14542
▁West	-9.14577
▁schedule	-9.14705
▁step	-9.14719
▁control	-9.14774
▁web	-9.14802
▁Man	-9.14859
▁mail	-9.15086
▁st	-9.15099
▁different	-9.15099
▁total	-9.15125
I	-9.15289
▁definite	-9.15309
▁miss	-9.15508
▁dure	-9.16011
▁EB	-9.16193
energy	-9.16249
hap	-9.16277
▁100	-9.16521
▁non	-9.16597
▁attempt	-9.16846
▁difficult	-9.16846
▁figure	-9.16846
▁local	-9.16847
▁dead	-9.1687
▁information	-9.16895
▁sound	-9.16902
▁safe	-9.16931
▁level	-9.17006
▁purchase	-9.17118
▁shall	-9.17159
▁Ye	-9.17213
▁egg	-9.1735
OK	-9.17427
tter	-9.17429
▁Jun	-9.17486
▁risk	-9.17713
hind	-9.18042
▁board	-9.18066
eral	-9.18449
ada	-9.18479
▁Vietnam	-9.18732
▁involve	-9.18732
▁shop	-9.18988
ten	-9.19066
▁amount	-9.19305
tention	-9.19341
iba	-9.19381
▁@	-9.19503
▁ok	-9.19522
▁sal	-9.19733
▁polic	-9.19794
▁birth	-9.20016
ro	-9.20027
▁rule	-9.20463
ice	-9.20518
ell	-9.20566
▁kid	-9.20588
▁serious	-9.20656
▁dollar	-9.20657
▁Vince	-9.20665
▁team	-9.20674
▁proper	-9.20687
▁Fro	-9.20743
▁increase	-9.20767
▁CIA	-9.20859
▁lack	-9.20975
▁Che	-9.21077
▁199	-9.21108
▁tour	-9.21212
▁rude	-9.21286
▁intend	-9.2135
▁note	-9.21503
▁opera	-9.21521
▁Le	-9.21528
▁Ha	-9.21574
rry	-9.21587
▁San	-9.21797
▁Islam	-9.21992
▁Me	-9.22137
elve	-9.22156
▁body	-9.22175
▁di	-9.22328
▁study	-9.22616
▁Europe	-9.22617
▁save	-9.22663
▁yoursel	-9.22687
▁9	-9.22973
▁appreciate	-9.23116
▁ship	-9.23117
▁true	-9.23119
▁tri	-9.23213
net	-9.23245
▁execute	-9.23457
NA	-9.23642
▁source	-9.23659
▁50	-9.2374
ition	-9.23843
▁Kar	-9.23869
▁bear	-9.23906
▁14	-9.24029
▁speak	-9.24083
▁fly	-9.24371
hiri	-9.24553
▁Ph	-9.24568
ake	-9.24601
▁respond	-9.24616
▁cheap	-9.24616
▁record	-9.24616
▁dinner	-9.24622
▁item	-9.24708
▁general	-9.24713
▁sense	-9.2474
▁Ou	-9.24755
▁correct	-9.24829
▁necessar	-9.24884
▁secure	-9.24949
▁mention	-9.2526
▁.?	-9.25717
ier	-9.2575
▁Ba	-9.26233
▁des	-9.26283
hi	-9.26425
▁write	-9.26493
▁document	-9.26546
ior	-9.2659
99	-9.26652
▁drink	-9.26657
▁enjoy	-9.26717
▁bor	-9.26783
▁die	-9.26874
▁star	-9.27827
some	-9.27984
▁rest	-9.27986
uar	-9.28175
▁Whi	-9.28199
▁cause	-9.2821
nation	-9.2827
▁politic	-9.28364
B	-9.28505
▁heat	-9.28714
▁effort	-9.2874
▁account	-9.28741
▁cruise	-9.28742
▁Even	-9.28743
▁guess	-9.28743
▁chance	-9.28745
▁settle	-9.28747
▁lunch	-9.28751
▁Some	-9.28756
kept	-9.2877
▁subject	-9.28782
▁six	-9.28803
▁Nov	-9.2881
sday	-9.28812
▁Service	-9.28969
▁break	-9.2897
nature	-9.28986
stan	-9.29247
istan	-9.29398
L	-9.29558
▁Carol	-9.29606
▁mark	-9.29722
ad	-9.30064
▁mo	-9.30221
▁interview	-9.3046
illion	-9.30499
▁excel	-9.30811
07	-9.30825
cross	-9.30945
▁Go	-9.31189
all	-9.3123
▁rep	-9.31296
▁197	-9.31428
,000	-9.31515
▁pl	-9.31774
nu	-9.32179
▁toward	-9.32229
▁Ru	-9.32303
work	-9.32423
room	-9.32497
ah	-9.32983
▁Ma	-9.33036
▁blood	-9.33041
▁administrat	-9.33042
▁territor	-9.33042
▁condition	-9.33042
▁finish	-9.33042
▁South	-9.33042
▁Syria	-9.33042
▁Richard	-9.33042
▁Gulf	-9.33044
▁president	-9.33044
▁bird	-9.33045
▁exact	-9.33049
▁pull	-9.33056
▁First	-9.33057
▁park	-9.33058
▁exist	-9.33062
▁Hope	-9.33083
▁fel	-9.33124
▁budget	-9.33208
▁government	-9.33236
▁kn	-9.33284
▁spend	-9.33561
▁allow	-9.33584
▁page	-9.33667
sh	-9.33706
▁Bill	-9.33875
▁spot	-9.3399
▁x	-9.34155
▁begin	-9.34916
▁press	-9.34985
K	-9.35197
▁ride	-9.35471
▁effect	-9.35537
▁view	-9.3578
nda	-9.35898
pend	-9.36085
▁economic	-9.3615
vision	-9.36151
op	-9.36248
▁bar	-9.36257
▁received	-9.36415
▁fu	-9.36968
▁Di	-9.37212
▁print	-9.37537
▁saw	-9.37544
▁yester	-9.37548
▁official	-9.37576
▁luck	-9.37585
▁bro	-9.37586
▁surge	-9.37591
12	-9.37594
▁Paris	-9.37598
▁honest	-9.37639
▁los	-9.37654
▁mid	-9.37672
▁version	-9.37715
▁happen	-9.37766
▁August	-9.37778
▁danger	-9.37834
▁bus	-9.37886
▁addition	-9.3823
▁17	-9.38377
▁hot	-9.3854
▁Dec	-9.3878
▁includ	-9.38798
▁stor	-9.388
▁range	-9.39011
▁fit	-9.39034
time	-9.39152
▁bo	-9.39191
ama	-9.39379
▁prepare	-9.39477
▁Over	-9.39863
▁taste	-9.39893
▁circle	-9.40039
▁eas	-9.40177
▁spen	-9.40267
▁NO	-9.40281
▁bomb	-9.40746
ative	-9.41054
▁19	-9.41115
▁fix	-9.42144
▁tak	-9.4215
▁protect	-9.42243
▁significant	-9.42243
▁surprise	-9.42243
▁York	-9.42244
▁rabbit	-9.42245
▁fear	-9.42247
▁hospital	-9.42249
▁locate	-9.42249
▁happ	-9.42255
▁hour	-9.42264
▁fax	-9.42278
▁Sunday	-9.4229
▁sometime	-9.42423
ol	-9.42438
▁remember	-9.42483
▁fair	-9.42497
▁grow	-9.42514
▁skill	-9.42569
▁reach	-9.42658
▁agreement	-9.42665
OL	-9.42765
ise	-9.4289
mas	-9.43053
▁hug	-9.43065
▁sort	-9.43179
▁fill	-9.43439
▁mill	-9.43632
ike	-9.43699
uck	-9.43728
▁fixed	-9.43756
firm	-9.44195
wis	-9.44286
▁profession	-9.44334
▁art	-9.44542
▁earlie	-9.44565
▁absolute	-9.44682
▁basis	-9.44688
▁Will	-9.44727
icide	-9.4473
▁excellent	-9.44755
▁Gu	-9.44819
▁enter	-9.44837
dam	-9.44851
sure	-9.44865
wood	-9.45252
▁V	-9.45299
▁assist	-9.45454
site	-9.45696
hill	-9.45802
▁21	-9.45819
aid	-9.45838
▁Ho	-9.4591
▁build	-9.46021
▁media	-9.46389
▁pai	-9.46458
co	-9.46569
▁except	-9.46882
=============	-9.47177
▁California	-9.47182
▁Egypt	-9.47182
▁neighbor	-9.47182
argill	-9.47182
corporate	-9.47183
▁prior	-9.47183
▁afford	-9.47184
▁focus	-9.47184
▁transport	-9.47187
▁deep	-9.47189
▁chair	-9.47195
▁info	-9.47196
▁single	-9.47203
DOC	-9.4721
▁product	-9.47216
▁flow	-9.47263
▁model	-9.47328
▁sell	-9.47362
▁Or	-9.47402
go	-9.47482
▁defens	-9.4751
▁fish	-9.47591
▁Del	-9.47816
city	-9.47923
▁instruct	-9.4793
▁box	-9.47938
▁tire	-9.47971
▁listen	-9.48046
▁mak	-9.48077
▁fast	-9.48202
▁finance	-9.48326
▁AS	-9.48418
9	-9.4842
O	-9.48481
▁Feb	-9.48977
▁following	-9.49449
maze	-9.49503
▁bill	-9.49585
▁establish	-9.4971
▁Group	-9.49747
▁separate	-9.49747
▁agent	-9.49755
▁import	-9.49781
▁promise	-9.49896
▁card	-9.49916
▁patient	-9.50026
▁helpful	-9.50195
▁Bo	-9.50384
▁expense	-9.50399
A	-9.50805
▁vote	-9.50845
▁join	-9.50913
ond	-9.50988
▁unit	-9.50993
▁sub	-9.51036
ud	-9.5128
▁Sea	-9.51715
00	-9.52083
▁adjust	-9.52219
▁twi	-9.52284
▁rat	-9.52315
▁favor	-9.52365
▁benefit	-9.52378
▁class	-9.52379
▁choice	-9.5238
▁kitten	-9.52381
▁stuff	-9.52383
▁running	-9.5239
▁color	-9.52396
rench	-9.52398
▁worry	-9.52403
▁street	-9.52431
▁among	-9.52453
▁Right	-9.52472
▁article	-9.52477
▁fresh	-9.525
▁38	-9.52526
▁carry	-9.5258
▁station	-9.52589
▁crime	-9.526
▁vs	-9.52625
opez	-9.52669
▁host	-9.52707
dom	-9.52879
▁outside	-9.52952
2000	-9.53008
part	-9.5311
▁son	-9.53125
▁Iraqi	-9.53204
▁Sad	-9.53271
▁mis	-9.53973
▁nan	-9.54121
▁18	-9.54355
▁island	-9.54423
▁Per	-9.5443
ped	-9.5447
▁search	-9.54524
▁DO	-9.54714
▁Su	-9.54729
▁participate	-9.54788
▁Wor	-9.54887
connect	-9.54891
head	-9.54941
as	-9.5497
▁advise	-9.55083
▁awe	-9.5513
atur	-9.55172
▁health	-9.5545
▁counter	-9.55451
iddle	-9.55712
▁fore	-9.55923
▁Gam	-9.55964
▁cross	-9.56048
om	-9.5621
▁Sa	-9.5628
▁reserve	-9.56535
▁Regard	-9.56675
▁ON	-9.56861
▁become	-9.56994
▁See	-9.5702
▁propose	-9.57054
▁r	-9.57263
▁Spa	-9.57345
▁Sen	-9.57455
ul	-9.57495
▁lie	-9.57524
▁bi	-9.57555
de	-9.57589
▁collect	-9.57766
▁fail	-9.57842
...@	-9.57859
▁Commission	-9.57859
▁EPM	-9.57859
▁Michael	-9.57859
▁female	-9.57859
▁reflect	-9.57859
▁push	-9.57859
▁Govern	-9.57864
sphere	-9.57866
▁balance	-9.57867
▁industr	-9.57868
▁!!!!	-9.57871
▁cash	-9.57904
▁Air	-9.57947
▁NY	-9.57954
▁generate	-9.58026
▁text	-9.58083
339	-9.5815
▁child	-9.58156
ig	-9.5831
▁nail	-9.58325
▁professional	-9.58386
▁slow	-9.58462
no	-9.5848
▁sun	-9.58494
▁comfort	-9.58531
▁CA	-9.58612
989	-9.58693
▁hit	-9.5878
▁rathe	-9.5892
---------------	-9.58981
▁emerge	-9.58986
▁guide	-9.59067
▁seek	-9.59301
▁gain	-9.59391
▁raise	-9.59575
▁01	-9.5979
▁assume	-9.5999
▁launch	-9.6017
za	-9.604
▁bite	-9.60607
▁Trans	-9.60651
▁argue	-9.60717
▁suspect	-9.60724
▁thir	-9.60731
▁important	-9.6075
▁Terr	-9.60779
▁com	-9.60841
▁style	-9.61024
▁election	-9.61188
▁arrive	-9.61309
▁Ind	-9.61359
▁k	-9.61485
▁friends	-9.62011
▁sea	-9.62307
▁action	-9.62426
▁origin	-9.62669
▁Ver	-9.62776
▁prefer	-9.62846
io	-9.63132
TTE	-9.63479
▁respect	-9.63641
▁extra	-9.6365
▁Wednesday	-9.63657
▁expert	-9.63657
▁road	-9.63657
▁foot	-9.63657
▁electric	-9.63659
▁visa	-9.63661
EVER	-9.63663
▁window	-9.63666
▁Clair	-9.63669
▁confidential	-9.6368
▁Look	-9.63682
Washington	-9.63714
ober	-9.63728
usband	-9.63732
▁Get	-9.63745
▁Kim	-9.63748
▁Other	-9.63751
▁male	-9.6376
▁blow	-9.63778
▁advice	-9.63813
▁Their	-9.63817
▁ye	-9.63914
▁TO	-9.63944
▁common	-9.63973
▁hurt	-9.64105
ET	-9.64169
▁26	-9.64174
mission	-9.64225
ara	-9.64269
gan	-9.64271
▁22	-9.64278
▁His	-9.64282
▁dry	-9.64327
▁sale	-9.64412
▁appear	-9.64421
▁mine	-9.64425
▁age	-9.64492
▁File	-9.64654
01	-9.64815
▁limit	-9.64873
▁713-853-3	-9.64929
▁Bob	-9.65113
▁Dan	-9.65262
M	-9.65373
wo	-9.65411
▁Ra	-9.65418
89	-9.65423
▁ground	-9.65464
▁ho	-9.66055
▁Pos	-9.66056
▁low	-9.6606
▁select	-9.66425
▁jump	-9.66688
▁Where	-9.66697
▁cock	-9.66723
▁Year	-9.66788
▁weekend	-9.66791
▁Sun	-9.66825
▁04	-9.66863
▁Work	-9.66877
▁white	-9.66887
up	-9.66894
▁problems	-9.67018
▁specif	-9.67048
ING	-9.67062
▁size	-9.67072
▁win	-9.67444
nergy	-9.67686
▁Po	-9.68198
tend	-9.68535
▁firm	-9.6859
EL	-9.688
▁pain	-9.68876
▁spoke	-9.6898
▁speci	-9.69054
LY	-9.6914
town	-9.69329
646-	-9.69344
▁Steve	-9.69456
ade	-9.69554
G	-9.69595
▁Since	-9.69722
▁muscle	-9.69812
▁security	-9.69812
▁trouble	-9.69812
▁capital	-9.69812
▁south	-9.69813
▁spread	-9.69813
▁religious	-9.69815
▁General	-9.69816
▁dark	-9.69816
▁stock	-9.6983
▁dad	-9.69843
▁Marie	-9.69854
▁film	-9.69861
▁social	-9.69888
▁practice	-9.69947
▁ches	-9.6995
▁Price	-9.70024
▁attend	-9.70082
ong	-9.70272
▁713-	-9.70303
▁band	-9.70345
▁employ	-9.70435
▁0	-9.7044
▁dress	-9.7089
▁warn	-9.70968
▁Christ	-9.71134
▁Who	-9.71329
▁boy	-9.71424
▁Ca	-9.71475
J	-9.71598
ach	-9.7186
▁personal	-9.71953
▁determine	-9.71989
▁waste	-9.72265
▁Jim	-9.72395
▁Ken	-9.72619
▁Florida	-9.73038
living	-9.73041
▁maintain	-9.73046
▁East	-9.73063
▁organize	-9.73188
▁05	-9.73265
▁Yes	-9.73339
▁Sha	-9.73341
west	-9.73373
back	-9.73458
mediate	-9.73595
▁Ed	-9.73659
▁Mary	-9.73673
▁g	-9.73786
ha	-9.73933
▁Peter	-9.7394
▁Cha	-9.7423
▁pose	-9.74527
▁Asia	-9.74648
AP	-9.75573
▁tru	-9.75631
▁Guar	-9.75737
da	-9.75849
▁Ok	-9.75854
▁sum	-9.75996
BI	-9.7614
▁transfer	-9.76235
▁mov	-9.7632
▁pack	-9.76328
▁data	-9.76371
▁individual	-9.76371
▁obvious	-9.76371
▁progress	-9.76371
▁implement	-9.76371
▁track	-9.76371
▁drug	-9.76373
▁horr	-9.76373
▁advance	-9.76377
▁sleep	-9.76378
▁Russia	-9.76378
▁Michelle	-9.76396
▁pressure	-9.76399
▁carol	-9.76432
▁perform	-9.76474
▁image	-9.76506
▁opinion	-9.76527
▁affect	-9.76527
▁father	-9.76528
marry	-9.7653
▁regular	-9.76536
▁Shi	-9.7662
▁solution	-9.76934
▁knowledge	-9.77037
▁wish	-9.7704
▁political	-9.77061
ECT	-9.77226
cover	-9.77428
NE	-9.77485
▁bare	-9.7773
date	-9.779
▁suit	-9.77943
▁plann	-9.77982
▁minimu	-9.78047
▁lo	-9.78961
DA	-9.79127
▁Sam	-9.79383
▁Mo	-9.79428
▁whom	-9.79468
▁meat	-9.79526
▁authorit	-9.79539
ber	-9.79596
▁80	-9.79718
.00	-9.79726
▁OBS	-9.79826
▁procedure	-9.79841
▁north	-9.79926
▁culture	-9.80037
fuse	-9.80077
▁voice	-9.80095
▁land	-9.80104
▁Mc	-9.80105
IT	-9.80126
rah	-9.80182
▁Na	-9.80351
Web	-9.80449
▁via	-9.8046
friend	-9.80472
ta	-9.8075
▁photo	-9.80988
izz	-9.81027
rage	-9.81048
more	-9.81056
▁24	-9.8137
▁Both	-9.81657
urther	-9.81724
45	-9.82701
▁THI	-9.82757
▁plant	-9.82815
▁ENRON	-9.83062
▁Call	-9.83219
▁Agree	-9.83277
▁Moha	-9.83287
▁faith	-9.83338
▁civil	-9.83346
▁shot	-9.83392
▁natural	-9.83393
▁prevent	-9.83393
▁previous	-9.83393
▁suffer	-9.83393
▁filter	-9.83393
▁Lanka	-9.83393
▁Laden	-9.83394
▁Time	-9.83394
▁Tues	-9.83394
▁Susan	-9.83395
▁roll	-9.83398
▁pilot	-9.83399
▁hang	-9.83404
▁sink	-9.83407
▁measure	-9.83408
▁relax	-9.83411
▁choose	-9.83441
▁apartment	-9.83443
▁wheel	-9.83447
▁WAS	-9.83474
▁Kerr	-9.83475
▁mile	-9.8348
▁atmo	-9.8349
▁corner	-9.83491
▁slight	-9.83502
▁confer	-9.83502
▁Agreement	-9.83541
▁indicate	-9.83548
ffee	-9.8355
▁People	-9.83558
▁??	-9.83572
▁Of	-9.83748
▁mass	-9.83802
▁Sect	-9.83843
pair	-9.83943
mir	-9.84107
H	-9.84114
▁bag	-9.84197
▁Day	-9.84202
search	-9.84274
afra	-9.84459
▁.....	-9.84464
▁members	-9.84532
▁Mos	-9.84557
▁God	-9.84625
▁count	-9.84677
▁Indian	-9.84859
▁Ben	-9.84895
▁wide	-9.85137
▁sheet	-9.85212
ONE	-9.85313
▁surround	-9.85593
▁career	-9.85965
weather	-9.85984
mmed	-9.86114
of	-9.86246
ngle	-9.86416
▁drop	-9.86706
▁medic	-9.86765
▁fed	-9.86807
▁options	-9.86977
▁dance	-9.86988
▁particular	-9.87097
hood	-9.87107
▁High	-9.87109
▁Yo	-9.8719
ious	-9.87195
ER	-9.87277
tion	-9.87339
▁hide	-9.87359
▁specific	-9.87399
▁invite	-9.87526
:	-9.87572
▁GO	-9.87612
ca	-9.8768
place	-9.87833
▁partic	-9.87929
clai	-9.88047
▁Star	-9.88144
house	-9.88382
lan	-9.88415
iz	-9.88524
▁Tak	-9.88606
atch	-9.88715
rate	-9.88832
▁Ta	-9.88858
PI	-9.88897
ston	-9.88981
often	-9.89305
▁confirm	-9.89391
ph	-9.89532
▁commit	-9.89627
▁Plan	-9.89707
off	-9.89747
ix	-9.90058
▁27	-9.90062
▁leaders	-9.90177
ification	-9.90235
▁thanks	-9.90256
logy	-9.90279
▁713	-9.90338
▁OF	-9.90405
▁lay	-9.90482
▁table	-9.90505
strain	-9.90746
▁net	-9.90876
▁success	-9.90899
▁connect	-9.90915
▁Inter	-9.90935
▁adult	-9.9094
▁Orleans	-9.90941
▁client	-9.90941
▁decline	-9.90941
▁situate	-9.90941
▁Commit	-9.90941
▁sweet	-9.90941
▁sick	-9.90942
▁certificat	-9.90942
▁School	-9.90943
▁societ	-9.90943
▁complain	-9.90945
▁strateg	-9.90948
▁border	-9.90949
▁Home	-9.9095
▁winter	-9.9095
▁manner	-9.9095
▁nucle	-9.90957
▁Office	-9.9096
▁website	-9.90997
▁Leg	-9.90998
▁grand	-9.91003
▁earth	-9.91009
▁hung	-9.91022
▁Dave	-9.91025
▁finger	-9.91051
▁cool	-9.91055
▁woman	-9.91059
▁wonderful	-9.91062
▁lol	-9.91065
▁satisf	-9.91116
▁led	-9.91174
▁Am	-9.91207
▁portion	-9.91246
▁GCP	-9.91357
▁pleasant	-9.91366
▁memor	-9.91397
▁conference	-9.9142
▁eye	-9.9143
▁Joe	-9.91436
▁biolog	-9.91471
▁Dis	-9.91649
▁cook	-9.91706
ak	-9.9177
present	-9.91803
▁associate	-9.91824
▁statement	-9.91893
press	-9.91961
spect	-9.92014
nd	-9.92022
▁Mast	-9.92047
▁describe	-9.92066
▁code	-9.92132
W	-9.92156
ISO	-9.92217
▁Than	-9.9224
▁Green	-9.92249
niversit	-9.92252
▁soft	-9.92364
▁03	-9.92451
▁Regards	-9.92615
ble	-9.92619
eck	-9.92698
▁seat	-9.92809
▁War	-9.9283
▁normal	-9.93234
force	-9.9331
▁Accord	-9.93421
▁accord	-9.93448
▁Mann	-9.93488
▁vi	-9.94013
animals	-9.94166
▁pair	-9.94308
▁command	-9.94396
▁Tho	-9.94561
▁transact	-9.9465
cent	-9.94744
▁cancel	-9.94808
HAT	-9.94878
▁Jap	-9.94901
▁register	-9.94941
▁identity	-9.94942
▁forget	-9.95003
▁judge	-9.95006
▁owner	-9.95044
▁terrorist	-9.95075
▁kids	-9.95115
▁difference	-9.9514
▁Scott	-9.95196
▁Fort	-9.95614
▁appropriate	-9.95635
▁option	-9.95742
▁Br	-9.95911
)	-9.95971
*	-9.96133
whil	-9.96194
▁Stan	-9.96291
▁meal	-9.96594
▁City	-9.96625
▁Ji	-9.9674
▁norm	-9.96868
▁challenge	-9.97378
▁Curren	-9.97719
light	-9.97719
▁fan	-9.97934
pite	-9.97954
▁mentioned	-9.9803
DP	-9.98114
▁Vi	-9.98374
84	-9.98415
aine	-9.98463
▁contain	-9.98561
▁Court	-9.98612
▁Count	-9.9867
▁Sup	-9.98755
▁Mi	-9.98929
reme	-9.98952
▁Tor	-9.98962
take	-9.99002
ternational	-9.99057
▁Gregg	-9.99108
▁Samuel	-9.99108
▁Shackleton	-9.99108
▁glad	-9.99108
▁purpose	-9.99108
▁regime	-9.99108
▁ticket	-9.99108
▁William	-9.99108
▁imagin	-9.99108
▁situation	-9.99108
▁Beatle	-9.99108
beauty	-9.99108
▁constant	-9.99108
▁destroy	-9.99108
▁folk	-9.99109
▁candidate	-9.9911
▁Robert	-9.99111
▁gift	-9.99111
▁Order	-9.99111
▁block	-9.99112
▁soldier	-9.99113
▁greet	-9.99117
▁rare	-9.99122
mar	-9.99127
▁immediate	-9.99128
▁bank	-9.9913
▁guest	-9.99134
▁college	-9.99139
▁modern	-9.99141
▁Final	-9.99144
▁crap	-9.99156
▁Japan	-9.99173
▁click	-9.99177
▁Q	-9.99197
▁More	-9.99225
▁Fall	-9.99241
ibald	-9.9925
▁operation	-9.99272
rza	-9.99275
▁Oh	-9.99294
▁assign	-9.99304
▁estimate	-9.99304
▁equip	-9.99314
▁invest	-9.99328
▁yell	-9.99367
EO	-9.99376
▁prove	-9.9938
▁Free	-9.99414
▁amazing	-9.99422
▁Senat	-9.99437
furniture	-9.9945
▁Try	-9.99452
pa	-9.99474
SE	-9.99511
▁screen	-9.99583
▁season	-9.99591
▁throw	-9.99599
▁Stat	-9.99637
▁avoid	-9.99707
▁09	-9.99752
MENT	-9.99768
act	-9.99778
▁fire	-9.99813
▁earn	-9.99889
▁manager	-9.99901
▁evident	-9.99905
▁plus	-9.99907
▁23	-9.99946
▁Tom	-9.99957
▁Never	-10.0008
▁Inc	-10.0022
▁touch	-10.0024
ster	-10.0027
▁inside	-10.0038
▁=	-10.0042
▁audi	-10.0049
693	-10.005
story	-10.0059
▁Bin	-10.006
ai	-10.0061
▁port	-10.0071
▁plast	-10.0091
▁yes	-10.0104
▁wine	-10.0105
▁Wint	-10.0105
lo	-10.0105
▁achieve	-10.0121
ls	-10.0129
U	-10.0158
ami	-10.017
UT	-10.018
inner	-10.0185
▁repeat	-10.0189
race	-10.0199
RA	-10.0205
▁goal	-10.0225
am	-10.0241
▁500	-10.0247
▁Ya	-10.0252
onto	-10.0272
q	-10.0279
▁opportun	-10.0281
▁foreign	-10.0291
lia	-10.0292
j	-10.0302
25	-10.0337
▁revise	-10.0346
▁Bl	-10.0347
▁standard	-10.0352
ko	-10.0355
▁Make	-10.0357
▁Down	-10.0361
▁research	-10.0367
▁Love	-10.0372
▁degree	-10.0375
▁reduce	-10.0399
▁centre	-10.0415
rch	-10.0418
LS	-10.0475
▁Net	-10.0483
move	-10.0488
ub	-10.0498
cut	-10.0505
board	-10.0506
▁according	-10.0511
▁Sal	-10.0526
▁''	-10.0537
▁none	-10.0547
▁Don	-10.0557
▁fat	-10.0561
▁countr	-10.0569
ondad	-10.0576
▁heart	-10.0654
▁occasion	-10.0654
hat	-10.0659
48	-10.0661
▁invoice	-10.0669
▁Web	-10.0673
ide	-10.0673
▁u	-10.0682
▁suppl	-10.0717
our	-10.0728
▁engine	-10.0744
chedule	-10.0766
▁Quest	-10.0777
▁depart	-10.079
▁Ahm	-10.0799
▁delicious	-10.08
▁material	-10.08
▁occup	-10.08
▁oppose	-10.08
▁recipient	-10.08
▁Cindy	-10.08
▁floor	-10.08
▁machine	-10.08
▁terribl	-10.08
▁demand	-10.08
▁Brazil	-10.08
▁title	-10.08
▁location	-10.08
▁parakeet	-10.08
▁dirt	-10.0801
▁analysis	-10.0801
▁task	-10.0801
▁moral	-10.0801
ford	-10.0801
▁delete	-10.0802
▁variet	-10.0802
▁conflict	-10.0802
▁Linda	-10.0803
▁melt	-10.0804
▁element	-10.0804
▁curve	-10.0805
▁800	-10.081
▁escap	-10.0811
▁Worth	-10.0811
▁guarantee	-10.0811
▁crew	-10.0813
▁manual	-10.0816
▁Leon	-10.0818
▁Global	-10.0821
▁video	-10.0822
▁Put	-10.0823
▁camp	-10.0824
▁fantas	-10.0824
▁lesson	-10.0827
▁red	-10.0828
▁cake	-10.0833
▁song	-10.0835
▁cold	-10.0835
ujah	-10.0837
▁scare	-10.0838
▁compare	-10.0839
▁Dun	-10.0844
/30/200	-10.0845
▁mouth	-10.085
▁nor	-10.0852
▁wall	-10.0855
▁billion	-10.0856
▁anyway	-10.0856
▁breath	-10.0858
▁cent	-10.0868
and	-10.0873
▁reported	-10.0877
▁content	-10.0878
▁plane	-10.088
▁Jam	-10.0883
▁ex	-10.0899
▁Cher	-10.0901
evil	-10.0906
pe	-10.0906
400	-10.091
▁damage	-10.0916
ujai	-10.0931
▁Jones	-10.0936
▁Arm	-10.0937
▁pool	-10.0938
Executive	-10.0953
ina	-10.0972
▁Hell	-10.0975
▁dish	-10.098
ull	-10.0989
9/11	-10.1002
by	-10.1026
▁ear	-10.1028
▁mom	-10.1035
34	-10.1047
▁Pho	-10.1051
▁formal	-10.1074
▁spe	-10.1103
▁---	-10.1119
▁graduate	-10.113
▁traffic	-10.1133
▁En	-10.1137
rest	-10.1151
lid	-10.1199
▁gu	-10.1204
▁Hat	-10.1209
far	-10.1223
▁suppose	-10.1233
wave	-10.1237
ify	-10.1242
▁Mom	-10.1271
▁percent	-10.1274
fortun	-10.1276
▁alternate	-10.1276
▁intelligen	-10.1277
▁chicken	-10.128
▁dominate	-10.1287
▁bed	-10.1288
▁efficient	-10.1293
▁Cent	-10.1298
▁noise	-10.13
▁char	-10.1302
ast	-10.1308
▁connection	-10.1313
▁management	-10.1326
▁development	-10.1338
▁dine	-10.1339
▁breed	-10.1343
ug	-10.1348
olf	-10.1358
LE	-10.1363
▁rid	-10.1363
▁structure	-10.1364
ities	-10.1384
▁Centr	-10.1394
▁spokes	-10.1406
▁du	-10.1424
▁Wi	-10.143
▁mess	-10.1432
ME	-10.1437
▁fo	-10.1441
eel	-10.1452
load	-10.1471
Z	-10.1474
ium	-10.1498
ground	-10.15
▁Ame	-10.1511
▁conclude	-10.1544
▁75	-10.1556
ex	-10.1559
▁ME	-10.1563
▁pipe	-10.1564
▁del	-10.1576
▁Give	-10.1576
▁beat	-10.1584
▁broke	-10.1592
tain	-10.1593
▁alt	-10.1594
▁Je	-10.1599
▁bra	-10.1615
14	-10.1623
AT	-10.1628
he	-10.1631
▁leader	-10.1633
▁60	-10.1638
▁mode	-10.1658
top	-10.1659
▁Mexic	-10.1689
▁hearing	-10.1693
▁Harr	-10.1695
AVE	-10.1707
fy	-10.1746
▁Hol	-10.1749
▁Act	-10.175
▁ignore	-10.1755
▁clim	-10.1761
▁coup	-10.1762
▁gra	-10.1763
▁inform	-10.1764
mart	-10.1764
redit	-10.1767
▁positi	-10.1769
VERY	-10.177
aat	-10.177
▁Excel	-10.1771
▁cabin	-10.1775
▁Corp	-10.1775
▁super	-10.1776
▁GOOD	-10.1776
****************	-10.1776
▁Australia	-10.1776
▁Baghdad	-10.1776
▁England	-10.1776
▁Spring	-10.1776
▁approach	-10.1776
▁expose	-10.1776
▁publish	-10.1776
▁vehicle	-10.1776
▁apparent	-10.1776
▁daughter	-10.1776
▁regret	-10.1776
▁method	-10.1776
▁familiar	-10.1776
▁brief	-10.1776
▁marri	-10.1776
▁disaster	-10.1776
▁magic	-10.1777
▁Saudi	-10.1777
▁mechanic	-10.1777
▁missile	-10.1777
▁Ferr	-10.1777
▁Republic	-10.1778
▁Food	-10.1778
▁coast	-10.1778
▁Kev	-10.1778
▁partner	-10.1778
▁centur	-10.1778
▁activities	-10.1778
▁Congress	-10.1779
▁Sharon	-10.1779
▁drill	-10.1779
▁Robin	-10.1779
▁Port	-10.178
▁flat	-10.178
courage	-10.178
▁blank	-10.1781
▁Check	-10.1781
▁Deb	-10.1781
▁rough	-10.1783
▁anti	-10.1783
▁equal	-10.1784
▁Market	-10.1784
▁populate	-10.1784
UST	-10.1786
▁mountain	-10.1786
▁5:00	-10.1791
WAY	-10.1795
▁violen	-10.18
▁summ	-10.1801
▁FOR	-10.1801
▁frequent	-10.1802
▁update	-10.1803
▁300	-10.1804
▁Suf	-10.1805
▁welcome	-10.1805
▁tight	-10.181
▁trot	-10.1814
rs	-10.1816
▁finding	-10.1821
TH	-10.1826
org	-10.1829
▁attorney	-10.1849
/28/200	-10.1852
aba	-10.1856
/26/200	-10.1861
▁draw	-10.1863
▁lock	-10.1863
▁Arc	-10.1864
▁28	-10.1869
▁Ne	-10.188
▁Unit	-10.1881
▁hate	-10.1889
04	-10.1905
▁educate	-10.1911
▁sp	-10.1913
▁Counter	-10.1922
▁TW	-10.1931
▁spring	-10.1931
▁gun	-10.1932
▁PS	-10.1938
02	-10.1939
THERE	-10.1941
▁ray	-10.1949
▁blog	-10.1958
uke	-10.196
church	-10.1967
▁sales	-10.1969
▁appoint	-10.1973
▁Table	-10.1977
vestigate	-10.1982
▁mother	-10.1984
OW	-10.1988
▁sur	-10.1999
nnon	-10.2002
tty	-10.2014
▁communicate	-10.2028
entity	-10.2035
▁cast	-10.2052
▁Pa	-10.2078
▁Ital	-10.2084
rape	-10.2103
▁prim	-10.2114
▁ver	-10.2137
rancisco	-10.2138
▁trad	-10.2162
▁Vic	-10.2193
▁tool	-10.2204
▁expens	-10.2208
ay	-10.2229
75	-10.2247
lah	-10.2264
▁object	-10.2272
▁express	-10.2272
▁Bal	-10.2274
▁function	-10.2283
▁drag	-10.23
▁student	-10.2303
▁double	-10.2303
▁application	-10.2303
▁decision	-10.2303
▁decade	-10.2304
▁Judge	-10.2304
▁lap	-10.2305
▁deca	-10.2305
muse	-10.2309
DC	-10.2312
▁International	-10.2312
▁writ	-10.232
▁reference	-10.2323
rd	-10.2324
unni	-10.2341
▁II	-10.2348
▁Harris	-10.2351
▁requirement	-10.2354
▁Real	-10.2356
▁Email	-10.2358
▁opportunit	-10.2381
ax	-10.2384
me	-10.2399
lines	-10.2417
?	-10.2448
AS	-10.2452
▁Could	-10.2455
▁Bu	-10.2463
▁reconcili	-10.2464
tee	-10.2471
▁31	-10.2471
ik	-10.2491
!	-10.2505
source	-10.2546
ball	-10.2556
ncy	-10.2558
▁Da	-10.2561
▁share	-10.2562
call	-10.2565
▁reviews	-10.2568
what	-10.2571
ean	-10.2579
▁dut	-10.2587
par	-10.2588
2/200	-10.2613
graph	-10.2623
CE	-10.2653
▁influ	-10.2656
▁03/0	-10.2664
▁King	-10.2677
▁Val	-10.2687
_______________	-10.2699
per	-10.2713
orea	-10.2714
ounterpart	-10.2751
LOP	-10.276
▁ta	-10.2796
▁Services	-10.2797
▁???	-10.2816
▁blu	-10.2828
▁Kha	-10.2829
aught	-10.284
▁occur	-10.2845
▁compute	-10.2847
▁Palestin	-10.2854
▁Chicago	-10.2858
▁Hussein	-10.2858
▁Stephanie	-10.2858
▁Zealand	-10.2858
▁beautiful	-10.2858
▁incredibl	-10.2858
▁organization	-10.2858
▁sandwich	-10.2858
▁similar	-10.2858
▁stupid	-10.2858
▁sympath	-10.2858
▁temperature	-10.2858
▁transmit	-10.2858
▁vacate	-10.2858
▁vomit	-10.2858
▁Administrat	-10.2858
▁convict	-10.2858
▁gender	-10.2858
▁intercept	-10.2858
▁EnronOn	-10.2858
▁LLC	-10.2858
▁blind	-10.2858
▁troop	-10.2858
▁Essie	-10.2858
▁Warwick	-10.2858
▁affair	-10.2858
▁session	-10.2858
▁warrant	-10.2858
▁recruit	-10.2858
▁Parent	-10.2858
rote	-10.2858
▁premium	-10.2858
▁FYI	-10.2858
▁install	-10.2859
▁spray	-10.2859
▁invent	-10.2859
▁petrol	-10.2859
▁priv	-10.2859
▁false	-10.2859
▁doubt	-10.2859
labi	-10.2859
▁shut	-10.2859
▁Jason	-10.286
▁unique	-10.286
▁mouse	-10.286
▁slice	-10.286
▁Y	-10.286
▁grant	-10.2861
▁trail	-10.2861
▁Compan	-10.2861
▁resume	-10.2862
▁Tana	-10.2862
▁capture	-10.2862
▁fuel	-10.2862
▁path	-10.2864
▁Jose	-10.2866
▁trick	-10.2866
bility	-10.2867
▁Confer	-10.2868
▁computer	-10.2869
treet	-10.287
▁Color	-10.287
▁extend	-10.2874
▁loss	-10.2875
▁wild	-10.288
▁Rho	-10.2883
▁admit	-10.2883
▁bath	-10.2888
▁diplomat	-10.2889
▁Khan	-10.2893
▁07/1	-10.2894
▁rent	-10.2902
▁cell	-10.2904
▁Sit	-10.291
▁movie	-10.2916
ubject	-10.2918
▁bott	-10.2918
TC	-10.2921
▁Pakistani	-10.294
▁Part	-10.2941
rick	-10.2944
▁10:	-10.2956
▁sight	-10.2968
▁suggestion	-10.298
ERC	-10.2984
▁196	-10.2991
81	-10.2996
▁Jane	-10.3008
EVE	-10.3013
▁Pay	-10.3016
▁ran	-10.3019
▁stream	-10.3025
▁Sta	-10.3027
▁Har	-10.3029
▁Pre	-10.3031
BC	-10.3032
▁Blu	-10.3041
rew	-10.3075
▁original	-10.3077
▁Far	-10.3078
▁ha	-10.3086
44	-10.3108
▁paint	-10.3112
▁BE	-10.3136
▁po	-10.3151
ab	-10.3152
▁serv	-10.3165
▁156	-10.3166
▁west	-10.3169
--------------	-10.317
▁Wal	-10.3172
▁Ro	-10.3188
la	-10.3207
▁Base	-10.3212
▁tow	-10.322
▁define	-10.3225
explore	-10.3225
▁Associate	-10.3234
▁Mid	-10.3242
▁Ave	-10.328
▁proceed	-10.3284
SM	-10.3286
DT	-10.3293
▁German	-10.3303
night	-10.3305
▁Con	-10.332
10	-10.3326
▁nav	-10.3334
▁AT	-10.3338
▁Non	-10.3356
kin	-10.3386
▁hell	-10.3423
ool	-10.343
▁Las	-10.3432
▁gene	-10.3435
▁detect	-10.3436
telligence	-10.3437
▁behavio	-10.3446
▁accuse	-10.3447
▁financial	-10.3447
▁moderate	-10.3447
▁basic	-10.3448
▁Satan	-10.3449
▁score	-10.345
▁brain	-10.3454
gie	-10.3457
▁flight	-10.3459
32	-10.3465
▁repair	-10.3476
▁sh	-10.3487
▁supposed	-10.3501
▁fi	-10.3529
▁critic	-10.3552
▁Ni	-10.3582
▁pop	-10.3585
gain	-10.3633
aman	-10.3635
▁cu	-10.3637
▁award	-10.3642
▁CO	-10.3646
▁pleas	-10.3665
ount	-10.3688
▁impos	-10.3704
▁EE	-10.3718
con	-10.3734
▁Hu	-10.3737
bit	-10.3737
▁commun	-10.3748
ager	-10.377
▁str	-10.3772
risk	-10.3778
word	-10.378
fill	-10.379
mind	-10.3792
▁08	-10.38
▁depend	-10.3803
how	-10.3804
BA	-10.3805
▁rely	-10.3809
ustin	-10.3817
▁chang	-10.3817
▁Aa	-10.3822
▁Trade	-10.3828
bar	-10.3829
II	-10.3842
mark	-10.3854
▁handle	-10.3861
ona	-10.3864
▁refus	-10.3864
HERE	-10.3868
▁USA	-10.3872
▁wol	-10.3898
AD	-10.3899
like	-10.39
95	-10.3901
row	-10.3921
ze	-10.3935
▁Fed	-10.3939
▁statu	-10.3976
▁Er	-10.3981
▁MY	-10.3984
08	-10.4002
▁convince	-10.4007
▁Ar	-10.401
▁na	-10.402
▁Davi	-10.4029
▁shed	-10.4032
have	-10.4037
▁Glob	-10.4042
▁impress	-10.4043
▁Phil	-10.4049
▁god	-10.4052
nais	-10.4054
venue	-10.4054
stern	-10.4055
VB	-10.406
▁comfortabl	-10.4063
▁grab	-10.4065
▁lab	-10.4065
▁music	-10.4071
ceipt	-10.4071
▁Develop	-10.4071
▁FOOD	-10.4071
▁Katrina	-10.4071
▁citizen	-10.4071
▁helicopter	-10.4071
▁hundred	-10.4071
▁privilege	-10.4071
▁quiet	-10.4071
▁smooth	-10.4071
▁Tamil	-10.4071
▁Yellow	-10.4071
▁compassion	-10.4071
▁expand	-10.4071
▁obtain	-10.4071
▁straight	-10.4071
▁submit	-10.4071
▁substance	-10.4071
▁literal	-10.4071
▁stick	-10.4071
▁vacation	-10.4071
▁River	-10.4071
▁chef	-10.4071
▁feature	-10.4071
▁switch	-10.4071
▁bowl	-10.4071
sequent	-10.4072
▁11/29/	-10.4072
▁complex	-10.4072
gimp	-10.4072
▁deserve	-10.4072
▁liquid	-10.4072
▁Gerry	-10.4072
▁Second	-10.4072
▁Cafe	-10.4072
▁prompt	-10.4072
▁Molly	-10.4072
▁Imagin	-10.4072
▁arrest	-10.4072
▁Declar	-10.4072
▁Leban	-10.4072
▁minor	-10.4072
▁green	-10.4072
▁Martin	-10.4072
▁delay	-10.4072
▁Kyle	-10.4072
▁hamster	-10.4072
▁split	-10.4073
▁Prim	-10.4073
▁Job	-10.4073
▁Float	-10.4073
▁role	-10.4073
▁Rick	-10.4073
▁Front	-10.4073
▁Sheikh	-10.4073
▁Hotel	-10.4074
▁calm	-10.4074
▁enem	-10.4074
erchant	-10.4074
▁seven	-10.4074
▁salad	-10.4075
▁Depart	-10.4075
▁numero	-10.4076
▁Balance	-10.4076
▁putt	-10.4076
▁1999	-10.4077
▁vast	-10.4077
▁dai	-10.4077
▁chief	-10.4079
▁facilit	-10.408
▁Atlant	-10.4083
▁brother	-10.4086
▁serie	-10.4088
▁shape	-10.4089
▁appointment	-10.409
▁technical	-10.4092
▁department	-10.4092
▁Pass	-10.4094
67	-10.4095
▁Minist	-10.4095
▁Nick	-10.4095
▁stage	-10.4098
▁match	-10.41
▁bulb	-10.4101
▁1000	-10.4103
OUL	-10.4104
▁Island	-10.4105
▁asset	-10.4106
▁Rice	-10.411
▁heave	-10.4114
▁40	-10.412
▁Defen	-10.4127
lub	-10.4134
arian	-10.4137
▁rich	-10.4141
tra	-10.4148
▁format	-10.4153
▁Plu	-10.4158
______________	-10.416
▁urin	-10.4161
fia	-10.4172
▁Edi	-10.4175
▁reward	-10.4176
▁val	-10.4179
na	-10.4193
▁46	-10.4199
ily	-10.4201
▁Ku	-10.4211
▁heel	-10.4211
▁nine	-10.4212
▁negotiate	-10.4221
OM	-10.4222
▁boat	-10.4222
▁broad	-10.4223
▁Medic	-10.4228
▁smoke	-10.423
asse	-10.4236
27	-10.4248
▁Hal	-10.425
gua	-10.4255
▁field	-10.426
▁medi	-10.4263
▁Live	-10.4267
03	-10.4282
▁Anne	-10.4283
/10/200	-10.4292
▁summar	-10.4298
▁officer	-10.4304
▁initiate	-10.4304
▁aspect	-10.4315
ger	-10.4324
▁round	-10.4327
▁driv	-10.4342
ni	-10.4354
▁police	-10.4367
HR	-10.4376
▁creat	-10.4379
ir	-10.4388
▁improve	-10.4391
ESS	-10.4392
▁online	-10.4393
▁replace	-10.4396
▁coal	-10.4406
▁nest	-10.4415
nger	-10.4418
care	-10.4452
▁king	-10.4463
▁handl	-10.4463
▁load	-10.4465
▁gold	-10.4475
▁Patric	-10.4487
▁Jo	-10.449
▁Sue	-10.4514
.5	-10.453
▁acquire	-10.4537
ino	-10.4538
▁assassin	-10.4566
▁sat	-10.4576
the	-10.4588
▁targe	-10.4603
▁gar	-10.4605
▁mate	-10.4606
▁beginn	-10.4627
▁allocate	-10.4627
que	-10.4636
▁assure	-10.4637
mmer	-10.4637
▁bother	-10.4646
000	-10.4647
▁Ch	-10.4648
▁leav	-10.4651
ng	-10.4653
▁Franc	-10.466
▁Mu	-10.4661
▁---------	-10.4683
▁invit	-10.4684
▁Walk	-10.4687
▁weigh	-10.4689
▁IP	-10.4689
ez	-10.4693
▁teach	-10.4722
aurie	-10.4723
0,000	-10.4724
▁environ	-10.4726
▁convers	-10.4727
▁giv	-10.473
▁WITH	-10.4738
▁STEP	-10.4738
▁incite	-10.4738
▁loose	-10.4738
xcellent	-10.4739
▁Under	-10.4739
▁deposit	-10.4739
eep	-10.474
▁forgot	-10.474
▁LOVE	-10.4741
▁potent	-10.4742
▁urge	-10.4742
▁Shiite	-10.4742
▁popular	-10.4743
▁science	-10.4743
▁Silkie	-10.4749
▁conversation	-10.4749
▁multiple	-10.4757
-1.	-10.4759
▁edit	-10.4762
VA	-10.4764
▁Wil	-10.4764
▁effective	-10.4765
ang	-10.4778
▁Nice	-10.4788
▁mere	-10.4794
ill	-10.4795
incident	-10.4799
▁clothe	-10.4828
6-1.	-10.4829
▁mission	-10.4841
SA	-10.4848
NT	-10.486
▁generat	-10.4875
▁Pow	-10.4875
iring	-10.4879
▁target	-10.4879
▁Deal	-10.4899
▁eliminate	-10.4907
66	-10.4926
▁Mont	-10.4933
▁conc	-10.4941
28	-10.4953
▁ten	-10.4967
▁discussion	-10.4973
▁brea	-10.4974
▁ja	-10.4985
▁Too	-10.4997
sex	-10.5006
abilit	-10.5008
▁Col	-10.5019
SI	-10.503
finite	-10.5034
ague	-10.5035
ility	-10.5045
▁freez	-10.5046
▁Fri	-10.5049
CH	-10.5049
▁mix	-10.5068
▁Z	-10.5102
war	-10.5112
,	-10.5116
craft	-10.5148
appoint	-10.5151
Q	-10.5155
sheet	-10.5156
▁ti	-10.5156
limit	-10.5157
▁pot	-10.5167
guy	-10.5201
69	-10.5202
▁br	-10.5206
tro	-10.5227
lace	-10.523
▁gr	-10.524
▁accident	-10.5242
nc	-10.5249
▁Jer	-10.5252
▁releas	-10.5263
________________	-10.5266
right	-10.5276
bodi	-10.5277
▁gallo	-10.5277
▁Gar	-10.5277
7/200	-10.5284
▁announce	-10.5295
▁10/2	-10.5296
mp	-10.5297
ccess	-10.5305
79	-10.5309
▁eviden	-10.5315
▁popul	-10.5327
▁Chan	-10.5365
▁pink	-10.5366
▁Use	-10.5376
ttle	-10.539
▁physic	-10.5408
▁allege	-10.541
▁rock	-10.541
▁forth	-10.5426
ek	-10.5429
ola	-10.5433
▁McCa	-10.5435
▁ban	-10.5441
▁consist	-10.5446
taff	-10.5451
▁pup	-10.5451
▁confident	-10.5451
ILL	-10.5452
▁Dasovich	-10.5452
▁Estimate	-10.5452
▁Jordan	-10.5452
▁alternative	-10.5452
▁cooperat	-10.5452
▁favour	-10.5452
▁routine	-10.5452
▁section	-10.5452
▁volume	-10.5452
▁license	-10.5452
▁Doctor	-10.5452
▁Picture	-10.5452
▁mutual	-10.5452
▁guilt	-10.5452
▁milk	-10.5452
▁Wonder	-10.5452
▁flood	-10.5452
▁Family	-10.5452
▁sponsor	-10.5452
▁Bank	-10.5452
▁surface	-10.5452
▁shoe	-10.5452
▁rush	-10.5452
▁compensat	-10.5452
▁debt	-10.5453
▁minister	-10.5453
▁branch	-10.5453
▁pledge	-10.5453
▁stress	-10.5453
rtney	-10.5453
ncil	-10.5453
▁dating	-10.5453
▁impact	-10.5453
▁Metro	-10.5453
▁bathroom	-10.5454
▁Transact	-10.5454
▁studio	-10.5454
▁Jack	-10.5454
▁yoga	-10.5454
▁Wood	-10.5454
▁categor	-10.5454
▁compress	-10.5454
berta	-10.5454
▁Analysis	-10.5454
▁gear	-10.5454
▁Rock	-10.5454
▁barrel	-10.5454
▁commission	-10.5454
▁Corporat	-10.5454
corp	-10.5455
▁1980	-10.5455
stair	-10.5455
▁honor	-10.5455
ISCO	-10.5455
▁seize	-10.5455
▁harm	-10.5455
▁Camp	-10.5455
91	-10.5455
▁screw	-10.5455
▁grip	-10.5455
▁Special	-10.5456
▁counsel	-10.5456
▁Rude	-10.5456
▁education	-10.5456
▁cheek	-10.5456
▁gross	-10.5456
▁Edward	-10.5457
▁provision	-10.5457
▁pub	-10.5457
▁Board	-10.5458
▁Palestinian	-10.5458
▁favorite	-10.5458
▁spiritual	-10.5458
▁Carn	-10.5458
▁**	-10.5459
▁chee	-10.546
▁Park	-10.5461
▁pig	-10.5461
▁hire	-10.5461
▁bull	-10.5461
▁population	-10.5463
▁virtual	-10.5464
▁200,000	-10.5466
▁Anton	-10.5467
ventur	-10.5469
▁attract	-10.5471
▁Talk	-10.5471
▁pa	-10.5472
▁tame	-10.5472
cc	-10.5476
▁lb	-10.5477
▁Brita	-10.5479
▁hole	-10.5479
▁gather	-10.548
▁dust	-10.5483
YN	-10.5484
▁dro	-10.5485
byl	-10.5486
▁EC	-10.5487
▁religion	-10.5487
▁laugh	-10.5488
▁:(	-10.549
▁Force	-10.5491
▁Fish	-10.5491
enos	-10.5492
▁insur	-10.5493
▁suck	-10.5494
▁GM	-10.5497
▁physical	-10.5497
▁Ram	-10.5498
▁Today	-10.5499
▁embarrass	-10.55
sonic	-10.5512
▁climb	-10.5523
▁construct	-10.5524
▁crowd	-10.5532
▁phase	-10.5532
▁route	-10.5532
▁injure	-10.5533
udi	-10.5547
▁strik	-10.5551
lena	-10.5553
▁amend	-10.5554
CA	-10.5556
▁explode	-10.5576
ushi	-10.5578
ame	-10.5579
TA	-10.5579
▁guard	-10.5581
▁Kenne	-10.5584
▁competiti	-10.5584
iff	-10.5592
▁sw	-10.5593
▁Mou	-10.5597
▁factor	-10.5609
LEAS	-10.5616
House	-10.563
orie	-10.5631
▁wind	-10.5632
▁arrange	-10.5639
▁Ve	-10.5642
▁prepared	-10.5643
und	-10.5643
OT	-10.5651
▁easi	-10.5655
▁AL	-10.5672
awa	-10.5673
fast	-10.5691
map	-10.5696
▁lose	-10.5699
ron	-10.5701
▁Nam	-10.5703
▁Dent	-10.5705
▁tent	-10.5721
▁65	-10.573
▁burn	-10.5737
tta	-10.5739
▁bigge	-10.5752
19	-10.5753
▁pric	-10.5757
▁national	-10.576
▁que	-10.578
▁Red	-10.5793
▁numbers	-10.5795
ga	-10.58
eau	-10.5805
▁ba	-10.5812
Read	-10.5812
bos	-10.5854
are	-10.5856
▁desire	-10.5863
AN	-10.5873
▁Hot	-10.5875
▁realize	-10.5878
sump	-10.5884
▁Sand	-10.5901
▁excite	-10.5903
▁hall	-10.5907
▁building	-10.591
▁bio	-10.592
▁ball	-10.5921
▁nerv	-10.5922
▁70	-10.5926
▁Hug	-10.5937
▁Got	-10.5939
▁aid	-10.5941
▁Out	-10.5946
ura	-10.5983
▁survive	-10.6009
72	-10.6019
▁12:	-10.6051
▁arriv	-10.606
ile	-10.607
▁Los	-10.6078
▁Note	-10.6079
sort	-10.6101
▁litter	-10.6107
zu	-10.6117
▁distribute	-10.6117
▁remov	-10.6122
▁Pl	-10.6136
llis	-10.6147
oke	-10.6148
▁sen	-10.6153
700	-10.6167
▁SO	-10.6172
▁beard	-10.6181
ternet	-10.6188
▁fundament	-10.6191
▁Travel	-10.6192
▁techno	-10.6194
▁bras	-10.6197
▁multi	-10.6199
uff	-10.6205
▁Direct	-10.6212
▁Manage	-10.6215
▁Canad	-10.6217
▁Columb	-10.622
▁neighbour	-10.6221
▁accurate	-10.6222
▁plot	-10.6222
▁hesitat	-10.6222
▁Rome	-10.6222
▁Friend	-10.6223
▁REAL	-10.6224
▁approximate	-10.6226
▁potential	-10.6226
▁Provide	-10.6226
▁RAP	-10.6227
▁Mail	-10.6227
▁Law	-10.6237
▁41	-10.6237
▁Ten	-10.6237
▁joke	-10.6241
▁technolog	-10.6249
nan	-10.6264
▁ALL	-10.6275
▁Coa	-10.6275
▁copie	-10.6276
▁Ball	-10.6278
▁Chin	-10.6284
IG	-10.6287
ane	-10.6288
▁cur	-10.6305
▁sky	-10.6308
▁regulate	-10.6309
▁Suss	-10.631
▁rise	-10.6311
dge	-10.6316
:32	-10.6323
IR	-10.6329
85	-10.6347
▁wake	-10.6356
▁Google	-10.6381
van	-10.6396
▁dam	-10.6417
▁Se	-10.6417
▁democrat	-10.6419
▁rede	-10.6435
SHE	-10.6442
lick	-10.6445
▁01/1	-10.6449
1:00	-10.6455
ssa	-10.6459
oxi	-10.6477
33	-10.6495
mb	-10.6503
▁Lo	-10.6521
▁According	-10.6526
▁comp	-10.6541
▁wear	-10.655
▁gri	-10.6581
▁contribute	-10.6609
▁lase	-10.6611
mith	-10.6616
▁COM	-10.6623
▁aim	-10.6623
bout	-10.6629
tie	-10.6633
▁horses	-10.6637
▁communicat	-10.6651
▁vari	-10.6669
30	-10.6683
▁sample	-10.6703
▁spa	-10.6704
▁weight	-10.6705
migrate	-10.6711
inea	-10.6717
▁Para	-10.6722
came	-10.6767
▁consume	-10.6768
burn	-10.677
HA	-10.6771
bon	-10.6774
▁Execut	-10.6776
▁confuse	-10.6781
▁introduce	-10.6783
▁operat	-10.6785
life	-10.6786
bor	-10.6805
usual	-10.681
killed	-10.6818
65	-10.6825
▁bake	-10.6829
hief	-10.6832
min	-10.6838
laba	-10.6859
▁cure	-10.6887
▁Ay	-10.6893
do	-10.6898
▁release	-10.6907
,500	-10.6926
cial	-10.6933
8/200	-10.6941
▁Os	-10.695
▁injur	-10.6963
▁appli	-10.6974
ac	-10.6976
▁capa	-10.7002
oui	-10.7002
▁pho	-10.7003
gue	-10.7005
gh	-10.7022
rongs	-10.7037
▁lov	-10.7038
▁PA	-10.7039
▁Settle	-10.704
ontinue	-10.7042
ontrol	-10.7042
▁Earth	-10.7042
ountain	-10.7043
▁li	-10.7048
ompaq	-10.7048
door	-10.7049
▁Fe	-10.705
rovince	-10.7052
===	-10.7053
bul	-10.7054
KE	-10.7055
ippi	-10.7055
▁ARCHI	-10.7055
▁destruct	-10.7055
▁dismiss	-10.7055
▁evaluat	-10.7055
▁succeed	-10.7055
▁Absolute	-10.7055
▁Foreign	-10.7055
▁Richmond	-10.7055
▁SERVICE	-10.7055
▁System	-10.7055
▁Taiwan	-10.7055
▁character	-10.7055
▁demonstrate	-10.7055
▁devote	-10.7055
▁ingredient	-10.7055
▁migrant	-10.7055
▁pocket	-10.7055
▁rescue	-10.7055
▁ultimate	-10.7055
▁victim	-10.7055
▁victor	-10.7055
▁Conscious	-10.7055
▁TIME	-10.7055
▁knock	-10.7055
▁narrow	-10.7055
▁profit	-10.7055
▁circular	-10.7055
▁prize	-10.7055
▁steak	-10.7055
▁trash	-10.7055
▁farrier	-10.7055
▁flavor	-10.7055
delphi	-10.7055
▁!!!!!!	-10.7055
▁smell	-10.7055
▁trillion	-10.7055
▁exceed	-10.7055
3736	-10.7055
▁Barclay	-10.7055
▁blame	-10.7055
▁tactic	-10.7055
▁***	-10.7055
▁spawn	-10.7055
▁kitchen	-10.7055
▁_______	-10.7055
▁Comment	-10.7055
▁Secretary	-10.7055
▁alarm	-10.7055
▁dwarf	-10.7055
▁Grand	-10.7055
▁pursu	-10.7055
▁radical	-10.7055
▁conduct	-10.7055
▁Abdul	-10.7055
▁Liber	-10.7056
▁Ryan	-10.7056
▁Short	-10.7056
▁annoy	-10.7056
▁Parm	-10.7056
▁ruin	-10.7056
▁pump	-10.7056
▁defend	-10.7056
▁juic	-10.7056
▁curb	-10.7056
▁entertain	-10.7056
▁calendar	-10.7056
▁insult	-10.7056
▁cruel	-10.7056
ocol	-10.7057
▁discount	-10.7057
▁Titan	-10.7057
▁tradition	-10.7057
render	-10.7057
naut	-10.7057
▁Louisian	-10.7057
▁1,	-10.7057
▁instance	-10.7057
▁pound	-10.7058
▁disappoint	-10.7058
▁pray	-10.7058
mbali	-10.7058
▁Chair	-10.7058
html	-10.7058
▁Philip	-10.7058
▁Sometime	-10.7058
▁programme	-10.7059
▁oh	-10.7059
▁tip	-10.7059
▁bug	-10.706
▁chain	-10.706
▁neg	-10.706
eriod	-10.7061
▁rank	-10.7061
▁deny	-10.7061
▁protest	-10.7061
▁Recent	-10.7062
▁Italian	-10.7062
▁refund	-10.7062
▁Compaq	-10.7063
▁fellow	-10.7065
▁divers	-10.7065
▁insert	-10.7067
▁coz	-10.7067
▁Sound	-10.7067
▁package	-10.7068
▁Earl	-10.7069
▁Settlement	-10.707
▁responsibilit	-10.7072
▁Sir	-10.7072
▁club	-10.7074
▁Trust	-10.7074
▁Barb	-10.7075
ugh	-10.7075
▁Dale	-10.7076
▁pure	-10.7076
▁wound	-10.7076
▁Missi	-10.7077
▁Johnson	-10.7078
▁offend	-10.7079
▁mad	-10.708
▁remind	-10.708
fault	-10.7082
▁03/1	-10.7083
▁55	-10.7083
▁recall	-10.7084
▁Var	-10.7087
plain	-10.7087
▁Mean	-10.7089
▁Clin	-10.709
▁averag	-10.709
▁Brad	-10.7091
▁Care	-10.7091
▁reput	-10.7093
▁represent	-10.7094
gar	-10.7095
▁concept	-10.7095
▁Moslem	-10.7096
▁signature	-10.7096
now	-10.7097
▁strange	-10.7097
▁valid	-10.7098
▁consult	-10.7098
▁default	-10.7099
▁Add	-10.7099
kri	-10.71
▁travell	-10.7101
▁acupunctur	-10.7101
▁2:30	-10.7103
▁governor	-10.7104
mature	-10.7105
▁companies	-10.7106
▁?!	-10.7106
commercial	-10.7108
▁Question	-10.711
▁seal	-10.711
▁Hill	-10.7112
▁Kind	-10.7112
unt	-10.7114
▁convenient	-10.7115
▁pane	-10.7116
EPC	-10.7118
▁chap	-10.7122
▁chir	-10.7122
▁Gray	-10.7127
▁Persia	-10.7139
▁expectation	-10.714
oshi	-10.7145
▁cris	-10.7148
▁Jana	-10.7149
▁essential	-10.715
hman	-10.715
▁Light	-10.7151
LOI	-10.7156
▁fold	-10.7158
▁Super	-10.7161
▁Nav	-10.7166
pipeline	-10.7173
titude	-10.7173
asis	-10.7183
▁36	-10.7188
▁Bend	-10.7196
▁76	-10.72
▁driver	-10.72
▁talent	-10.7204
▁dial	-10.7206
▁supplie	-10.7211
▁LI	-10.7212
HING	-10.7213
▁active	-10.7215
▁movement	-10.722
▁Char	-10.7223
▁Jen	-10.7223
▁trader	-10.7224
▁Ris	-10.7224
lla	-10.7229
consumers	-10.7229
overt	-10.7232
▁Hub	-10.724
▁RI	-10.7242
▁visib	-10.7245
▁Medi	-10.7253
▁direction	-10.7254
▁Mill	-10.7271
▁Wild	-10.7293
▁writing	-10.7301
▁02	-10.7303
▁Bran	-10.7304
▁Clim	-10.7314
▁Pew	-10.7325
rude	-10.7329
▁Mil	-10.7333
▁planet	-10.7345
spot	-10.735
5/200	-10.7351
iya	-10.7352
TE	-10.7356
▁Age	-10.7374
▁expected	-10.7375
,000,000	-10.7384
▁Pat	-10.7404
lause	-10.7405
11	-10.7407
▁carri	-10.7412
vant	-10.7424
▁craft	-10.7425
▁ensure	-10.7426
▁Turk	-10.7426
16	-10.7428
▁committe	-10.7436
RC	-10.7439
igi	-10.7443
▁Sid	-10.7448
▁transactions	-10.7449
77	-10.7453
▁paste	-10.746
▁Bi	-10.748
enni	-10.7493
▁Min	-10.7502
▁PG	-10.7502
▁communit	-10.7506
▁Chi	-10.7516
▁Du	-10.7518
ator	-10.7525
▁Shann	-10.7539
▁Bro	-10.7546
▁sold	-10.7561
▁Ja	-10.7562
▁Mac	-10.7566
compete	-10.7573
▁par	-10.7576
▁rein	-10.7578
▁examine	-10.76
▁Ted	-10.761
lk	-10.7612
▁transaction	-10.7615
▁WHE	-10.7622
▁bombing	-10.7626
▁fam	-10.7631
▁11:0	-10.7632
▁Iron	-10.7635
▁meter	-10.7643
▁Cap	-10.7654
bondad	-10.766
▁ski	-10.7667
over	-10.7668
value	-10.767
paper	-10.7671
wide	-10.7674
ray	-10.7674
GE	-10.7677
▁iron	-10.7681
hold	-10.7699
cast	-10.7699
▁relat	-10.7701
▁SU	-10.7704
▁j	-10.7742
▁hur	-10.7743
29	-10.7761
ette	-10.7772
CO	-10.7776
nut	-10.778
raig	-10.7791
iness	-10.7794
▁opening	-10.7799
▁intent	-10.7806
35	-10.782
88	-10.7822
▁Analys	-10.7825
▁wan	-10.7842
▁east	-10.7844
oon	-10.7846
▁45	-10.7849
nglish	-10.7853
▁div	-10.7871
cal	-10.7879
▁apolog	-10.7892
ED	-10.7895
▁VI	-10.7898
05	-10.7903
▁WH	-10.7906
=	-10.7911
wn	-10.7911
ries	-10.7916
stitute	-10.7921
2001	-10.7929
47	-10.7935
▁GR	-10.7937
▁responsib	-10.7945
dan	-10.7954
▁belie	-10.7963
▁Argentin	-10.7964
▁Produce	-10.7964
▁Product	-10.7964
▁Program	-10.7964
▁approval	-10.7964
▁circulate	-10.7964
▁holiday	-10.7964
▁vegetable	-10.7964
▁deploy	-10.7964
▁central	-10.7964
▁Type	-10.7964
▁description	-10.7965
▁MOR	-10.7966
▁Columbia	-10.7966
▁lawyer	-10.7968
▁rec	-10.7969
▁invad	-10.797
▁Financ	-10.797
▁intern	-10.797
▁discover	-10.7971
▁bike	-10.7972
50	-10.7973
▁Christian	-10.7977
ronic	-10.7978
▁Roll	-10.7979
▁Unfortuna	-10.7981
▁activit	-10.7982
▁tourist	-10.7986
▁satani	-10.7987
▁capabilit	-10.7988
▁verif	-10.7996
▁author	-10.7997
▁insurgent	-10.7998
▁Up	-10.7999
▁abuse	-10.8009
94	-10.8011
▁Secur	-10.8014
▁tend	-10.8018
▁cloth	-10.8019
▁alleged	-10.8021
▁Li	-10.8025
▁util	-10.8025
▁Allow	-10.8034
him	-10.8045
▁sta	-10.8049
▁Has	-10.8051
▁integr	-10.8061
▁dropp	-10.807
▁chase	-10.8071
▁din	-10.8075
▁Cli	-10.809
▁recommended	-10.8103
▁Analyst	-10.8107
▁Thu	-10.8129
▁LA	-10.8138
▁Dea	-10.8139
▁revision	-10.8145
AU	-10.8154
▁cru	-10.8179
istic	-10.8181
▁mm	-10.8187
▁solve	-10.8188
era	-10.8191
▁Bad	-10.8194
▁rais	-10.8209
▁CR	-10.8218
▁34	-10.822
ev	-10.8234
▁sto	-10.8254
ace	-10.826
▁Cal	-10.8275
▁Need	-10.8275
ott	-10.8278
odge	-10.8294
▁repeated	-10.8308
▁90	-10.8309
ana	-10.8312
120	-10.8313
ense	-10.834
▁comb	-10.8352
▁rang	-10.8352
62	-10.8356
▁surrounding	-10.8361
dr	-10.8374
▁BA	-10.8375
1.	-10.8386
unch	-10.8386
▁ac	-10.8403
▁def	-10.842
▁GI	-10.846
▁33	-10.8469
ANT	-10.8482
ki	-10.8485
tire	-10.8493
astic	-10.8508
ham	-10.8513
▁WA	-10.853
▁coordinate	-10.8557
▁expire	-10.8558
▁sa	-10.8565
acy	-10.8581
hurch	-10.8585
mo	-10.8614
▁promote	-10.863
till	-10.8634
▁Bil	-10.8636
▁wash	-10.8661
put	-10.8661
field	-10.8664
stream	-10.8665
blog	-10.8666
Jones	-10.8668
box	-10.8669
▁observe	-10.867
power	-10.8672
code	-10.8672
legal	-10.8673
pool	-10.8673
CK	-10.8699
bow	-10.8703
rv	-10.8711
sai	-10.8738
ap	-10.8743
fall	-10.8747
▁Dub	-10.8767
▁Kee	-10.8772
▁negotiat	-10.8773
▁gener	-10.8785
coal	-10.8785
▁secret	-10.8788
ff	-10.8789
▁bankrupt	-10.879
ttorney	-10.8816
▁sl	-10.8818
09	-10.8831
▁curren	-10.8831
ple	-10.8832
▁Pr	-10.8839
PA	-10.8839
▁tele	-10.885
void	-10.8856
▁Laur	-10.8856
▁Gen	-10.8858
pass	-10.8904
▁GA	-10.891
dden	-10.8918
EAT	-10.8922
▁buil	-10.8922
HC	-10.8923
:20	-10.8926
tract	-10.8931
▁Brit	-10.894
ran	-10.8943
itary	-10.8945
▁semi	-10.8947
▁Rob	-10.8949
▁Que	-10.8949
▁Off	-10.8952
▁exam	-10.8956
▁econom	-10.8956
▁auth	-10.8957
▁spirit	-10.8961
ospital	-10.8962
enovat	-10.8963
eligious	-10.8963
▁destin	-10.8963
/25/200	-10.8963
▁scam	-10.8964
iqui	-10.8964
▁Bangladesh	-10.8964
▁Design	-10.8964
▁District	-10.8964
▁Jamaica	-10.8964
▁Montgomery	-10.8964
▁Rachel	-10.8964
▁Venezuela	-10.8964
▁Yahoo	-10.8964
▁argument	-10.8964
▁correlat	-10.8964
▁correspond	-10.8964
▁guerrilla	-10.8964
▁headquarter	-10.8964
▁legislat	-10.8964
▁monitor	-10.8964
▁opposit	-10.8964
▁principle	-10.8964
▁prosecut	-10.8964
▁quarter	-10.8964
▁reject	-10.8964
▁scholar	-10.8964
▁scream	-10.8964
▁silver	-10.8964
▁symbol	-10.8964
▁Fuel	-10.8964
▁debate	-10.8964
▁disrupt	-10.8964
▁pattern	-10.8964
▁relationship	-10.8964
▁shelter	-10.8964
▁Grill	-10.8964
▁PERE	-10.8964
▁adapt	-10.8964
▁float	-10.8964
▁jerk	-10.8964
▁possibilit	-10.8964
▁root	-10.8964
▁Percell	-10.8964
▁strip	-10.8964
▁penalt	-10.8964
▁thorough	-10.8964
▁conscious	-10.8964
▁concentrat	-10.8964
▁kick	-10.8964
▁silent	-10.8964
▁defeat	-10.8964
▁speech	-10.8964
▁Africa	-10.8964
▁PRICE	-10.8964
▁roof	-10.8964
▁crop	-10.8964
▁Kuwait	-10.8964
▁Propose	-10.8964
▁shock	-10.8964
▁strict	-10.8964
▁Abb	-10.8964
▁habitat	-10.8964
▁mineral	-10.8964
▁veteran	-10.8964
yndham	-10.8964
▁Moore	-10.8964
▁excuse	-10.8964
▁loot	-10.8964
erkeley	-10.8964
▁Murph	-10.8964
▁scratch	-10.8964
▁absorb	-10.8964
▁Polic	-10.8964
▁diagnose	-10.8964
▁poison	-10.8964
▁boot	-10.8964
▁rumor	-10.8965
▁worrie	-10.8965
▁gallery	-10.8965
▁dozen	-10.8965
htm	-10.8965
▁Kurd	-10.8965
▁Brown	-10.8965
▁smuggl	-10.8965
▁leak	-10.8965
▁reptile	-10.8965
▁concert	-10.8965
▁Virg	-10.8965
yahoo	-10.8965
▁uniform	-10.8965
▁haha	-10.8965
▁sudden	-10.8965
▁sister	-10.8965
▁Angel	-10.8965
▁haul	-10.8965
▁addict	-10.8966
▁studie	-10.8966
▁Frank	-10.8966
▁Sullivan	-10.8966
▁Limit	-10.8966
▁McG	-10.8966
▁boast	-10.8966
▁spice	-10.8966
▁Awe	-10.8966
▁cafe	-10.8966
▁11:4	-10.8966
BAL	-10.8966
▁Usual	-10.8966
▁hunt	-10.8967
▁network	-10.8967
▁merit	-10.8967
temporar	-10.8967
▁chew	-10.8967
▁auto	-10.8967
▁Leigh	-10.8967
obil	-10.8968
▁assess	-10.8968
dental	-10.8968
▁lobby	-10.8969
▁Nail	-10.8969
▁swap	-10.8969
▁empt	-10.8969
▁Alito	-10.8969
▁flee	-10.8969
▁jur	-10.8969
▁gang	-10.8969
▁Patty	-10.897
▁Forster	-10.897
▁chose	-10.8971
▁feather	-10.8971
▁panel	-10.8972
kii	-10.8972
▁Back	-10.8972
▁bright	-10.8972
▁Thai	-10.8972
▁Come	-10.8973
▁instant	-10.8973
940	-10.8974
▁Bang	-10.8974
lliance	-10.8974
▁relative	-10.8974
▁tribe	-10.8975
static	-10.8976
▁100,000	-10.8976
▁Baba	-10.8976
▁pupp	-10.8976
olla	-10.8976
▁NW	-10.8976
lawi	-10.8977
▁successful	-10.8977
▁gentle	-10.8978
▁delight	-10.8978
▁strengthen	-10.8978
▁Jean	-10.898
index	-10.898
▁stall	-10.8981
addle	-10.8981
▁pretend	-10.8982
▁neat	-10.8982
RV	-10.8984
▁Sub	-10.8984
▁bottle	-10.8984
▁mosque	-10.8984
▁spell	-10.8984
▁Wol	-10.8985
▁2006	-10.8986
▁envelope	-10.8986
▁angel	-10.8986
▁Opera	-10.8986
testimony	-10.8987
▁paw	-10.8987
▁.......	-10.8988
▁Agr	-10.8988
4/200	-10.8993
▁Sincere	-10.8994
▁revenue	-10.8994
▁68	-10.8997
ribb	-10.8997
▁shame	-10.8998
▁Whole	-10.8999
▁mold	-10.9
elect	-10.9001
hnic	-10.9005
clay	-10.9005
▁wang	-10.9006
▁ignor	-10.9009
▁owners	-10.901
▁astro	-10.9011
▁Rule	-10.9013
▁Fab	-10.9014
▁fashion	-10.9014
▁priest	-10.9014
▁LOC	-10.9015
▁Wall	-10.9016
CU	-10.9017
▁Bow	-10.9017
▁Jew	-10.9017
▁GRE	-10.9018
▁sentence	-10.9022
▁spine	-10.9025
tenant	-10.9025
▁provid	-10.9033
▁wrap	-10.9033
toxic	-10.9035
Speak	-10.9037
▁soul	-10.9041
rete	-10.9044
▁Rod	-10.9045
▁latte	-10.9049
▁Perv	-10.9055
▁74	-10.9062
▁Pop	-10.9068
▁luna	-10.9079
▁DSL	-10.908
▁worm	-10.9082
▁tail	-10.9084
▁noon	-10.9084
▁Lim	-10.9085
BS	-10.9088
math	-10.9091
lor	-10.9095
▁workers	-10.9098
7.	-10.9103
▁Ever	-10.9103
▁compari	-10.9107
oul	-10.9108
▁weak	-10.9115
▁Fee	-10.9116
▁fil	-10.9123
▁List	-10.9133
▁STAR	-10.9135
AM	-10.9136
▁Nei	-10.9139
.2	-10.914
▁prison	-10.9151
▁Hor	-10.9153
▁Hami	-10.9153
DG	-10.9154
▁Form	-10.9157
▁Though	-10.9163
ulous	-10.9169
▁Ali	-10.9174
br	-10.9179
▁Ham	-10.9185
▁button	-10.9187
▁flower	-10.9188
▁04:1	-10.9198
▁stabili	-10.92
corn	-10.9204
▁Buy	-10.9207
▁manufacture	-10.9212
torm	-10.9212
▁hu	-10.923
▁Ellis	-10.9235
agan	-10.9251
.7	-10.9261
/27/200	-10.9288
▁Manso	-10.9291
inal	-10.9295
rab	-10.9295
▁29	-10.9295
bed	-10.9299
▁para	-10.9305
▁Hoo	-10.9311
▁bondad	-10.932
▁Current	-10.9323
▁inquire	-10.9331
▁hands	-10.9334
scal	-10.9339
▁47	-10.9345
▁reporter	-10.935
priced	-10.9371
egg	-10.9373
rap	-10.9381
▁coordinat	-10.9388
43	-10.9393
▁gate	-10.9394
▁confirmed	-10.9399
▁Hind	-10.94
▁condo	-10.9403
▁height	-10.9405
ark	-10.9407
▁bid	-10.9413
entic	-10.9413
un	-10.9417
▁rear	-10.9422
▁signal	-10.9428
▁birthda	-10.9432
▁sex	-10.9454
▁fanc	-10.9461
ja	-10.9471
mike	-10.9472
ari	-10.9473
ave	-10.9479
▁pe	-10.949
achi	-10.9491
chi	-10.95
OA	-10.9509
/16/200	-10.9509
AGE	-10.951
eather	-10.9513
▁shad	-10.9528
read	-10.9541
MA	-10.9547
▁apart	-10.956
▁BU	-10.9574
▁Die	-10.9593
▁09:	-10.9597
▁fl	-10.9599
▁Phy	-10.9623
awi	-10.9629
AL	-10.9636
▁pets	-10.9637
▁extensi	-10.9661
lett	-10.9665
842	-10.9672
oll	-10.9684
wi	-10.9687
▁reli	-10.969
DB	-10.9693
▁UN	-10.971
▁brave	-10.9715
▁Bar	-10.9718
dditional	-10.9724
6:00	-10.9729
mayur	-10.9736
price	-10.9746
:14	-10.9753
public	-10.9757
unk	-10.9759
▁56	-10.9766
ler	-10.9768
appear	-10.9777
close	-10.978
▁hop	-10.9781
compan	-10.9783
own	-10.9793
▁Bra	-10.9797
mber	-10.981
ange	-10.9815
▁mon	-10.9817
/03/200	-10.9825
▁cha	-10.983
▁Lyn	-10.984
lf	-10.9852
enny	-10.9866
USE	-10.9877
ound	-10.989
▁inflate	-10.9894
/01/200	-10.9898
aff	-10.9898
010	-10.9905
gg	-10.9907
▁sole	-10.9918
▁Ki	-10.9922
:35	-10.9924
▁clos	-10.9924
give	-10.996
umb	-10.9969
▁415	-10.9982
▁environment	-10.9996
▁rip	-11.0027
cer	-11.0038
zi	-11.0043
inia	-11.0047
▁IN	-11.0051
▁accomplish	-11.0058
▁extradite	-11.0061
▁funding	-11.0063
▁PO	-11.0064
xpect	-11.0067
▁rele	-11.0073
▁Baath	-11.0073
DEC	-11.0073
▁Experience	-11.0075
▁HIGH	-11.0075
▁typical	-11.0075
▁Answer	-11.0075
▁delicate	-11.0075
▁resident	-11.0075
▁battle	-11.0076
▁Fusion	-11.0076
▁reception	-11.0076
▁smile	-11.0076
▁wire	-11.0077
▁WHO	-11.0077
▁Cuba	-11.0077
▁breakfast	-11.0077
▁mistake	-11.0077
▁disappear	-11.0078
▁confidence	-11.0078
BLE	-11.0078
▁combine	-11.0083
▁Profession	-11.0084
▁Grace	-11.0086
▁heavy	-11.0088
▁Ope	-11.0089
▁investigation	-11.0096
▁truth	-11.0099
▁counterpart	-11.0107
▁confide	-11.0112
24	-11.0113
▁Ex	-11.0116
ular	-11.0125
▁OVER	-11.0131
▁motive	-11.0132
▁generation	-11.0138
▁documentation	-11.0139
▁referr	-11.014
▁Security	-11.0144
▁HE	-11.0145
▁establishment	-11.0146
rance	-11.0148
▁shopp	-11.0149
▁Seem	-11.015
▁careful	-11.0156
li	-11.0157
gage	-11.0159
▁250	-11.016
▁teacher	-11.0164
▁Rate	-11.0176
▁selection	-11.0189
▁Independen	-11.0209
▁notif	-11.0212
▁internal	-11.0215
▁agenc	-11.0223
▁encourage	-11.0228
▁distribut	-11.0231
▁EN	-11.0241
▁merge	-11.0244
ke	-11.0247
apor	-11.025
49	-11.0253
east	-11.0255
Civet	-11.0255
▁FR	-11.0258
▁inflat	-11.0261
amster	-11.027
▁ANY	-11.028
▁ur	-11.0287
▁attachment	-11.0287
▁buck	-11.029
▁unite	-11.0291
▁Cam	-11.0294
▁RE	-11.03
umara	-11.031
uce	-11.0318
VE	-11.032
▁Cra	-11.0325
>	-11.0334
▁Pur	-11.0364
▁43	-11.0373
▁assassinat	-11.0376
▁bl	-11.0387
▁TE	-11.0395
sponse	-11.0407
▁Qua	-11.0445
▁hi	-11.0456
▁35	-11.0468
▁tonight	-11.0471
hin	-11.048
possibl	-11.0487
bra	-11.0566
ON	-11.0568
▁defin	-11.0583
▁6.	-11.0588
▁Loc	-11.0595
grade	-11.0654
rid	-11.0657
▁10:5	-11.0659
ape	-11.0661
key	-11.0662
/16/	-11.0675
bbe	-11.0689
▁Carolin	-11.0691
gon	-11.0694
▁Loo	-11.0695
▁Bus	-11.0696
obby	-11.0702
▁El	-11.0729
▁ST	-11.0729
▁scr	-11.073
82	-11.0744
metre	-11.0746
▁Ad	-11.0753
het	-11.077
rul	-11.0783
▁Tur	-11.0805
tile	-11.0815
▁Plac	-11.0828
▁FA	-11.0828
▁acro	-11.0831
mbo	-11.0833
▁Shu	-11.0841
bell	-11.0845
▁player	-11.0869
▁20,000	-11.0874
▁hal	-11.0898
▁Win	-11.0898
▁tie	-11.0904
iel	-11.0911
gun	-11.0913
OP	-11.0926
OWN	-11.093
▁hum	-11.0936
▁ma	-11.0937
▁PR	-11.0947
▁Lu	-11.0953
▁describ	-11.0954
▁SS	-11.0957
news	-11.0974
▁caus	-11.0983
▁cleaned	-11.0985
▁translate	-11.1001
bid	-11.1004
AST	-11.1007
wear	-11.101
mmy	-11.1016
odd	-11.1017
solve	-11.1022
broad	-11.1025
charge	-11.1027
spring	-11.1027
comfort	-11.1031
▁flu	-11.1031
consider	-11.1032
week	-11.1034
42	-11.1034
▁ED	-11.1056
name	-11.1066
count	-11.107
▁ARE	-11.1071
raw	-11.1074
▁hid	-11.1092
▁pol	-11.1114
ector	-11.1133
▁Ti	-11.1139
71	-11.1139
PR	-11.1172
▁Tel	-11.1174
effe	-11.1179
▁analys	-11.1187
yl	-11.1187
▁fabric	-11.1188
▁Set	-11.1188
▁court	-11.1206
KED	-11.1213
▁mailing	-11.1216
▁surve	-11.1221
▁Addition	-11.1221
▁compar	-11.1223
▁nigh	-11.1224
▁valu	-11.123
▁dealer	-11.1233
lio	-11.1237
/17/	-11.1241
-6	-11.1246
cca	-11.1247
▁lope	-11.1253
▁temp	-11.1258
mmunit	-11.126
▁Pet	-11.1264
teen	-11.127
▁indicat	-11.1272
▁google	-11.1281
59	-11.1283
▁Va	-11.1285
▁11/0	-11.1285
▁micro	-11.1287
▁09:4	-11.1293
▁laws	-11.1294
▁Aero	-11.1295
▁misc	-11.1296
▁operate	-11.1302
▁decor	-11.1302
ibility	-11.1306
▁11:3	-11.1312
ario	-11.1314
▁Michel	-11.1315
nch	-11.1316
▁vend	-11.1317
▁Trav	-11.1322
ENI	-11.1323
▁liq	-11.1323
avig	-11.1323
▁rail	-11.1324
▁Abd	-11.1325
cious	-11.1325
▁vulnerab	-11.1325
▁embass	-11.1325
ElPaso	-11.1325
hydrate	-11.1325
▁..........	-11.1325
▁Alexand	-11.1325
▁Appropriations	-11.1325
▁Approve	-11.1325
▁Belgi	-11.1325
▁Christopher	-11.1325
▁Circ	-11.1325
▁Communis	-11.1325
▁Comprehen	-11.1325
▁Democrat	-11.1325
▁HORRIBLE	-11.1325
▁Horrible	-11.1325
▁Hubbard	-11.1325
▁Kaminski	-11.1325
▁Kaufman	-11.1325
▁Microsoft	-11.1325
▁Norwegian	-11.1325
▁Packard	-11.1325
▁Pennsylvania	-11.1325
▁Recruit	-11.1325
▁Rosalee	-11.1325
▁adequate	-11.1325
▁channel	-11.1325
▁colleague	-11.1325
▁compliment	-11.1325
▁controvers	-11.1325
▁desperate	-11.1325
▁device	-11.1325
▁distinct	-11.1325
▁distinguish	-11.1325
▁dividend	-11.1325
▁dream	-11.1325
▁exhibit	-11.1325
▁giraffe	-11.1325
▁laundr	-11.1325
▁precise	-11.1325
▁punish	-11.1325
▁recieve	-11.1325
▁sculpt	-11.1325
▁shoot	-11.1325
▁struggl	-11.1325
Leopold	-11.1325
▁202.456.1	-11.1325
▁Follow	-11.1325
▁critter	-11.1325
▁flaw	-11.1325
▁liberal	-11.1325
▁patron	-11.1325
▁quiz	-11.1325
▁scoop	-11.1325
▁713-654-	-11.1325
▁Electric	-11.1325
▁crack	-11.1325
▁Dallas	-11.1325
▁collapse	-11.1325
▁dentist	-11.1325
▁Marianne	-11.1325
▁permit	-11.1325
▁abandon	-11.1325
▁eligib	-11.1325
▁zoo	-11.1325
▁postpone	-11.1325
8-7	-11.1325
▁Steak	-11.1325
▁censor	-11.1325
▁rapid	-11.1325
▁Help	-11.1325
▁Swift	-11.1325
:39:	-11.1325
▁Pioneer	-11.1325
!!!!!!!!!!!!!!!!	-11.1325
▁infect	-11.1325
▁libert	-11.1325
▁06/01/200	-11.1325
▁Garcia	-11.1325
▁Cross	-11.1325
▁freight	-11.1325
▁Levi	-11.1325
▁Balochi	-11.1325
▁Sign	-11.1325
▁Bosnia	-11.1325
▁armament	-11.1325
▁weird	-11.1325
cific	-11.1325
▁scene	-11.1325
▁Clean	-11.1325
▁harsh	-11.1325
▁radio	-11.1325
▁Crim	-11.1325
▁Point	-11.1325
▁Little	-11.1326
▁Contract	-11.1326
▁cousin	-11.1326
vern	-11.1326
▁shift	-11.1326
ology	-11.1326
870	-11.1326
▁Express	-11.1326
▁python	-11.1326
▁curtain	-11.1326
▁Daniel	-11.1326
▁epi	-11.1326
▁Roger	-11.1326
▁revolution	-11.1326
▁Description	-11.1326
▁motor	-11.1326
▁slide	-11.1326
ykman	-11.1326
▁accent	-11.1326
▁grind	-11.1326
.782	-11.1326
▁flake	-11.1326
▁Find	-11.1326
▁EGM	-11.1326
▁Nancy	-11.1327
▁Radi	-11.1327
▁spoil	-11.1327
jpg	-11.1327
pdf	-11.1327
▁Revolution	-11.1327
▁Room	-11.1327
▁bask	-11.1327
▁Danny	-11.1327
▁Gonzales	-11.1327
▁CAME	-11.1327
▁dealership	-11.1327
▁keen	-11.1327
▁Sacr	-11.1327
▁Visa	-11.1327
▁spike	-11.1327
▁sharp	-11.1328
5-02	-11.1328
doo	-11.1328
▁!!!!!	-11.1328
▁household	-11.1328
▁superior	-11.1328
▁ceil	-11.1328
▁Hmmm	-11.1328
▁Definite	-11.1328
6939	-11.1328
▁distract	-11.1328
▁jack	-11.1328
shire	-11.1328
▁Jacob	-11.1328
shore	-11.1328
▁gda	-11.1329
▁superb	-11.1329
▁Link	-11.1329
lamp	-11.1329
▁collage	-11.1329
▁Tollis	-11.1329
▁spur	-11.1329
▁Auto	-11.1329
▁trap	-11.133
▁admitted	-11.133
▁01/19/	-11.133
▁fyi	-11.133
▁groom	-11.133
▁rom	-11.1331
▁jaw	-11.1331
▁hint	-11.1331
▁CST	-11.1331
▁motion	-11.1332
▁Actual	-11.1332
▁chemic	-11.1332
▁panic	-11.1332
▁Found	-11.1333
▁scrap	-11.1334
▁Gov	-11.1334
▁square	-11.1334
▁GW	-11.1334
gov	-11.1334
▁spore	-11.1334
▁ranch	-11.1334
▁Shri	-11.1335
▁vendor	-11.1335
▁error	-11.1335
eopard	-11.1335
▁Support	-11.1335
bine	-11.1335
unga	-11.1335
▁rebel	-11.1335
river	-11.1335
▁temple	-11.1335
▁Perform	-11.1336
▁killing	-11.1337
▁clock	-11.1337
▁Noble	-11.1337
ruit	-11.1338
▁funeral	-11.1338
▁mild	-11.1338
ordstrom	-11.1338
▁Robbi	-11.1338
▁consistent	-11.1338
▁teeth	-11.1339
▁hook	-11.134
▁PST	-11.134
▁Eric	-11.1341
▁Director	-11.1341
▁cred	-11.1341
ival	-11.1343
onald	-11.1344
▁coupon	-11.1345
inni	-11.1347
Log	-11.1347
▁vest	-11.1348
▁NEP	-11.1348
mem	-11.1349
▁ENE	-11.135
▁Space	-11.135
erspective	-11.135
▁background	-11.1351
▁Liz	-11.1351
1/01	-11.1351
oud	-11.1353
▁emission	-11.1354
▁Constitut	-11.1354
▁province	-11.1354
▁arrogant	-11.1354
▁Constitution	-11.1355
▁belt	-11.1355
▁Termin	-11.1355
▁alert	-11.1355
▁occurr	-11.1356
▁MK	-11.1357
▁Water	-11.1357
▁1.5	-11.1357
▁Max	-11.1358
▁diar	-11.1358
▁modif	-11.1358
▁10,000	-11.1358
▁deck	-11.1359
▁SW	-11.136
▁Was	-11.136
precede	-11.1361
▁cop	-11.1361
▁Labor	-11.1363
▁Turn	-11.1363
▁ego	-11.1364
▁loud	-11.1364
▁scent	-11.1364
▁sand	-11.1364
▁Gold	-11.1364
▁dys	-11.1365
osario	-11.1365
ue	-11.1366
etail	-11.1367
▁bond	-11.1368
▁Marry	-11.1368
ilot	-11.1369
922	-11.137
▁ambitio	-11.1371
▁plate	-11.1371
▁owe	-11.1372
istani	-11.1373
▁audio	-11.1374
.71	-11.1374
▁BO	-11.1378
▁gap	-11.1379
▁NC	-11.138
▁err	-11.1383
▁brow	-11.1385
▁termin	-11.1386
▁ador	-11.1386
▁dire	-11.1388
▁chemical	-11.1389
▁Lab	-11.1391
▁polite	-11.1392
▁Think	-11.1392
▁label	-11.1393
▁topic	-11.1395
▁Van	-11.1395
▁colon	-11.1396
ullen	-11.1397
▁abs	-11.1398
▁Kath	-11.1399
▁soup	-11.14
▁Mur	-11.1401
ISI	-11.1401
rocket	-11.1402
▁recover	-11.1402
▁fri	-11.1403
▁skin	-11.1404
▁fell	-11.1406
lton	-11.1406
▁coat	-11.1406
▁hopeful	-11.1408
CC	-11.1409
yatt	-11.141
--------	-11.1411
▁tolerat	-11.1411
▁interfere	-11.1411
▁Cure	-11.1415
▁AA	-11.1417
umble	-11.1417
▁reconcile	-11.1418
▁theater	-11.1419
▁Ask	-11.1421
▁fuss	-11.1429
▁USD	-11.1431
▁Night	-11.1431
▁Money	-11.1432
▁07:	-11.1433
▁Skin	-11.1434
▁recommendation	-11.1436
▁Jr	-11.1442
▁281-4	-11.1445
set	-11.1448
39	-11.1449
egon	-11.1451
▁edge	-11.1453
▁!?	-11.146
▁pole	-11.146
-------------	-11.1461
▁participat	-11.1469
▁analyst	-11.147
cari	-11.1474
IC	-11.1476
▁Dow	-11.1477
▁Steven	-11.1478
▁tar	-11.148
▁substantial	-11.148
▁logic	-11.1482
▁inch	-11.1483
▁stab	-11.1485
▁eight	-11.1488
▁combat	-11.1491
▁Andre	-11.1493
▁tap	-11.1496
hear	-11.1507
?!?	-11.1514
▁Shop	-11.1515
▁Spani	-11.1516
cho	-11.1517
▁commerc	-11.152
ville	-11.1526
9/200	-11.1529
▁spay	-11.153
▁Yea	-11.153
▁native	-11.1531
MAN	-11.1531
Unitary	-11.1533
OFF	-11.1538
cale	-11.1538
▁predict	-11.154
TEN	-11.1545
▁Word	-11.1548
▁server	-11.155
▁bin	-11.1551
▁Cat	-11.1554
▁bust	-11.1555
▁Israeli	-11.1557
▁bur	-11.1559
▁stoo	-11.156
▁reasonabl	-11.1562
▁Bre	-11.1563
▁jea	-11.1565
▁Gla	-11.1569
NK	-11.1571
▁bal	-11.1575
▁Agenc	-11.158
▁cler	-11.1582
▁Tre	-11.1582
▁Lot	-11.1593
▁Sc	-11.1594
▁farm	-11.1599
▁Bit	-11.16
▁dri	-11.1612
▁Roy	-11.1614
rice	-11.1621
▁Dur	-11.1628
▁Exi	-11.164
00.	-11.1643
TRE	-11.1643
▁Sat	-11.1643
▁core	-11.1646
▁spo	-11.1647
nel	-11.1662
▁faction	-11.1664
▁42	-11.1678
plan	-11.1689
lower	-11.1697
15	-11.1699
▁Baff	-11.1708
▁YE	-11.1709
itis	-11.1712
▁inspire	-11.1713
auce	-11.1717
ingham	-11.1733
▁exclude	-11.1734
▁engage	-11.1741
▁Sale	-11.176
▁gall	-11.177
igh	-11.1784
voke	-11.1791
▁Vict	-11.1791
pher	-11.1792
▁blan	-11.1799
nz	-11.1807
▁requir	-11.1815
MS	-11.182
▁migrate	-11.1823
▁Ran	-11.1825
ndra	-11.1826
kan	-11.1832
▁Plant	-11.1832
lka	-11.1845
▁equi	-11.1849
umn	-11.186
UR	-11.1867
▁MA	-11.1869
▁___________	-11.187
▁inno	-11.1878
▁challeng	-11.1887
▁79	-11.1905
ini	-11.1908
▁Cre	-11.1916
▁THA	-11.1919
▁artist	-11.1925
20	-11.1926
▁BS	-11.1929
▁las	-11.1938
▁158	-11.194
▁04:3	-11.1948
▁Say	-11.1954
▁Oka	-11.1964
▁universit	-11.1974
▁ire	-11.1975
2009	-11.1977
▁01:5	-11.2011
▁Post	-11.2025
----	-11.2036
▁Instruct	-11.2039
hange	-11.2042
▁refuse	-11.2047
6933	-11.206
▁subt	-11.2067
▁bou	-11.2069
▁Mad	-11.2086
▁Yog	-11.2092
dry	-11.2098
arge	-11.2105
-5	-11.212
▁vita	-11.2125
▁Appl	-11.2136
cot	-11.2162
ota	-11.2167
▁bu	-11.2171
▁addresse	-11.2174
▁Mon	-11.2179
▁Leave	-11.2195
pad	-11.2206
710	-11.2207
dg	-11.2207
▁02:1	-11.2207
▁fro	-11.2216
led	-11.2218
36	-11.2219
pot	-11.2219
▁Barn	-11.2234
▁Og	-11.2253
▁substanti	-11.2257
▁forum	-11.2269
3/200	-11.2274
▁Laun	-11.2275
▁Pen	-11.2289
▁sla	-11.2323
▁entre	-11.2324
▁demo	-11.2344
▁Sala	-11.236
▁Arie	-11.2365
▁mount	-11.238
▁Pres	-11.2392
ayee	-11.2395
EA	-11.2398
▁Peters	-11.2406
RI	-11.2429
▁Gra	-11.2431
person	-11.2435
▁hous	-11.2442
commerc	-11.2442
knowledge	-11.2449
employ	-11.2449
143	-11.2453
gle	-11.2469
boat	-11.2481
7-1.	-11.2482
ole	-11.2494
shop	-11.2523
spire	-11.2545
▁SH	-11.2563
span	-11.2581
ntana	-11.2585
graphic	-11.2605
▁ECT	-11.2607
▁oblig	-11.2614
TION	-11.2616
▁utilit	-11.2617
▁essen	-11.2621
▁53	-11.2629
under	-11.2636
itten	-11.2637
▁degrees	-11.2656
▁journal	-11.2666
▁Pan	-11.2667
419	-11.267
▁Rum	-11.2673
▁Devi	-11.2698
▁pan	-11.27
▁Ann	-11.2702
▁thaw	-11.2711
▁psycho	-11.2721
▁innovat	-11.2722
▁flop	-11.2732
heav	-11.2733
ption	-11.2734
▁flip	-11.2734
gant	-11.2734
▁cultur	-11.2735
▁income	-11.2737
gam	-11.2739
▁Range	-11.2745
▁enthusias	-11.2752
whelm	-11.2754
MUNI	-11.2754
▁Immigra	-11.2754
▁abundant	-11.2754
▁accommodate	-11.2754
▁exposure	-11.2754
▁extremist	-11.2754
▁participant	-11.2754
▁registra	-11.2754
▁suspicio	-11.2754
▁DEAL	-11.2754
▁Micro	-11.2754
▁NEW	-11.2754
▁invasi	-11.2754
▁northeast	-11.2755
▁radiat	-11.2755
▁laptop	-11.2755
▁representative	-11.2755
▁qualifi	-11.2756
▁steal	-11.2757
▁appeti	-11.2757
▁identifi	-11.2757
▁wealth	-11.2757
▁reservation	-11.2757
▁TRY	-11.2757
▁fundamentalist	-11.2757
▁750	-11.2758
▁discre	-11.2761
▁absent	-11.2762
▁Eastern	-11.2763
mote	-11.2763
asp	-11.2766
▁rally	-11.2768
▁Equal	-11.2768
SHI	-11.2769
▁Hand	-11.277
▁Carri	-11.277
▁Marri	-11.2772
▁EVERY	-11.2773
pixel	-11.2774
▁execution	-11.2781
▁198	-11.2782
▁Prop	-11.2787
▁elsewhere	-11.279
AIL	-11.2791
▁independent	-11.2792
▁resource	-11.2806
▁ripp	-11.2818
lord	-11.2821
▁exception	-11.2822
▁chlorin	-11.2824
▁christ	-11.2829
▁dictat	-11.2837
exp	-11.2853
▁Pea	-11.2857
panc	-11.2864
2007	-11.2864
▁hamm	-11.2876
▁depo	-11.288
▁LIKE	-11.2892
▁trans	-11.2916
agon	-11.2926
▁cycle	-11.2927
OUT	-11.2935
english	-11.2935
▁Dance	-11.294
▁controll	-11.2963
▁visitor	-11.2977
▁threaten	-11.2986
url	-11.2989
▁sour	-11.3002
▁Idea	-11.3005
▁fift	-11.3011
▁Sah	-11.3015
▁allocat	-11.3019
▁creativ	-11.3033
SO	-11.3037
rive	-11.3045
▁functional	-11.3055
▁Sanders	-11.3061
case	-11.3061
OLY	-11.3069
cosm	-11.3071
▁feas	-11.3086
SS	-11.3086
▁frustrate	-11.3093
ENT	-11.3096
▁substantiat	-11.3099
▁shipp	-11.3115
▁reside	-11.3117
organ	-11.3129
Mart	-11.315
civet	-11.3153
▁61	-11.3162
▁alter	-11.3168
▁CP	-11.3178
lar	-11.3179
▁inspect	-11.3179
▁Islami	-11.32
▁Fun	-11.3202
▁va	-11.3214
▁designer	-11.3226
▁Francis	-11.3242
▁determin	-11.326
erie	-11.3281
▁won	-11.3297
▁Increase	-11.3314
06	-11.3319
EE	-11.3319
▁donat	-11.3328
▁Tow	-11.3336
▁explor	-11.3337
azar	-11.3338
▁app	-11.3341
arla	-11.3349
usiness	-11.3361
▁compel	-11.3377
eath	-11.3378
▁excit	-11.3396
Tub	-11.3402
▁assur	-11.3425
▁mod	-11.3439
EP	-11.3443
love	-11.3443
minate	-11.3449
2-	-11.3462
▁bore	-11.3464
pact	-11.3483
master	-11.3486
tah	-11.349
▁157	-11.3503
▁Dai	-11.3513
▁LO	-11.3543
zz	-11.3547
▁desir	-11.3563
ria	-11.3577
:15	-11.3584
▁entr	-11.3592
▁col	-11.3595
RAC	-11.36
▁authorize	-11.3616
▁execut	-11.3642
pping	-11.3643
▁Cou	-11.3648
▁Tar	-11.366
▁Bh	-11.3668
▁713-853-	-11.368
▁guid	-11.3682
▁investigat	-11.3698
▁Wed	-11.37
ept	-11.3716
▁Equi	-11.3717
ux	-11.3734
▁grave	-11.3747
▁isolate	-11.3752
▁Str	-11.3759
och	-11.376
▁BB	-11.377
opera	-11.3776
▁receiv	-11.3782
indi	-11.3783
▁initiat	-11.3793
▁pee	-11.3794
▁exten	-11.3795
CHE	-11.3801
AR	-11.3807
hes	-11.381
▁fac	-11.3828
▁Break	-11.384
63	-11.3845
ampa	-11.3853
▁fur	-11.3863
0/200	-11.3867
▁clo	-11.3867
ect	-11.3872
▁photograph	-11.3877
98	-11.3898
▁Mei	-11.3915
igar	-11.3916
▁-----	-11.3923
▁51	-11.3923
bur	-11.3926
▁MI	-11.3931
hol	-11.3933
13	-11.395
600	-11.3971
bus	-11.3981
▁Arma	-11.3995
ES	-11.4004
definite	-11.4015
▁availab	-11.4019
▁Hus	-11.4029
▁belong	-11.4033
ado	-11.4035
mmmm	-11.4037
wit	-11.404
illo	-11.4044
▁EES	-11.4067
▁ridicule	-11.4088
▁04:	-11.4098
Donald	-11.4106
prison	-11.411
ANY	-11.4118
buck	-11.4122
lock	-11.4122
COM	-11.4123
plus	-11.4123
graduate	-11.4124
generate	-11.4125
secure	-11.4127
▁06	-11.4127
regard	-11.4128
base	-11.4128
system	-11.4128
after	-11.4129
half	-11.413
▁Page	-11.413
guard	-11.4132
complete	-11.4132
▁entit	-11.4133
effect	-11.4133
draw	-11.4133
lack	-11.4134
DE	-11.4135
market	-11.4135
shall	-11.4138
change	-11.4139
note	-11.414
meet	-11.4141
lotte	-11.4141
talent	-11.4143
just	-11.4143
ikh	-11.4143
order	-11.4145
cook	-11.4152
nail	-11.4154
▁purcha	-11.4161
structure	-11.4164
umor	-11.4191
▁rub	-11.4219
▁Agen	-11.4226
▁Moon	-11.4239
gus	-11.4243
bp	-11.426
030	-11.4272
gree	-11.4272
bove	-11.4275
▁budge	-11.4287
▁memo	-11.4291
NU	-11.4293
▁blad	-11.4294
200	-11.4306
kinaw	-11.4307
▁Iris	-11.431
▁welcom	-11.4319
▁quo	-11.433
▁?????	-11.433
crease	-11.433
▁Pric	-11.4331
▁Disp	-11.4332
▁Penn	-11.4341
metr	-11.4343
▁Stra	-11.4349
btu	-11.4354
TL	-11.4362
▁Custom	-11.4365
▁technic	-11.4365
BM	-11.4369
cience	-11.437
▁Ara	-11.4376
diction	-11.4381
solution	-11.4382
ND	-11.4382
▁Gua	-11.4383
▁Term	-11.4385
301	-11.4388
GHT	-11.4389
▁Sinh	-11.4389
▁journ	-11.4391
▁tea	-11.4392
quake	-11.4393
▁strength	-11.4395
183	-11.4407
quare	-11.4408
▁3,	-11.4409
▁aggress	-11.4411
IRS	-11.4412
ongress	-11.4412
xpansion	-11.4414
EM	-11.4414
▁intuiti	-11.4415
PLE	-11.4416
glass	-11.4416
bie	-11.4416
evolution	-11.4417
scribe	-11.4418
onzales	-11.4418
▁Clay	-11.4418
▁advert	-11.4418
▁lad	-11.4418
▁drama	-11.4418
erfect	-11.4418
▁mechani	-11.4419
nvoy	-11.442
▁06:0	-11.442
▁!!!!!!!!!!	-11.442
ollege	-11.442
TRANS	-11.442
▁Giovanni	-11.442
................	-11.442
franchise	-11.442
▁1774	-11.442
▁416-865-370	-11.442
▁Advance	-11.442
▁Aquariu	-11.442
▁Civil	-11.442
▁Comfort	-11.442
▁Guerrilla	-11.442
▁Juggernaut	-11.442
▁Obvious	-11.442
▁Stipul	-11.442
▁Whipple	-11.442
▁alcohol	-11.442
▁articulat	-11.442
▁cheque	-11.442
▁condemn	-11.442
▁confiscat	-11.442
▁congregat	-11.442
▁consequence	-11.442
▁dilemma	-11.442
▁district	-11.442
▁enchilada	-11.442
▁evacuate	-11.442
▁extinct	-11.442
▁grenade	-11.442
▁identify	-11.442
▁increasing	-11.442
▁manipulat	-11.442
▁margin	-11.442
▁monarch	-11.442
▁neuter	-11.442
▁pepper	-11.442
▁perfume	-11.442
▁phrase	-11.442
▁pregnan	-11.442
▁principal	-11.442
▁retrieve	-11.442
▁rhythm	-11.442
▁scenario	-11.442
▁seperate	-11.442
▁simultaneous	-11.442
▁squeeze	-11.442
▁stretch	-11.442
▁surprising	-11.442
▁trauma	-11.442
▁ventilat	-11.442
▁voluntar	-11.442
sketch	-11.442
trathmann	-11.442
▁620-294-	-11.442
▁Account	-11.442
▁Clark	-11.442
▁Consider	-11.442
▁Dorsey	-11.442
▁Educat	-11.442
▁Russell	-11.442
▁Switzer	-11.442
▁Trouble	-11.442
▁divorce	-11.442
▁idiot	-11.442
▁incubat	-11.442
▁martyr	-11.442
▁nutrition	-11.442
▁platform	-11.442
▁prohibit	-11.442
▁snack	-11.442
▁Libya	-11.442
▁Sicily	-11.442
▁asymmetric	-11.442
▁contradict	-11.442
▁spectac	-11.442
▁streak	-11.442
utan	-11.442
▁Kathleen	-11.442
▁supervis	-11.442
atriot	-11.442
▁1-800-	-11.442
▁Bailey	-11.442
▁Nepal	-11.442
▁crash	-11.442
▁purport	-11.442
rhea	-11.442
▁Critic	-11.442
▁leaf	-11.442
▁pheno	-11.442
▁steam	-11.442
▁Abramo	-11.442
convert	-11.442
▁WELL	-11.442
▁bridge	-11.442
▁Phillip	-11.442
▁flesh	-11.442
▁pride	-11.442
▁Protect	-11.442
▁Reason	-11.442
▁anticipate	-11.442
▁falter	-11.442
▁Certain	-11.442
▁burden	-11.442
▁emit	-11.442
urric	-11.442
▁column	-11.442
▁lyric	-11.442
▁Nichol	-11.4421
▁disseminat	-11.4421
▁threshold	-11.4421
▁Dollar	-11.4421
▁03:5	-11.4421
▁Simpl	-11.4421
▁defect	-11.4421
dslr	-11.4421
▁revive	-11.4421
ordinar	-11.4421
▁literat	-11.4421
▁fifteen	-11.4421
▁deliberate	-11.4421
▁domino	-11.4421
▁Algeria	-11.4421
▁domain	-11.4421
▁assault	-11.4421
▁intimate	-11.4421
▁craz	-11.4421
▁garden	-11.4421
▁Alaska	-11.4421
haka	-11.4421
▁03:4	-11.4421
▁muni	-11.4421
commod	-11.4421
uixot	-11.4421
▁guild	-11.4421
▁Creek	-11.4421
▁burger	-11.4421
▁suprem	-11.4421
NIO	-11.4421
anasi	-11.4421
CATION	-11.4421
▁expla	-11.4421
enberg	-11.4421
▁trend	-11.4421
▁dispers	-11.4421
▁Dula	-11.4421
▁dispute	-11.4421
▁wobble	-11.4421
▁maxim	-11.4421
▁!!!!!!!	-11.4421
▁Assembl	-11.4421
▁MIL	-11.4421
▁WAIT	-11.4421
▁stamp	-11.4421
▁tattoo	-11.4421
ternal	-11.4422
▁confine	-11.4422
▁Anti	-11.4422
▁01/25/200	-11.4422
getarian	-11.4422
▁Antique	-11.4422
▁Portug	-11.4422
ZZ	-11.4422
▁Window	-11.4422
▁Prot	-11.4422
▁discourag	-11.4422
▁16.3	-11.4422
▁Drink	-11.4422
▁Charles	-11.4422
▁imprison	-11.4422
jones	-11.4422
▁recess	-11.4422
▁Broke	-11.4422
▁Liquidweb	-11.4422
▁11:2	-11.4422
▁foster	-11.4422
▁Broad	-11.4422
▁adventur	-11.4422
▁crush	-11.4422
▁Moro	-11.4422
▁Teh	-11.4422
nburg	-11.4423
▁subsequent	-11.4423
▁Sooner	-11.4423
▁Wait	-11.4423
▁penetrate	-11.4423
▁quantit	-11.4423
▁rain	-11.4423
▁Load	-11.4423
▁Index	-11.4423
ATO	-11.4423
▁preserv	-11.4423
▁slip	-11.4423
▁Bir	-11.4424
▁Data	-11.4424
▁sufficient	-11.4424
▁Wayne	-11.4424
▁contrast	-11.4424
▁hyp	-11.4424
▁Own	-11.4424
▁Hizb	-11.4424
▁pyr	-11.4424
================	-11.4424
▁derive	-11.4424
▁reveal	-11.4425
▁loom	-11.4425
▁infant	-11.4425
elanie	-11.4425
▁Favor	-11.4425
▁Deliver	-11.4425
▁SPAR	-11.4425
▁rack	-11.4425
▁Lora	-11.4425
▁Roos	-11.4425
▁dude	-11.4425
▁romant	-11.4425
asqu	-11.4425
3.8	-11.4425
▁Euro	-11.4425
▁jet	-11.4425
▁Reserv	-11.4426
▁preparation	-11.4426
▁Nash	-11.4426
▁steer	-11.4426
▁Horton	-11.4426
racle	-11.4427
▁Cash	-11.4427
▁Courtney	-11.4427
▁leadership	-11.4427
▁HOT	-11.4427
▁puff	-11.4427
elpe	-11.4427
▁jihad	-11.4428
ecomm	-11.4428
▁aquari	-11.4428
▁spin	-11.4428
▁Taur	-11.4428
▁flash	-11.4428
▁assembl	-11.4429
▁eco	-11.4429
▁Nord	-11.4429
▁cork	-11.4429
▁shit	-11.4429
▁Lewis	-11.443
▁Present	-11.443
▁Human	-11.443
▁perceive	-11.443
▁HOW	-11.4431
▁Lead	-11.4431
▁failure	-11.4431
▁Interview	-11.4431
▁paradi	-11.4432
▁Fred	-11.4432
▁prote	-11.4433
ontact	-11.4433
▁Chick	-11.4434
frey	-11.4434
▁detain	-11.4434
▁SMS	-11.4434
▁preach	-11.4434
▁clash	-11.4435
▁slack	-11.4435
▁glow	-11.4436
▁ETA	-11.4436
119	-11.4436
oxy	-11.4437
▁Colo	-11.4437
compose	-11.4437
▁pour	-11.4438
▁historical	-11.4438
▁trace	-11.4438
▁Barc	-11.4438
CHS	-11.4439
omni	-11.4439
▁download	-11.444
▁Raw	-11.444
▁destination	-11.444
▁Louis	-11.444
ovan	-11.4441
▁Lav	-11.4441
▁pasture	-11.4441
▁Cho	-11.4441
▁operative	-11.4442
▁Fei	-11.4442
▁Fill	-11.4443
athan	-11.4443
cuse	-11.4444
allerina	-11.4444
▁Mag	-11.4444
▁thro	-11.4444
▁cou	-11.4445
▁snow	-11.4445
▁tur	-11.4445
483	-11.4445
kka	-11.4446
▁bleed	-11.4446
▁Amend	-11.4447
▁Latin	-11.4447
ounge	-11.4447
▁pollute	-11.4447
pco	-11.4447
▁Hall	-11.4449
otic	-11.4449
▁sap	-11.445
▁resist	-11.445
916	-11.4451
▁Band	-11.4452
▁Sinhal	-11.4452
ROC	-11.4452
▁Delight	-11.4453
▁Manager	-11.4453
JUN	-11.4453
▁picket	-11.4455
▁Parisian	-11.4455
▁kar	-11.4456
▁atroci	-11.4456
▁Fir	-11.4456
retta	-11.4457
▁Ltd	-11.4457
▁golf	-11.4457
PUC	-11.4458
lash	-11.4462
▁Wolf	-11.4463
Trip	-11.4463
▁persuad	-11.4464
opo	-11.4464
▁Eco	-11.4465
uct	-11.4465
▁setting	-11.4465
▁UCA	-11.4467
▁conserv	-11.4467
▁Bird	-11.4467
▁Beard	-11.4468
▁jam	-11.4469
▁conscien	-11.4469
▁Rev	-11.4469
▁Waz	-11.447
▁bless	-11.4471
▁rig	-11.4472
▁kit	-11.4473
pid	-11.4474
▁Atta	-11.4475
▁ladie	-11.4475
liate	-11.4475
▁Kell	-11.4475
▁disc	-11.4476
▁Scho	-11.4476
▁upper	-11.4477
athist	-11.4477
drian	-11.4478
▁Lotte	-11.4478
▁realise	-11.448
▁collective	-11.448
UCT	-11.4481
mend	-11.4482
ollaborat	-11.4482
▁FIR	-11.4483
▁Ric	-11.4484
▁tall	-11.4485
▁STOR	-11.4485
▁08:2	-11.4486
▁fundamental	-11.4487
979	-11.4487
▁charm	-11.4488
ratic	-11.4491
▁83	-11.4492
▁AW	-11.4495
▁SAM	-11.4496
▁Haz	-11.4496
▁bald	-11.45
mnest	-11.4502
▁SOL	-11.4502
▁Emm	-11.4502
▁Dama	-11.4503
▁dig	-11.4504
bek	-11.4505
▁Taco	-11.4508
▁1.8	-11.4509
paragraph	-11.4509
introduction	-11.4509
▁sensitiv	-11.451
▁soak	-11.4511
▁Sherr	-11.4513
▁twist	-11.4513
rose	-11.4514
▁FY	-11.4514
▁Offer	-11.4514
NCH	-11.4515
▁cup	-11.4515
▁mega	-11.4516
▁Lao	-11.4519
▁Fah	-11.452
▁lift	-11.4521
▁Gl	-11.4522
▁lieu	-11.4525
▁OR	-11.4526
WO	-11.4526
▁Kid	-11.4528
▁adjustment	-11.453
▁disease	-11.4536
▁consen	-11.4536
▁Commo	-11.4536
▁indefinite	-11.4537
oji	-11.4537
▁conspir	-11.4542
▁Sav	-11.4542
▁shrin	-11.4542
▁dear	-11.4543
▁Parad	-11.4545
▁Copy	-11.4547
▁Bud	-11.4549
eeze	-11.4549
▁Tig	-11.4556
ttag	-11.4563
▁(:	-11.4563
▁dual	-11.4567
oga	-11.4568
▁cease	-11.457
▁Butch	-11.4571
▁Tree	-11.4573
▁tree	-11.4574
▁limb	-11.4574
penetra	-11.4575
emp	-11.4576
/21/200	-11.4578
HILL	-11.4579
▁CAR	-11.4581
97	-11.4582
▁assert	-11.4584
▁environmental	-11.4585
▁Ash	-11.4586
ICE	-11.4586
▁insist	-11.4588
▁Leach	-11.4588
▁Warn	-11.459
▁Kan	-11.4593
▁ult	-11.4595
▁VC	-11.4595
▁......	-11.4595
▁Additional	-11.4595
▁survey	-11.4596
▁Libr	-11.4598
ode	-11.4599
cache	-11.4602
TT	-11.4603
mach	-11.4607
ERS	-11.4613
▁Dud	-11.4615
LL	-11.4616
OVE	-11.4616
▁Jenn	-11.462
▁affirm	-11.4624
▁Gate	-11.4627
▁continent	-11.4628
-37	-11.4632
▁thin	-11.4634
▁rubb	-11.4636
▁Paula	-11.4638
▁pinkie	-11.464
▁Cop	-11.4641
▁112	-11.4646
▁attribut	-11.4648
▁SP	-11.4648
▁designate	-11.465
▁grace	-11.4651
ssert	-11.4655
DU	-11.4656
ST	-11.4666
ecker	-11.4669
▁pest	-11.4669
consumer	-11.4671
▁layer	-11.4671
▁pant	-11.4678
▁Romani	-11.4678
▁Lie	-11.4688
OPE	-11.469
ganda	-11.469
▁accumulate	-11.4695
HU	-11.4696
▁peak	-11.4696
▁tre	-11.4698
▁deteriorate	-11.4698
▁Luc	-11.4702
▁Ana	-11.4703
▁cow	-11.4704
▁Philippines	-11.4707
▁Award	-11.4713
▁paro	-11.4715
▁Authorit	-11.472
▁wil	-11.4722
▁Mah	-11.4725
▁Rent	-11.4725
▁chat	-11.4726
logo	-11.4728
▁remove	-11.4728
▁bm	-11.4731
▁secretar	-11.4732
WW	-11.4737
UV	-11.474
▁teen	-11.4741
cation	-11.4747
ID	-11.4749
val	-11.4751
▁uni	-11.4753
▁Donald	-11.4756
▁sport	-11.4759
▁ridicul	-11.4765
/18	-11.477
eur	-11.4778
▁ramp	-11.4783
▁shin	-11.4783
treat	-11.4785
▁cry	-11.4787
CUR	-11.4788
▁Penta	-11.4795
▁600	-11.4796
piritual	-11.4798
1600	-11.4798
▁adher	-11.4801
317	-11.4813
▁reliab	-11.4814
▁apprehensi	-11.4814
erior	-11.4827
llage	-11.4833
▁02:	-11.4847
888.	-11.4852
▁Shar	-11.4853
Smart	-11.4856
▁zi	-11.4856
LIN	-11.4858
mine	-11.4868
upi	-11.4872
atio	-11.4874
▁string	-11.488
raiser	-11.4885
▁Eat	-11.4891
▁05:3	-11.4894
▁grade	-11.4895
▁corn	-11.4915
▁complicat	-11.4919
AY	-11.492
▁taxe	-11.4923
▁Haven	-11.4924
46	-11.4925
▁assum	-11.4931
term	-11.4938
▁Pape	-11.4939
▁relie	-11.494
utch	-11.4944
▁Heath	-11.495
anger	-11.4956
▁Assist	-11.4967
▁retir	-11.4967
toleran	-11.4969
▁acquir	-11.4969
nie	-11.4972
flow	-11.4979
core	-11.4982
▁lone	-11.4984
Cook	-11.4985
sfe	-11.4988
NER	-11.5004
▁viru	-11.5018
▁confus	-11.5026
fluent	-11.5027
▁04:0	-11.5033
▁reviewer	-11.5043
▁ham	-11.5058
ask	-11.5061
▁Judicia	-11.5064
▁decid	-11.5068
▁ele	-11.507
aragraph	-11.508
trial	-11.5092
▁nake	-11.5095
▁Gem	-11.5099
ung	-11.5107
▁willow	-11.5112
▁continu	-11.5115
▁Core	-11.5119
▁tablet	-11.5128
▁rac	-11.5128
▁enable	-11.5146
▁lick	-11.5148
▁Spo	-11.5158
295	-11.5172
AMI	-11.5178
▁fever	-11.5193
▁grav	-11.5196
cide	-11.5211
▁Cay	-11.5215
76	-11.5217
▁Jaz	-11.5242
▁Art	-11.5259
▁testif	-11.5264
bay	-11.5266
ache	-11.5282
soph	-11.5288
▁Boy	-11.5326
▁yea	-11.5329
52	-11.5343
▁sail	-11.5345
▁univers	-11.5353
FIT	-11.5368
▁Giv	-11.5385
▁fra	-11.5402
▁authoriz	-11.5404
▁spr	-11.5413
azi	-11.5418
▁Kent	-11.5431
▁Gall	-11.5432
NJ	-11.5433
smith	-11.544
▁realiz	-11.5442
---->	-11.5457
ogan	-11.5471
▁ze	-11.5473
▁joint	-11.5478
ritis	-11.5489
505	-11.549
▁brun	-11.5494
gu	-11.5504
anu	-11.5507
▁03:1	-11.5511
ild	-11.5528
▁ji	-11.5529
merge	-11.5534
▁10:4	-11.5534
▁lodg	-11.5542
lin	-11.5548
fighting	-11.5561
mole	-11.5563
▁equ	-11.5572
ATE	-11.5573
ood	-11.559
GT	-11.5597
▁lou	-11.5605
▁Bru	-11.5605
rton	-11.5609
▁STA	-11.564
▁var	-11.5655
▁poster	-11.5657
40	-11.5681
▁Rove	-11.5683
▁pin	-11.5698
▁primar	-11.5714
2,000	-11.5719
▁inquir	-11.5725
▁letha	-11.5738
▁Dev	-11.5743
▁primari	-11.5743
scht	-11.5769
lair	-11.5794
US	-11.5794
ocate	-11.5802
▁Had	-11.5804
/13/200	-11.5808
▁assistan	-11.5815
▁Blai	-11.5819
▁AD	-11.5827
▁MO	-11.588
mut	-11.5911
littl	-11.593
peak	-11.5939
▁frustrat	-11.5951
▁complet	-11.5972
▁democra	-11.5992
wash	-11.5994
▁calcul	-11.6005
▁Mod	-11.6016
ute	-11.6017
▁log	-11.6025
▁Stu	-11.6025
▁Calcul	-11.6028
▁Juli	-11.6044
▁Leit	-11.6048
▁repli	-11.6048
ldernes	-11.607
▁Ze	-11.6071
try	-11.6087
▁slave	-11.6088
introduce	-11.611
assure	-11.6111
appropriate	-11.6124
book	-11.6127
▁compa	-11.613
believe	-11.613
health	-11.6132
▁ill	-11.6141
meter	-11.6141
▁Sander	-11.6146
▁scar	-11.615
fund	-11.6153
oglenut	-11.6166
centre	-11.6174
▁practic	-11.6212
▁646	-11.6216
sale	-11.6217
▁coincide	-11.6227
▁Bart	-11.6248
ctic	-11.6254
tag	-11.627
▁shar	-11.6273
56	-11.6274
▁veg	-11.6276
made	-11.6277
▁Kindl	-11.6278
▁patien	-11.6285
▁hack	-11.6297
▁Scot	-11.6301
▁04:4	-11.6302
▁bon	-11.6317
22	-11.6336
ization	-11.6337
TER	-11.6338
▁reduc	-11.6338
▁Lia	-11.634
▁Wat	-11.6344
▁declar	-11.6366
▁Intelligen	-11.6376
▁Silk	-11.6386
▁silk	-11.6398
Comm	-11.6399
bia	-11.64
ommunicate	-11.6407
▁fulfil	-11.6411
▁703	-11.6414
▁intellect	-11.6417
▁conven	-11.6419
PERIENCE	-11.642
believabl	-11.642
▁Proposal	-11.642
▁SCAM	-11.642
▁Suppose	-11.642
▁accommodation	-11.642
▁explosive	-11.642
▁fabulous	-11.642
▁drunk	-11.642
▁reimburs	-11.642
▁WEEK	-11.642
▁saving	-11.642
▁overwhelming	-11.6421
▁invert	-11.6421
▁advantage	-11.6421
▁newspaper	-11.6421
▁convention	-11.6421
▁conclusion	-11.6421
▁tasting	-11.6421
KERS	-11.6422
▁STEA	-11.6422
▁notebook	-11.6422
▁Swede	-11.6422
▁neighbourhood	-11.6422
▁KNOW	-11.6422
▁timing	-11.6422
▁Moral	-11.6422
▁awful	-11.6423
▁forecast	-11.6424
▁Happ	-11.6424
▁intrude	-11.6424
▁SUP	-11.6424
▁sensor	-11.6425
▁renew	-11.6425
▁NEED	-11.6425
▁tension	-11.6425
▁lifeboat	-11.6425
▁bounce	-11.6425
▁disclose	-11.6425
▁Network	-11.6425
▁DAY	-11.6427
▁SCI	-11.6427
▁345-	-11.6428
▁150	-11.6429
▁Financial	-11.6429
▁aggravate	-11.6431
▁adv	-11.6432
vantage	-11.6433
burse	-11.6433
-80	-11.6433
▁acknowledg	-11.6434
▁notifi	-11.6434
▁unemploy	-11.6434
▁RU	-11.6435
▁organis	-11.6436
tragic	-11.6441
▁silkie	-11.6443
▁highlight	-11.6444
radian	-11.6446
PY	-11.6447
▁Heave	-11.6448
▁proposal	-11.645
▁345	-11.6451
▁reaction	-11.6451
▁unlike	-11.6453
▁blur	-11.6453
▁humm	-11.6453
cient	-11.6453
ju	-11.6455
alliance	-11.6455
▁stole	-11.6458
▁extradit	-11.6459
rmal	-11.6465
nformation	-11.6465
▁Further	-11.6465
▁tonne	-11.6465
▁Management	-11.6466
▁Hap	-11.6466
▁Land	-11.6468
▁airline	-11.6468
▁Regen	-11.6469
▁Senator	-11.6474
declare	-11.6475
▁resort	-11.6476
▁specialist	-11.6482
6,000	-11.6486
▁Entr	-11.6488
▁PHO	-11.6489
▁react	-11.6493
▁peaceful	-11.6494
▁Islamist	-11.6494
▁Intelligence	-11.6494
MP	-11.6496
▁universal	-11.6506
▁Travell	-11.6508
▁WOR	-11.6515
▁Personal	-11.6516
▁distan	-11.652
caution	-11.6524
▁impression	-11.6528
agr	-11.6529
▁73	-11.6531
▁propa	-11.654
▁courte	-11.6542
▁expression	-11.6548
▁objection	-11.6548
▁Bur	-11.6551
▁scary	-11.6554
TNA	-11.6554
▁09:2	-11.6558
erson	-11.6575
▁gamb	-11.6576
SSI	-11.6579
danger	-11.6582
▁myster	-11.6586
1/200	-11.6597
▁publication	-11.66
991	-11.6612
▁undermin	-11.6623
▁obligat	-11.6624
▁consideration	-11.6632
into	-11.6648
▁Nic	-11.666
▁Release	-11.6673
▁foreigner	-11.6696
1530	-11.6702
NITE	-11.6702
loss	-11.6712
-90	-11.6715
▁commander	-11.6721
pologize	-11.6729
OB	-11.6754
▁Soci	-11.6759
COR	-11.6765
bsite	-11.6769
▁chin	-11.6772
RUE	-11.6791
adi	-11.6797
▁reta	-11.6826
▁sel	-11.6828
▁raci	-11.683
▁schedul	-11.6831
▁launcher	-11.6847
▁mini	-11.6849
▁mu	-11.6852
EN	-11.6858
31	-11.687
ourtesy	-11.6872
▁Pala	-11.689
▁Brig	-11.6936
▁Calculat	-11.6937
luster	-11.6943
tho	-11.6958
senate	-11.6964
▁interviewer	-11.7001
▁stepp	-11.7001
▁PLA	-11.7012
▁provider	-11.7013
▁impe	-11.7016
Internet	-11.7021
rist	-11.7027
▁surviv	-11.7033
▁speaker	-11.7039
▁proceeding	-11.7039
▁propos	-11.7044
▁Emer	-11.7053
▁12:3	-11.7055
hou	-11.7058
▁Main	-11.7066
▁Boi	-11.7066
▁sad	-11.7089
▁37	-11.7107
ublin	-11.7115
lic	-11.7117
▁calculat	-11.7123
17	-11.7151
▁Map	-11.7174
kers	-11.7179
▁baker	-11.7179
▁winn	-11.7183
▁05:	-11.7216
weaponize	-11.7244
ban	-11.7244
mari	-11.7256
▁broker	-11.7272
NLI	-11.7289
▁Chil	-11.7293
pent	-11.7319
bio	-11.7321
▁Leav	-11.7324
▁Karl	-11.7331
uz	-11.7348
pg	-11.7362
▁Phe	-11.7368
bru	-11.7397
▁amuse	-11.7428
26	-11.7447
PC	-11.7449
▁examin	-11.7464
▁conclud	-11.7493
▁minim	-11.7499
hoa	-11.7509
▁skip	-11.7517
▁159	-11.7539
▁Connecti	-11.7548
▁Figure	-11.7559
scription	-11.7569
omin	-11.7596
▁preferr	-11.7601
▁01:	-11.761
▁Indo	-11.7618
▁colla	-11.7618
▁improv	-11.7624
172	-11.7639
▁Trad	-11.7645
▁Bond	-11.7655
435	-11.7663
IM	-11.769
ibu	-11.77
issa	-11.7708
▁replac	-11.7729
:50	-11.7743
▁clin	-11.7752
▁Exp	-11.7759
homa	-11.7761
▁Blan	-11.777
▁App	-11.7787
nam	-11.7797
▁struc	-11.7801
▁comprehen	-11.781
ETS	-11.782
liver	-11.7832
937	-11.7876
▁MM	-11.7886
mani	-11.7893
RY	-11.79
▁mast	-11.7903
900	-11.7907
▁refu	-11.7918
bel	-11.7924
OUR	-11.7948
▁appropriat	-11.7966
▁chor	-11.7967
▁phon	-11.7983
▁dresse	-11.8005
▁Tod	-11.801
nivers	-11.8018
/15/	-11.8019
▁VO	-11.8046
glo	-11.8052
asia	-11.8069
EED	-11.8071
lute	-11.8091
▁bre	-11.8103
lon	-11.8154
CLE	-11.8171
▁Infinit	-11.8176
cic	-11.8182
WAR	-11.8183
affle	-11.8184
▁prop	-11.8186
▁Fuj	-11.8194
▁Tenn	-11.8195
▁Fil	-11.8196
▁Temp	-11.821
odern	-11.8226
lev	-11.8234
rave	-11.8245
▁Elli	-11.8248
▁smok	-11.8251
169	-11.8267
▁manufactur	-11.8281
▁magn	-11.8283
▁Fran	-11.8327
▁inspir	-11.8329
warf	-11.8336
▁Clo	-11.8342
ida	-11.8343
▁12/2	-11.8351
▁adhere	-11.8352
▁110	-11.8352
rison	-11.8364
2.1	-11.8385
wel	-11.8388
oz	-11.8412
pin	-11.8439
itch	-11.8441
xact	-11.8459
▁Kil	-11.8473
ntity	-11.8475
STIC	-11.8479
▁Philippine	-11.8488
olution	-11.8489
▁82	-11.8492
NG	-11.8492
▁deteriorat	-11.8501
▁accumulat	-11.8504
lim	-11.8506
rass	-11.8513
tail	-11.8517
REE	-11.8519
NO	-11.8524
bag	-11.8526
regulate	-11.8527
NTO	-11.8535
▁attenti	-11.8537
itude	-11.8543
anna	-11.8556
6-9	-11.8564
▁Sec	-11.8564
elieve	-11.8574
▁rob	-11.8579
rett	-11.858
▁abou	-11.8589
aya	-11.8597
calcul	-11.86
continent	-11.8603
cycle	-11.8608
ART	-11.8608
hair	-11.8609
predict	-11.861
1.8	-11.8612
affirm	-11.8614
worm	-11.8614
cris	-11.8614
luna	-11.8615
DSL	-11.8615
▁stun	-11.8617
essential	-11.8618
▁54	-11.8619
arrange	-11.8619
crowd	-11.8619
phase	-11.862
▁GU	-11.8622
grace	-11.8622
mouth	-11.8624
screen	-11.8624
GCP	-11.8624
route	-11.8625
season	-11.8625
God	-11.8625
bott	-11.8626
Christ	-11.8626
CIA	-11.8626
build	-11.8627
fair	-11.8627
August	-11.8627
weapon	-11.8627
defens	-11.8627
suit	-11.8627
write	-11.8627
necessar	-11.8627
conference	-11.8627
birth	-11.8627
correct	-11.8628
common	-11.8628
human	-11.8628
approve	-11.8628
group	-11.8629
play	-11.8629
decide	-11.863
reported	-11.863
home	-11.863
pleasant	-11.863
$	-11.863
people	-11.863
trans	-11.863
post	-11.8631
produce	-11.8633
step	-11.8633
creat	-11.8634
certain	-11.8635
fire	-11.8635
TW	-11.8635
think	-11.8638
dog	-11.864
manager	-11.864
break	-11.8642
band	-11.8648
child	-11.865
▁hiberna	-11.8652
look	-11.8655
throw	-11.8656
live	-11.866
style	-11.8662
wait	-11.8663
will	-11.8665
parent	-11.8666
weigh	-11.8671
ink	-11.8671
face	-11.8677
raise	-11.8682
ila	-11.8685
rich	-11.8685
urniture	-11.8696
PEC	-11.8697
mmm	-11.8704
uk	-11.8704
▁Anth	-11.8711
phone	-11.8713
jah	-11.8716
▁Edm	-11.8718
▁EI	-11.8721
reach	-11.8724
even	-11.873
revision	-11.8736
23	-11.8736
▁shri	-11.874
pri	-11.8749
ump	-11.8751
troph	-11.8758
▁kilo	-11.876
Wh	-11.8761
down	-11.8767
duct	-11.8768
cupunctur	-11.877
mazing	-11.8774
WI	-11.8774
dvice	-11.8775
bear	-11.8778
▁consul	-11.8781
▁frequen	-11.8783
▁CD	-11.8785
▁Kor	-11.8788
▁Meet	-11.8791
▁Calcu	-11.8794
fine	-11.88
202.6	-11.8801
???	-11.8802
1,000	-11.8807
/04/	-11.8809
calf	-11.8816
▁crim	-11.8816
RO	-11.8816
▁Pu	-11.8818
▁gro	-11.8818
▁confid	-11.8818
POS	-11.8819
▁92	-11.8819
rren	-11.8821
hose	-11.8826
BRE	-11.883
ardo	-11.8832
JM	-11.8833
rise	-11.8846
evel	-11.8846
RAW	-11.8846
BL	-11.8848
▁guarant	-11.8851
kind	-11.8854
expect	-11.8857
urna	-11.8857
ARD	-11.8858
stein	-11.886
▁hijack	-11.8865
orato	-11.8868
cape	-11.8869
KS	-11.887
▁sham	-11.887
▁Lou	-11.8876
▁interfer	-11.8876
▁Bloo	-11.8876
▁NAM	-11.8878
▁FL	-11.8879
▁CHI	-11.8882
becu	-11.8883
▁persu	-11.8886
▁ram	-11.889
▁Capit	-11.8893
▁apo	-11.8895
automat	-11.8895
▁chick	-11.8896
▁electro	-11.8899
▁MU	-11.8902
laz	-11.8905
▁implic	-11.8905
▁custo	-11.8905
▁lop	-11.8906
2.9	-11.8906
ourage	-11.8907
ounsel	-11.8907
▁pix	-11.8908
onflict	-11.8909
avor	-11.891
ferr	-11.8912
▁Lind	-11.8912
NDI	-11.8912
▁jun	-11.8915
onym	-11.8915
▁experi	-11.8915
ajor	-11.8915
ndustr	-11.8916
▁08:5	-11.8916
ipur	-11.8917
▁calend	-11.8917
RECT	-11.8917
raduate	-11.8917
urchase	-11.8917
/8/	-11.8917
▁Qui	-11.8919
-20-	-11.8919
iagnos	-11.8919
eigh	-11.8919
uci	-11.8919
▁clu	-11.8919
▁cult	-11.8919
egulator	-11.8919
lude	-11.892
▁Aut	-11.892
▁01/2	-11.892
▁Apr	-11.892
estival	-11.892
▁appetize	-11.892
▁Carl	-11.892
Bockius	-11.892
▁kaplan	-11.892
eanutjak	-11.892
▁Bumrung	-11.892
▁synthe	-11.892
FINAL	-11.892
▁425-415-30	-11.892
▁QUES	-11.892
▁academ	-11.892
▁jeju	-11.892
▁obsess	-11.892
▁philo	-11.892
/11/2004	-11.892
9819602175	-11.892
Connell	-11.892
GIN	-11.892
McDermott	-11.892
SUL	-11.892
antifraud	-11.892
borenste	-11.892
cipal	-11.892
exercise	-11.892
fuddle	-11.892
▁**********	-11.892
▁10/31/	-11.892
▁11/7/08	-11.892
▁202.456.2461	-11.892
▁281-518-	-11.892
▁315-460-334	-11.892
▁713-793-	-11.892
▁832.676.	-11.892
▁94720	-11.892
▁Benefit	-11.892
▁Citizen	-11.892
▁Concern	-11.892
▁Coordinat	-11.892
▁Employ	-11.892
▁EnronOnLine	-11.892
▁Especial	-11.892
▁Evident	-11.892
▁Exercise	-11.892
▁Exocet	-11.892
▁Fernand	-11.892
▁Hikmet	-11.892
▁Hundred	-11.892
▁Intercept	-11.892
▁Lihaib	-11.892
▁Maitra	-11.892
▁Mechanic	-11.892
▁PEREGRIN	-11.892
▁Pacheco	-11.892
▁Pashtun	-11.892
▁Piccadill	-11.892
▁Politic	-11.892
▁Practice	-11.892
▁Project	-11.892
▁Public	-11.892
▁Record	-11.892
▁Restaurant	-11.892
▁Reuters	-11.892
▁Rothko	-11.892
▁Seleznov	-11.892
▁Shakespeare	-11.892
▁Teresa	-11.892
▁Woodinville	-11.892
▁abolish	-11.892
▁affiliate	-11.892
▁arbitrat	-11.892
▁budgie	-11.892
▁burglar	-11.892
▁cascade	-11.892
▁catastroph	-11.892
▁chromato	-11.892
▁circumstance	-11.892
▁compromis	-11.892
▁corporation	-11.892
▁dedicate	-11.892
▁emperor	-11.892
▁exhaust	-11.892
▁exponent	-11.892
▁giggle	-11.892
▁harbour	-11.892
▁inevitabl	-11.892
▁instigate	-11.892
▁instinct	-11.892
▁intrigue	-11.892
▁length	-11.892
▁microscop	-11.892
▁militia	-11.892
▁mitigat	-11.892
▁neglect	-11.892
▁nostril	-11.892
▁obedien	-11.892
▁oblivio	-11.892
▁pacify	-11.892
▁pedicure	-11.892
▁proficien	-11.892
▁refrigerat	-11.892
▁regulation	-11.892
▁repercussion	-11.892
▁restrict	-11.892
▁revolt	-11.892
▁scheme	-11.892
▁schizophreni	-11.892
▁simulat	-11.892
▁solicit	-11.892
▁sporadic	-11.892
▁subpoena	-11.892
▁succint	-11.892
▁surgical	-11.892
▁symptom	-11.892
▁unanimous	-11.892
▁volunteer	-11.892
▁wrinkle	-11.892
otorua	-11.892
rrupt	-11.892
▁718-780-0	-11.892
▁Arbitrat	-11.892
▁Effect	-11.892
▁Extreme	-11.892
▁Opportun	-11.892
▁Smartwol	-11.892
▁Stephen	-11.892
▁Video	-11.892
▁abominat	-11.892
▁capsule	-11.892
▁cogniti	-11.892
▁conciliat	-11.892
▁conquer	-11.892
▁disturb	-11.892
▁instrument	-11.892
▁interrupt	-11.892
▁mussel	-11.892
▁proponent	-11.892
▁punctua	-11.892
▁sacrifice	-11.892
▁sleeve	-11.892
▁suppress	-11.892
▁vessel	-11.892
▁witnesse	-11.892
▁510-642-	-11.892
▁Application	-11.892
▁Bridge	-11.892
▁Incredibl	-11.892
▁Orlando	-11.892
▁Prince	-11.892
▁Request	-11.892
▁Trail	-11.892
▁Visualiz	-11.892
▁analyze	-11.892
▁component	-11.892
▁diaper	-11.892
▁miracle	-11.892
▁proliferat	-11.892
▁swallow	-11.892
▁tropic	-11.892
▁Command	-11.892
▁frank	-11.892
▁shatter	-11.892
▁sympathizer	-11.892
▁unfortunate	-11.892
▁Affair	-11.892
▁Dharma	-11.892
▁Origin	-11.892
▁Rib	-11.892
▁legitima	-11.892
▁monument	-11.892
▁profile	-11.892
▁roost	-11.892
▁bacteri	-11.892
▁Maureen	-11.892
▁fanatic	-11.892
▁glu	-11.892
▁lamb	-11.892
IOUS	-11.892
▁Alpha	-11.892
▁distort	-11.892
▁encounter	-11.892
curricul	-11.892
parallel	-11.892
▁Delainey	-11.892
▁Physio	-11.892
▁creep	-11.892
▁yield	-11.892
ustria	-11.892
wikipedia	-11.892
▁BRING	-11.892
▁Fair	-11.892
▁Living	-11.892
▁OMG	-11.892
▁Rip	-11.892
nkman	-11.892
▁depict	-11.892
▁freak	-11.892
▁gesture	-11.892
▁nurture	-11.892
harmad	-11.892
828-	-11.892
▁Animal	-11.892
▁AMAZING	-11.892
▁bruise	-11.892
▁Through	-11.892
▁adopt	-11.892
▁commence	-11.892
▁03:3	-11.892
▁liquef	-11.892
▁massacr	-11.892
▁scandal	-11.892
▁unexpected	-11.892
6:5	-11.892
▁Factor	-11.892
▁Perkins	-11.892
/2011/09/	-11.8921
▁Picas	-11.8921
▁Trivi	-11.8921
▁genital	-11.8921
▁!!!!!!!!!!!!!!	-11.8921
▁Jorge	-11.8921
▁composit	-11.8921
▁laud	-11.8921
▁roast	-11.8921
▁thick	-11.8921
▁oppress	-11.8921
▁plead	-11.8921
▁scammer	-11.8921
▁manifest	-11.8921
▁nickname	-11.8921
▁parameter	-11.8921
ocre	-11.8921
▁Explor	-11.8921
▁Print	-11.8921
etcalfe	-11.8921
▁Ultra	-11.8921
▁grocer	-11.8921
▁Carlos	-11.8921
▁litho	-11.8921
▁Team	-11.8921
▁trigger	-11.8921
eterinar	-11.8921
▁Surge	-11.8921
BERT	-11.8921
▁Tajik	-11.8921
▁beaver	-11.8921
▁boost	-11.8921
▁Serious	-11.8921
▁cartoon	-11.8921
▁scan	-11.8921
▁brigade	-11.8921
LGG	-11.8921
▁chamber	-11.8921
▁riso	-11.8921
▁Enquire	-11.8921
▁identic	-11.8921
▁*****	-11.8921
▁vintage	-11.8921
▁Maintain	-11.8921
▁Clear	-11.8921
▁earthworm	-11.8921
▁incur	-11.8921
▁Gibb	-11.8921
▁Ineos	-11.8921
▁ribbon	-11.8921
▁wield	-11.8921
▁giant	-11.8921
53-3	-11.8921
▁incentive	-11.8921
▁bundl	-11.8921
▁stifle	-11.8921
▁burrow	-11.8921
▁colour	-11.8921
▁repuls	-11.8921
▁01:09	-11.8921
▁cotton	-11.8921
igli	-11.8921
▁nurse	-11.8921
▁Denis	-11.8921
▁Cruise	-11.8921
▁Visit	-11.8921
▁animate	-11.8921
▁Bolivia	-11.8921
▁annex	-11.8921
6867	-11.8921
▁violat	-11.8921
▁Honest	-11.8921
cfm	-11.8921
▁Dispos	-11.8921
▁database	-11.8921
▁shred	-11.8921
▁finch	-11.8921
▁978	-11.8921
▁extraordinar	-11.8921
▁Motor	-11.8922
▁****	-11.8922
▁Strong	-11.8922
▁sweep	-11.8922
▁armature	-11.8922
▁vanish	-11.8922
competen	-11.8922
▁Holocaust	-11.8922
▁Workshop	-11.8922
▁astound	-11.8922
▁conservative	-11.8922
▁predominant	-11.8922
▁geno	-11.8922
orneby	-11.8922
UFF	-11.8922
▁12-20-	-11.8922
▁furnish	-11.8922
▁glar	-11.8922
▁wander	-11.8922
▁rode	-11.8922
▁Quick	-11.8922
▁modul	-11.8922
▁neuro	-11.8922
:29	-11.8922
▁11:1	-11.8922
▁Nella	-11.8922
▁bluff	-11.8922
▁orient	-11.8922
▁202.7	-11.8922
▁Olymp	-11.8922
▁thwart	-11.8922
:00:5	-11.8922
▁nick	-11.8922
▁homo	-11.8923
▁rifle	-11.8923
▁shrew	-11.8923
▁Aka	-11.8923
obl	-11.8923
▁Shawn	-11.8923
▁vani	-11.8923
▁plunge	-11.8923
▁rival	-11.8923
▁definition	-11.8923
▁tongue	-11.8923
▁maul	-11.8923
abbit	-11.8923
541	-11.8923
▁digit	-11.8923
MISSI	-11.8923
▁Killi	-11.8923
▁Flip	-11.8923
▁enterprise	-11.8923
obey	-11.8923
▁Success	-11.8924
▁11/8/	-11.8924
▁dramatic	-11.8924
▁optimis	-11.8924
▁Taj	-11.8924
▁infra	-11.8924
▁praise	-11.8924
sky	-11.8924
▁Economic	-11.8924
▁mathematic	-11.8924
RED	-11.8924
▁york	-11.8924
▁Pitt	-11.8924
▁Brenda	-11.8924
▁Chandelier	-11.8924
▁socio	-11.8924
▁grandmother	-11.8924
▁Orla	-11.8924
▁random	-11.8924
▁paris	-11.8925
▁advertis	-11.8925
4-12	-11.8925
▁casual	-11.8925
▁taco	-11.8925
▁Afr	-11.8925
roblem	-11.8925
▁Regist	-11.8925
▁archive	-11.8925
▁premise	-11.8925
▁202-	-11.8926
▁SUN	-11.8926
▁grateful	-11.8926
callop	-11.8926
▁Dart	-11.8926
▁bride	-11.8926
▁ABB	-11.8926
▁trademark	-11.8926
▁Quebec	-11.8926
▁08:50	-11.8926
URY	-11.8926
▁Sche	-11.8926
▁shake	-11.8926
▁crep	-11.8926
▁brake	-11.8927
▁chant	-11.8927
▁arsen	-11.8927
▁fright	-11.8927
▁possess	-11.8927
▁Ameri	-11.8927
▁Patel	-11.8927
scus	-11.8927
▁glasse	-11.8927
▁carrot	-11.8928
▁magnet	-11.8928
▁insect	-11.8928
▁tint	-11.8928
▁sexual	-11.8928
▁Margar	-11.8928
▁retard	-11.8928
▁Goldman	-11.8928
▁Ahmad	-11.8928
VAL	-11.8928
haz	-11.8928
▁suffi	-11.8928
MIT	-11.8928
▁detract	-11.8929
▁BRO	-11.8929
▁rinse	-11.8929
agg	-11.8929
▁junk	-11.8929
▁deput	-11.8929
compartment	-11.8929
▁Tint	-11.8929
▁stooge	-11.8929
▁swea	-11.8929
▁Palm	-11.8929
▁Cart	-11.893
▁contribution	-11.893
ocument	-11.893
▁punch	-11.893
liza	-11.893
▁biochemi	-11.8931
▁Expansion	-11.8931
▁Morr	-11.8931
▁slant	-11.8931
▁gastro	-11.8931
▁11:35	-11.8931
nka	-11.8931
▁desert	-11.8932
frame	-11.8932
▁BRI	-11.8932
▁42,000	-11.8932
▁Representati	-11.8932
▁toilet	-11.8932
▁Pompe	-11.8933
dict	-11.8933
▁crisp	-11.8933
▁revers	-11.8933
▁neurolog	-11.8933
ubstanti	-11.8934
▁Aplo	-11.8934
crumb	-11.8934
▁Simon	-11.8934
▁festival	-11.8934
▁Gill	-11.8934
▁sanction	-11.8934
▁Buis	-11.8934
▁Sheik	-11.8935
▁knee	-11.8935
▁cabinet	-11.8935
▁overflow	-11.8935
▁propertie	-11.8935
▁rotat	-11.8935
▁intuitive	-11.8935
▁earthquake	-11.8935
▁aggressive	-11.8935
fold	-11.8936
▁implicate	-11.8936
▁transition	-11.8936
▁Bash	-11.8936
REA	-11.8936
▁Patien	-11.8936
▁wallet	-11.8936
mmon	-11.8937
▁INS	-11.8937
▁executive	-11.8937
▁LIST	-11.8937
▁reneg	-11.8937
▁consol	-11.8938
▁SOU	-11.8938
▁timeframe	-11.8938
▁contend	-11.8938
LUS	-11.8938
▁Dentist	-11.8938
wyn	-11.8938
ourish	-11.8938
▁tab	-11.8939
▁Treat	-11.8939
▁Conf	-11.8939
▁displace	-11.8939
aath	-11.8939
ucei	-11.894
▁Shady	-11.894
▁sku	-11.894
▁Mount	-11.894
▁VP	-11.894
▁Degu	-11.894
▁tear	-11.8941
▁absor	-11.8941
▁esp	-11.8941
▁Dari	-11.8941
▁boil	-11.8941
▁overcharge	-11.8942
▁ECC	-11.8942
▁Tire	-11.8942
rilla	-11.8943
jp	-11.8943
▁Beau	-11.8943
feb	-11.8944
zb	-11.8944
▁anonym	-11.8944
▁Wax	-11.8944
phant	-11.8944
▁Nope	-11.8945
▁yam	-11.8945
inski	-11.8945
▁Feli	-11.8945
▁retail	-11.8946
▁enrol	-11.8946
▁366	-11.8946
▁disgu	-11.8947
▁Respect	-11.8947
▁Malaysia	-11.8947
▁Guarant	-11.8947
▁bob	-11.8947
▁frighten	-11.8947
▁ESA	-11.8947
automatic	-11.8947
▁Mathematic	-11.8948
▁Mobil	-11.8948
▁Way	-11.8949
tutorial	-11.8949
▁canoe	-11.895
▁tub	-11.895
▁uh	-11.895
▁mask	-11.895
▁Brick	-11.895
▁alchem	-11.8952
▁Garage	-11.8952
▁resolution	-11.8952
▁Capital	-11.8953
836	-11.8953
▁Transport	-11.8953
galen	-11.8954
▁Ador	-11.8954
▁Harp	-11.8955
hemical	-11.8956
▁civilian	-11.8956
▁outlet	-11.8957
▁grate	-11.8959
111	-11.8959
onica	-11.8959
▁Hour	-11.8959
▁grabb	-11.8959
iro	-11.8959
appell	-11.896
▁swear	-11.896
721	-11.8961
▁Sony	-11.8961
▁faithful	-11.8961
iriya	-11.8962
ROD	-11.8962
▁Arth	-11.8962
▁Brandee	-11.8962
▁Flex	-11.8962
▁SAL	-11.8962
▁Kriste	-11.8962
▁trig	-11.8963
▁Malay	-11.8964
▁Kos	-11.8965
▁980	-11.8965
▁labor	-11.8966
mmo	-11.8966
▁rad	-11.8967
▁fries	-11.8967
▁Tru	-11.8967
▁blackline	-11.8967
jum	-11.8968
▁Blood	-11.8969
▁decorate	-11.8969
▁Tro	-11.897
▁flor	-11.897
DR	-11.897
▁respectful	-11.8971
▁prob	-11.8971
▁centi	-11.8972
▁lane	-11.8973
▁gull	-11.8975
ntage	-11.8976
▁aut	-11.8976
▁hijacker	-11.8976
▁reap	-11.8976
▁SEC	-11.8977
5-2	-11.8978
rocco	-11.8979
▁TG	-11.8979
▁lean	-11.8979
▁ecolog	-11.8979
BY	-11.8979
▁cement	-11.8981
▁Wheel	-11.8981
▁pie	-11.8981
▁HATE	-11.8981
▁politician	-11.8983
▁Maria	-11.8984
RDO	-11.8984
77.9	-11.8984
iction	-11.8984
nasa	-11.8985
▁repris	-11.8986
▁5.3	-11.8986
▁Croat	-11.8987
itchen	-11.8988
▁220	-11.8988
fish	-11.8988
sume	-11.8988
wap	-11.899
EGA	-11.899
▁pit	-11.899
▁thieve	-11.8991
enstein	-11.8992
▁advisor	-11.8992
▁Orwell	-11.8993
▁Bowen	-11.8994
▁icon	-11.8995
▁withdraw	-11.8996
▁PUT	-11.8997
molest	-11.8998
cia	-11.9002
MB	-11.9002
▁horn	-11.9002
▁remed	-11.9002
▁micron	-11.9002
▁Kline	-11.9002
▁COU	-11.9003
▁gasp	-11.9006
▁Aeron	-11.9006
▁lob	-11.9007
endorf	-11.9007
hawk	-11.9008
▁Customer	-11.9008
rizon	-11.9008
bage	-11.901
▁remark	-11.901
▁bold	-11.9011
REN	-11.9011
▁deregulat	-11.9012
▁respective	-11.9013
▁confl	-11.9014
▁Host	-11.9014
▁cele	-11.9017
▁hardline	-11.9017
ffer	-11.9017
▁Lara	-11.9018
▁5.1	-11.9019
▁Wish	-11.9023
onnais	-11.9023
gc	-11.9025
clip	-11.9025
earn	-11.9025
▁aviat	-11.9027
▁thankful	-11.9027
▁bind	-11.9029
▁max	-11.903
▁Wind	-11.9031
▁Luck	-11.9031
zip	-11.9032
▁415.	-11.9032
▁Reg	-11.9034
▁Meditat	-11.9034
nym	-11.9035
▁transferr	-11.9035
▁Arya	-11.9035
juan	-11.9036
zak	-11.9036
▁parade	-11.9037
/14	-11.9037
▁pc	-11.9037
▁Isma	-11.9039
▁incompeten	-11.9039
▁mania	-11.9039
▁fuck	-11.904
140	-11.904
▁temper	-11.9041
▁Casta	-11.9043
▁HD	-11.9043
▁cab	-11.9044
▁Cran	-11.9044
▁Mia	-11.9045
QL	-11.9046
immigrate	-11.9047
rising	-11.9049
▁trio	-11.9049
▁WE	-11.905
cole	-11.9051
▁goug	-11.9053
▁cere	-11.9053
▁Cake	-11.9053
▁dept	-11.9057
▁Warm	-11.9057
▁reschedul	-11.9058
▁immun	-11.9058
▁Abu	-11.9061
▁202.	-11.9061
920	-11.9063
mag	-11.9063
▁moor	-11.9065
▁restrain	-11.9066
ALO	-11.9069
▁Line	-11.9069
▁forbid	-11.9069
lain	-11.9069
kha	-11.9073
hcroft	-11.9074
▁chop	-11.9076
tock	-11.9077
▁Cru	-11.9079
▁Report	-11.9079
▁sem	-11.908
▁overture	-11.908
umin	-11.908
▁Cass	-11.9081
▁Savi	-11.9082
HER	-11.9083
▁minimiz	-11.9083
▁kilomet	-11.9083
▁yum	-11.9084
▁Eur	-11.9085
▁Mandi	-11.9087
▁atroph	-11.9087
▁chill	-11.9093
▁merc	-11.9094
▁MT	-11.9094
otel	-11.9095
PRO	-11.9096
▁chore	-11.9096
tique	-11.9097
2-0	-11.9097
▁Iraqiya	-11.9101
▁graz	-11.9105
Sus	-11.9106
▁Pil	-11.9106
ecision	-11.9107
ispute	-11.9109
▁Doc	-11.911
▁FREE	-11.9111
OR	-11.9111
▁Chand	-11.9113
NTA	-11.9116
rug	-11.9119
inta	-11.912
judgment	-11.9122
▁Elect	-11.9122
▁blade	-11.9125
hunk	-11.9127
alam	-11.9127
brid	-11.9134
▁Mell	-11.9136
VEN	-11.9138
▁Conn	-11.9141
fertil	-11.9149
lema	-11.9151
▁Walker	-11.9154
▁Oat	-11.9155
▁admi	-11.9156
▁Caroline	-11.9158
▁Wok	-11.9158
▁oust	-11.916
▁Penny	-11.9165
eval	-11.9167
▁contractor	-11.9172
▁perce	-11.918
Ell	-11.9181
238	-11.9181
▁eg	-11.9182
65.	-11.9184
ause	-11.9185
▁Weil	-11.9185
▁Marine	-11.9188
▁hibernat	-11.9196
▁furn	-11.9198
SD	-11.92
▁Ul	-11.9207
▁convinc	-11.921
▁CF	-11.9219
fabricate	-11.922
▁ruler	-11.9222
▁barre	-11.9223
▁Touch	-11.9224
teria	-11.9229
▁Beach	-11.9236
▁Meeting	-11.924
UAR	-11.9248
▁06:2	-11.9265
▁pic	-11.9267
▁engineer	-11.9269
▁JO	-11.9276
▁BLA	-11.9278
▁1.6	-11.9285
erivative	-11.9293
lymp	-11.93
▁container	-11.9302
▁Entit	-11.931
▁Serv	-11.9312
Callum	-11.9319
zzin	-11.9328
tuna	-11.9329
NTER	-11.933
▁Mother	-11.9331
iffe	-11.9333
▁Probabl	-11.9334
▁promot	-11.9335
▁Aid	-11.9347
▁DS	-11.9349
▁COME	-11.9352
2,500	-11.9353
▁statue	-11.9357
▁Jai	-11.9362
▁mont	-11.9377
EST	-11.9378
alikh	-11.9386
▁Tit	-11.9392
Funk	-11.9396
▁Petr	-11.9403
avy	-11.9403
▁hon	-11.9404
▁bankruptc	-11.9406
356	-11.9414
▁Mexican	-11.9422
▁3.2	-11.9424
6.1	-11.9444
promotion	-11.9448
UGHT	-11.9457
▁07:5	-11.9457
rish	-11.9466
270	-11.9468
divi	-11.948
▁Ol	-11.9483
▁bush	-11.9496
cou	-11.9498
ork	-11.9519
ERG	-11.9536
▁prud	-11.9542
237	-11.9561
▁conte	-11.9567
▁Cole	-11.9571
▁appal	-11.9578
▁Vot	-11.9588
▁Pott	-11.9589
▁transcend	-11.959
gnific	-11.9593
▁Cut	-11.9614
▁announc	-11.9618
rpes	-11.9621
▁06:1	-11.9631
▁boun	-11.9633
vite	-11.9635
▁poly	-11.9639
▁inten	-11.964
HI	-11.9657
▁Jok	-11.9661
098	-11.9668
hl	-11.9689
wei	-11.9694
brea	-11.9695
▁End	-11.9699
OKE	-11.9727
/200	-11.9752
▁pip	-11.9756
▁stem	-11.9761
corne	-11.9763
elon	-11.9764
▁invoic	-11.977
▁accidental	-11.9771
atisfactory	-11.9808
▁hmmm	-11.9814
chord	-11.9816
grow	-11.9817
29.	-11.9831
▁Jou	-11.9838
▁Barr	-11.984
▁browse	-11.9855
▁occasional	-11.9859
▁Rh	-11.9867
beginner	-11.9869
appropriation	-11.987
dlin	-11.9886
reakfast	-11.9901
rti	-11.9948
ACK	-11.9949
OON	-11.9989
57	-12.0007
ERI	-12.0023
78	-12.004
lax	-12.0064
▁isolat	-12.007
Mayur	-12.007
azin	-12.0087
fuge	-12.009
▁expir	-12.0107
▁02:2	-12.0126
▁05:5	-12.0132
555	-12.0146
▁comprehensi	-12.0169
▁sampl	-12.0184
▁Equ	-12.0184
VS	-12.0184
▁Fac	-12.0186
UC	-12.019
▁Mini	-12.0201
▁12:4	-12.0207
scons	-12.021
NOW	-12.0215
3.1	-12.0219
▁Tol	-12.0236
TRA	-12.0251
▁scru	-12.0284
▁maint	-12.0286
▁10.9	-12.0313
Bull	-12.0327
rik	-12.0329
lier	-12.0422
amble	-12.0424
▁Valen	-12.0443
lator	-12.0478
logg	-12.0493
imien	-12.0497
▁Swi	-12.0499
▁09:5	-12.0501
▁shou	-12.0502
▁04:5	-12.0509
▁Connect	-12.051
quisit	-12.0525
tpu	-12.0579
▁financ	-12.0616
alab	-12.0643
490	-12.0703
▁vot	-12.0715
▁Intr	-12.0735
01.	-12.0739
RL	-12.0762
▁Eva	-12.0764
▁reassure	-12.0768
illi	-12.0794
amu	-12.0798
2/22/200	-12.0821
▁economical	-12.0841
Run	-12.0842
pro	-12.0847
▁Kit	-12.0876
reconcil	-12.0907
DIS	-12.0912
opp	-12.0915
LAN	-12.0922
ique	-12.0937
▁Lun	-12.0938
INT	-12.0959
ephe	-12.0973
=1	-12.1009
▁Gree	-12.1029
lov	-12.103
stip	-12.1033
▁tun	-12.1056
9.3	-12.1068
mini	-12.1085
cla	-12.1133
▁satisfact	-12.114
cust	-12.1145
▁Assistan	-12.1171
▁02:4	-12.1259
lou	-12.1263
level	-12.1305
115	-12.1318
▁spon	-12.132
▁UP	-12.1323
▁eliminat	-12.1338
▁appreciat	-12.1386
▁electron	-12.1408
▁Locat	-12.1415
rane	-12.1419
easure	-12.147
orton	-12.1485
▁Creat	-12.1523
arine	-12.1534
▁Oc	-12.1565
▁skim	-12.1573
otid	-12.1581
▁criticis	-12.1588
987	-12.16
lotter	-12.1625
NCE	-12.163
▁Appe	-12.1634
▁Came	-12.17
direct	-12.1714
▁fli	-12.1727
▁Soli	-12.1766
clusion	-12.1774
▁encourag	-12.1795
▁Roman	-12.1822
▁beneficia	-12.1862
giv	-12.1862
▁CON	-12.1885
keep	-12.1929
version	-12.193
function	-12.1942
logic	-12.1943
India	-12.1963
breed	-12.1966
expense	-12.1972
functional	-12.1975
▁Import	-12.1978
jit	-12.201
▁Specif	-12.2012
▁prepar	-12.2015
happ	-12.2046
personal	-12.2047
clusive	-12.2049
RT	-12.2089
merican	-12.2091
▁pollut	-12.2104
605	-12.211
structur	-12.2114
▁efficien	-12.2117
▁insurgen	-12.2117
ologist	-12.2122
▁Person	-12.2147
▁circl	-12.2152
plex	-12.2157
▁grandm	-12.2168
:57	-12.2173
▁jok	-12.2177
▁reccom	-12.2188
▁Driv	-12.22
▁percept	-12.2221
rticle	-12.2222
▁Profess	-12.2224
sumption	-12.2227
▁Prepare	-12.2227
cognize	-12.2233
▁aggravat	-12.2234
▁psych	-12.2237
onfidential	-12.2241
▁circ	-12.2242
nclude	-12.2243
TOR	-12.2247
lamist	-12.2248
▁marvel	-12.2249
bble	-12.2251
ivate	-12.2251
nstruction	-12.2252
descript	-12.2253
dominant	-12.2253
▁Approval	-12.2254
▁CONFIDENTIAL	-12.2254
▁GROUP	-12.2254
▁Methodi	-12.2254
▁Techno	-12.2254
▁butterfly	-12.2254
▁kidnapp	-12.2254
▁motivation	-12.2254
▁prepayment	-12.2254
▁professor	-12.2254
▁stylist	-12.2254
▁APPROV	-12.2254
▁Implicate	-12.2254
▁SHOCK	-12.2254
▁Satisf	-12.2254
ABUL	-12.2254
EQU	-12.2254
esthetic	-12.2254
▁duplic	-12.2254
▁Brawl	-12.2254
AAAAAG	-12.2254
▁CHRIS	-12.2254
▁residence	-12.2254
▁Netherlands	-12.2254
▁OPEN	-12.2254
▁Cauc	-12.2254
▁flicker	-12.2254
▁Digit	-12.2254
▁passenger	-12.2254
ECES	-12.2254
editorial	-12.2254
ethics	-12.2254
SWER	-12.2254
▁equival	-12.2254
▁brainwash	-12.2254
▁BALL	-12.2254
▁cosmo	-12.2255
▁accompan	-12.2255
▁mysterious	-12.2255
▁appetizers	-12.2255
▁dip	-12.2255
▁regulator	-12.2255
▁Platt	-12.2255
Cooper	-12.2255
▁enclos	-12.2256
NATION	-12.2257
▁Niger	-12.2257
trospect	-12.2257
▁Environment	-12.2258
▁barcode	-12.2258
▁Wildwood	-12.2258
▁marvelous	-12.2258
▁DOOR	-12.2258
▁blend	-12.2258
ALK	-12.2259
▁Tourist	-12.2259
▁enthusiastic	-12.2259
▁intellectual	-12.2259
▁Trac	-12.2259
▁batter	-12.226
▁warlord	-12.226
▁Enter	-12.226
▁plotter	-12.2261
▁McM	-12.2262
▁scientist	-12.2263
ACT	-12.2264
▁COST	-12.2264
▁BOTHER	-12.2264
therapist	-12.2265
plo	-12.2265
▁Enjoy	-12.2265
▁genetic	-12.2266
▁distance	-12.2267
▁NICE	-12.2267
▁dislike	-12.227
nap	-12.227
▁fulfill	-12.2271
▁History	-12.2271
▁justifie	-12.2272
ITY	-12.2273
▁Baathist	-12.2273
OME	-12.2273
▁ownership	-12.2274
▁endanger	-12.2274
▁recognize	-12.2274
▁embr	-12.2278
▁blurr	-12.2279
▁grandson	-12.2279
709	-12.2279
▁inspector	-12.2281
▁dragg	-12.2283
▁musician	-12.2283
▁Rosem	-12.2284
▁Depend	-12.2285
▁Nether	-12.2286
▁hike	-12.2287
▁perception	-12.2287
▁Remove	-12.2288
▁assumption	-12.2288
▁01:0	-12.229
▁workshop	-12.2292
▁RET	-12.2295
▁retreat	-12.2296
▁Rose	-12.2297
▁Photo	-12.23
▁percentage	-12.2301
▁undertake	-12.2304
▁clari	-12.2306
▁Ranger	-12.2306
-27	-12.2307
▁phill	-12.231
▁jumb	-12.2311
▁accomplishment	-12.2313
keeper	-12.2314
▁flopp	-12.2314
▁worse	-12.2316
▁immigra	-12.2318
▁flipp	-12.2321
ixture	-12.2323
▁detector	-12.2324
▁republic	-12.2326
▁HAND	-12.2328
▁merg	-12.233
▁bound	-12.2334
▁Week	-12.2334
▁innovation	-12.234
▁Story	-12.2344
▁preference	-12.2345
▁polluter	-12.2348
NAME	-12.2349
4-1	-12.2355
▁aspirin	-12.2361
MBER	-12.2364
▁referral	-12.2369
ragi	-12.237
▁Tour	-12.2381
▁Akin	-12.2383
▁Tri	-12.2386
▁cancell	-12.2387
▁Sill	-12.239
▁budd	-12.2393
▁Show	-12.2395
mps	-12.2401
▁Flo	-12.2404
rift	-12.2415
▁Recommend	-12.2416
▁BRA	-12.2431
allie	-12.2445
▁practical	-12.2464
▁dancer	-12.2465
▁inexpe	-12.2476
hackle	-12.249
URGE	-12.2497
▁verifie	-12.2501
▁invo	-12.2504
redirect	-12.2509
▁teenage	-12.253
▁Specifi	-12.2537
▁journalist	-12.255
▁exceptional	-12.2554
OST	-12.2563
▁Mommi	-12.2569
▁Electron	-12.2574
WL	-12.2583
CTION	-12.2634
IND	-12.2655
UCK	-12.267
▁benefic	-12.269
▁Bell	-12.2695
▁probab	-12.2706
▁arrangement	-12.271
GO	-12.2781
▁Nel	-12.2791
!?	-12.2791
▁DI	-12.2792
▁qua	-12.2835
RTH	-12.2944
YSTIC	-12.2965
▁exclusi	-12.2975
▁clarif	-12.3043
▁neocon	-12.3055
ornell	-12.3088
Germany	-12.3256
▁Dia	-12.3294
▁compet	-12.336
vie	-12.3361
-4	-12.3381
separa	-12.3432
▁12:0	-12.3491
dependent	-12.3495
▁traffick	-12.35
▁promi	-12.3507
photographer	-12.3555
▁Associat	-12.3759
PE	-12.3768
ORD	-12.3896
46-5	-12.3916
▁PAI	-12.3973
▁BEN	-12.4008
▁08/0	-12.402
solid	-12.4042
▁Polan	-12.4109
▁11/2	-12.4206
▁introduc	-12.4223
high	-12.4289
▁graduat	-12.4302
▁reserv	-12.4308
▁08:	-12.4327
▁libe	-12.4333
acqui	-12.4336
rumble	-12.4356
▁Simi	-12.438
▁Astr	-12.4383
iri	-12.4418
▁uncle	-12.4459
▁Blog	-12.4466
yani	-12.4477
eceive	-12.448
▁achiev	-12.4508
ASS	-12.4567
allery	-12.4608
535	-12.4626
5,0	-12.4644
hurs	-12.4646
aimed	-12.4694
368	-12.4724
iji	-12.4785
09/11/	-12.4801
181	-12.485
▁Kap	-12.4923
sterda	-12.4923
▁emerg	-12.4978
▁ensur	-12.498
▁Clau	-12.4981
earch	-12.504
509	-12.5049
▁flex	-12.5065
ramb	-12.5158
▁invok	-12.5284
udiciary	-12.5291
▁05/0	-12.5316
TIS	-12.5331
photos	-12.5338
▁1.0	-12.5342
▁STO	-12.539
▁Corel	-12.5584
▁MOO	-12.5628
▁complic	-12.5656
▁educat	-12.5661
▁preferabl	-12.5743
▁60,00	-12.5765
3098	-12.5768
▁damag	-12.5807
▁Participa	-12.5855
ranscendent	-12.5883
ISH	-12.589
▁associat	-12.5901
mille	-12.5917
▁apprehen	-12.5964
▁Spirit	-12.5981
▁18:	-12.5987
/09/	-12.602
Arts	-12.6078
ampag	-12.6081
93	-12.6175
/4	-12.6199
latin	-12.6219
UGH	-12.6229
/22/200	-12.6234
▁888	-12.6236
/26/	-12.6248
▁Author	-12.6253
rgy	-12.627
▁experienc	-12.6303
▁nationalis	-12.6337
Inn	-12.6344
/03/	-12.6351
▁Prob	-12.6362
546	-12.6364
▁BAC	-12.6373
▁intermedia	-12.6391
asingh	-12.6396
sheri	-12.6405
▁conceiv	-12.6449
▁713/853	-12.6467
artial	-12.6469
bject	-12.6482
contacts	-12.6575
ossi	-12.6579
integrat	-12.6619
commit	-12.6631
OID	-12.6659
▁281-	-12.669
▁judg	-12.6712
▁2.0	-12.6713
▁TOO	-12.6786
2.4	-12.6839
▁CHIL	-12.6847
▁embarras	-12.6848
ompete	-12.6861
chemic	-12.6868
limber	-12.6874
RCO	-12.6893
RCH	-12.69
▁05/3	-12.69
croft	-12.6912
poo	-12.6914
RGE	-12.6917
▁diploma	-12.6917
Meeting	-12.6925
baker	-12.6931
examin	-12.6934
courte	-12.6936
ecula	-12.6936
!!!	-12.694
sensitiv	-12.6941
disease	-12.6941
ivit	-12.6943
(	-12.6944
Jul	-12.6945
cultur	-12.6946
desir	-12.6946
viru	-12.6947
Think	-12.6948
polite	-12.6948
interfere	-12.6948
google	-12.6949
label	-12.6949
Security	-12.695
colon	-12.6951
motive	-12.6951
fashion	-12.6952
negotiat	-12.6954
Moslem	-12.6955
convenient	-12.6955
signature	-12.6956
democrat	-12.6956
confer	-12.6956
religion	-12.6956
camp	-12.6957
:(	-12.6957
horses	-12.6957
Trade	-12.6958
original	-12.6959
satisf	-12.6959
christ	-12.6959
LOC	-12.696
violen	-12.696
Love	-12.6961
video	-12.6961
priest	-12.6961
assign	-12.6961
equip	-12.6961
estimate	-12.6961
People	-12.6962
OVER	-12.6962
popul	-12.6962
opinion	-12.6963
specif	-12.6963
content	-12.6963
white	-12.6963
affect	-12.6963
crime	-12.6963
establish	-12.6963
patient	-12.6963
profession	-12.6964
model	-12.6964
circle	-12.6964
fresh	-12.6964
invest	-12.6964
interview	-12.6964
politic	-12.6964
default	-12.6965
freez	-12.6965
accept	-12.6965
course	-12.6965
father	-12.6965
design	-12.6965
piece	-12.6965
restaurant	-12.6965
current	-12.6965
job	-12.6966
worth	-12.6966
visit	-12.6966
lieu	-12.6966
couple	-12.6966
Oct	-12.6966
point	-12.6966
interest	-12.6966
experience	-12.6966
FOR	-12.6966
world	-12.6967
"	-12.6967
safe	-12.6967
Free	-12.6968
wind	-12.6968
earl	-12.6969
bulb	-12.6969
process	-12.697
Arab	-12.6971
lift	-12.6973
regular	-12.6973
2004	-12.6973
understand	-12.6973
media	-12.6974
ITE	-12.6977
organize	-12.6978
May	-12.698
▁reintroduc	-12.6985
apply	-12.6985
ampl	-12.6986
1/30/	-12.6988
703	-12.6993
3/10/	-12.7002
apolog	-12.7005
avo	-12.7008
ault	-12.703
buddi	-12.7031
biolog	-12.7038
flag	-12.7042
valid	-12.7061
laborat	-12.7066
quan	-12.707
▁necess	-12.7076
dvisor	-12.7092
GM	-12.7095
ficial	-12.7102
▁ambi	-12.7102
Hodg	-12.7104
▁immig	-12.7105
ppreciate	-12.711
▁flexib	-12.711
vail	-12.711
▁arrogan	-12.7113
estimony	-12.7114
▁envelop	-12.712
quir	-12.7123
▁enabl	-12.7123
▁mosqu	-12.7132
▁provinc	-12.7136
▁Croa	-12.7143
▁Mala	-12.7143
▁righ	-12.7144
▁convenien	-12.7147
ounce	-12.7149
▁virtu	-12.7149
MW	-12.7159
▁choos	-12.7165
▁Krist	-12.7167
concept	-12.7168
define	-12.7169
▁Speci	-12.7169
▁Brande	-12.7169
bina	-12.7174
▁civ	-12.7181
ogi	-12.7181
▁tutor	-12.7189
ATIN	-12.7189
UI	-12.7194
ARA	-12.72
▁hysteri	-12.7205
judic	-12.7205
nnounce	-12.721
▁Curr	-12.7211
ranc	-12.7212
America	-12.7213
▁soci	-12.7216
ONAR	-12.7216
USH	-12.7216
AIN	-12.7217
▁Umm	-12.7217
▁Compa	-12.7218
▁enviro	-12.7219
funct	-12.7221
▁sanct	-12.7222
umero	-12.7223
▁scree	-12.7225
▁aqua	-12.7226
HON	-12.7227
ilipin	-12.7229
▁transit	-12.7231
▁16,	-12.7231
▁heartbr	-12.7233
▁trai	-12.7234
earthl	-12.7236
pasto	-12.7238
▁perceiv	-12.7239
acobs	-12.7239
posses	-12.7239
quent	-12.7239
▁sci	-12.7239
09/20	-12.7241
ampaign	-12.7241
carr	-12.7241
ufficient	-12.7242
TON	-12.7242
pela	-12.7243
plit	-12.7243
shoppe	-12.7243
ullivan	-12.7244
sembl	-12.7244
gnore	-12.7244
handelier	-12.7245
▁certif	-12.7245
306	-12.7246
rocess	-12.7247
iquidweb	-12.7247
nterprise	-12.7247
Sem	-12.7248
▁archi	-12.7248
0.9	-12.7248
nnovati	-12.7248
▁42,00	-12.7248
OTHER	-12.7248
▁secession	-12.7248
omba	-12.7249
exican	-12.7249
▁smug	-12.7249
▁tech	-12.7249
▁hospita	-12.7249
echnical	-12.725
▁luc	-12.725
ROU	-12.725
OOR	-12.725
habi	-12.725
raffic	-12.725
olocaust	-12.7251
rompt	-12.7251
6-84	-12.7251
▁irre	-12.7251
arakeet	-12.7251
▁Boliv	-12.7251
nsult	-12.7251
▁Econom	-12.7252
▁Secret	-12.7252
▁presid	-12.7252
GG	-12.7252
revious	-12.7252
5:1	-12.7252
AAAA	-12.7252
▁Gib	-12.7252
attoo	-12.7253
ARK	-12.7253
juven	-12.7253
▁!!!!!!!!!!!!!	-12.7253
3:5	-12.7253
cipate	-12.7253
onstitutiona	-12.7253
▁convi	-12.7253
▁recip	-12.7253
;	-14.4941
