<unk>	0
<s>	0
</s>	0
▁t	-0
ch	-1
▁r	-2
aq	-3
▁ch	-4
▁j	-5
▁k	-6
▁x	-7
an	-8
▁l	-9
aj	-10
ij	-11
ik	-12
in	-13
▁q	-14
▁m	-15
▁re	-16
un	-17
aa	-18
▁taq	-19
▁n	-20
▁w	-21
en	-22
▁li	-23
oo	-24
▁p	-25
▁ta	-26
▁cha	-27
▁ri	-28
or	-29
▁b	-30
▁a	-31
es	-32
il	-33
'.	-34
▁jun	-35
on	-36
ee	-37
oj	-38
▁i	-39
▁s	-40
',	-41
er	-42
▁qa	-43
ta	-44
qa	-45
▁wi	-46
el	-47
tz	-48
ya	-49
▁ra	-50
ii	-51
om	-52
▁I	-53
▁tij	-54
▁man	-55
▁T	-56
▁chi	-57
▁chik	-58
▁tr	-59
ab	-60
am	-61
iij	-62
▁in	-63
wi	-64
▁ti	-65
ok	-66
al	-67
ol	-68
een	-69
ori	-70
aaj	-71
is	-72
▁chaq	-73
▁ki	-74
▁tz	-75
▁xk	-76
uch	-77
▁ke	-78
▁qe	-79
▁ya	-80
▁laj	-81
▁kom	-82
▁P	-83
as	-84
ar	-85
ki	-86
ti	-87
ej	-88
pe	-89
▁X	-90
we	-91
ye	-92
▁tqa	-93
▁jwi	-94
at	-95
os	-96
▁K	-97
ay	-98
▁d	-99
▁ju	-100
▁kw	-101
anm	-102
wes	-103
▁iin	-104
re	-105
▁u	-106
ooj	-107
oq	-108
ons	-109
oos	-110
▁ni	-111
cha	-112
▁R	-113
▁J	-114
▁xin	-115
la	-116
ek	-117
iy	-118
unaq	-119
▁oj	-120
▁neen	-121
and	-122
▁wunaq	-123
▁A	-124
laj	-125
▁na	-126
▁anm	-127
▁jb	-128
saj	-129
li	-130
▁la	-131
▁tin	-132
▁N	-133
▁lajori	-134
▁B	-135
▁ooj	-136
aat	-137
▁jch	-138
eb	-139
tij	-140
aan	-141
chaq	-142
▁rik	-143
ój	-144
▁tren	-145
▁ój	-146
▁maq	-147
▁ab	-148
▁kla	-149
▁si	-150
ke	-151
ex	-152
te	-153
▁per	-154
aal	-155
▁aj	-156
▁por	-157
▁L	-158
che	-159
▁pwes	-160
▁y	-161
▁kita	-162
▁xe	-163
koj	-164
▁rk	-165
ri	-166
ub	-167
aay	-168
▁che	-169
▁chiki	-170
▁aw	-171
▁tan	-172
▁xpe	-173
▁Per	-174
▁laq	-175
▁juun	-176
▁á	-177
uw	-178
▁kwand	-179
▁at	-180
▁tik	-181
uq	-182
taw	-183
▁chuch	-184
▁xen	-185
ob	-186
▁chee	-187
▁Ta	-188
▁jk	-189
▁sik	-190
▁tra	-191
uk	-192
eel	-193
tii	-194
aak	-195
oke	-196
▁S	-197
iik	-198
▁Ri	-199
win	-200
▁xij	-201
▁tijb	-202
▁nim	-203
nm	-204
wa	-205
taq	-206
tons	-207
uuch	-208
▁chij	-209
áj	-210
▁D	-211
ow	-212
▁M	-213
▁wá	-214
▁xqa	-215
▁ánm	-216
▁aat	-217
pay	-218
▁chki	-219
ib	-220
ach	-221
▁xaq	-222
tir	-223
anik	-224
▁rechaq	-225
tik	-226
▁seb	-227
▁tcha	-228
ul	-229
Ch	-230
aam	-231
ist	-232
▁Ch	-233
▁tb	-234
▁ójor	-235
mb	-236
uj	-237
etz	-238
▁ji	-239
▁ree	-240
et	-241
oon	-242
▁é	-243
yan	-244
▁jw	-245
▁xq	-246
eer	-247
▁ma	-248
▁xi	-249
▁mas	-250
kix	-251
▁kr	-252
▁qaq	-253
▁E	-254
iin	-255
▁ka	-256
▁jaa	-257
▁juntir	-258
▁o	-259
aaq	-260
▁raj	-261
inon	-262
▁qaaj	-263
▁jwich	-264
▁jq	-265
ur	-266
wil	-267
▁xok	-268
sil	-269
▁es	-270
em	-271
ech	-272
it	-273
ent	-274
▁Por	-275
▁loq	-276
▁krist	-277
aas	-278
maj	-279
▁¿	-280
▁tq	-281
laaj	-282
▁W	-283
▁ja	-284
▁non	-285
oom	-286
▁nik	-287
▁O	-288
yol	-289
▁Toos	-290
▁chaak	-291
▁jinon	-292
▁Baay	-293
▁wákix	-294
qaaj	-295
ad	-296
payr	-297
tiir	-298
▁kon	-299
eew	-300
▁ku	-301
ant	-302
iix	-303
▁nen	-304
▁niri	-305
▁chawe	-306
aab	-307
▁kab	-308
▁lam	-309
▁Tons	-310
▁loke	-311
▁porke	-312
▁xoj	-313
▁jn	-314
▁rib	-315
▁no	-316
elch	-317
▁chwe	-318
▁juntiir	-319
▁Y	-320
iil	-321
▁rij	-322
▁xkan	-323
ey	-324
▁baa	-325
▁tqab	-326
▁qaqaaj	-327
eej	-328
▁en	-329
▁kristyan	-330
iq	-331
óq	-332
▁al	-333
iyoos	-334
▁tanb	-335
tqa	-336
▁aq	-337
▁tk	-338
▁moo	-339
▁tib	-340
us	-341
ir	-342
▁ril	-343
▁jchol	-344
aaw	-345
▁ul	-346
▁xa	-347
▁qel	-348
▁saq	-349
▁qach	-350
▁xtaw	-351
▁jqaaj	-352
wer	-353
▁En	-354
▁xt	-355
▁ék	-356
▁qas	-357
▁ójr	-358
▁Diyoos	-359
▁kwa	-360
ojori	-361
ax	-362
▁g	-363
oor	-364
xóq	-365
▁inb	-366
lb	-367
▁qak	-368
im	-369
▁Wi	-370
▁ql	-371
▁usil	-372
▁qawin	-373
id	-374
pee	-375
▁kib	-376
▁kin	-377
▁qam	-378
▁tril	-379
▁tziij	-380
▁kompayr	-381
uli	-382
yuq	-383
pwes	-384
▁rka	-385
▁taat	-386
▁tinb	-387
▁lojori	-388
kun	-389
▁dy	-390
▁jil	-391
▁xat	-392
▁Porke	-393
▁qawinaaq	-394
ool	-395
▁des	-396
▁mre	-397
▁qes	-398
▁tzi	-399
sáj	-400
▁we	-401
ejor	-402
iich	-403
tzel	-404
yaan	-405
▁kir	-406
▁naa	-407
ak	-408
iib	-409
▁Ya	-410
tzaq	-411
xóqil	-412
loq	-413
▁Ji	-414
▁jp	-415
▁pob	-416
▁xan	-417
▁uleew	-418
up	-419
ere	-420
ita	-421
laq	-422
wen	-423
▁mo	-424
▁Kom	-425
▁mis	-426
▁nad	-427
▁petz	-428
▁tamb	-429
▁xinb	-430
▁kwando	-431
▁f	-432
▁Si	-433
▁te	-434
▁ux	-435
yeen	-436
▁qus	-437
▁sach	-438
▁xink	-439
ix	-440
ila	-441
▁Pero	-442
▁tijk	-443
▁tijye	-444
mp	-445
ux	-446
choo	-447
▁Jaan	-448
▁riij	-449
iis	-450
itz	-451
▁ek	-452
wand	-453
▁nab	-454
▁qleen	-455
▁tijin	-456
▁jcholáj	-457
ap	-458
op	-459
um	-460
ut	-461
ert	-462
ich	-463
wex	-464
▁de	-465
▁Che	-466
▁tons	-467
▁tzii	-468
▁kinaq	-469
▁mejor	-470
▁lamaas	-471
ot	-472
▁í	-473
aar	-474
iit	-475
waj	-476
emoo	-477
esaj	-478
esel	-479
▁jur	-480
▁komo	-481
▁tiqa	-482
iya	-483
▁lo	-484
ente	-485
▁Laj	-486
▁Neen	-487
▁tran	-488
▁Kwand	-489
▁jwiich	-490
▁tijtij	-491
ro	-492
tam	-493
iche	-494
▁ink	-495
▁puw	-496
▁tiq	-497
▁Entons	-498
▁petzel	-499
ka	-500
na	-501
taj	-502
tix	-503
▁Re	-504
▁Tos	-505
▁ben	-506
▁chu	-507
▁jal	-508
▁ral	-509
▁tche	-510
▁xqab	-511
chooch	-512
▁tijkoj	-513
▁jchuuch	-514
▁qachuuch	-515
de	-516
tu	-517
yu	-518
▁U	-519
nik	-520
och	-521
tar	-522
▁jo	-523
▁jr	-524
ótix	-525
▁Noo	-526
▁ali	-527
▁gal	-528
▁qab	-529
▁tab	-530
elaaj	-531
▁pobr	-532
▁xiij	-533
▁kabal	-534
▁étzel	-535
▁Lajori	-536
▁despwes	-537
gr	-538
uuj	-539
▁ak	-540
▁ok	-541
▁se	-542
xeel	-543
▁jno	-544
▁mod	-545
▁naq	-546
▁noo	-547
▁alib	-548
▁pero	-549
▁qelen	-550
ane	-551
chi	-552
ooy	-553
waq	-554
aber	-555
atun	-556
wich	-557
▁Jun	-558
▁awe	-559
▁tos	-560
▁kond	-561
▁mism	-562
▁titaw	-563
ana	-564
are	-565
ilm	-566
wee	-567
yemp	-568
▁bay	-569
▁maj	-570
▁Tche	-571
ruk	-572
▁ne	-573
▁pu	-574
chak	-575
chik	-576
▁Tij	-577
▁Xaq	-578
▁inp	-579
▁jtz	-580
▁ori	-581
▁qal	-582
▁xil	-583
▁kirt	-584
▁qamaam	-585
gl	-586
eri	-587
▁An	-588
▁No	-589
ilaq	-590
▁naj	-591
▁pur	-592
▁qap	-593
▁qat	-594
▁wee	-595
payre	-596
▁kitz	-597
▁tzaq	-598
▁chuuch	-599
▁entons	-600
eek	-601
▁ap	-602
▁el	-603
▁lw	-604
gles	-605
▁atz	-606
▁sii	-607
▁tpe	-608
▁xch	-609
▁xye	-610
aniik	-611
▁miij	-612
▁tqak	-613
▁xcha	-614
▁xtij	-615
▁lamas	-616
▁nemoo	-617
▁chawaj	-618
▁chótix	-619
me	-620
ne	-621
amb	-622
olb	-623
ook	-624
tok	-625
wel	-626
yen	-627
▁Aj	-628
▁il	-629
▁ix	-630
tiit	-631
unab	-632
▁Xpe	-633
▁kux	-634
▁paa	-635
yolow	-636
ox	-637
qe	-638
st	-639
atb	-640
atz	-641
omb	-642
wch	-643
▁Dy	-644
▁Ke	-645
▁me	-646
laal	-647
▁atb	-648
▁jol	-649
▁lek	-650
▁mar	-651
▁pok	-652
▁rej	-653
amsaj	-654
▁Pwes	-655
▁dere	-656
▁iitz	-657
▁kila	-658
▁neri	-659
▁teqa	-660
▁tzik	-661
▁xpee	-662
ra	-663
ens	-664
yer	-665
▁Li	-666
▁Xk	-667
▁an	-668
▁js	-669
▁le	-670
chij	-671
saaj	-672
waal	-673
▁Bay	-674
▁luw	-675
▁sol	-676
▁utz	-677
▁wet	-678
▁xtz	-679
▁yaq	-680
antaj	-681
▁jkom	-682
▁juul	-683
▁tich	-684
▁tiko	-685
▁wálb	-686
unabes	-687
▁jcholájl	-688
aw	-689
amch	-690
deya	-691
metz	-692
neer	-693
▁koj	-694
▁qik	-695
▁sib	-696
▁uch	-697
▁rili	-698
▁toos	-699
▁xpet	-700
▁taqch	-701
▁telch	-702
▁kumetz	-703
isi	-704
▁Xe	-705
▁as	-706
▁ay	-707
▁lj	-708
▁yo	-709
▁ák	-710
taaj	-711
wers	-712
▁ruk	-713
▁xya	-714
ojoom	-715
▁awaj	-716
▁chuw	-717
▁qelk	-718
▁xqej	-719
▁jilon	-720
▁tijya	-721
▁kuxtar	-722
▁riliik	-723
ichelaaj	-724
ék	-725
ali	-726
ene	-727
omo	-728
yon	-729
▁wa	-730
adre	-731
maaj	-732
▁iik	-733
▁itz	-734
▁noj	-735
▁raq	-736
▁wel	-737
▁xta	-738
▁jaan	-739
▁teew	-740
▁uxub	-741
▁xkam	-742
▁xkoj	-743
▁saber	-744
▁ticha	-745
▁rxóqil	-746
▁tqakoj	-747
tr	-748
yo	-749
gun	-750
wal	-751
yoo	-752
▁xj	-753
ojom	-754
▁aay	-755
▁kan	-756
▁lék	-757
▁qib	-758
▁baay	-759
▁lwar	-760
▁naad	-761
▁pech	-762
▁tqej	-763
▁derep	-764
▁igles	-765
▁jwert	-766
▁junaab	-767
▁kirtyaan	-768
ew	-769
aad	-770
aañ	-771
alk	-772
iim	-773
ika	-774
ooq	-775
ose	-776
qan	-777
rab	-778
▁jm	-779
▁mj	-780
▁xm	-781
chep	-782
teqa	-783
wees	-784
▁Iin	-785
▁Kla	-786
▁San	-787
▁jab	-788
▁jii	-789
▁kas	-790
▁par	-791
▁wor	-792
▁yaj	-793
isoon	-794
▁inch	-795
▁jili	-796
▁jnon	-797
▁komp	-798
▁miix	-799
▁nimi	-800
▁ranm	-801
▁tres	-802
▁ajruk	-803
▁junab	-804
▁jurub	-805
▁ljori	-806
▁xelch	-807
▁kompayre	-808
▁tambyeen	-809
eet	-810
eti	-811
ile	-812
ink	-813
naq	-814
oop	-815
▁Ay	-816
▁In	-817
▁ye	-818
aatz	-819
tiiw	-820
yoox	-821
▁Jii	-822
▁alg	-823
▁awi	-824
▁jye	-825
▁mos	-826
▁qaj	-827
▁chir	-828
▁peer	-829
▁tijt	-830
▁witz	-831
▁nimaq	-832
▁pwees	-833
▁uchaq	-834
▁utiiw	-835
▁xtaaw	-836
▁galaan	-837
▁rejwex	-838
oni	-839
paq	-840
pet	-841
ron	-842
sik	-843
tal	-844
uun	-845
uuq	-846
▁xn	-847
kwel	-848
mbre	-849
oons	-850
sach	-851
taqa	-852
▁jwa	-853
▁kos	-854
▁xel	-855
apooj	-856
weech	-857
▁ajri	-858
▁atin	-859
▁chak	-860
▁chib	-861
▁inwi	-862
▁qatz	-863
▁raaj	-864
▁xloq	-865
▁resaj	-866
▁tijta	-867
▁rixóqil	-868
▁kristyaan	-869
uy	-870
wá	-871
xo	-872
▁e	-873
asi	-874
ers	-875
gar	-876
gre	-877
▁oo	-878
▁or	-879
▁xb	-880
ejej	-881
tija	-882
waaj	-883
▁aañ	-884
▁juj	-885
▁kar	-886
▁kub	-887
▁ojb	-888
▁rex	-889
▁tch	-890
▁waa	-891
▁xab	-892
ensaj	-893
iyeen	-894
▁tink	-895
▁welt	-896
▁qatiit	-897
▁chuchaq	-898
do	-899
ún	-900
aji	-901
fes	-902
mbr	-903
mer	-904
san	-905
▁Is	-906
▁Ti	-907
▁añ	-908
▁lu	-909
▁on	-910
▁xp	-911
olch	-912
ween	-913
▁Xin	-914
▁don	-915
▁enk	-916
▁est	-917
▁kam	-918
▁lij	-919
▁tak	-920
▁tok	-921
▁xwa	-922
ayeej	-923
choch	-924
ensar	-925
fesor	-926
ilmit	-927
kojon	-928
opiin	-929
paqar	-930
taqch	-931
upiis	-932
▁bwen	-933
▁chaj	-934
▁chub	-935
▁kwin	-936
▁loom	-937
▁nika	-938
▁twil	-939
▁benaa	-940
▁galan	-941
▁mjoor	-942
▁rilik	-943
▁tinch	-944
▁tiyuq	-945
▁íchij	-946
▁Antons	-947
▁tijtik	-948
▁ixpaqar	-949
▁saqweech	-950
▁derepente	-951
gu	-952
ake	-953
ina	-954
jaq	-955
xik	-956
yaj	-957
▁Tr	-958
▁tn	-959
▁uk	-960
▁xu	-961
alaj	-962
chaj	-963
chap	-964
kita	-965
kwin	-966
ojel	-967
tzek	-968
wiin	-969
▁Baa	-970
▁Ent	-971
▁Xen	-972
▁bes	-973
▁diy	-974
▁kes	-975
▁las	-976
▁maa	-977
▁mun	-978
▁pas	-979
▁puu	-980
▁qon	-981
▁taw	-982
▁toq	-983
▁tya	-984
andel	-985
tzaqe	-986
▁Dyos	-987
▁ajwi	-988
▁jchi	-989
▁kiib	-990
▁nada	-991
▁okox	-992
ilmiit	-993
ojoman	-994
▁dyoos	-995
▁paagr	-996
▁puwaq	-997
▁rechi	-998
▁tiqab	-999
▁tqaye	-1000
▁xinwa	-1001
rofesor	-1002
▁chuwaj	-1003
▁puwert	-1004
▁wetaam	-1005
▁kirneer	-1006
▁Entonses	-1007
▁richooch	-1008
lk	-1009
wr	-1010
xi	-1011
asl	-1012
ili	-1013
lij	-1014
non	-1015
oot	-1016
qej	-1017
▁im	-1018
ajch	-1019
kitz	-1020
otob	-1021
tami	-1022
uker	-1023
yaaj	-1024
▁Kon	-1025
▁Pin	-1026
▁ach	-1027
▁ant	-1028
▁awá	-1029
▁inm	-1030
▁ins	-1031
▁jpe	-1032
▁jún	-1033
▁mat	-1034
▁sub	-1035
▁tam	-1036
▁tel	-1037
▁xuq	-1038
▁xyu	-1039
▁boos	-1040
▁pwaq	-1041
▁qlen	-1042
▁talb	-1043
▁ulew	-1044
▁xqak	-1045
▁chuwe	-1046
▁inrab	-1047
▁jalan	-1048
▁mosib	-1049
▁antons	-1050
▁inkwin	-1051
▁lijori	-1052
▁jkompayr	-1053
ja	-1054
adr	-1055
art	-1056
ate	-1057
des	-1058
eem	-1059
eex	-1060
gan	-1061
ida	-1062
iiy	-1063
lal	-1064
ono	-1065
▁At	-1066
▁Oj	-1067
▁pe	-1068
▁pr	-1069
▁sw	-1070
enow	-1071
entr	-1072
iyar	-1073
koje	-1074
oses	-1075
stor	-1076
▁Ooj	-1077
▁Xij	-1078
▁ini	-1079
▁kij	-1080
▁pee	-1081
▁res	-1082
▁wen	-1083
▁xna	-1084
▁yol	-1085
chiki	-1086
eejch	-1087
etzen	-1088
mwers	-1089
▁chap	-1090
▁dyos	-1091
▁jali	-1092
▁jwaa	-1093
▁kist	-1094
▁lori	-1095
▁mari	-1096
▁pork	-1097
▁qawi	-1098
▁rech	-1099
▁ritz	-1100
▁tika	-1101
▁tkan	-1102
▁chwee	-1103
▁tatij	-1104
▁tijch	-1105
▁tikoj	-1106
▁woron	-1107
▁xawil	-1108
▁xijye	-1109
▁chakun	-1110
▁kandel	-1111
▁luwaar	-1112
▁paagre	-1113
▁tanwil	-1114
▁tresaj	-1115
▁utziil	-1116
▁jcholaj	-1117
▁júnkitz	-1118
▁qonojel	-1119
▁tambyen	-1120
▁tchakun	-1121
eq	-1122
ip	-1123
to	-1124
ald	-1125
ame	-1126
der	-1127
jil	-1128
kin	-1129
tin	-1130
une	-1131
ute	-1132
yar	-1133
yeq	-1134
yub	-1135
▁Jo	-1136
amby	-1137
anab	-1138
ekik	-1139
erte	-1140
esey	-1141
eyin	-1142
isik	-1143
maji	-1144
tzoo	-1145
yolj	-1146
▁Des	-1147
▁Lam	-1148
▁Man	-1149
▁lom	-1150
▁lon	-1151
▁mok	-1152
▁oor	-1153
▁taj	-1154
▁tal	-1155
▁wuk	-1156
anaab	-1157
ojool	-1158
uxtaj	-1159
▁Usil	-1160
▁Xtaw	-1161
▁chom	-1162
▁ketz	-1163
▁titz	-1164
▁trik	-1165
▁tziy	-1166
▁wooj	-1167
▁wron	-1168
▁xkaj	-1169
▁xojk	-1170
▁xwil	-1171
▁xyuq	-1172
▁ójir	-1173
▁Pores	-1174
▁abono	-1175
▁bween	-1176
▁chich	-1177
▁chijb	-1178
▁komoo	-1179
▁mkita	-1180
▁pores	-1181
▁xinch	-1182
▁xkwin	-1183
▁aldeya	-1184
▁chwaaj	-1185
▁tiyoox	-1186
▁tqatij	-1187
▁xantaj	-1188
▁yajeel	-1189
▁Despwes	-1190
▁kistyan	-1191
▁dyunabes	-1192
▁inchuuch	-1193
?.	-1194
kx	-1195
áq	-1196
ayr	-1197
emp	-1198
gam	-1199
iji	-1200
kot	-1201
tiw	-1202
tiy	-1203
utz	-1204
▁Es	-1205
▁Jb	-1206
▁Ka	-1207
▁La	-1208
▁Ra	-1209
▁ba	-1210
▁jt	-1211
▁mi	-1212
▁pi	-1213
▁qá	-1214
▁xl	-1215
▁xr	-1216
atij	-1217
ijaq	-1218
iyer	-1219
koja	-1220
omoo	-1221
pent	-1222
uwaq	-1223
▁Mat	-1224
▁Rik	-1225
▁Ruk	-1226
▁Seb	-1227
▁Xok	-1228
▁Xqa	-1229
▁dis	-1230
▁jli	-1231
▁jta	-1232
▁kaa	-1233
▁pon	-1234
▁rab	-1235
▁rii	-1236
▁tit	-1237
▁xii	-1238
ansáj	-1239
wexki	-1240
▁Kita	-1241
▁Peer	-1242
▁chek	-1243
▁jrab	-1244
▁koom	-1245
▁maas	-1246
▁naaj	-1247
▁naji	-1248
▁niim	-1249
▁nuch	-1250
▁qaaw	-1251
▁qaja	-1252
▁qiib	-1253
▁tiye	-1254
▁tyuq	-1255
alkyer	-1256
amsaaj	-1257
guniit	-1258
storya	-1259
▁Ntons	-1260
▁aqaaj	-1261
▁awaaj	-1262
▁awálb	-1263
▁jpatb	-1264
▁jujun	-1265
▁kijab	-1266
▁luwar	-1267
▁padre	-1268
▁swaan	-1269
▁tqach	-1270
▁wanab	-1271
▁weyin	-1272
▁xilij	-1273
▁xqach	-1274
▁xtzaq	-1275
▁xuker	-1276
▁chweeq	-1277
▁inqaaj	-1278
▁jchaak	-1279
▁nojeel	-1280
▁tintij	-1281
▁xlatun	-1282
▁awanaab	-1283
▁iglesya	-1284
▁qaldeya	-1285
▁kwalkyer	-1286
da	-1287
ni	-1288
bes	-1289
exi	-1290
eys	-1291
idr	-1292
ire	-1293
lan	-1294
yaq	-1295
▁jl	-1296
▁lq	-1297
▁tj	-1298
▁ty	-1299
▁wk	-1300
▁xí	-1301
iitz	-1302
molb	-1303
omol	-1304
onaj	-1305
oril	-1306
utun	-1307
▁Aay	-1308
▁Ant	-1309
▁Lup	-1310
▁Rka	-1311
▁Tqa	-1312
▁bey	-1313
▁fij	-1314
▁jam	-1315
▁mik	-1316
▁omb	-1317
▁paj	-1318
▁pri	-1319
▁qee	-1320
▁tor	-1321
▁tye	-1322
▁xib	-1323
alaaj	-1324
aslem	-1325
atzan	-1326
chaak	-1327
lajuj	-1328
mente	-1329
▁Loke	-1330
▁Tose	-1331
▁ataq	-1332
▁imul	-1333
▁jtik	-1334
▁mees	-1335
▁noke	-1336
▁ojok	-1337
▁pake	-1338
▁poom	-1339
▁rqan	-1340
▁tuuj	-1341
▁uxib	-1342
▁xilj	-1343
▁xmaj	-1344
▁xtik	-1345
▁xtok	-1346
chakun	-1347
▁Isidr	-1348
▁Saber	-1349
▁Tawen	-1350
▁Tonse	-1351
▁awanm	-1352
▁awasi	-1353
▁lugar	-1354
▁pobre	-1355
▁syemp	-1356
▁tiqej	-1357
▁tqaya	-1358
▁tyemp	-1359
▁xchep	-1360
▁xinpe	-1361
osesyon	-1362
▁Juntir	-1363
▁Kwando	-1364
▁Lamaas	-1365
▁biyeen	-1366
▁eskwel	-1367
▁inpatb	-1368
▁kabaal	-1369
▁ketzal	-1370
▁pongam	-1371
▁primer	-1372
▁qayolj	-1373
▁retzel	-1374
▁xijsaj	-1375
▁Entoons	-1376
▁atintij	-1377
▁istorya	-1378
▁jwichaq	-1379
▁kirtyan	-1380
▁kompadr	-1381
▁xqeejch	-1382
▁frofesor	-1383
▁prosesyon	-1384
nt	-1385
se	-1386
wu	-1387
án	-1388
ejb	-1389
ini	-1390
ite	-1391
jye	-1392
oje	-1393
sol	-1394
uul	-1395
yoq	-1396
▁Ab	-1397
▁Le	-1398
▁Xi	-1399
▁ik	-1400
▁jx	-1401
▁oq	-1402
▁ox	-1403
▁sa	-1404
▁su	-1405
apij	-1406
ayaj	-1407
idad	-1408
meel	-1409
omaj	-1410
pech	-1411
taam	-1412
ónik	-1413
▁Aat	-1414
▁Jwi	-1415
▁Nab	-1416
▁Nim	-1417
▁ati	-1418
▁chr	-1419
▁kuy	-1420
▁lad	-1421
▁les	-1422
▁miy	-1423
▁moj	-1424
▁nes	-1425
▁reg	-1426
▁tir	-1427
▁tyu	-1428
▁xak	-1429
▁xek	-1430
▁xik	-1431
amiik	-1432
atzij	-1433
omsaj	-1434
qasaj	-1435
▁Chee	-1436
▁Keel	-1437
▁años	-1438
▁diya	-1439
▁jkwa	-1440
▁joor	-1441
▁jura	-1442
▁mood	-1443
▁mund	-1444
▁pent	-1445
▁poop	-1446
▁rene	-1447
▁reqa	-1448
▁rile	-1449
▁sewr	-1450
▁sink	-1451
▁tijq	-1452
▁tipe	-1453
▁tqat	-1454
▁tzij	-1455
▁wech	-1456
▁xeel	-1457
▁xmol	-1458
▁xpek	-1459
amolch	-1460
▁Tosee	-1461
▁ajiij	-1462
▁karet	-1463
▁lajor	-1464
▁lékej	-1465
▁mokom	-1466
▁qatik	-1467
▁retam	-1468
▁tawil	-1469
▁tijtz	-1470
▁tikam	-1471
▁tipet	-1472
▁tqata	-1473
▁tqejb	-1474
▁xinta	-1475
▁xkaan	-1476
▁xílij	-1477
▁ajtzoo	-1478
▁bendes	-1479
▁chusil	-1480
▁fijate	-1481
▁jamali	-1482
▁jpetik	-1483
▁pensar	-1484
▁rupiis	-1485
▁tkojon	-1486
▁tyesaj	-1487
echelaaj	-1488
▁chimeel	-1489
▁enkesey	-1490
▁leskwel	-1491
▁nimlaaj	-1492
▁saqmolb	-1493
▁tiyolow	-1494
▁jcholaaj	-1495
▁jcholájk	-1496
▁pongamos	-1497
▁qatilmit	-1498
▁tichakun	-1499
▁diyunabes	-1500
▁jkompayre	-1501
'?	-1502
ko	-1503
ma	-1504
tk	-1505
ík	-1506
ón	-1507
alm	-1508
ani	-1509
eno	-1510
iqa	-1511
jij	-1512
jor	-1513
kat	-1514
oob	-1515
ort	-1516
rar	-1517
tud	-1518
uya	-1519
xoq	-1520
yik	-1521
▁Tz	-1522
▁gr	-1523
▁je	-1524
▁rb	-1525
▁ín	-1526
eent	-1527
ejaj	-1528
enta	-1529
guir	-1530
ijin	-1531
ison	-1532
itik	-1533
itiw	-1534
iyon	-1535
kiil	-1536
koot	-1537
maal	-1538
oker	-1539
olob	-1540
ostu	-1541
tiik	-1542
toke	-1543
tzib	-1544
wech	-1545
▁Bal	-1546
▁Mar	-1547
▁Mas	-1548
▁Tan	-1549
▁awk	-1550
▁ayb	-1551
▁eel	-1552
▁ent	-1553
▁kur	-1554
▁lik	-1555
▁mes	-1556
▁miq	-1557
▁mir	-1558
▁nij	-1559
▁oom	-1560
▁pix	-1561
▁qan	-1562
▁qet	-1563
▁rek	-1564
▁rtz	-1565
▁tek	-1566
▁toj	-1567
▁wib	-1568
abeer	-1569
ajool	-1570
amech	-1571
amsáj	-1572
andro	-1573
anuuj	-1574
ayaaj	-1575
eerte	-1576
▁Bwen	-1577
▁Tijb	-1578
▁ajki	-1579
▁apen	-1580
▁awas	-1581
▁intz	-1582
▁jaab	-1583
▁jkab	-1584
▁joob	-1585
▁juwi	-1586
▁jyol	-1587
▁jyub	-1588
▁kaab	-1589
▁keta	-1590
▁lajb	-1591
▁para	-1592
▁qame	-1593
▁qawá	-1594
▁qaxo	-1595
▁tank	-1596
▁tant	-1597
▁taqw	-1598
▁taye	-1599
▁tpee	-1600
▁tqil	-1601
amsaji	-1602
ompayr	-1603
uxtaaj	-1604
▁Dyoos	-1605
▁Lupaa	-1606
▁Pinal	-1607
▁chula	-1608
▁inmak	-1609
▁jpwaq	-1610
▁kiitz	-1611
▁kostu	-1612
▁kwent	-1613
▁lwaar	-1614
▁ntons	-1615
▁oombr	-1616
▁rixoq	-1617
▁tikil	-1618
▁tinya	-1619
▁tyoox	-1620
▁uxiib	-1621
▁xqana	-1622
▁xyuuq	-1623
▁chikch	-1624
▁chirij	-1625
▁chuwij	-1626
▁jalaan	-1627
▁jiloon	-1628
▁mikita	-1629
▁nikare	-1630
▁oombre	-1631
▁qapoop	-1632
▁qupiis	-1633
▁rchoch	-1634
▁repent	-1635
▁seguir	-1636
▁tijeem	-1637
▁tijyol	-1638
▁tinyol	-1639
▁tisach	-1640
▁tziyin	-1641
▁woroon	-1642
▁xintij	-1643
▁xoktqa	-1644
▁xqasaj	-1645
▁xqejch	-1646
▁Leandro	-1647
▁entonses	-1648
▁kompadre	-1649
▁xinkamsaaj	-1650
fr	-1651
go	-1652
iw	-1653
le	-1654
lo	-1655
wé	-1656
aqi	-1657
dar	-1658
ena	-1659
est	-1660
eta	-1661
gur	-1662
igr	-1663
iiq	-1664
iir	-1665
ijb	-1666
iri	-1667
kil	-1668
maq	-1669
mit	-1670
ner	-1671
ola	-1672
qaj	-1673
riy	-1674
sip	-1675
tzu	-1676
uni	-1677
wan	-1678
xaq	-1679
yin	-1680
▁Os	-1681
▁Xt	-1682
▁ee	-1683
▁fr	-1684
▁ko	-1685
▁rs	-1686
▁st	-1687
▁tu	-1688
anal	-1689
anow	-1690
aret	-1691
ayej	-1692
chki	-1693
emas	-1694
etub	-1695
ikaq	-1696
ilik	-1697
inaq	-1698
itaq	-1699
kiin	-1700
maam	-1701
mech	-1702
niik	-1703
olaq	-1704
ortu	-1705
rsan	-1706
tiij	-1707
tiji	-1708
wert	-1709
▁Chi	-1710
▁Kob	-1711
▁Pok	-1712
▁Taq	-1713
▁alk	-1714
▁ens	-1715
▁int	-1716
▁jee	-1717
▁jor	-1718
▁keq	-1719
▁med	-1720
▁mij	-1721
▁neb	-1722
▁num	-1723
▁ojk	-1724
▁ojq	-1725
▁sal	-1726
▁san	-1727
▁sek	-1728
▁ser	-1729
▁sip	-1730
▁siq	-1731
▁ten	-1732
▁wat	-1733
▁wik	-1734
▁xum	-1735
antel	-1736
antzu	-1737
pomaj	-1738
tokow	-1739
waldo	-1740
werte	-1741
▁Balo	-1742
▁Jnon	-1743
▁Kond	-1744
▁Liya	-1745
▁Niri	-1746
▁aanm	-1747
▁ajch	-1748
▁awee	-1749
▁awik	-1750
▁chip	-1751
▁dyes	-1752
▁itzb	-1753
▁jrik	-1754
▁jtzi	-1755
▁kada	-1756
▁list	-1757
▁meex	-1758
▁qane	-1759
▁qati	-1760
▁qeet	-1761
▁rika	-1762
▁seys	-1763
▁tene	-1764
▁tiki	-1765
▁tzan	-1766
▁wach	-1767
▁wich	-1768
▁wákx	-1769
▁xijb	-1770
▁xook	-1771
▁xpep	-1772
asiyon	-1773
kojoon	-1774
▁Isigr	-1775
▁Jinon	-1776
▁Mejor	-1777
▁Toons	-1778
▁awaas	-1779
▁beynt	-1780
▁byeen	-1781
▁desir	-1782
▁jchak	-1783
▁jchoq	-1784
▁jwers	-1785
▁konto	-1786
▁miixa	-1787
▁nojel	-1788
▁qaloq	-1789
▁qatzi	-1790
▁qawch	-1791
▁tatik	-1792
▁titaq	-1793
▁titik	-1794
▁trens	-1795
▁tromb	-1796
▁xchap	-1797
▁xpeti	-1798
▁xtika	-1799
▁xtzek	-1800
ojwexki	-1801
▁Lojori	-1802
▁Pinaal	-1803
▁asiyar	-1804
▁beneno	-1805
▁chijxo	-1806
▁intiit	-1807
▁jyolik	-1808
▁kamnaq	-1809
▁komayr	-1810
▁kongan	-1811
▁ojkwin	-1812
▁perder	-1813
▁ralaaj	-1814
▁tanyol	-1815
▁tijmaj	-1816
▁tilmit	-1817
▁tinkoj	-1818
▁tinwil	-1819
▁tyolow	-1820
▁xintaw	-1821
▁xnatun	-1822
aslemaal	-1823
choochaq	-1824
▁Oswaldo	-1825
▁enkamby	-1826
▁kandela	-1827
▁qeselch	-1828
▁rchooch	-1829
▁wetaami	-1830
▁xentaaj	-1831
▁chiralaj	-1832
▁jcholajl	-1833
▁laguniit	-1834
▁qonojeli	-1835
▁xojyolow	-1836
▁kabalmente	-1837
af	-1838
ji	-1839
lj	-1840
oy	-1841
uu	-1842
yb	-1843
yó	-1844
él	-1845
íx	-1846
aax	-1847
aje	-1848
aka	-1849
alt	-1850
ama	-1851
ang	-1852
ara	-1853
cho	-1854
ees	-1855
eke	-1856
elg	-1857
erd	-1858
fri	-1859
igu	-1860
ilb	-1861
inb	-1862
ino	-1863
isa	-1864
kta	-1865
loj	-1866
luj	-1867
máj	-1868
rek	-1869
rob	-1870
taa	-1871
tab	-1872
ter	-1873
uub	-1874
wir	-1875
úmb	-1876
▁Aa	-1877
▁Lo	-1878
▁Or	-1879
▁Se	-1880
▁Tb	-1881
▁Xq	-1882
▁br	-1883
▁et	-1884
▁iy	-1885
▁mm	-1886
▁op	-1887
▁qi	-1888
▁qí	-1889
▁xo	-1890
▁xs	-1891
Neen	-1892
anol	-1893
ayun	-1894
ejel	-1895
enol	-1896
frir	-1897
idor	-1898
iiji	-1899
ijil	-1900
iyen	-1901
laan	-1902
obre	-1903
ojch	-1904
onar	-1905
opoj	-1906
orti	-1907
rile	-1908
tant	-1909
taqw	-1910
tzuq	-1911
ukub	-1912
umal	-1913
urub	-1914
uwin	-1915
weel	-1916
welt	-1917
▁Atb	-1918
▁Enk	-1919
▁Kab	-1920
▁Naa	-1921
▁Nen	-1922
▁Saq	-1923
▁Uuy	-1924
▁aaj	-1925
▁aaq	-1926
▁ajq	-1927
▁ajt	-1928
▁aki	-1929
▁ale	-1930
▁dya	-1931
▁eek	-1932
▁ilb	-1933
▁inq	-1934
▁jwe	-1935
▁kat	-1936
▁kax	-1937
▁ker	-1938
▁kis	-1939
▁kow	-1940
▁mal	-1941
▁mol	-1942
▁pet	-1943
▁pij	-1944
▁qaw	-1945
▁qax	-1946
▁rak	-1947
▁riy	-1948
▁sim	-1949
▁tiw	-1950
▁tob	-1951
▁win	-1952
▁yuq	-1953
achee	-1954
astaj	-1955
echel	-1956
elxik	-1957
esaaj	-1958
fente	-1959
iguel	-1960
iilaq	-1961
isyon	-1962
orsaj	-1963
wesaj	-1964
yempo	-1965
yentr	-1966
▁Ajwi	-1967
▁Aruk	-1968
▁Delg	-1969
▁Noke	-1970
▁Tich	-1971
▁Tren	-1972
▁Xiij	-1973
▁Xkan	-1974
▁Yoos	-1975
▁aber	-1976
▁atil	-1977
▁chqe	-1978
▁inij	-1979
▁jbid	-1980
▁jpam	-1981
▁komb	-1982
▁kosa	-1983
▁kump	-1984
▁kwan	-1985
▁laal	-1986
▁looq	-1987
▁mare	-1988
▁mkta	-1989
▁nejb	-1990
▁noon	-1991
▁onli	-1992
▁oojb	-1993
▁peen	-1994
▁retz	-1995
▁ruuq	-1996
▁sant	-1997
▁taaw	-1998
▁temp	-1999
▁tiwa	-2000
▁tpew	-2001
▁trag	-2002
▁tret	-2003
▁wanm	-2004
▁wila	-2005
▁wile	-2006
▁xoki	-2007
▁xteb	-2008
▁yaaj	-2009
▁yoos	-2010
▁íjij	-2011
amente	-2012
antajk	-2013
lojuuj	-2014
ortuun	-2015
▁Matey	-2016
▁Nemoo	-2017
▁Tijin	-2018
▁awich	-2019
▁cheek	-2020
▁chqaj	-2021
▁incha	-2022
▁kanel	-2023
▁kolob	-2024
▁mojor	-2025
▁natun	-2026
▁ombre	-2027
▁peech	-2028
▁puwes	-2029
▁ralaj	-2030
▁rejwé	-2031
▁sachi	-2032
▁tanta	-2033
▁tanye	-2034
▁tawen	-2035
▁tayol	-2036
▁tokik	-2037
▁utzil	-2038
▁xataw	-2039
▁xkani	-2040
▁xpeet	-2041
▁yamer	-2042
▁yoloj	-2043
▁íchaj	-2044
ostumbr	-2045
yentras	-2046
▁Miguel	-2047
▁Tonses	-2048
▁apuwaq	-2049
▁atkwin	-2050
▁chajal	-2051
▁chuchu	-2052
▁diyoos	-2053
▁frijil	-2054
▁inpwaq	-2055
▁jwebes	-2056
▁jwerte	-2057
▁kastiy	-2058
▁ketant	-2059
▁kintal	-2060
▁komers	-2061
▁marita	-2062
▁naqaaj	-2063
▁qatiko	-2064
▁qatoke	-2065
▁rijiil	-2066
▁sufrir	-2067
▁tikwin	-2068
▁Delgaad	-2069
▁Enkamby	-2070
▁Juntiir	-2071
▁jpensar	-2072
▁jtikiik	-2073
▁ladentr	-2074
▁oxlajuj	-2075
▁rixoqil	-2076
▁syempre	-2077
▁tijtzek	-2078
▁tikoker	-2079
▁xkanjye	-2080
▁Antonses	-2081
▁atintija	-2082
▁bendesid	-2083
▁derepent	-2084
▁ojchakun	-2085
▁profesor	-2086
▁qalmwers	-2087
▁inportuun	-2088
▁xinkamsaji	-2089
?,	-2090
kt	-2091
rs	-2092
én	-2093
Nen	-2094
ada	-2095
adi	-2096
ado	-2097
afe	-2098
aja	-2099
axi	-2100
ayb	-2101
eeb	-2102
ejk	-2103
elj	-2104
erk	-2105
exe	-2106
gos	-2107
ism	-2108
iyo	-2109
jin	-2110
kab	-2111
lex	-2112
lik	-2113
lin	-2114
man	-2115
mol	-2116
muq	-2117
nen	-2118
ont	-2119
orl	-2120
ote	-2121
tor	-2122
tqe	-2123
uwr	-2124
uxb	-2125
web	-2126
wij	-2127
yad	-2128
yej	-2129
yor	-2130
áqt	-2131
áyb	-2132
▁Rk	-2133
▁ej	-2134
▁em	-2135
▁ky	-2136
▁po	-2137
▁qk	-2138
▁sk	-2139
▁sá	-2140
▁to	-2141
▁wí	-2142
▁xy	-2143
Tons	-2144
abor	-2145
ajaj	-2146
akat	-2147
alaq	-2148
amas	-2149
aqin	-2150
asaj	-2151
ataq	-2152
atro	-2153
atub	-2154
axoq	-2155
chom	-2156
eche	-2157
eeti	-2158
eetz	-2159
eexm	-2160
elon	-2161
enaa	-2162
enon	-2163
erta	-2164
esir	-2165
exik	-2166
gaan	-2167
ibel	-2168
ilin	-2169
imiy	-2170
ixaq	-2171
iych	-2172
jaal	-2173
kojb	-2174
koni	-2175
liir	-2176
ojol	-2177
omon	-2178
onaq	-2179
oneb	-2180
onit	-2181
ookb	-2182
orik	-2183
peet	-2184
qeej	-2185
saji	-2186
sech	-2187
tiin	-2188
tran	-2189
tzij	-2190
ulaj	-2191
usil	-2192
waaq	-2193
waas	-2194
wina	-2195
xóql	-2196
yaad	-2197
yaje	-2198
yent	-2199
ánik	-2200
únik	-2201
▁Ees	-2202
▁Esk	-2203
▁Koj	-2204
▁Laq	-2205
▁Loq	-2206
▁Maa	-2207
▁Mak	-2208
▁Rej	-2209
▁Ril	-2210
▁Tab	-2211
▁Xoj	-2212
▁Xwa	-2213
▁aan	-2214
▁aaw	-2215
▁ajm	-2216
▁atk	-2217
▁bal	-2218
▁eso	-2219
▁iil	-2220
▁jiq	-2221
▁job	-2222
▁jri	-2223
▁kal	-2224
▁kap	-2225
▁kli	-2226
▁kob	-2227
▁muk	-2228
▁mul	-2229
▁nem	-2230
▁olb	-2231
▁paw	-2232
▁pre	-2233
▁qix	-2234
▁qáw	-2235
▁raa	-2236
▁req	-2237
▁sab	-2238
▁sem	-2239
▁tuj	-2240
▁tun	-2241
▁wch	-2242
▁wil	-2243
▁xem	-2244
▁xiq	-2245
▁xwe	-2246
▁xwi	-2247
▁yok	-2248
amach	-2249
anawi	-2250
ansaj	-2251
arsaj	-2252
astiy	-2253
atron	-2254
atuun	-2255
chaaj	-2256
chuch	-2257
entan	-2258
iijaq	-2259
ijiin	-2260
ipaaj	-2261
isink	-2262
majch	-2263
ochij	-2264
oojch	-2265
oqtaj	-2266
oraaj	-2267
qawch	-2268
solaj	-2269
tiyan	-2270
uchar	-2271
uleew	-2272
unere	-2273
uwaan	-2274
werta	-2275
wexik	-2276
wiich	-2277
xóqol	-2278
▁Dere	-2279
▁Jwan	-2280
▁Koom	-2281
▁Masi	-2282
▁Miix	-2283
▁Pent	-2284
▁Petz	-2285
▁Pork	-2286
▁Saqb	-2287
▁Tamb	-2288
▁Tijk	-2289
▁Toor	-2290
▁Xqab	-2291
▁Xtik	-2292
▁atij	-2293
▁atwa	-2294
▁bald	-2295
▁bolb	-2296
▁byen	-2297
▁chin	-2298
▁chiq	-2299
▁choq	-2300
▁esel	-2301
▁este	-2302
▁inye	-2303
▁jita	-2304
▁jnoo	-2305
▁jsaq	-2306
▁jtaq	-2307
▁jxib	-2308
▁jyaj	-2309
▁kant	-2310
▁kare	-2311
▁keej	-2312
▁koje	-2313
▁krus	-2314
▁kyeq	-2315
▁laad	-2316
▁misa	-2317
▁mutz	-2318
▁muuj	-2319
▁nweb	-2320
▁ojwi	-2321
▁ombr	-2322
▁pasa	-2323
▁poni	-2324
▁pune	-2325
▁puur	-2326
▁qawa	-2327
▁qaye	-2328
▁qile	-2329
▁quxb	-2330
▁rajb	-2331
▁relk	-2332
▁rila	-2333
▁rilb	-2334
▁solo	-2335
▁tata	-2336
▁tiwi	-2337
▁toke	-2338
▁tose	-2339
▁traj	-2340
▁tral	-2341
▁tzib	-2342
▁tzuq	-2343
▁wein	-2344
▁wene	-2345
▁wiik	-2346
▁xatb	-2347
▁xatk	-2348
▁xaye	-2349
▁xeek	-2350
▁xime	-2351
▁xkir	-2352
▁xkub	-2353
▁xkuy	-2354
▁xnim	-2355
▁xqil	-2356
▁xwer	-2357
aaltqa	-2358
chakuj	-2359
disyon	-2360
echtqe	-2361
exmaji	-2362
lujuuj	-2363
ojniik	-2364
omolch	-2365
rayaaj	-2366
talina	-2367
tokowk	-2368
▁Ajruk	-2369
▁Komoo	-2370
▁Nimaq	-2371
▁Titaw	-2372
▁ajsik	-2373
▁awriy	-2374
▁bonit	-2375
▁bwelt	-2376
▁diske	-2377
▁ensay	-2378
▁estab	-2379
▁fabor	-2380
▁inyuq	-2381
▁jkoje	-2382
▁jkorl	-2383
▁jpaam	-2384
▁jtiit	-2385
▁jtzam	-2386
▁kapee	-2387
▁kasti	-2388
▁kinse	-2389
▁kones	-2390
▁korti	-2391
▁kosol	-2392
▁kukub	-2393
▁lajin	-2394
▁lasti	-2395
▁limaq	-2396
▁maqra	-2397
▁mismo	-2398
▁ojche	-2399
▁pasar	-2400
▁pwers	-2401
▁qache	-2402
▁qesél	-2403
▁qíjil	-2404
▁rijil	-2405
▁segun	-2406
▁sipoj	-2407
▁tijoj	-2408
▁tikan	-2409
▁tinte	-2410
▁tisik	-2411
▁titij	-2412
▁tkwin	-2413
▁tonse	-2414
▁torik	-2415
▁tqane	-2416
▁trese	-2417
▁tsach	-2418
▁wiitz	-2419
▁xojwa	-2420
▁xqaye	-2421
▁xtzib	-2422
▁xuman	-2423
▁xwila	-2424
chochaq	-2425
eselkin	-2426
ijtzaqe	-2427
▁Cheent	-2428
▁Kobaan	-2429
▁Nabita	-2430
▁awetam	-2431
▁bentan	-2432
▁chapik	-2433
▁chawch	-2434
▁chomrs	-2435
▁iglesy	-2436
▁inatij	-2437
▁inpuch	-2438
▁jchuch	-2439
▁jsumal	-2440
▁jtakil	-2441
▁jtorik	-2442
▁kobrar	-2443
▁kwenta	-2444
▁luchar	-2445
▁mansan	-2446
▁qamiix	-2447
▁qapalm	-2448
▁qapech	-2449
▁qataat	-2450
▁qetami	-2451
▁ranmaq	-2452
▁restud	-2453
▁richij	-2454
▁rigles	-2455
▁rsmaal	-2456
▁sechel	-2457
▁syempr	-2458
▁tankoj	-2459
▁tatzek	-2460
▁tichaq	-2461
▁tijtaw	-2462
▁tinmit	-2463
▁titzaq	-2464
▁tnatun	-2465
▁tqaloq	-2466
▁tqayoq	-2467
▁tzitaq	-2468
▁utzaji	-2469
▁wataal	-2470
▁wetami	-2471
▁xansáj	-2472
▁xentaj	-2473
▁xinmaj	-2474
▁xpetaq	-2475
▁yokrek	-2476
▁étzeli	-2477
axoqoneb	-2478
chomrsan	-2479
pomajtqa	-2480
▁Chipaaj	-2481
▁almwers	-2482
▁chipaaj	-2483
▁chweyin	-2484
▁ilanawi	-2485
▁inkwini	-2486
▁jchótix	-2487
▁jtzijaq	-2488
▁kalidad	-2489
▁kaxlaan	-2490
▁kureexm	-2491
▁ojkwiin	-2492
▁petzelk	-2493
▁puwerte	-2494
▁qawákix	-2495
▁regidor	-2496
▁rejwexi	-2497
▁resajch	-2498
▁saqwech	-2499
▁tijkuya	-2500
▁tijtaaw	-2501
▁tikojow	-2502
▁tilmiit	-2503
▁tintzaq	-2504
▁tiqatij	-2505
▁tiqatik	-2506
▁tiqejch	-2507
▁tqamech	-2508
▁trentaq	-2509
▁tzichaq	-2510
▁xentiji	-2511
▁xijkoje	-2512
▁xijyaje	-2513
▁xpepene	-2514
▁xqakoja	-2515
▁Dyunabes	-2516
▁Katalina	-2517
▁Laguniit	-2518
▁Rejwexki	-2519
▁Rojwexki	-2520
▁antonses	-2521
▁awichjil	-2522
▁kistiyan	-2523
▁komersiy	-2524
▁kumpliir	-2525
▁likastiy	-2526
▁myentras	-2527
▁ojtokowk	-2528
▁rejwexki	-2529
▁rejwéxik	-2530
▁tijqasaj	-2531
▁tretmaaj	-2532
▁xatkojon	-2533
▁ajtilmiit	-2534
▁derefente	-2535
▁estabyeen	-2536
▁jpensaraq	-2537
▁kostumbre	-2538
▁marechtqe	-2539
▁petzelkin	-2540
▁qatilmiit	-2541
▁sechelkoj	-2542
▁tikuxtaaj	-2543
▁ajchaaltqa	-2544
!.	-2545
Aa	-2546
Ee	-2547
ep	-2548
jk	-2549
lu	-2550
no	-2551
oñ	-2552
wk	-2553
wl	-2554
xb	-2555
xk	-2556
yi	-2557
yn	-2558
▁h	-2559
aju	-2560
ari	-2561
bar	-2562
dad	-2563
dey	-2564
dii	-2565
elk	-2566
elw	-2567
elx	-2568
era	-2569
ern	-2570
ero	-2571
for	-2572
ike	-2573
isb	-2574
isk	-2575
jaj	-2576
ken	-2577
lam	-2578
las	-2579
mik	-2580
mis	-2581
moo	-2582
nke	-2583
noj	-2584
oja	-2585
ome	-2586
ora	-2587
osi	-2588
oso	-2589
osp	-2590
ran	-2591
rel	-2592
ren	-2593
rey	-2594
ril	-2595
roq	-2596
rox	-2597
sar	-2598
sim	-2599
tek	-2600
tiq	-2601
tur	-2602
ukx	-2603
umb	-2604
upa	-2605
ure	-2606
uta	-2607
war	-2608
wet	-2609
wii	-2610
xub	-2611
ájk	-2612
élk	-2613
úxb	-2614
▁Ma	-2615
▁Nt	-2616
▁Tq	-2617
▁Us	-2618
▁Wá	-2619
▁ad	-2620
▁am	-2621
▁ax	-2622
▁fu	-2623
▁nb	-2624
▁pa	-2625
▁ro	-2626
▁wu	-2627
▁xw	-2628
aaki	-2629
aari	-2630
ache	-2631
ajar	-2632
ajik	-2633
alib	-2634
alom	-2635
aloq	-2636
aman	-2637
anga	-2638
ante	-2639
apas	-2640
aqaj	-2641
aqik	-2642
arti	-2643
asal	-2644
atur	-2645
diid	-2646
eech	-2647
eene	-2648
ejik	-2649
elej	-2650
elik	-2651
enam	-2652
esaq	-2653
frad	-2654
guro	-2655
iijb	-2656
iism	-2657
ijme	-2658
illa	-2659
iqaq	-2660
isip	-2661
iyeq	-2662
laaq	-2663
mole	-2664
muqe	-2665
neen	-2666
nika	-2667
okix	-2668
okon	-2669
olal	-2670
omow	-2671
ooch	-2672
orii	-2673
orse	-2674
osaq	-2675
owik	-2676
oxow	-2677
peti	-2678
raju	-2679
riil	-2680
romb	-2681
syon	-2682
taaw	-2683
tene	-2684
tzaj	-2685
ujch	-2686
ujik	-2687
umum	-2688
uraj	-2689
wila	-2690
wile	-2691
wini	-2692
yook	-2693
yoos	-2694
yuuq	-2695
yólj	-2696
▁Inb	-2697
▁Ini	-2698
▁Kal	-2699
▁Las	-2700
▁Neb	-2701
▁Nej	-2702
▁Oor	-2703
▁Ooy	-2704
▁Sol	-2705
▁Tik	-2706
▁Tin	-2707
▁Tiq	-2708
▁Tra	-2709
▁Wet	-2710
▁Xtz	-2711
▁aal	-2712
▁bee	-2713
▁bel	-2714
▁bos	-2715
▁dos	-2716
▁ees	-2717
▁gol	-2718
▁imp	-2719
▁iqa	-2720
▁jak	-2721
▁jin	-2722
▁jwá	-2723
▁kuw	-2724
▁lii	-2725
▁lja	-2726
▁may	-2727
▁mañ	-2728
▁meb	-2729
▁nej	-2730
▁nii	-2731
▁ník	-2732
▁ook	-2733
▁pek	-2734
▁pen	-2735
▁qad	-2736
▁rat	-2737
▁rel	-2738
▁ren	-2739
▁rox	-2740
▁rya	-2741
▁sut	-2742
▁tix	-2743
▁tka	-2744
▁tki	-2745
▁tre	-2746
▁tza	-2747
▁táq	-2748
▁waq	-2749
▁wer	-2750
▁wij	-2751
▁woj	-2752
▁wur	-2753
▁xim	-2754
▁yaa	-2755
aajch	-2756
ajiik	-2757
ajmaj	-2758
almaj	-2759
aqiil	-2760
aslik	-2761
eelch	-2762
ejiil	-2763
ejkaq	-2764
ekmaj	-2765
emplo	-2766
enowk	-2767
iijab	-2768
iiych	-2769
ilool	-2770
iqane	-2771
iseys	-2772
iyens	-2773
iyoom	-2774
nakat	-2775
ochin	-2776
olika	-2777
ombre	-2778
opiis	-2779
padre	-2780
petar	-2781
pwest	-2782
taami	-2783
ulaaj	-2784
uniik	-2785
wando	-2786
xuker	-2787
yatur	-2788
íxlin	-2789
▁Abre	-2790
▁Ajri	-2791
▁Awaj	-2792
▁Chaj	-2793
▁Chaq	-2794
▁Jika	-2795
▁Juun	-2796
▁Komo	-2797
▁Mari	-2798
▁Nada	-2799
▁Oken	-2800
▁Pyor	-2801
▁Sach	-2802
▁Sant	-2803
▁Taat	-2804
▁Uxub	-2805
▁Xche	-2806
▁Xinb	-2807
▁Xkaj	-2808
▁Xkoj	-2809
▁Xmaj	-2810
▁Xpee	-2811
▁Xpet	-2812
▁abes	-2813
▁abre	-2814
▁ajwa	-2815
▁alas	-2816
▁algo	-2817
▁ants	-2818
▁arab	-2819
▁atwi	-2820
▁chaw	-2821
▁chej	-2822
▁dose	-2823
▁eske	-2824
▁grab	-2825
▁gran	-2826
▁ikim	-2827
▁ilan	-2828
▁inat	-2829
▁ixib	-2830
▁jaal	-2831
▁jara	-2832
▁jkaa	-2833
▁jnim	-2834
▁jori	-2835
▁jres	-2836
▁jtok	-2837
▁jtuj	-2838
▁junb	-2839
▁kaar	-2840
▁kanj	-2841
▁karo	-2842
▁kert	-2843
▁kesi	-2844
▁konb	-2845
▁kont	-2846
▁koon	-2847
▁kumb	-2848
▁kúmb	-2849
▁laas	-2850
▁lajq	-2851
▁litr	-2852
▁loon	-2853
▁luus	-2854
▁masi	-2855
▁miyo	-2856
▁mont	-2857
▁moor	-2858
▁moos	-2859
▁naan	-2860
▁nech	-2861
▁neej	-2862
▁nojs	-2863
▁pajn	-2864
▁palt	-2865
▁pcha	-2866
▁peet	-2867
▁pure	-2868
▁qano	-2869
▁raal	-2870
▁reta	-2871
▁riki	-2872
▁riko	-2873
▁rkom	-2874
▁saqi	-2875
▁seis	-2876
▁serb	-2877
▁stuw	-2878
▁tach	-2879
▁tiit	-2880
▁tita	-2881
▁tjol	-2882
▁tkoj	-2883
▁tpet	-2884
▁trab	-2885
▁trel	-2886
▁twer	-2887
▁tzak	-2888
▁tzin	-2889
▁unaq	-2890
▁uxta	-2891
▁walk	-2892
▁wqan	-2893
▁wuch	-2894
▁xaan	-2895
▁xana	-2896
▁xata	-2897
▁xjam	-2898
▁xjur	-2899
▁xnek	-2900
▁xokb	-2901
▁xooj	-2902
▁xpew	-2903
▁xtaa	-2904
▁xtaq	-2905
▁xtor	-2906
aqónik	-2907
aretaq	-2908
derech	-2909
elxiik	-2910
glesya	-2911
iyikaq	-2912
oqtaaj	-2913
pediid	-2914
simiin	-2915
taqach	-2916
tarina	-2917
temaaj	-2918
unidad	-2919
▁Antos	-2920
▁Jurub	-2921
▁Kones	-2922
▁Nabit	-2923
▁Ticha	-2924
▁Toses	-2925
▁Tqaya	-2926
▁aataq	-2927
▁achóq	-2928
▁aprob	-2929
▁ausil	-2930
▁awech	-2931
▁awnke	-2932
▁awsil	-2933
▁brink	-2934
▁bweno	-2935
▁chiik	-2936
▁chiqe	-2937
▁chwaj	-2938
▁chweq	-2939
▁chwij	-2940
▁diyes	-2941
▁donde	-2942
▁enter	-2943
▁estaa	-2944
▁inijk	-2945
▁jchee	-2946
▁jpech	-2947
▁jpoom	-2948
▁jxaar	-2949
▁keske	-2950
▁kimik	-2951
▁kiyej	-2952
▁kondo	-2953
▁kwiin	-2954
▁kyere	-2955
▁medya	-2956
▁miism	-2957
▁nimoo	-2958
▁opiis	-2959
▁parej	-2960
▁pawlo	-2961
▁pixab	-2962
▁piyeq	-2963
▁qades	-2964
▁qamaj	-2965
▁qamak	-2966
▁qames	-2967
▁qaqaj	-2968
▁qatij	-2969
▁qetam	-2970
▁rajaq	-2971
▁raqan	-2972
▁relij	-2973
▁reqle	-2974
▁rijaq	-2975
▁rikra	-2976
▁rumum	-2977
▁sinko	-2978
▁sobre	-2979
▁takoj	-2980
▁tamal	-2981
▁tanch	-2982
▁tarey	-2983
▁tatok	-2984
▁tiche	-2985
▁tijik	-2986
▁tijme	-2987
▁tijna	-2988
▁tqeej	-2989
▁trena	-2990
▁triil	-2991
▁tziyi	-2992
▁wetam	-2993
▁wtaam	-2994
▁xatij	-2995
▁xijme	-2996
▁xinok	-2997
▁xinya	-2998
▁xkoja	-2999
▁xqata	-3000
▁xqila	-3001
▁yolik	-3002
▁yolow	-3003
apasida	-3004
chaakun	-3005
chakuun	-3006
chuchuj	-3007
kojooni	-3008
lajwers	-3009
ojomaan	-3010
ojomani	-3011
tiyempo	-3012
uweerte	-3013
▁Antose	-3014
▁Jnonli	-3015
▁Kabaal	-3016
▁Kalaam	-3017
▁Petzel	-3018
▁Tichaq	-3019
▁ajwina	-3020
▁alegre	-3021
▁aparti	-3022
▁belori	-3023
▁bolber	-3024
▁chaaki	-3025
▁chawil	-3026
▁cheqej	-3027
▁chijch	-3028
▁ichaaj	-3029
▁jkaret	-3030
▁jmosaq	-3031
▁jqasaj	-3032
▁jresaj	-3033
▁jsujik	-3034
▁jtayik	-3035
▁juruub	-3036
▁juwert	-3037
▁juwich	-3038
▁kamote	-3039
▁kantin	-3040
▁kirner	-3041
▁kometz	-3042
▁kwatro	-3043
▁neench	-3044
▁patron	-3045
▁pobril	-3046
▁qachoq	-3047
▁qakafe	-3048
▁qakumb	-3049
▁qapwaq	-3050
▁qaqiib	-3051
▁qaraju	-3052
▁rawaas	-3053
▁resaaj	-3054
▁salbar	-3055
▁suwaan	-3056
▁tachap	-3057
▁talbes	-3058
▁tansik	-3059
▁taqsaj	-3060
▁tawila	-3061
▁tichik	-3062
▁tijloq	-3063
▁tijtaq	-3064
▁tijtok	-3065
▁tiqaye	-3066
▁titaaw	-3067
▁titzib	-3068
▁tkuwin	-3069
▁tojsaj	-3070
▁tonses	-3071
▁tqatiq	-3072
▁tqatok	-3073
▁tqesaj	-3074
▁tzaqow	-3075
▁wichaj	-3076
▁wijaal	-3077
▁xensaj	-3078
▁xichaq	-3079
▁xijtek	-3080
▁xinyuq	-3081
▁xmulaj	-3082
▁xqakoj	-3083
▁Entonse	-3084
▁Eskweel	-3085
▁ajchaak	-3086
▁ajiyoom	-3087
▁aqaajaq	-3088
▁awanmaq	-3089
▁awetzel	-3090
▁awxóqil	-3091
▁baldiyo	-3092
▁chikech	-3093
▁ejemplo	-3094
▁entonse	-3095
▁eskwela	-3096
▁jpwaqaq	-3097
▁katorse	-3098
▁kerneer	-3099
▁lajorii	-3100
▁lastima	-3101
▁malanga	-3102
▁oojkwin	-3103
▁puwerta	-3104
▁qachaak	-3105
▁qapwaaq	-3106
▁qawinaq	-3107
▁qesélch	-3108
▁rajtzoo	-3109
▁tajkiil	-3110
▁tamyeen	-3111
▁tantzaq	-3112
▁teqatik	-3113
▁tijkoje	-3114
▁tijsech	-3115
▁tijtzaq	-3116
▁tinatun	-3117
▁tintija	-3118
▁tnatuun	-3119
▁tqatzek	-3120
▁troqtaj	-3121
▁xincheb	-3122
▁xinkoja	-3123
▁xkojsaj	-3124
▁xojchap	-3125
▁Katarina	-3126
▁Tabiyeen	-3127
▁Tambyeen	-3128
▁awriyent	-3129
▁bendesir	-3130
▁chralaaj	-3131
▁inchakun	-3132
▁jkaretaq	-3133
▁kastigar	-3134
▁kertyaan	-3135
▁orasiyon	-3136
▁ralmwers	-3137
▁rchochaq	-3138
▁respetar	-3139
▁retamaqi	-3140
▁richijil	-3141
▁tijiniin	-3142
▁tikojoon	-3143
▁tikuxtaj	-3144
▁titaqsaj	-3145
▁wuchooch	-3146
▁xintijoj	-3147
▁xkamsaaj	-3148
▁bendisyon	-3149
▁chomorsaj	-3150
▁jcholajil	-3151
▁jcholájil	-3152
▁jkostumbr	-3153
▁mansaniiy	-3154
▁qadesayun	-3155
▁rechejiil	-3156
▁rumumujch	-3157
▁tijkuxtaj	-3158
▁tqarayaaj	-3159
▁usilyatur	-3160
▁chiqchooch	-3161
▁petzelkiin	-3162
▁qakapasida	-3163
▁tqejtaqach	-3164
▁qarajuwexik	-3165
.?	-3166
Ya	-3167
jb	-3168
lm	-3169
mi	-3170
po	-3171
yú	-3172
awi	-3173
axo	-3174
bli	-3175
don	-3176
eka	-3177
esa	-3178
etk	-3179
fin	-3180
gal	-3181
iba	-3182
ins	-3183
itk	-3184
ixb	-3185
kon	-3186
kwa	-3187
ley	-3188
mel	-3189
nes	-3190
ona	-3191
otr	-3192
oxó	-3193
oña	-3194
pir	-3195
pne	-3196
pul	-3197
rag	-3198
rne	-3199
Ta	-3200
pu	-3201
rb	-3202
sa	-3203
tb	-3204
jer	-3205
lli	-3206
mon	-3207
mul	-3208
rik	-3209
saq	-3210
sii	-3211
siq	-3212
syi	-3213
tad	-3214
tas	-3215
tañ	-3216
tel	-3217
tes	-3218
tis	-3219
tne	-3220
tra	-3221
tun	-3222
uel	-3223
ujb	-3224
ula	-3225
urs	-3226
ust	-3227
uyo	-3228
wár	-3229
xin	-3230
yut	-3231
ájl	-3232
ánk	-3233
íkw	-3234
ólm	-3235
ónk	-3236
▁De	-3237
▁Eb	-3238
▁Ee	-3239
▁Mj	-3240
▁Ol	-3241
▁Uk	-3242
▁Wa	-3243
▁ar	-3244
▁di	-3245
▁ex	-3246
▁gn	-3247
▁pl	-3248
▁rá	-3249
▁un	-3250
Peer	-3251
Pero	-3252
aach	-3253
aaka	-3254
aami	-3255
ades	-3256
alil	-3257
amaa	-3258
aney	-3259
anoo	-3260
apil	-3261
apoj	-3262
atwa	-3263
chqe	-3264
eemp	-3265
ejch	-3266
empl	-3267
ento	-3268
etaj	-3269
etro	-3270
form	-3271
fras	-3272
gadi	-3273
gran	-3274
guna	-3275
iita	-3276
ijne	-3277
ikop	-3278
ilan	-3279
iman	-3280
ingo	-3281
isaj	-3282
ital	-3283
itch	-3284
itow	-3285
iwch	-3286
iyad	-3287
iyaj	-3288
jose	-3289
jtqa	-3290
koch	-3291
ktén	-3292
kwer	-3293
ljuu	-3294
ntaq	-3295
nuul	-3296
obli	-3297
ojow	-3298
onan	-3299
ba	-3300
ds	-3301
tá	-3302
wí	-3303
ami	-3304
anb	-3305
asr	-3306
dez	-3307
qas	-3308
xer	-3309
▁os	-3310
▁py	-3311
▁íx	-3312
aata	-3313
anch	-3314
anti	-3315
asaq	-3316
ends	-3317
ijte	-3318
ikch	-3319
noon	-3320
onon	-3321
oowr	-3322
peen	-3323
petb	-3324
qaxo	-3325
qili	-3326
rner	-3327
sájk	-3328
taño	-3329
tiko	-3330
tina	-3331
tinb	-3332
titz	-3333
tiwo	-3334
tros	-3335
unaa	-3336
unik	-3337
uqum	-3338
usaj	-3339
utik	-3340
uunk	-3341
uwur	-3342
wana	-3343
weer	-3344
welq	-3345
wetz	-3346
wexk	-3347
wánm	-3348
wárj	-3349
xiim	-3350
xlan	-3351
yado	-3352
ánim	-3353
íxwu	-3354
ónta	-3355
úurs	-3356
▁Eso	-3357
▁Ink	-3358
▁Kan	-3359
▁Ker	-3360
▁Knt	-3361
▁Kub	-3362
▁Kwa	-3363
▁Lin	-3364
▁Maj	-3365
▁May	-3366
▁Mén	-3367
▁Ori	-3368
▁Pis	-3369
▁Raj	-3370
▁Ral	-3371
▁Ree	-3372
▁Rex	-3373
▁Sub	-3374
▁Tix	-3375
▁Xek	-3376
▁Xna	-3377
▁are	-3378
▁ast	-3379
▁ayu	-3380
▁dyo	-3381
▁enj	-3382
▁esk	-3383
▁fam	-3384
▁gan	-3385
▁jat	-3386
▁jeq	-3387
▁jja	-3388
▁jka	-3389
▁jki	-3390
▁jne	-3391
▁jop	-3392
▁jyu	-3393
▁kaf	-3394
▁kaj	-3395
▁kik	-3396
▁kox	-3397
▁lug	-3398
▁luj	-3399
fu	-3400
ajk	-3401
amk	-3402
asb	-3403
das	-3404
jal	-3405
jwi	-3406
kol	-3407
kom	-3408
naa	-3409
oli	-3410
xab	-3411
▁On	-3412
▁jf	-3413
alor	-3414
amik	-3415
eaal	-3416
ekon	-3417
gana	-3418
kiti	-3419
olaj	-3420
omch	-3421
osol	-3422
siik	-3423
tawi	-3424
traj	-3425
ugar	-3426
wqan	-3427
ysaj	-3428
ójor	-3429
▁Iil	-3430
▁Jin	-3431
▁Mir	-3432
▁Twi	-3433
▁Usp	-3434
▁Wen	-3435
▁ame	-3436
▁bok	-3437
▁ina	-3438
▁men	-3439
▁mer	-3440
▁mke	-3441
▁nin	-3442
▁oki	-3443
▁okt	-3444
▁pin	-3445
▁poq	-3446
▁pro	-3447
▁pul	-3448
▁puñ	-3449
▁qij	-3450
▁quk	-3451
▁ran	-3452
▁rem	-3453
▁roj	-3454
▁ron	-3455
▁rus	-3456
▁sey	-3457
▁stw	-3458
▁suj	-3459
▁tar	-3460
▁teb	-3461
▁tet	-3462
▁tjb	-3463
▁tno	-3464
▁tod	-3465
▁top	-3466
▁tuq	-3467
▁tyo	-3468
▁táj	-3469
▁uuq	-3470
▁uuy	-3471
▁wak	-3472
▁wii	-3473
▁wit	-3474
▁wiw	-3475
▁wka	-3476
▁xaa	-3477
▁xme	-3478
▁xoo	-3479
▁xqe	-3480
Jurub	-3481
Lamas	-3482
Nemoo	-3483
aaber	-3484
aanik	-3485
ajrne	-3486
ajtin	-3487
aldis	-3488
ament	-3489
anwaj	-3490
aqiib	-3491
aqmaj	-3492
ardar	-3493
asaaj	-3494
ateqa	-3495
atika	-3496
atike	-3497
ayajk	-3498
chaqj	-3499
alb	-3500
ank	-3501
diy	-3502
ekb	-3503
ion	-3504
ise	-3505
mar	-3506
oki	-3507
olq	-3508
yek	-3509
yúb	-3510
▁Lá	-3511
▁Xm	-3512
aaji	-3513
amol	-3514
aqal	-3515
aren	-3516
asok	-3517
atqa	-3518
ijye	-3519
imch	-3520
inda	-3521
isaq	-3522
waan	-3523
wiik	-3524
▁Xta	-3525
▁bar	-3526
▁bas	-3527
▁jit	-3528
▁kee	-3529
▁lok	-3530
▁nas	-3531
▁sap	-3532
chika	-3533
ebang	-3534
eekaq	-3535
eljuu	-3536
enika	-3537
entre	-3538
eptar	-3539
erens	-3540
erili	-3541
erkaa	-3542
esida	-3543
etuub	-3544
frady	-3545
ganaq	-3546
gradi	-3547
ichik	-3548
inmit	-3549
insip	-3550
iqame	-3551
iteen	-3552
iyera	-3553
iyere	-3554
kataq	-3555
koles	-3556
kwerd	-3557
lexch	-3558
lidad	-3559
likat	-3560
melal	-3561
májch	-3562
naqch	-3563
nikar	-3564
ntaqw	-3565
ojeel	-3566
ojnik	-3567
ojsáj	-3568
olájl	-3569
omaal	-3570
omaji	-3571
onaaj	-3572
oraal	-3573
ortil	-3574
ortun	-3575
oseya	-3576
otrer	-3577
oxówk	-3578
peeti	-3579
petaq	-3580
petin	-3581
pirar	-3582
resaj	-3583
rneer	-3584
rsank	-3585
sajik	-3586
sipaj	-3587
tayin	-3588
temaj	-3589
teros	-3590
tiyar	-3591
tkiti	-3592
tzijb	-3593
uchaa	-3594
umaan	-3595
upsáj	-3596
uwini	-3597
wanim	-3598
wenta	-3599
Aay	-3600
ayé	-3601
dek	-3602
eji	-3603
enw	-3604
iyk	-3605
iyl	-3606
kos	-3607
sek	-3608
stw	-3609
ugo	-3610
ájw	-3611
▁Aw	-3612
▁Jq	-3613
▁Xb	-3614
▁Xu	-3615
▁up	-3616
▁uq	-3617
▁us	-3618
acha	-3619
ajej	-3620
aqej	-3621
ason	-3622
atok	-3623
chek	-3624
enos	-3625
grar	-3626
iisi	-3627
kosk	-3628
tzan	-3629
werw	-3630
▁Jil	-3631
▁Jor	-3632
▁Kar	-3633
▁Mee	-3634
▁Mok	-3635
▁del	-3636
▁jos	-3637
▁ojt	-3638
▁sin	-3639
▁sáj	-3640
▁uka	-3641
▁wax	-3642
▁wek	-3643
▁xej	-3644
entaw	-3645
isiyl	-3646
iyoch	-3647
olaal	-3648
qalaj	-3649
sajch	-3650
wunaq	-3651
xaqtb	-3652
yaani	-3653
yones	-3654
yooba	-3655
yuter	-3656
yólij	-3657
▁Aber	-3658
▁Chij	-3659
▁Chik	-3660
▁Eske	-3661
▁Iwir	-3662
▁Jiin	-3663
▁Juli	-3664
▁Kata	-3665
▁Kiib	-3666
▁Kila	-3667
▁Kont	-3668
▁Leen	-3669
▁Mriy	-3670
▁Naad	-3671
▁Nmoo	-3672
▁Pake	-3673
▁Para	-3674
▁Tanb	-3675
▁Tcha	-3676
▁Teek	-3677
▁Tika	-3678
▁Tinb	-3679
▁Tpee	-3680
▁Tran	-3681
▁Waan	-3682
▁Walk	-3683
▁Wákx	-3684
▁Xena	-3685
▁Xink	-3686
▁Xloq	-3687
▁Xook	-3688
▁Xpek	-3689
▁abid	-3690
▁agan	-3691
▁akwa	-3692
▁aleb	-3693
▁anmi	-3694
▁ante	-3695
▁arob	-3696
▁asuk	-3697
▁awij	-3698
▁axib	-3699
Ay	-3700
jte	-3701
kan	-3702
rib	-3703
áka	-3704
exch	-3705
liin	-3706
oojb	-3707
▁Nik	-3708
▁Nin	-3709
▁Win	-3710
▁Xuq	-3711
▁aba	-3712
▁ajb	-3713
▁ajk	-3714
▁ajn	-3715
▁ane	-3716
▁dom	-3717
▁pel	-3718
▁tuw	-3719
▁twa	-3720
▁yob	-3721
asyon	-3722
deyaq	-3723
eqiil	-3724
isónk	-3725
ooqow	-3726
tijin	-3727
tijol	-3728
▁Ataq	-3729
▁Boos	-3730
▁Petk	-3731
▁atch	-3732
▁atya	-3733
▁bale	-3734
▁baya	-3735
▁berd	-3736
▁biba	-3737
▁bida	-3738
▁chep	-3739
▁chuk	-3740
▁chup	-3741
▁doña	-3742
▁emoo	-3743
▁gnar	-3744
▁gras	-3745
▁hosp	-3746
▁ilka	-3747
▁inaj	-3748
▁inaq	-3749
▁inpe	-3750
▁insw	-3751
▁iqal	-3752
▁ixtu	-3753
▁jaat	-3754
▁jiin	-3755
▁jika	-3756
▁jino	-3757
▁jiri	-3758
▁jlon	-3759
▁jloq	-3760
▁jmak	-3761
▁jrox	-3762
▁jsii	-3763
▁jtij	-3764
▁juuj	-3765
▁jwer	-3766
▁keko	-3767
▁kins	-3768
▁kiti	-3769
▁kojb	-3770
▁kutz	-3771
▁kwar	-3772
▁kyer	-3773
▁lado	-3774
▁leer	-3775
▁lsii	-3776
▁maak	-3777
▁malk	-3778
▁matb	-3779
▁mere	-3780
▁mira	-3781
▁modo	-3782
▁muul	-3783
▁nado	-3784
▁nemo	-3785
▁nenk	-3786
▁nesy	-3787
▁obli	-3788
▁ojor	-3789
▁oken	-3790
▁okoq	-3791
▁okwi	-3792
▁ooji	-3793
▁paak	-3794
▁patb	-3795
▁petk	-3796
▁pixb	-3797
▁play	-3798
▁ptaq	-3799
▁qajw	-3800
▁qalk	-3801
▁qalú	-3802
▁qask	-3803
▁qata	-3804
▁qate	-3805
▁qeli	-3806
▁qeqa	-3807
▁qesk	-3808
▁qusi	-3809
▁qáwj	-3810
▁qúxb	-3811
▁raaq	-3812
▁rajw	-3813
▁ralq	-3814
▁rere	-3815
▁riib	-3816
▁riik	-3817
▁rita	-3818
▁ritk	-3819
▁rsor	-3820
▁rutz	-3821
▁samb	-3822
▁saqk	-3823
▁sino	-3824
▁sool	-3825
▁staq	-3826
▁syen	-3827
▁taal	-3828
▁taqa	-3829
▁taya	-3830
▁teel	-3831
▁tenb	-3832
▁tina	-3833
▁tine	-3834
▁tino	-3835
▁titi	-3836
▁tkam	-3837
▁tkub	-3838
▁tloq	-3839
▁tnoj	-3840
▁tqaj	-3841
▁tqam	-3842
▁tqik	-3843
▁traa	-3844
▁trat	-3845
▁tyaw	-3846
▁tzko	-3847
▁ubli	-3848
▁ukaa	-3849
▁waak	-3850
▁waat	-3851
▁wasr	-3852
▁welk	-3853
▁wiin	-3854
▁wuka	-3855
▁xaaq	-3856
▁xaar	-3857
▁xaat	-3858
▁xamb	-3859
▁xame	-3860
▁xani	-3861
▁xate	-3862
▁xatq	-3863
▁xijk	-3864
▁xina	-3865
▁xinq	-3866
▁xjoj	-3867
▁xjop	-3868
▁xmiq	-3869
▁xmul	-3870
▁xojb	-3871
▁xpax	-3872
▁xpis	-3873
▁xqan	-3874
▁xril	-3875
▁xsaq	-3876
▁xuqi	-3877
▁xyaj	-3878
▁yugo	-3879
▁ájij	-3880
▁ínwa	-3881
▁íxim	-3882
Kwando	-3883
adeser	-3884
ajtaqa	-3885
alkiin	-3886
alomja	-3887
ansaaj	-3888
antela	-3889
antzaq	-3890
atmaaj	-3891
chapon	-3892
elejeb	-3893
entaaj	-3894
erneer	-3895
gunita	-3896
iichaq	-3897
ikmaji	-3898
ilikaa	-3899
illagr	-3900
inonli	-3901
isinko	-3902
iyaani	-3903
kojoni	-3904
kténel	-3905
lajuuj	-3906
lamaas	-3907
majiik	-3908
omwaaj	-3909
onejel	-3910
oqomch	-3911
orisar	-3912
otchaq	-3913
qasaaj	-3914
qasook	-3915
taawin	-3916
tamaaj	-3917
temaal	-3918
tikeer	-3919
tisach	-3920
tudyar	-3921
uqtaaj	-3922
yembre	-3923
yempre	-3924
yolowk	-3925
▁Atzib	-3926
▁Ayoos	-3927
▁Bweno	-3928
▁Chiik	-3929
▁Dyosi	-3930
▁Jataq	-3931
▁Jilon	-3932
▁Jonon	-3933
▁Jtzij	-3934
▁Jwana	-3935
▁Kabal	-3936
▁Lamas	-3937
▁Linee	-3938
▁Majri	-3939
▁Manik	-3940
▁Matja	-3941
▁Mends	-3942
▁Miixa	-3943
▁Mjoor	-3944
▁Mkita	-3945
▁Olori	-3946
▁Resaj	-3947
▁Tijya	-3948
▁Tijye	-3949
▁Tilin	-3950
▁Tpeti	-3951
▁Xelch	-3952
▁Xinwa	-3953
▁Xpetz	-3954
▁aaber	-3955
▁aanmi	-3956
▁achak	-3957
▁achoq	-3958
▁ajmak	-3959
▁akúmb	-3960
▁alaaq	-3961
▁antes	-3962
▁antos	-3963
▁apart	-3964
▁asaam	-3965
▁asron	-3966
▁atcha	-3967
▁atilw	-3968
▁atint	-3969
▁atitz	-3970
▁atoke	-3971
▁attij	-3972
▁atzib	-3973
▁awaji	-3974
▁ayisi	-3975
▁ayoos	-3976
▁chaal	-3977
▁chepe	-3978
▁chijq	-3979
▁chimb	-3980
▁chujb	-3981
▁chíkw	-3982
▁dyawl	-3983
▁ebang	-3984
▁etern	-3985
▁golpe	-3986
▁imaam	-3987
▁inbid	-3988
▁inche	-3989
▁inchk	-3990
▁inkan	-3991
▁insii	-3992
▁intaj	-3993
▁inwch	-3994
▁inwii	-3995
▁inwil	-3996
▁inyaj	-3997
▁ixiim	-3998
▁iywal	-3999
▁jchap	-4000
▁jchóq	-4001
▁jfoot	-4002
▁jgaan	-4003
▁jkojb	-4004
▁jkolb	-4005
▁jolin	-4006
▁jpach	-4007
▁jpoop	-4008
▁jranm	-4009
▁jrqan	-4010
▁jsook	-4011
▁jtike	-4012
▁jtzuq	-4013
▁julan	-4014
▁juraj	-4015
▁juyub	-4016
▁jwaaq	-4017
▁kampo	-4018
▁kaske	-4019
▁kesey	-4020
▁kiyaq	-4021
▁kiyer	-4022
▁kojon	-4023
▁konta	-4024
▁kontk	-4025
▁kwerd	-4026
▁kwini	-4027
▁kúurs	-4028
▁liyad	-4029
▁lomis	-4030
▁lonli	-4031
▁majch	-4032
▁majop	-4033
▁mamaa	-4034
▁manoj	-4035
▁maxaq	-4036
▁mayor	-4037
▁medyo	-4038
▁metro	-4039
▁mijor	-4040
▁mikta	-4041
▁miyer	-4042
▁mketa	-4043
▁mokol	-4044
▁molik	-4045
▁moxer	-4046
▁mulan	-4047
▁naado	-4048
▁nadaa	-4049
▁namas	-4050
▁naqaj	-4051
▁natur	-4052
▁nemas	-4053
▁nesye	-4054
▁nijun	-4055
▁nimal	-4056
▁noche	-4057
▁nonli	-4058
▁nosol	-4059
▁nuunk	-4060
▁oseya	-4061
▁otros	-4062
▁parke	-4063
▁paske	-4064
▁peent	-4065
▁petik	-4066
▁poowr	-4067
▁qadeb	-4068
▁qasii	-4069
▁qastz	-4070
▁qataq	-4071
▁qatiq	-4072
▁qelon	-4073
▁qusta	-4074
▁rajwu	-4075
▁regal	-4076
▁regla	-4077
▁retal	-4078
▁ritin	-4079
▁ránim	-4080
▁salon	-4081
▁saqar	-4082
▁segur	-4083
▁sekek	-4084
▁siyen	-4085
▁solaj	-4086
▁syent	-4087
▁tachi	-4088
▁takuy	-4089
▁tanya	-4090
▁taqra	-4091
▁taqwi	-4092
▁tatin	-4093
▁tawes	-4094
▁tawet	-4095
▁tchaq	-4096
▁teche	-4097
▁teqab	-4098
▁tijte	-4099
▁tikij	-4100
▁tinik	-4101
▁tinta	-4102
▁tinye	-4103
▁tiqak	-4104
▁tiqil	-4105
▁titok	-4106
▁toose	-4107
▁torre	-4108
▁tpeet	-4109
▁tpeti	-4110
▁tqaan	-4111
▁tqana	-4112
▁tqate	-4113
▁tqila	-4114
▁tqyoq	-4115
▁trila	-4116
▁tunil	-4117
▁usiil	-4118
▁uxlan	-4119
▁wakix	-4120
▁wchre	-4121
▁wechi	-4122
▁weene	-4123
▁wetji	-4124
▁witzi	-4125
▁wuron	-4126
▁wónik	-4127
▁xanow	-4128
▁xatwa	-4129
▁xchaq	-4130
▁xenaa	-4131
▁xenja	-4132
▁xenow	-4133
▁xijte	-4134
▁xilow	-4135
▁xkami	-4136
▁xkamk	-4137
▁xojoj	-4138
▁xpach	-4139
▁xpetk	-4140
▁xpitz	-4141
▁xqeej	-4142
▁xsach	-4143
▁xtukx	-4144
▁xtzak	-4145
▁yajel	-4146
▁yamaj	-4147
▁yanoo	-4148
▁yastw	-4149
▁áchak	-4150
amsajoq	-4151
amsájch	-4152
antelaa	-4153
chijiil	-4154
estyaad	-4155
imiyaal	-4156
insipal	-4157
iqatoke	-4158
kochiij	-4159
ojomank	-4160
ortanti	-4161
íxlinwa	-4162
▁Ajritk	-4163
▁Anibel	-4164
▁Entoon	-4165
▁Entose	-4166
▁Knteel	-4167
▁Makach	-4168
▁Manuel	-4169
▁Méndez	-4170
▁Nombre	-4171
▁Pwerta	-4172
▁Seguro	-4173
▁Taweno	-4174
▁Tijsik	-4175
▁Tijtik	-4176
▁Tqatij	-4177
▁Uspant	-4178
▁Xeljuu	-4179
▁Xpepne	-4180
▁Xtawen	-4181
▁abeses	-4182
▁achaak	-4183
▁ajmaak	-4184
▁ajtinb	-4185
▁ajwich	-4186
▁ajyuuq	-4187
▁akinaq	-4188
▁alkald	-4189
▁alwiin	-4190
▁anegos	-4191
▁anibel	-4192
▁anteer	-4193
▁antiwo	-4194
▁antose	-4195
▁apenad	-4196
▁apenaq	-4197
▁apwest	-4198
▁atiluk	-4199
▁atkamk	-4200
▁attzuq	-4201
▁brinda	-4202
▁chalaj	-4203
▁chapka	-4204
▁chapon	-4205
▁chaqik	-4206
▁chikon	-4207
▁chikot	-4208
▁chikwu	-4209
▁chipaj	-4210
▁chuchn	-4211
▁diseke	-4212
▁elikop	-4213
▁enteer	-4214
▁extran	-4215
▁fuerte	-4216
▁grabar	-4217
▁iglesa	-4218
▁iikeej	-4219
▁inatun	-4220
▁inchaq	-4221
▁inform	-4222
▁inklas	-4223
▁inmaam	-4224
▁inmoor	-4225
▁inyolj	-4226
▁inyólj	-4227
▁iywaal	-4228
▁jbalor	-4229
▁jbidaq	-4230
▁jganaq	-4231
▁jkolob	-4232
▁jkostu	-4233
▁jluwur	-4234
▁jmesaq	-4235
▁jnaqaj	-4236
▁jopsaj	-4237
▁jpuwaq	-4238
▁jswert	-4239
▁jtaqik	-4240
▁jtujaq	-4241
▁jtzaqe	-4242
▁jyajaq	-4243
▁jyooba	-4244
▁kamiik	-4245
▁karism	-4246
▁keqiix	-4247
▁komadr	-4248
▁konbit	-4249
▁kortil	-4250
▁koxtar	-4251
▁kuwand	-4252
▁kwaand	-4253
▁laqaxo	-4254
▁lomism	-4255
▁lugaar	-4256
▁machep	-4257
▁majiik	-4258
▁majkwa	-4259
▁maldis	-4260
▁mandar	-4261
▁martes	-4262
▁mañana	-4263
▁merkaa	-4264
▁mosiib	-4265
▁mutzaj	-4266
▁mxaqtb	-4267
▁nemood	-4268
▁nichek	-4269
▁numrar	-4270
▁ojtawi	-4271
▁ojtzuq	-4272
▁oojika	-4273
▁oojwer	-4274
▁pajnij	-4275
▁parake	-4276
▁pechaq	-4277
▁pechik	-4278
▁permis	-4279
▁potrer	-4280
▁prediy	-4281
▁pulmon	-4282
▁pwerta	-4283
▁qachak	-4284
▁qachee	-4285
▁qajyub	-4286
▁qajyúb	-4287
▁qakojb	-4288
▁qakoje	-4289
▁qaloon	-4290
▁qaluwr	-4291
▁qamisa	-4292
▁qasori	-4293
▁qatrag	-4294
▁qaxoot	-4295
▁qayaaj	-4296
▁qixiim	-4297
▁quleew	-4298
▁qáchak	-4299
▁qáchij	-4300
▁raalaj	-4301
▁rechta	-4302
▁retami	-4303
▁rexkab	-4304
▁rexóql	-4305
▁richaj	-4306
▁richaq	-4307
▁rikiil	-4308
▁rixóql	-4309
▁rojwex	-4310
▁ropiis	-4311
▁ruleew	-4312
▁sabado	-4313
▁sabeer	-4314
▁sachel	-4315
▁sachik	-4316
▁sikyer	-4317
▁simiin	-4318
▁siyera	-4319
▁siyere	-4320
▁swerte	-4321
▁tachak	-4322
▁tantaq	-4323
▁tantij	-4324
▁tatiij	-4325
▁tatzaq	-4326
▁tchkon	-4327
▁tijcha	-4328
▁tijkat	-4329
▁tijpaq	-4330
▁tijtor	-4331
▁tijyaw	-4332
▁tijyoq	-4333
▁tikami	-4334
▁tikata	-4335
▁tinkun	-4336
▁tinloq	-4337
▁tipetk	-4338
▁tiwerw	-4339
▁tokiik	-4340
▁tormaj	-4341
▁tqacha	-4342
▁trakun	-4343
▁trensa	-4344
▁tuqane	-4345
▁tyempo	-4346
▁tzaqal	-4347
▁tzekik	-4348
▁uchaqu	-4349
▁wardar	-4350
▁wiitzi	-4351
▁wiqili	-4352
▁witiin	-4353
▁wixiim	-4354
▁xawelq	-4355
▁xawqan	-4356
▁xijtaq	-4357
▁xineel	-4358
▁xinpet	-4359
▁xinwil	-4360
▁xjusaj	-4361
▁xkejaj	-4362
▁xkoker	-4363
▁xkwiin	-4364
▁xkwini	-4365
▁xojqej	-4366
▁xpepne	-4367
▁xqaloq	-4368
▁xqatij	-4369
▁xraqin	-4370
▁xtromb	-4371
▁xumaan	-4372
▁ínchak	-4373
aqejalil	-4374
asaqwech	-4375
asiyonal	-4376
eselchaq	-4377
ojomaani	-4378
ojomanik	-4379
ortunida	-4380
▁Junojel	-4381
▁Keresir	-4382
▁Lajorii	-4383
▁Syempre	-4384
▁Xentiji	-4385
▁Xintzib	-4386
▁Xkanjye	-4387
▁abyones	-4388
▁alegrar	-4389
▁aseptar	-4390
▁atkojon	-4391
▁atyuter	-4392
▁awetami	-4393
▁beloriy	-4394
▁chakuni	-4395
▁chijtok	-4396
▁chinwch	-4397
▁chqawch	-4398
▁chralaj	-4399
▁desayun	-4400
▁desfras	-4401
▁dilikaa	-4402
▁eselkat	-4403
▁iglesiy	-4404
▁iinilan	-4405
▁inatije	-4406
▁inkaret	-4407
▁inpwaqi	-4408
▁insolaj	-4409
▁ixnakat	-4410
▁jchakaq	-4411
▁jchuchi	-4412
▁jderech	-4413
▁jeqelon	-4414
▁jiqenon	-4415
▁jkandel	-4416
▁jpetiik	-4417
▁jswerte	-4418
▁jtokiik	-4419
▁jtzekik	-4420
▁kemelal	-4421
▁ketzaal	-4422
▁kombite	-4423
▁kongana	-4424
▁kurason	-4425
▁lajasok	-4426
▁lajwánm	-4427
▁lamiyer	-4428
▁lomenos	-4429
▁luwaari	-4430
▁makataq	-4431
▁mojkosk	-4432
▁montaañ	-4433
▁munisip	-4434
▁muntaño	-4435
▁nasaren	-4436
▁nojsool	-4437
▁obligar	-4438
▁ojkwini	-4439
▁ojxuker	-4440
▁opiisyo	-4441
▁petzélk	-4442
▁pijinon	-4443
▁pijpech	-4444
▁pobriil	-4445
▁primero	-4446
▁qachepe	-4447
▁qakinaq	-4448
▁qakoojb	-4449
▁qalugar	-4450
▁qapuwaq	-4451
▁qayólij	-4452
▁qchooch	-4453
▁qonejel	-4454
▁quschaq	-4455
▁rajsiik	-4456
▁restudy	-4457
▁richoch	-4458
▁rideyaq	-4459
▁rikimch	-4460
▁rixóqol	-4461
▁sagradi	-4462
▁sambley	-4463
▁sweerte	-4464
▁talexch	-4465
▁taqajik	-4466
▁tcheqej	-4467
▁tempran	-4468
▁tijchep	-4469
▁tijjose	-4470
▁tijmaaj	-4471
▁tijqech	-4472
▁tijtiik	-4473
▁tijtija	-4474
▁tijtika	-4475
▁tiniman	-4476
▁tiyuqin	-4477
▁tjoliin	-4478
▁tkojsaj	-4479
▁tkuxtaj	-4480
▁tqakoja	-4481
▁tqakuya	-4482
▁tqamaaj	-4483
▁tqeejch	-4484
▁tresaaj	-4485
▁triltaq	-4486
▁tzaqsáj	-4487
▁wasroon	-4488
▁wchooch	-4489
▁wechaam	-4490
▁wixóqil	-4491
▁xatpeet	-4492
▁xchajaj	-4493
▁xchakuj	-4494
▁xejmuqe	-4495
▁xinalib	-4496
▁xinkosi	-4497
▁xinmaaj	-4498
▁xinpeti	-4499
▁xintaaw	-4500
▁xintija	-4501
▁xintzib	-4502
▁xjamini	-4503
▁xnimani	-4504
▁xojsach	-4505
▁xokchik	-4506
▁xpenika	-4507
▁xpomaji	-4508
▁xqachol	-4509
▁xqatiij	-4510
▁xresaaj	-4511
▁xtijmaj	-4512
▁xtijtaq	-4513
entisinko	-4514
▁Ajsimiin	-4515
▁Alajwers	-4516
▁Derepent	-4517
▁Lagunita	-4518
▁Tantayin	-4519
▁Tichkoni	-4520
▁Tijiniin	-4521
▁almajiik	-4522
▁aprobaar	-4523
▁atijsaji	-4524
▁awetaami	-4525
▁chajalik	-4526
▁chakúnik	-4527
▁chawijaq	-4528
▁chawilka	-4529
▁chijyook	-4530
▁chikaman	-4531
▁chiqawch	-4532
▁chirijaq	-4533
▁chrelaaj	-4534
▁chuwajin	-4535
▁disiyoch	-4536
▁ebangelj	-4537
▁empediid	-4538
▁estudyar	-4539
▁hospital	-4540
▁iglesiya	-4541
▁insiyens	-4542
▁jaragaan	-4543
▁jchaakaq	-4544
▁jkantela	-4545
▁jmillagr	-4546
▁jpoomaaj	-4547
▁jqasajik	-4548
▁jrchooch	-4549
▁jtiyempo	-4550
▁kamsajoq	-4551
▁kantelaa	-4552
▁karetera	-4553
▁katolika	-4554
▁kirneero	-4555
▁kirtyani	-4556
▁komnikar	-4557
▁kostumbr	-4558
▁kíxlinwa	-4559
▁lajwanim	-4560
▁leskwela	-4561
▁maaknika	-4562
▁medyabes	-4563
▁nimaqiil	-4564
▁ojyolowk	-4565
▁ontikeer	-4566
▁oojkwini	-4567
▁purament	-4568
▁qachótix	-4569
▁qakantel	-4570
▁qapensar	-4571
▁qaswerte	-4572
▁qatinmit	-4573
▁qaxumaan	-4574
▁qiglesya	-4575
▁relijion	-4576
▁repentqe	-4577
▁respirar	-4578
▁riglesaq	-4579
▁rojwexki	-4580
▁ryalidad	-4581
▁tamiyeen	-4582
▁tamtkiti	-4583
▁tantiyar	-4584
▁tantyado	-4585
▁taqeqiil	-4586
▁ticheqej	-4587
▁tichkoni	-4588
▁tichokon	-4589
▁tijpomaj	-4590
▁tijtijoj	-4591
▁tijtzaqe	-4592
▁tikawila	-4593
▁tikokerw	-4594
▁tiqatzaq	-4595
▁tiwooqow	-4596
▁tqakejaj	-4597
▁tqasajik	-4598
▁tqasolaj	-4599
▁tresajch	-4600
▁ubligadi	-4601
▁usiliyar	-4602
▁weltchik	-4603
▁wiitzili	-4604
▁wunaqtqa	-4605
▁xchapsaj	-4606
▁xchomsaj	-4607
▁xelchich	-4608
▁xinkwini	-4609
▁xlatunch	-4610
▁xlatunja	-4611
▁xoojelch	-4612
▁xyetaqch	-4613
▁awsiliyar	-4614
▁chomrsaan	-4615
▁chomrsank	-4616
▁chomrsánk	-4617
▁dyesiseys	-4618
▁inchakuun	-4619
▁inkompayr	-4620
▁insweerte	-4621
▁jcholaajl	-4622
▁jchuuchaq	-4623
▁jrespetaq	-4624
▁jsuweerte	-4625
▁kamnaqtaj	-4626
▁kanjtzaqe	-4627
▁kiyeresir	-4628
▁komunidad	-4629
▁lajinwárj	-4630
▁lajqasook	-4631
▁lajqchoch	-4632
▁nasiyonal	-4633
▁oktorisar	-4634
▁pajinonli	-4635
▁prinsipal	-4636
▁puramente	-4637
▁qakerneer	-4638
▁qakompayr	-4639
▁rechijiil	-4640
▁riglesyaq	-4641
▁sinkwenta	-4642
▁tansikyer	-4643
▁tanyoliin	-4644
▁tichikoni	-4645
▁titawtina	-4646
▁titikonan	-4647
▁wakotchaq	-4648
▁xintaawin	-4649
▁xojkajrne	-4650
▁xojkojoni	-4651
▁xwetemaaj	-4652
atmaajchiki	-4653
▁Ojchomrsan	-4654
▁ajwakténel	-4655
▁beyntisink	-4656
▁chralaajaq	-4657
▁inportanti	-4658
▁jkostumbre	-4659
▁jurchuchuj	-4660
▁lajintzijb	-4661
▁majcholájl	-4662
▁miyerkoles	-4663
▁qadeberili	-4664
▁richoochaq	-4665
▁tankuxtaaj	-4666
▁xintijónik	-4667
▁xojkojooni	-4668
▁Xijpomajtqa	-4669
▁cheqejchaqj	-4670
▁elikopteros	-4671
▁informasyon	-4672
▁jchaqejalil	-4673
▁jkostumbraq	-4674
▁karismatika	-4675
▁oojchomrsan	-4676
▁xijpomajtqa	-4677
▁xinkamsaaji	-4678
▁xinpetchika	-4679
▁komersiyante	-4680
▁primeramente	-4681
Ese	-4682
rjk	-4683
álk	-4684
óni	-4685
ayar	-4686
ayéj	-4687
eder	-4688
eqej	-4689
eqom	-4690
ersa	-4691
free	-4692
fufu	-4693
guam	-4694
iqak	-4695
kari	-4696
kote	-4697
ktul	-4698
lugr	-4699
'?.	-4700
sán	-4701
luus	-4702
mayr	-4703
odas	-4704
olán	-4705
orma	-4706
otem	-4707
padr	-4708
páka	-4709
qájw	-4710
rexi	-4711
syaq	-4712
tine	-4713
tore	-4714
urek	-4715
uund	-4716
wnaq	-4717
wuur	-4718
wéxk	-4719
wóni	-4720
yama	-4721
yayi	-4722
yoso	-4723
ónoq	-4724
▁Kuy	-4725
▁Ojb	-4726
▁Onr	-4727
▁Tiw	-4728
▁agu	-4729
▁amm	-4730
▁eey	-4731
▁eqa	-4732
▁iyk	-4733
▁jto	-4734
▁láq	-4735
▁onk	-4736
▁qák	-4737
▁ráb	-4738
▁una	-4739
▁upé	-4740
▁wín	-4741
▁wís	-4742
▁xíj	-4743
▁ínw	-4744
Dyoos	-4745
aguna	-4746
ajlam	-4747
akini	-4748
alank	-4749
alesa	-4750
alida	-4751
antoñ	-4752
atija	-4753
atije	-4754
atsek	-4755
atura	-4756
atwax	-4757
awitz	-4758
aydey	-4759
ayéjk	-4760
chjil	-4761
deker	-4762
donar	-4763
donde	-4764
dondo	-4765
eemta	-4766
elaji	-4767
elmáj	-4768
eneka	-4769
enril	-4770
eqomi	-4771
erser	-4772
estya	-4773
final	-4774
fweer	-4775
ganis	-4776
ingos	-4777
irile	-4778
istal	-4779
itiik	-4780
iyani	-4781
jempl	-4782
jtoke	-4783
jwóni	-4784
kiitz	-4785
kitaa	-4786
kotem	-4787
ksyon	-4788
lanes	-4789
lkooj	-4790
luusi	-4791
mento	-4792
ntaqa	-4793
ofrad	-4794
okoni	-4795
olyar	-4796
omate	-4797
omayr	-4798
onaji	-4799
iwt	-4800
táq	-4801
aqyo	-4802
enyo	-4803
intr	-4804
máji	-4805
palm	-4806
tras	-4807
trna	-4808
tách	-4809
ulew	-4810
walq	-4811
wetr	-4812
xanb	-4813
▁ika	-4814
▁jtr	-4815
▁jxo	-4816
▁xjj	-4817
intrs	-4818
iteqa	-4819
maajk	-4820
onsyo	-4821
oqolq	-4822
oraad	-4823
osáyb	-4824
owech	-4825
petch	-4826
pisaq	-4827
plaan	-4828
qeeji	-4829
qelon	-4830
rayaj	-4831
relij	-4832
ribir	-4833
riyad	-4834
saqer	-4835
story	-4836
tante	-4837
tasar	-4838
tasmi	-4839
tasyo	-4840
tiqan	-4841
tzaka	-4842
táqch	-4843
ukxil	-4844
ulnaq	-4845
umbre	-4846
untad	-4847
utiin	-4848
utunk	-4849
uwraq	-4850
uxlan	-4851
waxik	-4852
weelt	-4853
weent	-4854
weers	-4855
weest	-4856
wákix	-4857
xekik	-4858
xikin	-4859
yekow	-4860
yemaq	-4861
yendo	-4862
yento	-4863
yerno	-4864
yimiy	-4865
▁Abay	-4866
▁Awtz	-4867
▁Karm	-4868
▁Kaye	-4869
▁Koli	-4870
▁Last	-4871
▁Mira	-4872
▁Mjor	-4873
▁Moka	-4874
▁Mran	-4875
▁Nejb	-4876
▁Ntos	-4877
▁Seis	-4878
▁Sino	-4879
▁Tina	-4880
▁Tixí	-4881
▁Tkan	-4882
▁Tqak	-4883
▁Traj	-4884
▁Tzaq	-4885
▁Utiw	-4886
▁Weno	-4887
▁Wálb	-4888
▁Xijb	-4889
▁Xtoj	-4890
▁Xtze	-4891
▁acho	-4892
▁agua	-4893
▁amer	-4894
▁arat	-4895
▁atwk	-4896
▁awib	-4897
▁awáw	-4898
▁bees	-4899
awb	-4900
ára	-4901
anqe	-4902
yera	-4903
áwch	-4904
▁ist	-4905
▁qáb	-4906
elwch	-4907
enser	-4908
ersir	-4909
iyero	-4910
jwers	-4911
qáwch	-4912
saaji	-4913
▁Anyo	-4914
▁Disk	-4915
▁Mens	-4916
▁ajaw	-4917
▁anch	-4918
▁anti	-4919
▁aser	-4920
▁asta	-4921
▁best	-4922
▁beyn	-4923
▁byer	-4924
▁dies	-4925
▁dios	-4926
▁dire	-4927
▁dren	-4928
▁etqe	-4929
▁golp	-4930
▁gust	-4931
▁intb	-4932
▁janb	-4933
▁jeqe	-4934
▁jlwr	-4935
▁jmem	-4936
▁jmiq	-4937
▁jmol	-4938
▁jmor	-4939
▁jsem	-4940
▁jtay	-4941
▁jxaq	-4942
▁kali	-4943
▁kasi	-4944
▁kayb	-4945
▁kikt	-4946
▁koja	-4947
▁kurs	-4948
▁kuwa	-4949
▁kuyb	-4950
▁lmar	-4951
▁medy	-4952
▁miye	-4953
▁mrel	-4954
▁mára	-4955
▁nili	-4956
▁nmoo	-4957
▁nopu	-4958
▁ocho	-4959
▁ojwí	-4960
▁oomb	-4961
▁oora	-4962
▁osey	-4963
▁osti	-4964
▁oxib	-4965
▁pena	-4966
▁pens	-4967
▁pkom	-4968
▁pone	-4969
▁poyo	-4970
▁prep	-4971
▁pyee	-4972
▁qiqa	-4973
▁rayb	-4974
▁reqe	-4975
▁rins	-4976
▁ripu	-4977
▁rooq	-4978
▁rtaa	-4979
▁rusu	-4980
▁ryal	-4981
▁rúxb	-4982
▁sapo	-4983
▁sera	-4984
▁skee	-4985
▁sola	-4986
▁tenq	-4987
▁tirá	-4988
▁tnat	-4989
▁todo	-4990
▁toqt	-4991
▁tuoq	-4992
▁tuwk	-4993
▁tzeq	-4994
▁uqta	-4995
▁wald	-4996
▁walm	-4997
▁wilb	-4998
▁woni	-4999
med	-5000
apne	-5001
exne	-5002
glar	-5003
isyo	-5004
ukto	-5005
yene	-5006
▁ilj	-5007
▁jme	-5008
ambre	-5009
dukto	-5010
eriiy	-5011
ester	-5012
maaji	-5013
medye	-5014
tokon	-5015
welee	-5016
▁Anas	-5017
▁Xkam	-5018
▁apal	-5019
▁atzi	-5020
▁ayuw	-5021
▁jolb	-5022
▁jono	-5023
▁jtza	-5024
▁kamb	-5025
▁kuxt	-5026
▁nees	-5027
▁nemb	-5028
▁ránm	-5029
▁wínw	-5030
▁xejb	-5031
▁xikn	-5032
▁xjte	-5033
▁xjus	-5034
▁xnaq	-5035
▁xraq	-5036
▁xsik	-5037
▁xwux	-5038
▁xyut	-5039
▁yolj	-5040
▁yuuq	-5041
▁íwir	-5042
▁únik	-5043
Ajwóni	-5044
Tonses	-5045
achepe	-5046
aksyon	-5047
aldiit	-5048
alkooj	-5049
amsájk	-5050
amtaqa	-5051
amwaaj	-5052
anaqaj	-5053
anchap	-5054
aneyna	-5055
antose	-5056
apojir	-5057
aqasaj	-5058
aqelik	-5059
arsájk	-5060
asacha	-5061
astaqa	-5062
atzaan	-5063
ayeeji	-5064
chajaj	-5065
dekeer	-5066
eemple	-5067
ejejch	-5068
elkaan	-5069
eriyad	-5070
ersoon	-5071
esenta	-5072
esidad	-5073
exikan	-5074
exowik	-5075
eywaal	-5076
guamon	-5077
iatura	-5078
ijmech	-5079
ilkiin	-5080
isonik	-5081
iysaaj	-5082
jtzaqe	-5083
jwelee	-5084
komiik	-5085
lfinal	-5086
najtin	-5087
obriil	-5088
ojorii	-5089
okónta	-5090
omowch	-5091
onsome	-5092
opiink	-5093
oreech	-5094
ortuni	-5095
osyera	-5096
otemal	-5097
otsaji	-5098
render	-5099
agr	-5100
wgr	-5101
akni	-5102
chip	-5103
ernb	-5104
kare	-5105
noji	-5106
ochi	-5107
tula	-5108
tuqa	-5109
tuuw	-5110
▁jtu	-5111
▁oks	-5112
▁seg	-5113
akare	-5114
inter	-5115
itchi	-5116
sochi	-5117
tulad	-5118
tyemp	-5119
wgraq	-5120
yempr	-5121
▁Ichi	-5122
▁jyik	-5123
▁palm	-5124
▁pawl	-5125
▁xnik	-5126
elwich	-5127
sipaji	-5128
styaan	-5129
timbre	-5130
tzajch	-5131
tzakni	-5132
unisip	-5133
ursaaj	-5134
useder	-5135
usumal	-5136
waalaq	-5137
wiichi	-5138
yaaqyo	-5139
yajoni	-5140
yentos	-5141
ájtaqa	-5142
élwich	-5143
▁Ajsaq	-5144
▁Ajtik	-5145
▁Antes	-5146
▁Atkan	-5147
▁Awsil	-5148
▁Cheet	-5149
▁Chwee	-5150
▁Dyayi	-5151
▁Estab	-5152
▁Estad	-5153
▁Inbee	-5154
▁Julia	-5155
▁Kanis	-5156
▁Kapne	-5157
▁Karch	-5158
▁Lastm	-5159
▁Legal	-5160
▁Ntoos	-5161
▁Onrli	-5162
▁Pobre	-5163
▁Rajoj	-5164
▁Rikim	-5165
▁Rilik	-5166
▁Segur	-5167
▁Tanch	-5168
▁Tatok	-5169
▁Tijme	-5170
▁Tinch	-5171
▁Tqitz	-5172
▁Usiil	-5173
▁Wakix	-5174
▁Winaa	-5175
▁Xatwa	-5176
▁Xenaa	-5177
▁Xijme	-5178
▁Xkami	-5179
▁Xmaja	-5180
▁Xmola	-5181
▁Xokoj	-5182
▁Xpeet	-5183
▁Xtika	-5184
▁Xwaan	-5185
▁aalgo	-5186
▁aberi	-5187
▁ajlal	-5188
▁ajsan	-5189
▁alkad	-5190
▁anaan	-5191
▁antaj	-5192
▁antib	-5193
▁apeen	-5194
▁arayb	-5195
▁asiya	-5196
▁atkan	-5197
▁atnoj	-5198
▁atyaw	-5199
kut	-5200
nka	-5201
sut	-5202
elka	-5203
irna	-5204
iyas	-5205
orro	-5206
palt	-5207
taji	-5208
tren	-5209
ítaj	-5210
úkut	-5211
▁Ika	-5212
▁Ina	-5213
▁jsu	-5214
▁jyo	-5215
▁xná	-5216
▁íin	-5217
▁ínq	-5218
aarti	-5219
amwaj	-5220
ebrar	-5221
nteqa	-5222
sutin	-5223
tamin	-5224
tirna	-5225
tiyoj	-5226
yesaj	-5227
ítaja	-5228
▁Kaar	-5229
▁Liiy	-5230
▁Pook	-5231
▁Tiit	-5232
▁ajyo	-5233
▁bayl	-5234
▁chuu	-5235
▁deya	-5236
▁ralm	-5237
▁trot	-5238
ajtiin	-5239
antaaj	-5240
eselka	-5241
tilmit	-5242
tiyojl	-5243
▁Kaarm	-5244
▁Tirna	-5245
▁Xkaam	-5246
▁atiit	-5247
▁awexk	-5248
▁awánm	-5249
▁bajar	-5250
▁balut	-5251
▁barat	-5252
▁beese	-5253
▁benen	-5254
▁benta	-5255
▁beyte	-5256
▁biyaj	-5257
▁biyer	-5258
▁chiim	-5259
▁chirb	-5260
▁choch	-5261
▁choms	-5262
▁chuuh	-5263
▁chuun	-5264
▁delik	-5265
▁deref	-5266
▁desde	-5267
▁elaam	-5268
▁elamb	-5269
▁enkes	-5270
▁erens	-5271
▁estan	-5272
▁eswel	-5273
▁famar	-5274
▁famil	-5275
▁fwers	-5276
▁haber	-5277
▁ichaj	-5278
▁imaak	-5279
▁impal	-5280
▁inchi	-5281
▁inkam	-5282
▁inkol	-5283
▁inkwí	-5284
▁inqej	-5285
▁insik	-5286
▁intar	-5287
▁intoq	-5288
▁istor	-5289
▁jbida	-5290
▁jchík	-5291
▁jelon	-5292
▁jinop	-5293
▁jitka	-5294
▁jkafe	-5295
▁jkayb	-5296
▁jkutz	-5297
▁jlwar	-5298
▁jmuul	-5299
ako	-5300
put	-5301
tux	-5302
utb	-5303
wux	-5304
xut	-5305
▁fi	-5306
Kita	-5307
bwen	-5308
chup	-5309
ixan	-5310
ixel	-5311
opch	-5312
rere	-5313
umas	-5314
wiib	-5315
yere	-5316
▁Map	-5317
▁fig	-5318
▁fil	-5319
▁ike	-5320
▁mot	-5321
▁put	-5322
▁sop	-5323
▁tep	-5324
▁teq	-5325
▁tew	-5326
elájk	-5327
forme	-5328
ixiik	-5329
nbwen	-5330
olita	-5331
qaxut	-5332
rrere	-5333
tyaan	-5334
umaal	-5335
umetz	-5336
uwert	-5337
weput	-5338
yenaq	-5339
▁Berd	-5340
▁Chix	-5341
▁Poso	-5342
▁Siis	-5343
▁faab	-5344
▁futb	-5345
▁jpat	-5346
▁juut	-5347
▁júnk	-5348
▁mjor	-5349
▁nabo	-5350
▁nade	-5351
▁numr	-5352
▁qila	-5353
▁sopa	-5354
▁xkux	-5355
eetire	-5356
▁Byeen	-5357
▁Jicha	-5358
▁Kyere	-5359
▁Ojwux	-5360
▁awila	-5361
▁figat	-5362
▁ixtux	-5363
▁joron	-5364
▁jqaxo	-5365
▁jraas	-5366
▁jrayb	-5367
▁juwis	-5368
▁jwárb	-5369
▁jyiki	-5370
▁jyugo	-5371
▁kaach	-5372
▁kanal	-5373
▁kapch	-5374
▁kapri	-5375
▁kaser	-5376
▁kaste	-5377
▁kisil	-5378
▁kojol	-5379
▁kompr	-5380
▁kontr	-5381
▁krest	-5382
▁lados	-5383
▁lijor	-5384
▁lomas	-5385
▁loomo	-5386
▁lulew	-5387
▁majal	-5388
▁majwi	-5389
▁makin	-5390
▁mañan	-5391
▁mijaa	-5392
▁modoo	-5393
▁munde	-5394
▁muund	-5395
▁naaji	-5396
▁nabit	-5397
▁neses	-5398
▁nkare	-5399
nid	-5400
idaq	-5401
ikim	-5402
imar	-5403
jyuq	-5404
oolt	-5405
qane	-5406
sájb	-5407
sájw	-5408
wasl	-5409
yool	-5410
▁álb	-5411
anool	-5412
chool	-5413
imeel	-5414
kunar	-5415
nidos	-5416
omool	-5417
oolaq	-5418
peech	-5419
ulman	-5420
utuni	-5421
▁asii	-5422
▁inim	-5423
▁jyuq	-5424
▁kine	-5425
▁mula	-5426
▁oori	-5427
▁qakú	-5428
▁sapt	-5429
▁weqa	-5430
solaaj	-5431
▁Xchep	-5432
▁amaam	-5433
▁apwes	-5434
▁atyuq	-5435
▁awáwj	-5436
▁deses	-5437
▁dyaaw	-5438
▁inmaq	-5439
▁lujuj	-5440
▁nwebw	-5441
▁ojyuq	-5442
▁okeem	-5443
▁ortal	-5444
▁oxmul	-5445
▁pajaa	-5446
▁pedas	-5447
▁penik	-5448
▁pikim	-5449
▁pinab	-5450
▁pomaj	-5451
▁pwert	-5452
▁pyeeq	-5453
▁qabes	-5454
▁qajal	-5455
▁qakaf	-5456
▁qakin	-5457
▁qakok	-5458
▁qakum	-5459
▁qalej	-5460
▁qamol	-5461
▁qanim	-5462
▁qapix	-5463
▁qatit	-5464
▁qawaj	-5465
▁qijaj	-5466
▁qixij	-5467
▁qixim	-5468
▁qáwuj	-5469
▁qíjaj	-5470
▁raqaa	-5471
▁raqin	-5472
▁rayej	-5473
▁rekom	-5474
▁reqaj	-5475
▁reqan	-5476
▁rexoq	-5477
▁ritak	-5478
▁roxoq	-5479
▁rtziq	-5480
▁rwnaq	-5481
▁sachu	-5482
▁saneb	-5483
▁saptq	-5484
▁sekti	-5485
▁seraa	-5486
▁taban	-5487
▁takow	-5488
▁talqa	-5489
▁tamuq	-5490
▁tarde	-5491
▁tasiq	-5492
▁tayik	-5493
▁tayuq	-5494
▁tchup	-5495
▁tekan	-5496
▁tekoj	-5497
▁tench	-5498
▁teqak	-5499
pax	-5500
rus	-5501
chóq	-5502
eney	-5503
enir	-5504
lbre	-5505
niil	-5506
usul	-5507
wiqe	-5508
yeej	-5509
▁gen	-5510
▁pey	-5511
▁xto	-5512
aawch	-5513
emiya	-5514
ijtqa	-5515
ixaan	-5516
onoor	-5517
qaroq	-5518
usiil	-5519
▁Naji	-5520
▁alaa	-5521
▁alin	-5522
▁aloq	-5523
▁ayud	-5524
▁elch	-5525
▁gaas	-5526
▁goom	-5527
▁qasí	-5528
▁tkok	-5529
▁tkun	-5530
▁weno	-5531
eneyik	-5532
eselch	-5533
kiyeej	-5534
majtqa	-5535
otmaji	-5536
▁Albre	-5537
▁Asyaq	-5538
▁ajaaw	-5539
▁ajtek	-5540
▁ajwer	-5541
▁atwer	-5542
▁estoo	-5543
▁gaast	-5544
▁gener	-5545
▁inwer	-5546
▁jkoor	-5547
▁jkrus	-5548
▁jnaaq	-5549
▁peyor	-5550
▁qaoor	-5551
▁qasaq	-5552
▁qaseb	-5553
▁qasub	-5554
▁raqak	-5555
▁rewer	-5556
▁rijaj	-5557
▁rilch	-5558
▁saqer	-5559
▁tewaq	-5560
▁tiijb	-5561
▁tijto	-5562
▁tijwá	-5563
▁tipax	-5564
▁tipee	-5565
▁tirik	-5566
▁tirna	-5567
▁tisol	-5568
▁titze	-5569
▁tiwiq	-5570
▁tiwok	-5571
▁tiwux	-5572
▁tjiin	-5573
▁tobiy	-5574
▁todos	-5575
▁tokow	-5576
▁tqame	-5577
▁tqatr	-5578
▁tqile	-5579
▁tqolb	-5580
▁traag	-5581
▁ttzib	-5582
▁tusul	-5583
▁twilb	-5584
▁tyene	-5585
▁tyuuq	-5586
▁tzake	-5587
▁tzekb	-5588
▁tzeke	-5589
▁tzeqá	-5590
▁tzine	-5591
▁tzuqb	-5592
▁uchab	-5593
▁uchta	-5594
▁uqtel	-5595
▁uwile	-5596
▁waqib	-5597
▁welte	-5598
▁wenaa	-5599
▁Oq	-5600
▁We	-5601
▁Yo	-5602
aabr	-5603
imaj	-5604
jwis	-5605
kaab	-5606
laar	-5607
majw	-5608
yole	-5609
▁Wii	-5610
aabal	-5611
aniil	-5612
ejmaj	-5613
iixon	-5614
ijsáj	-5615
okoom	-5616
▁Ween	-5617
▁dant	-5618
▁jati	-5619
▁jtaj	-5620
▁jtek	-5621
▁konk	-5622
▁kuli	-5623
▁lamn	-5624
▁rjil	-5625
▁tqaa	-5626
▁wiyn	-5627
▁xojq	-5628
▁xojé	-5629
▁xroq	-5630
▁xyol	-5631
exmaaj	-5632
lejmaj	-5633
majsaj	-5634
otmaaj	-5635
urlaar	-5636
▁Nimoo	-5637
▁Trila	-5638
▁Xyole	-5639
▁alaaj	-5640
▁inpat	-5641
▁jtzii	-5642
▁lamin	-5643
▁lamnx	-5644
▁lokes	-5645
▁nench	-5646
▁nirit	-5647
▁rajne	-5648
▁wesaj	-5649
▁wetij	-5650
▁wilch	-5651
▁wilee	-5652
▁winwi	-5653
▁witin	-5654
▁wonaq	-5655
▁xaloq	-5656
▁xanab	-5657
▁xatin	-5658
▁xatwá	-5659
▁xchul	-5660
▁xelto	-5661
▁ximpe	-5662
▁xinwá	-5663
▁xjjut	-5664
▁xjura	-5665
▁xkajb	-5666
▁xkamw	-5667
▁xkola	-5668
▁xkuni	-5669
▁xmaja	-5670
▁xmulb	-5671
▁xpaxi	-5672
▁xqama	-5673
▁xqejb	-5674
▁xqeji	-5675
▁xtiij	-5676
▁xtitz	-5677
▁xtoke	-5678
▁xtzaj	-5679
▁xyach	-5680
▁xyooj	-5681
▁xúkut	-5682
▁yaaji	-5683
aabiyen	-5684
aastaji	-5685
aderiiy	-5686
ajmaaji	-5687
andonar	-5688
apijtqa	-5689
astajch	-5690
atolika	-5691
chakujk	-5692
chapiik	-5693
chapoon	-5694
chikich	-5695
chipaaj	-5696
chulaaj	-5697
elejeeb	-5698
elxikaq	-5699
itj	-5700
jem	-5701
urt	-5702
uur	-5703
▁Ek	-5704
akix	-5705
amem	-5706
echo	-5707
iini	-5708
iqax	-5709
itaj	-5710
naaq	-5711
urer	-5712
▁Ekl	-5713
▁Mit	-5714
▁Pur	-5715
▁mit	-5716
▁mur	-5717
apijw	-5718
eraas	-5719
exmaj	-5720
iqaxu	-5721
itjaa	-5722
itsaj	-5723
iyent	-5724
omech	-5725
uraam	-5726
▁Kurt	-5727
▁Puur	-5728
▁Rech	-5729
▁amaq	-5730
▁fiin	-5731
▁jaaw	-5732
▁jqaq	-5733
▁kaas	-5734
▁kata	-5735
▁meer	-5736
▁nent	-5737
▁tzur	-5738
eraasa	-5739
erecho	-5740
kojmaj	-5741
urerej	-5742
▁Bween	-5743
▁Eklaa	-5744
▁Rechi	-5745
▁Segun	-5746
▁awile	-5747
▁bokaa	-5748
▁eseel	-5749
▁jqaqj	-5750
▁jurel	-5751
▁lagun	-5752
▁lejik	-5753
▁makoj	-5754
▁muran	-5755
▁neejb	-5756
▁nentk	-5757
▁qaqat	-5758
▁qaqil	-5759
▁rexóq	-5760
▁titul	-5761
▁toses	-5762
▁waanm	-5763
▁xisaj	-5764
▁xmutz	-5765
▁xokch	-5766
▁yuqte	-5767
Tanchap	-5768
entaajk	-5769
erselik	-5770
intzaqe	-5771
iqaxuke	-5772
iyadora	-5773
kofrady	-5774
kompayr	-5775
mokónta	-5776
najtini	-5777
obyerno	-5778
olyares	-5779
omorsaj	-5780
omownaq	-5781
ompadre	-5782
ownaqch	-5783
salkooj	-5784
solaajk	-5785
unabees	-5786
wiichni	-5787
xasacha	-5788
▁Ajwina	-5789
▁Antoos	-5790
▁Chajal	-5791
▁Chejel	-5792
▁Chixik	-5793
▁Errere	-5794
▁Inkamb	-5795
▁Jeqomi	-5796
▁Kondee	-5797
▁Kumetz	-5798
▁Kwaand	-5799
bul	-5800
uji	-5801
ulu	-5802
aamp	-5803
atuj	-5804
ewaq	-5805
ikul	-5806
ment	-5807
rilb	-5808
tika	-5809
tikw	-5810
ulii	-5811
▁Cha	-5812
▁Chu	-5813
▁puj	-5814
▁rot	-5815
aamch	-5816
atoon	-5817
ekonk	-5818
ipwes	-5819
ontal	-5820
osado	-5821
oymaj	-5822
sipoj	-5823
yante	-5824
▁Chub	-5825
▁Chwe	-5826
▁Raaq	-5827
▁Yaak	-5828
▁awul	-5829
▁jwar	-5830
▁riji	-5831
▁semy	-5832
▁suwr	-5833
▁tetz	-5834
▁wetz	-5835
atziij	-5836
ikulon	-5837
wetami	-5838
▁Chaak	-5839
▁Chuch	-5840
▁Chweq	-5841
▁Xtitz	-5842
▁jchul	-5843
▁jwanm	-5844
▁jwarj	-5845
▁jweer	-5846
▁kaamp	-5847
▁kuwin	-5848
▁maraa	-5849
▁mulul	-5850
▁rotul	-5851
▁tchak	-5852
▁tchap	-5853
▁trist	-5854
▁xchup	-5855
echelaj	-5856
▁Lajkab	-5857
▁Lupita	-5858
▁Mapach	-5859
▁Mokita	-5860
▁Muchaa	-5861
▁Nimaqi	-5862
▁Ntonse	-5863
▁Raaqin	-5864
▁Rechaq	-5865
▁Repent	-5866
▁Sabeer	-5867
▁Santil	-5868
▁Talmaj	-5869
▁Tenril	-5870
▁Tichup	-5871
▁Tijman	-5872
▁Tixíqe	-5873
▁Tqakoj	-5874
▁Unidos	-5875
▁Wetaam	-5876
▁Wetren	-5877
▁Xalmaj	-5878
▁Xatsek	-5879
▁Xensaj	-5880
▁Xijsaj	-5881
▁Xintij	-5882
▁Xqaloq	-5883
▁Xqasaj	-5884
▁Xuqtaj	-5885
▁abonar	-5886
▁ademas	-5887
▁afweer	-5888
▁ajchin	-5889
▁ajiini	-5890
▁ajnaaj	-5891
▁ajnuch	-5892
▁ajrexi	-5893
▁akaret	-5894
▁animar	-5895
▁antoos	-5896
▁aportu	-5897
▁aqaaji	-5898
▁atkaan	-5899
jib	-5900
owk	-5901
owr	-5902
táj	-5903
ája	-5904
▁Me	-5905
ekow	-5906
ltir	-5907
nach	-5908
pach	-5909
ájch	-5910
ájik	-5911
íkin	-5912
▁Maq	-5913
▁Mis	-5914
▁Moj	-5915
▁Muk	-5916
▁Tib	-5917
▁jib	-5918
▁máj	-5919
eleej	-5920
owlaj	-5921
tataq	-5922
xpeen	-5923
▁Jose	-5924
▁Pach	-5925
▁Xtok	-5926
▁Xtzq	-5927
▁adel	-5928
▁jwee	-5929
▁mach	-5930
▁miil	-5931
▁ojwa	-5932
▁pach	-5933
▁pask	-5934
▁powr	-5935
▁qája	-5936
▁toor	-5937
▁xqay	-5938
almaji	-5939
isájik	-5940
itzaan	-5941
sutiin	-5942
taqaan	-5943
▁Mojor	-5944
▁Tawil	-5945
▁chinb	-5946
▁inxab	-5947
▁kejaj	-5948
▁merka	-5949
▁muuch	-5950
▁nemaq	-5951
▁oojwa	-5952
▁qasal	-5953
▁tuooq	-5954
▁tyuqi	-5955
▁xaqta	-5956
▁xaqti	-5957
▁xatyu	-5958
▁xjaaw	-5959
yesajli	-5960
▁Planes	-5961
▁atnika	-5962
▁atokon	-5963
▁atziaq	-5964
▁awaasi	-5965
▁awajaq	-5966
▁awakix	-5967
▁awechi	-5968
▁awákix	-5969
▁berdaa	-5970
▁berdad	-5971
▁besees	-5972
▁beyesa	-5973
▁bolita	-5974
▁bweelt	-5975
▁bwenis	-5976
▁chajej	-5977
▁chawij	-5978
▁chayik	-5979
▁chijye	-5980
▁chilik	-5981
▁chiqij	-5982
▁chiwch	-5983
▁chriij	-5984
▁chupul	-5985
▁chweyn	-5986
▁dyaawl	-5987
▁ejchóq	-5988
▁elmaji	-5989
▁enkesy	-5990
▁ensayo	-5991
▁ensyar	-5992
▁eseelk	-5993
▁eselch	-5994
▁estuuw	-5995
▁eywaal	-5996
▁faabor	-5997
▁frente	-5998
▁fuersa	-5999
dro	-6000
get	-6001
owí	-6002
ukb	-6003
uuk	-6004
▁Sb	-6005
acho	-6006
edro	-6007
eelt	-6008
elaq	-6009
etiy	-6010
exwa	-6011
moke	-6012
onel	-6013
owíb	-6014
tamb	-6015
tena	-6016
ukas	-6017
▁Anm	-6018
▁Suk	-6019
▁agr	-6020
▁eli	-6021
▁ilm	-6022
▁mta	-6023
▁nuk	-6024
▁puk	-6025
▁suu	-6026
aakun	-6027
chiik	-6028
oketa	-6029
tiiri	-6030
ufufu	-6031
ujsaj	-6032
winte	-6033
▁Tzip	-6034
▁Xaqt	-6035
▁jkun	-6036
▁jnaq	-6037
▁junj	-6038
▁nime	-6039
▁nuuk	-6040
▁puka	-6041
▁tqan	-6042
▁twin	-6043
▁wiij	-6044
▁xwab	-6045
achope	-6046
exwach	-6047
ijtena	-6048
kamsaj	-6049
ochijk	-6050
titamb	-6051
xlanwa	-6052
▁Enfin	-6053
▁Jqaaj	-6054
▁Lukas	-6055
▁Pedro	-6056
▁chiji	-6057
▁chijr	-6058
▁ilman	-6059
▁ineel	-6060
▁jlaaq	-6061
▁jtiko	-6062
▁kwart	-6063
▁nmoke	-6064
▁ojkan	-6065
▁treen	-6066
▁tziib	-6067
▁weelt	-6068
▁xijch	-6069
▁xijki	-6070
▁xjooj	-6071
tijonel	-6072
tilmiit	-6073
▁Awajin	-6074
▁ameech	-6075
▁chelaq	-6076
▁fwersa	-6077
▁galani	-6078
▁inchap	-6079
▁inkita	-6080
▁inkoje	-6081
▁inpiiq	-6082
▁inqeje	-6083
▁intoke	-6084
▁inwetz	-6085
▁inwich	-6086
▁istori	-6087
▁itzaab	-6088
▁ixtuub	-6089
▁jalman	-6090
▁jchakú	-6091
▁jeneka	-6092
▁jitnon	-6093
▁jkamik	-6094
▁jkojon	-6095
▁jkoorl	-6096
▁jlejik	-6097
▁jlwraq	-6098
▁jmeech	-6099
Xki	-6100
jik	-6101
kee	-6102
lon	-6103
mne	-6104
ony	-6105
toj	-6106
ual	-6107
yoj	-6108
únk	-6109
▁Na	-6110
emay	-6111
iijl	-6112
olow	-6113
onin	-6114
siji	-6115
tije	-6116
uwch	-6117
xenw	-6118
▁Sin	-6119
▁ese	-6120
▁joq	-6121
▁jte	-6122
▁meq	-6123
▁suk	-6124
jqaaj	-6125
jtije	-6126
mnete	-6127
reter	-6128
wonin	-6129
▁Abra	-6130
▁Looq	-6131
▁Rony	-6132
▁Siik	-6133
▁iluw	-6134
▁kaan	-6135
▁putz	-6136
▁qeoj	-6137
▁riqa	-6138
▁sans	-6139
▁xwik	-6140
Xkitij	-6141
kojsáj	-6142
laajil	-6143
olchee	-6144
retera	-6145
wrsiji	-6146
▁Aween	-6147
▁Etons	-6148
▁Jwich	-6149
▁Ketal	-6150
▁Titij	-6151
▁chomb	-6152
▁qalik	-6153
▁qamaq	-6154
▁rijab	-6155
▁taqel	-6156
▁temay	-6157
▁tiwik	-6158
insolaj	-6159
ólaajil	-6160
▁entose	-6161
▁jmolik	-6162
▁jmoral	-6163
▁jnimal	-6164
▁jraasn	-6165
▁jsobre	-6166
▁jtijoj	-6167
▁jtrens	-6168
▁jtzako	-6169
▁jweela	-6170
▁jweert	-6171
▁jwersa	-6172
▁jwilaq	-6173
▁jwisyi	-6174
▁jyajik	-6175
▁kapchu	-6176
▁kastig	-6177
▁kaxlan	-6178
▁kerner	-6179
▁kersir	-6180
▁kesalt	-6181
▁keseke	-6182
▁kesike	-6183
▁keskee	-6184
▁ketaan	-6185
▁kiijab	-6186
▁kijeeb	-6187
▁kofree	-6188
▁kojoon	-6189
▁kombit	-6190
▁kompis	-6191
▁kontku	-6192
▁koraal	-6193
▁kowlaj	-6194
▁krusar	-6195
▁kumpli	-6196
▁kuxtel	-6197
▁kwarex	-6198
▁kweent	-6199
jr	-6200
ós	-6201
iso	-6202
oow	-6203
ory	-6204
óso	-6205
▁mu	-6206
alde	-6207
anaq	-6208
ejna	-6209
ilaj	-6210
ilil	-6211
iqej	-6212
ones	-6213
onik	-6214
▁Ajk	-6215
▁Buw	-6216
▁Ilb	-6217
▁Keb	-6218
▁Ton	-6219
▁lak	-6220
▁osp	-6221
▁pan	-6222
▁pun	-6223
▁rig	-6224
▁xon	-6225
omiso	-6226
tiros	-6227
ununi	-6228
▁Jali	-6229
▁Noos	-6230
▁eeik	-6231
▁kara	-6232
▁koow	-6233
▁koti	-6234
▁puch	-6235
▁punr	-6236
▁raqa	-6237
▁taaq	-6238
▁telb	-6239
▁tpul	-6240
ewaxik	-6241
kwando	-6242
tijiin	-6243
▁Ajkar	-6244
▁Awaas	-6245
▁Buwen	-6246
▁Kebal	-6247
▁Noose	-6248
▁dyóso	-6249
▁mosaq	-6250
▁nqaaj	-6251
▁ospit	-6252
▁pares	-6253
▁segir	-6254
▁tqitz	-6255
asiones	-6256
elebrar	-6257
▁Awaasi	-6258
▁Wintik	-6259
▁Xmulaj	-6260
▁akomoo	-6261
▁fijaat	-6262
▁intaaw	-6263
▁jinoli	-6264
▁jwákix	-6265
▁kosolk	-6266
▁kwinaa	-6267
▁kwinaq	-6268
▁lagran	-6269
▁laguna	-6270
▁lajkab	-6271
▁lajrox	-6272
▁lamasi	-6273
▁lastim	-6274
▁latuun	-6275
▁laydey	-6276
▁lomaan	-6277
▁ltokon	-6278
▁lujuja	-6279
▁majita	-6280
▁maqatz	-6281
▁maqolq	-6282
▁mesiik	-6283
▁miijaa	-6284
▁mintrs	-6285
▁mismoo	-6286
▁miyiij	-6287
▁mkitaa	-6288
▁mojoor	-6289
▁moorad	-6290
▁moqolq	-6291
▁moskil	-6292
▁nimlaj	-6293
▁nojsel	-6294
▁nojsol	-6295
▁nsolaj	-6296
▁numrad	-6297
▁ojataq	-6298
▁oojwii	-6299
nk	-6300
lok	-6301
olí	-6302
ors	-6303
pon	-6304
qaa	-6305
wik	-6306
xaa	-6307
éen	-6308
órb	-6309
▁ní	-6310
anaa	-6311
eeji	-6312
enaq	-6313
esan	-6314
inal	-6315
mbri	-6316
olín	-6317
onse	-6318
otal	-6319
qaap	-6320
tach	-6321
▁asi	-6322
▁kun	-6323
▁lil	-6324
▁oon	-6325
▁xee	-6326
anikt	-6327
nchak	-6328
ooqob	-6329
pinal	-6330
uwaal	-6331
éenik	-6332
▁Sool	-6333
▁Yaat	-6334
▁kwet	-6335
▁maja	-6336
▁onse	-6337
▁prob	-6338
▁taan	-6339
▁twik	-6340
▁xche	-6341
▁xojt	-6342
▁xqik	-6343
Inchak	-6344
chajal	-6345
elwuch	-6346
iyensy	-6347
orsaan	-6348
▁Total	-6349
▁chaaj	-6350
▁enero	-6351
▁intaw	-6352
▁nesiy	-6353
▁nikre	-6354
▁oksel	-6355
▁pinis	-6356
▁probl	-6357
▁qeeji	-6358
▁talik	-6359
▁tesaj	-6360
▁trenw	-6361
▁xeeli	-6362
▁xooki	-6363
amsájik	-6364
▁Kaabal	-6365
▁Tqaloq	-6366
▁intach	-6367
▁kaaxaa	-6368
▁kunaaj	-6369
▁oombro	-6370
▁opisyo	-6371
▁pajnik	-6372
▁palank	-6373
▁parbul	-6374
▁paresk	-6375
▁partun	-6376
▁pasaar	-6377
▁peechi	-6378
▁pobrin	-6379
▁poreso	-6380
▁pormar	-6381
▁premis	-6382
▁proyek	-6383
▁pujiiy	-6384
▁punrat	-6385
▁putzul	-6386
▁puwaqi	-6387
▁qachóq	-6388
▁qakoos	-6389
▁qakútz	-6390
▁qalwar	-6391
▁qalúwr	-6392
▁qamaak	-6393
▁qaqeel	-6394
▁qasebo	-6395
▁qasena	-6396
▁qatija	-6397
▁qatije	-6398
▁qatike	-6399
dr	-6400
Ati	-6401
atq	-6402
eed	-6403
iki	-6404
irb	-6405
onb	-6406
pen	-6407
rin	-6408
tub	-6409
▁Ak	-6410
▁Te	-6411
▁ij	-6412
▁ms	-6413
agre	-6414
amaq	-6415
ctub	-6416
ikal	-6417
naal	-6418
ontá	-6419
rsik	-6420
seed	-6421
tear	-6422
▁Liy	-6423
▁Mre	-6424
▁Tyu	-6425
▁kew	-6426
▁ray	-6427
elich	-6428
kixaq	-6429
mamaq	-6430
ooker	-6431
úrsik	-6432
▁Onli	-6433
▁Ooyj	-6434
▁jwel	-6435
▁kekt	-6436
▁lajo	-6437
▁madr	-6438
▁msat	-6439
▁satq	-6440
▁tain	-6441
▁tijn	-6442
▁trna	-6443
ctubre	-6444
ikalon	-6445
iyerik	-6446
ojowch	-6447
ontáwi	-6448
uchiki	-6449
wersij	-6450
▁Raqin	-6451
▁Sachi	-6452
▁Weene	-6453
▁atoso	-6454
▁junti	-6455
▁kepen	-6456
▁maqal	-6457
▁nwebe	-6458
▁qayol	-6459
▁rijeb	-6460
▁tinqa	-6461
▁tokaa	-6462
▁tzaqb	-6463
taminar	-6464
wersijí	-6465
▁jchupa	-6466
▁jichaq	-6467
▁jnonli	-6468
▁jrilik	-6469
▁jwelas	-6470
▁kewlaj	-6471
▁kuxtaj	-6472
▁kyekow	-6473
▁maqalq	-6474
▁qatitz	-6475
▁qatoje	-6476
▁qatzak	-6477
▁qatzam	-6478
▁qawetz	-6479
▁qawiil	-6480
▁qaxukb	-6481
▁qayólj	-6482
▁qchoch	-6483
▁qechik	-6484
▁qeseel	-6485
▁raaqin	-6486
▁rajwex	-6487
▁ranaab	-6488
▁rapalm	-6489
▁rawasl	-6490
▁rejwéx	-6491
▁relijy	-6492
▁resaji	-6493
▁respet	-6494
▁resájk	-6495
▁retaam	-6496
▁ritraj	-6497
▁ritzel	-6498
▁rkmayr	-6499
mm	-6500
nj	-6501
wn	-6502
wq	-6503
eeñ	-6504
ojq	-6505
pez	-6506
uqa	-6507
xoj	-6508
yel	-6509
▁qo	-6510
aaqi	-6511
anta	-6512
arar	-6513
erda	-6514
iing	-6515
meer	-6516
ópez	-6517
▁Jmm	-6518
▁Xeq	-6519
▁ata	-6520
▁une	-6521
andre	-6522
echin	-6523
etene	-6524
ijsaj	-6525
ojqib	-6526
▁kree	-6527
▁moon	-6528
▁pook	-6529
▁qiik	-6530
▁seeñ	-6531
▁tekn	-6532
▁uuch	-6533
▁xawá	-6534
▁xeem	-6535
▁xjet	-6536
amyeen	-6537
irneer	-6538
▁López	-6539
▁berda	-6540
▁legal	-6541
▁mundo	-6542
▁nwebo	-6543
▁qanoj	-6544
▁qenon	-6545
▁tayel	-6546
▁xkaam	-6547
▁xmuqa	-6548
ejandre	-6549
ixijsaj	-6550
▁Ntoons	-6551
▁grasya	-6552
▁jtokik	-6553
▁jtziil	-6554
▁majwex	-6555
▁nijuun	-6556
▁rakitz	-6557
▁riijaq	-6558
▁rotulo	-6559
▁rsoron	-6560
▁rusuum	-6561
▁rutzil	-6562
▁sachki	-6563
▁sachow	-6564
▁seguro	-6565
▁semiya	-6566
▁sentaw	-6567
▁serbir	-6568
▁sewuur	-6569
▁seyama	-6570
▁skeere	-6571
▁súrsik	-6572
▁tachej	-6573
▁tajkoj	-6574
▁takiil	-6575
▁talmaj	-6576
▁tamyen	-6577
▁tantas	-6578
▁tantok	-6579
▁taqali	-6580
▁tataqa	-6581
▁tatran	-6582
▁taweno	-6583
▁tawiik	-6584
▁tawile	-6585
▁teknol	-6586
▁tekoja	-6587
▁tepeew	-6588
▁teqach	-6589
▁terser	-6590
▁tetaaw	-6591
▁tewile	-6592
▁tijaaw	-6593
▁tijawb	-6594
▁tijiik	-6595
▁tijiin	-6596
▁tijkuy	-6597
▁tijman	-6598
▁tijmol	-6599
rk	-6600
▁.	-6601
jyu	-6602
lta	-6603
paj	-6604
tzi	-6605
▁él	-6606
alki	-6607
amta	-6608
jera	-6609
pooq	-6610
wiil	-6611
▁Dep	-6612
▁Lal	-6613
▁Waq	-6614
▁Xch	-6615
▁aas	-6616
▁alq	-6617
▁bik	-6618
▁jkw	-6619
▁kit	-6620
▁oro	-6621
▁pwe	-6622
▁tat	-6623
▁uqa	-6624
ajeem	-6625
eliil	-6626
jmaam	-6627
obaan	-6628
oriil	-6629
xkaan	-6630
▁Keer	-6631
▁aata	-6632
▁aatb	-6633
▁awop	-6634
▁kere	-6635
▁paja	-6636
▁riil	-6637
▁tiqe	-6638
▁yaañ	-6639
Kobaan	-6640
nojsaj	-6641
▁Depas	-6642
▁aasta	-6643
▁atilu	-6644
▁atjyu	-6645
▁bokad	-6646
▁dentr	-6647
▁kitan	-6648
▁pelot	-6649
▁rtzil	-6650
▁tatzi	-6651
▁tened	-6652
▁tokol	-6653
▁twiil	-6654
alkiyer	-6655
anownaq	-6656
▁inpetb	-6657
▁jkwent	-6658
▁pwaqaq	-6659
▁tijach	-6660
▁tijnab	-6661
▁tijpaj	-6662
▁tijril	-6663
▁tijsik	-6664
▁tijsáj	-6665
▁tijtaa	-6666
▁tijtek	-6667
▁tinawa	-6668
▁tinlik	-6669
▁tinqak	-6670
▁tintoj	-6671
▁tintor	-6672
▁tipeti	-6673
▁tiqach	-6674
▁tiqane	-6675
▁tiqaya	-6676
▁tiqilb	-6677
▁tirame	-6678
▁tirile	-6679
▁titawk	-6680
▁tiyemp	-6681
▁tiyuuq	-6682
▁tjolin	-6683
▁tjuraj	-6684
▁tkanqa	-6685
▁tokoon	-6686
▁tomate	-6687
▁tontal	-6688
▁topiix	-6689
▁tpuluw	-6690
▁tqaane	-6691
▁tqakuy	-6692
▁trajpe	-6693
▁tratam	-6694
▁treens	-6695
▁trench	-6696
▁tsutin	-6697
▁tunaaj	-6698
▁tunuli	-6699
ln	-6700
lt	-6701
ml	-6702
úw	-6703
ajo	-6704
ikj	-6705
sti	-6706
unk	-6707
▁Ko	-6708
▁nw	-6709
esaa	-6710
gams	-6711
katn	-6712
rene	-6713
stim	-6714
tqej	-6715
▁Lat	-6716
▁baq	-6717
▁jel	-6718
▁jqa	-6719
▁laa	-6720
▁pag	-6721
▁rit	-6722
▁yoq	-6723
Atqej	-6724
arsan	-6725
ertad	-6726
ojrib	-6727
oment	-6728
opooj	-6729
petik	-6730
▁Tiqa	-6731
▁asik	-6732
▁nunk	-6733
▁nway	-6734
▁paga	-6735
▁pyor	-6736
▁suje	-6737
▁taqb	-6738
▁tzaj	-6739
▁tzeb	-6740
▁xkuw	-6741
▁xsut	-6742
▁xtix	-6743
katnel	-6744
▁Tiqab	-6745
▁chaqb	-6746
▁jakaa	-6747
▁jchii	-6748
▁jelii	-6749
▁niikj	-6750
▁riteb	-6751
▁sonar	-6752
▁taqan	-6753
▁xkuwí	-6754
▁Lástim	-6755
▁Tankoj	-6756
▁adyoos	-6757
▁diyake	-6758
▁jtzaki	-6759
▁pogams	-6760
▁poraal	-6761
▁qadose	-6762
▁qapixb	-6763
▁rejiil	-6764
▁riikaq	-6765
▁rosado	-6766
▁serbes	-6767
▁tijyuq	-6768
▁tintok	-6769
▁trilik	-6770
▁tuwilb	-6771
▁tuxlan	-6772
▁twilin	-6773
▁txuker	-6774
▁tyarin	-6775
▁tyeemp	-6776
▁tyuqaa	-6777
▁tzakow	-6778
▁tzapil	-6779
▁tzaqin	-6780
▁tzaqom	-6781
▁tzekow	-6782
▁tziiti	-6783
▁tzilaj	-6784
▁tzuquw	-6785
▁tzuqúw	-6786
▁uchoch	-6787
▁untiir	-6788
▁uqtaan	-6789
▁utzaja	-6790
▁utzili	-6791
▁waxenw	-6792
▁wchoch	-6793
▁wichta	-6794
▁wikaan	-6795
▁wulman	-6796
▁wuroon	-6797
▁wíchaj	-6798
▁wíswil	-6799
Ri	-6800
je	-6801
xe	-6802
per	-6803
xel	-6804
▁Pá	-6805
▁Xo	-6806
arye	-6807
eeni	-6808
iste	-6809
omas	-6810
otes	-6811
taqe	-6812
tzal	-6813
úwch	-6814
▁len	-6815
▁lib	-6816
▁ror	-6817
▁rre	-6818
▁tuk	-6819
▁ule	-6820
yolij	-6821
▁Chek	-6822
▁Mayo	-6823
▁Much	-6824
▁Perk	-6825
▁Páwl	-6826
▁Taal	-6827
▁Xril	-6828
▁Xwil	-6829
▁alaq	-6830
▁jari	-6831
▁libr	-6832
▁romb	-6833
▁truk	-6834
▁tuun	-6835
▁tyaj	-6836
▁xpoq	-6837
▁xqaa	-6838
ooliin	-6839
peraar	-6840
▁Mucha	-6841
▁Tziin	-6842
▁awelk	-6843
▁chiko	-6844
▁jchik	-6845
▁malaa	-6846
▁nomas	-6847
▁pimiy	-6848
▁rijob	-6849
▁sutaj	-6850
▁tijup	-6851
▁tiren	-6852
▁truko	-6853
▁ulewi	-6854
▁xatpe	-6855
▁xmola	-6856
▁xqete	-6857
▁ayolij	-6858
▁chúwch	-6859
▁jakili	-6860
▁pajník	-6861
▁taljwi	-6862
▁tijsiq	-6863
▁triste	-6864
▁wichaq	-6865
▁xaawil	-6866
▁xalmaj	-6867
▁xamech	-6868
▁xapeet	-6869
▁xatija	-6870
▁xatina	-6871
▁xatkos	-6872
▁xatyuq	-6873
▁xatzek	-6874
▁xawila	-6875
▁xchaqa	-6876
▁xchupa	-6877
▁xentáj	-6878
▁xesaaj	-6879
▁xijtij	-6880
▁xilsaj	-6881
▁xinkub	-6882
▁xinkun	-6883
▁xinmuq	-6884
▁xinpee	-6885
▁xintaq	-6886
▁xinélk	-6887
▁xirene	-6888
▁xjutun	-6889
▁xkaani	-6890
▁xkajne	-6891
▁xkajte	-6892
▁xkamin	-6893
▁xkanjb	-6894
▁xkejej	-6895
▁xkojch	-6896
▁xkojja	-6897
▁xkolow	-6898
▁xmejor	-6899
Tz	-6900
rm	-6901
xa	-6902
ans	-6903
aqt	-6904
ark	-6905
aye	-6906
liw	-6907
ojs	-6908
táw	-6909
áni	-6910
óki	-6911
▁kl	-6912
aajb	-6913
gosy	-6914
laad	-6915
laqb	-6916
ooyi	-6917
utaq	-6918
▁Aya	-6919
▁alb	-6920
▁deb	-6921
▁kil	-6922
▁lab	-6923
▁ret	-6924
▁xay	-6925
achaq	-6926
desir	-6927
endar	-6928
iyáni	-6929
nemoo	-6930
xawil	-6931
ókich	-6932
▁cher	-6933
▁jmux	-6934
▁klab	-6935
▁kola	-6936
▁niij	-6937
▁rarm	-6938
ansada	-6939
▁Iinta	-6940
▁Padre	-6941
▁atwin	-6942
▁jkaab	-6943
▁kamik	-6944
▁klabo	-6945
▁konen	-6946
▁ojeel	-6947
▁ojloq	-6948
▁taata	-6949
▁tawik	-6950
▁tnooj	-6951
▁upiis	-6952
▁xayol	-6953
▁xkaaj	-6954
▁xputz	-6955
▁xtawi	-6956
dekeraa	-6957
ojsánik	-6958
oluntad	-6959
▁jralaj	-6960
▁jtzijb	-6961
▁juraaj	-6962
▁maqtra	-6963
▁niijun	-6964
▁retaal	-6965
▁semyer	-6966
▁sutaaj	-6967
▁tijini	-6968
▁tqamiq	-6969
▁xmuler	-6970
▁xojooj	-6971
▁xojéel	-6972
▁xpaxin	-6973
▁xpetik	-6974
▁xqamaj	-6975
▁xqesaj	-6976
▁xsaach	-6977
▁xsachi	-6978
▁xsaqab	-6979
▁xsaqer	-6980
▁xtaawi	-6981
▁xyajer	-6982
▁xyolow	-6983
▁yaltir	-6984
▁yameer	-6985
▁élunik	-6986
▁ínchik	-6987
achelaji	-6988
aksyonaq	-6989
apojirch	-6990
chaakuni	-6991
disyonaq	-6992
ejastaqa	-6993
enkamsaj	-6994
guamonta	-6995
inkomsaj	-6996
komiikta	-6997
lajwersa	-6998
ojománik	-6999
lw	-7000
úq	-7001
Don	-7002
jun	-7003
utw	-7004
▁Ba	-7005
▁rx	-7006
aqat	-7007
axch	-7008
upik	-7009
yerd	-7010
úquw	-7011
▁Est	-7012
▁Juj	-7013
▁Kee	-7014
▁Pen	-7015
▁chk	-7016
▁chy	-7017
▁lim	-7018
▁ojo	-7019
▁rch	-7020
▁xká	-7021
entaj	-7022
iytqa	-7023
jmaal	-7024
unuun	-7025
▁Baya	-7026
▁Xteb	-7027
▁baal	-7028
▁bire	-7029
▁maka	-7030
▁nana	-7031
▁onri	-7032
▁rájw	-7033
▁titq	-7034
alkini	-7035
onánik	-7036
▁Jujun	-7037
▁Miraa	-7038
▁Twila	-7039
▁Xsach	-7040
▁chaab	-7041
▁inate	-7042
▁jpetb	-7043
▁jwiil	-7044
▁kajon	-7045
▁kinye	-7046
▁lemas	-7047
▁malas	-7048
▁miyor	-7049
▁rxiij	-7050
▁tiraq	-7051
▁tosos	-7052
▁xinye	-7053
▁xjama	-7054
▁xkámi	-7055
ureemta	-7056
▁Berdee	-7057
▁Xqesaj	-7058
▁ajchak	-7059
▁chorro	-7060
▁chyuch	-7061
▁inrilb	-7062
▁jtzuqe	-7063
▁makata	-7064
▁molest	-7065
▁tamech	-7066
▁xatpee	-7067
▁xkaami	-7068
omajtaqa	-7069
petchina	-7070
tikwatro	-7071
ujursaaj	-7072
ureksyon	-7073
xnajtini	-7074
íxlinwaq	-7075
▁Ajkarak	-7076
▁Ajsaqja	-7077
▁Alfinal	-7078
▁Antoses	-7079
▁Chijnaq	-7080
▁Chikchi	-7081
▁Chusiil	-7082
▁Enjempl	-7083
▁Entoses	-7084
▁Estados	-7085
▁Iglesya	-7086
▁Iinalaq	-7087
▁Ijwelee	-7088
▁Inatije	-7089
▁Inkesey	-7090
▁Jikalon	-7091
▁Jwanita	-7092
▁Kirneer	-7093
▁Kompadr	-7094
▁Kontent	-7095
▁Makarye	-7096
▁Maldiit	-7097
▁Marktul	-7098
▁Marseed	-7099
amo	-7100
eyo	-7101
joq	-7102
unb	-7103
▁be	-7104
▁rí	-7105
aawi	-7106
ojya	-7107
olar	-7108
▁Naq	-7109
▁Paa	-7110
▁Rij	-7111
▁Xil	-7112
▁Yes	-7113
▁pis	-7114
▁sil	-7115
▁wes	-7116
▁xam	-7117
oomch	-7118
widad	-7119
▁Joti	-7120
▁ajij	-7121
▁ataw	-7122
▁bali	-7123
▁chun	-7124
▁lujo	-7125
▁pwen	-7126
▁qast	-7127
▁rija	-7128
▁rolb	-7129
▁tawe	-7130
▁xmuq	-7131
anwaaj	-7132
intzaq	-7133
yoliik	-7134
▁Eesti	-7135
▁Makin	-7136
▁Natun	-7137
▁Rijob	-7138
▁Tikam	-7139
▁apoop	-7140
▁inilb	-7141
▁jkiye	-7142
▁kysan	-7143
▁paqal	-7144
▁pista	-7145
▁pwaaq	-7146
▁qasaj	-7147
▁qejoq	-7148
▁rajka	-7149
▁rsorn	-7150
▁taawi	-7151
▁weron	-7152
▁xamaj	-7153
Xintzaq	-7154
amtaqch	-7155
ojoomaq	-7156
▁Oombre	-7157
▁Yesika	-7158
▁apalab	-7159
▁chikol	-7160
▁jkiyem	-7161
▁josiik	-7162
▁kwidad	-7163
▁muchaa	-7164
▁qanaan	-7165
▁tanche	-7166
▁xawalq	-7167
▁xchupi	-7168
▁xinsek	-7169
ayéjteqa	-7170
▁Makinas	-7171
▁Munisip	-7172
▁Nesidad	-7173
▁Okenika	-7174
▁Rajojaa	-7175
▁Raldeya	-7176
▁Resajch	-7177
▁Roqtaaj	-7178
▁Tamyeen	-7179
▁Tijinin	-7180
▁Tijkola	-7181
▁Tijtija	-7182
▁Tikwini	-7183
▁Tinatij	-7184
▁Tkojmaj	-7185
▁Tqachep	-7186
▁Tqakuya	-7187
▁Tresaaj	-7188
▁Troqtaj	-7189
▁Tzipáka	-7190
▁Wetaami	-7191
▁Xchajaj	-7192
▁Xijmole	-7193
▁Xijtoke	-7194
▁Xinijte	-7195
▁Xinkosi	-7196
▁Xpetzch	-7197
▁Xqakoja	-7198
▁Xqatija	-7199
abi	-7200
olk	-7201
owi	-7202
uwh	-7203
▁Il	-7204
▁Tu	-7205
aaxi	-7206
anin	-7207
iije	-7208
kuni	-7209
trar	-7210
tudy	-7211
▁Itz	-7212
▁Nad	-7213
▁Tya	-7214
▁etá	-7215
▁inj	-7216
▁inn	-7217
▁inw	-7218
▁mak	-7219
▁nch	-7220
iijin	-7221
kojik	-7222
oxowi	-7223
tziij	-7224
uwand	-7225
▁Tiix	-7226
▁Tzaj	-7227
▁Wiin	-7228
▁Xijq	-7229
▁chis	-7230
▁jmuq	-7231
▁mand	-7232
▁mant	-7233
▁rkra	-7234
▁tinw	-7235
▁tzen	-7236
▁xnab	-7237
ferens	-7238
titzij	-7239
uchuwh	-7240
▁Liije	-7241
▁Wunaq	-7242
▁Xqila	-7243
▁ajkoj	-7244
▁etámb	-7245
▁forma	-7246
▁injek	-7247
▁kaari	-7248
▁karal	-7249
▁makla	-7250
▁miyij	-7251
▁mjita	-7252
▁petaq	-7253
▁tiqan	-7254
▁titoj	-7255
tokowoq	-7256
▁Kuwand	-7257
▁Uchoch	-7258
▁awchaq	-7259
▁ayudar	-7260
▁chikam	-7261
▁chikin	-7262
▁chiste	-7263
▁innaan	-7264
▁jkojik	-7265
▁kuxtal	-7266
▁moketa	-7267
▁mulaaj	-7268
▁ojtija	-7269
▁tinwaa	-7270
▁xinkan	-7271
▁xkanye	-7272
▁aayyoos	-7273
▁adelant	-7274
▁ajbiyaj	-7275
▁ajkojol	-7276
▁ajtijol	-7277
▁ajwonin	-7278
▁akirner	-7279
▁akisiyl	-7280
▁akomayr	-7281
▁alambre	-7282
▁aldeyas	-7283
▁algchaq	-7284
▁alinyar	-7285
▁alkalde	-7286
▁antibyo	-7287
▁antonse	-7288
▁antoses	-7289
▁apeenaq	-7290
▁apenaad	-7291
▁aprobar	-7292
▁apweest	-7293
▁areglar	-7294
▁aserbes	-7295
▁asiyari	-7296
▁asyendo	-7297
▁atijtaw	-7298
▁atqaxut	-7299
dil	-7300
nob	-7301
olm	-7302
aqap	-7303
eena	-7304
isil	-7305
jerb	-7306
olan	-7307
onol	-7308
qaat	-7309
sajb	-7310
▁Jit	-7311
▁Sim	-7312
▁akl	-7313
▁mjá	-7314
▁wuj	-7315
apili	-7316
ersaj	-7317
ichaq	-7318
iqiiq	-7319
isiik	-7320
▁Toon	-7321
▁atno	-7322
▁elaq	-7323
▁inte	-7324
▁kaaj	-7325
▁nari	-7326
▁part	-7327
▁poqi	-7328
▁seen	-7329
▁taaj	-7330
▁tiaq	-7331
▁tiik	-7332
▁waaj	-7333
▁xinj	-7334
▁áanm	-7335
▁ánmi	-7336
apooji	-7337
▁Ajrik	-7338
▁Tromb	-7339
▁Troos	-7340
▁asukr	-7341
▁aswer	-7342
▁jnach	-7343
▁motor	-7344
▁reech	-7345
▁taqal	-7346
▁waakx	-7347
▁wonol	-7348
▁xyool	-7349
▁xyuqi	-7350
ersaaji	-7351
▁Mariya	-7352
▁bweeno	-7353
▁chijtz	-7354
▁jtziij	-7355
▁júnktz	-7356
▁lajuuj	-7357
▁portun	-7358
▁qesaaj	-7359
▁riltaq	-7360
▁tikaan	-7361
▁tikiik	-7362
▁wimaam	-7363
▁xinyol	-7364
▁Karchaa	-7365
▁aswerti	-7366
▁attijew	-7367
▁atwesaj	-7368
▁ausilaa	-7369
▁awajtqa	-7370
▁awchoch	-7371
▁awechta	-7372
▁awetaam	-7373
▁awpisaq	-7374
▁awriyen	-7375
▁axnakat	-7376
▁bakunar	-7377
▁baldiiy	-7378
▁bayltor	-7379
▁belorio	-7380
▁bikingo	-7381
▁bolbeer	-7382
▁bonitos	-7383
▁brinkos	-7384
▁burlaar	-7385
▁byernes	-7386
▁chajali	-7387
▁chalaaj	-7388
▁chapeel	-7389
▁chapiik	-7390
▁chaqiik	-7391
▁chaqmaj	-7392
▁chawaaj	-7393
▁chawech	-7394
▁chawilb	-7395
▁chejeel	-7396
▁chibola	-7397
▁chijchi	-7398
▁chijchí	-7399
px	-7400
ajw	-7401
ary	-7402
ati	-7403
exa	-7404
iti	-7405
kub	-7406
▁Pr	-7407
▁ib	-7408
▁áq	-7409
aqan	-7410
itos	-7411
oner	-7412
ootx	-7413
osas	-7414
▁Non	-7415
▁Par	-7416
▁Pel	-7417
▁Tok	-7418
▁año	-7419
▁qek	-7420
▁sáq	-7421
▁tne	-7422
▁uwi	-7423
aajin	-7424
ojsol	-7425
▁ajék	-7426
▁awun	-7427
▁inki	-7428
▁jamb	-7429
▁kaad	-7430
▁laqb	-7431
▁much	-7432
▁napx	-7433
▁oraa	-7434
▁paan	-7435
▁qaki	-7436
▁tiyu	-7437
▁tzab	-7438
▁tzee	-7439
▁welb	-7440
▁xkab	-7441
▁xkun	-7442
aajiin	-7443
ooytqa	-7444
yantqa	-7445
▁Konto	-7446
▁Xrile	-7447
▁ajlaq	-7448
▁komar	-7449
▁misma	-7450
▁mucho	-7451
▁seman	-7452
▁tanab	-7453
▁yataq	-7454
anchich	-7455
chuchul	-7456
ersoono	-7457
▁Lester	-7458
▁Markot	-7459
▁Nojsol	-7460
▁Tiyent	-7461
▁awunke	-7462
▁chootx	-7463
▁impuch	-7464
▁inchak	-7465
▁jiloni	-7466
▁nechaa	-7467
▁neesiy	-7468
▁waqiib	-7469
▁xniman	-7470
▁xresaj	-7471
▁Xmajsáj	-7472
▁balemas	-7473
▁chijtaw	-7474
▁chijtze	-7475
▁chijyik	-7476
▁chiqaxo	-7477
▁chiqeoj	-7478
▁chomsal	-7479
▁chqalaj	-7480
▁chqáwch	-7481
▁chuwaji	-7482
▁chuwein	-7483
▁delikad	-7484
▁deplaan	-7485
▁derecho	-7486
▁despach	-7487
▁dispwes	-7488
▁diyunab	-7489
▁domiing	-7490
▁domingo	-7491
▁drenaje	-7492
▁endonde	-7493
▁enjempl	-7494
▁entoons	-7495
▁erensya	-7496
▁esjwers	-7497
▁familya	-7498
▁feriyad	-7499
Tos	-7500
Tye	-7501
iye	-7502
ntz	-7503
owa	-7504
owe	-7505
suj	-7506
▁Ki	-7507
awen	-7508
ayaq	-7509
ijat	-7510
ilob	-7511
osaa	-7512
yees	-7513
▁Jol	-7514
▁Kib	-7515
▁Xii	-7516
▁Xyu	-7517
▁aye	-7518
▁eem	-7519
▁esb	-7520
▁lej	-7521
▁los	-7522
▁rux	-7523
▁sea	-7524
▁ílb	-7525
lujuj	-7526
▁Chuk	-7527
▁Kaas	-7528
▁Tooj	-7529
▁alay	-7530
▁aqan	-7531
▁chye	-7532
▁iini	-7533
▁inok	-7534
▁maal	-7535
▁maay	-7536
▁maje	-7537
▁sutq	-7538
▁tand	-7539
▁tnch	-7540
▁xelb	-7541
▁ójer	-7542
enowoq	-7543
iitaqa	-7544
ijtoke	-7545
úntaqa	-7546
▁Derep	-7547
▁abeer	-7548
▁amole	-7549
▁atziq	-7550
▁awxóq	-7551
▁dyees	-7552
▁jmaam	-7553
▁kyeen	-7554
▁posaa	-7555
▁raqen	-7556
▁tijos	-7557
▁tiqeq	-7558
▁twila	-7559
amchich	-7560
itchiri	-7561
tzmajch	-7562
▁alayre	-7563
▁asukar	-7564
▁kontod	-7565
▁latwax	-7566
▁perech	-7567
▁tandas	-7568
▁tantos	-7569
▁tiráme	-7570
▁waldey	-7571
▁xinsuj	-7572
▁xojkan	-7573
ayejteqa	-7574
ojomaank	-7575
qejsajch	-7576
▁benenar	-7577
▁futbool	-7578
▁general	-7579
▁golpear	-7580
▁grabado	-7581
▁grasyas	-7582
▁gringos	-7583
▁ijweput	-7584
▁impuwaq	-7585
▁inatiij	-7586
▁inawile	-7587
▁inchaak	-7588
▁inijkoj	-7589
▁inijtaq	-7590
▁inkesey	-7591
▁inkinaq	-7592
▁inkukub	-7593
▁inkwint	-7594
▁inluusi	-7595
▁inmoolt	-7596
▁inpeeni	-7597
▁inpuuch	-7598
▁inrelij	-7599
iyb	-7600
nek	-7601
pek	-7602
ref	-7603
rem	-7604
▁Ja	-7605
▁ds	-7606
atoj	-7607
ayin	-7608
eren	-7609
ijre	-7610
iyor	-7611
latz	-7612
ooji	-7613
▁Muu	-7614
▁Rii	-7615
▁Rtz	-7616
▁jok	-7617
▁xoq	-7618
aneri	-7619
ejejk	-7620
elina	-7621
itzaj	-7622
▁Tril	-7623
▁Xooj	-7624
▁iinb	-7625
▁iinq	-7626
▁inxk	-7627
▁jref	-7628
▁jure	-7629
▁kafe	-7630
▁kand	-7631
▁nose	-7632
▁ojki	-7633
▁ojpe	-7634
▁ojti	-7635
▁tinq	-7636
▁troq	-7637
aldeya	-7638
arsajk	-7639
ichmaj	-7640
unikaq	-7641
▁Tijna	-7642
▁Tinik	-7643
▁Xinpe	-7644
▁dsiir	-7645
▁iinta	-7646
▁inkun	-7647
▁ixpek	-7648
▁jamas	-7649
▁jenon	-7650
▁jupul	-7651
▁juuch	-7652
▁jyook	-7653
▁neent	-7654
▁piyor	-7655
▁pyoor	-7656
▁qechi	-7657
▁raanm	-7658
▁sipaj	-7659
▁taant	-7660
▁titne	-7661
▁tjach	-7662
▁xaqne	-7663
▁xinel	-7664
▁xinij	-7665
▁xinre	-7666
▁xlatz	-7667
▁xuqej	-7668
▁Chweeq	-7669
▁atziij	-7670
▁kopayr	-7671
▁manooj	-7672
▁monton	-7673
▁moosib	-7674
▁ojchaq	-7675
▁ojtaaw	-7676
▁peloot	-7677
▁qawákx	-7678
▁wunaqi	-7679
▁wunaql	-7680
▁xuqane	-7681
▁xutzaj	-7682
▁akweent	-7683
▁atelmáj	-7684
▁atzijaq	-7685
▁insakat	-7686
▁inswetr	-7687
▁intyemp	-7688
▁inwilch	-7689
▁inwákix	-7690
▁inyolow	-7691
▁istoryn	-7692
▁ixtuutz	-7693
▁jaragan	-7694
▁jatiyad	-7695
▁jbyenaq	-7696
▁jchajaj	-7697
▁jchajej	-7698
▁jchakuj	-7699
ido	-7700
ima	-7701
jir	-7702
alan	-7703
inte	-7704
laji	-7705
rsaj	-7706
sáji	-7707
uaal	-7708
ulun	-7709
▁Aal	-7710
▁Nii	-7711
▁Sik	-7712
▁Taw	-7713
▁Xiq	-7714
▁jut	-7715
▁lal	-7716
▁tii	-7717
▁xob	-7718
▁xte	-7719
ajsaj	-7720
alche	-7721
aqsaj	-7722
atsaj	-7723
chiin	-7724
exmáj	-7725
ilsaj	-7726
iwtaq	-7727
iysaj	-7728
lajin	-7729
ojiin	-7730
omoni	-7731
payir	-7732
▁Kins	-7733
▁awch	-7734
▁inya	-7735
▁lawi	-7736
▁ojte	-7737
▁qech	-7738
▁qetz	-7739
▁siik	-7740
▁siin	-7741
▁xuuq	-7742
▁xyuj	-7743
atanal	-7744
chaqik	-7745
exchaq	-7746
▁Weyin	-7747
▁juwil	-7748
▁kafee	-7749
▁pajni	-7750
▁peroo	-7751
▁relaj	-7752
▁rikil	-7753
▁traan	-7754
▁xinte	-7755
▁Xansaj	-7756
▁ajtren	-7757
▁alwelt	-7758
▁ayuwab	-7759
▁chijaq	-7760
▁jchoch	-7761
▁linter	-7762
▁tijsaj	-7763
▁tijtuq	-7764
▁tukxil	-7765
▁waakot	-7766
▁xkajye	-7767
▁xweroq	-7768
akamsaaj	-7769
ochijtaq	-7770
▁Chimeel	-7771
▁chowech	-7772
▁ensayar	-7773
▁insiyen	-7774
▁jchapik	-7775
▁jcheqej	-7776
▁jchíkch	-7777
▁jeqaroq	-7778
▁jilonli	-7779
▁jinlugr	-7780
▁jkaniil	-7781
▁jkisiyl	-7782
▁jkofrad	-7783
▁jkojoon	-7784
▁jkomayr	-7785
▁jkunajk	-7786
▁jkyemaq	-7787
▁jluwraq	-7788
▁jlwgraq	-7789
▁jmeesaq	-7790
▁jmemory	-7791
▁jmokoom	-7792
▁jnachaq	-7793
▁jnaqaaj	-7794
▁jnimaal	-7795
▁jnojeel	-7796
▁jpaarti	-7797
▁jpoomaq	-7798
▁jqaajaq	-7799
juw	-7800
obr	-7801
▁Lu	-7802
juwa	-7803
nejb	-7804
utum	-7805
▁Yaq	-7806
▁atq	-7807
▁kta	-7808
▁áaw	-7809
iiche	-7810
▁Taye	-7811
▁Xatb	-7812
▁ajek	-7813
▁awaq	-7814
▁awat	-7815
▁pche	-7816
▁sobr	-7817
▁tike	-7818
sajich	-7819
▁barko	-7820
▁demas	-7821
▁ilaan	-7822
▁kanjt	-7823
▁kijeb	-7824
▁parte	-7825
▁qakoj	-7826
▁tantz	-7827
▁tikaj	-7828
▁tikik	-7829
▁Xirile	-7830
▁awanab	-7831
▁jwiche	-7832
▁nesida	-7833
▁santil	-7834
▁tintaw	-7835
▁tkwiin	-7836
▁witaqw	-7837
▁xtzach	-7838
▁ajkorti	-7839
▁chiqaaj	-7840
▁chiwich	-7841
▁jikulon	-7842
▁jrespet	-7843
▁jsookaq	-7844
▁jsutiik	-7845
▁jtakiil	-7846
▁jtawiik	-7847
▁jtayiik	-7848
▁jtziiil	-7849
▁junlaad	-7850
▁juntire	-7851
▁juntiro	-7852
▁juwisyi	-7853
▁jweraan	-7854
▁jwiilaq	-7855
▁jyoliik	-7856
▁kabalit	-7857
▁kajetiy	-7858
▁kambyar	-7859
▁kamotes	-7860
▁kaprich	-7861
▁kaseriy	-7862
▁kawunaq	-7863
▁ketaant	-7864
▁kimikos	-7865
▁kofrady	-7866
▁kometzi	-7867
▁kompagr	-7868
▁konkist	-7869
▁konsome	-7870
▁kristal	-7871
▁krtyaan	-7872
▁kumplir	-7873
▁kuwando	-7874
▁kuxteel	-7875
▁kwarexm	-7876
▁lajkaab	-7877
▁lajoroq	-7878
▁leonsyo	-7879
▁listory	-7880
▁lojorii	-7881
▁lomejor	-7882
▁malkani	-7883
▁mariita	-7884
▁maxaqta	-7885
▁mexikan	-7886
▁mjetene	-7887
▁mokónta	-7888
▁mostrar	-7889
▁moyimiy	-7890
▁nejchak	-7891
▁nimyerd	-7892
▁nopuwes	-7893
▁octubre	-7894
▁ojataqa	-7895
▁ojtijin	-7896
▁ojwakat	-7897
▁onkesey	-7898
▁oojatoj	-7899
▁oojweri	-7900
▁organis	-7901
▁paqelik	-7902
▁pensaar	-7903
▁perjwis	-7904
▁permiso	-7905
▁petzeli	-7906
▁petzelw	-7907
▁pofesor	-7908
▁poraalg	-7909
▁primera	-7910
▁problem	-7911
▁puchiis	-7912
▁purment	-7913
▁qachuch	-7914
▁qakafee	-7915
▁qakejaj	-7916
▁qalejik	-7917
▁qalúwir	-7918
▁qaopiis	-7919
▁qapetik	-7920
▁qapixib	-7921
▁qaqaqan	-7922
▁qaqesaj	-7923
▁qaswaan	-7924
▁qaternb	-7925
▁qatijoj	-7926
▁qatyemp	-7927
▁qatzaqe	-7928
▁qatzeke	-7929
▁qaxikin	-7930
▁qayoloj	-7931
▁qestudy	-7932
▁qetmaaj	-7933
▁rajpech	-7934
▁rajwexk	-7935
▁rajwéxk	-7936
▁rakiitz	-7937
▁ralmwer	-7938
▁rawaasl	-7939
▁redondo	-7940
▁regalad	-7941
▁remedye	-7942
▁retaami	-7943
▁retamaj	-7944
▁retamaq	-7945
▁reweron	-7946
▁rexoqil	-7947
▁rexóqle	-7948
▁rexóqol	-7949
▁richaaj	-7950
▁richjil	-7951
▁rigidor	-7952
▁rijpeen	-7953
▁rixoqol	-7954
▁rkomayr	-7955
▁rooqtaj	-7956
▁ropiisa	-7957
▁roxoqol	-7958
▁roxóqil	-7959
▁ruqtaaj	-7960
▁rutziil	-7961
▁sacheli	-7962
▁santlaj	-7963
▁saqpooq	-7964
▁segundo	-7965
▁serbees	-7966
▁serbiir	-7967
▁sesenta	-7968
▁sipajch	-7969
▁siyempr	-7970
▁suseder	-7971
▁tacheje	-7972
▁tachiki	-7973
▁talbees	-7974
▁talqawi	-7975
▁tamales	-7976
▁tantaaw	-7977
▁tantain	-7978
▁tantear	-7979
▁tanyool	-7980
▁tawteqa	-7981
▁tchakuj	-7982
▁tchapón	-7983
▁tchqeej	-7984
▁tenedor	-7985
▁tenkoja	-7986
▁teqaloq	-7987
▁teqatij	-7988
▁teraasa	-7989
▁tetijin	-7990
▁tetodas	-7991
▁tetziib	-7992
▁tijchup	-7993
▁tijkooj	-7994
▁tijmole	-7995
▁tijolín	-7996
▁tijrile	-7997
▁tijteek	-7998
▁tijtoke	-7999
▁tijtuqa	-8000
▁tijtzqe	-8001
▁tijupup	-8002
▁tijwiqe	-8003
▁tikowik	-8004
▁tikuwin	-8005
▁tikwini	-8006
▁tinaloq	-8007
▁tinimaj	-8008
▁tinkoja	-8009
▁tinkooj	-8010
▁tintran	-8011
▁tintzek	-8012
▁tipetik	-8013
▁tiqakoj	-8014
▁tirayej	-8015
▁tisachk	-8016
▁tisaqer	-8017
▁tisipoj	-8018
▁titaawk	-8019
▁titaqon	-8020
▁titijow	-8021
▁titikow	-8022
▁tititaw	-8023
▁titokow	-8024
▁titulaa	-8025
▁titulad	-8026
▁titzaqw	-8027
▁titziib	-8028
▁tiwinte	-8029
▁tixojow	-8030
▁tiyempo	-8031
▁tjqalaj	-8032
▁tkamtqa	-8033
▁tkwinik	-8034
▁tlejmaj	-8035
▁tpechik	-8036
▁tqachep	-8037
▁tqanuch	-8038
▁tqasech	-8039
▁tqatija	-8040
▁tqatzuq	-8041
▁tqesaaj	-8042
▁tqesajb	-8043
▁tqesajw	-8044
▁trajlaj	-8045
▁tralaaj	-8046
▁trelaaj	-8047
▁twiliin	-8048
▁twintqa	-8049
▁tyajoon	-8050
▁tzaqiik	-8051
▁tzaqsaj	-8052
▁tzekmaj	-8053
▁tzeqáti	-8054
▁tzipáka	-8055
▁wetasmi	-8056
▁wichaaj	-8057
▁wichaji	-8058
▁wichjil	-8059
▁woqtaaj	-8060
▁wunaqin	-8061
▁wákixaq	-8062
▁xaatina	-8063
▁xalmaji	-8064
▁xatirna	-8065
▁xatjyuq	-8066
▁xatnoji	-8067
▁xatpeti	-8068
▁xatromb	-8069
▁xatyuqi	-8070
▁xawáqan	-8071
▁xchapon	-8072
▁xchejej	-8073
▁xelmáji	-8074
▁xenjuwa	-8075
▁xentaji	-8076
▁xichiki	-8077
▁xijache	-8078
▁xijchwe	-8079
▁xijmech	-8080
▁xijmuqe	-8081
▁xijrile	-8082
▁xijtore	-8083
▁xijuraj	-8084
▁xinkaan	-8085
▁xinkani	-8086
▁xinkola	-8087
▁xinqeej	-8088
▁xintach	-8089
▁xintiij	-8090
▁xintika	-8091
▁xintoke	-8092
▁xisájik	-8093
▁xkabaal	-8094
▁xkamsaj	-8095
▁xkamsán	-8096
▁xkojmaj	-8097
▁xkooker	-8098
▁xkutuni	-8099
▁xkuwini	-8100
▁xkuwíni	-8101
▁xkuxtaj	-8102
▁xmoloni	-8103
▁xnajtin	-8104
▁xnimaaj	-8105
▁xojchep	-8106
▁xojelch	-8107
▁xojkaan	-8108
▁xojkani	-8109
▁xojqeej	-8110
▁xojxanb	-8111
▁xpaxini	-8112
▁xpechik	-8113
▁xqachep	-8114
▁xqasach	-8115
▁xqatiik	-8116
▁xqatija	-8117
▁xqayeew	-8118
▁xrayeej	-8119
▁xsujsaj	-8120
▁xtijaan	-8121
▁xtijsaj	-8122
▁xtikmaj	-8123
▁xtokech	-8124
▁xtukxij	-8125
▁xtukxin	-8126
▁xtzaaqi	-8127
▁xtzaqch	-8128
▁xtzaqow	-8129
▁xukeroq	-8130
▁xwiilin	-8131
▁xwiliin	-8132
▁yunabes	-8133
amownaqch	-8134
anerselik	-8135
aslemalaq	-8136
echelaaji	-8137
itchikich	-8138
itzilkiin	-8139
ojoománik	-8140
omownaqch	-8141
rjkompayr	-8142
▁Ajchajal	-8143
▁Ajwiichi	-8144
▁Awajtaqe	-8145
▁Baltasar	-8146
▁Chikaman	-8147
▁Chipaaja	-8148
▁Entoones	-8149
▁Ichiqaaj	-8150
▁Inawesaj	-8151
▁Inkambiy	-8152
▁Jkompayr	-8153
▁Katolika	-8154
▁Kompadre	-8155
▁Lalaguna	-8156
▁Lejandre	-8157
▁Markotul	-8158
▁Myentras	-8159
▁Petzelki	-8160
▁Saqweech	-8161
▁Solmente	-8162
▁Tijiniij	-8163
▁Tijinter	-8164
▁Titijsáj	-8165
▁Tixekmaj	-8166
▁Trajpech	-8167
▁Tzoqomch	-8168
▁Uspantán	-8169
▁Waqaqiib	-8170
▁Xinpeeti	-8171
▁Xinpetin	-8172
▁Xintzaka	-8173
▁Xkajkoje	-8174
▁Xpetzmaj	-8175
▁Xqamajch	-8176
▁Xtoreech	-8177
▁abansada	-8178
▁aberiwar	-8179
▁achaakaq	-8180
▁ajKobaan	-8181
▁ajsimiin	-8182
▁ajweraan	-8183
▁ajwichni	-8184
▁akirneer	-8185
▁alimento	-8186
▁apalabra	-8187
▁aprender	-8188
▁atchakun	-8189
▁atchapon	-8190
▁atintoja	-8191
▁atkwinin	-8192
▁attzuqán	-8193
▁ausilyar	-8194
▁awajtaqa	-8195
▁awaldeya	-8196
▁awexkolb	-8197
▁awichaaj	-8198
▁awixóqol	-8199
▁awopisaq	-8200
▁awulewaq	-8201
▁bandonar	-8202
▁bastante	-8203
▁bestyaad	-8204
▁biyernes	-8205
▁chaakuni	-8206
▁chakunin	-8207
▁chakunoq	-8208
▁chanaqaj	-8209
▁chapkari	-8210
▁chapónik	-8211
▁chawchaq	-8212
▁chepowíb	-8213
▁chichiik	-8214
▁chichjem	-8215
▁chikchij	-8216
▁chikolat	-8217
▁chirilik	-8218
▁chuuchaq	-8219
▁chyuchaq	-8220
▁deferens	-8221
▁derefent	-8222
▁desipwes	-8223
▁dyakwerd	-8224
▁eselchaq	-8225
▁eskribir	-8226
▁folyares	-8227
▁gobyerno	-8228
▁gradeser	-8229
▁grasiyas	-8230
▁iljwiich	-8231
▁impediid	-8232
▁inajuraj	-8233
▁inawesaj	-8234
▁inchajaj	-8235
▁inchapón	-8236
▁inkanjye	-8237
▁inkoliik	-8238
▁inkuwini	-8239
▁inkwínik	-8240
▁insuwert	-8241
▁intajkil	-8242
▁intarget	-8243
▁intiyojl	-8244
▁intzapij	-8245
▁intzúquw	-8246
▁inwetami	-8247
▁istoriya	-8248
▁jakoraal	-8249
▁jchapiik	-8250
▁jchejejk	-8251
▁jchuchaq	-8252
▁jinopcha	-8253
▁jkamsájk	-8254
▁jkirneer	-8255
▁jkomidaq	-8256
▁jluwuraq	-8257
▁jnaqajaq	-8258
▁jpobriil	-8259
▁jportuni	-8260
▁jqasajch	-8261
▁jrixóqil	-8262
▁jrusumal	-8263
▁jsaqmolb	-8264
▁jtajkiil	-8265
▁jtzakiik	-8266
▁jtziijaq	-8267
▁jtzuqiik	-8268
▁junkiitz	-8269
▁juntiiri	-8270
▁juwisiyo	-8271
▁jwakixaq	-8272
▁jweranta	-8273
▁jwiichaq	-8274
▁kasteyan	-8275
▁kerneero	-8276
▁kesaltek	-8277
▁ketzales	-8278
▁kirneera	-8279
▁kirneraq	-8280
▁kistyaan	-8281
▁kixlanwa	-8282
▁kiyaaqyo	-8283
▁kojoneel	-8284
▁kombenyo	-8285
▁konbenir	-8286
▁konforme	-8287
▁kosolkat	-8288
▁kosolkoj	-8289
▁kosumbre	-8290
▁kwarenta	-8291
▁ladentre	-8292
▁lajchaak	-8293
▁lamiyerd	-8294
▁ltiyempo	-8295
▁lwarchqe	-8296
▁mentiros	-8297
▁miyetras	-8298
▁munisipy	-8299
▁naturaal	-8300
▁nejchaak	-8301
▁nesesary	-8302
▁nesesida	-8303
▁nijsochi	-8304
▁nochewen	-8305
▁ojchapon	-8306
▁ojqeejch	-8307
▁ojtijiin	-8308
▁oojtataq	-8309
▁ortalisa	-8310
▁ospitaal	-8311
▁oxlajuuj	-8312
▁penikare	-8313
▁perdonar	-8314
▁petzelch	-8315
▁petzelki	-8316
▁pinablok	-8317
▁preparar	-8318
▁produkto	-8319
▁proyekto	-8320
▁puroment	-8321
▁qabesiin	-8322
▁qachajej	-8323
▁qachuwch	-8324
▁qaderech	-8325
▁qakinaaq	-8326
▁qakirner	-8327
▁qakowlaj	-8328
▁qanegosy	-8329
▁qanesida	-8330
▁qapatron	-8331
▁qaseboya	-8332
▁qasemiya	-8333
▁qasentaw	-8334
▁qasuwaan	-8335
▁qasíneer	-8336
▁qataqjal	-8337
▁qawinaqi	-8338
▁qechooch	-8339
▁qeeselch	-8340
▁qeseelch	-8341
▁rajwexik	-8342
▁rejwexik	-8343
▁respwest	-8344
▁restudiy	-8345
▁rijmamaq	-8346
▁riliikaq	-8347
▁ristorya	-8348
▁rititamb	-8349
▁rixoqiil	-8350
▁rkomagre	-8351
▁rkompayr	-8352
▁ronojeel	-8353
▁ruleewaq	-8354
▁rupiisaq	-8355
▁rusumaal	-8356
▁sansonar	-8357
▁santilaq	-8358
▁sektimbr	-8359
▁selebrar	-8360
▁sktimbre	-8361
▁tachapch	-8362
▁takamsaj	-8363
▁takoojch	-8364
▁tarayaaj	-8365
▁tarayeej	-8366
▁tawetmaj	-8367
▁tekojoon	-8368
▁tekuxtaj	-8369
▁teqachep	-8370
▁tichapon	-8371
▁tijateqa	-8372
▁tijchach	-8373
▁tijchupa	-8374
▁tijkejaj	-8375
▁tijtzekw	-8376
▁tikojsaj	-8377
▁tikojsáj	-8378
▁timajsaj	-8379
▁tinkunaj	-8380
▁tinojsáj	-8381
▁tinrayaj	-8382
▁tinsipaj	-8383
▁tintijin	-8384
▁tinwesaj	-8385
▁tiqamaam	-8386
▁tiqatiij	-8387
▁tiqatije	-8388
▁tisutiin	-8389
▁titijsaj	-8390
▁titiksáj	-8391
▁titokoon	-8392
▁titzaqow	-8393
▁tixekmaj	-8394
▁tiyajoni	-8395
▁tkanqach	-8396
▁tkeneyik	-8397
▁tnatúnik	-8398
▁toqtanik	-8399
▁tqachaaq	-8400
▁tqachape	-8401
▁tqajaach	-8402
▁tqakojch	-8403
▁tqamechi	-8404
▁tqamolch	-8405
▁tqaqasaj	-8406
▁tqatiqch	-8407
▁tqatrunb	-8408
▁tqatzaqe	-8409
▁tqoqtaaj	-8410
▁trabajar	-8411
▁trajtiko	-8412
▁trenpalt	-8413
▁tsachtqa	-8414
▁tzekikqe	-8415
▁tzoqomch	-8416
▁waqaqiib	-8417
▁wechelka	-8418
▁wetemaaj	-8419
▁wichooch	-8420
▁xakamsáj	-8421
▁xatkwiin	-8422
▁xatosáyb	-8423
▁xatpeetk	-8424
▁xatpetin	-8425
▁xatqeeji	-8426
▁xatwesaj	-8427
▁xatyolow	-8428
▁xatzakni	-8429
▁xchakuni	-8430
▁xchulaaj	-8431
▁xchuluun	-8432
▁xelmajch	-8433
▁xelmájch	-8434
▁xeltaqch	-8435
▁xesaajch	-8436
▁xijkitik	-8437
▁xijresaj	-8438
▁xinkwiin	-8439
▁xinmajwu	-8440
▁xinpeeti	-8441
▁xintaqch	-8442
▁xintaqej	-8443
▁xintáqch	-8444
▁xinyolow	-8445
▁xjamaari	-8446
▁xjurajch	-8447
▁xjusaajb	-8448
▁xkanqane	-8449
▁xkanrile	-8450
▁xkantose	-8451
▁xkuxtaqa	-8452
▁xkwintqa	-8453
▁xmajmajw	-8454
▁xmulajch	-8455
▁xnajtiin	-8456
▁xojeelch	-8457
▁xojresaj	-8458
▁xpechiik	-8459
▁xqakojan	-8460
▁xqasipaj	-8461
▁xqejchik	-8462
▁xqetemaj	-8463
▁xtzaqsaj	-8464
▁xtzeksaj	-8465
▁xukertqa	-8466
▁xwetemaj	-8467
▁xyoojmaj	-8468
endisyonaq	-8469
▁Ajchipaaj	-8470
▁Ajkarakol	-8471
▁Anastasyo	-8472
▁Chipaajaa	-8473
▁Chixikiin	-8474
▁Derefente	-8475
▁Derepente	-8476
▁Koompadre	-8477
▁Marktulyo	-8478
▁Tanchopch	-8479
▁Tanqasaaj	-8480
▁Tikuxtaaj	-8481
▁Uspanteka	-8482
▁Xintijooj	-8483
▁Xqejsajch	-8484
▁aboluntad	-8485
▁agradeser	-8486
▁ajchinaaj	-8487
▁ajkofrady	-8488
▁ajtekaney	-8489
▁ajtijonel	-8490
▁ajwiichni	-8491
▁alajwersa	-8492
▁alibertad	-8493
▁anegosyaq	-8494
▁aportuuni	-8495
▁atchapoon	-8496
▁atokonooj	-8497
▁attijowik	-8498
▁ausiliyar	-8499
▁awetamaqi	-8500
▁awichooch	-8501
▁bwenisima	-8502
▁chawchoch	-8503
▁cheqejchi	-8504
▁chijralaj	-8505
▁chijtokik	-8506
▁chijxekik	-8507
▁chikamaan	-8508
▁chuchitos	-8509
▁chuchqájw	-8510
▁chólaajil	-8511
▁diesiseys	-8512
▁direksyon	-8513
▁disyembre	-8514
▁diyakwerd	-8515
▁dondekeer	-8516
▁dosyentos	-8517
▁dyunabees	-8518
▁enjeemple	-8519
▁enteresaa	-8520
▁impalaabr	-8521
▁inajtijol	-8522
▁inbidyoso	-8523
▁inijkejaj	-8524
▁intajkiil	-8525
▁intantzaq	-8526
▁jchakújik	-8527
▁jchikchaq	-8528
▁jkandelaq	-8529
▁jkompayir	-8530
▁jrichooch	-8531
▁jsemiyero	-8532
▁kanalkiin	-8533
▁kapchudil	-8534
▁karretera	-8535
▁kektomaal	-8536
▁kerstyaan	-8537
▁kikotemal	-8538
▁kiktomaal	-8539
▁kirtyaana	-8540
▁kirtyaani	-8541
▁kombenser	-8542
▁kompisant	-8543
▁kondisyon	-8544
▁kontrolar	-8545
▁kostumbri	-8546
▁krestyaan	-8547
▁kwalkiyer	-8548
▁kyerdesir	-8549
▁laguniita	-8550
▁lajtilmit	-8551
▁liyadentr	-8552
▁maldisyar	-8553
▁malkriyad	-8554
▁motosyera	-8555
▁munisipyo	-8556
▁ojchaakun	-8557
▁ondekeraa	-8558
▁petzakini	-8559
▁pimiyenta	-8560
▁qachapiik	-8561
▁qachooqob	-8562
▁qajlojuuj	-8563
▁qatiyempo	-8564
▁rechaqtra	-8565
▁rejewaxik	-8566
▁rejwexkin	-8567
▁restudyaq	-8568
▁richijiil	-8569
▁richochaq	-8570
▁rkompayre	-8571
▁rorasiyon	-8572
▁ryalmente	-8573
▁takowlaaj	-8574
▁tanqasaaj	-8575
▁tawesájch	-8576
▁tawetmaaj	-8577
▁tawuqtaaj	-8578
▁temporaad	-8579
▁tichaakun	-8580
▁tichakujk	-8581
▁tichakuun	-8582
▁tichokoni	-8583
▁tijchakuj	-8584
▁tijkiyeej	-8585
▁tijkomsaj	-8586
▁tijnojsaj	-8587
▁tijooliin	-8588
▁tijtzapij	-8589
▁tikonánik	-8590
▁tinatunik	-8591
▁tinkamsaj	-8592
▁tinkunaaj	-8593
▁tiqejtách	-8594
▁tisolsájb	-8595
▁titaqsajk	-8596
▁titzaqsáj	-8597
▁tiyesajli	-8598
▁tiyuqchik	-8599
▁tkojmajch	-8600
▁tkwintaqa	-8601
▁tqachejej	-8602
▁tqakamsaj	-8603
▁tqakuxtaj	-8604
▁tretmaaji	-8605
▁tzaqoomch	-8606
▁tzurmájch	-8607
▁walmweers	-8608
▁wchelkaan	-8609
▁wetijchup	-8610
▁xchaqmaji	-8611
▁xinkojoon	-8612
▁xintijooj	-8613
▁xkojsajre	-8614
▁xojkojoon	-8615
▁xqacholch	-8616
▁xqakamsaj	-8617
▁xqasipaji	-8618
▁xqejtaqch	-8619
▁xqetemaji	-8620
▁xtawchiki	-8621
▁xtzaqatqa	-8622
▁xwetamaaj	-8623
▁Chijnaqaaj	-8624
▁Estabiyeen	-8625
▁Inpetchina	-8626
▁Kurtyembre	-8627
▁Legalmente	-8628
▁Xinkamsaji	-8629
▁Xinkojooni	-8630
▁aatchaakun	-8631
▁ajsanantoñ	-8632
▁ajwakatnel	-8633
▁aportunida	-8634
▁atinkomsaj	-8635
▁awchoochaq	-8636
▁cherchooch	-8637
▁chijchaqik	-8638
▁chijtokiik	-8639
▁chijyoliik	-8640
▁chomorsaan	-8641
▁chomorsajk	-8642
▁diyaketzal	-8643
▁estaabiyen	-8644
▁extranjera	-8645
▁extranjerb	-8646
▁inkompadre	-8647
▁insuweerte	-8648
▁jcholaajel	-8649
▁jcholajlaq	-8650
▁jchomorsaj	-8651
▁jkíxlinwaq	-8652
▁jqatilmiit	-8653
▁jurchuchul	-8654
▁jweelagran	-8655
▁kabaderiiy	-8656
▁kabalmnete	-8657
▁komersiyan	-8658
▁kompromiso	-8659
▁kontaminar	-8660
▁kosolkooji	-8661
▁liyadentre	-8662
▁makomiikta	-8663
▁maldisyaad	-8664
▁mansanilla	-8665
▁molkochiij	-8666
▁naturalesa	-8667
▁ojchakunik	-8668
▁oportunida	-8669
▁petzalkiin	-8670
▁petzalkini	-8671
▁piniselina	-8672
▁qakerneera	-8673
▁qakostumbr	-8674
▁qapersoono	-8675
▁qasaqweech	-8676
▁qatzantzaq	-8677
▁qixijchiki	-8678
▁qochoochaq	-8679
▁rechoochaq	-8680
▁rekomendar	-8681
▁relijyosas	-8682
▁retaamchaq	-8683
▁rinsiyensy	-8684
▁siguamonta	-8685
▁tankamsaaj	-8686
▁tansikiyer	-8687
▁tawesaajch	-8688
▁tawetamaaj	-8689
▁tchakuntqa	-8690
▁tchaqmaajk	-8691
▁teknolojya	-8692
▁tempwrsiji	-8693
▁tentisinko	-8694
▁ticheqejek	-8695
▁tichikonik	-8696
▁tijsolaajk	-8697
▁tinojsánik	-8698
▁tiqejtaqch	-8699
▁tqajurerej	-8700
▁trajpechaq	-8701
▁tretmajtqa	-8702
▁trotajtaqa	-8703
▁usilyatura	-8704
▁xatchaakun	-8705
▁xijmetaqch	-8706
▁xkanjtzaqe	-8707
▁xpetzmajch	-8708
▁xqachomsaj	-8709
▁xqakamsaaj	-8710
▁xqesajteqa	-8711
▁xsutájtaqa	-8712
▁xtaqontáwi	-8713
▁xuqintzaqe	-8714
▁yaxnajtini	-8715
▁Ajtikaneyna	-8716
▁antibyotiko	-8717
▁awsiliatura	-8718
▁desesperaar	-8719
▁inrelijiyon	-8720
▁komersiyant	-8721
▁komersyante	-8722
▁moyimiyento	-8723
▁qakumunidad	-8724
▁qaqatilmiit	-8725
▁resureksyon	-8726
▁seguramente	-8727
▁stentisinko	-8728
▁taqejastaqa	-8729
▁tempwersijí	-8730
▁tijkojateqa	-8731
▁tijtaqtaqch	-8732
▁tikankojsáj	-8733
▁tratamyento	-8734
▁xchakujtaqa	-8735
▁xjjutúntaqa	-8736
▁xjurchuchuj	-8737
▁xkanchulaaj	-8738
▁xmolkochiij	-8739
▁xnajtintaqa	-8740
▁xojchaakuni	-8741
▁Awsiliyadora	-8742
▁Munisipalida	-8743
▁beyntikwatro	-8744
▁chirchoochaq	-8745
▁deferensiyar	-8746
▁jrefaksyonaq	-8747
▁raqakostumbr	-8748
▁xijtoretaqch	-8749
▁xintijojwiib	-8750
▁bendesidtaqaan	-8751
▁organisasiones	-8752
aks	-8753
apt	-8754
egr	-8755
igl	-8756
ipá	-8757
ixí	-8758
jop	-8759
jut	-8760
kux	-8761
kuy	-8762
lwr	-8763
mak	-8764
mpo	-8765
mpr	-8766
nak	-8767
nde	-8768
ník	-8769
odo	-8770
ofr	-8771
otm	-8772
oyj	-8773
oyo	-8774
pwr	-8775
pyo	-8776
rde	-8777
rna	-8778
rod	-8779
rof	-8780
sak	-8781
smi	-8782
stu	-8783
sum	-8784
tka	-8785
tku	-8786
tod	-8787
tuu	-8788
umr	-8789
utq	-8790
uum	-8791
uxl	-8792
uxt	-8793
wéx	-8794
xwu	-8795
áme	-8796
éjk	-8797
íqe	-8798
ólj	-8799
fuf	-8800
gid	-8801
idy	-8802
kof	-8803
lbe	-8804
nim	-8805
yim	-8806
álb	-8807
ílb	-8808
ówk	-8809
▁Uu	-8810
aagr	-8811
agan	-8812
agun	-8813
ajop	-8814
akar	-8815
akow	-8816
alid	-8817
almw	-8818
asid	-8819
atal	-8820
atja	-8821
awlo	-8822
bees	-8823
bens	-8824
bool	-8825
chop	-8826
dyaq	-8827
eese	-8828
egre	-8829
egur	-8830
elot	-8831
ensy	-8832
eqel	-8833
erep	-8834
eriw	-8835
erka	-8836
erst	-8837
esid	-8838
extr	-8839
eyna	-8840
grad	-8841
gund	-8842
ichk	-8843
idos	-8844
iisy	-8845
ikqe	-8846
ikux	-8847
ilka	-8848
imal	-8849
imoo	-8850
inlu	-8851
inop	-8852
inwá	-8853
ipaj	-8854
ipoj	-8855
iqat	-8856
itzi	-8857
ixab	-8858
ixek	-8859
ixim	-8860
iyak	-8861
jemp	-8862
jita	-8863
ktom	-8864
kuya	-8865
kyer	-8866
lagr	-8867
liji	-8868
lijy	-8869
miso	-8870
mola	-8871
mool	-8872
mpal	-8873
mpre	-8874
mpuw	-8875
ntis	-8876
ofes	-8877
omid	-8878
omja	-8879
onde	-8880
ondo	-8881
opis	-8882
ostr	-8883
paji	-8884
pene	-8885
petk	-8886
pita	-8887
port	-8888
psáj	-8889
qame	-8890
qeoj	-8891
qitz	-8892
qtaj	-8893
qtel	-8894
rame	-8895
rayb	-8896
reks	-8897
rens	-8898
rila	-8899
bir	-8900
ira	-8901
irn	-8902
jus	-8903
miq	-8904
mpl	-8905
sir	-8906
usu	-8907
uus	-8908
óql	-8909
▁ey	-8910
aawk	-8911
aawl	-8912
atey	-8913
axen	-8914
eejb	-8915
eyaq	-8916
eyik	-8917
iraa	-8918
joor	-8919
moor	-8920
oxoq	-8921
pwer	-8922
qiil	-8923
rink	-8924
roye	-8925
sank	-8926
soch	-8927
swal	-8928
tamy	-8929
tini	-8930
tose	-8931
tumb	-8932
tura	-8933
tuub	-8934
tuun	-8935
tzap	-8936
tziq	-8937
tzqe	-8938
uers	-8939
ulyo	-8940
uman	-8941
unid	-8942
uooq	-8943
upii	-8944
upul	-8945
usum	-8946
utaj	-8947
uter	-8948
uwex	-8949
uxta	-8950
waar	-8951
webe	-8952
webo	-8953
webw	-8954
wela	-8955
weno	-8956
werd	-8957
weri	-8958
wooq	-8959
xaar	-8960
xaqt	-8961
xoot	-8962
xtaj	-8963
xtar	-8964
yern	-8965
yetr	-8966
yisi	-8967
yoor	-8968
ytqa	-8969
ywal	-8970
áqch	-8971
élch	-8972
énde	-8973
énel	-8974
éxik	-8975
íjil	-8976
ñana	-8977
ólij	-8978
únki	-8979
úwir	-8980
▁Ajs	-8981
▁Ajw	-8982
▁Alb	-8983
▁Atk	-8984
▁Enf	-8985
▁Enj	-8986
▁Igl	-8987
▁Isi	-8988
▁Jeq	-8989
▁Leg	-8990
▁Rep	-8991
▁Wey	-8992
▁ald	-8993
▁alw	-8994
▁ase	-8995
▁asr	-8996
▁axn	-8997
▁doñ	-8998
▁end	-8999
ady	-9000
kad	-9001
opt	-9002
pad	-9003
rad	-9004
sad	-9005
▁Oo	-9006
abad	-9007
ader	-9008
anim	-9009
anto	-9010
faab	-9011
gaad	-9012
goom	-9013
ikad	-9014
iqii	-9015
ixib	-9016
jiil	-9017
maja	-9018
majm	-9019
majs	-9020
majt	-9021
ojir	-9022
okad	-9023
oomo	-9024
oomá	-9025
osad	-9026
peew	-9027
taab	-9028
tmaj	-9029
ymaj	-9030
▁Oom	-9031
▁Pad	-9032
▁fab	-9033
▁fer	-9034
▁fol	-9035
▁for	-9036
▁fut	-9037
▁igl	-9038
▁ixn	-9039
▁ixp	-9040
▁jlw	-9041
▁jmu	-9042
▁jni	-9043
▁jpw	-9044
▁jro	-9045
▁jrq	-9046
▁leg	-9047
▁mox	-9048
▁oko	-9049
▁ond	-9050
▁org	-9051
▁otr	-9052
▁ped	-9053
▁pot	-9054
▁qíj	-9055
▁rum	-9056
▁sew	-9057
▁sus	-9058
▁tku	-9059
▁tux	-9060
▁uxl	-9061
▁wey	-9062
▁xap	-9063
▁xaw	-9064
▁xpu	-9065
▁xtr	-9066
▁íwi	-9067
aakot	-9068
aalgo	-9069
abado	-9070
abita	-9071
ajeti	-9072
ajita	-9073
ajlaq	-9074
ajnik	-9075
ajoni	-9076
alaab	-9077
aldiy	-9078
alkan	-9079
alkin	-9080
alkri	-9081
amini	-9082
amnaq	-9083
angel	-9084
anjye	-9085
antek	-9086
antán	-9087
apach	-9088
aqoom	-9089
aqwee	-9090
ariya	-9091
asaar	-9092
asida	-9093
asiya	-9094
atpee	-9095
awile	-9096
axini	-9097
chakú	-9098
chapó	-9099
Jur	-9100
byo	-9101
dem	-9102
emy	-9103
jur	-9104
nem	-9105
pit	-9106
url	-9107
uro	-9108
úur	-9109
▁Ux	-9110
▁ot	-9111
Usil	-9112
Wiin	-9113
aasi	-9114
aasl	-9115
aasn	-9116
aast	-9117
abit	-9118
alem	-9119
alit	-9120
aneg	-9121
dent	-9122
echt	-9123
emaq	-9124
emiy	-9125
emor	-9126
empe	-9127
entq	-9128
ewil	-9129
eyte	-9130
fent	-9131
fiin	-9132
iink	-9133
isey	-9134
jiin	-9135
lmaj	-9136
miin	-9137
piin	-9138
regl	-9139
salk	-9140
sili	-9141
sook	-9142
tent	-9143
ujur	-9144
uram	-9145
uree	-9146
urom	-9147
uron	-9148
wilb	-9149
wilk	-9150
wsil	-9151
▁Jur	-9152
▁Nem	-9153
▁ady	-9154
▁alm	-9155
▁esj	-9156
▁kad	-9157
▁kaw	-9158
▁lem	-9159
aawil	-9160
amaas	-9161
chiri	-9162
demas	-9163
dentr	-9164
desid	-9165
deyas	-9166
echaa	-9167
echik	-9168
eechi	-9169
ejchi	-9170
ejeeb	-9171
ejemp	-9172
ejmuq	-9173
ejwex	-9174
elchi	-9175
elmaj	-9176
emood	-9177
empor	-9178
enaad	-9179
enaje	-9180
ender	-9181
entis	-9182
entos	-9183
entqe	-9184
erdaa	-9185
erdad	-9186
eriya	-9187
ersiy	-9188
ertqa	-9189
esajw	-9190
eselk	-9191
esiya	-9192
espet	-9193
esyon	-9194
etaaw	-9195
etmaj	-9196
etren	-9197
etzak	-9198
guram	-9199
Cha	-9200
Chw	-9201
Wet	-9202
emb	-9203
etj	-9204
etm	-9205
eto	-9206
etq	-9207
etr	-9208
etu	-9209
jet	-9210
mby	-9211
muj	-9212
trs	-9213
uja	-9214
ujk	-9215
ujo	-9216
uln	-9217
wuj	-9218
yuj	-9219
▁Un	-9220
Chee	-9221
Chej	-9222
Chek	-9223
Chij	-9224
Chwe	-9225
beer	-9226
eera	-9227
eers	-9228
eten	-9229
etza	-9230
etzi	-9231
etzé	-9232
graq	-9233
isty	-9234
kaam	-9235
oomb	-9236
oono	-9237
paam	-9238
poom	-9239
poon	-9240
raam	-9241
roon	-9242
syen	-9243
teer	-9244
toon	-9245
ujaq	-9246
ujii	-9247
ujuj	-9248
ulaa	-9249
uler	-9250
ulon	-9251
ulul	-9252
uluw	-9253
yani	-9254
yant	-9255
yemb	-9256
yiki	-9257
▁max	-9258
▁étz	-9259
Chaak	-9260
Chiik	-9261
ajoon	-9262
antil	-9263
chaam	-9264
elaam	-9265
etzal	-9266
etzel	-9267
ichel	-9268
igles	-9269
iichi	-9270
iisyo	-9271
ijnaq	-9272
ikeej	-9273
ikich	-9274
ikmaj	-9275
ikote	-9276
ikyer	-9277
imaaj	-9278
imaal	-9279
imani	-9280
inaaq	-9281
inkom	-9282
inpee	-9283
ipaji	-9284
iqaaj	-9285
isasi	-9286
ismat	-9287
istya	-9288
isyar	-9289
iyake	-9290
iyant	-9291
iyerd	-9292
iyerk	-9293
jeemp	-9294
kejaj	-9295
kunaj	-9296
kunik	-9297
kwela	-9298
kwiin	-9299
Chi	-9300
kow	-9301
nib	-9302
owl	-9303
pka	-9304
pow	-9305
qow	-9306
qáj	-9307
tow	-9308
ulm	-9309
▁Mr	-9310
▁Mu	-9311
▁My	-9312
achi	-9313
achk	-9314
acht	-9315
achu	-9316
ajur	-9317
amow	-9318
anib	-9319
aqib	-9320
aqow	-9321
atir	-9322
biir	-9323
eert	-9324
eláj	-9325
kach	-9326
mera	-9327
okow	-9328
opay	-9329
osib	-9330
otik	-9331
owch	-9332
payi	-9333
tiks	-9334
tirn	-9335
tiro	-9336
ulee	-9337
wákx	-9338
yend	-9339
▁Del	-9340
▁Der	-9341
▁Diy	-9342
▁Dya	-9343
▁Mej	-9344
▁Mki	-9345
▁Mun	-9346
▁bib	-9347
▁pow	-9348
▁qáj	-9349
▁ráj	-9350
Kwand	-9351
achik	-9352
ajtik	-9353
china	-9354
eloot	-9355
iisaq	-9356
ijtik	-9357
isach	-9358
kunoq	-9359
kwini	-9360
lanwa	-9361
latun	-9362
linwa	-9363
mbraq	-9364
mechi	-9365
meram	-9366
mikos	-9367
molch	-9368
mpuch	-9369
mulaj	-9370
myeen	-9371
nchik	-9372
neera	-9373
nonli	-9374
obrar	-9375
ochoo	-9376
ojeli	-9377
ojomá	-9378
ojoon	-9379
ojoor	-9380
ojyol	-9381
okita	-9382
okoon	-9383
okrek	-9384
oliin	-9385
olsáj	-9386
omiin	-9387
ompay	-9388
ongam	-9389
ontik	-9390
onton	-9391
ookaq	-9392
oomaq	-9393
oones	-9394
opayr	-9395
opcha	-9396
opter	-9397
oqiil	-9398
ormaj	-9399
emo	-9400
ewa	-9401
nmi	-9402
nwa	-9403
ugr	-9404
wax	-9405
ánm	-9406
▁Sa	-9407
aakn	-9408
aako	-9409
aakx	-9410
anwa	-9411
chul	-9412
eelk	-9413
inwa	-9414
jtaq	-9415
jwex	-9416
jwin	-9417
kola	-9418
loon	-9419
miit	-9420
ojwa	-9421
oláj	-9422
piik	-9423
taqj	-9424
taqt	-9425
wach	-9426
waki	-9427
wtaq	-9428
yiik	-9429
ájil	-9430
íkch	-9431
▁Sab	-9432
▁Soo	-9433
▁dem	-9434
▁gob	-9435
Etons	-9436
aakaq	-9437
aawin	-9438
ajtaq	-9439
amtaq	-9440
aqeel	-9441
aqiik	-9442
ejeel	-9443
ejtaq	-9444
ensya	-9445
eseel	-9446
iikta	-9447
iitaq	-9448
ijtaq	-9449
ikiik	-9450
ikwin	-9451
iltaq	-9452
intaq	-9453
inwaq	-9454
okiik	-9455
oliik	-9456
omiik	-9457
osiib	-9458
osyaq	-9459
otsaj	-9460
oxtar	-9461
pedii	-9462
puwes	-9463
pwers	-9464
qaloq	-9465
qamaj	-9466
qatik	-9467
qchoo	-9468
qejek	-9469
qenon	-9470
qesaj	-9471
rchoo	-9472
rimer	-9473
riyen	-9474
robar	-9475
rofes	-9476
sachi	-9477
sachk	-9478
sanii	-9479
sanil	-9480
saqja	-9481
sikiy	-9482
smaal	-9483
spwes	-9484
taajk	-9485
tajch	-9486
tajki	-9487
talin	-9488
tamaq	-9489
tanik	-9490
taqik	-9491
taqon	-9492
tarin	-9493
tchik	-9494
teyan	-9495
tigar	-9496
tijew	-9497
tijow	-9498
tikan	-9499
Kl	-9500
Ol	-9501
Uc	-9502
jx	-9503
ní	-9504
Der	-9505
Muk	-9506
Rik	-9507
Suk	-9508
Xqa	-9509
bal	-9510
daa	-9511
duk	-9512
ele	-9513
elm	-9514
erj	-9515
erw	-9516
haj	-9517
huk	-9518
ijy	-9519
jqa	-9520
jta	-9521
ker	-9522
kuk	-9523
own	-9524
qal	-9525
qam	-9526
ser	-9527
tuk	-9528
ukr	-9529
ukt	-9530
xuk	-9531
▁bi	-9532
▁jy	-9533
abar	-9534
ajel	-9535
antz	-9536
aqta	-9537
ayor	-9538
elor	-9539
eril	-9540
eroo	-9541
gaas	-9542
icha	-9543
ijtz	-9544
onta	-9545
oqta	-9546
peel	-9547
qaan	-9548
taan	-9549
teel	-9550
ukar	-9551
ulan	-9552
uner	-9553
ysan	-9554
▁Ajr	-9555
▁Mii	-9556
▁Pob	-9557
▁jen	-9558
▁jko	-9559
▁jkr	-9560
▁jku	-9561
▁jkí	-9562
▁juy	-9563
▁kuk	-9564
▁mee	-9565
▁nqa	-9566
▁ích	-9567
ambya	-9568
astaq	-9569
atyuq	-9570
axenw	-9571
biyaj	-9572
majwu	-9573
neraq	-9574
oneel	-9575
opiix	-9576
tikee	-9577
tikow	-9578
tiyad	-9579
tokik	-9580
toons	-9581
tranj	-9582
trens	-9583
tubre	-9584
tudiy	-9585
tuuni	-9586
tuutz	-9587
tzaab	-9588
tzaaq	-9589
tzaqw	-9590
tzekw	-9591
tzeli	-9592
tziib	-9593
tzmaj	-9594
uerte	-9595
ujtaq	-9596
ujuuj	-9597
ukxij	-9598
ukxin	-9599
Ik	-9600
Un	-9601
Uu	-9602
by	-9603
fi	-9604
áb	-9605
▁ú	-9606
Jol	-9607
Laq	-9608
Moj	-9609
Non	-9610
Pee	-9611
Ron	-9612
bee	-9613
dan	-9614
eeq	-9615
gua	-9616
iju	-9617
mat	-9618
ojb	-9619
oji	-9620
ojj	-9621
ojk	-9622
ojl	-9623
ojn	-9624
ojp	-9625
ojt	-9626
oju	-9627
ojw	-9628
ojy	-9629
onr	-9630
pil	-9631
pix	-9632
saa	-9633
son	-9634
tee	-9635
uka	-9636
uwe	-9637
xee	-9638
zaa	-9639
▁is	-9640
▁lt	-9641
ajee	-9642
akin	-9643
anoj	-9644
anya	-9645
aser	-9646
atpe	-9647
entk	-9648
eros	-9649
erti	-9650
esta	-9651
ijee	-9652
ijoj	-9653
ijun	-9654
ikil	-9655
ilee	-9656
imaq	-9657
irch	-9658
isya	-9659
myen	-9660
ojat	-9661
omay	-9662
oree	-9663
pitz	-9664
riij	-9665
spet	-9666
tajk	-9667
wuch	-9668
xiik	-9669
yali	-9670
yugo	-9671
▁Jos	-9672
▁ich	-9673
▁jon	-9674
▁nee	-9675
▁och	-9676
▁ses	-9677
▁son	-9678
alaam	-9679
eewaq	-9680
esiik	-9681
gundo	-9682
iloon	-9683
ipáka	-9684
itzil	-9685
kamby	-9686
okech	-9687
umrar	-9688
unabe	-9689
unajk	-9690
unida	-9691
unita	-9692
untii	-9693
untir	-9694
unuli	-9695
uqane	-9696
uqtaj	-9697
uraal	-9698
ureem	-9699
bl	-9700
ho	-9701
wb	-9702
yc	-9703
zé	-9704
Jqa	-9705
Kab	-9706
Koj	-9707
Nat	-9708
Nom	-9709
aqy	-9710
ekm	-9711
esd	-9712
ese	-9713
esp	-9714
esy	-9715
esá	-9716
fil	-9717
ija	-9718
ilk	-9719
lee	-9720
lwi	-9721
mor	-9722
ojm	-9723
okt	-9724
org	-9725
orr	-9726
pat	-9727
pis	-9728
pta	-9729
qes	-9730
qob	-9731
uaa	-9732
ule	-9733
wey	-9734
wiq	-9735
xil	-9736
yes	-9737
▁Er	-9738
▁bo	-9739
▁bu	-9740
▁ii	-9741
▁tp	-9742
alut	-9743
anil	-9744
aqer	-9745
eero	-9746
elin	-9747
eraa	-9748
eses	-9749
esor	-9750
espe	-9751
ijaj	-9752
ilch	-9753
iloo	-9754
iyij	-9755
ojee	-9756
onli	-9757
oojk	-9758
qawi	-9759
saam	-9760
tzii	-9761
unta	-9762
▁Lii	-9763
▁Xir	-9764
▁ban	-9765
▁nok	-9766
▁qay	-9767
▁til	-9768
▁wix	-9769
achki	-9770
ijuun	-9771
iliin	-9772
inpet	-9773
inwch	-9774
iyern	-9775
kojoo	-9776
nteel	-9777
oroon	-9778
ureex	-9779
urmáj	-9780
usaaj	-9781
utaaj	-9782
utzaj	-9783
uweer	-9784
waand	-9785
waasl	-9786
wakix	-9787
waqaq	-9788
webes	-9789
wechi	-9790
weeno	-9791
wenis	-9792
weroq	-9793
wesáj	-9794
wetam	-9795
wichn	-9796
wilch	-9797
wilka	-9798
wixóq	-9799
Do	-9800
ku	-9801
qó	-9802
rn	-9803
tt	-9804
xú	-9805
Boo	-9806
Jor	-9807
Noo	-9808
Oor	-9809
Soo	-9810
Too	-9811
Xoo	-9812
Yoo	-9813
anq	-9814
doo	-9815
elo	-9816
enq	-9817
eny	-9818
esj	-9819
gen	-9820
goo	-9821
hek	-9822
ijó	-9823
iky	-9824
ork	-9825
osa	-9826
poo	-9827
por	-9828
red	-9829
sor	-9830
tak	-9831
too	-9832
uir	-9833
ulb	-9834
uwu	-9835
xoo	-9836
zil	-9837
étz	-9838
▁Ku	-9839
▁pk	-9840
ajoo	-9841
ares	-9842
elen	-9843
elki	-9844
erik	-9845
eser	-9846
iske	-9847
kald	-9848
ojwi	-9849
osey	-9850
soon	-9851
timb	-9852
tzil	-9853
uqte	-9854
west	-9855
▁Loj	-9856
▁Tii	-9857
▁gus	-9858
▁koo	-9859
▁kor	-9860
▁lit	-9861
▁pik	-9862
▁poo	-9863
▁rix	-9864
▁sen	-9865
▁wiq	-9866
▁woo	-9867
aabor	-9868
astas	-9869
etzii	-9870
gamos	-9871
ikiin	-9872
ixiim	-9873
oloni	-9874
oojik	-9875
rente	-9876
tziil	-9877
wteqa	-9878
xlaan	-9879
xoqil	-9880
xoqol	-9881
yabes	-9882
yajaq	-9883
yeres	-9884
yolik	-9885
yonaq	-9886
yotik	-9887
ywaal	-9888
áchij	-9889
ájtaq	-9890
éndez	-9891
▁Anib	-9892
▁Chej	-9893
▁Chim	-9894
▁Chus	-9895
▁Esta	-9896
▁Inat	-9897
▁Inpe	-9898
▁Kaab	-9899
jK	-9900
jl	-9901
qk	-9902
qu	-9903
qú	-9904
íb	-9905
Ees	-9906
Kaa	-9907
Kon	-9908
Maa	-9909
Mee	-9910
Men	-9911
Noj	-9912
Paa	-9913
Pen	-9914
Taa	-9915
Ten	-9916
Tqa	-9917
Yaa	-9918
aag	-9919
ben	-9920
ber	-9921
cht	-9922
elt	-9923
enb	-9924
eni	-9925
enk	-9926
enr	-9927
eqe	-9928
faa	-9929
iat	-9930
jaa	-9931
kik	-9932
mii	-9933
nch	-9934
nun	-9935
run	-9936
suw	-9937
tuq	-9938
tzé	-9939
tzú	-9940
una	-9941
wuq	-9942
yaa	-9943
zen	-9944
▁Ok	-9945
▁Ty	-9946
▁nk	-9947
▁nm	-9948
afee	-9949
ajin	-9950
aqaa	-9951
aqel	-9952
enek	-9953
enen	-9954
exow	-9955
hiik	-9956
ijaa	-9957
inoj	-9958
jaaw	-9959
ojaa	-9960
ojor	-9961
oroo	-9962
owoq	-9963
pwaq	-9964
tnon	-9965
unin	-9966
wete	-9967
yach	-9968
yoob	-9969
▁ajr	-9970
▁iny	-9971
▁joo	-9972
▁nan	-9973
▁ner	-9974
▁qen	-9975
▁rid	-9976
Wunaq	-9977
ajali	-9978
altek	-9979
ijate	-9980
osiik	-9981
schaq	-9982
unisi	-9983
winaq	-9984
wéxik	-9985
▁Keta	-9986
▁Lajk	-9987
▁Manu	-9988
▁Mark	-9989
▁Nomb	-9990
▁Ojch	-9991
▁Oomb	-9992
▁Plan	-9993
▁Pwer	-9994
▁Tijm	-9995
▁Tres	-9996
▁Troq	-9997
▁Tzoq	-9998
▁Xijm	-9999
Oo	-10000
Pe	-10001
Pr	-10002
Uk	-10003
Xr	-10004
ef	-10005
jw	-10006
ms	-10007
wó	-10008
Jun	-10009
Lat	-10010
Mun	-10011
Nes	-10012
Nin	-10013
Poo	-10014
Sin	-10015
Sol	-10016
Tch	-10017
Win	-10018
Wun	-10019
den	-10020
ekn	-10021
esk	-10022
hee	-10023
iko	-10024
ine	-10025
inf	-10026
ing	-10027
int	-10028
inw	-10029
inx	-10030
iny	-10031
iné	-10032
kor	-10033
kuw	-10034
lor	-10035
lqa	-10036
min	-10037
omá	-10038
opa	-10039
poq	-10040
ray	-10041
rte	-10042
sob	-10043
tit	-10044
unj	-10045
uno	-10046
unt	-10047
won	-10048
yug	-10049
yun	-10050
zin	-10051
zoo	-10052
íxl	-10053
▁Nm	-10054
▁er	-10055
▁mk	-10056
▁my	-10057
▁má	-10058
abaa	-10059
ajwi	-10060
anan	-10061
aqes	-10062
aqoo	-10063
arag	-10064
enaj	-10065
ijab	-10066
ijqa	-10067
ikoj	-10068
inik	-10069
mpli	-10070
sori	-10071
trol	-10072
tyan	-10073
xaan	-10074
xiib	-10075
▁Pee	-10076
▁rew	-10077
▁rin	-10078
▁roo	-10079
▁sig	-10080
▁tiy	-10081
▁tzu	-10082
▁yal	-10083
erech	-10084
ersel	-10085
gidor	-10086
omaan	-10087
uroon	-10088
▁Xijp	-10089
▁Xpep	-10090
▁Xtor	-10091
▁aayy	-10092
▁ajyu	-10093
▁akar	-10094
▁akin	-10095
▁akir	-10096
▁akom	-10097
▁amol	-10098
▁anib	-10099
En	-10100
Os	-10101
úu	-10102
Nik	-10103
Tij	-10104
Tik	-10105
Wii	-10106
ajK	-10107
alu	-10108
ata	-10109
bik	-10110
elá	-10111
exw	-10112
fij	-10113
ijj	-10114
ijp	-10115
ijq	-10116
ijr	-10117
ijx	-10118
ikr	-10119
iks	-10120
iku	-10121
inj	-10122
jan	-10123
kij	-10124
len	-10125
mij	-10126
olj	-10127
qij	-10128
qik	-10129
rij	-10130
sij	-10131
upu	-10132
xen	-10133
xij	-10134
zij	-10135
▁Ni	-10136
▁it	-10137
▁qú	-10138
▁wt	-10139
▁íj	-10140
aank	-10141
ajij	-10142
ajor	-10143
elee	-10144
erch	-10145
eres	-10146
etaq	-10147
ijch	-10148
ijik	-10149
ijor	-10150
ikan	-10151
ikat	-10152
ikok	-10153
isel	-10154
jchi	-10155
ntik	-10156
olun	-10157
onoj	-10158
orre	-10159
tzen	-10160
unch	-10161
uwab	-10162
ílij	-10163
▁Poo	-10164
▁Tat	-10165
▁bol	-10166
▁chí	-10167
▁inl	-10168
▁kem	-10169
▁rep	-10170
▁wiy	-10171
ancha	-10172
antes	-10173
inaal	-10174
isant	-10175
obyer	-10176
silya	-10177
sájch	-10178
tijch	-10179
▁Lest	-10180
▁ajtr	-10181
▁anim	-10182
▁apar	-10183
▁apoo	-10184
▁apor	-10185
▁apuw	-10186
▁apwe	-10187
▁asep	-10188
▁awaa	-10189
▁awet	-10190
▁bast	-10191
▁bend	-10192
▁bwel	-10193
▁chaa	-10194
▁chal	-10195
▁chay	-10196
▁chík	-10197
▁dent	-10198
▁desd	-10199
Aj	-10200
Al	-10201
As	-10202
Jq	-10203
Kn	-10204
Mi	-10205
Py	-10206
Su	-10207
lc	-10208
mt	-10209
np	-10210
pé	-10211
sf	-10212
sl	-10213
sr	-10214
tn	-10215
wc	-10216
zo	-10217
zu	-10218
éx	-10219
Atz	-10220
Maj	-10221
Mar	-10222
Naj	-10223
San	-10224
Xok	-10225
ain	-10226
ajl	-10227
ajn	-10228
ajs	-10229
ajy	-10230
chw	-10231
ela	-10232
enj	-10233
gir	-10234
kaj	-10235
laa	-10236
ost	-10237
raj	-10238
tay	-10239
yis	-10240
zaj	-10241
▁Xs	-10242
▁rr	-10243
▁ut	-10244
ajaq	-10245
ajoj	-10246
alik	-10247
aqen	-10248
eela	-10249
este	-10250
iiti	-10251
ikow	-10252
inij	-10253
inil	-10254
ooki	-10255
otul	-10256
tijo	-10257
unil	-10258
waqi	-10259
▁Kur	-10260
▁Taa	-10261
▁dyó	-10262
▁jik	-10263
▁jul	-10264
▁qul	-10265
▁tas	-10266
aabiy	-10267
aqaan	-10268
kunin	-10269
oriya	-10270
pajch	-10271
tiqch	-10272
ulmon	-10273
utzil	-10274
wichj	-10275
▁Komp	-10276
▁Xelj	-10277
▁desf	-10278
▁desi	-10279
▁dyak	-10280
▁dyaw	-10281
▁dyun	-10282
▁dyós	-10283
▁ejch	-10284
▁elam	-10285
▁elik	-10286
▁empe	-10287
▁ener	-10288
▁estu	-10289
▁eter	-10290
▁frij	-10291
▁fwer	-10292
▁grad	-10293
▁grin	-10294
▁inbi	-10295
▁inkl	-10296
▁inkw	-10297
▁inlu	-10298
▁inwá	-10299
Ak	-10300
Ar	-10301
In	-10302
Iw	-10303
Jo	-10304
Ky	-10305
Li	-10306
My	-10307
Na	-10308
Or	-10309
Pi	-10310
Po	-10311
Tr	-10312
ag	-10313
ai	-10314
ea	-10315
hj	-10316
jj	-10317
jú	-10318
kc	-10319
ld	-10320
ly	-10321
ná	-10322
pn	-10323
qm	-10324
ry	-10325
su	-10326
ui	-10327
xó	-10328
ys	-10329
yw	-10330
zc	-10331
áy	-10332
íl	-10333
ók	-10334
Mal	-10335
Ooj	-10336
boo	-10337
chm	-10338
eaa	-10339
eon	-10340
erm	-10341
esb	-10342
haq	-10343
ijn	-10344
ikw	-10345
joo	-10346
pri	-10347
pwe	-10348
qle	-10349
sel	-10350
sem	-10351
▁Pa	-10352
▁lm	-10353
▁mx	-10354
▁pt	-10355
▁pw	-10356
▁qu	-10357
arko	-10358
asaa	-10359
ijki	-10360
inta	-10361
isti	-10362
jwel	-10363
kant	-10364
mees	-10365
ombr	-10366
tike	-10367
tzak	-10368
umuj	-10369
ékej	-10370
▁Dis	-10371
▁Kat	-10372
▁Tal	-10373
▁chq	-10374
▁lis	-10375
▁tru	-10376
Chuch	-10377
amtqa	-10378
aners	-10379
ankoj	-10380
gunii	-10381
haber	-10382
inkos	-10383
ligar	-10384
lunik	-10385
unaqi	-10386
winin	-10387
▁inyó	-10388
▁ixii	-10389
▁jcho	-10390
▁jder	-10391
▁jgan	-10392
▁jkay	-10393
▁jkir	-10394
▁jkis	-10395
▁jkol	-10396
▁jkoo	-10397
▁jkor	-10398
▁jkye	-10399
Be	-10400
Bu	-10401
Di	-10402
Ke	-10403
Le	-10404
Lo	-10405
Pa	-10406
Se	-10407
Xe	-10408
Xt	-10409
ed	-10410
hu	-10411
hí	-10412
jm	-10413
jo	-10414
js	-10415
jt	-10416
my	-10417
ny	-10418
od	-10419
pc	-10420
pá	-10421
sj	-10422
sm	-10423
sá	-10424
tc	-10425
wp	-10426
xp	-10427
xq	-10428
xu	-10429
xw	-10430
íc	-10431
ís	-10432
Kom	-10433
Ori	-10434
Sab	-10435
Til	-10436
Xan	-10437
abr	-10438
aqk	-10439
baa	-10440
chí	-10441
chú	-10442
elq	-10443
gad	-10444
ikm	-10445
ind	-10446
jee	-10447
jel	-10448
ler	-10449
mch	-10450
mun	-10451
ong	-10452
ood	-10453
rir	-10454
see	-10455
sub	-10456
wib	-10457
xum	-10458
zii	-10459
▁Jk	-10460
aqti	-10461
enad	-10462
esar	-10463
esay	-10464
esya	-10465
ikon	-10466
ilaa	-10467
inch	-10468
kili	-10469
kist	-10470
mwer	-10471
ojik	-10472
ooli	-10473
oras	-10474
yari	-10475
▁Men	-10476
▁Xal	-10477
▁jup	-10478
▁sam	-10479
▁tzk	-10480
desay	-10481
echaq	-10482
ikare	-10483
intij	-10484
neero	-10485
tumbr	-10486
uniit	-10487
waasi	-10488
▁jcha	-10489
▁jlej	-10490
▁jluw	-10491
▁jmil	-10492
▁jmok	-10493
▁jnoj	-10494
▁jpaa	-10495
▁jpet	-10496
▁jpob	-10497
▁jpoo	-10498
▁jpor	-10499
An	-10500
Jb	-10501
Jt	-10502
La	-10503
Ma	-10504
Mu	-10505
Nt	-10506
Rk	-10507
Sa	-10508
Si	-10509
Te	-10510
Xu	-10511
eñ	-10512
hq	-10513
lá	-10514
nd	-10515
nl	-10516
nw	-10517
of	-10518
pi	-10519
sk	-10520
sú	-10521
tl	-10522
uñ	-10523
xt	-10524
xy	-10525
ác	-10526
ét	-10527
Les	-10528
Loj	-10529
Xij	-10530
Xoj	-10531
ajé	-10532
anr	-10533
ear	-10534
ejs	-10535
foo	-10536
ije	-10537
ijm	-10538
inp	-10539
inq	-10540
ond	-10541
uam	-10542
uer	-10543
wák	-10544
▁ag	-10545
ajtz	-10546
anii	-10547
iiri	-10548
ijta	-10549
ijwe	-10550
ilij	-10551
kwen	-10552
maak	-10553
ogam	-10554
piix	-10555
targ	-10556
toja	-10557
▁Jon	-10558
▁Xan	-10559
▁Xel	-10560
▁kye	-10561
▁kíx	-10562
▁pch	-10563
▁pim	-10564
▁qaa	-10565
▁ris	-10566
▁rom	-10567
▁óji	-10568
ajiij	-10569
anant	-10570
atkoj	-10571
eench	-10572
entir	-10573
esajb	-10574
iichn	-10575
oosib	-10576
ortal	-10577
rixóq	-10578
▁Tkoj	-10579
▁bese	-10580
▁jpuw	-10581
▁jray	-10582
▁jril	-10583
▁jrus	-10584
▁jsuj	-10585
▁jtak	-10586
▁jtii	-10587
▁jtor	-10588
▁junk	-10589
▁junt	-10590
▁juru	-10591
▁jwii	-10592
▁jwil	-10593
▁jwár	-10594
▁jyoo	-10595
▁kaam	-10596
▁kamp	-10597
▁kers	-10598
▁kesk	-10599
Bw	-10600
Eb	-10601
Et	-10602
Ki	-10603
Ni	-10604
Tq	-10605
Wi	-10606
Xp	-10607
hy	-10608
jc	-10609
jó	-10610
mj	-10611
ng	-10612
nq	-10613
pw	-10614
qi	-10615
rá	-10616
wo	-10617
wt	-10618
xí	-10619
yá	-10620
za	-10621
Por	-10622
Tee	-10623
aqw	-10624
arm	-10625
baq	-10626
eey	-10627
esw	-10628
gol	-10629
hij	-10630
iid	-10631
jon	-10632
lat	-10633
les	-10634
loo	-10635
ojo	-10636
omp	-10637
oná	-10638
qch	-10639
rer	-10640
roo	-10641
tat	-10642
til	-10643
ufu	-10644
uti	-10645
was	-10646
yos	-10647
▁au	-10648
▁wq	-10649
abaj	-10650
ajti	-10651
alas	-10652
anes	-10653
ataa	-10654
elij	-10655
eman	-10656
ened	-10657
ijya	-10658
ikin	-10659
ikta	-10660
inab	-10661
ixik	-10662
jooj	-10663
olij	-10664
oloj	-10665
olon	-10666
oqil	-10667
umun	-10668
wlaj	-10669
▁Roj	-10670
▁Uch	-10671
▁dan	-10672
▁jbi	-10673
▁rop	-10674
aalaq	-10675
aataq	-10676
chaqt	-10677
empwr	-10678
ownaq	-10679
tijon	-10680
yuqch	-10681
▁Xyol	-10682
▁bent	-10683
▁jsum	-10684
▁kirn	-10685
▁kome	-10686
▁komn	-10687
▁kort	-10688
▁kres	-10689
▁kris	-10690
▁kyek	-10691
▁lagr	-10692
▁ltok	-10693
▁luch	-10694
▁majk	-10695
▁mald	-10696
▁miis	-10697
▁mojk	-10698
▁molk	-10699
Ji	-10700
Ju	-10701
Mo	-10702
Ra	-10703
Ux	-10704
Xn	-10705
dy	-10706
ez	-10707
gn	-10708
ie	-10709
ky	-10710
nf	-10711
ps	-10712
rx	-10713
ug	-10714
áa	-10715
ña	-10716
▁c	-10717
Jon	-10718
Mre	-10719
Per	-10720
Pis	-10721
Ril	-10722
Saq	-10723
ard	-10724
arr	-10725
chq	-10726
etá	-10727
ijs	-10728
ilw	-10729
ily	-10730
jam	-10731
kch	-10732
lti	-10733
mux	-10734
nas	-10735
ota	-10736
pij	-10737
qel	-10738
tig	-10739
tol	-10740
unr	-10741
utú	-10742
xch	-10743
yay	-10744
yuw	-10745
zab	-10746
zel	-10747
▁bw	-10748
▁ig	-10749
▁jj	-10750
▁mt	-10751
▁om	-10752
antá	-10753
aqon	-10754
eand	-10755
enik	-10756
eyes	-10757
inaj	-10758
inin	-10759
lori	-10760
miix	-10761
obar	-10762
onen	-10763
oora	-10764
oron	-10765
siya	-10766
swil	-10767
tawk	-10768
yaaw	-10769
▁Nat	-10770
▁kim	-10771
▁lin	-10772
▁wim	-10773
▁xes	-10774
▁xir	-10775
ajtij	-10776
ajtqa	-10777
iniij	-10778
opsaj	-10779
qakoj	-10780
sajoq	-10781
sipal	-10782
▁chuj	-10783
▁inwe	-10784
▁jral	-10785
▁jsob	-10786
▁mosk	-10787
▁mxaq	-10788
▁niml	-10789
▁nimy	-10790
▁nsol	-10791
▁nuun	-10792
▁ojee	-10793
▁okee	-10794
▁oras	-10795
▁paag	-10796
▁potr	-10797
▁pred	-10798
▁prem	-10799
Ic	-10800
Ne	-10801
Ro	-10802
Ty	-10803
Wa	-10804
Wu	-10805
Xk	-10806
bw	-10807
hi	-10808
hk	-10809
hw	-10810
ia	-10811
ic	-10812
io	-10813
jp	-10814
kb	-10815
pl	-10816
tq	-10817
ts	-10818
tw	-10819
uc	-10820
wg	-10821
ée	-10822
íw	-10823
ól	-10824
Iin	-10825
Kal	-10826
Kat	-10827
Kin	-10828
Ree	-10829
Xta	-10830
ajq	-10831
aqb	-10832
aqn	-10833
aqu	-10834
dee	-10835
ean	-10836
eqa	-10837
erb	-10838
esé	-10839
eyn	-10840
hik	-10841
ijo	-10842
lch	-10843
mta	-10844
omr	-10845
one	-10846
osu	-10847
raq	-10848
sch	-10849
tzq	-10850
uoo	-10851
uwí	-10852
xow	-10853
yee	-10854
yij	-10855
▁Ij	-10856
akoj	-10857
ambl	-10858
amen	-10859
andr	-10860
aqil	-10861
arte	-10862
iyoo	-10863
iyun	-10864
okón	-10865
omis	-10866
raas	-10867
tera	-10868
unun	-10869
weta	-10870
wraq	-10871
▁Any	-10872
▁loj	-10873
▁loo	-10874
▁mex	-10875
achel	-10876
ataqa	-10877
chaqa	-10878
ikita	-10879
kesey	-10880
kojan	-10881
olkat	-10882
wajin	-10883
ólaaj	-10884
▁Isid	-10885
▁chil	-10886
▁prin	-10887
▁prod	-10888
▁pros	-10889
▁pwer	-10890
▁qajl	-10891
▁qaka	-10892
▁qaku	-10893
▁qalm	-10894
▁qalu	-10895
▁qalw	-10896
▁qama	-10897
▁qasw	-10898
▁qayó	-10899
Ba	-10900
De	-10901
Sy	-10902
Wá	-10903
añ	-10904
di	-10905
ec	-10906
eg	-10907
kl	-10908
kr	-10909
kw	-10910
mk	-10911
mo	-10912
nb	-10913
qí	-10914
rd	-10915
uo	-10916
yd	-10917
yy	-10918
ze	-10919
zq	-10920
▁C	-10921
Iil	-10922
Raj	-10923
ajr	-10924
ale	-10925
alo	-10926
anw	-10927
apn	-10928
bon	-10929
bra	-10930
bre	-10931
emi	-10932
eoj	-10933
fen	-10934
ilj	-10935
iyi	-10936
ktz	-10937
maa	-10938
nee	-10939
nel	-10940
onk	-10941
rub	-10942
ton	-10943
xii	-10944
▁Mi	-10945
▁jd	-10946
▁kí	-10947
▁ns	-10948
▁tt	-10949
ajil	-10950
aner	-10951
aqee	-10952
atoo	-10953
cheq	-10954
ejee	-10955
ekux	-10956
elaj	-10957
empr	-10958
fwer	-10959
guel	-10960
iqan	-10961
isan	-10962
ojan	-10963
ojoo	-10964
oraa	-10965
orta	-10966
pear	-10967
petz	-10968
tijm	-10969
trun	-10970
uqin	-10971
uran	-10972
▁juu	-10973
▁met	-10974
▁soo	-10975
▁xal	-10976
aajel	-10977
aaqin	-10978
ajeel	-10979
arita	-10980
ekeer	-10981
elkoj	-10982
ijaat	-10983
ojmaj	-10984
oojta	-10985
wilin	-10986
yetaq	-10987
▁Mars	-10988
▁jalm	-10989
▁qeej	-10990
▁qest	-10991
▁qesé	-10992
▁rajk	-10993
▁rajn	-10994
▁rcho	-10995
▁reje	-10996
▁rejw	-10997
▁reme	-10998
▁resp	-10999
Er	-11000
Ii	-11001
Jw	-11002
Ka	-11003
Me	-11004
Ok	-11005
Pu	-11006
Pw	-11007
Re	-11008
So	-11009
Tc	-11010
Tp	-11011
We	-11012
Xa	-11013
Yo	-11014
ha	-11015
ig	-11016
jq	-11017
jy	-11018
kn	-11019
lf	-11020
og	-11021
qb	-11022
ru	-11023
só	-11024
tj	-11025
ue	-11026
yr	-11027
zi	-11028
íj	-11029
Man	-11030
aba	-11031
ajb	-11032
awl	-11033
esi	-11034
ilt	-11035
jch	-11036
kar	-11037
lia	-11038
mee	-11039
oks	-11040
qak	-11041
rti	-11042
sta	-11043
ájb	-11044
ñan	-11045
▁lá	-11046
▁nq	-11047
akos	-11048
blig	-11049
chta	-11050
dora	-11051
eran	-11052
haak	-11053
ipal	-11054
ixii	-11055
olik	-11056
oomp	-11057
orme	-11058
ptar	-11059
sool	-11060
taki	-11061
ubre	-11062
▁Ron	-11063
▁Sii	-11064
▁Too	-11065
▁moq	-11066
▁qao	-11067
▁tay	-11068
▁tqy	-11069
▁woq	-11070
▁yan	-11071
antos	-11072
chaal	-11073
erdee	-11074
ichup	-11075
iyari	-11076
kiyer	-11077
yajik	-11078
íneer	-11079
▁acha	-11080
▁chel	-11081
▁parb	-11082
▁rajs	-11083
▁resu	-11084
▁rexk	-11085
▁rich	-11086
▁rigl	-11087
▁rijp	-11088
▁rist	-11089
▁rxóq	-11090
▁salb	-11091
▁segu	-11092
▁sewu	-11093
▁skti	-11094
▁taki	-11095
▁talj	-11096
▁taqe	-11097
▁taqr	-11098
▁taqs	-11099
Ab	-11100
Ko	-11101
Xi	-11102
Xl	-11103
Xo	-11104
Xq	-11105
Xw	-11106
bu	-11107
fo	-11108
ht	-11109
jd	-11110
jg	-11111
kí	-11112
ll	-11113
ls	-11114
pk	-11115
qj	-11116
qn	-11117
qr	-11118
qt	-11119
qy	-11120
qá	-11121
rj	-11122
sp	-11123
sw	-11124
sé	-11125
tm	-11126
té	-11127
ud	-11128
xj	-11129
yk	-11130
úb	-11131
Raq	-11132
Yes	-11133
apo	-11134
ijí	-11135
ikt	-11136
ill	-11137
inr	-11138
mil	-11139
oox	-11140
say	-11141
soo	-11142
tul	-11143
uwi	-11144
wak	-11145
xib	-11146
aajk	-11147
alon	-11148
aqch	-11149
aqwe	-11150
atos	-11151
awil	-11152
enar	-11153
etaa	-11154
ikij	-11155
jwer	-11156
oojm	-11157
pcha	-11158
uqta	-11159
wexi	-11160
▁Jtz	-11161
▁Kap	-11162
▁ber	-11163
▁chó	-11164
▁den	-11165
▁qar	-11166
▁red	-11167
▁suf	-11168
▁ter	-11169
▁tze	-11170
Cheen	-11171
alang	-11172
ambiy	-11173
chich	-11174
eltaq	-11175
olest	-11176
onses	-11177
uxtaq	-11178
yajer	-11179
yares	-11180
íchaj	-11181
▁brin	-11182
▁cheq	-11183
▁inil	-11184
▁jchu	-11185
▁koma	-11186
▁muun	-11187
▁nich	-11188
▁tatr	-11189
▁tchk	-11190
▁tchq	-11191
▁teto	-11192
▁tijj	-11193
▁tijw	-11194
▁tilm	-11195
▁tinm	-11196
▁tinr	-11197
▁titu	-11198
▁tjqa	-11199
Aw	-11200
Bo	-11201
Ek	-11202
Ig	-11203
Ij	-11204
Il	-11205
Je	-11206
Jk	-11207
Jm	-11208
Ku	-11209
Mé	-11210
Oq	-11211
Pá	-11212
Rt	-11213
Tk	-11214
Tu	-11215
br	-11216
fa	-11217
ge	-11218
ju	-11219
kj	-11220
nr	-11221
oc	-11222
ws	-11223
xn	-11224
xr	-11225
xs	-11226
yj	-11227
zk	-11228
ás	-11229
éj	-11230
íi	-11231
íq	-11232
óp	-11233
úm	-11234
Ral	-11235
Tan	-11236
gch	-11237
ijk	-11238
ilo	-11239
kam	-11240
lun	-11241
pin	-11242
pla	-11243
pob	-11244
ret	-11245
sen	-11246
sid	-11247
uqá	-11248
use	-11249
yak	-11250
ych	-11251
▁do	-11252
▁lé	-11253
▁rq	-11254
▁rú	-11255
▁ts	-11256
ajni	-11257
alad	-11258
arak	-11259
arat	-11260
eram	-11261
esee	-11262
etij	-11263
ijon	-11264
inel	-11265
isye	-11266
ojoj	-11267
okik	-11268
rsán	-11269
uqán	-11270
weeq	-11271
▁Xat	-11272
▁akw	-11273
▁bon	-11274
▁boo	-11275
▁kru	-11276
▁ojy	-11277
▁wun	-11278
aasta	-11279
arkot	-11280
atunj	-11281
eraar	-11282
etaam	-11283
kitij	-11284
tados	-11285
▁Twil	-11286
▁kaax	-11287
▁lajr	-11288
▁opis	-11289
▁tjur	-11290
▁tken	-11291
▁tkuw	-11292
▁tkux	-11293
▁tqaq	-11294
▁tqay	-11295
▁tqee	-11296
▁tqes	-11297
▁tqoq	-11298
▁trak	-11299
Ló	-11300
Ut	-11301
Xb	-11302
Xm	-11303
Xy	-11304
Ye	-11305
ao	-11306
au	-11307
du	-11308
hm	-11309
hú	-11310
jé	-11311
ks	-11312
lú	-11313
má	-11314
nn	-11315
nx	-11316
rg	-11317
sb	-11318
sc	-11319
sí	-11320
ua	-11321
yl	-11322
yé	-11323
ám	-11324
ít	-11325
új	-11326
út	-11327
úx	-11328
Jil	-11329
Mki	-11330
Res	-11331
Sik	-11332
aqe	-11333
ban	-11334
bor	-11335
chn	-11336
esf	-11337
gaa	-11338
ilu	-11339
kas	-11340
kej	-11341
mej	-11342
nta	-11343
oka	-11344
ped	-11345
qab	-11346
qil	-11347
seb	-11348
stz	-11349
tob	-11350
way	-11351
woo	-11352
áti	-11353
íin	-11354
▁Ru	-11355
▁aa	-11356
▁mr	-11357
▁sú	-11358
ajiy	-11359
anye	-11360
ator	-11361
chee	-11362
chin	-11363
eraq	-11364
esen	-11365
ikee	-11366
inqa	-11367
ixij	-11368
lajw	-11369
ojti	-11370
uwij	-11371
wald	-11372
▁sel	-11373
▁too	-11374
▁tqi	-11375
▁xis	-11376
eenaq	-11377
kitik	-11378
osyer	-11379
silaa	-11380
uchik	-11381
xikaq	-11382
▁chii	-11383
▁dond	-11384
▁jchí	-11385
▁ters	-11386
▁tsut	-11387
▁tukx	-11388
▁tyen	-11389
▁tyol	-11390
▁tyoo	-11391
▁tzap	-11392
▁tzil	-11393
▁tzip	-11394
▁utii	-11395
▁weel	-11396
▁weta	-11397
▁wete	-11398
▁wetj	-11399
Is	-11400
It	-11401
Kw	-11402
Mj	-11403
Mr	-11404
bo	-11405
gc	-11406
jí	-11407
ká	-11408
kú	-11409
lé	-11410
mc	-11411
mr	-11412
né	-11413
qp	-11414
sn	-11415
tx	-11416
uh	-11417
zú	-11418
át	-11419
áw	-11420
úk	-11421
Ich	-11422
Kee	-11423
Waq	-11424
aap	-11425
baj	-11426
bol	-11427
chk	-11428
chr	-11429
chó	-11430
del	-11431
koo	-11432
kuj	-11433
lil	-11434
naj	-11435
orm	-11436
pch	-11437
qaq	-11438
qar	-11439
qaw	-11440
qon	-11441
qta	-11442
rch	-11443
res	-11444
tza	-11445
uko	-11446
zaq	-11447
zch	-11448
zee	-11449
ách	-11450
▁Mé	-11451
▁ls	-11452
▁nt	-11453
▁rt	-11454
▁sy	-11455
▁tl	-11456
▁tw	-11457
▁tx	-11458
Waan	-11459
ajne	-11460
ajqa	-11461
ants	-11462
aqak	-11463
aqaq	-11464
aqja	-11465
arke	-11466
eeik	-11467
inaa	-11468
qech	-11469
uwaa	-11470
yiij	-11471
▁Ich	-11472
▁Lej	-11473
▁min	-11474
▁pad	-11475
▁wák	-11476
aajaq	-11477
atiij	-11478
chepe	-11479
ilana	-11480
inyar	-11481
ojsaj	-11482
ospit	-11483
tonse	-11484
uchoo	-11485
xaqta	-11486
▁abee	-11487
▁atel	-11488
▁atqa	-11489
▁chan	-11490
▁siye	-11491
▁tyee	-11492
▁xant	-11493
▁xatj	-11494
▁xatn	-11495
▁xatr	-11496
▁xatw	-11497
▁xaty	-11498
▁xatz	-11499
No	-11500
Oj	-11501
To	-11502
bi	-11503
dt	-11504
ga	-11505
hr	-11506
pt	-11507
si	-11508
tp	-11509
wj	-11510
xc	-11511
ál	-11512
ín	-11513
Kob	-11514
Naq	-11515
Roj	-11516
Taq	-11517
Xaq	-11518
Xel	-11519
Xil	-11520
Yaq	-11521
amp	-11522
anu	-11523
aqj	-11524
aqp	-11525
aqr	-11526
aqó	-11527
ats	-11528
ayo	-11529
chj	-11530
daq	-11531
eik	-11532
end	-11533
iaq	-11534
jri	-11535
kaq	-11536
nij	-11537
ore	-11538
oye	-11539
pun	-11540
qat	-11541
qax	-11542
ree	-11543
uje	-11544
yam	-11545
▁jg	-11546
▁jú	-11547
▁kt	-11548
▁kú	-11549
▁rj	-11550
▁so	-11551
▁wó	-11552
akol	-11553
araa	-11554
araq	-11555
ataw	-11556
choq	-11557
dtaq	-11558
ijol	-11559
ikaa	-11560
ikam	-11561
iluk	-11562
isin	-11563
isáj	-11564
jtij	-11565
jtik	-11566
kata	-11567
osti	-11568
tain	-11569
tcha	-11570
tsaj	-11571
tzul	-11572
utún	-11573
▁Ojw	-11574
▁abi	-11575
▁cho	-11576
▁chú	-11577
▁ojw	-11578
▁qch	-11579
▁rer	-11580
▁rkm	-11581
▁wul	-11582
elant	-11583
ikaan	-11584
itaal	-11585
▁chim	-11586
▁jche	-11587
▁jmes	-11588
▁mokó	-11589
▁ojtz	-11590
▁xelm	-11591
▁xelt	-11592
▁xeno	-11593
▁xich	-11594
▁xija	-11595
▁xijp	-11596
▁xijr	-11597
▁xijt	-11598
▁xijy	-11599
Es	-11600
Tb	-11601
fw	-11602
he	-11603
lp	-11604
mw	-11605
wx	-11606
xm	-11607
ár	-11608
ót	-11609
▁ó	-11610
Itz	-11611
Jin	-11612
Jtz	-11613
Kan	-11614
Laj	-11615
Rij	-11616
Rtz	-11617
anj	-11618
ano	-11619
dis	-11620
dye	-11621
elb	-11622
eqá	-11623
eya	-11624
haa	-11625
ikn	-11626
jtz	-11627
kto	-11628
mem	-11629
nan	-11630
nej	-11631
pan	-11632
poj	-11633
sin	-11634
ten	-11635
ttz	-11636
tya	-11637
wtz	-11638
xan	-11639
zan	-11640
áan	-11641
útz	-11642
▁af	-11643
▁nu	-11644
▁rw	-11645
▁tc	-11646
Chaj	-11647
anel	-11648
ejan	-11649
ijiy	-11650
leew	-11651
nooj	-11652
ojta	-11653
ojtz	-11654
oral	-11655
qatz	-11656
qaya	-11657
tzch	-11658
unaj	-11659
utáj	-11660
▁Mal	-11661
▁chw	-11662
▁jan	-11663
▁lee	-11664
▁nwe	-11665
▁rul	-11666
▁yun	-11667
antin	-11668
arsáj	-11669
atyol	-11670
iatur	-11671
ilman	-11672
olber	-11673
taqej	-11674
tijta	-11675
▁moke	-11676
▁tatz	-11677
▁tawi	-11678
▁trom	-11679
▁xent	-11680
▁xint	-11681
▁xjut	-11682
▁xkok	-11683
▁xkut	-11684
▁xkwi	-11685
▁xnaj	-11686
▁xojs	-11687
▁xojx	-11688
▁xokt	-11689
▁xpen	-11690
▁xqal	-11691
▁xqas	-11692
▁xqat	-11693
▁xqee	-11694
▁xres	-11695
▁xtuk	-11696
▁xutz	-11697
aaknik	-11698
aastaj	-11699
Lu	-11700
On	-11701
kó	-11702
zb	-11703
ór	-11704
Aya	-11705
Dya	-11706
Jii	-11707
Kil	-11708
Lii	-11709
Mii	-11710
Nii	-11711
Rii	-11712
Sii	-11713
Tya	-11714
Wen	-11715
Xii	-11716
akn	-11717
ast	-11718
aya	-11719
bii	-11720
bya	-11721
dya	-11722
exn	-11723
iiw	-11724
kii	-11725
lya	-11726
ojx	-11727
oma	-11728
onf	-11729
pii	-11730
qii	-11731
rii	-11732
rom	-11733
sya	-11734
tch	-11735
ulo	-11736
unl	-11737
yab	-11738
yat	-11739
yaw	-11740
yax	-11741
▁Xy	-11742
Yaak	-11743
aarm	-11744
aqii	-11745
aste	-11746
chii	-11747
elam	-11748
elan	-11749
eroq	-11750
etqe	-11751
iiil	-11752
ilya	-11753
kolb	-11754
omaa	-11755
oman	-11756
omej	-11757
omin	-11758
oorl	-11759
unii	-11760
uras	-11761
usar	-11762
usta	-11763
utin	-11764
uwar	-11765
yaaq	-11766
▁Tam	-11767
▁akú	-11768
▁esw	-11769
▁kii	-11770
▁mii	-11771
▁qii	-11772
▁raw	-11773
▁rip	-11774
▁sye	-11775
▁xti	-11776
asion	-11777
chach	-11778
obaar	-11779
olkoj	-11780
▁attz	-11781
▁kamo	-11782
▁liya	-11783
▁qaya	-11784
▁raan	-11785
▁raki	-11786
▁rijm	-11787
▁siky	-11788
▁tare	-11789
aatina	-11790
abajar	-11791
achtqa	-11792
ajaach	-11793
ajinon	-11794
ajkoje	-11795
ajmaaj	-11796
ajpech	-11797
ajtini	-11798
ajuraj	-11799
Nab	-11800
Nok	-11801
Xin	-11802
ars	-11803
atw	-11804
deb	-11805
dom	-11806
dyo	-11807
lad	-11808
omi	-11809
omj	-11810
omn	-11811
omw	-11812
pom	-11813
qom	-11814
ses	-11815
tom	-11816
ura	-11817
wte	-11818
xtu	-11819
▁As	-11820
▁Ig	-11821
▁Ik	-11822
▁Iw	-11823
▁Po	-11824
▁Tw	-11825
▁Xp	-11826
Ween	-11827
abes	-11828
ajoq	-11829
aqom	-11830
atch	-11831
ayee	-11832
ekek	-11833
elaa	-11834
elas	-11835
foot	-11836
ijoo	-11837
jach	-11838
omen	-11839
omer	-11840
omor	-11841
omun	-11842
pooj	-11843
qiix	-11844
syar	-11845
unti	-11846
▁Tch	-11847
▁Tee	-11848
▁Ten	-11849
▁Til	-11850
▁apr	-11851
▁lti	-11852
▁pal	-11853
▁pom	-11854
▁qux	-11855
▁tom	-11856
▁tri	-11857
▁trn	-11858
▁tro	-11859
▁wan	-11860
▁wál	-11861
elkat	-11862
enkoj	-11863
erbes	-11864
jteqa	-11865
rsaan	-11866
toses	-11867
winik	-11868
▁Migu	-11869
▁amee	-11870
▁jkíx	-11871
▁mans	-11872
▁maqt	-11873
▁qaoo	-11874
▁seya	-11875
▁tija	-11876
▁tiji	-11877
▁tijl	-11878
▁tijs	-11879
▁tijy	-11880
▁tins	-11881
▁xqam	-11882
aldiyo	-11883
alemas	-11884
alidad	-11885
alkani	-11886
amaari	-11887
ambley	-11888
ambyar	-11889
andela	-11890
anegos	-11891
angelj	-11892
anteer	-11893
anteka	-11894
antlaj	-11895
antons	-11896
antoos	-11897
aqajaq	-11898
aqwech	-11899
At	-11900
be	-11901
hn	-11902
mx	-11903
nc	-11904
sy	-11905
Aal	-11906
Koo	-11907
Lam	-11908
amt	-11909
amw	-11910
amy	-11911
eis	-11912
fam	-11913
fee	-11914
hab	-11915
jii	-11916
kti	-11917
lab	-11918
lju	-11919
mam	-11920
nab	-11921
nin	-11922
pam	-11923
ram	-11924
tan	-11925
wat	-11926
woq	-11927
xpe	-11928
▁by	-11929
▁ry	-11930
▁uu	-11931
Liij	-11932
Xiij	-11933
amaj	-11934
amil	-11935
amin	-11936
aqab	-11937
aqar	-11938
atan	-11939
chab	-11940
dose	-11941
egun	-11942
ikar	-11943
inat	-11944
irar	-11945
oche	-11946
ojri	-11947
teek	-11948
tzam	-11949
xiij	-11950
ziij	-11951
ákix	-11952
▁baj	-11953
▁inf	-11954
▁inr	-11955
▁liy	-11956
▁mam	-11957
▁mon	-11958
▁nam	-11959
▁ojx	-11960
▁tee	-11961
▁xka	-11962
▁yam	-11963
ajwex	-11964
alaan	-11965
aqsáj	-11966
chiij	-11967
glesa	-11968
iijaa	-11969
iijun	-11970
ijiil	-11971
otmaj	-11972
ralaj	-11973
tikon	-11974
uchul	-11975
uwilb	-11976
▁awex	-11977
▁inee	-11978
▁inqa	-11979
▁jkaf	-11980
▁kiij	-11981
▁rikr	-11982
▁ritr	-11983
▁tiij	-11984
▁tqol	-11985
akostu	-11986
aragan	-11987
arenta	-11988
asaren	-11989
asroon	-11990
atunch	-11991
atunik	-11992
atunja	-11993
atural	-11994
atúnik	-11995
awesaj	-11996
biyeen	-11997
chakaq	-11998
chapch	-11999
ei	-12000
Baa	-12001
Chu	-12002
Jik	-12003
Jwi	-12004
Lok	-12005
Mok	-12006
Pok	-12007
ayd	-12008
bit	-12009
ewi	-12010
iwi	-12011
kté	-12012
kwi	-12013
may	-12014
okb	-12015
oko	-12016
okr	-12017
pwa	-12018
qib	-12019
raa	-12020
sok	-12021
suk	-12022
twi	-12023
tzm	-12024
uly	-12025
unu	-12026
wid	-12027
wis	-12028
wix	-12029
yok	-12030
áwi	-12031
íwi	-12032
úwi	-12033
▁To	-12034
Much	-12035
ajaa	-12036
ajer	-12037
chok	-12038
elwi	-12039
huch	-12040
inok	-12041
inwi	-12042
ojok	-12043
okaa	-12044
okch	-12045
oken	-12046
okoj	-12047
okom	-12048
okwi	-12049
oqom	-12050
piis	-12051
tori	-12052
tzaa	-12053
witz	-12054
yuqi	-12055
▁Atz	-12056
▁Iwi	-12057
▁Lás	-12058
▁Tpe	-12059
▁inx	-12060
▁kwi	-12061
▁lor	-12062
▁tim	-12063
▁tis	-12064
▁twi	-12065
aatin	-12066
glesy	-12067
jtzaq	-12068
kojol	-12069
ortan	-12070
uqiik	-12071
weron	-12072
yekto	-12073
yuqin	-12074
▁abon	-12075
▁chqa	-12076
▁inta	-12077
▁merk	-12078
▁sech	-12079
▁xiju	-12080
chapik	-12081
chapón	-12082
chejej	-12083
cheqej	-12084
chewen	-12085
chijil	-12086
chikon	-12087
cholch	-12088
chuuch	-12089
echaam	-12090
ejalil	-12091
ejchak	-12092
ejteqa	-12093
ekaney	-12094
ekikqe	-12095
elaaji	-12096
elchaq	-12097
elgaad	-12098
elikad	-12099
Bal	-12100
Che	-12101
Jal	-12102
Kol	-12103
Lal	-12104
Naa	-12105
Ton	-12106
Wal	-12107
Xal	-12108
ajt	-12109
ala	-12110
alq	-12111
ijw	-12112
kal	-12113
mal	-12114
mok	-12115
noo	-12116
okó	-12117
ole	-12118
olo	-12119
olá	-12120
oro	-12121
pal	-12122
pep	-12123
pew	-12124
pik	-12125
qol	-12126
ral	-12127
sal	-12128
usi	-12129
wok	-12130
▁ol	-12131
Chuk	-12132
abal	-12133
ajal	-12134
akot	-12135
alaa	-12136
alab	-12137
alch	-12138
ales	-12139
alta	-12140
amal	-12141
arch	-12142
asiy	-12143
asti	-12144
atar	-12145
chaa	-12146
diit	-12147
enis	-12148
eral	-12149
eron	-12150
esti	-12151
ilki	-12152
ista	-12153
okee	-12154
okes	-12155
okol	-12156
okoo	-12157
olin	-12158
onal	-12159
oriy	-12160
taal	-12161
unde	-12162
upup	-12163
xtaq	-12164
▁Kol	-12165
▁Luk	-12166
▁def	-12167
▁ixt	-12168
▁kol	-12169
▁oxm	-12170
▁wal	-12171
sonar	-12172
stori	-12173
tyaad	-12174
upita	-12175
wínik	-12176
yaana	-12177
yudar	-12178
▁Ajch	-12179
▁ayol	-12180
▁chiw	-12181
▁jkar	-12182
▁jsuw	-12183
▁kwer	-12184
▁nijs	-12185
▁ojta	-12186
▁tijm	-12187
▁tqal	-12188
emiyer	-12189
enkoja	-12190
ensaar	-12191
ensiya	-12192
enteer	-12193
entons	-12194
entoon	-12195
entose	-12196
entras	-12197
eqelon	-12198
erchoo	-12199
Ti	-12200
Xc	-12201
Xs	-12202
ac	-12203
lg	-12204
lí	-12205
ns	-12206
pa	-12207
zm	-12208
Dis	-12209
Mis	-12210
Pin	-12211
aqa	-12212
fol	-12213
gus	-12214
isy	-12215
jol	-12216
kaa	-12217
kis	-12218
nol	-12219
olp	-12220
ols	-12221
qin	-12222
ris	-12223
rol	-12224
siy	-12225
teb	-12226
tye	-12227
upi	-12228
▁oc	-12229
Leen	-12230
aaja	-12231
aajl	-12232
anis	-12233
aqol	-12234
asta	-12235
chej	-12236
eens	-12237
eker	-12238
esis	-12239
heen	-12240
iisa	-12241
ilow	-12242
inol	-12243
isoo	-12244
jori	-12245
leen	-12246
naaj	-12247
olaa	-12248
oles	-12249
olya	-12250
orio	-12251
oris	-12252
osii	-12253
paaj	-12254
qila	-12255
raaj	-12256
teen	-12257
unis	-12258
óqol	-12259
▁Kin	-12260
▁Xti	-12261
▁atn	-12262
▁kep	-12263
▁rol	-12264
▁rup	-12265
▁xki	-12266
aajaa	-12267
aajil	-12268
elori	-12269
ijori	-12270
ikchi	-12271
inaaj	-12272
nawes	-12273
olaaj	-12274
rabar	-12275
unaaj	-12276
unaqt	-12277
uwaar	-12278
wakat	-12279
▁awan	-12280
▁mart	-12281
▁tijp	-12282
▁ween	-12283
eresir	-12284
eriwar	-12285
ersaaj	-12286
esajli	-12287
esajte	-12288
eskwel	-12289
espwes	-12290
etaqch	-12291
etmaaj	-12292
etziib	-12293
extran	-12294
formas	-12295
glesiy	-12296
gosyaq	-12297
grades	-12298
iichni	-12299
hó	-12300
km	-12301
kq	-12302
Maq	-12303
Xen	-12304
any	-12305
aqs	-12306
eso	-12307
eyw	-12308
isp	-12309
isá	-12310
isó	-12311
jek	-12312
lis	-12313
nat	-12314
tim	-12315
tzb	-12316
urm	-12317
xek	-12318
yem	-12319
áki	-12320
▁Pw	-12321
▁Xa	-12322
Chaq	-12323
aayy	-12324
abra	-12325
ajek	-12326
akun	-12327
amot	-12328
asar	-12329
eloo	-12330
enti	-12331
erii	-12332
esty	-12333
inis	-12334
iyes	-12335
kiik	-12336
nuch	-12337
puch	-12338
taañ	-12339
ucha	-12340
uchi	-12341
uchn	-12342
uchq	-12343
uchu	-12344
yuch	-12345
▁kej	-12346
▁kek	-12347
▁kix	-12348
▁kiy	-12349
▁lul	-12350
▁pwa	-12351
▁qej	-12352
▁qil	-12353
▁tzo	-12354
▁xke	-12355
▁xku	-12356
▁yas	-12357
achow	-12358
anuch	-12359
atwes	-12360
chaku	-12361
ilaan	-12362
imiin	-12363
ojwex	-12364
uchab	-12365
uchii	-12366
uchta	-12367
werti	-12368
yoloj	-12369
▁junl	-12370
▁kiya	-12371
▁laja	-12372
▁lajk	-12373
▁lajt	-12374
▁laju	-12375
▁lajw	-12376
▁qeta	-12377
▁saqp	-12378
▁tent	-12379
▁tiju	-12380
▁xiné	-12381
▁xkaa	-12382
▁xkol	-12383
▁xkoo	-12384
aqmolb	-12385
ijchik	-12386
ijiyon	-12387
ijpech	-12388
ijtzaq	-12389
ikaman	-12390
ikingo	-12391
ikwini	-12392
inatij	-12393
inkosi	-12394
inkwen	-12395
intaqa	-12396
ipaaja	-12397
isipal	-12398
isipyo	-12399
Ja	-12400
Nm	-12401
Tw	-12402
jf	-12403
mn	-12404
uf	-12405
úr	-12406
Kar	-12407
Las	-12408
Lin	-12409
arb	-12410
arj	-12411
asa	-12412
ask	-12413
asy	-12414
awa	-12415
biy	-12416
jas	-12417
lar	-12418
lde	-12419
lej	-12420
lii	-12421
mas	-12422
men	-12423
nar	-12424
nki	-12425
par	-12426
ras	-12427
rim	-12428
sas	-12429
wab	-12430
weq	-12431
xas	-12432
xon	-12433
zip	-12434
ákx	-12435
▁Pe	-12436
▁Pl	-12437
▁Pu	-12438
ajki	-12439
akam	-12440
amar	-12441
aqas	-12442
aral	-12443
arii	-12444
aris	-12445
asya	-12446
ikas	-12447
inar	-12448
inas	-12449
isas	-12450
iyaa	-12451
onoo	-12452
unar	-12453
wint	-12454
áanm	-12455
▁Ber	-12456
▁Nom	-12457
▁Wal	-12458
▁ajy	-12459
▁biy	-12460
▁jar	-12461
▁nar	-12462
▁riq	-12463
▁ton	-12464
▁war	-12465
▁was	-12466
▁xju	-12467
aalaj	-12468
akach	-12469
anita	-12470
ejcha	-12471
inkoj	-12472
kweel	-12473
metaq	-12474
titaw	-12475
uluun	-12476
wáqan	-12477
▁Xijt	-12478
▁alim	-12479
▁ojch	-12480
▁porm	-12481
▁port	-12482
▁qaop	-12483
▁tany	-12484
▁tara	-12485
▁tijr	-12486
▁tqas	-12487
▁xinw	-12488
ispwes	-12489
istyan	-12490
isyaad	-12491
itchik	-12492
itzili	-12493
iyenta	-12494
iyonal	-12495
iyunab	-12496
kenika	-12497
kirner	-12498
kofrad	-12499
Sb	-12500
qo	-12501
qs	-12502
Mej	-12503
Nej	-12504
Oom	-12505
Rej	-12506
Xpe	-12507
Xti	-12508
aki	-12509
aql	-12510
atk	-12511
ejm	-12512
ejn	-12513
ejt	-12514
ejw	-12515
eku	-12516
epe	-12517
hej	-12518
ijl	-12519
inl	-12520
kir	-12521
kit	-12522
mpe	-12523
oti	-12524
pas	-12525
qen	-12526
rat	-12527
spe	-12528
tib	-12529
tki	-12530
wrs	-12531
xki	-12532
ámb	-12533
áwl	-12534
óti	-12535
▁Bw	-12536
▁Py	-12537
aasa	-12538
abee	-12539
arej	-12540
ejal	-12541
ejas	-12542
elii	-12543
erej	-12544
etik	-12545
iixa	-12546
inko	-12547
inpe	-12548
lbes	-12549
liik	-12550
ojki	-12551
onej	-12552
qati	-12553
tijt	-12554
tikm	-12555
tiya	-12556
uraq	-12557
▁aby	-12558
▁awu	-12559
▁awx	-12560
▁bid	-12561
▁jna	-12562
▁jti	-12563
▁mej	-12564
▁nun	-12565
▁tem	-12566
▁xmu	-12567
ajcha	-12568
amaan	-12569
ijtij	-12570
korti	-12571
uchuj	-12572
▁Unid	-12573
▁inti	-12574
▁jmos	-12575
▁qape	-12576
▁qatr	-12577
▁riti	-12578
▁tijo	-12579
▁witi	-12580
▁xkej	-12581
axoqon	-12582
ejchik	-12583
ijchaq	-12584
kojsaj	-12585
kunaaj	-12586
kuntqa	-12587
kwinin	-12588
lagran	-12589
lajwer	-12590
linwaq	-12591
lmente	-12592
majmaj	-12593
meesaq	-12594
miyeen	-12595
naqaaj	-12596
naqtaj	-12597
ochiij	-12598
ofesor	-12599
Dy	-12600
Ru	-12601
pr	-12602
rr	-12603
so	-12604
tú	-12605
xl	-12606
Aat	-12607
Ker	-12608
Mat	-12609
Sye	-12610
Tin	-12611
Uch	-12612
Xch	-12613
abo	-12614
ape	-12615
ein	-12616
hwe	-12617
jwe	-12618
kye	-12619
npe	-12620
ojr	-12621
ope	-12622
osy	-12623
oxo	-12624
swe	-12625
tpe	-12626
tze	-12627
uju	-12628
uqt	-12629
wep	-12630
yal	-12631
yte	-12632
yud	-12633
ópe	-12634
▁Kw	-12635
▁Xl	-12636
▁Xn	-12637
▁Xr	-12638
▁Xw	-12639
▁wo	-12640
ajpe	-12641
ajwe	-12642
ajye	-12643
ejwe	-12644
elal	-12645
epas	-12646
esye	-12647
inye	-12648
isim	-12649
kiye	-12650
ojpe	-12651
olpe	-12652
ooni	-12653
oqol	-12654
peta	-12655
qata	-12656
qaye	-12657
tijó	-12658
tire	-12659
tiye	-12660
twes	-12661
unoj	-12662
wein	-12663
ziin	-12664
▁Raq	-12665
▁Xoo	-12666
▁hos	-12667
▁kum	-12668
▁kwe	-12669
▁moy	-12670
▁nat	-12671
▁yax	-12672
aatch	-12673
ntons	-12674
peetk	-12675
taant	-12676
timbr	-12677
▁Mald	-12678
▁alwi	-12679
▁awil	-12680
▁ensa	-12681
▁impe	-12682
▁jkam	-12683
▁konf	-12684
▁ojat	-12685
▁tqar	-12686
▁xqes	-12687
ijinon	-12688
olbeer	-12689
omejor	-12690
omingo	-12691
omrsan	-12692
onitos	-12693
ontaañ	-12694
oojmaj	-12695
oomaaj	-12696
oombre	-12697
ooqtaj	-12698
opiisa	-12699
Pl	-12700
já	-12701
lx	-12702
mu	-12703
qw	-12704
rw	-12705
Bay	-12706
Jat	-12707
Jos	-12708
ajp	-12709
aoo	-12710
atj	-12711
atm	-12712
atn	-12713
ato	-12714
atp	-12715
atr	-12716
atu	-12717
aty	-12718
atú	-12719
dos	-12720
gat	-12721
hos	-12722
ijt	-12723
ikq	-12724
inm	-12725
ios	-12726
jat	-12727
jos	-12728
lay	-12729
mos	-12730
osá	-12731
qee	-12732
ros	-12733
sat	-12734
tos	-12735
tuj	-12736
uqú	-12737
zik	-12738
ños	-12739
▁Ar	-12740
▁Kl	-12741
▁Kn	-12742
▁Ky	-12743
anqa	-12744
atil	-12745
atin	-12746
atol	-12747
chel	-12748
chwe	-12749
ejek	-12750
eref	-12751
ikos	-12752
kaaj	-12753
kofr	-12754
ltaq	-12755
ojwe	-12756
olat	-12757
omat	-12758
onsy	-12759
osee	-12760
pant	-12761
ritk	-12762
riya	-12763
tilm	-12764
áqan	-12765
▁Kaa	-12766
▁Kii	-12767
▁Kil	-12768
▁Koo	-12769
▁lat	-12770
▁mad	-12771
▁pat	-12772
▁pos	-12773
▁ros	-12774
▁sat	-12775
▁taa	-12776
▁yat	-12777
tamaj	-12778
ujiiy	-12779
▁Chip	-12780
▁ajaa	-12781
▁alaj	-12782
▁jmee	-12783
▁purm	-12784
▁qajy	-12785
▁qees	-12786
▁tris	-12787
opisaq	-12788
orsajk	-12789
ospita	-12790
osyent	-12791
oxóqil	-12792
pechik	-12793
pentqe	-12794
qaajaq	-12795
qachep	-12796
qakoja	-12797
qatija	-12798
qchoch	-12799
Jn	-12800
py	-12801
ql	-12802
rí	-12803
wh	-12804
yt	-12805
Mas	-12806
May	-12807
ayl	-12808
bay	-12809
dre	-12810
eko	-12811
gel	-12812
ils	-12813
juu	-12814
kay	-12815
lom	-12816
ojé	-12817
pre	-12818
reg	-12819
rix	-12820
und	-12821
▁By	-12822
▁Tp	-12823
▁dr	-12824
▁ru	-12825
▁wr	-12826
▁xú	-12827
Chik	-12828
aanm	-12829
abiy	-12830
ajre	-12831
anmi	-12832
arre	-12833
awes	-12834
ayol	-12835
ayre	-12836
chre	-12837
echi	-12838
eere	-12839
ench	-12840
esik	-12841
eske	-12842
ijna	-12843
ikre	-12844
mbro	-12845
mero	-12846
okre	-12847
ranm	-12848
raya	-12849
sada	-12850
siyo	-12851
ural	-12852
uwes	-12853
wanm	-12854
wesá	-12855
ínik	-12856
▁Chw	-12857
▁Jqa	-12858
▁Pos	-12859
▁der	-12860
▁dil	-12861
▁ino	-12862
▁jre	-12863
▁juw	-12864
▁krt	-12865
▁lay	-12866
▁mki	-12867
▁nop	-12868
▁rar	-12869
▁see	-12870
anaan	-12871
anmaq	-12872
iniin	-12873
inwes	-12874
puluw	-12875
sánik	-12876
tawch	-12877
untqa	-12878
wijaq	-12879
▁akis	-12880
▁kosu	-12881
▁kwal	-12882
▁kwat	-12883
▁kwen	-12884
▁mjet	-12885
▁wáki	-12886
▁xpom	-12887
▁yast	-12888
▁ácha	-12889
aldiiy	-12890
esajch	-12891
omanik	-12892
qeejch	-12893
qejchi	-12894
qejsaj	-12895
rabado	-12896
ralaaj	-12897
rayeej	-12898
relaaj	-12899
rú	-12900
ów	-12901
Liy	-12902
Loq	-12903
Nem	-12904
Roq	-12905
Sub	-12906
aro	-12907
ebo	-12908
hub	-12909
noq	-12910
onl	-12911
oqi	-12912
oqt	-12913
osk	-12914
qoq	-12915
rex	-12916
toq	-12917
uke	-12918
umu	-12919
uoq	-12920
waa	-12921
xim	-12922
zoq	-12923
▁tá	-12924
▁uw	-12925
▁yu	-12926
Boos	-12927
Noos	-12928
Yoos	-12929
ajon	-12930
eban	-12931
eons	-12932
gaar	-12933
ijpe	-12934
ikik	-12935
inre	-12936
iyin	-12937
kooj	-12938
koos	-12939
okoq	-12940
oojw	-12941
oose	-12942
oosi	-12943
oqon	-12944
orya	-12945
osos	-12946
qeje	-12947
roos	-12948
swer	-12949
toos	-12950
unoq	-12951
wakt	-12952
went	-12953
yooj	-12954
▁Sye	-12955
▁Tiy	-12956
▁Uti	-12957
▁dye	-12958
▁kay	-12959
▁lag	-12960
▁nir	-12961
▁nom	-12962
▁ons	-12963
antij	-12964
atilm	-12965
chaji	-12966
emaal	-12967
ijaal	-12968
ijooj	-12969
mchaq	-12970
natun	-12971
ojcha	-12972
ojooj	-12973
ojuuj	-12974
onooj	-12975
onsom	-12976
oojat	-12977
oojel	-12978
▁kofr	-12979
▁kong	-12980
▁kons	-12981
▁niik	-12982
▁tyar	-12983
▁tzoq	-12984
glesaq	-12985
qatzaq	-12986
renaje	-12987
riyent	-12988
robaar	-12989
sanant	-12990
saniiy	-12991
sikyer	-12992
siliya	-12993
silyar	-12994
solsáj	-12995
storyn	-12996
syonaq	-12997
tajkil	-12998
talisa	-12999
Us	-13000
rc	-13001
rt	-13002
Diy	-13003
Lej	-13004
Uti	-13005
amn	-13006
aqo	-13007
eks	-13008
ekw	-13009
gla	-13010
kla	-13011
lag	-13012
miy	-13013
ste	-13014
sul	-13015
xla	-13016
yas	-13017
ámi	-13018
éel	-13019
▁Je	-13020
▁Jm	-13021
▁Jn	-13022
▁Ju	-13023
▁Jw	-13024
amiy	-13025
amon	-13026
amos	-13027
aske	-13028
axin	-13029
bite	-13030
chol	-13031
ejem	-13032
ekan	-13033
ekee	-13034
ekti	-13035
eriy	-13036
esiy	-13037
eter	-13038
ikaj	-13039
intz	-13040
isek	-13041
isiy	-13042
iyan	-13043
iyik	-13044
jruk	-13045
kich	-13046
ojon	-13047
rist	-13048
tita	-13049
ulia	-13050
upaa	-13051
ácha	-13052
▁Jal	-13053
▁Jat	-13054
▁Jik	-13055
▁Res	-13056
▁Roq	-13057
▁Tir	-13058
▁ala	-13059
▁dep	-13060
▁jla	-13061
▁piy	-13062
▁rap	-13063
▁siy	-13064
▁xla	-13065
aqaaj	-13066
aqtaj	-13067
chaaq	-13068
chape	-13069
chmaj	-13070
esika	-13071
iyiij	-13072
kwand	-13073
rabad	-13074
sájik	-13075
talis	-13076
wersa	-13077
áchak	-13078
▁Tijs	-13079
▁ajko	-13080
▁jchó	-13081
▁jeqa	-13082
▁jkan	-13083
▁jwis	-13084
▁tamt	-13085
▁tzek	-13086
▁uwil	-13087
▁xinm	-13088
▁xinp	-13089
▁xins	-13090
▁xiny	-13091
mpuwaq	-13092
owlaaj	-13093
richoo	-13094
tamaqi	-13095
taqjal	-13096
taqont	-13097
taqsaj	-13098
taqtaq	-13099
ct	-13100
jn	-13101
Des	-13102
Kii	-13103
Loo	-13104
Xtz	-13105
bel	-13106
dor	-13107
exo	-13108
fer	-13109
inn	-13110
iys	-13111
iyt	-13112
iyá	-13113
kiy	-13114
kok	-13115
lib	-13116
lid	-13117
lig	-13118
lim	-13119
lir	-13120
nli	-13121
oya	-13122
pli	-13123
rep	-13124
rli	-13125
tre	-13126
tum	-13127
wun	-13128
xta	-13129
áji	-13130
▁Al	-13131
Chub	-13132
aand	-13133
ajli	-13134
ando	-13135
eeli	-13136
ekoj	-13137
ener	-13138
eyor	-13139
ikiy	-13140
inee	-13141
jsaj	-13142
kand	-13143
laju	-13144
mlaj	-13145
mple	-13146
ncha	-13147
onee	-13148
ores	-13149
otaj	-13150
oxóq	-13151
sajk	-13152
syan	-13153
tlaj	-13154
xlaj	-13155
yeew	-13156
▁Pet	-13157
▁ajl	-13158
▁jby	-13159
▁ket	-13160
▁nap	-13161
▁ojl	-13162
▁rán	-13163
▁tes	-13164
▁xkw	-13165
ajlaj	-13166
andas	-13167
ejand	-13168
eksaj	-13169
idtaq	-13170
intik	-13171
lajch	-13172
ochaq	-13173
sajre	-13174
tmaaj	-13175
tzach	-13176
unaql	-13177
utiik	-13178
▁ajre	-13179
▁band	-13180
▁jbal	-13181
▁jpen	-13182
▁saqm	-13183
▁tini	-13184
▁tinl	-13185
▁tint	-13186
▁tiny	-13187
▁tkwi	-13188
ktulyo	-13189
temaji	-13190
tijaan	-13191
tijmaj	-13192
tijsaj	-13193
tijsáj	-13194
tijtaq	-13195
tikiik	-13196
tikmaj	-13197
tiksáj	-13198
tokiik	-13199
fe	-13200
lq	-13201
rq	-13202
sd	-13203
ym	-13204
Seb	-13205
Tii	-13206
abl	-13207
aqm	-13208
ebr	-13209
leb	-13210
lem	-13211
ích	-13212
óji	-13213
úwr	-13214
▁Bu	-13215
▁Ne	-13216
▁eb	-13217
Yaat	-13218
aani	-13219
aatb	-13220
aneb	-13221
baan	-13222
cheb	-13223
diiy	-13224
ebal	-13225
eber	-13226
ejeb	-13227
eleb	-13228
esal	-13229
ijeb	-13230
ikuw	-13231
inya	-13232
itij	-13233
kaan	-13234
kamb	-13235
lfin	-13236
maan	-13237
naan	-13238
nete	-13239
psaj	-13240
taat	-13241
tijs	-13242
ttij	-13243
urch	-13244
▁Naj	-13245
▁Nes	-13246
▁Noj	-13247
▁Nok	-13248
▁bur	-13249
▁ttz	-13250
▁tus	-13251
▁won	-13252
amali	-13253
andon	-13254
byeen	-13255
chaqm	-13256
ejsaj	-13257
entij	-13258
eraan	-13259
gchaq	-13260
isipy	-13261
kojat	-13262
qatij	-13263
tchaq	-13264
tijoj	-13265
tzaan	-13266
uchaq	-13267
wchaq	-13268
xchaq	-13269
▁Alaj	-13270
▁aban	-13271
▁alam	-13272
▁choo	-13273
▁jkos	-13274
▁juna	-13275
▁oojk	-13276
▁oojw	-13277
▁swer	-13278
▁xijm	-13279
▁xojr	-13280
▁xsaa	-13281
ejchaq	-13282
oochaq	-13283
tijooj	-13284
tomaal	-13285
tonses	-13286
tudyaq	-13287
tumbre	-13288
tzapij	-13289
tzaqat	-13290
tzaqch	-13291
tzaqow	-13292
tzuqán	-13293
uchiis	-13294
uchoch	-13295
ujtaqa	-13296
ukeroq	-13297
ulajch	-13298
ulewaq	-13299
Mk	-13300
eo	-13301
gi	-13302
nu	-13303
ño	-13304
Ber	-13305
ams	-13306
chu	-13307
enp	-13308
ete	-13309
exm	-13310
ext	-13311
fak	-13312
joj	-13313
nte	-13314
pón	-13315
qte	-13316
ske	-13317
syo	-13318
tem	-13319
tey	-13320
ójr	-13321
▁Tk	-13322
▁iq	-13323
aalg	-13324
aalt	-13325
ajte	-13326
arex	-13327
ejte	-13328
elte	-13329
esek	-13330
iril	-13331
isón	-13332
keta	-13333
ketz	-13334
obri	-13335
orke	-13336
oroq	-13337
qach	-13338
raal	-13339
siir	-13340
taja	-13341
tima	-13342
undo	-13343
unke	-13344
yake	-13345
ójer	-13346
▁ajs	-13347
▁ajw	-13348
▁atw	-13349
▁aty	-13350
▁qup	-13351
▁tip	-13352
▁xuk	-13353
abaal	-13354
aldey	-13355
ataal	-13356
esiin	-13357
iyaal	-13358
iyaan	-13359
mejor	-13360
okerw	-13361
uchuw	-13362
xóqle	-13363
yunab	-13364
▁Xqej	-13365
▁abol	-13366
▁ajiy	-13367
▁ajtz	-13368
▁alde	-13369
▁esta	-13370
▁maqa	-13371
▁maqr	-13372
▁perd	-13373
▁pere	-13374
▁perj	-13375
▁perm	-13376
▁tanw	-13377
ersyan	-13378
ikchaq	-13379
jwiich	-13380
ojoomá	-13381
onojel	-13382
pechaq	-13383
umujch	-13384
unaqin	-13385
untiir	-13386
urajch	-13387
uschaq	-13388
usilaa	-13389
utbool	-13390
utziil	-13391
uuchaq	-13392
uwexik	-13393
uwuraq	-13394
uxtaqa	-13395
wajtaq	-13396
wanita	-13397
wchoch	-13398
weerte	-13399
pó	-13400
qc	-13401
rl	-13402
ty	-13403
Del	-13404
Pel	-13405
abe	-13406
ajm	-13407
bri	-13408
chy	-13409
eje	-13410
eli	-13411
ies	-13412
kri	-13413
oms	-13414
orn	-13415
paa	-13416
qay	-13417
rit	-13418
yet	-13419
íni	-13420
▁Ló	-13421
▁ub	-13422
▁áa	-13423
▁án	-13424
ajri	-13425
chow	-13426
dyar	-13427
irek	-13428
itaw	-13429
kojm	-13430
kojs	-13431
onri	-13432
oori	-13433
saan	-13434
tkoj	-13435
ujun	-13436
óqil	-13437
▁Kir	-13438
▁Les	-13439
▁Lok	-13440
▁Loo	-13441
▁aab	-13442
▁ajK	-13443
▁aja	-13444
▁aji	-13445
▁ajé	-13446
▁awa	-13447
▁awn	-13448
▁awo	-13449
▁awp	-13450
▁awr	-13451
▁aws	-13452
▁nil	-13453
▁nos	-13454
▁paq	-13455
▁rkr	-13456
ajkoj	-13457
ajori	-13458
anche	-13459
emyer	-13460
ijkoj	-13461
insol	-13462
kojch	-13463
kotul	-13464
ojche	-13465
ojkoj	-13466
pente	-13467
qache	-13468
tawen	-13469
tzaal	-13470
yuqaa	-13471
▁Liij	-13472
▁atos	-13473
▁awal	-13474
▁awel	-13475
▁chor	-13476
▁ixpe	-13477
▁jkoj	-13478
▁laqa	-13479
▁tans	-13480
ejmuqe	-13481
majsáj	-13482
wesaaj	-13483
wetmaj	-13484
wetzel	-13485
wichni	-13486
wichoo	-13487
wiilin	-13488
wiliin	-13489
winaaq	-13490
wintaq	-13491
wintqa	-13492
xlajuj	-13493
xoqiil	-13494
yadent	-13495
yajoon	-13496
yatura	-13497
yerdes	-13498
yernes	-13499
By	-13500
Lá	-13501
ák	-13502
ayi	-13503
fab	-13504
gob	-13505
kes	-13506
luw	-13507
mes	-13508
obl	-13509
oby	-13510
puw	-13511
quw	-13512
som	-13513
tuw	-13514
uqb	-13515
uqe	-13516
uqi	-13517
uqu	-13518
uuw	-13519
uwa	-13520
uwk	-13521
▁ob	-13522
▁áj	-13523
▁ál	-13524
atik	-13525
chew	-13526
chuw	-13527
eeno	-13528
emal	-13529
ijob	-13530
ilon	-13531
iluw	-13532
ltor	-13533
obaa	-13534
obiy	-13535
rich	-13536
saar	-13537
siil	-13538
tawt	-13539
ucho	-13540
uqaa	-13541
uqan	-13542
uqch	-13543
uqej	-13544
uquw	-13545
uwaj	-13546
uwee	-13547
uwen	-13548
uwer	-13549
uwil	-13550
▁Kum	-13551
▁Kuw	-13552
▁atj	-13553
▁fro	-13554
▁ose	-13555
▁ruq	-13556
▁sob	-13557
▁suw	-13558
arech	-13559
enter	-13560
erner	-13561
ijtaw	-13562
lwich	-13563
puuch	-13564
watro	-13565
▁atii	-13566
▁atok	-13567
▁desp	-13568
▁qawe	-13569
▁sagr	-13570
▁saqw	-13571
▁sigu	-13572
▁tiku	-13573
▁tikw	-13574
▁xaqn	-13575
▁xenj	-13576
▁xsuj	-13577
siyens	-13578
tijtaw	-13579
tiyemp	-13580
tokoon	-13581
weraan	-13582
yetras	-13583
yoliin	-13584
yotiko	-13585
únkitz	-13586
▁Ajchi	-13587
▁Ajsim	-13588
▁Ajwin	-13589
▁Balta	-13590
▁Cheen	-13591
▁Entos	-13592
▁Igles	-13593
▁Iinal	-13594
▁Inpet	-13595
▁Jeqom	-13596
▁Jikal	-13597
▁Junoj	-13598
▁Katal	-13599
▁Katar	-13600
▁Koomp	-13601
▁Lagun	-13602
▁Lajor	-13603
▁Leand	-13604
▁Lásti	-13605
▁Makar	-13606
▁Markt	-13607
▁Oswal	-13608
▁Syemp	-13609
▁Tanqa	-13610
▁Tanta	-13611
▁Tichk	-13612
▁Xchaj	-13613
▁Xinij	-13614
▁Xintz	-13615
▁aatch	-13616
▁abans	-13617
▁abyon	-13618
▁ajcha	-13619
▁ajiin	-13620
▁ajsim	-13621
▁ajtij	-13622
▁ajtin	-13623
▁ajwin	-13624
▁alamb	-13625
▁alegr	-13626
▁alkal	-13627
▁almaj	-13628
▁alwel	-13629
▁antiw	-13630
▁aport	-13631
▁apren	-13632
▁aregl	-13633
▁asyen	-13634
▁atink	-13635
▁atkam	-13636
▁atkoj	-13637
▁atnik	-13638
▁atwes	-13639
▁atyut	-13640
▁atzij	-13641
▁bakun	-13642
▁beyes	-13643
▁bweel	-13644
▁chakú	-13645
▁chapk	-13646
▁chapó	-13647
▁chaqi	-13648
▁chaqm	-13649
▁chijt	-13650
▁chijx	-13651
▁chijy	-13652
▁chika	-13653
▁chike	-13654
▁chikw	-13655
▁chiqa	-13656
▁chiwi	-13657
▁chomr	-13658
▁choot	-13659
▁chwey	-13660
▁desay	-13661
▁desfr	-13662
▁dilik	-13663
▁disek	-13664
▁disiy	-13665
▁disye	-13666
▁diyak	-13667
▁ejemp	-13668
▁elmaj	-13669
▁endon	-13670
▁eskri	-13671
▁estud	-13672
▁fuers	-13673
▁iinil	-13674
▁ilana	-13675
▁infor	-13676
▁inkar	-13677
▁inkes	-13678
▁inkin	-13679
▁inkoj	-13680
▁inkom	-13681
▁inkuk	-13682
▁inkuw	-13683
▁inpet	-13684
▁inpii	-13685
▁inpor	-13686
▁inrel	-13687
▁insak	-13688
▁insiy	-13689
▁insol	-13690
▁insuw	-13691
▁inswe	-13692
▁intan	-13693
▁intii	-13694
▁intiy	-13695
▁intzú	-13696
▁inyol	-13697
▁ixpaq	-13698
▁jakor	-13699
▁jbyen	-13700
▁jchaa	-13701
▁jchaj	-13702
▁jchaq	-13703
▁jchej	-13704
▁jchom	-13705
▁jchup	-13706
▁jikul	-13707
▁jinlu	-13708
▁jinol	-13709
▁jkand	-13710
▁jkant	-13711
▁jkare	-13712
▁jluwr	-13713
▁jlwgr	-13714
▁jpaar	-13715
▁jpens	-13716
▁jpeti	-13717
▁jport	-13718
▁jswer	-13719
▁jtaki	-13720
▁jtawi	-13721
▁jtzak	-13722
▁jtzaq	-13723
▁jtzek	-13724
▁jtzij	-13725
▁junaa	-13726
▁jurch	-13727
▁juwer	-13728
▁kabad	-13729
▁kamot	-13730
▁karis	-13731
▁karre	-13732
▁katol	-13733
▁kator	-13734
▁kemel	-13735
▁kerst	-13736
▁kesal	-13737
▁kesek	-13738
▁kesik	-13739
▁kijee	-13740
▁kinta	-13741
▁kisti	-13742
▁komad	-13743
▁komay	-13744
▁komer	-13745
▁kompa	-13746
▁komun	-13747
▁kumpl	-13748
▁kuras	-13749
▁kuxta	-13750
▁kwalk	-13751
▁kween	-13752
▁lajas	-13753
▁lajch	-13754
▁lajqa	-13755
▁lajro	-13756
▁lajwá	-13757
▁lamiy	-13758
▁laqax	-13759
▁latwa	-13760
▁leons	-13761
▁likas	-13762
▁lomen	-13763
▁luwaa	-13764
▁mache	-13765
▁makat	-13766
▁makom	-13767
▁manoo	-13768
▁maqol	-13769
▁marii	-13770
▁mexik	-13771
▁mintr	-13772
▁mokón	-13773
▁mostr	-13774
▁munta	-13775
▁nikar	-13776
▁octub	-13777
▁ojcha	-13778
▁ojtij	-13779
▁ojtok	-13780
▁ojyol	-13781
▁ondek	-13782
▁ontik	-13783
▁oojat	-13784
▁oojch	-13785
▁oojik	-13786
▁oojta	-13787
▁oport	-13788
▁organ	-13789
▁oxlaj	-13790
▁petzé	-13791
▁pobri	-13792
▁pogam	-13793
▁proye	-13794
▁puram	-13795
▁purom	-13796
▁puwer	-13797
▁qacha	-13798
▁qachó	-13799
▁qader	-13800
▁qajyú	-13801
▁qakap	-13802
▁qakej	-13803
▁qaker	-13804
▁qakom	-13805
▁qakos	-13806
▁qakow	-13807
▁qalde	-13808
▁qaluw	-13809
▁qamis	-13810
▁qaneg	-13811
▁qanes	-13812
▁qapal	-13813
▁qapat	-13814
▁qapen	-13815
▁qaper	-13816
▁qapoo	-13817
▁qapuw	-13818
▁qapwa	-13819
▁qaqaq	-13820
▁qaqes	-13821
▁qaqii	-13822
▁qasem	-13823
▁qasen	-13824
▁qasuw	-13825
▁qater	-13826
▁qatii	-13827
▁qatin	-13828
▁qatoj	-13829
▁qatra	-13830
▁qaxik	-13831
▁qaxuk	-13832
▁qaxum	-13833
▁qchoo	-13834
▁qestu	-13835
▁qonej	-13836
▁rajpe	-13837
▁rajtz	-13838
▁rajwe	-13839
▁rajwé	-13840
▁rchoo	-13841
▁redon	-13842
▁regid	-13843
▁remed	-13844
▁respe	-13845
▁restu	-13846
▁resáj	-13847
▁richo	-13848
▁ridey	-13849
▁rikim	-13850
▁rixóq	-13851
▁rkoma	-13852
▁ronoj	-13853
▁rusum	-13854
▁ryali	-13855
▁saqwe	-13856
▁siyer	-13857
▁stent	-13858
▁sufri	-13859
▁sweer	-13860
▁tacha	-13861
▁tajki	-13862
▁talbe	-13863
▁talex	-13864
▁tamby	-13865
▁tanqa	-13866
▁tante	-13867
▁tanti	-13868
▁taqaj	-13869
▁taqej	-13870
▁taqeq	-13871
▁tataq	-13872
▁tawuq	-13873
▁tcheq	-13874
▁tempr	-13875
▁tetij	-13876
▁tewil	-13877
▁tichk	-13878
▁tijaa	-13879
▁tijat	-13880
▁tijaw	-13881
▁tijee	-13882
▁tijki	-13883
▁tijku	-13884
▁tijol	-13885
▁tijoo	-13886
▁tijqa	-13887
▁tijti	-13888
▁tijtu	-13889
▁tijwi	-13890
▁tikok	-13891
▁tikon	-13892
▁tikow	-13893
▁tikuw	-13894
▁tikux	-13895
▁timaj	-13896
▁tinal	-13897
▁tinat	-13898
▁tinim	-13899
▁tinoj	-13900
▁tintr	-13901
▁tintz	-13902
▁tiqam	-13903
▁tiqat	-13904
▁tiray	-13905
▁tisaq	-13906
▁tisip	-13907
▁tiwer	-13908
▁tiwin	-13909
▁tixek	-13910
▁tixoj	-13911
▁tiyaj	-13912
▁tiyol	-13913
▁tiyoo	-13914
▁tqaku	-13915
▁tqara	-13916
▁tqati	-13917
▁tqatz	-13918
▁trata	-13919
▁trenp	-13920
▁trent	-13921
▁tzuqú	-13922
▁usili	-13923
▁utzaj	-13924
▁wakot	-13925
▁waqaq	-13926
▁wchel	-13927
▁wchoo	-13928
▁wetas	-13929
▁witaq	-13930
▁wixóq	-13931
▁xakam	-13932
▁xapee	-13933
▁xatch	-13934
▁xatir	-13935
▁xatos	-13936
▁xawal	-13937
▁xawel	-13938
▁xchaj	-13939
▁xchak	-13940
▁xchej	-13941
▁xchom	-13942
▁xenta	-13943
▁xijur	-13944
▁xinal	-13945
▁xinee	-13946
▁xintz	-13947
▁xkams	-13948
▁xkanj	-13949
▁xkanq	-13950
▁xkanr	-13951
▁xkant	-13952
▁xkojj	-13953
▁xkook	-13954
▁xmolk	-13955
▁xojch	-13956
▁xojel	-13957
▁xpech	-13958
▁xpetz	-13959
▁xqati	-13960
▁xuqin	-13961
▁xwete	-13962
▁yunab	-13963
aajchik	-13964
aaknika	-13965
aamchaq	-13966
abiyeen	-13967
ajtijol	-13968
alaajaq	-13969
alaguna	-13970
almente	-13971
almweer	-13972
ambyeen	-13973
amsaaji	-13974
andelaq	-13975
antilaq	-13976
aqaqiib	-13977
aqweech	-13978
aragaan	-13979
aslemal	-13980
astasyo	-13981
aturaal	-13982
bligadi	-13983
chaqmaj	-13984
chikoni	-13985
chiqaaj	-13986
cholájl	-13987
desayun	-13988
eberili	-13989
ejchaak	-13990
ejtaqch	-13991
ejwexki	-13992
ekuxtaj	-13993
elchich	-13994
emiyero	-13995
empwers	-13996
ensaraq	-13997
ensiyar	-13998
entoons	-13999
erensya	-14000
erepent	-14001
erneera	-14002
ertyaan	-14003
esaajch	-14004
esiseys	-14005
estyaan	-14006
etzelch	-14007
faksyon	-14008
glesiya	-14009
glesyaq	-14010
guniita	-14011
ijchiki	-14012
ijweput	-14013
ikopter	-14014
imiyent	-14015
ipaajaa	-14016
istyaan	-14017
isyonaq	-14018
ixekmaj	-14019
iyerkol	-14020
iyernes	-14021
kamsaaj	-14022
ktomaal	-14023
metaqch	-14024
nawesaj	-14025
obligar	-14026
okonooj	-14027
olmente	-14028
omajtqa	-14029
ompayre	-14030
oojelch	-14031
ortuuni	-14032
ospital	-14033
petchik	-14034
qasajch	-14035
qasajik	-14036
qchooch	-14037
qejchaq	-14038
rchooch	-14039
reksyon	-14040
rixóqil	-14041
sachtqa	-14042
sikiyer	-14043
siliyad	-14044
siliyar	-14045
solsájb	-14046
tabyeen	-14047
tajkiil	-14048
tamyent	-14049
tijchup	-14050
tijowik	-14051
tijsaji	-14052
tijónik	-14053
tikaney	-14054
tintaqa	-14055
tosyera	-14056
tranjer	-14057
tyembre	-14058
tzaqsaj	-14059
tzaqsáj	-14060
uchooch	-14061
ukertqa	-14062
uleewaq	-14063
upiisaq	-14064
urchuch	-14065
urmájch	-14066
usilyar	-14067
wetmaaj	-14068
wexkolb	-14069
wichaaj	-14070
wichjil	-14071
wintaqa	-14072
xnajtin	-14073
yadentr	-14074
yeresir	-14075
yuqchik	-14076
▁Ajchaj	-14077
▁Ajchip	-14078
▁Dyunab	-14079
▁Inatij	-14080
▁Myentr	-14081
▁Ojchom	-14082
▁Tijtij	-14083
▁Xentij	-14084
▁Xijmol	-14085
▁Xinkoj	-14086
▁Xinpee	-14087
▁Xinpet	-14088
▁Xqamaj	-14089
▁ajwakt	-14090
▁akween	-14091
▁aliber	-14092
▁apwees	-14093
▁atchap	-14094
▁awchoo	-14095
▁awixóq	-14096
▁awsili	-14097
▁chepow	-14098
▁chibol	-14099
▁chichj	-14100
▁chiral	-14101
▁chiril	-14102
▁chomor	-14103
▁chuchi	-14104
▁chuchq	-14105
▁desesp	-14106
▁domiin	-14107
▁dondek	-14108
▁dyesis	-14109
▁dyunab	-14110
▁enkamb	-14111
▁eskrib	-14112
▁estaab	-14113
▁folyar	-14114
▁grades	-14115
▁inbidy	-14116
▁inchaj	-14117
▁inluus	-14118
▁inmool	-14119
▁inpeen	-14120
▁inport	-14121
▁intarg	-14122
▁intzúq	-14123
▁jkomay	-14124
▁jkomid	-14125
▁jmemor	-14126
▁jmilla	-14127
▁jrespe	-14128
▁juntii	-14129
▁jwakix	-14130
▁jweran	-14131
▁kabalm	-14132
▁kajeti	-14133
▁kamsaj	-14134
▁kantel	-14135
▁kikote	-14136
▁kixlan	-14137
▁kofrad	-14138
▁komben	-14139
▁komnik	-14140
▁kompad	-14141
▁kompay	-14142
▁konben	-14143
▁kondis	-14144
▁konfor	-14145
▁kontam	-14146
▁kureex	-14147
▁kwalki	-14148
▁kíxlin	-14149
▁ladent	-14150
▁lajqas	-14151
▁lajwan	-14152
▁listor	-14153
▁lwarch	-14154
▁malang	-14155
▁malkri	-14156
▁marech	-14157
▁mentir	-14158
▁mojkos	-14159
▁munisi	-14160
▁muntañ	-14161
▁myentr	-14162
▁nimyer	-14163
▁ojchap	-14164
▁oktori	-14165
▁perjwi	-14166
▁petzak	-14167
▁petzal	-14168
▁pinabl	-14169
▁prepar	-14170
▁proses	-14171
▁qachaj	-14172
▁qachap	-14173
▁qachoo	-14174
▁qachuw	-14175
▁qajloj	-14176
▁qakant	-14177
▁qakooj	-14178
▁qapens	-14179
▁qapers	-14180
▁qaswer	-14181
▁qatern	-14182
▁qatilm	-14183
▁qatzan	-14184
▁qatzaq	-14185
▁qatzek	-14186
▁qechoo	-14187
▁qestud	-14188
▁qigles	-14189
▁rechej	-14190
▁rechij	-14191
▁rechoo	-14192
▁reliji	-14193
▁respir	-14194
▁richoo	-14195
▁ristor	-14196
▁saqwee	-14197
▁siguam	-14198
▁siyemp	-14199
▁tachik	-14200
▁takooj	-14201
▁tankux	-14202
▁tantya	-14203
▁tempor	-14204
▁tempwr	-14205
▁teraas	-14206
▁tichak	-14207
▁tichap	-14208
▁tichok	-14209
▁tijate	-14210
▁tijche	-14211
▁tijkej	-14212
▁tijkom	-14213
▁tijkux	-14214
▁tijnoj	-14215
▁tijolí	-14216
▁tijsol	-14217
▁tinojs	-14218
▁tinsip	-14219
▁tinwes	-14220
▁tiqejt	-14221
▁titawt	-14222
▁titula	-14223
▁tiwooq	-14224
▁tkeney	-14225
▁tqache	-14226
▁tqajur	-14227
▁tqakam	-14228
▁tqakej	-14229
▁tqakux	-14230
▁tqasaj	-14231
▁tqasol	-14232
▁usilya	-14233
▁wchelk	-14234
▁wechel	-14235
▁wichoo	-14236
▁wunaqt	-14237
▁xatkoj	-14238
▁xatnoj	-14239
▁xatpet	-14240
▁xatwes	-14241
▁xatyol	-14242
▁xelmaj	-14243
▁xelmáj	-14244
▁xeltaq	-14245
▁xenjuw	-14246
▁xentij	-14247
▁xichik	-14248
▁xijkoj	-14249
▁xijmuq	-14250
▁xijtor	-14251
▁xijyaj	-14252
▁xinkam	-14253
▁xinkoj	-14254
▁xinkol	-14255
▁xinkos	-14256
▁xinkwi	-14257
▁xintaa	-14258
▁xintik	-14259
▁xintáq	-14260
▁xkanch	-14261
▁xkutun	-14262
▁xojcha	-14263
▁xojche	-14264
▁xojeel	-14265
▁xojkaj	-14266
▁xojkoj	-14267
▁xojyol	-14268
▁xqache	-14269
▁xqakam	-14270
▁xqasip	-14271
▁xtawch	-14272
▁xtzaaq	-14273
▁xwetam	-14274
▁xyetaq	-14275
ajuwexik	-14276
aldisyar	-14277
almweers	-14278
atilmiit	-14279
chakunik	-14280
chaqmaaj	-14281
chaqmaji	-14282
ebangelj	-14283
echelkoj	-14284
endisyon	-14285
entisink	-14286
erchooch	-14287
erefente	-14288
esajteqa	-14289
galmente	-14290
ganisasi	-14291
gradeser	-14292
ikuxtaaj	-14293
imiyenta	-14294
imiyento	-14295
inkamsaj	-14296
insiyens	-14297
ireksyon	-14298
ismatika	-14299
iyunabes	-14300
jkompayr	-14301
kojmajch	-14302
maajchik	-14303
orasiyon	-14304
ostumbre	-14305
otajtaqa	-14306
petchika	-14307
richooch	-14308
sanantoñ	-14309
taamchaq	-14310
tabiyeen	-14311
tamyento	-14312
taqtaqch	-14313
umumujch	-14314
umunidad	-14315
usiliyar	-14316
utájtaqa	-14317
wesaajch	-14318
wetamaaj	-14319
wichooch	-14320
yadentre	-14321
▁Ajwiich	-14322
▁Awajtaq	-14323
▁Inpetch	-14324
▁Tanchop	-14325
▁ajchaal	-14326
▁ajwakat	-14327
▁ajwiich	-14328
▁aportun	-14329
▁awajtaq	-14330
▁beyntik	-14331
▁beyntis	-14332
▁chaakun	-14333
▁chepowí	-14334
▁chijyol	-14335
▁chomors	-14336
▁chuchit	-14337
▁dosyent	-14338
▁dyakwer	-14339
▁enjeemp	-14340
▁enteres	-14341
▁extranj	-14342
▁grasiya	-14343
▁inportu	-14344
▁intiyoj	-14345
▁jchakúj	-14346
▁jchaqej	-14347
▁jchejej	-14348
▁jkamsáj	-14349
▁jkantel	-14350
▁jkompay	-14351
▁jkíxlin	-14352
▁kapchud	-14353
▁kareter	-14354
▁kikotem	-14355
▁kombens	-14356
▁komprom	-14357
▁kontrol	-14358
▁kostumb	-14359
▁kristya	-14360
▁kyerdes	-14361
▁lajintz	-14362
▁lajinwá	-14363
▁molkoch	-14364
▁nasiyon	-14365
▁natural	-14366
▁nesesar	-14367
▁ojchaak	-14368
▁ojtokow	-14369
▁ojyolow	-14370
▁ondeker	-14371
▁oojchom	-14372
▁oportun	-14373
▁pajinon	-14374
▁petzalk	-14375
▁pinisel	-14376
▁prinsip	-14377
▁qachooq	-14378
▁qakapas	-14379
▁qakostu	-14380
▁qanegos	-14381
▁rechaqt	-14382
▁rejwexk	-14383
▁rekomen	-14384
▁respwes	-14385
▁resurek	-14386
▁sinkwen	-14387
▁tawesáj	-14388
▁teqache	-14389
▁tichaak	-14390
▁tijchak	-14391
▁tikawil	-14392
▁tiqejtá	-14393
▁titikon	-14394
▁tiyesaj	-14395
▁tqatrun	-14396
▁tqatzaq	-14397
▁tqejtaq	-14398
▁trajtik	-14399
▁tretmaj	-14400
▁tzaqoom	-14401
▁usiliya	-14402
▁xatqeej	-14403
▁xchakun	-14404
▁xinkwin	-14405
▁xjjutún	-14406
▁xjusaaj	-14407
▁xmajmaj	-14408
▁xqachom	-14409
▁xqejtaq	-14410
▁xtaqont	-14411
▁xtzaqat	-14412
ajtintaqa	-14413
akostumbr	-14414
aldisyaad	-14415
erensiyar	-14416
faksyonaq	-14417
formasyon	-14418
guramente	-14419
ikopteros	-14420
inkamsaji	-14421
isipalida	-14422
iyerkoles	-14423
maajchiki	-14424
ochoochaq	-14425
ostumbraq	-14426
qatilmiit	-14427
rajuwexik	-14428
relijiyon	-14429
tikaneyna	-14430
toretaqch	-14431
urtyembre	-14432
yimiyento	-14433
▁Xijpomaj	-14434
▁aatchaak	-14435
▁ajwakatn	-14436
▁ajwaktén	-14437
▁alajwers	-14438
▁aliberta	-14439
▁beyntikw	-14440
▁bwenisim	-14441
▁chijchaq	-14442
▁chirchoo	-14443
▁chomrsan	-14444
▁chomrsán	-14445
▁desesper	-14446
▁diyaketz	-14447
▁diyakwer	-14448
▁impalaab	-14449
▁jurchuch	-14450
▁kabalmne	-14451
▁karreter	-14452
▁kontamin	-14453
▁lajinwár	-14454
▁makomiik	-14455
▁mansanil	-14456
▁primeram	-14457
▁qatiyemp	-14458
▁relijyos	-14459
▁siguamon	-14460
▁teknoloj	-14461
▁tempwers	-14462
▁tichakuj	-14463
▁tichikon	-14464
▁tijkojat	-14465
▁tikankoj	-14466
▁tqajurer	-14467
▁xatchaak	-14468
▁xijpomaj	-14469
▁xmolkoch	-14470
▁xojchaak	-14471
▁xtaqontá	-14472
▁xtawchik	-14473
chakujtaqa	-14474
ferensiyar	-14475
▁Awsiliyad	-14476
▁Xinkojoon	-14477
▁extranjer	-14478
▁komersyan	-14479
▁kosolkooj	-14480
▁qapersoon	-14481
▁rinsiyens	-14482
▁tchaqmaaj	-14483
▁tijkojate	-14484
▁tijsolaaj	-14485
▁xinkamsaj	-14486
▁xintijojw	-14487
▁xjurchuch	-14488
refaksyonaq	-14489
unisipalida	-14490
▁cheqejchaq	-14491
▁tempwersij	-14492
ganisasiones	-14493
▁bendesidtaq	-14494
▁	-14495
a	-14496
i	-14497
'	-14498
e	-14499
n	-14500
t	-14501
j	-14502
k	-14503
o	-14504
r	-14505
q	-14506
l	-14507
h	-14508
c	-14509
,	-14510
w	-14511
u	-14512
m	-14513
s	-14514
b	-14515
.	-14516
x	-14517
y	-14518
p	-14519
z	-14520
d	-14521
I	-14522
T	-14523
á	-14524
P	-14525
ó	-14526
g	-14527
X	-14528
K	-14529
J	-14530
R	-14531
A	-14532
N	-14533
B	-14534
L	-14535
é	-14536
S	-14537
D	-14538
M	-14539
C	-14540
f	-14541
E	-14542
?	-14543
í	-14544
¿	-14545
W	-14546
O	-14547
Y	-14548
ñ	-14549
ú	-14550
U	-14551
!	-14552
