<unk>	0
<s>	0
</s>	0
'	-1.78786
,	-2.86905
.	-3.2881
▁taq	-4.14983
▁li	-4.20649
▁	-4.21755
▁re	-4.27184
b	-4.30325
▁ta	-4.49203
i	-4.58572
▁cha	-4.5884
▁k	-4.61098
n	-4.61461
▁ri	-4.66503
▁jun	-4.78752
e	-4.90195
▁wi	-4.90287
▁b	-4.9088
a	-4.94636
'.	-5.00382
▁ra	-5.02469
▁man	-5.07094
▁I	-5.11899
l	-5.15869
▁chi	-5.18806
an	-5.20519
▁q	-5.33396
▁t	-5.38305
▁i	-5.41817
',	-5.43714
ij	-5.46416
k	-5.47395
▁chik	-5.49546
▁chaq	-5.51614
▁qe	-5.53514
▁ya	-5.59556
iij	-5.60753
j	-5.61145
▁ke	-5.65663
aq	-5.68039
ik	-5.75924
ab	-5.82875
o	-5.85248
▁iin	-5.87211
q	-5.90129
aj	-5.99768
▁neen	-6.01769
u	-6.02661
▁wunaq	-6.03195
▁x	-6.03814
▁anm	-6.0732
▁lajori	-6.1155
ch	-6.11676
il	-6.12096
w	-6.13555
laj	-6.1458
▁jb	-6.14787
▁la	-6.18274
▁ooj	-6.19211
▁tij	-6.19828
▁in	-6.1991
▁ti	-6.21852
▁xk	-6.22606
▁ch	-6.23229
▁kla	-6.26589
▁tren	-6.26653
▁oj	-6.26761
▁kom	-6.27227
▁maq	-6.27261
▁na	-6.27371
▁jwi	-6.27578
▁j	-6.27761
▁rik	-6.29365
▁xe	-6.30392
▁pwes	-6.32569
▁si	-6.34442
▁kita	-6.35016
el	-6.35922
▁Per	-6.4254
▁che	-6.42541
▁juun	-6.43156
am	-6.43429
▁chiki	-6.43873
ex	-6.46057
▁laq	-6.46147
ib	-6.50847
▁Ta	-6.51113
▁ab	-6.53247
▁tra	-6.54117
▁chee	-6.54639
y	-6.55026
▁sik	-6.55703
▁rk	-6.56087
▁per	-6.58654
▁Ri	-6.58959
▁tqa	-6.59588
oq	-6.60635
▁a	-6.611
▁chuch	-6.63025
▁xen	-6.6622
▁lo	-6.69203
▁ánm	-6.69383
▁laj	-6.69858
▁xi	-6.70884
▁aat	-6.71029
▁tz	-6.71608
x	-6.72065
▁A	-6.72179
▁ma	-6.72627
▁xaq	-6.74806
▁rechaq	-6.74872
r	-6.75745
anik	-6.77674
▁xpe	-6.7811
▁ójor	-6.79503
▁ja	-6.79992
▁ki	-6.82075
▁qa	-6.82469
is	-6.82624
▁nim	-6.8345
▁kwand	-6.83505
▁mas	-6.85536
▁juntir	-6.8609
al	-6.86687
seb	-6.87094
▁xin	-6.8761
▁jaa	-6.88089
▁chij	-6.88349
▁ji	-6.88457
▁jwich	-6.88615
▁tcha	-6.9025
▁qaaj	-6.90505
ta	-6.91479
ee	-6.91654
▁ree	-6.91759
▁jq	-6.91845
▁o	-6.9267
chki	-6.93082
▁xok	-6.95626
laaj	-6.98166
▁¿	-6.98177
▁no	-6.99503
?	-6.99549
▁r	-7.00209
ub	-7.00296
▁Toos	-7.02166
▁chaak	-7.02347
▁jinon	-7.02367
▁pork	-7.02637
▁xij	-7.03161
s	-7.03509
▁Baay	-7.03547
▁wákix	-7.03609
▁non	-7.03725
aa	-7.06551
in	-7.06649
ek	-7.0763
▁raj	-7.0803
▁nen	-7.08679
es	-7.08894
▁niri	-7.09139
▁loke	-7.09292
▁K	-7.09293
▁chawe	-7.09404
▁tin	-7.09564
▁ka	-7.10636
t	-7.11446
saj	-7.12943
▁juntiir	-7.13534
▁tzi	-7.1425
▁por	-7.14327
it	-7.14381
tqa	-7.1721
▁xkan	-7.17535
li	-7.17763
▁qaqaaj	-7.18181
▁baa	-7.18412
▁l	-7.19689
▁kristyan	-7.19723
▁chwe	-7.19986
▁at	-7.23249
ok	-7.24681
▁T	-7.25625
iin	-7.25632
▁Tons	-7.25909
oj	-7.25996
▁xtaw	-7.26482
en	-7.27969
▁jqaaj	-7.28236
▁kwa	-7.28614
▁ójr	-7.298
▁Diyoos	-7.29805
ék	-7.31739
▁aj	-7.32945
▁Wi	-7.33361
▁jk	-7.36111
▁nik	-7.36379
er	-7.36653
ej	-7.37499
nb	-7.37585
▁Ji	-7.38003
la	-7.39594
re	-7.4008
▁kompayr	-7.40554
▁moo	-7.40716
▁lojori	-7.41037
ke	-7.41045
▁tril	-7.41581
on	-7.41717
▁taat	-7.42141
▁y	-7.42736
▁tziij	-7.42738
uli	-7.4429
▁Pork	-7.45359
▁inb	-7.46277
▁qawinaaq	-7.47157
▁B	-7.47176
▁mre	-7.47308
▁qas	-7.47931
▁ni	-7.48139
ruk	-7.48189
▁Ya	-7.48568
laq	-7.48727
ye	-7.48867
▁rij	-7.49027
▁xq	-7.49322
▁usil	-7.49339
▁Si	-7.4973
lb	-7.54901
aab	-7.55009
▁uleew	-7.56093
iix	-7.56925
▁Che	-7.57163
ol	-7.57892
▁kwando	-7.59035
iq	-7.59486
▁we	-7.59938
aaj	-7.60188
ax	-7.61326
▁ne	-7.61782
▁X	-7.62528
▁tijye	-7.63524
jb	-7.63706
▁komo	-7.63718
▁Re	-7.64146
▁de	-7.64689
▁tik	-7.65075
▁jo	-7.65389
▁qus	-7.65556
▁Jaan	-7.65654
tz	-7.65947
▁qleen	-7.68152
▁mejor	-7.70938
taq	-7.70951
▁lamaas	-7.70978
▁tzii	-7.71024
▁xoj	-7.71066
▁saq	-7.71158
ar	-7.71744
▁xa	-7.72135
▁xqa	-7.73745
▁jwiich	-7.7382
▁nab	-7.74337
▁jno	-7.74365
▁ril	-7.74533
▁ek	-7.74758
▁Kom	-7.75862
ii	-7.7607
iche	-7.76379
▁riij	-7.76525
▁Kwand	-7.76595
▁Neen	-7.76715
eb	-7.76735
qab	-7.76824
▁le	-7.7689
▁tijtij	-7.77369
▁p	-7.78134
▁tijin	-7.7862
▁qel	-7.79088
▁Lajori	-7.7912
▁sach	-7.79954
▁tran	-7.79989
▁O	-7.79991
▁jch	-7.80077
▁No	-7.80102
▁tq	-7.81136
▁xan	-7.81219
iy	-7.81837
▁aq	-7.82054
▁qachuuch	-7.82074
▁jchuuch	-7.82093
▁tijkoj	-7.8256
iik	-7.82689
▁Noo	-7.83071
▁es	-7.83487
▁étzel	-7.85089
▁despwes	-7.85091
xeel	-7.85133
▁m	-7.85179
▁qes	-7.86043
na	-7.86045
▁pero	-7.87331
esel	-7.87958
▁noo	-7.88325
▁alib	-7.88589
▁tche	-7.88921
▁pobr	-7.88975
▁tons	-7.89148
▁bay	-7.89298
ne	-7.89592
at	-7.89843
▁tan	-7.90003
▁xiij	-7.90007
▁wa	-7.90131
▁tijk	-7.90666
▁tk	-7.91257
aaq	-7.91422
et	-7.91445
▁Por	-7.91465
▁titaw	-7.91609
ooy	-7.91622
or	-7.93578
chaq	-7.94333
▁kond	-7.94695
wa	-7.94705
▁po	-7.95025
▁mod	-7.9535
ka	-7.96922
inb	-7.97049
▁wee	-7.98012
▁qamaam	-7.9836
▁Xaq	-7.98894
▁qab	-8.00463
▁ori	-8.01866
▁chuuch	-8.02178
▁kitz	-8.02688
▁Li	-8.034
▁aw	-8.03612
▁J	-8.04182
oo	-8.04386
▁qak	-8.04398
m	-8.05367
!	-8.05456
▁ral	-8.05526
▁lamas	-8.05586
▁chawaj	-8.0569
▁chótix	-8.0572
▁nemoo	-8.05919
▁xye	-8.06182
▁yo	-8.06197
▁pur	-8.0625
aal	-8.06259
aniik	-8.06345
▁tos	-8.06367
▁miij	-8.06802
▁mism	-8.07135
uk	-8.07969
ki	-8.08542
tb	-8.08558
uch	-8.08792
▁Ke	-8.09025
as	-8.09122
▁kabal	-8.09401
▁sii	-8.10349
laal	-8.1061
▁nad	-8.1073
▁tiko	-8.10857
aw	-8.10871
▁jol	-8.1175
▁Tch	-8.12644
inaq	-8.13086
▁Pwes	-8.13331
▁Bay	-8.13411
▁neri	-8.13517
▁jwert	-8.13571
▁iitz	-8.1366
ob	-8.13794
ilaq	-8.13974
▁naa	-8.14442
▁xtij	-8.15368
▁xat	-8.15747
▁tzaq	-8.15764
▁Xe	-8.16154
▁mi	-8.16401
▁petzel	-8.16782
▁juul	-8.17684
aay	-8.179
▁jcholájl	-8.17912
▁wá	-8.18008
▁ux	-8.18267
▁se	-8.18334
aan	-8.18878
▁xink	-8.19001
ák	-8.19261
iil	-8.19869
waal	-8.20863
▁atz	-8.2095
▁ak	-8.21461
omo	-8.21523
▁kab	-8.21546
▁kumetz	-8.21872
▁naq	-8.22168
eek	-8.22183
▁toos	-8.22196
▁telch	-8.22387
eer	-8.22579
isi	-8.22686
amch	-8.23307
▁yaq	-8.2436
▁tiq	-8.24983
▁P	-8.25022
▁tab	-8.25094
ul	-8.25146
ool	-8.25256
jye	-8.25522
▁s	-8.25624
▁xya	-8.2616
▁kuxtar	-8.26399
▁jilon	-8.26452
ichelaaj	-8.26496
▁riliik	-8.26503
▁xpet	-8.26634
▁w	-8.26866
sáj	-8.27106
▁tijya	-8.27228
▁Xpe	-8.27374
▁juru	-8.27385
ojoom	-8.27477
▁tpe	-8.27546
wich	-8.2813
ay	-8.28502
▁awaj	-8.28785
▁sol	-8.30217
un	-8.30338
atz	-8.30499
▁ju	-8.31116
▁teew	-8.31172
▁saber	-8.31174
▁rxóqil	-8.31175
▁tqakoj	-8.31756
ita	-8.33713
▁R	-8.33883
▁xcha	-8.34152
▁xch	-8.34609
▁awi	-8.3471
▁itz	-8.34859
▁jkompayr	-8.35228
▁maj	-8.35447
teqa	-8.355
▁pe	-8.35631
▁teqa	-8.35889
▁kirtyaan	-8.36182
▁xta	-8.36278
▁lwar	-8.36438
▁tqak	-8.36477
▁naad	-8.36558
▁pech	-8.37427
▁tich	-8.37483
▁baay	-8.37593
▁xt	-8.37762
▁jaan	-8.37804
▁M	-8.38145
▁inwi	-8.38208
maj	-8.39449
▁xpee	-8.40176
ya	-8.40197
▁ay	-8.40855
▁aay	-8.40876
▁U	-8.41278
▁ljori	-8.4142
isoon	-8.41453
▁tambyeen	-8.41508
▁San	-8.41514
▁xtaaw	-8.41558
os	-8.42064
▁miix	-8.42128
▁jili	-8.42133
▁xelch	-8.42479
▁taqch	-8.42783
▁Jii	-8.42839
antaj	-8.43584
eti	-8.4369
▁kompayre	-8.44246
▁jnon	-8.44288
om	-8.44465
eej	-8.45168
▁el	-8.45211
▁iik	-8.4534
▁Iin	-8.45731
▁gala	-8.45855
▁entons	-8.45969
▁Entons	-8.45981
rab	-8.46528
▁jii	-8.46672
ux	-8.46935
▁utiiw	-8.46943
▁pwees	-8.47039
▁uchaq	-8.47334
ix	-8.47389
▁pa	-8.47468
▁chu	-8.47497
▁te	-8.47844
▁puu	-8.47867
▁waa	-8.48264
▁n	-8.48629
▁nimaq	-8.49144
▁tqay	-8.4947
non	-8.4962
jor	-8.5006
chep	-8.50959
▁naj	-8.516
▁puwert	-8.51938
▁ajwi	-8.52105
▁witz	-8.52428
▁tijta	-8.52623
▁kristyaan	-8.52838
apooj	-8.52864
▁Ay	-8.53035
ti	-8.53047
▁welt	-8.53072
▁rixóqil	-8.53135
▁qati	-8.53221
▁ajri	-8.53621
naq	-8.53633
▁xkoj	-8.53699
▁tqej	-8.53821
▁jwa	-8.5397
ensaj	-8.54416
▁Ch	-8.54525
uuq	-8.54816
ow	-8.5557
▁qaq	-8.56198
ut	-8.56299
ja	-8.57386
ri	-8.58078
▁Lo	-8.58681
iit	-8.5884
▁awe	-8.58917
▁aañ	-8.59514
▁awas	-8.60165
▁Y	-8.60172
▁Jun	-8.60458
▁xwa	-8.60498
▁Xk	-8.61825
▁koj	-8.61889
▁Tos	-8.62096
▁chuchaq	-8.62298
▁Jo	-8.624
▁mo	-8.62881
▁nada	-8.63055
▁tqat	-8.63439
d	-8.6352
▁raaj	-8.642
▁alg	-8.65399
sik	-8.65454
wi	-8.65632
▁me	-8.65638
▁ixpaqar	-8.65742
▁íchij	-8.65743
▁mjoor	-8.65776
opiin	-8.65779
omoo	-8.65841
▁ranm	-8.6591
▁saqweech	-8.6593
▁benaa	-8.65944
▁derepente	-8.66004
▁en	-8.66696
▁galan	-8.67122
▁tink	-8.67235
▁xl	-8.6731
▁tijtik	-8.67327
oje	-8.67421
nwil	-8.67439
▁rilik	-8.67642
▁tres	-8.67812
ayeej	-8.67953
chi	-8.68331
▁loom	-8.68654
▁bwen	-8.68668
che	-8.69216
ey	-8.6928
▁resaj	-8.69286
jun	-8.69382
▁twil	-8.69706
▁jchi	-8.69848
▁nika	-8.70143
ra	-8.70647
ori	-8.70865
▁mosi	-8.7105
▁xtz	-8.71693
▁paagr	-8.72056
ir	-8.72087
chiki	-8.72141
ejej	-8.72163
▁pee	-8.72241
elch	-8.72655
▁richooch	-8.72797
▁luwaar	-8.72885
▁Dyos	-8.72888
▁atintij	-8.72952
▁jala	-8.72986
▁Entonses	-8.73013
▁dyoos	-8.73095
▁puwaq	-8.73112
▁qach	-8.73147
▁tya	-8.73158
▁Baa	-8.732
▁mat	-8.73222
▁ulew	-8.73298
▁Tij	-8.73852
▁E	-8.73858
▁maa	-8.74801
▁est	-8.7494
yolow	-8.75018
▁uxi	-8.75321
▁kwin	-8.75489
xi	-8.75788
▁Antons	-8.76137
I	-8.76917
▁xqej	-8.77025
taqch	-8.77048
▁xel	-8.77435
▁oko	-8.77553
▁toq	-8.77625
amsaj	-8.78005
ansáj	-8.7809
yo	-8.78188
▁su	-8.7821
▁rechi	-8.78413
▁chuwaj	-8.78457
aam	-8.78661
im	-8.79181
rik	-8.79405
jaq	-8.79445
▁N	-8.80192
▁tiyuq	-8.80538
▁raq	-8.80638
▁chuwe	-8.80723
▁xu	-8.80849
▁qlen	-8.80884
▁lijori	-8.81077
▁boos	-8.81087
▁mari	-8.81142
▁tr	-8.81464
eel	-8.81492
▁pwaq	-8.81795
▁tintij	-8.81929
▁xkam	-8.8211
▁inkwin	-8.82451
▁xna	-8.82483
omol	-8.82951
toke	-8.83218
▁jwaa	-8.83299
len	-8.83312
▁tch	-8.84491
ojoman	-8.8468
▁tika	-8.84691
▁chak	-8.84741
lal	-8.84813
▁taw	-8.85532
▁bes	-8.85604
▁Xi	-8.8664
qe	-8.86679
▁xinta	-8.86821
▁chk	-8.87289
te	-8.8741
▁ink	-8.87723
oor	-8.87723
qa	-8.87755
tik	-8.87853
ooj	-8.88103
▁júnkitz	-8.88911
▁qonojel	-8.88912
▁tambyen	-8.88918
▁dyos	-8.88933
▁kirneer	-8.89005
▁mkita	-8.89012
▁Man	-8.89091
▁utziil	-8.89134
▁tchakun	-8.89171
▁woron	-8.8948
▁xawil	-8.89511
▁lék	-8.89542
▁xijye	-8.89625
▁tel	-8.8981
▁tqatij	-8.89868
▁paagre	-8.89894
omb	-8.89907
▁chib	-8.89977
▁lori	-8.90333
itz	-8.90391
▁tresaj	-8.90567
rka	-8.90717
▁tkan	-8.90913
▁tamb	-8.90933
▁ritz	-8.90946
▁ticha	-8.90995
▁uk	-8.91251
▁tatij	-8.91285
▁qawi	-8.91424
▁tye	-8.91436
kot	-8.91622
kamby	-8.917
▁kin	-8.92018
▁kon	-8.92743
▁Oj	-8.92758
▁qi	-8.9337
ji	-8.93541
▁oor	-8.95683
▁Aj	-8.95834
▁rex	-8.96063
mas	-8.96097
p	-8.96191
▁Ti	-8.96685
▁awá	-8.96703
padre	-8.97028
▁Rk	-8.97155
wal	-8.97517
▁xqak	-8.97709
▁talb	-8.97711
▁Xen	-8.97902
▁kistyan	-8.98001
▁tiyoox	-8.98001
▁Despwes	-8.98002
▁ójir	-8.98004
▁dyunabes	-8.98012
▁wron	-8.98013
▁abono	-8.98027
▁Usil	-8.98039
▁inchuuch	-8.98054
▁yajeel	-8.98123
▁wooj	-8.98125
▁bween	-8.98126
▁chwaaj	-8.98134
ojool	-8.9818
▁don	-8.98222
▁Xtaw	-8.98299
▁kwent	-8.98483
▁aldeya	-8.98522
▁xyuq	-8.98552
cha	-8.98594
▁Ra	-8.98651
▁pores	-8.9892
ila	-8.9896
▁jpat	-8.9915
▁Mas	-8.9943
ute	-8.99513
▁qaja	-8.99734
lk	-8.99922
▁wet	-9.00455
▁Pe	-9.00459
▁xkwin	-9.00699
▁Ne	-9.01237
uj	-9.0174
▁xinch	-9.01867
▁Ma	-9.01962
▁wen	-9.02296
▁Entoon	-9.02488
amol	-9.02513
▁awana	-9.02856
▁or	-9.02872
▁ini	-9.02961
▁Tose	-9.03594
nik	-9.03869
▁pi	-9.03875
etze	-9.03985
etz	-9.04142
▁At	-9.04148
ajch	-9.04291
enow	-9.04402
olb	-9.04486
▁chwee	-9.05752
up	-9.05897
ayaaj	-9.06176
▁xuq	-9.06347
lon	-9.06569
iis	-9.06739
▁tiye	-9.0675
▁Se	-9.06903
ali	-9.07203
chik	-9.07539
une	-9.07664
▁kwalkyer	-9.08002
▁luwar	-9.08002
▁xlatun	-9.08003
ayr	-9.0801
▁weyin	-9.0801
▁inpat	-9.08018
▁Ntons	-9.08019
▁qatz	-9.08048
▁mund	-9.08049
▁qaldeya	-9.08093
▁niim	-9.08114
▁xkaj	-9.08151
▁swaan	-9.08208
▁inqaaj	-9.0823
▁Aa	-9.0825
art	-9.08258
▁tijch	-9.08383
▁xilij	-9.08385
▁awaaj	-9.08429
▁koom	-9.08504
▁jchaak	-9.08677
▁qaaw	-9.08835
▁xuker	-9.0893
▁Xok	-9.08971
▁tyuq	-9.09066
▁xtok	-9.09125
▁iglesya	-9.09179
▁xwil	-9.09321
▁xtzaq	-9.09361
nuch	-9.0945
taqa	-9.09574
▁antons	-9.09864
mol	-9.0999
mb	-9.09998
▁tiqa	-9.10133
▁naji	-9.1061
onaj	-9.10729
aat	-9.10885
▁tqach	-9.10979
▁tqil	-9.10986
▁ko	-9.10995
▁wk	-9.12243
▁e	-9.12264
kita	-9.12273
▁las	-9.12573
▁jal	-9.1259
▁ok	-9.13081
maam	-9.13231
▁Tonse	-9.13292
tr	-9.13354
▁jli	-9.13551
▁ku	-9.14138
▁chakun	-9.14189
ad	-9.14196
uy	-9.15059
▁jura	-9.15123
oke	-9.15509
ni	-9.15531
ralaj	-9.15793
▁tijt	-9.15819
eet	-9.16223
▁Chee	-9.16245
moo	-9.16322
▁tant	-9.16348
qasaj	-9.16994
ur	-9.17473
▁naaj	-9.17623
▁kompadr	-9.18258
▁wuk	-9.18507
um	-9.18693
▁Rik	-9.18858
▁Isidr	-9.19112
▁frofesor	-9.19112
▁prosesyon	-9.19112
▁Lamaas	-9.19122
▁syempr	-9.19125
▁Saber	-9.19129
▁Juntir	-9.19131
▁qayolj	-9.19133
▁tuuj	-9.19138
▁imul	-9.19158
▁kirtyan	-9.1916
▁xqeejch	-9.19188
▁poom	-9.19234
▁enkes	-9.19247
▁rqan	-9.19311
▁mees	-9.19335
▁istorya	-9.19388
▁ketzal	-9.19447
▁kabaal	-9.19456
▁awanm	-9.19499
▁biyeen	-9.19545
▁xilj	-9.19555
▁lugar	-9.19736
▁xmaj	-9.19851
▁L	-9.19986
▁chek	-9.2012
▁u	-9.2024
▁Oo	-9.20324
▁para	-9.2036
atzan	-9.20398
▁xinw	-9.20681
ach	-9.21039
utun	-9.21123
ook	-9.22021
▁pobre	-9.22183
▁tipet	-9.22258
ak	-9.22523
▁Ki	-9.22529
▁Jwi	-9.22795
▁rejwex	-9.22838
oril	-9.22891
saaj	-9.23241
▁sey	-9.2365
▁tyemp	-9.24049
▁kan	-9.2414
qane	-9.24199
ame	-9.24484
▁jwichaq	-9.24641
▁tiki	-9.24659
▁chich	-9.24729
▁pasa	-9.25085
▁kaa	-9.25131
joor	-9.25358
ooq	-9.25408
▁ataq	-9.2563
▁xii	-9.25949
▁lon	-9.25968
pent	-9.26589
exi	-9.26833
▁diyunab	-9.26852
▁juwi	-9.27123
▁Xij	-9.27361
maq	-9.27567
▁reqa	-9.27999
▁sa	-9.28164
kwa	-9.28477
atzij	-9.28519
koj	-9.29646
ene	-9.30252
▁il	-9.30343
▁wetaam	-9.30373
▁kas	-9.30621
▁S	-9.30625
á	-9.30718
▁oombr	-9.30761
▁mis	-9.31013
▁jtzi	-9.31108
amiik	-9.31258
ane	-9.31461
▁xílij	-9.31613
▁fijate	-9.31614
▁jamali	-9.31614
▁pongamos	-9.31614
▁kongan	-9.31616
▁pensar	-9.31626
▁qatilmit	-9.31629
▁sewr	-9.3163
▁chimeel	-9.31635
▁rupiis	-9.31637
▁años	-9.3164
▁mokom	-9.31644
▁tkojon	-9.31656
▁jcholaaj	-9.31677
echelaaj	-9.31687
▁lékej	-9.31709
▁poop	-9.31738
▁chusil	-9.31744
▁tichakun	-9.3183
▁jpetik	-9.31833
▁mood	-9.31862
▁xyu	-9.31906
▁xmol	-9.31952
▁tiyolow	-9.32018
▁jcholájk	-9.32116
▁xinpe	-9.32248
▁jyu	-9.32251
▁Keel	-9.32485
▁Tosee	-9.32996
maas	-9.3305
▁Chi	-9.33223
▁tikam	-9.3329
▁xkaan	-9.33315
▁xqejch	-9.33966
kuxtaj	-9.34006
▁titz	-9.34009
▁ajiij	-9.34052
ent	-9.34232
wer	-9.34285
▁kuy	-9.34551
▁pu	-9.34584
▁xojk	-9.35476
▁jsu	-9.35622
tin	-9.36386
ril	-9.36543
▁xeel	-9.36842
amech	-9.369
ú	-9.37074
pe	-9.37181
itik	-9.38
yesaj	-9.38046
are	-9.39435
ko	-9.3987
ana	-9.4034
oos	-9.40524
tzel	-9.40903
▁qee	-9.411
le	-9.41242
▁En	-9.41574
▁taye	-9.42294
▁xil	-9.42428
▁tu	-9.42756
oto	-9.42825
eq	-9.43371
tib	-9.43439
▁rech	-9.44145
▁tijtz	-9.44585
▁jcholáj	-9.44717
▁di	-9.44761
▁In	-9.44774
▁woro	-9.44957
tiw	-9.44963
jwexki	-9.45035
▁diya	-9.45119
▁tyu	-9.45521
▁rchoch	-9.45556
▁chirij	-9.45578
▁Tawen	-9.45592
anow	-9.45819
▁Leandro	-9.45898
▁tyoox	-9.45899
▁lwaar	-9.45899
▁laguniit	-9.45899
▁seguir	-9.45901
▁Pinal	-9.45901
▁chuwij	-9.45904
▁asiyar	-9.45914
anuuj	-9.45919
▁jiloon	-9.45923
▁Lupaa	-9.45928
▁qapoop	-9.45939
▁inmak	-9.4594
▁tijeem	-9.45942
▁qupiis	-9.45949
▁tzij	-9.45975
koot	-9.46015
▁Nabit	-9.46087
▁tijyol	-9.46087
▁xyuuq	-9.46142
▁entonses	-9.46192
▁xinkamsaaj	-9.46231
▁Dyoos	-9.46272
▁pix	-9.46272
▁tziyin	-9.46324
▁ach	-9.46492
▁nikare	-9.46524
▁tinkoj	-9.4656
▁xook	-9.46596
sa	-9.46613
▁jcholajl	-9.46623
▁ajki	-9.46735
ajool	-9.46744
▁Bwen	-9.46787
▁oombre	-9.46911
▁tisach	-9.46963
▁ntons	-9.4701
▁aqaaj	-9.47052
desir	-9.47093
nt	-9.47161
▁kiitz	-9.47171
▁repent	-9.47303
▁wetam	-9.47332
ison	-9.47344
▁xqach	-9.47417
▁oom	-9.47571
▁qaxo	-9.47616
▁qame	-9.47724
▁kompadre	-9.47738
▁tipe	-9.47849
ekik	-9.47929
▁xtik	-9.48274
▁ilan	-9.48296
▁xak	-9.4835
▁qetam	-9.49039
iji	-9.49222
▁mes	-9.49419
▁juj	-9.49518
▁Me	-9.49816
elk	-9.49858
▁al	-9.50088
ijin	-9.50133
kwiin	-9.50265
ojyolow	-9.50382
sey	-9.51007
▁jkoj	-9.5123
▁wan	-9.51326
ren	-9.51419
tij	-9.51882
▁retam	-9.51908
ras	-9.52264
lik	-9.5235
▁Xin	-9.52504
▁xqil	-9.5262
kuwin	-9.52973
▁La	-9.53176
omsaj	-9.53337
▁inch	-9.53743
ojeel	-9.53944
▁Ajwi	-9.54334
nojel	-9.54366
awi	-9.5463
▁Or	-9.54877
las	-9.55065
▁Po	-9.55156
wila	-9.55503
▁kil	-9.55855
▁chikch	-9.55898
yeen	-9.55966
maaj	-9.56326
ama	-9.56329
▁qaw	-9.56656
ada	-9.56913
rib	-9.57033
▁kij	-9.57128
▁ati	-9.57339
▁tijq	-9.57375
apij	-9.57784
▁petzelki	-9.58002
▁rtz	-9.58197
▁eel	-9.58428
▁tak	-9.5903
▁Xqa	-9.59879
wch	-9.61004
eche	-9.61014
▁leskwel	-9.61285
▁eskwel	-9.61421
▁kandel	-9.61537
ons	-9.61991
ech	-9.6214
▁karet	-9.62144
▁Tich	-9.6232
▁Isigr	-9.62565
▁Oswaldo	-9.62565
▁Pinaal	-9.62565
ijme	-9.62566
▁Lojori	-9.62575
antzu	-9.62578
▁kabalmente	-9.62579
▁Kond	-9.62579
▁Niri	-9.62585
▁ladentr	-9.62588
▁añ	-9.62593
▁beneno	-9.62601
▁Balo	-9.62613
▁perder	-9.62615
▁Jwan	-9.62637
▁dyes	-9.62668
▁awaas	-9.62687
▁wákx	-9.62691
▁awetam	-9.62702
▁intz	-9.62726
aslema	-9.62732
▁oxlaju	-9.6278
▁qeselch	-9.62837
▁xnatun	-9.62842
▁list	-9.6287
▁xtzek	-9.62871
▁Liya	-9.62917
▁peen	-9.62922
▁utzil	-9.62927
▁meex	-9.62952
ich	-9.63018
▁tanyol	-9.63093
▁tilmit	-9.63123
▁aanm	-9.63151
▁qalo	-9.63242
▁jwers	-9.63311
▁kandela	-9.63622
▁xqan	-9.63644
▁konto	-9.63798
tub	-9.63851
eta	-9.64014
▁qawch	-9.64165
▁xpeti	-9.64245
▁Ju	-9.6427
▁tawil	-9.6442
▁rchooch	-9.6445
▁wetaami	-9.64567
▁qatzi	-9.64802
resaj	-9.64859
tob	-9.65039
▁Jnon	-9.65459
▁peech	-9.65491
onli	-9.65645
▁xpep	-9.65742
▁mu	-9.65927
▁awee	-9.65984
me	-9.66017
iich	-9.66116
▁xo	-9.66266
▁byeen	-9.66353
▁tene	-9.66362
▁ojkwin	-9.66563
▁int	-9.6659
▁aber	-9.66928
man	-9.67342
astaj	-9.67661
iyeq	-9.67736
▁xp	-9.6781
Ne	-9.67821
▁xik	-9.68117
natun	-9.68224
▁tok	-9.68269
se	-9.68473
▁Tz	-9.6862
aaw	-9.68791
oon	-9.69037
olaq	-9.69088
sii	-9.6986
ayaj	-9.69991
▁Wa	-9.70258
taw	-9.70548
yen	-9.70851
▁petzelk	-9.71092
entaaj	-9.71368
amb	-9.71882
▁D	-9.71963
uun	-9.72092
saq	-9.72117
▁wile	-9.72411
▁kins	-9.72492
▁ba	-9.72658
si	-9.72883
ew	-9.72992
ire	-9.73478
chomrsan	-9.7387
achee	-9.73985
▁xijk	-9.74018
chula	-9.74199
untiir	-9.74474
▁chijx	-9.74973
inyol	-9.75045
anal	-9.7506
▁jee	-9.75109
jop	-9.75494
▁tiny	-9.75613
qaye	-9.75665
▁qet	-9.75688
▁siq	-9.75872
án	-9.76103
▁xchap	-9.76185
▁Xq	-9.76325
▁W	-9.76509
kompayr	-9.76667
▁incha	-9.76812
▁Xt	-9.76923
jtzaqe	-9.77116
ayej	-9.7747
▁primer	-9.77548
▁san	-9.77678
xik	-9.77682
tzi	-9.77967
▁qatik	-9.7808
yuq	-9.78512
▁yaj	-9.78696
yor	-9.78778
alaaj	-9.78849
▁tpee	-9.78988
Neen	-9.79072
▁diy	-9.79152
▁xim	-9.79707
yunabes	-9.79898
▁qii	-9.80394
▁retz	-9.80688
ite	-9.80901
▁rii	-9.8108
kwini	-9.81132
ojch	-9.81213
waaj	-9.81454
ijpomaj	-9.81587
▁derepent	-9.81732
▁lajor	-9.8208
▁tanta	-9.82422
▁bendesid	-9.82565
▁Delgaad	-9.82565
▁Miguel	-9.82565
▁sufrir	-9.82565
▁frijil	-9.82565
▁profesor	-9.82565
▁derefent	-9.82565
▁jwebes	-9.82565
▁apart	-9.82566
lojuuj	-9.82566
▁íjij	-9.82566
▁ensay	-9.82567
▁inportuun	-9.82567
▁kastiy	-9.82571
▁qíj	-9.82573
▁kintal	-9.82578
▁inpwaq	-9.82579
▁Matey	-9.82582
▁ketant	-9.82582
▁diyoos	-9.82588
▁jtikiik	-9.82597
▁jpam	-9.82605
▁apuwaq	-9.82611
▁trag	-9.82612
▁ojchakun	-9.82615
▁mir	-9.82668
▁atkwin	-9.82676
▁yoloj	-9.82681
▁Kata	-9.82732
elxik	-9.82746
▁rixoqil	-9.82758
▁tijtzek	-9.82763
▁qalmwers	-9.82792
▁Nimaq	-9.82816
tok	-9.8285
▁kosa	-9.82862
▁tijkuy	-9.82893
▁marita	-9.82935
▁rijiil	-9.82953
▁wanm	-9.83049
▁íchaj	-9.83054
▁puwes	-9.83075
▁Xwa	-9.83134
▁kaxla	-9.83202
▁kanel	-9.83214
▁g	-9.83234
▁Mat	-9.83236
▁tokik	-9.83261
h	-9.83292
▁utzaj	-9.8332
▁Naa	-9.83412
▁tayol	-9.83462
▁naqaaj	-9.83552
▁benta	-9.83639
▁xqaye	-9.83641
▁jmo	-9.83724
▁ombre	-9.83737
tiyempo	-9.83739
▁sachi	-9.8378
▁tiwi	-9.84025
▁petz	-9.84071
▁xpeet	-9.84273
▁sá	-9.84439
antajk	-9.84548
▁Xkan	-9.8463
▁rejwexki	-9.84655
▁mm	-9.84689
▁ant	-9.84695
▁tit	-9.84729
▁jkostumbr	-9.84767
aax	-9.84996
yuuq	-9.85714
chajaj	-9.86653
▁mare	-9.86861
▁chqe	-9.86966
▁tikwin	-9.87009
▁Toon	-9.87604
▁xqakoja	-9.87803
▁yuq	-9.87835
ones	-9.87945
tk	-9.88044
wil	-9.88066
ijtzaqe	-9.88249
▁qat	-9.88396
▁on	-9.88415
no	-9.88906
▁yoos	-9.89085
▁joo	-9.89126
▁yaaj	-9.89305
▁dya	-9.89538
qone	-9.89649
qchooch	-9.8968
▁pet	-9.89688
▁kow	-9.8983
▁keq	-9.89962
yoos	-9.90215
exmaj	-9.90395
▁xijte	-9.90521
▁qane	-9.90692
taqw	-9.91135
▁wat	-9.91812
atij	-9.91829
▁taaw	-9.91998
▁tany	-9.92001
▁xinkamsa	-9.92049
ijsaj	-9.92056
waj	-9.92343
▁keta	-9.92358
▁noon	-9.92581
tika	-9.92622
▁Ro	-9.92714
▁kont	-9.92742
iilaq	-9.93065
omon	-9.9338
tor	-9.93424
▁inq	-9.93787
juraj	-9.93941
▁qakoj	-9.94189
▁mk	-9.94256
▁xwi	-9.94281
atwa	-9.9435
▁ajchaa	-9.94457
▁par	-9.94489
▁tawen	-9.94518
▁sek	-9.94623
▁esta	-9.95033
jel	-9.95131
Aa	-9.95687
▁taqw	-9.95754
tiko	-9.95785
▁kwan	-9.96144
▁ojq	-9.97066
▁mismo	-9.97468
▁á	-9.97615
itaq	-9.97894
ichjil	-9.9803
▁miy	-9.9829
och	-9.98326
aye	-9.98916
▁rejwexi	-9.9893
▁xata	-9.99002
▁noje	-9.99189
aka	-9.99254
iiq	-9.99441
iw	-9.99499
ó	-9.9954
we	-9.99586
lo	-9.99591
myent	-9.99875
▁tob	-9.99934
jaal	-10.0015
▁ten	-10.0049
▁wu	-10.0069
erd	-10.009
enaa	-10.0094
óq	-10.0144
▁tal	-10.0158
▁inti	-10.0239
▁Komo	-10.038
yaq	-10.0396
▁wech	-10.0412
▁tre	-10.0421
▁Tra	-10.0426
nika	-10.0454
ñ	-10.0472
▁jyoli	-10.048
emoo	-10.0482
▁qawa	-10.0506
ojor	-10.0509
Tons	-10.0541
▁beynt	-10.0555
axo	-10.0562
nab	-10.0567
byeen	-10.0619
ika	-10.0623
torik	-10.0635
ot	-10.0643
▁jra	-10.0665
▁ombr	-10.067
maal	-10.0674
juu	-10.0675
tene	-10.068
▁iglesy	-10.0689
ánm	-10.0704
▁jpwaq	-10.0711
pwers	-10.0719
▁jtz	-10.0723
and	-10.0727
▁korti	-10.0736
rtyaan	-10.0747
▁Laguniit	-10.0756
▁kistiyan	-10.0756
▁kureexm	-10.0756
▁likastiy	-10.0756
▁marechtqe	-10.0756
▁sechelkoj	-10.0756
▁Katalina	-10.0756
lujuuj	-10.0757
▁rsmaal	-10.0757
▁ojtokowk	-10.0757
▁fabor	-10.0757
▁kamote	-10.0757
tzij	-10.0757
▁kumpliir	-10.0757
▁xatkojon	-10.0757
▁ajtilmiit	-10.0757
bliga	-10.0757
▁kobrar	-10.0757
▁jkorl	-10.0757
▁nweb	-10.0757
▁kamnaq	-10.0758
oxow	-10.0758
▁inpuch	-10.0758
▁tikojow	-10.0759
▁qapech	-10.076
eselkin	-10.076
▁chweyin	-10.0761
▁Titaw	-10.0762
jch	-10.0762
▁rejwéxik	-10.0762
▁jtayi	-10.0763
▁bonit	-10.0763
alidad	-10.0763
▁diske	-10.0764
▁jpensaraq	-10.0764
ojniik	-10.0764
▁qapalm	-10.0764
▁tretmaaj	-10.0764
▁iglesiy	-10.0766
▁jtakil	-10.0766
▁xuman	-10.0766
▁jtzijaq	-10.0766
▁qataat	-10.0766
▁muuj	-10.0767
áqt	-10.0767
▁jpaam	-10.0769
▁pawl	-10.077
▁qajy	-10.0771
▁qawákix	-10.0773
▁jtzam	-10.0775
▁ojkwiin	-10.0776
▁tikuxtaaj	-10.0777
▁wiitzi	-10.078
▁qawinaq	-10.078
▁kapee	-10.078
▁tilmiit	-10.0781
▁jchótix	-10.0781
▁regidor	-10.0781
▁bwelt	-10.0782
▁tiqejch	-10.0782
▁Miix	-10.0786
▁chapik	-10.0793
▁tijtaaw	-10.0794
▁poni	-10.0795
▁tqamech	-10.0798
▁Ees	-10.0802
▁ajsik	-10.0803
▁tankoj	-10.0804
▁qakafe	-10.0804
▁keske	-10.0807
▁inr	-10.0809
▁chipaaj	-10.0809
▁tatzek	-10.0811
▁jor	-10.0814
▁krus	-10.0814
▁Toor	-10.082
▁donde	-10.0823
▁Kobaan	-10.0824
únik	-10.0826
▁jsaq	-10.0827
▁sipoj	-10.0827
▁xinmaj	-10.0827
▁wichaj	-10.0829
▁purament	-10.0829
tiji	-10.083
▁tiqatij	-10.0835
ojsaj	-10.0842
▁qáw	-10.0842
▁xwer	-10.0846
▁tkwin	-10.0847
▁jyaj	-10.0849
▁inatij	-10.0851
▁retamaq	-10.0855
▁qakum	-10.0857
▁tzuq	-10.0858
▁tsach	-10.0859
▁kostumbre	-10.0865
▁Mari	-10.0869
▁Jika	-10.0872
▁xentaj	-10.0876
ma	-10.0878
▁laad	-10.088
▁saqwech	-10.0882
▁qatilmiit	-10.0882
▁kap	-10.0886
▁tinmit	-10.0889
▁inyuq	-10.09
nibel	-10.09
▁titzaq	-10.0901
sach	-10.0903
kuy	-10.0908
▁tnatun	-10.0912
ant	-10.0914
▁nesy	-10.0916
▁Saq	-10.0921
ochij	-10.094
▁almwers	-10.0947
▁ranmaq	-10.0947
yaje	-10.0964
iych	-10.0973
▁tijtaw	-10.0976
▁maqra	-10.098
derech	-10.0998
▁xijme	-10.1001
▁jt	-10.1002
▁Nad	-10.1019
kamsaj	-10.1021
uw	-10.1025
▁laal	-10.1047
▁Laq	-10.1048
▁wene	-10.1071
▁tuj	-10.1074
▁Xtik	-10.1075
▁torik	-10.1091
▁sobr	-10.1098
lagr	-10.1098
pach	-10.1099
▁trese	-10.112
▁jino	-10.1122
▁rojwex	-10.113
oojch	-10.1138
▁misa	-10.1139
▁tose	-10.115
choch	-10.1163
arsaj	-10.1164
▁xem	-10.1171
▁rijil	-10.1172
▁inat	-10.1172
asi	-10.1173
▁jswert	-10.1185
▁puwerte	-10.1191
nte	-10.1198
▁jka	-10.1241
aje	-10.1245
▁Koom	-10.1254
mal	-10.1256
asro	-10.1257
▁trens	-10.126
ixaq	-10.1269
kantela	-10.128
koni	-10.1307
A	-10.131
▁kare	-10.1325
ees	-10.1331
▁Ril	-10.1333
xaq	-10.1333
jin	-10.1334
▁segun	-10.1345
ili	-10.1354
▁atwi	-10.1377
▁tikoj	-10.1379
roq	-10.1379
▁xpetaq	-10.1381
▁tonse	-10.1405
▁awech	-10.1418
▁Ko	-10.1421
▁kaar	-10.1432
▁Ticha	-10.1455
ón	-10.1469
sil	-10.1496
▁dis	-10.1544
▁dos	-10.1551
▁je	-10.1554
▁chawch	-10.1573
tmaaj	-10.1583
▁tza	-10.159
anm	-10.16
wir	-10.1622
▁tijtzaq	-10.1624
▁ro	-10.1625
▁sim	-10.1631
▁tint	-10.1634
▁sink	-10.1688
▁Nej	-10.1709
▁tank	-10.1733
▁ralaj	-10.1737
▁kesi	-10.1748
▁siyer	-10.1755
▁xinpet	-10.1763
▁miyo	-10.1768
▁Tijk	-10.1786
▁tichaq	-10.1789
▁chaj	-10.179
jmuq	-10.1812
▁qano	-10.1812
▁sal	-10.1819
▁mos	-10.1823
jinon	-10.1833
▁jga	-10.1861
maji	-10.1873
jte	-10.1904
▁keej	-10.1921
▁estaa	-10.1979
▁xte	-10.2036
wen	-10.2038
rchooch	-10.2051
▁Antose	-10.2058
jali	-10.2069
▁kyer	-10.2076
ers	-10.2077
▁tijtok	-10.2119
▁aaw	-10.2141
miin	-10.215
tzaq	-10.2183
nim	-10.2211
í	-10.2222
nen	-10.2232
eeti	-10.2264
▁ní	-10.2291
choochaq	-10.2298
ojomani	-10.2303
▁d	-10.2329
wu	-10.2408
▁riy	-10.2448
▁yame	-10.2449
ntzaq	-10.2469
to	-10.2486
▁Antos	-10.2537
tijoj	-10.2555
▁xku	-10.2568
ure	-10.2572
▁inpe	-10.2572
iya	-10.2589
ap	-10.2601
chaakun	-10.2601
▁xintij	-10.2604
rse	-10.2613
yer	-10.2616
▁qap	-10.2628
▁jchuch	-10.2631
ome	-10.2638
pomaj	-10.2638
▁Tr	-10.2656
▁toj	-10.2668
jeel	-10.27
▁temp	-10.272
qasajik	-10.2732
▁tijna	-10.2738
yeq	-10.2782
▁xtza	-10.2801
amsáj	-10.2835
jik	-10.2868
wile	-10.2888
▁To	-10.2896
▁jkol	-10.2904
▁mij	-10.291
táq	-10.2931
▁tzek	-10.2933
▁Tiq	-10.2951
qaya	-10.2972
▁jkaa	-10.3023
een	-10.3049
exik	-10.3051
▁ante	-10.3069
kejaj	-10.3101
tzaj	-10.3111
▁Ajri	-10.3149
▁tanch	-10.3151
▁rigles	-10.3155
ween	-10.3179
▁tzak	-10.3189
ola	-10.3191
nke	-10.3207
tra	-10.3235
▁tikan	-10.3238
qaj	-10.3238
▁titik	-10.3271
▁jtaq	-10.3274
▁tral	-10.3302
byen	-10.3343
▁Xpee	-10.3367
qaxo	-10.3369
kojoon	-10.3402
▁apen	-10.3409
kix	-10.3409
dose	-10.3423
naa	-10.3437
neen	-10.344
é	-10.3449
▁aki	-10.3464
▁pun	-10.3473
▁tiw	-10.356
ntonses	-10.3591
▁tiqej	-10.3592
nsolaj	-10.3616
▁uka	-10.3676
Ee	-10.3738
qachep	-10.3738
▁sant	-10.3749
xuker	-10.3752
▁nij	-10.3758
'?	-10.3785
wákix	-10.382
miix	-10.3824
sajch	-10.3844
siik	-10.3845
▁Xche	-10.3846
▁tek	-10.3851
rox	-10.3862
▁tiqati	-10.3868
▁jbid	-10.3874
▁nii	-10.3882
▁mula	-10.3901
▁num	-10.3921
tyemp	-10.3937
▁Abr	-10.3969
sol	-10.398
▁pal	-10.3987
ilin	-10.3993
▁Ja	-10.4023
▁tziyi	-10.4025
▁qapwa	-10.4054
▁jkaret	-10.4054
aslem	-10.4056
akú	-10.4066
▁tikoker	-10.4077
qik	-10.4085
▁alegr	-10.4085
mpediid	-10.409
▁ejemplo	-10.409
▁malanga	-10.409
▁qadesayun	-10.409
▁qakapasida	-10.409
▁qarajuwexik	-10.409
ospita	-10.409
▁jrespet	-10.409
▁rechejiil	-10.409
▁rexóql	-10.409
▁tqejtaqach	-10.409
▁Derepent	-10.409
▁Eskweel	-10.409
▁alkald	-10.409
▁usilyatur	-10.409
▁miism	-10.409
▁Kalaam	-10.409
▁stuw	-10.409
▁jpooma	-10.409
ajtaqa	-10.409
▁tichikoni	-10.409
▁aproba	-10.409
▁tichokon	-10.409
▁bendesir	-10.409
▁tijsech	-10.409
▁richijil	-10.409
▁baldiyo	-10.409
elxiik	-10.4091
▁respetar	-10.4091
▁kastigar	-10.4091
▁mansaniiy	-10.4091
▁wuchooch	-10.4091
▁rawaas	-10.4091
▁ajr	-10.4092
▁chapka	-10.4092
regla	-10.4092
▁belori	-10.4092
aqónik	-10.4093
▁jxaar	-10.4093
▁kimik	-10.4093
iyikaq	-10.4093
oqtaaj	-10.4094
▁awriyent	-10.4094
▁Tabiyeen	-10.4094
▁xatpeet	-10.4094
▁bolber	-10.4095
▁Kabaal	-10.4095
▁juwert	-10.4095
▁qesélch	-10.4097
▁tqatzek	-10.4098
▁awxóqil	-10.4098
▁titaqsaj	-10.4098
▁jpech	-10.4099
▁kerneer	-10.41
ejkaq	-10.41
▁awetzel	-10.4101
▁jeqe	-10.4101
▁kantin	-10.4101
▁chajal	-10.4103
ojomaan	-10.4104
▁xojkojoon	-10.4104
▁troqtaj	-10.4106
▁jcholajil	-10.4106
▁Oken	-10.4108
▁xkamsaaj	-10.4109
▁Petzel	-10.411
▁fuer	-10.411
▁bendisyon	-10.411
élk	-10.4111
▁berda	-10.4112
▁tikojoon	-10.4115
eleje	-10.4116
▁restudy	-10.4116
▁lastima	-10.4117
▁Xinpe	-10.4118
chapón	-10.4119
▁cheqejch	-10.412
forma	-10.4121
▁qachaak	-10.4122
▁tqatiq	-10.4122
chijiil	-10.4125
▁tpet	-10.4127
lajwers	-10.4127
▁qamak	-10.4129
▁tachap	-10.4129
asaaj	-10.413
▁titaaw	-10.4131
▁qames	-10.4133
▁Xmaj	-10.4133
▁osey	-10.4134
uul	-10.4135
▁qapwaq	-10.4136
▁tqakuy	-10.4136
▁tijkuxtaj	-10.4137
rajpech	-10.4138
▁Segur	-10.4138
▁jkaretaq	-10.4139
▁qache	-10.414
▁triil	-10.414
▁Esk	-10.4143
▁chwij	-10.4143
▁chralaaj	-10.4144
▁inchakun	-10.4145
▁luus	-10.4146
▁komersiyant	-10.4146
▁sinko	-10.4147
▁kirner	-10.4149
▁ichaaj	-10.4152
▁tansik	-10.4155
▁karo	-10.4156
▁Ooy	-10.4158
▁xraq	-10.4159
▁Tq	-10.416
▁jpwaqaq	-10.4162
▁brink	-10.4164
▁xniman	-10.4167
▁tinatun	-10.4168
▁suwaan	-10.4171
usiliyar	-10.4173
▁xqachol	-10.4175
so	-10.4176
▁patron	-10.4176
▁makata	-10.4177
▁jurchuchu	-10.418
▁orasiyon	-10.4181
▁Xintz	-10.4182
▁kwatro	-10.4182
▁Entose	-10.4184
▁Awaj	-10.4185
▁jcho	-10.4187
xóqil	-10.4187
▁tiqaye	-10.4189
solaj	-10.419
▁xkojsaj	-10.4192
▁aqaajaq	-10.4193
▁tqeej	-10.4195
insiyens	-10.4197
▁chomorsaj	-10.4198
▁Sach	-10.4201
▁wijaal	-10.4209
▁tijiniin	-10.4209
▁wqan	-10.421
▁xmulaj	-10.4211
pul	-10.4213
▁rchochaq	-10.4217
▁De	-10.4217
alom	-10.4224
▁kometz	-10.4224
▁kostumbr	-10.4225
▁lom	-10.4227
uniik	-10.4228
▁kato	-10.4231
okix	-10.4238
ík	-10.4238
etu	-10.4241
▁Xpet	-10.4245
▁Tre	-10.4247
▁ikim	-10.425
▁tqesaj	-10.4252
▁xjusa	-10.4261
▁tajkiil	-10.4262
áq	-10.4264
▁Sol	-10.4265
▁tamal	-10.4267
umu	-10.4268
▁xqatij	-10.427
▁inmoo	-10.4273
▁f	-10.4278
iiych	-10.4279
uq	-10.4284
▁Kont	-10.4285
▁chikech	-10.4291
elw	-10.4291
apil	-10.4292
▁Sant	-10.4293
▁xaw	-10.4299
▁xintijoj	-10.4303
qaaj	-10.4309
▁Maka	-10.4314
enowk	-10.4315
retera	-10.432
▁xqata	-10.4335
▁richoch	-10.4337
▁eskwela	-10.4344
▁trel	-10.435
▁tinima	-10.4356
▁tiqil	-10.4366
▁algo	-10.4378
▁chawij	-10.4379
▁awetaam	-10.4381
wá	-10.441
ajmaj	-10.4419
▁pobril	-10.4424
▁sut	-10.443
▁Wen	-10.4432
▁tam	-10.4436
▁yolik	-10.4446
▁kú	-10.4448
▁lajw	-10.4451
▁Par	-10.4451
▁mont	-10.4463
▁woj	-10.4479
san	-10.448
qle	-10.4483
▁é	-10.4498
saji	-10.4499
ani	-10.4506
▁xooj	-10.4506
qeej	-10.4515
lex	-10.4519
▁Xtz	-10.4523
▁kar	-10.4528
chooch	-10.4538
chapiik	-10.4549
jsaj	-10.455
▁jme	-10.4553
tokow	-10.4561
cheqej	-10.4579
olal	-10.4581
▁moos	-10.4582
▁Chaj	-10.4582
▁uch	-10.4585
▁peet	-10.4588
▁í	-10.4603
▁kw	-10.4606
der	-10.4609
ajiik	-10.4621
▁rajwex	-10.4626
▁Xkaj	-10.4639
chapon	-10.4665
iyeen	-10.4669
alib	-10.4675
iyer	-10.4676
taam	-10.4688
yempr	-10.4698
jtz	-10.4703
▁Entonse	-10.4714
▁part	-10.4717
▁entonse	-10.4724
▁Nim	-10.4735
▁Las	-10.475
▁chawil	-10.4754
axi	-10.4781
▁pwert	-10.4789
yu	-10.4797
▁ojt	-10.4799
iiy	-10.4801
ter	-10.4801
ijte	-10.4803
▁teqati	-10.482
▁abre	-10.484
▁ee	-10.4857
enam	-10.4863
▁tnatu	-10.4885
▁jx	-10.4934
petik	-10.4956
mi	-10.4966
▁chiqe	-10.4991
adr	-10.4999
▁xatij	-10.5013
▁kye	-10.5021
▁Ajs	-10.5031
onaq	-10.5037
ejch	-10.5043
▁titzi	-10.5046
ment	-10.5062
alaj	-10.5065
▁Chu	-10.5123
▁jtik	-10.5127
ini	-10.513
onar	-10.5163
▁xpew	-10.5177
walk	-10.518
ran	-10.5201
qchoch	-10.5209
wetam	-10.521
▁Ku	-10.5237
▁segur	-10.5239
tzan	-10.5249
yik	-10.5269
ose	-10.528
semiy	-10.5295
eem	-10.5303
inch	-10.5304
▁pask	-10.5311
▁komp	-10.5332
da	-10.5335
asaj	-10.5384
utz	-10.5389
ojchap	-10.5393
▁pro	-10.5399
▁Kon	-10.5425
▁Xel	-10.5425
▁xinkoj	-10.5434
▁xana	-10.5447
saqer	-10.5465
▁tzaqo	-10.5493
mente	-10.5506
▁abes	-10.5515
▁wit	-10.5521
▁bale	-10.553
rek	-10.5552
▁qaqi	-10.5559
▁lajin	-10.5565
▁titiko	-10.5597
iqaq	-10.56
▁rijaq	-10.561
▁unaq	-10.563
luwr	-10.5653
iyk	-10.5662
▁dy	-10.5682
dos	-10.5693
▁pare	-10.5776
tal	-10.5785
▁Xo	-10.5802
▁neej	-10.5805
mar	-10.5818
aber	-10.5854
▁pas	-10.5878
▁antose	-10.5879
▁esk	-10.5888
▁Tika	-10.5893
▁tita	-10.5916
▁raqa	-10.5994
▁nem	-10.6047
▁ajma	-10.6058
▁tijtaq	-10.6061
aji	-10.6064
▁aaq	-10.6064
jmaj	-10.6087
uuch	-10.61
▁titaq	-10.6139
▁kiye	-10.6145
unik	-10.6148
▁riki	-10.6163
titz	-10.6185
▁Nto	-10.6185
chak	-10.6197
wr	-10.6206
▁tun	-10.6223
das	-10.6228
bar	-10.6251
▁oojkwin	-10.6253
▁qatij	-10.6254
ile	-10.6274
▁tno	-10.6275
▁tijte	-10.6278
▁chakuni	-10.6328
wchoch	-10.6354
▁moor	-10.6391
almaj	-10.6391
▁alk	-10.6396
kojmaj	-10.6405
ena	-10.6431
mer	-10.6431
▁xaan	-10.6434
relaaj	-10.6469
ájk	-10.6471
▁Inb	-10.6485
chík	-10.649
▁pen	-10.6491
▁lu	-10.6505
yar	-10.6516
kom	-10.6533
reliji	-10.6544
▁enter	-10.6554
seke	-10.6566
styaan	-10.6585
▁xatk	-10.6607
maak	-10.6621
aañ	-10.6641
inte	-10.6664
▁sin	-10.6664
ache	-10.6695
taaw	-10.6723
▁antos	-10.6761
eselka	-10.6768
jaa	-10.6772
tne	-10.6812
▁chijch	-10.6826
▁ajwak	-10.6829
▁Tqa	-10.6829
keta	-10.6838
▁tor	-10.6851
▁Xena	-10.6863
▁atyu	-10.6866
amyeen	-10.6878
▁bee	-10.6893
▁jr	-10.6905
xo	-10.691
▁ala	-10.6911
▁Mr	-10.6918
do	-10.6922
▁Tijy	-10.6956
▁tka	-10.7001
ysaj	-10.7004
owik	-10.7028
tq	-10.7032
ber	-10.7052
▁wel	-10.7064
st	-10.7092
je	-10.7095
▁jri	-10.7098
▁jpa	-10.7108
iglesya	-10.7126
▁atzi	-10.7133
kwent	-10.717
▁wch	-10.7172
▁Jin	-10.7172
jwi	-10.7197
▁xkami	-10.7204
▁We	-10.7207
wár	-10.7221
aqin	-10.723
▁jyoo	-10.7258
antzaq	-10.7265
op	-10.7266
▁lado	-10.7277
isa	-10.7288
chee	-10.7296
intzaq	-10.7307
▁chomrsa	-10.7319
tzaqe	-10.7319
▁chomrs	-10.7372
▁sab	-10.7394
oot	-10.7395
▁jti	-10.7409
▁tijik	-10.7411
kab	-10.7435
▁raal	-10.7442
▁kol	-10.7456
kojsaj	-10.7456
tonses	-10.7462
▁qakoo	-10.7491
▁Xat	-10.7492
muq	-10.7503
tina	-10.7518
▁won	-10.7539
alan	-10.7542
▁ojo	-10.7545
noo	-10.7554
▁jat	-10.7598
▁tijma	-10.7611
▁Ab	-10.7625
▁jiq	-10.7648
▁xuqi	-10.7676
gan	-10.7689
▁mol	-10.7705
▁inijk	-10.7722
▁xresa	-10.7758
syo	-10.776
▁mj	-10.7797
▁chikama	-10.7805
▁titij	-10.7806
pee	-10.7817
▁xqakoj	-10.7842
asta	-10.7869
▁mik	-10.7896
▁xatq	-10.7912
wunaq	-10.7918
ayin	-10.7925
▁nuu	-10.7929
jwiich	-10.7958
nar	-10.7958
jmak	-10.796
tern	-10.7966
▁xinko	-10.7987
▁Tijinii	-10.7992
Ta	-10.8009
almwers	-10.8009
▁Twi	-10.801
▁Chipaaj	-10.8016
kow	-10.8025
▁medya	-10.8042
kantel	-10.8043
▁modo	-10.8053
yolik	-10.8063
majch	-10.8115
ro	-10.813
yere	-10.8166
▁gra	-10.8167
jal	-10.8171
▁kli	-10.8182
nek	-10.8215
▁konta	-10.8254
peen	-10.8261
▁rox	-10.8264
tija	-10.8267
▁wik	-10.828
isk	-10.8294
qiil	-10.8297
oom	-10.83
▁xame	-10.8304
iti	-10.831
ijye	-10.8314
sájk	-10.8314
▁traj	-10.8346
aqmaj	-10.8351
Per	-10.8361
ójor	-10.8383
▁nech	-10.8384
asl	-10.8385
▁qách	-10.8406
▁ame	-10.8409
▁qakina	-10.842
ambyeen	-10.8435
pwes	-10.8446
▁fi	-10.8446
▁del	-10.8448
▁acho	-10.8452
inwil	-10.8456
rilik	-10.8462
qan	-10.8485
uleew	-10.8491
kox	-10.8491
poj	-10.8507
tren	-10.8518
atok	-10.8526
ojo	-10.8591
chótix	-10.86
qal	-10.8606
▁xjam	-10.8607
exch	-10.8611
Ya	-10.8615
lamaas	-10.864
▁ixi	-10.8655
ajchaak	-10.8655
Kwand	-10.8658
▁tiqak	-10.8681
jcholájl	-10.8684
kostumbr	-10.8686
wí	-10.8688
▁juu	-10.869
▁qal	-10.8696
▁ast	-10.8705
▁wí	-10.8705
▁chqa	-10.8713
▁riko	-10.8722
syon	-10.8736
werta	-10.874
tisach	-10.8745
año	-10.8752
lugar	-10.8755
ulew	-10.8758
taal	-10.8762
▁rá	-10.877
▁Ka	-10.8771
▁iil	-10.8773
▁atw	-10.878
yent	-10.878
Ay	-10.8782
▁jlw	-10.8784
qawch	-10.8785
tinmit	-10.8797
ákx	-10.8808
saqwech	-10.8813
aldeya	-10.884
qatilmiit	-10.8844
▁jcholaj	-10.8851
niik	-10.8867
estya	-10.8877
uxta	-10.8882
kiitz	-10.8892
ral	-10.8896
dey	-10.8908
unaa	-10.8913
xlan	-10.8933
▁qawá	-10.8974
▁ente	-10.8975
iqa	-10.8978
uta	-10.8981
dar	-10.8984
chkon	-10.8998
qatok	-10.9021
▁brin	-10.9025
▁jchak	-10.9032
▁resp	-10.9035
ijsáj	-10.904
▁inp	-10.9048
ixiim	-10.9054
oki	-10.906
▁ins	-10.9062
▁rixóq	-10.9065
▁atint	-10.9084
▁chaaki	-10.9084
▁inport	-10.9089
▁Lup	-10.9089
▁extranjer	-10.909
oxówk	-10.909
▁Lagunita	-10.909
▁Mends	-10.909
▁Méndez	-10.909
▁Uspant	-10.909
▁aseptar	-10.909
▁desayun	-10.909
▁desfras	-10.909
▁elikopteros	-10.909
▁insweerte	-10.909
▁inyólj	-10.909
▁kúurs	-10.909
▁lugaar	-10.909
▁maldisya	-10.909
▁miyerkoles	-10.909
▁oktorisar	-10.909
▁prediy	-10.909
▁qakerneer	-10.909
▁qapensar	-10.909
▁qatrag	-10.909
▁qaxumaan	-10.909
▁tankuxtaaj	-10.909
▁tiwooqow	-10.909
▁xqetemaj	-10.909
▁liyadentr	-10.909
▁sweerte	-10.909
▁abyones	-10.909
▁antiwo	-10.909
▁pijpech	-10.909
▁xintijónik	-10.909
gradeser	-10.909
imiyaal	-10.909
▁jkandel	-10.909
▁íxim	-10.909
▁martes	-10.909
isónk	-10.909
▁munisipy	-10.909
▁ryalidad	-10.909
▁sabado	-10.909
▁awsiliyar	-10.909
▁beyntisink	-10.909
ayéj	-10.909
▁kiyeresir	-10.909
portunida	-10.909
▁xumaan	-10.909
▁jluwur	-10.909
ólm	-10.909
▁kampo	-10.909
ntisink	-10.909
▁metro	-10.909
reksyon	-10.909
uqtaaj	-10.909
▁qalúw	-10.9091
▁ínchak	-10.9091
▁alwiin	-10.9091
▁opiisyo	-10.9091
imiyent	-10.9091
kisiyl	-10.9091
▁wónik	-10.9091
▁inbid	-10.9091
▁kamnaqtaj	-10.9091
eresir	-10.9091
▁xqasipaj	-10.9092
ixekmaj	-10.9092
▁konbit	-10.9092
▁jrqan	-10.9092
▁qaxoot	-10.9092
▁nojsool	-10.9092
▁chinwch	-10.9092
▁abid	-10.9092
▁atkojon	-10.9092
▁xqatiij	-10.9092
▁atilw	-10.9093
▁attzuq	-10.9093
▁chipaj	-10.9093
▁asaam	-10.9093
▁wechaam	-10.9093
uqum	-10.9094
▁Eso	-10.9094
ktimbr	-10.9094
▁Nombre	-10.9094
▁ájij	-10.9094
▁natura	-10.9094
▁semy	-10.9094
▁ayud	-10.9095
yembre	-10.9095
▁qapix	-10.9095
▁tjoliin	-10.9096
▁lamiyer	-10.9096
▁grabar	-10.9096
▁apwest	-10.9096
nikar	-10.9096
▁syen	-10.9096
▁jpoop	-10.9097
▁asuk	-10.9097
▁komunidad	-10.9097
▁xtukxi	-10.9097
▁qade	-10.9097
▁numrar	-10.9097
▁nemo	-10.9098
▁alegrar	-10.9098
▁qaswerte	-10.9098
▁ojtzuq	-10.9098
▁titula	-10.9098
▁Wetaam	-10.9098
lujuj	-10.9099
▁wixiim	-10.9099
kofrady	-10.91
▁Naad	-10.91
▁inyolj	-10.91
▁qapuwaq	-10.91
▁rsor	-10.91
▁lomism	-10.9101
kotem	-10.9101
▁Mira	-10.9101
▁tijtuq	-10.9102
▁Lá	-10.9102
▁permis	-10.9103
xtar	-10.9103
▁jsuweerte	-10.9104
▁ropiis	-10.9104
▁chijyook	-10.9104
▁inkaret	-10.9104
▁torre	-10.9104
▁Mucha	-10.9105
▁qayólij	-10.9105
▁bida	-10.9106
omownaq	-10.9106
▁trakun	-10.9106
▁xintaawin	-10.9106
▁lomis	-10.9107
▁jnaqaj	-10.9107
▁jsook	-10.9108
▁trist	-10.9109
▁jtujaq	-10.911
▁ixnakat	-10.911
▁tinojsá	-10.9111
▁jtzuq	-10.9111
yado	-10.9112
▁ausil	-10.9112
▁domi	-10.9113
▁komben	-10.9114
▁jaragaan	-10.9114
▁atiluk	-10.9115
▁salon	-10.9115
▁xchakuj	-10.9115
▁qalej	-10.9116
yernes	-10.9116
▁syent	-10.9116
▁agan	-10.9117
▁xwetemaaj	-10.9117
▁jpuwaq	-10.9118
pisaq	-10.912
koraal	-10.9121
▁xjoj	-10.9122
▁tinkuna	-10.9122
▁regal	-10.9123
▁katolika	-10.9123
Lama	-10.9123
▁xatpeti	-10.9127
▁golpe	-10.9128
▁Boos	-10.9129
▁kombite	-10.9129
▁mayor	-10.9129
▁mutzaj	-10.9131
wisyi	-10.9132
▁wuron	-10.9132
▁xojkojo	-10.9133
▁tqakejaj	-10.9134
▁Mark	-10.9134
▁xintaaw	-10.9134
▁uqt	-10.9134
▁tikokerw	-10.9135
nawesaj	-10.9135
▁medyo	-10.9135
▁Xril	-10.9136
▁antes	-10.9137
▁ticheqej	-10.9137
▁mañana	-10.9137
▁merkaa	-10.9137
▁jchakaq	-10.9139
▁ínwa	-10.9141
otul	-10.9143
▁mandar	-10.9146
▁rixóqol	-10.9148
lajuuj	-10.9148
▁rajwu	-10.9149
amsájch	-10.9153
▁iywal	-10.9154
▁xqasa	-10.9155
▁petzalki	-10.9155
íx	-10.9156
lkooj	-10.9158
▁mutz	-10.916
▁xchup	-10.9162
▁pajnij	-10.9163
▁ruleew	-10.9164
donar	-10.9164
▁dyo	-10.9166
▁chiqawch	-10.9166
▁achak	-10.9167
itk	-10.9168
▁qachak	-10.9169
▁Xuq	-10.9169
nesida	-10.9173
▁xmul	-10.9175
▁aan	-10.9175
ang	-10.9175
fin	-10.918
▁tqeejch	-10.918
▁Xto	-10.918
▁achaak	-10.9182
iteen	-10.9183
▁chajalik	-10.9183
▁tqaan	-10.9184
▁wakix	-10.9189
taj	-10.9191
▁richaj	-10.9193
ín	-10.9194
▁Ween	-10.9197
▁xqeej	-10.9197
▁maxaq	-10.9201
▁xpaxin	-10.9204
▁jbidaq	-10.9206
▁tawetma	-10.9209
serbes	-10.921
▁qajw	-10.9211
▁oojwer	-10.9211
▁jwer	-10.9211
riyad	-10.9214
▁apenaq	-10.9215
▁primero	-10.9216
asiyon	-10.9216
▁xmuq	-10.922
▁tatiij	-10.922
▁Jq	-10.9224
▁Chwe	-10.9225
▁inwch	-10.9226
▁tiyuqin	-10.9227
▁usiil	-10.9229
esaajch	-10.923
▁swerte	-10.9232
▁tijchup	-10.9235
▁jnach	-10.9236
▁kíxlinwa	-10.9239
▁yugo	-10.924
ájw	-10.9242
kamk	-10.9245
▁chikwu	-10.9246
▁xelmáj	-10.9249
kto	-10.9251
▁sipaj	-10.9253
ojnik	-10.9259
aqik	-10.926
▁kortil	-10.926
▁quschaq	-10.926
▁tijril	-10.9261
▁uxlan	-10.9262
▁molik	-10.9269
▁xtijtaq	-10.927
idad	-10.9271
ichaq	-10.9271
ayajk	-10.9274
▁Taweno	-10.9275
▁muul	-10.9277
jkos	-10.9279
▁ajtijo	-10.9281
estyaa	-10.9283
opo	-10.9286
▁xokchik	-10.9287
▁Kwa	-10.9289
ust	-10.9289
kirneer	-10.9302
▁xme	-10.9303
▁serbi	-10.9305
sentaw	-10.9308
▁Juli	-10.9309
▁chirijaq	-10.9317
weron	-10.9318
weelt	-10.9324
▁xsu	-10.9325
ajik	-10.9326
▁xojoj	-10.9334
▁malk	-10.9336
▁jtzak	-10.9336
táw	-10.9338
▁áchak	-10.9345
▁noche	-10.9349
▁Chiik	-10.9349
nuul	-10.9352
intaw	-10.9356
▁fam	-10.9357
mejor	-10.9363
▁kojon	-10.9364
chelka	-10.9365
lwar	-10.9375
jo	-10.9378
▁des	-10.938
chqe	-10.9382
▁jkom	-10.9386
▁Tan	-10.9388
ña	-10.9395
▁kirneero	-10.9406
ensya	-10.9407
gua	-10.9409
apoj	-10.9412
isma	-10.9415
▁majiik	-10.9421
▁Tril	-10.9423
jk	-10.9424
▁raalaj	-10.9426
▁qayaaj	-10.9441
▁tokiik	-10.9443
▁táj	-10.9445
▁gras	-10.9446
▁atcha	-10.9452
▁kuwand	-10.9463
▁ixiim	-10.9464
Pe	-10.9471
▁attij	-10.9472
ina	-10.9475
▁ixtuu	-10.9475
▁xinwil	-10.9476
lt	-10.948
iyar	-10.9485
▁Xkam	-10.9486
kaney	-10.9486
▁ajt	-10.9488
▁retal	-10.9493
alaq	-10.9494
▁tantij	-10.95
▁tpeti	-10.9502
▁xalmaj	-10.9514
Ju	-10.9524
▁qate	-10.9525
uni	-10.953
▁leer	-10.9533
▁top	-10.9537
▁qá	-10.9538
▁mira	-10.9548
▁xnajti	-10.9555
▁leskwela	-10.9558
tzekik	-10.9561
▁xkaam	-10.9565
▁xj	-10.9567
ero	-10.9574
▁waqi	-10.9579
▁tzekik	-10.9584
agrad	-10.9588
atwesaj	-10.9591
noon	-10.9593
▁trensa	-10.9593
▁chikot	-10.9597
▁qeseel	-10.9602
▁sera	-10.963
di	-10.9635
awl	-10.9636
▁xjama	-10.9637
▁do	-10.964
traj	-10.9643
xin	-10.9644
▁ajwich	-10.9651
qej	-10.9652
▁atchapo	-10.9655
bajar	-10.9661
▁tkam	-10.9664
▁chapon	-10.9672
▁xkamk	-10.9686
tokoon	-10.9688
▁qatiq	-10.9688
wíni	-10.9689
▁kamiik	-10.9691
laguna	-10.9705
war	-10.9714
úw	-10.9715
lori	-10.9719
maa	-10.9722
▁inkan	-10.974
jnaqaaj	-10.9742
▁pelo	-10.9752
▁xchul	-10.9758
▁santil	-10.9761
▁tinta	-10.9768
▁sachel	-10.9769
amente	-10.9775
▁ketza	-10.9781
ga	-10.9797
▁qixi	-10.9799
▁richoochaq	-10.9804
▁naqaj	-10.9804
yan	-10.9806
▁xsach	-10.9811
▁Xta	-10.9824
kiti	-10.9841
▁jy	-10.9846
▁An	-10.985
▁wuka	-10.9857
▁kontk	-10.9859
▁kes	-10.9891
▁jtziij	-10.9902
▁Tpe	-10.9904
én	-10.9914
▁nado	-10.9916
▁Kob	-10.992
kan	-10.9922
▁jpeti	-10.9944
▁xojkan	-10.9945
▁ketaan	-10.9951
▁pwe	-10.9958
ora	-10.9962
sek	-10.9971
▁xint	-10.9973
▁pechaq	-10.9977
olaal	-10.9979
▁xyoo	-10.998
▁Xu	-10.9997
▁Lu	-10.9999
ranm	-11.0001
ingo	-11.0004
ejor	-11.0029
▁lome	-11.0046
ntaqa	-11.0047
áchak	-11.0048
▁rkom	-11.005
▁ade	-11.0081
▁pre	-11.0083
tran	-11.0097
aaji	-11.0112
unt	-11.0121
egal	-11.0129
▁tyo	-11.0133
▁Esta	-11.0138
ald	-11.0139
▁xpetk	-11.0145
▁jori	-11.0158
koja	-11.0162
▁Pa	-11.0181
yol	-11.0186
▁atch	-11.0191
ntaq	-11.02
▁retaam	-11.0217
▁atya	-11.0224
▁gr	-11.0224
▁atin	-11.0235
▁xjura	-11.0247
chaak	-11.0255
akirner	-11.0262
iyo	-11.0269
▁tijmol	-11.0272
▁Tijti	-11.0274
▁nonli	-11.0281
▁apena	-11.0285
▁poo	-11.0288
▁Chipaaja	-11.0289
▁paja	-11.0297
▁rajw	-11.0324
▁Resaj	-11.0334
▁medy	-11.0339
rne	-11.034
nk	-11.034
▁suj	-11.0347
iijaq	-11.0352
dor	-11.0366
▁Pen	-11.0391
▁solaj	-11.041
▁moko	-11.0422
▁inche	-11.0436
ojow	-11.0436
iim	-11.0438
oy	-11.0453
▁juna	-11.0453
▁todo	-11.0455
chejej	-11.0472
tokon	-11.0487
nol	-11.0503
▁primera	-11.0564
▁em	-11.0571
jyoliik	-11.0573
▁xatin	-11.0573
▁Yo	-11.0579
▁bey	-11.0588
ekon	-11.0599
máj	-11.0603
▁nej	-11.0622
▁tijm	-11.0628
nch	-11.0636
▁Ee	-11.0645
kla	-11.0657
▁tinl	-11.0661
▁tew	-11.0674
tokiik	-11.0676
▁Mok	-11.0698
iyen	-11.0705
xkab	-11.0735
▁jmi	-11.0741
eqa	-11.0743
tijsaj	-11.0745
▁xtaa	-11.0752
estudya	-11.0762
em	-11.0766
▁xyaj	-11.0784
wchooch	-11.0794
▁tqam	-11.083
xoqol	-11.0833
iiji	-11.0873
▁sap	-11.0882
▁tata	-11.0899
▁naan	-11.0912
yos	-11.0947
▁boka	-11.0951
peet	-11.0975
temaa	-11.0979
▁teel	-11.0987
▁chuwaji	-11.0991
▁rek	-11.1041
▁xojqe	-11.1041
▁xate	-11.1054
wik	-11.1073
ánik	-11.1079
jkoj	-11.1094
tzapij	-11.1123
xe	-11.1128
esaj	-11.1147
▁neses	-11.1154
aaka	-11.1158
lan	-11.1239
▁eselch	-11.1243
ake	-11.1277
jyuq	-11.1286
▁Kompadr	-11.1287
anegosy	-11.1295
palm	-11.1315
▁chijtoki	-11.132
keer	-11.133
▁trat	-11.1364
deya	-11.137
▁awij	-11.1392
▁xinq	-11.1405
▁xtaq	-11.1406
qakoj	-11.1414
táj	-11.1445
▁pajni	-11.1465
misa	-11.1469
eselch	-11.1474
rat	-11.1486
▁xenta	-11.1495
▁Ni	-11.1497
olch	-11.1585
▁Kar	-11.16
qatij	-11.1606
▁jm	-11.162
xen	-11.1634
eji	-11.1642
naaj	-11.1663
mon	-11.167
▁wich	-11.1695
▁rak	-11.1695
tiik	-11.17
▁Kaba	-11.1704
petzmaj	-11.1725
rayej	-11.1726
▁xinkan	-11.1743
loon	-11.177
▁tinik	-11.1796
▁Raj	-11.1799
▁moto	-11.183
mole	-11.1869
▁jlo	-11.1875
▁tino	-11.1879
▁go	-11.1908
anti	-11.1913
qame	-11.1931
▁qataq	-11.1933
ste	-11.1938
obre	-11.1948
pa	-11.1949
per	-11.1967
aas	-11.1975
peti	-11.2001
▁inta	-11.2008
▁xm	-11.2014
itch	-11.2034
▁iywa	-11.2059
jwakat	-11.2069
▁Le	-11.2078
alq	-11.2082
▁jnima	-11.2108
tajkiil	-11.2111
▁qam	-11.2119
▁qata	-11.2139
ijkejaj	-11.2187
ojchaakun	-11.2236
▁taj	-11.2249
aajch	-11.2317
▁kosolko	-11.2332
siy	-11.2338
rob	-11.2375
qaxuk	-11.2388
▁kii	-11.2441
qesaj	-11.2451
ntiji	-11.2464
f	-11.2467
arm	-11.2473
ona	-11.2498
▁jwá	-11.25
▁sk	-11.2514
▁rusu	-11.2524
chup	-11.2536
▁jaat	-11.2538
▁lam	-11.2564
▁Pet	-11.2568
qejtaqch	-11.2569
qatzaq	-11.257
▁inwil	-11.2571
majiik	-11.2647
uel	-11.266
myeen	-11.2748
eelch	-11.2778
pal	-11.2779
inya	-11.2787
aad	-11.2834
tamyen	-11.2886
oja	-11.2896
▁to	-11.2939
ise	-11.296
wel	-11.2993
raa	-11.2993
mch	-11.3
▁jchó	-11.3054
aqeja	-11.3071
chjil	-11.3078
▁xqakamsa	-11.3085
▁xaat	-11.3092
▁jqasaj	-11.3098
wqan	-11.3101
▁jchu	-11.314
xóqol	-11.3148
wesaj	-11.3194
koker	-11.3198
▁bas	-11.3226
chakuun	-11.324
sel	-11.3249
▁May	-11.3274
▁xatyu	-11.3291
kompayre	-11.3299
atnoj	-11.3339
▁Tijini	-11.3358
▁tiqe	-11.336
▁ajch	-11.3384
alb	-11.339
siq	-11.339
▁tijp	-11.3391
rusuma	-11.3403
aja	-11.3412
xk	-11.3416
▁intajki	-11.3443
raq	-11.3467
ns	-11.3473
▁relij	-11.35
atik	-11.3508
▁tichaku	-11.3528
glesya	-11.3557
ast	-11.3574
wers	-11.3589
▁mul	-11.3598
fe	-11.3611
erk	-11.3637
▁tempw	-11.3657
▁On	-11.3658
lay	-11.3668
▁xkun	-11.3686
naaq	-11.3694
ere	-11.3737
komsaj	-11.3754
▁ento	-11.3761
rt	-11.3781
jchakuj	-11.3795
▁iny	-11.3821
chakuj	-11.3821
jiin	-11.3828
sool	-11.3834
▁ralmwer	-11.3838
ochi	-11.3869
▁kuxt	-11.3902
este	-11.3904
oni	-11.3912
▁jmee	-11.394
gr	-11.395
▁asi	-11.3964
▁kosolk	-11.3993
tijin	-11.4003
▁Ant	-11.4047
rom	-11.405
▁Dy	-11.4077
▁kum	-11.4082
▁igles	-11.4089
▁uuq	-11.4108
uu	-11.412
▁Tina	-11.4151
▁jnim	-11.4183
sye	-11.4205
▁Su	-11.4256
inyuq	-11.426
▁kur	-11.4264
pu	-11.4276
etzel	-11.4315
chek	-11.4325
▁inya	-11.4337
▁tijcha	-11.4379
▁jit	-11.4424
▁impu	-11.4456
▁poq	-11.4466
▁Cha	-11.4514
▁much	-11.4515
▁sabe	-11.4542
▁Na	-11.4545
jaaw	-11.4634
eso	-11.4638
▁Kan	-11.469
ens	-11.4694
▁wil	-11.4717
jchaak	-11.4744
▁pajn	-11.4768
nm	-11.4842
rk	-11.4842
▁kafe	-11.4859
chaa	-11.491
▁anegos	-11.4921
▁ese	-11.4946
umb	-11.4973
ikim	-11.4992
chich	-11.5019
tuun	-11.5026
▁tijpa	-11.5042
noj	-11.5072
ekto	-11.5092
▁pyo	-11.516
eske	-11.5169
asa	-11.5219
▁aaj	-11.5221
ayol	-11.5224
inwa	-11.5243
▁kije	-11.5245
ulu	-11.5245
chu	-11.5248
ichik	-11.5339
ikaman	-11.5343
▁lej	-11.5354
▁chep	-11.5361
kamsáj	-11.5391
kil	-11.5406
▁mer	-11.5406
inkamsaj	-11.5407
▁wax	-11.5408
▁tzin	-11.5424
▁xqama	-11.5435
▁jw	-11.5446
rb	-11.5447
▁atij	-11.5456
▁pr	-11.5514
él	-11.5532
▁jur	-11.5541
ojche	-11.5563
▁antonse	-11.5573
Tanch	-11.5597
unaq	-11.5603
njempl	-11.566
atu	-11.567
jsol	-11.5675
▁rkompayr	-11.5675
▁ín	-11.5676
estudy	-11.5682
▁Tzi	-11.5688
uwa	-11.5713
▁inw	-11.5741
▁alaa	-11.5762
mbre	-11.5765
▁Xpetz	-11.5777
▁tantz	-11.578
ománik	-11.5781
putz	-11.579
xel	-11.581
tike	-11.5814
▁nimla	-11.5822
▁tir	-11.5869
▁xinpee	-11.5883
siyen	-11.595
sook	-11.5955
▁tijto	-11.6028
chiqaaj	-11.6049
▁atka	-11.607
jwe	-11.609
▁noj	-11.6095
kamsaaj	-11.6117
▁tnat	-11.6127
luw	-11.6132
▁wer	-11.6156
weno	-11.6173
iwt	-11.6191
ralaaj	-11.6205
nos	-11.6212
ikmaj	-11.6214
▁talbe	-11.6217
ilsaj	-11.6224
rsaaj	-11.6233
po	-11.6233
▁Ajr	-11.6244
▁kara	-11.6279
▁xto	-11.6285
ndo	-11.6314
tir	-11.6319
wein	-11.6326
intzi	-11.6365
low	-11.6405
▁xsa	-11.6442
▁chiik	-11.6518
sal	-11.6519
z	-11.6545
ula	-11.6552
▁qachu	-11.6553
rs	-11.6559
awil	-11.6572
▁mok	-11.6574
▁ojtij	-11.6586
laa	-11.6587
▁kiya	-11.6606
▁chup	-11.6615
meech	-11.6633
kin	-11.6649
▁qacho	-11.6658
qach	-11.6661
qaqi	-11.6695
▁chuu	-11.6746
▁ga	-11.6759
▁nu	-11.6773
lika	-11.6786
▁tqacha	-11.6795
▁Est	-11.6809
tzek	-11.6813
yaj	-11.6822
de	-11.6824
ejwexki	-11.6868
▁xojka	-11.6884
rar	-11.6897
wetz	-11.6909
▁inku	-11.692
qamaj	-11.6931
est	-11.6954
mm	-11.6976
▁ojtiji	-11.698
▁reta	-11.7005
ju	-11.702
inkojoon	-11.706
bes	-11.7094
tw	-11.7142
▁xkuxta	-11.7154
alk	-11.7154
aqweech	-11.7162
inatun	-11.7166
qak	-11.7194
▁jtoki	-11.72
tziij	-11.7203
▁muu	-11.721
achep	-11.7211
ajk	-11.7225
▁jpet	-11.7225
▁ajw	-11.7228
lemas	-11.7228
ser	-11.7251
taa	-11.7275
▁akom	-11.7279
▁atno	-11.7293
▁tuw	-11.7296
▁jkompay	-11.7308
tons	-11.7308
suj	-11.7312
ing	-11.7353
one	-11.7387
tijol	-11.7408
kolo	-11.7424
▁Wá	-11.7445
siyo	-11.7445
▁imp	-11.7462
xaqt	-11.7487
▁seg	-11.7527
insipa	-11.7539
aak	-11.7563
oker	-11.7573
irneer	-11.768
▁jkam	-11.77
▁tod	-11.772
▁inchak	-11.7774
Ri	-11.7774
aqal	-11.7783
anim	-11.7839
usil	-11.7892
▁uwi	-11.79
T	-11.7984
ijkoj	-11.7988
xnajtin	-11.7988
nee	-11.8028
ikch	-11.8037
mok	-11.8051
esaaj	-11.8053
qalo	-11.8071
▁lajka	-11.8072
▁má	-11.8076
npetchi	-11.8108
wiich	-11.812
qas	-11.8159
kaan	-11.8165
▁tijti	-11.8167
yas	-11.817
▁ixtu	-11.8174
ilan	-11.8183
kat	-11.8189
aasta	-11.8196
emp	-11.8207
ami	-11.8316
▁st	-11.8346
▁Xoo	-11.8347
▁Al	-11.8379
kwando	-11.8405
chwe	-11.846
At	-11.8461
xoj	-11.8476
juun	-11.848
▁rat	-11.848
welt	-11.8481
oqol	-11.8482
▁tijyo	-11.8483
opch	-11.8483
jqaaj	-11.8485
aalg	-11.8486
▁desi	-11.8507
aar	-11.8527
opiis	-11.8553
rsaj	-11.8556
tilmit	-11.8577
tek	-11.8589
tose	-11.8595
mis	-11.8606
▁kosol	-11.8616
kiil	-11.8617
suti	-11.8627
Tz	-11.8634
Tos	-11.8646
D	-11.8652
▁jyo	-11.8652
jwers	-11.8679
▁xenj	-11.8692
▁insiyen	-11.8695
bre	-11.8701
Dyoos	-11.8705
xawil	-11.8708
atjyu	-11.8714
Kobaan	-11.8717
yugo	-11.8717
kwatro	-11.8718
kíxlinwa	-11.8718
puwes	-11.872
jurchuchu	-11.8721
jej	-11.8724
orasiyon	-11.8729
mul	-11.8731
put	-11.8731
patron	-11.874
▁tachi	-11.8748
▁Tamb	-11.8753
utziil	-11.8761
chomorsaj	-11.8764
sipoj	-11.8765
krus	-11.8774
karet	-11.8775
xkaan	-11.8777
tzuq	-11.8779
májch	-11.8781
chipaaj	-11.8791
donde	-11.8792
medy	-11.8794
korti	-11.8796
cho	-11.8796
ngo	-11.8801
xí	-11.8808
▁xpaxi	-11.8809
dyoos	-11.8815
ketzal	-11.8822
suwaan	-11.8831
kafe	-11.8831
ru	-11.8838
tijchup	-11.884
xmul	-11.8842
▁teq	-11.8853
▁jto	-11.8855
chika	-11.8857
▁komersiyan	-11.8858
▁xw	-11.8862
pwees	-11.8873
rixóqil	-11.8874
tiqan	-11.8877
titaw	-11.8889
▁Segu	-11.8892
▁ojk	-11.8897
istorya	-11.8898
▁xnima	-11.8908
luus	-11.8911
jwéx	-11.8918
▁titok	-11.8918
chajal	-11.8932
trens	-11.8939
▁tiyemp	-11.8943
gidor	-11.8947
ati	-11.8953
nform	-11.896
jkompayr	-11.8967
▁mañan	-11.8971
▁chomorsa	-11.8976
peech	-11.898
▁golp	-11.8992
atziij	-11.8997
monta	-11.8999
eex	-11.9001
atolika	-11.9006
▁lastim	-11.9008
▁ron	-11.9012
waldey	-11.9015
▁merka	-11.9028
▁kombit	-11.9029
▁jaraga	-11.903
umetz	-11.903
▁xojq	-11.9032
▁restud	-11.9035
xnakat	-11.9039
sájik	-11.9039
▁atilu	-11.904
▁wuro	-11.9041
ikuxtaaj	-11.9045
▁jpensar	-11.9046
▁ój	-11.9048
▁qayól	-11.9051
▁Xinko	-11.9053
upiis	-11.9053
únk	-11.9054
suweerte	-11.9054
wetemaaj	-11.9057
▁xwetema	-11.9057
richooch	-11.906
jkofrad	-11.9065
▁xatpe	-11.9066
▁awxóq	-11.9067
xoqil	-11.9067
▁qesél	-11.9069
▁istor	-11.9071
▁awriyen	-11.9073
▁tretma	-11.9073
stim	-11.9076
elmáj	-11.9078
pas	-11.9079
▁dyunabe	-11.9079
ondeke	-11.9081
nemoo	-11.9084
▁kastig	-11.9086
▁pongam	-11.9088
▁kumpli	-11.9088
c	-11.9089
unidad	-11.9089
ofesor	-11.909
unisip	-11.909
▁kofr	-11.909
▁awsili	-11.909
▁aportu	-11.9091
▁pensa	-11.9091
Xintz	-11.9092
▁krist	-11.9093
almwe	-11.9094
▁kanjt	-11.9094
wsiliya	-11.9095
endisyon	-11.9095
iyad	-11.9097
▁baldi	-11.91
▁respet	-11.91
ufu	-11.9102
uwert	-11.9102
atura	-11.9103
▁inswe	-11.9104
aswert	-11.9104
usiil	-11.9105
alida	-11.9106
erefent	-11.9111
▁jtuj	-11.9111
byern	-11.9115
dentr	-11.9116
▁kers	-11.9121
idaq	-11.9122
uxlan	-11.9123
▁jtaki	-11.9129
▁yaa	-11.9129
▁enje	-11.9131
ref	-11.9135
▁tjoli	-11.9135
sipaj	-11.9137
▁júnk	-11.9141
dro	-11.9147
ataq	-11.9162
spwes	-11.9165
qil	-11.9165
fwe	-11.9173
siyar	-11.9174
laad	-11.9174
▁istory	-11.9179
awk	-11.918
Ajw	-11.9181
nkamb	-11.9186
Es	-11.919
senta	-11.9193
weert	-11.9197
▁benen	-11.92
yerd	-11.921
adre	-11.9211
umbre	-11.9214
▁rejwéx	-11.9234
ajri	-11.9235
▁komers	-11.9238
syaq	-11.924
utzil	-11.9245
portuni	-11.9245
▁tiyu	-11.9248
kist	-11.925
qáw	-11.9256
rde	-11.9262
▁graba	-11.9271
gam	-11.9274
mulaj	-11.9275
▁mansani	-11.9285
koom	-11.9309
▁insi	-11.931
▁fija	-11.9315
abes	-11.9319
▁serbe	-11.932
▁kanal	-11.9327
akare	-11.9332
wand	-11.9333
▁fu	-11.9345
áw	-11.9351
íchaj	-11.9353
para	-11.9354
iyem	-11.9357
syonaq	-11.9362
▁Usi	-11.9363
▁nojs	-11.9374
▁kerne	-11.94
jtij	-11.9414
payr	-11.9414
▁xyol	-11.9416
chomsa	-11.9424
rg	-11.9426
▁opi	-11.9427
▁ínw	-11.943
lesa	-11.9435
cheje	-11.9442
oqtaj	-11.9444
agre	-11.9447
rsij	-11.9448
▁Petz	-11.9457
▁xinyol	-11.9466
▁tijy	-11.9467
▁apwes	-11.9471
akun	-11.9476
tawi	-11.9478
▁jtu	-11.9494
▁tiqejt	-11.9501
▁Sabe	-11.9511
olow	-11.9514
algo	-11.9525
roqtaj	-11.9546
istory	-11.9547
▁kabalm	-11.9551
▁chó	-11.9557
▁ajsi	-11.9559
qeejch	-11.9559
▁kuwa	-11.956
tze	-11.9565
imeel	-11.9585
▁tipeti	-11.9607
▁xche	-11.9609
apoop	-11.9618
Xk	-11.9628
▁opiis	-11.9638
biyeen	-11.9647
quw	-11.9647
▁lad	-11.9648
▁fr	-11.9655
jchí	-11.9684
qá	-11.9693
▁jos	-11.9695
▁Xii	-11.9699
▁tqame	-11.9719
jwis	-11.9727
atun	-11.9731
qawi	-11.9736
dil	-11.9765
▁jbida	-11.9767
jem	-11.9792
epe	-11.9794
lug	-11.9795
▁tikuxta	-11.9798
brar	-11.9806
▁Tin	-11.9815
pax	-11.9832
tún	-11.9837
uf	-11.9848
kol	-11.9866
majw	-11.9872
▁tekoj	-11.9875
▁tze	-11.9909
▁kwalk	-11.993
ndisyon	-11.9946
▁numra	-11.9959
orsaj	-11.9959
iyoo	-11.9961
kompadre	-11.9963
▁bolbe	-11.9975
▁Aw	-11.9983
empl	-12.0007
dond	-12.004
nkamsaj	-12.0046
▁Liy	-12.0048
lem	-12.0055
akat	-12.0061
tamb	-12.0073
▁esel	-12.01
▁rixoqi	-12.0104
waa	-12.0143
jtek	-12.0147
ndar	-12.0151
kitz	-12.0164
▁jwe	-12.0169
▁qatit	-12.0174
portun	-12.0185
ínw	-12.0187
tá	-12.0197
aqsaj	-12.0198
nkare	-12.0212
▁nee	-12.0228
tukxi	-12.0241
▁awch	-12.0251
▁utz	-12.0266
▁taray	-12.0269
ido	-12.0279
reech	-12.0295
▁xkams	-12.031
▁kand	-12.0322
ách	-12.0326
ku	-12.0328
▁beynti	-12.0341
alkiin	-12.0343
kabaal	-12.0383
sipal	-12.0385
elj	-12.0415
▁troq	-12.0429
▁jkw	-12.0459
muul	-12.0473
uju	-12.0485
entaj	-12.0486
ente	-12.0508
qech	-12.0512
ntos	-12.0516
ado	-12.0526
▁teqach	-12.0536
▁kant	-12.0545
▁Nab	-12.0554
nikare	-12.0557
lkiin	-12.0559
yolj	-12.0565
áni	-12.0567
ys	-12.0571
ros	-12.0579
▁Chij	-12.058
▁chej	-12.0581
sar	-12.0582
jwex	-12.0591
oso	-12.0599
nkamsaaj	-12.0606
tante	-12.0612
petk	-12.0616
▁año	-12.0617
eriy	-12.062
naan	-12.0623
▁rán	-12.0628
nel	-12.07
anta	-12.0722
▁xí	-12.0727
tul	-12.0756
▁awa	-12.0759
atoj	-12.0763
▁mojo	-12.0778
joon	-12.0781
▁inchaku	-12.079
iqej	-12.079
▁qeli	-12.0791
▁awich	-12.0816
▁chajali	-12.0831
wakix	-12.0878
almente	-12.0879
aray	-12.0882
▁fa	-12.0888
▁put	-12.0894
chakuni	-12.094
▁xn	-12.0948
olm	-12.0948
▁suta	-12.0952
rame	-12.0966
owk	-12.0995
acho	-12.1009
▁xina	-12.1009
mownaq	-12.1014
saqweech	-12.1024
▁Ton	-12.1046
awen	-12.1047
su	-12.1064
▁Lama	-12.1073
▁diyak	-12.1102
akuni	-12.1136
itos	-12.1146
▁tiqat	-12.1153
weel	-12.1174
▁tku	-12.1176
iyaj	-12.1196
asar	-12.1202
utzaj	-12.1225
qaxu	-12.1238
▁ojti	-12.1256
▁nejcha	-12.1256
renta	-12.1257
iye	-12.1258
naqaj	-12.1263
jir	-12.1269
tijow	-12.1275
wnaq	-12.13
▁jure	-12.1363
ary	-12.1371
ajar	-12.1377
▁estu	-12.1392
swaan	-12.1448
▁qil	-12.1504
▁xiny	-12.1506
▁Laj	-12.1508
▁inki	-12.1525
▁xaa	-12.1527
tami	-12.153
▁Awa	-12.1549
▁lajq	-12.1551
▁Ral	-12.1563
sutii	-12.1612
qú	-12.1654
ál	-12.1677
▁qast	-12.1756
inal	-12.1776
▁kuxte	-12.1784
ilya	-12.1784
yin	-12.1814
▁Chik	-12.1827
▁ray	-12.1835
▁rel	-12.1847
sájch	-12.1851
▁trab	-12.1861
▁tiqan	-12.1882
molik	-12.1914
▁chwey	-12.1916
kaa	-12.1969
iqak	-12.1982
ree	-12.1985
onse	-12.2027
mbyeen	-12.2038
▁Kee	-12.2048
tos	-12.2134
ajo	-12.2137
▁loo	-12.2159
▁Taw	-12.2167
una	-12.222
inter	-12.23
qakejaj	-12.2342
▁titi	-12.237
ory	-12.2381
kut	-12.239
▁waak	-12.2403
▁Mu	-12.242
jqasaj	-12.2425
▁Xch	-12.2436
rá	-12.2437
chiri	-12.2439
tzak	-12.2448
▁qaqa	-12.2479
▁kast	-12.2499
▁tziy	-12.2543
qakoja	-12.2553
jil	-12.2644
▁ixp	-12.2658
xa	-12.2678
tijtaw	-12.2743
▁paa	-12.2845
qamaam	-12.2936
nd	-12.2963
soon	-12.3005
oraa	-12.3085
ag	-12.3114
▁Pu	-12.3115
▁iqa	-12.312
▁ajk	-12.3162
agr	-12.3195
ateqa	-12.3243
saa	-12.3253
laju	-12.3263
exm	-12.3328
▁xoo	-12.3366
rere	-12.3376
▁mand	-12.3389
mutz	-12.3482
▁Sin	-12.3484
▁apr	-12.3544
▁an	-12.3586
mo	-12.3589
▁rem	-12.3652
win	-12.3652
▁Bal	-12.3683
▁pij	-12.3715
▁chw	-12.3759
xan	-12.3794
▁ooji	-12.3823
sá	-12.3825
▁kuxta	-12.3876
kome	-12.3883
toos	-12.3918
rem	-12.3943
nchak	-12.4005
ayre	-12.4033
▁xinma	-12.4061
jempl	-12.408
▁qatza	-12.4131
lch	-12.4171
▁kos	-12.4181
bal	-12.4204
▁lajo	-12.4225
▁desp	-12.4288
▁Too	-12.4304
▁ajb	-12.4305
▁win	-12.4343
▁nojso	-12.436
▁tintz	-12.4374
kixaq	-12.442
▁suw	-12.4501
▁so	-12.4523
▁tijtaa	-12.4571
oob	-12.4593
nter	-12.46
▁ajcha	-12.4613
▁tro	-12.4617
▁jmu	-12.4648
xiij	-12.4652
pew	-12.4664
▁rit	-12.4665
ijat	-12.4708
nyol	-12.4714
eno	-12.473
▁lijor	-12.4742
ikaq	-12.478
olo	-12.486
qatik	-12.4869
jr	-12.4869
qeje	-12.4877
wini	-12.4899
▁Tit	-12.4944
ntir	-12.4962
▁xent	-12.4962
▁qachó	-12.4972
▁qechi	-12.4977
▁Xqe	-12.5003
tpeet	-12.5023
intoke	-12.5053
▁qako	-12.5059
bwen	-12.506
iso	-12.5098
▁xti	-12.5178
akni	-12.5214
▁maja	-12.5218
tqej	-12.5239
▁tix	-12.5269
uji	-12.5282
kas	-12.5306
▁qasen	-12.5307
▁tuk	-12.5343
▁ali	-12.535
▁sola	-12.5391
wech	-12.5398
chakú	-12.5452
wee	-12.5469
abal	-12.5474
kad	-12.5474
ombre	-12.5486
riy	-12.5526
▁lok	-12.553
riij	-12.5558
▁kiy	-12.5567
▁xsaq	-12.5575
▁ru	-12.5582
sk	-12.5586
▁tat	-12.5599
▁kali	-12.5641
▁tem	-12.5641
atzek	-12.5671
wichooch	-12.5712
epen	-12.5772
▁jchaj	-12.5827
rich	-12.593
▁Mjo	-12.5947
▁kwe	-12.5952
iichaq	-12.5973
jri	-12.6001
▁xokch	-12.6003
kun	-12.6018
penika	-12.6031
uru	-12.6036
▁xpechi	-12.6062
pobri	-12.6067
lajin	-12.6094
abor	-12.6139
jateqa	-12.6181
▁ínch	-12.6182
fo	-12.6188
▁ale	-12.6201
qakuy	-12.6235
▁dye	-12.6277
▁js	-12.6297
▁jwiil	-12.6346
▁wiw	-12.6391
▁bar	-12.641
amas	-12.6421
kafee	-12.6449
sáji	-12.6483
▁pwa	-12.677
▁twi	-12.6823
ijaq	-12.6828
kw	-12.6849
elik	-12.6862
aqi	-12.6872
▁kit	-12.6953
▁tawe	-12.7002
jralaj	-12.7024
ray	-12.7039
▁Tijm	-12.7053
▁xko	-12.7094
▁riik	-12.7094
intaaw	-12.7114
▁chir	-12.7136
olá	-12.7225
▁tqesa	-12.7241
amo	-12.7251
▁kaba	-12.7257
jqa	-12.7281
kyer	-12.731
▁jchapi	-12.7444
▁Tijin	-12.7459
ojel	-12.751
eyin	-12.7606
▁aba	-12.7609
qi	-12.7656
mech	-12.7695
▁raaq	-12.7703
jsii	-12.7709
ojq	-12.7748
tchakun	-12.7753
ert	-12.7846
rsan	-12.7862
atqa	-12.7908
▁kwar	-12.7911
jiil	-12.7944
añ	-12.7968
amta	-12.7977
iglesa	-12.7982
wii	-12.8065
ba	-12.8086
▁tinq	-12.8087
▁inx	-12.8116
rel	-12.8128
▁Mar	-12.8167
Ki	-12.819
yeej	-12.8369
▁qamaa	-12.8416
lmaj	-12.8444
▁jl	-12.8478
niil	-12.8551
▁xka	-12.8566
tnoj	-12.8614
▁oo	-12.8627
inon	-12.8649
ownaq	-12.8655
ida	-12.8659
jq	-12.8732
alt	-12.8746
tije	-12.8758
chiik	-12.8771
pooj	-12.8781
uchaq	-12.8831
eren	-12.886
jol	-12.888
br	-12.894
olk	-12.8964
▁rija	-12.9065
akin	-12.9088
kir	-12.9161
ajw	-12.9206
jori	-12.9232
kola	-12.9331
▁Xijm	-12.9336
lok	-12.9368
chuchu	-12.9448
▁fo	-12.9497
▁pri	-12.9507
ayi	-12.9518
jyook	-12.9526
▁xatw	-12.9534
amaam	-12.9542
inyolow	-12.9548
▁miye	-12.9553
mp	-12.9667
nkoj	-12.9771
▁qama	-12.9781
puwaq	-12.984
lin	-12.9861
▁pat	-12.9936
tkan	-12.994
wiik	-13.007
aamch	-13.0081
ntz	-13.0108
uwil	-13.0148
▁pobri	-13.0166
▁tri	-13.0272
▁jko	-13.0402
jkojoon	-13.0464
resaa	-13.0534
▁tina	-13.0536
▁atq	-13.0581
eri	-13.0673
achó	-13.0728
wet	-13.0793
▁ara	-13.1042
lu	-13.1055
▁bal	-13.1075
uree	-13.1093
áj	-13.1099
ichaj	-13.1132
▁bol	-13.1139
▁xkanj	-13.1319
▁jte	-13.1324
yon	-13.1339
▁up	-13.1452
xpee	-13.1491
qaa	-13.1509
chij	-13.1535
ichaaj	-13.1552
▁tijini	-13.1571
ixóqol	-13.1602
▁piy	-13.1663
▁as	-13.1687
▁ox	-13.1692
xpe	-13.1829
mu	-13.1891
lájk	-13.1942
▁tqan	-13.2026
qel	-13.2109
▁qayol	-13.2157
▁ajs	-13.2228
▁jtzii	-13.2255
▁ina	-13.2383
akot	-13.2394
unabes	-13.2409
jer	-13.2603
▁tuo	-13.2607
nta	-13.2628
tre	-13.2764
tun	-13.2787
▁sew	-13.2861
▁tinto	-13.2898
U	-13.2935
Y	-13.2936
O	-13.2937
W	-13.2938
¿	-13.2939
E	-13.294
C	-13.2941
M	-13.2942
S	-13.2943
L	-13.2944
B	-13.2945
N	-13.2946
R	-13.2947
J	-13.2948
K	-13.2949
X	-13.295
g	-13.2951
P	-13.2952
wiliin	-13.2952
